[ 94124
] 93847
包 57133
鞋 48908
/ 48705
现货 46246
款 44928
小 41629
女 33654
男 33239
新款 30977
版 28571
, 28546
休闲 28218
- 26610
韩 25532
" 24053
大 23413
(@@ 22837
~ 22603
时尚 22404
全新 22197
手 18576
免 18148
简约 17877
可 17590
搭 16156
收纳 15970
日本 15930
的 15500
单 15404
用 15376
多 15292
代购 15015
百 14800
运动 14665
一 14583
nike 14301
裤 14206
短袖 14173
肩 13928
夹 13915
家 13405
上衣 13253
背包 13207
儿童 13162
美 13097
正品 13033
式 12885
运 12855
套 12156
盒 12092
套装 12036
手机 12027
) 12020
防 11719
长 11579
* 11513
三 11469
+ 11403
斜 11367
t恤 11235
外套 11161
超 11032
白 10959
全 10933
创意 10821
架 10813
色 10774
红 10679
风 10676
男士 10661
复古 10620
经典 10587
新 10516
学生 10504
潮 10500
网 10467
机 10412
韩国 10353
黑 10327
系列 10179
高 10178
情侣 10115
蓝 10081
柜 10017
二手 9831
带 9758
adidas 9615
组 9562
台湾 9433
壳 9414
2 9327
潮流 9245
夏季 9152
黑色 9147
! 9143
品 9140
贴 9088
件 9084
中 9072
袋 8903
帽 8880
卡 8651
表 8634
可爱 8580
现代 8493
功能 8401
短 8386
防水 8324
客厅 8283
灯 8282
/@@ 8266
日 8119
手表 8102
. 8097
爱 7944
特价 7885
不 7862
"@@ 7721
裙 7664
衣 7658
宝宝 7608
1 7587
女鞋 7587
水 7537
纹 7527
家用 7524
ml 7500
玩具 7462
#@@ 7392
车 7391
3 7359
卧室 7303
丝 7297
人 7237
air 7229
lv 7229
头 7206
垫 7171
双 7162
花 7129
精品 6979
装 6965
宽松 6960
北欧 6931
运动鞋 6916
原 6880
长袖 6825
椅 6807
棉 6734
金 6719
木 6715
透气 6669
牌 6647
牛皮 6625
gucci 6581
置 6565
床 6525
挂 6525
两 6451
扣 6369
型 6368
美国 6338
纯棉 6325
正 6314
板 6310
杯 6269
加厚 6069
-@@ 6063
慢跑 6060
物 6030
专用 5990
侧 5946
耳环 5931
不锈钢 5857
层 5807
送 5799
猫 5791
.@@ 5777
码 5757
洋装 5708
女士 5696
宝 5692
代 5661
古 5660
4 5656
桌 5646
线 5625
货 5587
造型 5574
男女 5564
真皮 5558
同 5546
汽车 5525
后 5511
显 5498
沙发 5487
粉 5444
个性 5443
系 5435
短裤 5430
装饰 5411
有 5382
秋 5378
包包 5375
箱 5373
t 5368
实 5338
乐 5328
玻璃 5319
无 5297
印花 5295
爆 5269
厨房 5264
片 5253
下 5246
格 5239
拖鞋 5225
四 5220
饰 5217
元 5212
用品 5188
手提包 5162
钱包 5160
5 5146
x 5134
瘦 5133
书 5131
10 5123
新品 5118
蕾 5090
正版 5053
礼物 5042
洗 5038
吊 5028
迷你 5025
保 5024
折 5013
物架 4941
入 4940
卡通 4933
冬 4920
王 4909
上 4901
ins 4897
袖 4873
夏 4837
预购 4835
米 4831
女生 4825
号 4814
修身 4788
二 4776
白色 4731
100 4729
背心 4723
圆领 4710
台 4699
衬衫 4688
发 4682
服 4678
店 4672
面 4652
热卖 4598
便 4596
户外 4591
布 4583
# 4578
皮 4568
制 4561
2020 4531
实拍 4521
6 4501
性感 4477
厂 4461
笔 4456
充电 4417
之 4401
限定 4378
男生 4369
分 4363
热销 4355
电 4336
好 4324
小@@ 4284
钻 4253
组合 4252
家居 4247
保护 4238
生活 4235
气质 4225
长裤 4225
连 4218
子 4203
2019 4192
logo 4189
娃娃 4189
拿 4180
拉链 4178
电脑 4177
商务 4161
折叠 4138
杀 4137
牛仔 4135
简易 4131
刷 4123
出清 4116
针织 4108
香 4089
婴儿 4076
跑步 4071
透明 4071
内 4025
口 4006
背 4002
衣服 4002
手工 3998
狗 3994
盘 3974
出货 3965
欧 3952
容量 3919
附 3895
进口 3893
公司 3886
神器 3868
油 3863
皮带 3858
薄 3850
耳 3840
腰 3824
满 3817
通用 3807
懒人 3806
』 3798
胶 3795
『 3791
苹果 3777
2017 3771
耐 3753
馆 3753
max 3749
盖 3740
光 3736
马 3735
黑白 3735
舒适 3726
绿 3712
化妆 3694
8 3675
coach 3653
12 3652
贴纸 3642
30 3640
成人 3635
湿 3623
棒 3617
: 3610
游戏 3588
毛 3586
led 3584
脚 3584
提 3547
字 3537
防滑 3537
球 3534
香水 3524
耳机 3509
储 3505
边 3501
金属 3496
2018 3494
设计 3484
t@@ 3482
编织 3478
chanel 3473
限量 3461
袜 3459
篮球 3457
软 3445
专柜 3440
镜 3434
公仔 3428
霜 3425
无线 3424
电动 3423
买 3397
五 3394
眼镜 3389
项链 3388
熊 3371
居家 3354
吉 3353
小型 3350
迪达 3336
配件 3329
凉鞋 3321
饰品 3309
玫瑰 3290
必备 3287
9 3284
保暖 3277
茶 3242
大@@ 3241
银 3235
条 3233
个 3231
挎包 3223
优 3221
7 3207
穿 3195
迪士尼 3185
携 3183
驰 3182
轻 3171
购 3160
气垫 3146
商品 3142
你 3127
支架 3118
> 3098
挎 3079
防晒 3072
液 3069
龙 3060
摆件 3058
刺绣 3051
卫 3045
春 3044
? 3038
女装 3036
宠物 3029
茶几 3008
下标 3006
黄 3005
条纹 2997
腕 2996
客 2987
欧式 2982
天然 2978
女童 2975
迪 2969
绳 2964
s@@ 2959
旅行 2950
情趣 2944
☆@@ 2931
s 2919
拉 2918
铁 2918
保护套 2913
连衣裙 2908
限时 2905
diy 2903
cm 2899
半 2896
水晶 2891
x@@ 2889
立体 2884
工具 2883
11 2881
欧美 2881
成 2880
眼 2876
m@@ 2875
瓶 2875
护 2874
蛋 2874
本 2871
最 2869
纸 2866
奇 2860
牙 2858
直 2856
20 2855
年 2851
心 2851
iphone 2845
底 2837
卖场 2833
开 2830
牛仔裤 2828
摔 2811
冰 2809
pro 2805
清新 2803
手链 2795
器 2783
含 2765
与 2756
_ 2753
香奈儿 2746
a 2745
连身 2745
g@@ 2744
下单 2740
选 2736
公主 2734
寸 2734
皮革 2726
墙 2715
e@@ 2706
户型 2704
内衣 2699
链条 2692
a@@ 2689
纯 2682
优惠 2675
50 2674
c@@ 2674
纯银 2669
模型 2666
宽 2662
8@@ 2661
宿舍 2656
跟 2651
咖啡 2650
大号 2650
方 2642
少女 2633
压 2629
5@@ 2621
红色 2619
亮 2608
字母 2604
前 2600
f@@ 2579
标 2568
7@@ 2565
_@@ 2563
圈 2550
珍珠 2543
品质 2542
陶瓷 2542
假 2540
门 2538
框 2537
usb 2529
屋 2529
plus 2527
］ 2517
d@@ 2516
蓝色 2515
b@@ 2499
特 2495
帮 2494
浴室 2492
钉 2489
6@@ 2477
自动 2476
速 2470
跑鞋 2465
桶 2458
零钱 2458
轮 2448
天 2443
15 2442
地 2442
枕 2437
细 2435
室内 2431
罩 2429
9@@ 2426
两用 2426
童 2424
粉色 2416
和 2413
家具 2411
刀 2405
拼接 2405
凳 2403
兔 2401
外 2401
艺 2400
露 2400
自 2381
k@@ 2378
领 2377
梦 2370
甲 2363
巴 2356
胸 2352
皮夹 2348
［ 2337
快速 2336
18 2335
m 2334
画 2333
低 2331
双人 2331
3@@ 2323
灰 2321
4@@ 2319
罐 2307
高腰 2304
我 2302
kitty 2298
2@@ 2290
路易威登 2290
适用 2274
珠 2268
g 2263
联名 2263
锅 2261
配 2252
定制 2251
夜 2249
落地 2249
圆 2248
品牌 2247
健身 2239
内裤 2239
干 2222
碗 2221
回 2211
c 2210
岁 2210
区 2206
出 2201
促销 2198
感 2198
卫生间 2193
双层 2193
坠 2193
沙滩 2189
毛衣 2184
专业 2182
智能 2181
精华 2181
短t 2180
帆布 2179
蝴蝶结 2179
作 2177
吊带 2174
周边 2167
雪纺 2167
面膜 2167
对 2161
厚底 2159
拆 2159
阳台 2158
角 2152
质 2150
空 2143
星 2139
批发 2133
钢 2133
淡 2131
张 2129
未 2129
jordan 2125
桌面 2125
童装 2123
i@@ 2121
餐厅 2121
w@@ 2119
动漫 2116
拍 2115
纯色 2114
单人 2112
拼 2110
new 2109
七 2109
铺 2107
0@@ 2104
v@@ 2104
礼盒 2102
桌子 2100
迷 2089
音 2072
特惠 2071
10@@ 2068
只 2068
打底 2067
椅子 2061
点 2060
n@@ 2057
电池 2055
＊ 2055
专属 2053
h@@ 2048
着 2043
塑料 2041
克 2038
200 2035
座 2032
运费 2025
按摩 2024
☆ 2016
尺码 2013
弹 2013
冬季 2011
2016 2010
售 2003
美式 2003
真 2002
补 2002
架子 2000
杆 1997
l@@ 1993
彩色 1986
★@@ 1981
尺 1976
鱼 1975
皮套 1973
办公 1972
跨 1972
加 1970
卷 1969
电视 1969
石英 1968
办公室 1962
布艺 1961
mm 1952
p@@ 1941
l 1939
彩 1932
19 1931
月 1930
16 1928
石 1928
12@@ 1927
清洁 1926
*@@ 1925
抽 1924
弹力 1921
绑带 1919
金@@ 1917
价 1907
生 1905
篮 1905
德国 1901
口袋 1897
&@@ 1892
手环 1892
水@@ 1890
链 1889
burberry 1886
太阳 1886
撞 1885
车载 1885
纱 1884
插 1882
金色 1882
三叶草 1880
猫咪 1876
极 1872
mk 1869
力 1865
斯 1865
双面 1864
u@@ 1863
the 1861
礼 1861
锁 1859
500 1858
< 1857
格子 1855
随身 1854
michael 1853
小米 1852
质感 1850
快 1848
体 1845
日式 1845
材料 1844
电源 1841
圆形 1840
相机 1836
公分 1833
达 1832
爱心 1829
书桌 1826
(现货) 1824
静音 1820
动物 1819
六 1818
双肩包 1808
机械 1806
百货 1806
1@@ 1804
腿 1803
24 1802
束 1800
吸 1794
明星 1794
飞 1794
钱夹 1787
w 1786
腰带 1784
花@@ 1783
非 1780
耐克 1778
学院 1776
b 1775
原装 1770
60 1769
300 1768
女孩 1762
i 1760
y@@ 1759
17 1756
卡@@ 1756
z@@ 1754
+@@ 1752
卖 1751
% 1750
q@@ 1750
戒指 1748
r@@ 1741
去 1741
生日 1736
矽胶 1734
紫 1732
kors 1727
米奇 1727
20@@ 1726
餐桌 1726
帆布鞋 1725
风扇 1721
925 1718
超薄 1717
清 1715
镂空 1715
雅 1711
种 1708
勾 1707
整理 1706
80 1705
抗 1699
推荐 1693
3d 1690
★ 1690
风格 1690
安 1687
海贼 1687
雾 1686
平 1685
安全 1681
防尘 1668
盆 1663
充 1660
男童 1659
转 1655
礼品 1653
13 1652
万 1651
环保 1651
电子 1651
小舖 1649
睡衣 1644
boost 1639
手套 1638
平底 1634
华 1629
来 1624
书架 1623
奢 1621
英伦 1611
绣 1610
控 1609
玩 1609
o@@ 1606
增高 1606
秋季 1602
餐 1600
零 1598
厚 1597
推 1591
文 1590
90 1588
灰色 1588
伸缩 1586
玄关 1584
利 1581
16@@ 1578
13@@ 1577
秒 1577
立 1575
14 1574
精 1574
& 1571
ck 1569
林 1568
滤 1568
25 1567
短款 1560
黑@@ 1560
mini 1558
到 1558
帽子 1556
机车 1556
学习 1555
衣柜 1554
支 1553
轻便 1552
全自动 1551
白@@ 1549
加大 1548
唇膏 1548
抱枕 1547
11@@ 1544
精致 1544
管 1542
钥匙 1541
流苏 1540
d 1538
puma 1537
书包 1536
墨镜 1536
hello 1533
海 1532
制造 1530
春秋 1529
裤子 1529
慢 1525
40 1524
蜜 1524
喷雾 1523
甜美 1523
展示 1520
合 1516
美@@ 1516
@@@ 1515
壁挂 1514
伞 1513
雪 1512
包@@ 1510
顶级 1509
订 1508
排 1506
芽 1505
围巾 1504
全馆 1502
15@@ 1501
千 1501
n 1500
行 1499
经济型 1498
拖 1496
孔 1494
v 1490
战 1490
baby 1489
尺寸 1489
是 1488
鞋子 1487
抓 1486
男装 1485
louis 1484
originals 1483
v领 1483
u 1481
防风 1480
香港 1479
材质 1477
请 1477
叶 1473
财 1473
30@@ 1472
厂家 1472
微 1472
蛋糕 1470
19@@ 1469
阿 1468
收 1466
针 1466
固 1464
票 1464
环 1463
dior 1458
英国 1458
世界 1456
剂 1456
耐磨 1454
被 1454
限 1450
18@@ 1449
大学 1448
ysl 1442
炉 1442
台式 1440
森 1439
脸 1438
印 1437
房 1437
招 1437
训练 1437
夏天 1431
春季 1430
北 1429
碎 1429
包装 1428
在 1426
器@@ 1425
图 1425
一@@ 1424
猪 1423
红@@ 1423
团 1421
气 1421
具 1420
哥 1418
奶 1417
14@@ 1416
丽 1416
tee 1415
小熊 1413
吋@@ 1412
笔记本 1411
晶 1408
玩偶 1404
西装 1403
armani 1402
j@@ 1402
喇叭 1401
漆 1400
热 1399
仿真 1398
钢化 1398
夏装 1397
36@@ 1394
小孩 1394
轻量 1392
40@@ 1390
粗 1388
打孔 1386
00@@ 1384
洁 1383
次 1382
ultra 1379
亚 1378
度 1378
vuitton 1377
水果 1377
衣架 1375
$@@ 1373
^ 1371
50@@ 1369
直销 1368
车用 1367
dvd 1365
中@@ 1364
神 1363
图案 1362
泰国 1362
风衣 1362
打 1361
餐具 1359
床头 1358
100% 1357
法国 1357
都 1357
钥匙圈 1357
海外 1356
儿 1354
九 1353
火 1353
购物 1352
旋转 1351
四季 1350
柜子 1349
反光 1348
60@@ 1344
e 1344
粉红 1344
圣诞 1341
福 1340
塑胶 1337
镶 1335
几 1334
佛 1333
植物 1332
抖 1331
妈妈 1330
宝莉 1330
绘 1328
菱 1327
素 1325
棉麻 1324
翻盖 1324
三星 1322
会 1322
水钻 1322
酒 1321
25@@ 1320
k 1320
贝壳 1317
304 1315
仪 1315
魔 1315
便宜 1311
加绒 1311
坐 1311
f 1308
性 1305
羊皮 1305
集 1304
小号 1303
情人节 1303
浴 1303
活 1302
润 1300
balance 1298
子@@ 1297
携式 1296
铜 1296
one 1293
老 1293
钱 1292
妈咪 1289
陈 1288
礼服 1284
保温 1281
24@@ 1279
无袖 1278
刮 1277
空气 1275
臀 1273
鬼 1270
17@@ 1269
东 1269
改装 1268
行动 1268
佳 1267
德 1267
官方 1266
莉 1266
起 1265
全场 1264
吊灯 1263
透 1263
1000 1261
80@@ 1261
品@@ 1261
木质 1261
风@@ 1261
仿 1260
70@@ 1258
沐浴 1258
游 1258
滑板 1258
扭 1256
泡泡 1255
水桶 1254
萌 1253
八 1250
宅 1250
胶带 1245
90@@ 1242
袜子 1242
阿玛尼 1239
草 1238
波 1237
音乐 1237
泳衣 1236
优质 1235
女性 1235
罗 1235
hermes 1233
sony 1233
水杯 1231
积木 1230
星星 1227
玉 1227
保证 1226
圣 1225
学 1224
配色 1222
持久 1219
手@@ 1218
模 1218
糖 1216
颜 1215
无痕 1214
零食 1211
孩 1210
绝版 1210
服装 1209
硅胶 1209
浅 1208
36 1205
味 1205
迷彩 1204
芯 1202
阿@@ 1202
水壶 1201
素面 1200
高@@ 1200
35@@ 1199
李 1199
烤 1197
肩带 1197
英文 1197
魔法 1197
shop 1196
麂皮 1196
眼影 1195
粘 1195
糖果 1195
绿色 1195
prada 1192
原宿 1191
艾 1191
中式 1189
尼 1186
特卖 1186
花朵 1186
遮 1184
青年 1183
活动 1181
孕妇 1178
化 1176
生日礼物 1176
实用 1175
精油 1175
150 1173
赠 1173
可折叠 1172
r 1171
牛 1169
路 1169
鸟 1169
38@@ 1167
弹性 1167
比 1166
机壳 1165
pvc 1163
泡 1163
国际 1161
天@@ 1161
级 1161
办 1160
球鞋 1160
铝合金 1160
素色 1159
工作 1158
新@@ 1158
老爹 1158
奥 1156
毛巾 1156
香@@ 1156
烫 1154
自行车 1153
荔枝 1152
手书 1151
套头 1150
巴黎 1150
威 1149
软壳 1148
窗 1147
者 1146
睡 1145
道具 1145
柔软 1144
移动 1144
21 1143
净 1140
枕头 1139
腰包 1139
膜 1139
青 1139
工业 1138
电脑桌 1138
全套 1133
o 1132
山 1132
-0@@ 1131
优雅 1131
共 1130
布@@ 1130
证 1130
等 1129
nmd 1128
舒 1128
zoom 1127
欧洲 1127
p 1125
star 1125
修 1125
32@@ 1121
尾 1121
机@@ 1121
直播 1120
平板 1117
伦 1115
空调 1112
老花 1111
隐形 1111
装饰品 1108
重 1108
果 1107
h 1106
无@@ 1106
取 1103
国 1103
拉@@ 1102
女神 1101
强力 1101
颗 1100
裙子 1098
长裙 1098
坊 1097
盒装 1096
麦 1096
斯@@ 1095
流行 1092
代理 1091
港 1090
美容 1089
32 1088
oppo 1088
购物袋 1086
= 1082
polo衫 1082
发@@ 1082
婚礼 1080
桌椅 1076
尚 1074
音响 1074
法 1073
田 1073
萤幕 1072
磨 1071
遥控 1071
夹克 1070
滑 1070
靠背 1069
樱花 1068
蚊 1068
酒店 1068
碟 1067
亲子 1066
电@@ 1066
apple 1065
漫画 1065
街 1063
挂件 1062
食 1062
木@@ 1060
空间 1060
站 1060
除 1060
22@@ 1054
lego 1054
asus 1053
短裙 1051
约 1051
凯 1048
坐垫 1048
文具 1048
彩虹 1047
三角 1046
@ 1045
乐@@ 1045
毛绒 1045
长@@ 1045
深蓝 1041
史 1040
磨砂 1040
z 1039
换 1038
料 1038
超级 1038
55@@ 1037
vans 1037
菜 1035
牙刷 1034
饼干 1033
-2@@ 1031
宝贝 1031
粒 1031
十 1028
放 1027
converse 1026
高档 1026
兰 1025
发饰 1025
华为 1024
变 1024
尼龙 1022
for 1020
系带 1020
效 1019
怪 1018
钻石 1017
商用 1015
｜ 1014
车@@ 1013
秀 1011
鸡 1010
角落 1008
五金 1005
充气 1005
翻领 1005
能 1005
餐椅 1005
samsung 1002
景 1002
皮鞋 1000
树 999
茶具 999
88@@ 998
心@@ 998
人@@ 997
供应 997
高筒 997
350 996
flyknit 996
扇 996
炼 995
原创 994
凉 991
单@@ 991
75@@ 990
通 990
洋气 989
海@@ 987
版) 987
艺术 987
阿迪达斯 987
拉杆 985
旧 985
长方形 985
闪 984
豆豆 982
饼 982
做 981
易 981
就 979
70 978
枪 978
版@@ 978
│@@ 974
大理石 973
皮@@ 973
35 972
座椅 972
计时 972
26 970
versace 968
不@@ 968
已 967
casio 966
光@@ 966
干燥 966
1.5 965
口罩 965
宝@@ 964
行李箱 964
中国 963
吃 963
女@@ 963
时 963
派对 963
可@@ 962
贝 962
发夹 959
卡片 958
街头 958
跑 958
多色 957
force 956
西 956
豆 956
戴 955
26@@ 954
手提 954
壁 953
巧克力 953
柔 953
／ 953
400 952
]@@ 951
中文版 951
泰 951
洋 951
紫色 951
高跟鞋 951
棒球帽 950
紫外线 950
国@@ 949
米@@ 949
舞 947
动 946
特@@ 945
省 945
胖 945
键盘 945
充电器 944
包邮 944
背带 943
房间 942
母 942
ar@@ 941
蝴蝶 941
露营 941
剪 940
小脚 940
尖头 939
进 939
益智 937
书房 936
""" 935
乔丹 935
冰箱 935
升降 935
组装 935
全@@ 934
吋 933
冷 932
款@@ 932
supreme 931
口红 930
爱@@ 930
镜子 930
哈 929
女包 928
款) 925
童鞋 925
露肩 925
浪漫 924
思 923
明 923
小说 921
夏日 920
入) 919
书柜 918
青少年 918
三@@ 917
3m 916
fendi 916
收藏 916
授权 914
道 914
钓鱼 914
黄色 914
22 913
商 913
表带 913
连体 912
28@@ 911
台灯 911
银色 911
手包 910
23 909
致 908
面包 908
gg 906
另 905
结婚 905
搭配 903
窗帘 903
身 903
厕所 902
-3@@ 901
37@@ 901
周年 901
家@@ 901
凳子 900
摩托车 900
登 899
把 897
基本 896
泳装 895
串 894
芬 894
得 893
烘焙 893
拼图 892
超人 892
托 891
档 890
简 890
初学者 888
康 887
自然 887
米妮 886
饮 885
流 883
化妆品 882
工 882
旅游 881
朵 881
34@@ 880
少年 880
持 880
㊣@@ 879
了 879
便当 879
里 879
\n 878
一字 878
0 877
乳@@ 877
克@@ 877
97 876
嘴 876
杯子 876
梳妆台 876
合金 874
盒子 874
马@@ 874
双色 873
季 873
钩 873
bb 871
夜光 870
挂钩 870
| 869
吧台 869
灯具 869
飞机 869
登山 868
范 868
超@@ 868
y 867
修护 867
深 867
相 867
虎 866
超大 865
连线 865
pp 864
镜头 864
乔 863
28 861
85 861
cd 860
粉底 860
disney 856
堂 856
托特 856
赏 856
乳 854
魔术 853
强 852
衬衣 852
初 851
安全帽 850
xs 849
减 849
塑 848
布置 848
杂货 848
骑士 848
go 847
健康 847
海报 847
真品 846
ps4 845
头@@ 845
手镯 845
油@@ 845
间 845
mi@@ 844
航海 844
订制 844
太阳镜 843
外出 842
色) 842
喷 841
600 840
切 840
生物 839
军 837
劲 836
马桶 836
polo 835
色@@ 835
吧 834
re@@ 833
义 833
骑 833
智慧 832
衣@@ 832
转卖 832
点点 830
安卓 829
最新 829
-4@@ 828
九分 828
衣物 828
衫@@ 828
上@@ 827
拍照 826
形 824
上市 823
保鲜 823
完美 823
虾皮 823
丹 822
段 822
颜色 822
's 821
平底鞋 821
圣诞节 820
复 820
破 820
范思哲 819
on 818
遮阳 818
65@@ 817
大衣 817
妹 817
彩绘 817
膏 817
45@@ 816
鞋架 815
仙女 814
交叉 813
翻 813
(附 811
数位 811
独家 811
紧 811
足 811
99 810
神@@ 810
走 810
斗 809
95 808
360 806
love 806
床头柜 806
高端 806
发货 805
地毯 804
短靴 803
半身 801
塔 801
27@@ 800
方形 800
海绵 800
变频 799
纸巾 799
严 798
多@@ 795
几何 794
隔断 794
密封 793
折扣 793
cos 792
德@@ 792
文艺 792
草莓 792
幼儿 791
近 791
la 790
洗澡 790
松紧 789
胡 788
戒 786
│ 785
家庭 785
铅笔 785
队 785
250 784
htc 784
亚@@ 784
看 784
神奇宝贝 784
3c 783
摄影 783
三色 782
兔子 782
奢华 781
披肩 781
cc 780
摆 780
麦克风 780
装饰画 779
擦 778
雨 778
位 777
立式 777
竹 777
志 776
服饰 776
阔 776
模具 775
卫衣 774
ml@@ 773
直筒 773
绒毛 773
钢带 773
co@@ 772
low 772
switch 772
超值 772
yeezy 771
吸管 771
抱 770
感应 769
购买 769
le@@ 768
刘 768
罗兰 768
靠垫 768
双@@ 767
真空 767
23@@ 766
and 766
mo@@ 766
窄 766
冲 765
抽屉 765
文@@ 765
格@@ 765
科技 765
万用 763
24h 762
伊 762
娃 761
城 760
精灵 760
45 759
in@@ 759
64@@ 758
山@@ 757
睫毛 757
送礼 756
7-11 755
af 755
泥 755
部 755
多肉 754
漫 753
文化 752
酒吧 752
飘 751
as@@ 749
烧 749
[@@ 748
双肩 748
普拉达 748
雅@@ 748
先生 747
安@@ 747
羊毛 747
创 746
剑 746
官 746
梦幻 746
法式 746
漾 746
1-@@ 745
内@@ 745
紧身 745
沙 743
中性 741
掌 741
瑜伽 741
an@@ 740
凡 740
大型 740
笼 740
高级 740
乐器 739
全身 739
新娘 739
梳 739
倍 738
竞 738
黄金 738
33@@ 737
册 737
幼儿园 737
欧风 737
恐龙 736
办公桌 735
立领 735
q 734
公 734
尔@@ 734
彪 734
开关 732
现 732
衫 732
处 731
陶 731
} 730
生@@ 730
慕 729
老@@ 729
要 729
海洋 728
柱 727
榻榻米 727
{ 726
发光 726
小学生 726
隔热 726
后背 725
run 724
使用 724
33 723
制作 723
男子 723
固定 722
艾@@ 722
叠 721
s-@@ 720
种子 720
莎 720
to@@ 719
洗衣机 719
良 719
门口 719
东京 718
精选 718
华@@ 716
日常 716
清仓 714
徽章 713
偶 712
me@@ 711
椰子 711
羊 711
kl 710
仙 710
刺 710
款式 710
香氛 709
掀 708
卡西欧 707
硕 707
in 706
于 706
柠檬 706
洗发精 706
照片 706
装@@ 706
38 705
乳液 705
分@@ 704
制@@ 704
all 703
围 703
必 703
男性 703
(全新) 702
章 702
量 702
分装 701
番 701
31 700
原价 700
吸顶灯 700
器材 700
第一 700
虾 700
七龙珠 699
垂 699
期 699
渔夫 699
面@@ 699
手动 698
比基尼 698
开@@ 697
(二手) 696
保养 696
刻 696
定 696
涂鸦 696
灭 696
师 695
数 695
48 694
嘻哈 694
缩 694
宁 693
居 693
床垫 693
电影 693
(现货 692
安装 692
44@@ 691
台北 691
完 690
手提袋 690
棒球 690
森林 690
西@@ 690
bts 689
茶@@ 689
雪花 689
食品 689
印章 688
购入 688
34 687
墙壁 687
指 687
$ 686
剪刀 686
加@@ 686
暖 686
联 686
针织衫 685
by 684
桃 684
99@@ 683
工厂 683
帅气 683
设计师 683
利@@ 682
拉拉 682
数字 682
ipad 681
运@@ 681
震动 681
黄@@ 681
ac@@ 680
橡胶 680
竿 680
螺丝 680
龙@@ 680
松 679
过 679
骨 679
j 678
吉@@ 678
果冻 678
29@@ 677
xl 677
交换 677
写字 677
名媛 677
园 677
机能 677
三件 676
墙面 676
开发 676
美妆 676
肉 676
谷 676
700 675
周 675
标准 675
沥水 675
蛇 675
万圣节 674
垃圾桶 674
gb 673
耳针 673
旅行包 672
蓝@@ 671
墙上 670
新生儿 670
游泳 670
-- 669
88 669
冷气 669
武士 669
史努比 668
太 668
小童 668
田园 668
罗@@ 668
(良好) 667
2.0 667
牛奶 667
1/@@ 666
110 666
se 666
南 666
铁@@ 666
澳洲 665
秋装 665
顶 665
高跟 665
101 664
li@@ 664
公文包 664
滋润 664
理 664
al@@ 663
也 663
优选 663
低筒 663
单车 662
鸭舌帽 662
名 661
名牌 661
天使 661
敏 661
de@@ 660
kg 660
之@@ 660
二@@ 660
植 660
毛孔 660
网布 660
茶杯 660
bb@@ 659
云 659
吸水 659
英雄 659
// 658
主机 658
书@@ 658
劳力士 658
手袋 658
智 658
清@@ 658
磁铁 658
尔 657
阁 657
店铺 656
怪兽 656
摆饰 656
有@@ 656
液晶 655
调 655
防护 655
a字 654
ba@@ 654
士 654
携带 654
破洞 654
窝 654
xr 653
亮片 653
加长 653
奶瓶 653
粉饼 653
27 652
t恤@@ 652
罗马 652
时钟 651
二代 650
cm) 649
健 649
垫子 649
大气 649
及 648
战士 648
蒸 648
s925 647
再 647
男@@ 647
青春 647
渐 646
硬 646
cm@@ 645
※@@ 645
可调 645
挂钟 645
粉@@ 645
(2 644
t-@@ 644
岛 644
规则 644
01 643
of 643
小姐 643
纪念 643
背景墙 642
遮阳帽 642
1/2 641
er@@ 641
香精 641
white 640
先 640
床单 640
黑红 640
歌 639
pro@@ 638
发带 638
小巧 638
婴幼儿 637
小时 637
帽t 637
66@@ 636
女款 635
｜@@ 635
聊聊 634
蜡烛 634
衣着 634
85@@ 633
星空 633
柄 633
用@@ 633
线@@ 633
羽绒 633
(含 632
制服 632
吹 632
简单 632
背景 632
花园 632
钢圈 632
钥匙扣 632
black 631
丽@@ 631
外@@ 631
衣橱 631
防弹 631
6s 630
帐 630
莫 630
运) 630
am@@ 629
st@@ 629
基 627
帆 627
很 627
教 627
no.@@ 626
卸妆 626
琳 626
野 626
民族 625
男用 625
专辑 624
出版 624
给 624
专 622
版百 622
询问 622
降价 622
39@@ 621
^@@ 621
nb 621
保温杯 621
罩衫 621
邮差 621
at@@ 620
中文 620
早 620
79 619
音箱 619
子女 618
鳄鱼 618
(可 617
彩@@ 617
步 617
潮@@ 617
ua 616
3-@@ 615
丝@@ 615
太空 615
奇@@ 615
宫 615
幸福 615
毯 615
科 615
纹身 615
雨伞 615
nba 614
英 614
趴 614
附发 614
零件 614
槽 613
维尼 613
门帘 613
se@@ 612
首饰 612
37 611
chic 611
机器人 611
妈 610
组@@ 609
2020年 608
ma@@ 608
me 608
总动员 608
拆封 608
第二 608
薇 608
记 608
当 606
雷 606
角色 605
47@@ 604
室 604
39 603
ss 603
摆设 603
柏 603
鹿 603
1) 602
底座 602
玉@@ 602
凝胶 600
遮光 600
tomica 599
欢迎 599
鞋@@ 599
信封 598
声 598
星巴克 598
果汁 598
荷叶 598
house 597
下@@ 597
主 597
喜 597
打@@ 597
犬@@ 597
120 596
维修 596
膜@@ 596
茶壶 596
酷@@ 596
抗菌 595
护理 595
日历 595
镜面 595
本@@ 594
绑 594
踢 594
青@@ 594
la@@ 593
to 593
under 593
可以 593
汗 593
珠宝 593
125 592
76@@ 592
wmns 592
修复 592
抽屉式 592
小店 591
(全新 590
classic 590
帐篷 590
皱 590
老人 590
偏光 589
饭 589
uv 588
税 588
肌@@ 588
诱惑 588
壁灯 587
毛线 587
贝@@ 587
9h 586
洛 586
杂志 585
球衣 584
瑞 584
ko@@ 583
水龙头 583
gap 582
75 581
台中 581
毛呢 581
五@@ 580
出@@ 580
包) 580
壶 580
奶油 580
屁衣 580
翡翠 580
108 579
の@@ 579
止 579
筒@@ 579
雨衣 579
靠枕 579
002 578
bag 578
no@@ 578
吸盘 578
床边 578
指甲 578
气@@ 578
ml) 577
● 577
世家 577
升 577
挂衣 577
火@@ 577
班 577
调节 577
高领 577
5/@@ 576
染 576
皂 576
头饰 575
麋鹿 575
us@@ 574
功夫 574
塞 574
富 574
根 574
浴巾 574
银@@ 574
m号 573
superstar 573
婚纱 573
巴@@ 573
鼠 573
专区 572
娜 572
林@@ 572
隔离 572
120@@ 571
温 571
香风 571
拍摄 570
材 570
42 569
碳纤维 569
胶囊 569
29 568
麻 568
og 567
妆@@ 567
比@@ 567
船 567
92@@ 566
city 566
灯@@ 566
绒@@ 566
a-@@ 565
mm@@ 565
方便 565
直送 565
砂 565
类 565
精美 565
萤光 565
<@@ 564
牛津 564
电镀 564
花束 564
躺椅 564
巾@@ 563
排汗 563
皮质 563
缘 563
200@@ 562
galaxy 562
开衫 562
汤 562
48@@ 561
微波炉 561
度假 560
77@@ 559
咖啡厅 559
宝石 559
服装店 559
armour 558
最爱 558
改 557
玛@@ 557
甘 557
bv 556
mk@@ 556
典 556
午睡 556
友 556
樱桃 556
民 556
迪@@ 556
ch@@ 555
|@@ 555
跳 555
毛@@ 554
65 553
free 553
wifi 553
王@@ 553
益 553
资料 553
身体 553
reebok 552
专卖店 552
瑞士 552
聚拢 552
肚 552
打底衫 551
高雄 551
の 550
实体 550
情 550
接 550
法@@ 550
花边 550
4-@@ 549
bf 549
公斤 549
惠 549
文胸 549
波@@ 549
7-@@ 548
si@@ 548
村 548
源 548
肤@@ 548
向 547
联盟 547
cosplay 546
po@@ 546
一次性 546
凝 546
耳饰 546
被套 546
饮料 546
吴 545
100@@ 544
\@@ 544
en@@ 544
享 544
平安 544
新年 544
面交 544
57@@ 543
寄 543
松糕 543
3.5 542
pu 542
ro@@ 542
场 542
纤维 542
花卉 542
菲 542
58@@ 541
伊@@ 541
原版 541
吸尘器 541
平衡 541
手推车 541
日@@ 541
疗 541
表@@ 541
锭 540
妮 539
防潮 539
乡村 538
靠 538
魂 538
写真 537
巾 537
棉@@ 537
欧@@ 537
泡沫 537
220v 536
为 536
余 535
合@@ 535
2-@@ 534
6/@@ 534
ii 534
巧 534
斤 534
煮 534
自由 534
赛 534
95@@ 533
98@@ 533
爆米花 533
绿@@ 533
蜜蜂 533
被子 533
随机 533
尼@@ 532
纳 532
靴@@ 532
--@@ 531
64 531
g) 531
le 531
tory 531
双g 531
口味 531
明@@ 531
洗漱 531
滴 531
补充 531
记忆 531
铆钉 531
电动车 530
花架 530
180 529
君 529
挡 529
男鞋 529
诗 529
钟表 529
be@@ 528
冠军 528
女用 528
旗舰店 528
派 528
节 528
后@@ 527
桌上 527
calvin 526
丝绒 526
野餐 526
露背 526
偶像 525
盆栽 525
赞 525
ai@@ 524
airpods 524
bmw 524
}@@ 524
梅 524
压花 523
春装 523
雪@@ 523
3/@@ 522
55 522
ce@@ 522
明信片 522
砖 522
诺 522
奶嘴 521
趣 521
mit 520
壁画 520
普@@ 520
杰 520
舖@@ 520
dw 519
容 519
44 518
5-@@ 518
古@@ 518
四@@ 518
经 518
综合 518
鱼@@ 518
黛 518
001 517
78@@ 517
反 517
奶茶 517
川 517
表盘 517
sp@@ 516
一个 516
型号: 516
恋 516
按摩器 516
白金 516
缅甸 516
黑灰 516
ri@@ 515
66 514
银针 514
正@@ 513
适合 513
龙头 513
6-@@ 512
客订 512
料理 512
旗 512
照 512
smith 511
兴 511
平@@ 511
空运 511
三合一 510
啦 510
缝 510
躺 510
锂 510
驱 510
su@@ 509
口@@ 509
赛车 508
酵素 508
马甲 508
line 507
嘉 507
夹子 507
星@@ 507
特别 507
轻薄 507
饲料 507
!! 506
1.2 506
图腾 506
权 506
装备 506
酥 506
古典 505
女式 505
马仕 505
02 504
包头 504
池 504
c-@@ 503
司 503
大师 503
气球 503
灯饰 503
美丽 503
阳 503
68@@ 502
a4 502
· 502
胜 502
莱 502
'@@ 501
图@@ 501
石@@ 501
裤裙 501
达@@ 501
搞 500
旗袍 500
木制 500
梯 500
凉@@ 499
化妆台 499
打火机 499
纸@@ 499
证件 499
靴 499
风水 499
61 498
眼睛 498
台@@ 497
咖啡色 497
大门 497
日货 497
落 497
retro 496
ss@@ 496
信 496
发箍 496
女表 496
－ 496
\ 495
g-shock 495
m-@@ 495
so@@ 495
出售 495
46 494
63 494
哈@@ 494
波浪 494
299 493
lo@@ 493
众 493
屏风 493
热@@ 493
花盆 493
行车 493
防@@ 493
d-@@ 492
eqt 492
工装 492
杀价 492
balenciaga 491
学@@ 491
车贴 491
38-44 490
life 490
勿 490
压纹 490
土 490
室外 490
小屋 490
an 489
十字 489
原@@ 489
挑 488
毛毛 488
清洗 488
温泉 488
琴 488
胎 488
蛋白 488
pandora 487
大象 487
橘@@ 487
织 487
脚踏 487
食物 487
98 486
s号 486
ta@@ 486
te@@ 486
付款 486
原木 486
灵 486
klein 485
rolex 485
庭院 485
pc 484
sh@@ 484
浓 484
皮卡丘 484
ns 483
象 483
传输线 482
压@@ 482
旅 482
结 482
衣帽架 482
my 481
世 481
晒 481
物@@ 481
狼 481
ki@@ 480
保@@ 480
力@@ 480
墨 480
琪 480
瑞@@ 480
49@@ 479
burch 479
家居服 479
展 479
杂物 479
洞 479
虫 479
270 478
di@@ 478
{@@ 478
供 478
化妆水 478
挂架 478
货@@ 478
ne@@ 477
vi@@ 477
冰@@ 477
御 477
恶 477
指环 477
维@@ 477
连身衣 477
v2 476
潜水 476
点心 476
串珠 475
价格 475
克杯 475
养生 475
布料 475
朋友 475
磁性 475
绒 475
老虎 475
cd@@ 474
卡位 474
名@@ 474
肌 474
转接 474
产 473
八@@ 473
福@@ 473
脏 473
46@@ 472
super 472
布包 472
快乐 472
扮演 472
毕业 472
消毒 472
高脚 472
56@@ 471
仅 471
管理 471
这 471
霸 471
库 470
意 470
更 470
机器 470
水保 470
荷叶边 470
(预购) 469
2/@@ 469
2015 469
da@@ 469
g/@@ 469
kobe 469
why 469
丰 469
仕@@ 469
带@@ 469
透视 469
体恤 468
有线 468
触 468
勺 467
好@@ 467
浮雕 467
苏 467
-1 466
午休 466
块 466
士@@ 466
拆洗 466
接头 466
混 466
自@@ 466
old 465
吉他 465
自慰 465
87 464
横 464
电线 464
贴@@ 464
蹬 464
钟 464
sa@@ 463
养 463
好市多 463
有机 463
72 462
stan 462
捷 462
面料 462
黏土 462
aj@@ 461
co 461
t-shirt 461
内里 461
筐 461
酒柜 461
g-@@ 460
ti@@ 460
亲 460
双头 460
头盔 460
托盘 460
提@@ 460
滑鼠 460
短袜 460
71 459
panasonic 459
户 459
整 459
烧烤 459
睡眠 459
硬壳 459
菌 459
05@@ 458
ol 458
幸运 458
深蓝色 458
紫@@ 458
骷髅 458
go@@ 457
书籍 457
型@@ 457
婷 457
蚊帐 457
计 457
门@@ 457
41 456
50ml 456
ck@@ 456
pe@@ 456
vintage 456
事 456
丝巾 455
任选 455
加热 455
腹 455
豪华 455
采 455
ho@@ 454
从 454
冰雪 454
篇 454
4/@@ 453
43 453
国风 453
滑板车 453
钢笔 453
0.@@ 452
36-44 452
huarache 452
圆@@ 452
女友 452
学步 452
烟 452
花花 452
调料 452
配方 452
8/@@ 451
ap@@ 451
丝袜 451
目 451
表演 451
锯 451
800 450
套@@ 450
78 449
ms@@ 449
围裙 449
壁挂式 449
鼓 449
gd 448
东@@ 448
低价 448
太阳能 448
气垫鞋 448
膏@@ 448
草@@ 448
m4@@ 447
x-@@ 447
盒) 447
签名 447
兽 446
各 446
犬 446
玫瑰花 446
缓震 446
蛋黄 446
革 446
aq@@ 445
◎@@ 445
影 445
棋盘格 445
水槽 445
纸盒 445
车内 445
雨鞋 445
42@@ 444
89@@ 444
~@@ 444
又 444
圣@@ 444
耐用 444
香皂 444
7/@@ 443
8-@@ 443
刃 443
外贸 443
平角 443
爱丽丝 443
豹 443
雕 443
鸭 443
150@@ 442
vivo 442
封 442
当天 442
百@@ 442
ad@@ 441
‧@@ 441
人气 441
代@@ 441
开口 441
清爽 441
灯泡 441
维 441
足球 441
a&f 440
ab@@ 440
同步 440
奇缘 440
开叉 440
水器 440
男孩 440
练习 440
龄 440
ao@@ 439
bo@@ 439
助 439
杨 439
份 438
密 438
沙发床 438
磁 438
茶桌 438
500@@ 437
喔 437
插座 437
橱柜 437
电风扇 437
蔬菜 437
2.@@ 436
ci@@ 436
do@@ 436
组) 436
蒂@@ 436
香薰 436
lg 435
即 435
变色 435
大人 435
天天 435
姿 435
语 435
ep 434
树脂 434
镜片 434
1.8 433
m6@@ 433
uniqlo 433
指甲油 433
玛 433
筷子 433
红酒 433
入门 432
升级 432
地@@ 432
资生堂 432
49 431
g/ 431
un@@ 431
公事包 431
剧 431
异 431
战靴 431
首 431
de 430
lin 430
吃饭 430
婚 430
定做 430
皆 430
盾 430
颗粒 430
园艺 429
壁纸 429
夫 429
牙膏 429
绣花 429
缤纷 429
or@@ 428
免运 428
想 428
纪 428
锁骨 428
降 428
转@@ 427
门厅 427
闺蜜 427
龟 427
snoopy 426
前@@ 426
爽 426
粉红色 426
酸 426
a3@@ 425
文字 425
测 425
空@@ 425
配饰 425
黑金 425
(不 424
(已 424
68 424
lv@@ 424
× 424
基础 424
妙 424
娘 424
成@@ 424
施华洛世奇 424
花纹 424
议价 424
过敏 424
4g 423
两件式 423
瓷 423
脸盆 423
蜡 423
认证 423
on@@ 422
匡威 422
妮@@ 422
干@@ 422
抹 422
晚宴 422
线条 422
腮红 422
避震 422
雕花 422
城市 421
妍 421
板@@ 421
棉衣 421
怡 420
故事 420
早餐 420
杂货铺 420
洞洞 420
网@@ 420
诺@@ 420
购证 420
近视 420
酱 420
魔鬼 420
64g 419
ca@@ 419
ralph 419
买家 419
克力 419
功率 419
弯 419
怀旧 419
手柄 419
挖 419
润滑 419
爬 419
转角 419
铃 419
b-@@ 418
✿@@ 418
中号 418
仔@@ 418
公@@ 418
公升 418
围栏 418
开车 418
橘色 418
浮 418
玻璃杯 418
踏 418
通@@ 418
夏@@ 417
晾 417
曲 417
棉裤 417
瑜珈 417
过道 417
频 417
tr@@ 416
皇冠 416
能量 416
5.5 415
传 415
庭 415
桌布 415
泼水 415
洗手 415
流@@ 415
(3 414
201@@ 414
kt 414
价@@ 414
儿@@ 414
机芯 414
美女 414
钢琴 414
飞利浦 414
(一 413
79@@ 413
bi@@ 413
champion 413
coach蔻 413
ex@@ 413
方@@ 413
极致 413
汉 413
舒缓 413
77 412
96 412
ni@@ 412
·@@ 412
厨 412
玻尿酸 412
球@@ 412
羽 412
落地式 412
行@@ 412
过滤 412
飞@@ 412
81 411
大牌 411
韩@@ 411
(1 410
mar@@ 410
如 410
盐 410
铝@@ 410
el@@ 409
最后 409
泉 409
火锅 409
真@@ 409
自己 409
长条 409
9-@@ 408
f-@@ 408
max@@ 408
寝室 408
月@@ 408
角质 408
软@@ 408
饭盒 408
saint 407
st 407
博@@ 407
古风 407
宴会 407
社 407
福袋 407
竹@@ 407
长t 407
闹钟 407
靴子 407
fb 406
双耳 406
橙 406
筒 406
路@@ 406
二合一 405
亚麻 405
付 405
把手 405
桃红 405
赠品 405
sc@@ 404
龙猫 404
四件 403
宜家 403
短@@ 403
私 403
货) 403
卫生 402
威@@ 402
时光 402
晴 402
汤匙 402
油画 402
阅读 402
伤 401
恩 401
贴膜 401
邮@@ 401
除臭 401
云@@ 400
宠 400
海边 400
甜 400
茶叶 400
诚 400
ma 399
sb 399
录 399
松@@ 399
薄荷 399
酷 399
隔 399
honda 398
优@@ 398
女王 398
果@@ 398
us 397
导航 397
筷 397
辣 397
钛 397
首选 397
toyota 396
全家 396
奥@@ 396
彩妆 396
秘密 396
空军 396
超长 396
zara 395
zenfone 395
以 395
童@@ 395
67@@ 394
it@@ 394
扶手 394
杯垫 394
沙@@ 394
翘 394
货到 394
lu@@ 393
左 393
摩 393
细@@ 393
适 393
雕刻 393
减震 392
围兜 392
水机 392
直@@ 392
秤 392
豹纹 392
魅力 392
43@@ 391
丽鸥 391
依 391
分体 391
远 391
jo@@ 390
lauren 390
南@@ 390
唇@@ 390
工艺 390
悦 390
水管 390
电话 390
锆石 390
1.@@ 389
bu@@ 389
手电筒 389
护发 389
汉服 389
脚@@ 389
说 389
唐 388
广告 388
缸 388
裤@@ 388
贴片 388
饭店 388
ah@@ 387
sm@@ 387
万向 387
家家 387
密码 387
护@@ 387
洛@@ 387
皂@@ 387
藏 387
里@@ 387
风行 387
47 386
\"" 386
v-@@ 386
卧 386
工艺品 386
泰@@ 386
漏 386
点@@ 386
画@@ 386
脚踏车 386
舖 386
雏菊 386
09@@ 385
110@@ 385
; 385
benz 385
光疗 385
凉席 385
枚 385
熊猫 385
田@@ 385
第三 385
精@@ 385
音@@ 385
' 384
bl 384
思@@ 384
梳妆 384
漆皮 384
电磁 384
遥控器 384
tubular 383
写 383
批 383
疯 383
高尔夫 383
5.0 382
cc@@ 382
泵 382
眼线 382
耳朵 382
jo 381
一般 381
仿古 381
宇 381
方巾 381
时间 381
野@@ 381
乐园 380
入耳 380
指纹 380
文件 380
薰衣草 380
蜂蜜 380
设备 380
2.5 379
21@@ 379
冬天 379
店面 379
成品 379
达菲 379
速发 379
03 378
off 378
标签 378
深层 378
清洁剂 378
睡觉 378
考 378
自取 378
顿 378
coco 377
r1 377
‧ 377
出租 377
掉 377
皇家 377
磅 377
blue 376
box 376
da 376
pk 376
万能 376
代尔 376
喂 376
境 376
淑女 376
korea 375
保温瓶 375
姬 375
存 375
独角兽 375
cu@@ 374
roshe 374
袜套 374
趣味 374
轻松 374
香炉 374
(免 373
69@@ 373
cortez 373
u型 373
商店 373
地板 373
少 373
订单 373
轻巧 373
ku@@ 372
冠 372
扩 372
波士顿 372
顺 372
900 371
tb 371
到货 371
卷发 371
平价 371
时代 371
白黑 371
雷@@ 371
102 370
ra@@ 370
战@@ 370
摇 370
煞 370
笑脸 370
man 369
七彩 369
买一送一 369
优惠价 369
好货 369
肉@@ 369
让 369
防盗 369
鲨鱼 369
chi@@ 368
fila 368
pp@@ 368
刀剑 368
墙纸 368
拼装 368
提单 368
温馨 368
神奇 368
科比 368
缎带 368
行李 368
m-3xl 367
全球 367
号@@ 367
弹簧 367
星际 367
烤箱 367
值 366
净化 366
欣 366
花瓶 366
cp@@ 365
laurent 365
公路 365
变@@ 365
工作服 365
版本 365
调理 365
页 365
54@@ 364
•@@ 364
刷卡 364
商城 364
或 364
护眼 364
耐热 364
蔻驰 364
读 364
重@@ 364
tw 363
兰@@ 363
夹@@ 363
数据线 363
棕色 363
深@@ 363
附@@ 363
风口 363
76 362
boy 362
marmont 362
ptcg 362
卷@@ 362
变形 362
小马 362
握 362
玛瑙 362
胶@@ 362
营养 362
超强 362
180@@ 361
皮面 361
纳@@ 361
美少女 361
臂 361
轮胎 361
83 360
现货) 360
86 359
§@@ 359
久 359
体@@ 359
副 359
卡其 359
希@@ 359
泡茶 359
留 359
铁艺 359
.tw 358
73 358
企鹅 358
别墅 358
套餐 358
宏 358
布丁 358
篓 358
62 357
乐蒂 357
入@@ 357
千@@ 357
大码 357
娜@@ 357
微@@ 357
系统 357
老板 357
职 357
静电 357
食@@ 357
2) 356
加湿器 356
史密斯 356
悠游 356
摩@@ 356
显示器 356
洗@@ 356
型号 355
摇摇 355
电器 355
绅士 355
解 355
货架 355
运动服 355
003 354
130 354
两@@ 354
橘 354
海滩 354
烫金 354
片@@ 354
男友 354
箱子 354
羽毛 354
肤色 354
跟鞋 354
邦 354
＊@@ 354
ka@@ 353
人物 353
唇釉 353
宜 353
战斗 353
特殊 353
500g 352
pop 352
vapormax 352
屏 352
活力 352
耳坠 352
脱 352
贩 352
隔板 352
黄铜 352
hp 351
使 351
冷@@ 351
凉感 351
法兰绒 351
淋浴 351
第@@ 351
蔡 351
闪电 351
丁 350
令 350
台南 350
折@@ 350
断 350
枕套 350
灰@@ 350
管@@ 350
装) 350
110v 349
96@@ 349
二手书 349
兵 349
壶@@ 349
宫廷 349
貔貅 349
ct@@ 348
底@@ 348
狮 348
盘子 348
视 348
镇 348
ar 347
i7 347
双人床 347
后现代 347
安抚 347
幅 347
强化 347
族 347
曼@@ 347
潘朵拉 347
网路 347
.5 346
450 346
mp@@ 346
♡ 346
产品 346
印@@ 346
基@@ 346
大学生 346
妆 346
宿 346
希 346
笔@@ 346
脚垫 346
茶店 346
镀 346
防爆 346
隆 346
集@@ 346
♡@@ 345
会议 345
柯 345
盘@@ 345
签 345
选@@ 345
防震 345
馨 345
59@@ 344
999 344
dc 344
捕 344
月亮 344
踏板 344
金刚 344
靠背椅 344
2000 343
3.0 343
mah 343
tommy 343
上架 343
像 343
卡娜 343
孩子 343
意大利 343
用具 343
福利 343
美容院 343
茶盘 343
outlet 342
乳胶 342
修@@ 342
极度 342
眼@@ 342
窗户 342
自制 342
莱@@ 342
雷射 342
鱼尾 342
400@@ 341
削 341
壹@@ 341
大小 341
婚庆 341
春秋季 341
朗 341
洗车 341
游泳衣 341
糖@@ 341
马达 341
鲜 341
82 340
a7@@ 340
asics 340
头发 340
杜 340
毛毯 340
科@@ 340
耳塞 340
a0@@ 339
car@@ 339
react 339
up 339
六@@ 339
复仇者 339
夯 339
新版 339
机油 339
珊瑚 339
艺@@ 339
蚕丝 339
走廊 339
麦@@ 339
pink 338
对称 338
扳手 338
电玩 338
纱裙 338
超高 338
3.@@ 337
52 337
53 337
mid 337
play 337
zero 337
下摆 337
中古 337
仓库 337
吹风机 337
津 337
藤@@ 337
000@@ 336
160@@ 336
gs 336
pa@@ 336
佳@@ 336
大战 336
微型 336
本田 336
相@@ 336
笔记 336
草本 336
袋子 336
... 335
67 335
cr@@ 335
可穿 335
吸@@ 335
悟空 335
接@@ 335
施 335
最低价 335
杀菌 335
爆款 335
血 335
铜@@ 335
a3 334
exo 334
high 334
l-@@ 334
低音 334
加肥 334
小汽车 334
店@@ 334
水滴 334
皮包 334
选择 334
199 333
aa@@ 333
床头灯 333
应 333
替换 333
花洒 333
du@@ 332
gu@@ 332
yu@@ 332
分类 332
姜 332
年@@ 332
梦@@ 332
清净 332
满额 332
禾 332
赫拉 332
-5@@ 331
316 331
iphone@@ 331
mini@@ 331
th@@ 331
宝蓝 331
澎 331
甜心 331
老师 331
至 331
闪亮 331
＋ 331
105 330
canon 330
kenzo 330
pi@@ 330
嫩 330
尿布 330
工@@ 330
情人 330
盒@@ 330
网眼 330
规 330
负离子 330
郎 330
钓具 330
鸡@@ 330
marc 329
元素 329
升级版 329
录音 329
牌@@ 329
符 329
陀螺 329
@新品 328
ga@@ 328
帘@@ 328
新货 328
未来 328
猫@@ 328
69 327
冷热 327
品) 327
家族 327
数码 327
整套 327
毛帽 327
职业 327
鹰 327
face 326
任天堂 326
兄弟 326
化@@ 326
幻 326
条@@ 326
繁体 326
葡萄 326
调味 326
q版 325
w-@@ 325
° 325
内饰 325
外壳 325
宝马 325
布鞋 325
情@@ 325
梨 325
灰白 325
祛 325
调@@ 325
身@@ 325
170@@ 324
es@@ 324
好看 324
康@@ 324
显示 324
鲁 324
250@@ 323
6.@@ 323
hi@@ 323
my@@ 323
将 323
珠@@ 323
理@@ 323
磁@@ 323
5ml 322
air@@ 322
ak@@ 322
gi@@ 322
亚克力 322
凯@@ 322
刻字 322
吸湿 322
杯@@ 322
筒袜 322
米色 322
轴 322
迷妳 322
130@@ 321
adv 321
ny 321
万@@ 321
丝光 321
丰田 321
冰淇淋 321
凤梨 321
熊熊 321
脸部 321
style 320
便利 320
兜 320
压缩 320
原味 320
定@@ 320
慵懒 320
桃园 320
矮 320
纸袋 320
马克 320
er 319
传说 319
圆桌 319
夜@@ 319
布袋 319
帕@@ 319
幼 319
楼梯 319
爱马仕 319
钳 319
51 318
93 318
a5@@ 318
九@@ 318
合身 318
封口 318
每 318
琉璃 318
真丝 318
秋冬季 318
索 318
超市 318
鱼缸 318
黏@@ 318
ps@@ 317
专卖 317
休闲椅 317
原子笔 317
图书 317
戏 317
支撑 317
教学 317
无限 317
火爆 317
lv包包 316
博 316
微笑 316
早春 316
素@@ 316
藤 316
蛋@@ 316
静 316
马丁 316
s/@@ 315
嘉@@ 315
塔@@ 315
曼 315
样 315
盖@@ 315
胸针 315
见 315
豆@@ 315
购@@ 315
高中 315
bd@@ 314
bq@@ 314
is 314
✿ 314
茶道 314
阳光 314
58 313
59 313
600@@ 313
fe@@ 313
保留 313
半@@ 313
奶粉 313
性@@ 313
意@@ 313
木工 313
杀@@ 313
来@@ 313
树@@ 313
牙@@ 313
1.8m 312
56 312
celine 312
premium 312
哺乳 312
实@@ 312
折叠桌 312
普 312
爱情 312
特大 312
红茶 312
防雨 312
xperia 311
书店 311
手把 311
春夏 311
标@@ 311
绿茶 311
而 311
联系 311
72@@ 310
ds 310
hd@@ 310
home 310
免费 310
六角 310
女子 310
娇 310
学园 310
插头 310
无毒 310
赛斯 310
钓@@ 310
(大 309
), 309
32g 309
业 309
刚 309
解@@ 309
辅助 309
齐 309
160 308
伴娘 308
便器 308
咬 308
唯美 308
收缩 308
烤盘 308
纱布 308
编 308
起@@ 308
雨@@ 308
项圈 308
mon@@ 307
姐 307
撕 307
满天星 307
耐高温 307
臭 307
臻 307
10/@@ 306
190@@ 306
201 306
74@@ 306
costco 306
mi 306
power 306
pu@@ 306
red 306
runner 306
世@@ 306
收@@ 306
星球 306
激光 306
版潮 306
现货@@ 306
钢@@ 306
面板 306
韩妞 306
9/@@ 305
r11 305
tt 305
yamaha 305
主播 305
宇宙 305
武器 305
物柜 305
瓶@@ 305
痕 305
红外线 305
菊 305
钢铁 305
(全 304
miss 304
tomy 304
ulzzang 304
代步 304
单人床 304
板鞋 304
滋养 304
香蕉 304
bvlgari 303
fu@@ 303
one@@ 303
丹@@ 303
前后 303
动@@ 303
圆盘 303
尘 303
强@@ 303
春@@ 303
森@@ 303
男式 303
耳@@ 303
蜡@@ 303
av@@ 302
pokemon 302
排@@ 302
洗手间 302
温和 302
男表 302
蝙蝠 302
轨道 302
300@@ 301
86@@ 301
l号 301
实战 301
屏@@ 301
稀有 301
绒布 301
舞台 301
边框 301
面霜 301
iphone11 300
mu@@ 300
sn@@ 300
帽@@ 300
景观 300
电压 300
百货店 300
营 300
请勿 300
领带 300
07 299
89 299
rose 299
同@@ 299
奇迹 299
摇滚 299
散 299
甲@@ 299
随 299
#爆 298
br@@ 298
en 298
m-xxl 298
sports 298
小小 298
洽谈 298
用途 298
起子 298
52@@ 297
91 297
he@@ 297
ko 297
xl@@ 297
下标) 297
孙 297
拍卖 297
方块 297
暗 297
桃@@ 297
肌肤 297
麻@@ 297
84@@ 296
yo@@ 296
女人 296
标志 296
药 296
cat 295
do 295
hco 295
malone 295
p-@@ 295
人体 295
对@@ 295
袋@@ 295
还 295
lebron 294
书) 294
保健 294
别针 294
参 294
可移动 294
坑 294
弹@@ 294
指定 294
散热 294
旺 294
牙音 294
裤袜 294
软糖 294
-010 293
kyrie 293
七@@ 293
三丽鸥 293
主@@ 293
人生 293
信@@ 293
刷@@ 293
导 293
湖 293
照明 293
立@@ 293
逸 293
防寒 293
4.0 292
lin@@ 292
㊣ 292
传统 292
作@@ 292
保护膜 292
大灯 292
头套 292
奈@@ 292
恩@@ 292
手感 292
直邮 292
编号 292
肤 292
讯 292
贴画 292
防臭 292
面纸 292
鼠标 292
11/@@ 291
as 291
sk@@ 291
wa@@ 291
ya 291
工程 291
汇 291
话筒 291
配@@ 291
鞋套 291
es 290
k-@@ 290
yuanroro 290
中型 290
书本 290
加强 290
卡龙 290
婴儿床 290
铲 290
鞋垫 290
黑头 290
106 289
94 289
a5 289
e-@@ 289
shop@@ 289
仔 289
台制 289
方向盘 289
求 289
没 289
炸 289
眉@@ 289
#爆品 288
04 288
chen 288
san@@ 288
sm 288
丸子 288
刺激 288
南瓜 288
场景 288
型) 288
帘 288
强光 288
海军 288
物语 288
羊绒 288
质量 288
鸡肉 288
05 287
140 287
store 287
◆@@ 287
三星@@ 287
丸 287
校园 287
毫安 287
游戏机 287
秘 287
织带 287
胸罩 287
高速 287
boss 286
ds@@ 286
fi@@ 286
hollister 286
ke@@ 286
leather 286
lite 286
superdry 286
亮@@ 286
倒 286
名片夹 286
喷头 286
大全 286
宾士 286
愈 286
扫地 286
水族 286
玉石 286
红包 286
美人 286
节能 286
芳 286
非@@ 286
3) 285
sp 285
后视镜 285
帅 285
才 285
新) 285
木头 285
母亲节 285
煎 285
瘦身 285
阀 285
128g 284
12v 284
fit 284
i8 284
monogram 284
影音 284
舞蹈 284
萨@@ 284
蒙 284
键 284
马车 284
128 283
4k 283
or 283
加拿大 283
大头 283
循环 283
沙发套 283
浓缩 283
衩 283
速@@ 283
道@@ 283
颈椎 283
na@@ 282
sd@@ 282
乱 282
发乳 282
式@@ 282
日记 282
棉t 282
氧 282
约会 282
翼 282
连@@ 282
08@@ 281
iphone7 281
skool 281
华丽 281
厨师 281
同款 281
均 281
挂@@ 281
洗手盆 281
特级 281
聚 281
调整 281
过膝 281
53@@ 280
97@@ 280
igo 280
ml/@@ 280
仁 280
典雅 280
写字台 280
客服 280
拖把 280
按 280
毡@@ 280
激 280
珠光 280
磁吸 280
莲 280
边@@ 280
75ml 279
min@@ 279
mp3 279
低音炮 279
出口 279
日期 279
蜡笔小新 279
轻@@ 279
金链 279
140@@ 278
aj1 278
ford 278
中心 278
公克 278
叉@@ 278
感@@ 278
欢乐 278
电热 278
绝对 278
超亮 278
钛钢 278
饭桌 278
104 277
bandai 277
note 277
sha 277
ve@@ 277
中华 277
忍者 277
播放器 277
春夏季 277
柜@@ 277
泳 277
浦 277
猫窝 277
玲 277
草帽 277
越野 277
车身 277
野营 277
须 277
餐@@ 277
king 276
mizuno 276
tsum 276
◎ 276
交@@ 276
古装 276
右 276
头皮 276
治 276
泡面 276
裸@@ 276
飞行 276
餐盒 276
07@@ 275
123 275
240 275
ed 275
mr@@ 275
※ 275
哦 275
套筒 275
片) 275
玉米 275
玩@@ 275
董 275
裤带 275
转换器 275
雅诗兰黛 275
首饰盒 275
54 274
support 274
tpu 274
佛@@ 274
床罩 274
角@@ 274
赋 274
越 274
闪光 274
／@@ 274
(台湾 273
bl@@ 273
sun@@ 273
专@@ 273
实物 273
恒温 273
惊喜 273
江 273
猫头鹰 273
绵 273
联@@ 273
萱 273
需 273
鼻 273
(黑) 272
74 272
a货 272
ph@@ 272
we@@ 272
刀@@ 272
唇 272
水波 272
沾 272
海鸥 272
界 272
科学 272
胶水 272
苏@@ 272
高压 272
(4 271
givenchy 271
loft 271
十@@ 271
叮当 271
可可 271
大方 271
平光 271
辉 271
ge@@ 270
man@@ 270
tw@@ 270
妹妹 270
血@@ 270
(有 269
pr@@ 269
s.@@ 269
sr@@ 269
中筒 269
低腰 269
历 269
叶@@ 269
四轮 269
峰 269
德玛 269
惠@@ 269
所 269
武 269
氏 269
琦 269
许 269
超低价 269
雨靴 269
鹦鹉 269
.. 268
92 268
专利 268
商@@ 268
回@@ 268
爆@@ 268
87@@ 267
m5@@ 267
pc@@ 267
pl@@ 267
stussy 267
ty@@ 267
井 267
传@@ 267
售出 267
垫@@ 267
楼 267
毯@@ 267
碳@@ 267
秀@@ 267
虎头 267
西米 267
超轻量 267
ly@@ 266
more 266
炫 266
礼@@ 266
笑 266
练 266
群 266
袋装 266
跳跳 266
除@@ 266
韵 266
2019年 265
84 265
day 265
friends 265
woc 265
万代 265
三脚架 265
干湿 265
收腹 265
游@@ 265
航空 265
苗 265
视频 265
aj 264
chuck 264
sport 264
仓鼠 264
冬装 264
冷冻 264
加宽 264
太阳帽 264
摊 264
此 264
甜品 264
线器 264
翔 264
赖 264
转运 264
雯 264
高尔夫球 264
麻花 264
06@@ 263
50g 263
h&m 263
nu@@ 263
净@@ 263
厂商 263
提包 263
支持 263
炫彩 263
220 262
dr.@@ 262
fitch 262
ps 262
不锈 262
元@@ 262
去污 262
发票 262
支@@ 262
眼罩 262
称 262
纽 262
草编 262
荣 262
莫@@ 262
莲花 262
酱@@ 262
霸气 262
高潮 262
ca 261
mo 261
代言 261
减肥 261
北@@ 261
博士 261
技 261
护肤 261
护肤品 261
架@@ 261
橱窗 261
牛@@ 261
美甲 261
老式 261
贤 261
隔音 261
cp 260
k歌 260
冲击 260
可乐 260
土@@ 260
登机 260
睡袋 260
节@@ 260
面具 260
-100 259
gg@@ 259
ha@@ 259
叶子 259
圈圈 259
备 259
多功能 259
尺码: 259
帝@@ 259
广 259
径 259
慧 259
旅行袋 259
服@@ 259
潮牌 259
筒裤 259
英@@ 259
规格 259
软皮 259
面部 259
颈@@ 259
04@@ 258
06 258
b0@@ 258
hdmi 258
变压器 258
和@@ 258
坚果 258
席 258
庞 258
战术 258
朴 258
梵希 258
水泥 258
永 258
郑 258
队长 258
随行 258
雨刷 258
350@@ 257
av 257
ⓠ@@ 257
剧场 257
墨@@ 257
完整 257
小狗 257
屋@@ 257
市 257
庄 257
时@@ 257
晨 257
景品 257
汤锅 257
熏 257
腾 257
赛@@ 257
#下 256
220@@ 256
tt@@ 256
三角裤 256
双向 256
员 256
唐老鸭 256
字@@ 256
客人 256
平滑 256
指@@ 256
激情 256
灯笼 256
补@@ 256
辑 256
锤 256
镭射 256
防霉 256
雷霆 256
5.@@ 255
ed@@ 255
主题 255
亲肤 255
保守 255
分期 255
卖家 255
周岁 255
女中 255
小朋友 255
庆 255
恋爱 255
手腕 255
接待 255
智@@ 255
状 255
童车 255
藤编 255
20cm 254
chloe 254
ka 254
侧边 254
促 254
对折 254
小小兵 254
板凳 254
棉被 254
温@@ 254
滑@@ 254
滚筒 254
猴 254
竖 254
素t 254
索尼 254
羊@@ 254
荣耀 254
57 253
mac 253
philips 253
zakka 253
仓 253
仙@@ 253
日文 253
梅@@ 253
独特 253
缎面 253
美颜 253
采用 253
马鞍 253
(小 252
bk@@ 252
cf 252
gucci@@ 252
oo@@ 252
xx@@ 252
以上 252
关 252
冻 252
卸 252
古奇 252
尺寸: 252
扎 252
早期 252
汉@@ 252
洗面乳 252
芙@@ 252
藤原浩 252
詹姆斯 252
透光 252
乌@@ 251
售) 251
围脖 251
士尼 251
岩 251
正常 251
渐变 251
然 251
直接 251
站立 251
维他命 251
美术 251
翅膀 251
预 251
魔力 251
7plus 250
iphonex 250
保罗 250
新手 250
旗舰 250
杏仁 250
永生 250
演唱会 250
粮 250
纯@@ 250
绒面 250
脚架 250
花瓣 250
菲@@ 250
蓬蓬 250
针@@ 250
af1 249
fo@@ 249
ktv 249
nac 249
代购@@ 249
导@@ 249
尖 249
座垫 249
整@@ 249
樱@@ 249
水饺 249
洗碗 249
牧 249
狮王 249
硬@@ 249
茉莉 249
逛 249
d2 248
roots 248
te 248
top 248
ver@@ 248
中年 248
恶魔 248
托@@ 248
护栏 248
教@@ 248
棉花糖 248
满@@ 248
社团 248
粉刺 248
背@@ 248
芳香 248
萨 248
螺纹 248
豪 248
0.5 247
ag@@ 247
ai 247
qs 247
书法 247
二手@@ 247
亿 247
仪器 247
具@@ 247
出货) 247
制化 247
挺 247
斑@@ 247
日立 247
水性 247
焦糖 247
猪@@ 247
薄@@ 247
12/@@ 246
cf@@ 246
hy@@ 246
企业 246
单件 246
工作室 246
润@@ 246
"" 245
000 245
size: 245
skechers 245
ze@@ 245
伦敦 245
护照 245
木纹 245
洁@@ 245
现@@ 245
电钻 245
硬碟 245
碗柜 245
肥 245
荷 245
9.5 244
sy@@ 244
可拆卸 244
打包 244
斗@@ 244
盛 244
英语 244
长夹 244
阴阳 244
83@@ 243
iphone6 243
jacobs 243
presto 243
ㄧ@@ 243
创@@ 243
店长 243
扁@@ 243
改良 243
水瓶 243
泥@@ 243
液@@ 243
相片 243
藏@@ 243
1500 242
kids 242
lx 242
original 242
sd 242
个人 242
券 242
可放 242
抢购 242
方包 242
枝 242
永久 242
环@@ 242
白底 242
秋千 242
诗@@ 242
31@@ 241
bottega 241
star@@ 241
you 241
凭证 241
单层 241
睫毛膏 241
童话 241
纯白 241
西班牙 241
过@@ 241
那 241
隐藏 241
16g 240
750 240
ts@@ 240
书签 240
别 240
包皮 240
椅垫 240
滑鼠垫 240
煞车 240
皮肤 240
秋@@ 240
纤 240
裸 240
订@@ 240
话 240
铁盒 240
骨@@ 240
(限 239
10000 239
800@@ 239
by@@ 239
hm 239
huawei 239
super@@ 239
丸@@ 239
如@@ 239
拖@@ 239
桃花 239
泡澡 239
瓦@@ 239
白粉 239
肚子 239
莉@@ 239
菜@@ 239
蒸汽 239
长袜 239
震 239
餐巾纸 239
-01 238
7.5 238
ex 238
je@@ 238
love@@ 238
mc@@ 238
sock 238
其他 238
切@@ 238
加固 238
媚 238
封@@ 238
库存 238
橡木 238
经@@ 238
老年 238
重复 238
mt 237
ts 237
内置 237
坪 237
总@@ 237
皮衣 237
破@@ 237
蒂猫 237
蜂@@ 237
证明 237
轩 237
造景 237
陈@@ 237
鱼子酱 237
168 236
swarovski 236
yu 236
依@@ 236
去@@ 236
国小 236
建 236
懒 236
抢 236
斑马 236
毒 236
烤肉 236
狂 236
瑕@@ 236
瓷砖 236
畅销 236
色系 236
酒@@ 236
钱筒 236
传奇 235
医 235
棉布 235
离子 235
竹节 235
精梳 235
美人鱼 235
舞@@ 235
艳 235
花色 235
警示 235
谢 235
透@@ 235
逼真 235
ms 234
十字绣 234
华莱士 234
尿 234
工具箱 234
张@@ 234
心机 234
杰@@ 234
柳 234
灵@@ 234
王者 234
疯狂 234
白铁 234
粉嫩 234
紫水晶 234
美食 234
葫芦 234
蝶@@ 234
贴身 234
防身 234
魔鬼毡 234
320@@ 233
h-@@ 233
is@@ 233
little 233
speedy 233
一生 233
古董 233
客@@ 233
布偶 233
抗@@ 233
撑 233
歌@@ 233
灿 233
珍@@ 233
精准 233
纳米 233
辅 233
送@@ 233
随手 233
鲁@@ 233
鸿 233
(客 232
ga 232
girl 232
gt 232
space 232
tu@@ 232
丝绸 232
取货 232
弥月 232
扣@@ 232
水彩 232
渔具 232
碗碟 232
简@@ 232
考试 232
车门 232
baby@@ 231
cb@@ 231
no 231
north 231
x1 231
〔 231
〕 231
下杀 231
产@@ 231
发热 231
枫 231
棕 231
法拉利 231
电瓶车 231
纹@@ 231
西瓜 231
败 231
镜@@ 231
neo 230
刀架 230
喷@@ 230
实木 230
小吃 230
方向 230
欧文 230
火影忍者 230
砧板 230
蝙蝠侠 230
进@@ 230
馒头 230
(共 229
103 229
big-o 229
coach@@ 229
g*@@ 229
ke 229
suede 229
休 229
号) 229
各种 229
开始 229
护具 229
滚轮 229
环球 229
瓦 229
绘画 229
轮@@ 229
预定 229
驾车 229
高效 229
黑板 229
004 228
ee@@ 228
lady 228
上班族 228
产后 228
伯@@ 228
喵@@ 228
国旗 228
头巾 228
您 228
时髦 228
毛巾架 228
泽 228
灯光 228
镀金 228
饺子 228
112@@ 227
700@@ 227
ball 227
ce 227
type-c 227
ur@@ 227
×@@ 227
三菱 227
关@@ 227
冲@@ 227
叉 227
咖 227
民@@ 227
洋@@ 227
消 227
漂亮 227
眉笔 227
第四 227
笼子 227
袖套 227
试用 227
防漏 227
鞋带 227
a.@@ 226
cl@@ 226
fr@@ 226
fury 226
ikea 226
ji@@ 226
note8 226
qq 226
京 226
卡地亚 226
可动 226
安娜 226
岚 226
拼贴 226
活@@ 226
珊 226
磨@@ 226
禅意 226
(10 225
618 225
gl@@ 225
mg 225
pump 225
保存 225
抽象 225
王子 225
珍 225
甩 225
蓬 225
蜜@@ 225
调式 225
铃铛 225
(无 224
574 224
9.@@ 224
curry 224
light 224
★★ 224
仕 224
冒险 224
包装袋 224
响 224
增 224
奈 224
控制 224
散装 224
特产 224
独立 224
钛@@ 224
风味 224
马丁靴 224
(黑色) 223
innisfree 223
li 223
mlb 223
y-@@ 223
买@@ 223
反@@ 223
咖@@ 223
多多 223
小鸟 223
幼稚园 223
打磨 223
本舖 223
甜蜜 223
美好 223
退 223
鸳鸯 223
dr@@ 222
fk 222
golf 222
veneta 222
伟 222
低@@ 222
佐@@ 222
哈娜 222
女单 222
批发价 222
攻 222
比赛 222
气动 222
永@@ 222
电扇 222
笔筒 222
蔻 222
蝶 222
走光 222
载 222
颈 222
饰@@ 222
03@@ 221
36-45 221
5000 221
ch 221
kate 221
l) 221
云朵 221
减压 221
厅 221
名品 221
喜@@ 221
培@@ 221
扇子 221
手指 221
摇摆 221
放@@ 221
爪 221
电瓶 221
程 221
第五 221
纽约 221
自慰器 221
茶水 221
蘑菇 221
费 221
赠送 221
车灯 221
转椅 221
长柄 221
降温 221
项 221
香草 221
高低 221
齿 221
210 220
520 220
bv@@ 220
rx@@ 220
th 220
丹尼尔 220
偏 220
全能 220
印度 220
吐司 220
含@@ 220
售@@ 220
售价 220
售完 220
多种 220
妞@@ 220
家电 220
宽@@ 220
抛光 220
护颈 220
抹茶 220
按压 220
提花 220
晶@@ 220
烈 220
眉 220
课 220
阿曼 220
露@@ 220
＞ 220
3d@@ 219
550 219
8plus 219
abercrombie& 219
af@@ 219
ny@@ 219
rs 219
ya@@ 219
◆ 219
割 219
富士 219
店) 219
晾衣 219
杂货店 219
橘子 219
毛料 219
炫@@ 219
狐狸 219
玻璃@@ 219
荧光 219
赤足 219
过滤器 219
107 218
4.@@ 218
acer 218
cy@@ 218
for@@ 218
l型 218
mb@@ 218
y3 218
况 218
坠子 218
奥运 218
快@@ 218
手工皂 218
护膝 218
桌上型 218
烟@@ 218
男裤 218
精工 218
精度 218
结@@ 218
西服 218
贵 218
遮阳伞 218
(二手 217
115 217
ab 217
gk 217
lo 217
m) 217
made 217
pe 217
sl@@ 217
tech 217
wa 217
冲浪 217
切割 217
剪@@ 217
双c 217
哥@@ 217
支援 217
文学 217
电工 217
皇@@ 217
纪念品 217
跳舞 217
陆 217
//@@ 216
02@@ 216
cs 216
loewe 216
off-white 216
spa 216
体验 216
分离式 216
前台 216
圆点 216
夜视 216
小鸡 216
府 216
杏色 216
梳子 216
电子表 216
蔬果 216
过年 216
面盆 216
颜料 216
魔@@ 216
8g 215
micro 215
pegasus 215
sw@@ 215
taylor 215
卫生纸 215
命 215
寿司 215
山茶花 215
巨 215
母@@ 215
浪 215
浴缸 215
演出 215
潘 215
碧 215
舒@@ 215
面罩 215
)) 214
18k 214
cq@@ 214
live 214
nb@@ 214
shadow 214
下杀$ 214
事@@ 214
亚瑟 214
价) 214
击 214
刮胡刀 214
巨@@ 214
座@@ 214
当@@ 214
摄影机 214
爸爸 214
考@@ 214
艾米 214
花茶 214
菲利普 214
逆 214
部落 214
野生 214
长发 214
2017年 213
62@@ 213
au@@ 213
hu@@ 213
k金 213
mt@@ 213
size 213
信用卡 213
出版社 213
印刷 213
墨水 213
成长 213
技术 213
挂脖 213
熟 213
犀牛 213
甜点 213
直条 213
茜 213
香槟 213
5g 212
7.@@ 212
ea@@ 212
ro 212
初@@ 212
初学 212
名片 212
圆圈 212
小鱼 212
建筑 212
晚礼服 212
烧@@ 212
胸前 212
芦荟 212
香香 212
cs@@ 211
dx 211
next 211
pure 211
s8 211
yy 211
中长 211
光碟 211
加粗 211
太@@ 211
妖怪 211
小麦 211
快干 211
晓 211
月光 211
柔@@ 211
水箱 211
漱口 211
率 211
直径 211
胖子 211
试 211
dc@@ 210
gr@@ 210
watch 210
zx@@ 210
保固 210
变形金刚 210
扬 210
抛 210
新鲜 210
棒棒糖 210
水池 210
独@@ 210
论 210
题 210
高清 210
109 209
399 209
94@@ 209
990 209
adidas@@ 209
ef@@ 209
net 209
vo@@ 209
下杀# 209
体育 209
十二 209
志@@ 209
斗篷 209
术 209
潜 209
用) 209
移 209
花草 209
通话 209
野外 209
非常 209
007 208
2020@@ 208
40-46 208
i-@@ 208
ing@@ 208
m/@@ 208
philipp 208
三轮车 208
仙人掌 208
体重 208
假面 208
制冷 208
即期 208
小卡 208
手摇 208
效果 208
斑 208
极@@ 208
死 208
火车 208
白灰 208
羽绒服 208
老鼠 208
肠 208
透肤 208
遮瑕 208
采@@ 208
钓 208
铝箔 208
麻将 208
(单 207
(大) 207
book 207
mb 207
plein 207
❀@@ 207
丁字 207
上班 207
参考 207
地中海 207
城堡 207
奶@@ 207
延长线 207
开门 207
弓 207
曜 207
柴 207
渡假 207
狗窝 207
珐瑯 207
系@@ 207
缝隙 207
肥皂 207
肯 207
蒂 207
订) 207
贸易 207
41@@ 206
5) 206
ki 206
seiko 206
中) 206
丰@@ 206
便携式 206
充@@ 206
包装盒 206
套) 206
定位 206
富@@ 206
忆 206
投 206
摄像头 206
星座 206
核 206
武@@ 206
英寸 206
蛤蟆镜 206
通勤 206
霹雳 206
﹞ 206
1a 205
2018年 205
g点 205
r15 205
sa 205
sf@@ 205
skin 205
凉拖 205
学校 205
得@@ 205
棋 205
灯芯绒 205
炸锅 205
焦 205
独 205
穿@@ 205
肌肉 205
表情 205
观音 205
anna 204
era 204
hot 204
sanrio 204
兔@@ 204
农@@ 204
司@@ 204
味@@ 204
唱 204
善 204
定型 204
定版 204
容@@ 204
平面 204
手臂 204
摇椅 204
教室 204
星辰 204
晚安 204
智慧型 204
监控 204
矫正 204
破坏 204
裙@@ 204
酒精 204
领结 204
鸡蛋 204
(送 203
-6@@ 203
b.@@ 203
x2 203
台面 203
坡跟 203
广角 203
手册 203
挡风 203
暖手 203
棕@@ 203
母乳 203
毛边 203
汉堡 203
磁力 203
箱@@ 203
素材 203
虎@@ 203
谱 203
跑车 203
长筒 203
闺 203
青蛙 203
1:@@ 202
benassi 202
n-@@ 202
tretta 202
典藏 202
周@@ 202
夹缝 202
尾牙 202
拍@@ 202
暗黑 202
温柔 202
特色 202
紫砂 202
羽球 202
舒服 202
al 201
mr.@@ 201
世纪 201
伴手 201
佛教 201
复@@ 201
存钱 201
折叠床 201
梯子 201
演出服 201
特大号 201
狂欢 201
茶色 201
轻盈 201
铺子 201
eg@@ 200
etude 200
gt@@ 200
macbook 200
shiseido 200
wcf 200
zi@@ 200
〗 200
下杀#@@ 200
搅拌 200
教育 200
暖@@ 200
清凉 200
烟灰缸 200
私密 200
耳罩 200
腋下 200
蜘蛛人 200
谷@@ 200
铝 200
露趾 200
## 199
5s 199
cg@@ 199
gs@@ 199
it 199
mm) 199
wi@@ 199
一盒 199
养@@ 199
刹 199
剪裁 199
合一 199
吊饰 199
外接 199
小美人鱼 199
引擎 199
有盖 199
沐浴乳 199
泼墨 199
浴盆 199
滚 199
满月 199
爬行 199
研 199
软管 199
钙 199
靠墙 199
240@@ 198
ll 198
东方 198
出国 198
刷子 198
动画 198
宋 198
小鹿 198
尾@@ 198
巴西 198
战马 198
拆@@ 198
油烟 198
滚边 198
相容 198
美肌 198
证@@ 198
豆腐 198
颈链 198
－@@ 198
(两 197
(二 197
(黑 197
con@@ 197
r9s 197
ul@@ 197
zz@@ 197
专家 197
交 197
任 197
全网 197
十字架 197
小物 197
拉丝 197
柴犬 197
水手 197
社会 197
竹炭 197
第 197
翻@@ 197
胸@@ 197
辰 197
铅笔盒 197
镀膜 197
防水布 197
1-3@@ 196
dickies 196
son@@ 196
们 196
南极 196
卡其色 196
听 196
堡 196
天下 196
小车 196
抹布 196
提供 196
无敌 196
石头 196
粗@@ 196
绿萝 196
美美 196
耐@@ 196
葵 196
越南 196
软毛 196
铺@@ 196
防晒霜 196
12-@@ 195
abs 195
el 195
elite 195
gh@@ 195
yi 195
中童 195
作品 195
其 195
刺青 195
刻@@ 195
场@@ 195
坐姿 195
密@@ 195
工作鞋 195
床@@ 195
教师 195
新店 195
昌 195
杀手 195
棍 195
氛@@ 195
泰迪熊 195
舍 195
节日 195
识别 195
语音 195
货号 195
钻@@ 195
风潮 195
(小@@ 194
10-@@ 194
a4@@ 194
cat@@ 194
nike@@ 194
nissan 194
下单) 194
丽婴 194
倒@@ 194
元) 194
加高 194
安全带 194
手帕 194
星光 194
柜组 194
炒锅 194
碗盘 194
米茄 194
耀 194
螺丝刀 194
货车 194
量@@ 194
领@@ 194
风情 194
风景 194
00 193
4.5 193
\""@@ 193
a6@@ 193
ac 193
beauty 193
body 193
dvd@@ 193
os 193
porter 193
不易 193
单宁 193
口水巾 193
咖啡豆 193
塞@@ 193
增@@ 193
摇篮 193
柏@@ 193
珊瑚绒 193
生活馆 193
褶皱 193
1200 192
<< 192
cartier 192
color 192
edge 192
longchamp 192
moschino 192
way 192
一起 192
亲@@ 192
剩 192
压力 192
圆脸 192
如意 192
实惠 192
成功 192
挂布 192
按键 192
淑@@ 192
淡@@ 192
猴子 192
脱@@ 192
药@@ 192
萃 192
落地灯 192
蜂巢 192
运费) 192
--- 191
]# 191
ba 191
bar@@ 191
ff@@ 191
fly 191
发财 191
史@@ 191
小丑 191
尤 191
帖 191
年级 191
建@@ 191
急 191
数学 191
水鬼 191
汤@@ 191
洗菜盆 191
溜溜 191
滚珠 191
王国 191
玩家 191
织布 191
转换 191
雪纺衫 191
鸟@@ 191
360@@ 190
4.7 190
601 190
978986@@ 190
han@@ 190
hd 190
i6 190
m.@@ 190
omega 190
shi@@ 190
starbucks 190
timberland 190
上衣@@ 190
公园 190
匠 190
姆 190
客制 190
拍杆 190
挂包 190
插@@ 190
涵 190
牛角 190
知 190
粥 190
(5 189
09 189
6.5 189
bt@@ 189
ja@@ 189
乐乐 189
他 189
伞架 189
俏皮 189
刨 189
吊@@ 189
天鹅 189
子星 189
尊 189
布娃娃 189
打造 189
推@@ 189
毯子 189
水冷 189
浮@@ 189
穴 189
笛 189
翻新 189
调光 189
轩@@ 189
长效 189
4) 188
a9 188
ad 188
amg 188
art 188
logo@@ 188
五色 188
军事 188
凯蒂猫 188
取@@ 188
壹 188
干花 188
当日 188
挡板 188
援 188
搬家 188
润肤 188
炒 188
烘培 188
甜@@ 188
登@@ 188
碳 188
绝@@ 188
菱形 188
蒸气 188
螺旋 188
计划 188
语@@ 188
酸@@ 188
零@@ 188
111 187
750@@ 187
dg 187
eva 187
ig@@ 187
ip@@ 187
louisvuitton 187
ru@@ 187
uni@@ 187
乡 187
作战 187
动力 187
单个 187
天空 187
姆@@ 187
工装裤 187
开业 187
护士 187
抽@@ 187
未@@ 187
横条 187
海军蓝 187
爪@@ 187
玫@@ 187
眼部 187
职员 187
质@@ 187
重磅 187
餐饮 187
et 186
happy 186
hi 186
u盘 186
ve 186
world 186
刮皮 186
扫 186
晴雨 186
河 186
浅@@ 186
灰黑 186
精品店 186
精萃 186
莎@@ 186
萃@@ 186
造 186
麦当劳 186
01@@ 185
10.5 185
baby-g 185
ol@@ 185
op@@ 185
slip 185
x/@@ 185
咪@@ 185
壳@@ 185
师@@ 185
帽衫 185
广场 185
懒懒 185
旋 185
曲@@ 185
气囊 185
洗发 185
深灰 185
火焰 185
牛排 185
男款 185
眼镜框 185
磁扣 185
背后 185
训 185
跳@@ 185
鹿@@ 185
118@@ 184
501 184
6) 184
blazer 184
fw 184
set 184
x5 184
xi 184
y-3 184
下杀@ 184
冲锋 184
币 184
摇@@ 184
时装 184
核心 184
桃红色 184
桑@@ 184
流沙 184
海苔 184
烂 184
热门 184
皇 184
矮凳 184
联想 184
脆 184
莓@@ 184
蓝宝石 184
转售 184
((@@ 183
006 183
lee 183
pazzo 183
studio 183
ys@@ 183
• 183
俊 183
内胆 183
史莱姆 183
复古@@ 183
山地车 183
异@@ 183
式) 183
扮 183
数量 183
桌@@ 183
消光 183
白光 183
码表 183
统 183
铂金 183
风车 183
-001 182
650@@ 182
6plus 182
care 182
cool 182
ge 182
ly 182
ml*@@ 182
queen 182
s7 182
ta 182
乔@@ 182
佩@@ 182
供佛 182
侠 182
侧@@ 182
刀具 182
单色 182
发圈 182
团体 182
宝可 182
巧@@ 182
总 182
投影 182
榨汁机 182
没有 182
泳裤 182
液体 182
漂 182
纺 182
网络 182
袖短 182
评价 182
辣椒 182
迪士尼@@ 182
锐 182
闪耀 182
(6 181
08 181
ap 181
fl@@ 181
ju@@ 181
monster 181
nikon 181
r17 181
tissot 181
win@@ 181
xsmax 181
作者: 181
光学 181
分钟 181
匙 181
喜欢 181
喷漆 181
天堂 181
小样 181
小猫 181
报@@ 181
横@@ 181
瓜 181
空姐 181
纯天然 181
美发 181
衫女 181
记事本 181
???? 180
ks 180
note5 180
pet 180
sky 180
分隔 180
加密 180
华硕 180
原液 180
安心 180
幽灵 180
机架 180
樱 180
深v 180
瓶) 180
甜甜 180
胸章 180
芒果 180
邮票 180
重机 180
铸铁 180
锅盖 180
0p 179
18-@@ 179
280 179
365 179
dvd- 179
j-@@ 179
kt@@ 179
s6 179
出游 179
坤 179
易@@ 179
木耳 179
松紧带 179
梨花 179
添加 179
炎 179
禅 179
脖@@ 179
若 179
鞋面 179
** 178
15-@@ 178
ddr@@ 178
kd 178
magic 178
note@@ 178
一体机 178
互动 178
姓名 178
小妹 178
尾灯 178
平底锅 178
棒@@ 178
椭圆 178
洁净 178
燕麦 178
痘@@ 178
租房 178
纽扣 178
绝 178
脱毛 178
自用 178
豪@@ 178
除毛 178
3c@@ 177
650 177
bt 177
chu@@ 177
par@@ 177
wanna 177
义大利 177
出差 177
制) 177
卖@@ 177
哑光 177
唱歌 177
垫片 177
女潮 177
子弹 177
完全 177
室内外 177
巴斯 177
我们 177
正方形 177
油漆 177
淡化 177
理发店 177
百褶裙 177
私@@ 177
糕 177
索@@ 177
耳环@@ 177
适用于 177
酒杯 177
门后 177
闪@@ 177
风琴 177
飞人 177
﹝@@ 177
40-44 176
ben@@ 176
club 176
dream 176
dunk 176
focus 176
gm 176
jacket 176
│秒 176
上海 176
俏 176
健身房 176
各式 176
夜灯 176
大款 176
姐姐 176
痛 176
盆@@ 176
花生 176
锁头 176
阳@@ 176
隔层 176
集中 176
靴女 176
预购) 176
飞行器 176
256 175
8.5 175
a8 175
design 175
party 175
s-xxl 175
s9 175
wang 175
会@@ 175
修饰 175
原色 175
定时 175
射@@ 175
小凳子 175
房子 175
披风 175
敷 175
栏 175
概论 175
模@@ 175
浆 175
矿 175
粘贴 175
蜜桃 175
镶嵌 175
附赠 175
首尔 175
73@@ 174
bear 174
carter's 174
db@@ 174
tiffany 174
佩佩猪 174
全新) 174
厨具 174
叫 174
吻 174
喵 174
团@@ 174
声光 174
女仆 174
守 174
恒 174
扩充 174
拇指 174
检 174
毛器 174
沉 174
男人 174
碗筷 174
粉扑 174
经济 174
绳@@ 174
荷兰 174
西餐 174
财@@ 174
阴 174
预订 174
005 173
550@@ 173
danielwellington 173
fa@@ 173
t1／ 173
❀ 173
不沾 173
凌 173
勺子 173
天梭 173
女郎 173
射 173
总成 173
托架 173
报 173
拨 173
新竹 173
炮 173
特价) 173
百货@@ 173
罩杯 173
航 173
荣@@ 173
设 173
钳@@ 173
除湿 173
齐全 173
0-@@ 172
20ml 172
230 172
720 172
a9@@ 172
dh@@ 172
fate 172
ine 172
melody 172
mks 172
tri@@ 172
twice 172
冠希 172
喝 172
大陆 172
宏@@ 172
富贵 172
服务 172
杜兰特 172
汁 172
润泽 172
烤炉 172
狮子 172
珍藏 172
瑜 172
白) 172
箱包 172
红) 172
胡@@ 172
腰@@ 172
花器 172
金证 172
额 172
风铃 172
香味 172
齿@@ 172
1-3 171
120ml 171
9999 171
essential 171
two 171
一直 171
反折 171
固@@ 171
奥迪 171
小伙伴 171
巴特 171
心形 171
挂表 171
换@@ 171
松饼 171
桑 171
正宗 171
气泡 171
皆可 171
胶条 171
舰 171
落@@ 171
蓝) 171
蜗牛 171
裂 171
财神 171
轴@@ 171
进化 171
金银 171
锻炼 171
门市 171
音乐盒 171
预@@ 171
鼎 171
3月 170
9.9 170
a8@@ 170
ax@@ 170
backpack 170
be 170
kelly 170
m2k 170
ps3 170
type 170
伯 170
公分) 170
兹 170
发廊 170
壁饰 170
大众 170
州 170
效@@ 170
数@@ 170
晒衣架 170
未使用 170
杏@@ 170
法兰 170
海马 170
牛皮纸 170
玩具@@ 170
璀璨 170
瓦斯 170
白板 170
眠 170
离@@ 170
米兰 170
籽 170
诱 170
速度 170
隐@@ 170
霸王 170
(日本 169
-1@@ 169
angel 169
jp@@ 169
lightning 169
takara 169
toy 169
义@@ 169
人缘 169
冷藏 169
副食品 169
呼吸 169
唇彩 169
商场 169
失@@ 169
实心 169
投影机 169
月子 169
液态 169
赤 169
趾@@ 169
车架 169
那@@ 169
顶@@ 169
鼻@@ 169
-b@@ 168
125@@ 168
190 168
35-40 168
dy@@ 168
giorgio 168
gopro 168
ipad@@ 168
l/@@ 168
ml/ 168
r-@@ 168
军@@ 168
勇士 168
名&优 168
大眼 168
屏幕 168
幼童 168
沐@@ 168
穿鞋 168
蕊 168
袋) 168
订做 168
走@@ 168
馆@@ 168
(小) 167
). 167
20/@@ 167
40-45 167
530 167
fashion 167
m44@@ 167
r9 167
s10 167
so 167
spf50 167
xa 167
唯 167
外销 167
大地 167
好吃 167
婴儿车 167
小兔 167
市场 167
常 167
折叠椅 167
搭扣 167
梁 167
檀香 167
私人 167
罐@@ 167
记录 167
部@@ 167
防辐射 167
风火轮 167
鲜@@ 167
(三 166
11100@@ 166
15.6 166
aw@@ 166
zo@@ 166
供奉 166
内衬 166
助@@ 166
双门 166
台风 166
圣诞树 166
小鸭 166
悬挂 166
折叠式 166
接口 166
提升 166
散热器 166
松木 166
毛笔 166
注@@ 166
画家 166
福特 166
精装 166
网状 166
花苞 166
茶树 166
走路 166
锡 166
-7@@ 165
100g 165
20000 165
ae@@ 165
agnes 165
ber@@ 165
chi 165
dart 165
dd@@ 165
green 165
na 165
primeknit 165
pt@@ 165
s0@@ 165
shoes 165
tiger 165
交通 165
光泽 165
医生 165
合作 165
咪 165
哆啦a 165
囊 165
帝 165
拖地 165
木雕 165
步@@ 165
演@@ 165
燃气 165
直出 165
纤@@ 165
维尼@@ 165
缇 165
网格 165
虫@@ 165
课本 165
车牌 165
问 165
2016年 164
]☆ 164
a梦 164
ff 164
ing 164
s) 164
ten@@ 164
va@@ 164
vr 164
wd 164
x6 164
ト@@ 164
冷淡 164
妳@@ 164
常@@ 164
待机 164
徐 164
插画 164
新加坡 164
桥 164
水枪 164
漫@@ 164
爸 164
牡丹 164
病 164
睡@@ 164
红绿 164
花架子 164
裤头 164
观 164
连接 164
郭 164
需要 164
高温 164
(限定 163
117 163
128@@ 163
301 163
5d 163
bw@@ 163
gold 163
led@@ 163
ng 163
ok 163
xs@@ 163
三联 163
何 163
佛珠 163
包覆 163
外卖 163
念 163
掉色 163
整装 163
柜台 163
流浪 163
照@@ 163
狗头 163
碳素 163
细致 163
蓬松 163
遮挡 163
驼色 163
鸣 163
鹤 163
1.5m 162
978@@ 162
big 162
gd@@ 162
plus/@@ 162
rn 162
son 162
tods 162
包#@@ 162
台上 162
回馈 162
垃圾袋 162
大功率 162
奖 162
小站 162
幸 162
扣头 162
无瑕 162
梦想 162
爆裂 162
猛 162
电锅 162
碧@@ 162
红豆 162
衣帽 162
金牌 162
2014 161
3000 161
7) 161
80g 161
bws 161
iphone6s 161
ray 161
wave 161
ー@@ 161
关节 161
农 161
发器 161
吉祥 161
改@@ 161
样板房 161
楠竹 161
正生 161
气压 161
狂@@ 161
甜甜圈 161
画画 161
睡袍 161
空白 161
花艺 161
遇见 161
金箔 161
钢珠 161
食品级 161
170 160
711 160
dior迪奥@@ 160
gucci/ 160
hilfiger 160
j7 160
mazda 160
smart 160
ter@@ 160
x3 160
xi@@ 160
ys 160
低胸 160
冷暖 160
刻度 160
劳保 160
哆 160
唷 160
夕 160
大耳 160
扣环 160
搓 160
机电 160
楠 160
汽@@ 160
滑轮 160
盖布 160
省力 160
绕 160
绝地 160
美味 160
翠 160
莓 160
袖珍 160
裹 160
陈列 160
骑车 160
黏 160
6吋 159
\n@@ 159
am 159
case 159
crystal 159
marvel 159
wh@@ 159
xa1 159
ー 159
假花 159
减@@ 159
变速 159
只要 159
台桌 159
司机 159
圈@@ 159
寻 159
悟 159
扑克牌 159
拳击 159
最高 159
碳纤 159
红木 159
脂@@ 159
芝@@ 159
萝 159
蔻@@ 159
购) 159
销 159
锋 159
长靴 159
+1 158
112 158
14-@@ 158
330 158
900@@ 158
a/@@ 158
aa 158
ana 158
ea7 158
japan 158
kin@@ 158
mas@@ 158
navy 158
shirt 158
乌 158
俱乐部 158
古铜 158
吊床 158
哑铃 158
垫脚 158
子) 158
左@@ 158
巨人 158
彭 158
损 158
摩登 158
极限 158
枕芯 158
桃木 158
毛毡 158
洗头 158
着@@ 158
育 158
酒器 158
钢针 158
钮扣 158
黑曜石 158
(c@@ 157
1970s 157
a7 157
b5 157
bk 157
desire 157
gps 157
lab 157
life@@ 157
toys 157
t桖 157
√@@ 157
世代 157
乌龟 157
全面 157
分离 157
北海道 157
地图 157
地球 157
局 157
悠@@ 157
拔 157
智力 157
模拟 157
泽@@ 157
篮子 157
薯条 157
衬@@ 157
议 157
重型 157
防汗 157
顺@@ 157
＆@@ 157
-00@@ 156
1970 156
dhc 156
gb@@ 156
mat@@ 156
oversize 156
royal 156
sun 156
tekno 156
vip 156
x5@@ 156
〖 156
分享 156
剥 156
升@@ 156
叉子 156
发售 156
吋) 156
回收 156
孔雀 156
小舖@@ 156
早秋 156
柜门 156
棚 156
泡@@ 156
浩 156
狗@@ 156
珍品 156
球员 156
电容 156
真人 156
眼膜 156
祥 156
脑 156
芬@@ 156
言 156
记忆体 156
试题 156
踩 156
途 156
钱@@ 156
｛ 156
260@@ 155
bra@@ 155
collection 155
ifairies 155
ix 155
kose 155
pre@@ 155
sega 155
t.@@ 155
x10 155
下午茶 155
佛像 155
便条纸 155
其@@ 155
刺猬 155
医疗 155
博柏利 155
夹层 155
妃 155
娜娜 155
屁股 155
幼@@ 155
找 155
摇头 155
政@@ 155
敏感 155
方桌 155
无缝 155
期限 155
梅花 155
检测 155
炭@@ 155
玻璃瓶 155
竞技 155
罐头 155
羊羔 155
虾@@ 155
蜡笔 155
贺 155
资 155
迎宾 155
道教 155
野兽 155
黑) 155
(超 154
16-@@ 154
401 154
altis 154
bo 154
brown 154
cap 154
levis 154
phone 154
zx 154
三洋 154
个@@ 154
乔治 154
共@@ 154
决 154
喜糖 154
塑@@ 154
墙角 154
夜间 154
大大 154
姐妹 154
嫁接 154
形@@ 154
手饰 154
投影仪 154
摆@@ 154
木色 154
猫眼 154
留言 154
管道 154
编@@ 154
芙 154
藤椅 154
补丁 154
购价 154
钢丝 154
高贵 154
---@@ 153
118 153
bally 153
chrome 153
hitachi 153
hp@@ 153
kd@@ 153
qu@@ 153
rc 153
s-xl 153
ssd 153
steam 153
ti 153
tv 153
ty 153
vol@@ 153
xz 153
健@@ 153
净水 153
单眼 153
培训 153
干果 153
弦 153
拖车 153
挤 153
朱 153
水果盘 153
满意 153
生儿 153
脸@@ 153
袖@@ 153
赔 153
钢管 153
雄 153
面乳 153
(大@@ 152
135 152
combi 152
f1 152
her@@ 152
mer@@ 152
msi 152
ou@@ 152
rs@@ 152
wu 152
人鱼 152
伦@@ 152
俄罗斯 152
光阳 152
兜兜 152
冬@@ 152
厚@@ 152
围@@ 152
奶奶 152
惠灵顿 152
手持式 152
探索 152
望远镜 152
檀木 152
洗发水 152
溜冰鞋 152
熊@@ 152
生肖 152
相册 152
知@@ 152
研磨 152
美学 152
都市 152
锦@@ 152
防虫 152
鞭 152
996 151
[l 151
gp 151
mix 151
t0@@ 151
va 151
xx 151
冰块 151
去除 151
圆型 151
增压 151
好运 151
彩膜 151
暗@@ 151
曾 151
最佳 151
机柜 151
柑 151
桧 151
每@@ 151
物品 151
琥珀 151
莲蓬头 151
菜刀 151
路由器 151
铁皮 151
间@@ 151
除尘 151
(直 150
+/@@ 150
[x 150
art@@ 150
di 150
dv@@ 150
fm 150
mj 150
vs 150
主食 150
便捷 150
列 150
剃 150
剑@@ 150
吗 150
唱片 150
因 150
国外 150
国家 150
处理 150
巨无霸 150
布衣 150
异味 150
护套 150
木板 150
木马 150
机箱 150
特价@@ 150
猎@@ 150
生命 150
用款 150
的@@ 150
结单 150
聚会 150
肩@@ 150
背包@@ 150
脖子 150
蓝光 150
认明 150
钞 150
防水@@ 150
零售 150
风机 150
高手 150
!@@ 149
-02 149
247 149
a) 149
alice 149
c.@@ 149
cw@@ 149
dd 149
diamond 149
iphone8 149
m-2xl 149
pro/@@ 149
smax 149
下杀@@ 149
元气 149
凤@@ 149
刀片 149
劳@@ 149
化学 149
启动 149
天鹅绒 149
度@@ 149
手掌 149
托特包 149
水光 149
洗面奶 149
湖水 149
瑞典 149
种植 149
绮 149
胖胖 149
能@@ 149
过家家 149
锁扣 149
马尾 149
麻辣 149
(30 148
-12 148
480 148
a& 148
cj@@ 148
core 148
court 148
dy 148
gel 148
guess 148
heart 148
kiss 148
les 148
tee@@ 148
八五 148
厂@@ 148
发卡 148
唐@@ 148
夹心 148
寿 148
小个子 148
景@@ 148
枪@@ 148
永恒 148
玄@@ 148
百搭 148
绷带 148
袜@@ 148
贵妃 148
迷@@ 148
迷人 148
选) 148
's@@ 147
3g 147
ace 147
app 147
can@@ 147
ct 147
fun 147
gogoro 147
iu 147
lativ 147
ll@@ 147
promax 147
racer 147
u11 147
・@@ 147
不可 147
哇 147
如图 147
宫崎骏 147
属 147
攻略 147
整组 147
桂 147
浅灰 147
猎人 147
瑕疵 147
米老鼠 147
美睫 147
记录器 147
鑫@@ 147
项链@@ 147
领劵 147
首@@ 147
(2@@ 146
36-39 146
3ce 146
4d 146
82@@ 146
90cm 146
az@@ 146
bra 146
citizen 146
ferragamo 146
funko 146
ku 146
levi's 146
ン 146
传输 146
全屏 146
原矿 146
可伸缩 146
安德玛 146
宴 146
居@@ 146
慧@@ 146
戴@@ 146
手推 146
挑战 146
插花 146
收银台 146
方格 146
桃色 146
模特 146
温度 146
穆勒 146
端子 146
精英 146
细节 146
维生素 146
罐装 146
蛋卷 146
邱 146
钻戒 146
除湿机 146
鞋底 146
"\ 145
120g 145
380 145
520@@ 145
?? 145
bape 145
ir@@ 145
jk 145
pony 145
w/@@ 145
准 145
各@@ 145
园@@ 145
土耳其 145
夸张 145
尾巴 145
引 145
控制器 145
杏 145
杨幂 145
枕头套 145
枣 145
染发剂 145
淡斑 145
烤@@ 145
看@@ 145
社@@ 145
穿衣镜 145
童趣 145
菊花 145
装潢 145
调情 145
跑@@ 145
远@@ 145
金属@@ 145
附发票 145
30g 144
580 144
8mm 144
d.@@ 144
har@@ 144
m60@@ 144
nsw 144
tom 144
usb@@ 144
z-@@ 144
z5 144
ン@@ 144
中大 144
会员 144
侠@@ 144
保时 144
双排扣 144
口径 144
多彩 144
大叔 144
幕 144
床边柜 144
彩灯 144
房@@ 144
提袋 144
新生 144
染发 144
棉外套 144
清水 144
湿巾 144
玫瑰@@ 144
瓜@@ 144
祖 144
票@@ 144
脂 144
莱卡 144
警@@ 144
试@@ 144
跟单 144
过滤网 144
锅@@ 144
飞行员 144
鱼骨 144
(白) 143
-8@@ 143
10.@@ 143
3.8 143
530@@ 143
6月 143
cor@@ 143
fc 143
g6 143
ha 143
id 143
note4 143
plus@@ 143
secret 143
ღ@@ 143
商品@@ 143
图解 143
声控 143
心率 143
手办 143
打印机 143
搭@@ 143
斜@@ 143
昆 143
晴雨伞 143
松鼠 143
枕@@ 143
热敷 143
用品@@ 143
目@@ 143
种@@ 143
良好 143
色彩 143
行家 143
计@@ 143
超越 143
锦 143
院 143
随意 143
鱼竿 143
(原 142
3/4 142
320 142
c/@@ 142
cnc 142
epson 142
m-xl 142
nokia 142
paul 142
rgb 142
usa 142
册) 142
刺@@ 142
功 142
声@@ 142
尖@@ 142
性爱 142
成年 142
扩@@ 142
无纺布 142
望 142
汽 142
海豚 142
混合 142
溢 142
澳 142
热销# 142
畅 142
简洁 142
箭 142
胡子 142
自行 142
菁 142
铁架 142
闪灯 142
限@@ 142
音频 142
魅@@ 142
-10@@ 141
5a 141
gp@@ 141
gx@@ 141
hg 141
lolita 141
mei@@ 141
ophidia 141
spf@@ 141
up@@ 141
uptempo 141
valentino 141
◇@@ 141
伏 141
凉被 141
勒 141
半透明 141
卷边 141
号: 141
圆珠 141
女帝 141
宣传 141
尺@@ 141
市@@ 141
库里 141
手提式 141
抓@@ 141
披 141
提篮 141
散@@ 141
旭 141
春天 141
最@@ 141
杨@@ 141
沙龙 141
画板 141
码@@ 141
窗@@ 141
缇花 141
良品 141
证书 141
购物车 141
金边 141
锂电池 141
食堂 141
黛@@ 141
(100 140
009 140
1" 140
1+@@ 140
36-40 140
bon@@ 140
ht@@ 140
ig 140
j.@@ 140
miu 140
pa 140
qc@@ 140
s8@@ 140
ton 140
xr@@ 140
§ 140
♛@@ 140
五角星 140
仰卧 140
保险柜 140
保险箱 140
先@@ 140
刮@@ 140
到@@ 140
号码 140
墨绿 140
学步车 140
小铺 140
小飞象 140
帮@@ 140
快感 140
战神 140
斜纹 140
极光 140
树叶 140
沉香 140
活性 140
激@@ 140
理发 140
电机 140
萝@@ 140
蒙@@ 140
蔷薇 140
薄纱 140
贴花 140
足@@ 140
迈 140
鑫 140
雾@@ 140
.1 139
a1 139
ang 139
fw@@ 139
gu 139
just 139
ls 139
oz 139
sui 139
三角形 139
丘 139
丢 139
个) 139
吕 139
女靴 139
妞 139
开襟 139
护目镜 139
方框 139
柚子 139
栅栏 139
汤碗 139
油性 139
淘 139
烛台 139
物理 139
由 139
碗@@ 139
神秘 139
腕带 139
讲义 139
赞@@ 139
达人 139
银楼 139
铺㊣ 139
降噪 139
静@@ 139
-2 138
1-2@@ 138
280@@ 138
2a 138
93@@ 138
em@@ 138
nano 138
small 138
tf 138
t短 138
zen@@ 138
兰芝 138
刹车 138
历史 138
大量 138
孕@@ 138
实务 138
密码锁 138
岁月 138
布朗 138
帮手 138
应用 138
影@@ 138
挑@@ 138
木床 138
水晶球 138
求婚 138
沛@@ 138
河@@ 138
瑶 138
甘@@ 138
示 138
穿过 138
素描 138
萝卜 138
蓝黑 138
赫@@ 138
遥控车 138
重工 138
钓竿 138
马自达 138
鲤鱼 138
鼠年 138
200g 137
250g 137
260 137
710@@ 137
ga-110 137
gx 137
io 137
keith 137
kitty@@ 137
妃@@ 137
实验 137
寿@@ 137
少量 137
微波 137
恋@@ 137
文乐 137
晓@@ 137
普通 137
极品 137
母婴 137
活页 137
琴@@ 137
益@@ 137
盛@@ 137
窑 137
等@@ 137
线香 137
薰@@ 137
许愿 137
读@@ 137
轨 137
避震器 137
邦@@ 137
钉@@ 137
音质 137
餐垫 137
鬼@@ 137
116 136
cpu 136
ft@@ 136
ow 136
rebecca 136
亚洲 136
以@@ 136
件@@ 136
便利店 136
修补 136
兰蔻 136
净化器 136
单面 136
吊篮 136
塑钢 136
妙@@ 136
川@@ 136
延长 136
开花 136
投@@ 136
抛弃 136
拎 136
接收器 136
无法 136
朝 136
机手 136
板桥 136
棉鞋 136
瘦@@ 136
白雪公主 136
禁 136
等级 136
精密 136
背巾 136
订购 136
贝儿 136
链带 136
韩版 136
颖 136
马拉松 136
): 135
1l 135
40mm 135
5l 135
9) 135
bc@@ 135
day@@ 135
md@@ 135
nintendo 135
ori@@ 135
yo 135
ス@@ 135
倒流 135
儿童@@ 135
包巾 135
国制 135
填 135
大马 135
夫妻 135
奇奇蒂蒂 135
年终 135
底裤 135
开幕 135
核桃 135
框@@ 135
梵@@ 135
檀 135
皇后 135
祭 135
私处 135
纱@@ 135
腰部 135
良@@ 135
螨@@ 135
装修 135
计算机 135
试衣 135
铭 135
镜框 135
长度 135
雪茄 135
﹝ 135
(买 134
-c@@ 134
atf 134
ay@@ 134
chanel@@ 134
fgo 134
knit 134
lip 134
书套 134
乳霜 134
刮痧 134
勇者 134
圆凳 134
完@@ 134
宠爱 134
平民 134
弹跳 134
总代理 134
恋人 134
曲面 134
替 134
柔光 134
派克 134
瓷杯 134
百年 134
续 134
网球 134
螃蟹 134
行销 134
记@@ 134
诚信 134
通讯 134
鉴赏 134
链@@ 134
马上 134
齐@@ 134
(保留 133
1-2 133
\n\ 133
game 133
jeans 133
m40@@ 133
mk6@@ 133
pg 133
s5@@ 133
san-x 133
sc 133
ter 133
time 133
x9 133
一体式 133
三角架 133
为@@ 133
五斗柜 133
储存 133
兔毛 133
农场 133
刷色 133
同学 133
启蒙 133
妻 133
宫@@ 133
影片 133
愿 133
手写 133
护发素 133
搜 133
檐 133
欢 133
洪 133
消@@ 133
烫@@ 133
焊 133
燕 133
特价$@@ 133
电子秤 133
矿物 133
终极 133
续航 133
美杜莎 133
致@@ 133
被@@ 133
财务 133
购价) 133
轮子 133
远程 133
退@@ 133
随@@ 133
颈枕 133
魔方 133
黎 133
*2 132
008 132
3a 132
8) 132
g5 132
missha 132
pan@@ 132
tote 132
za 132
中学生 132
伞状 132
佩 132
便@@ 132
倒车 132
决战 132
净水器 132
及膝 132
台式机 132
圆筒 132
多媒体 132
奇诺 132
妖@@ 132
工具包 132
帆船 132
底片 132
微电脑 132
指甲剪 132
接线 132
放大镜 132
晶片 132
本) 132
本子 132
案 132
浓密 132
渡 132
滤@@ 132
煮锅 132
熨斗 132
生存 132
直排 132
短筒 132
网卡 132
芝麻街 132
角度 132
!) 131
(公司 131
60ml 131
adi@@ 131
hoodie 131
jojo 131
mei 131
pin 131
sam@@ 131
ᄋ@@ 131
◇ 131
台布 131
合成 131
夏威夷 131
天线 131
恤衫 131
把@@ 131
抑菌 131
拉力 131
无味 131
暖暖 131
根@@ 131
椭圆形 131
模组 131
海盗 131
滑雪 131
熊本 131
百搭@@ 131
缪 131
视@@ 131
钮 131
银行 131
销价 131
｝ 131
978957@@ 130
bd 130
bs 130
ice 130
parker 130
x4 130
→ 130
丁@@ 130
乃 130
五件 130
代购) 130
侃爷 130
停车 130
光感 130
别@@ 130
合奏 130
尖端 130
帘子 130
影楼 130
忍 130
怪@@ 130
悬挂式 130
承@@ 130
携带型 130
日版 130
枸杞 130
男t 130
盐@@ 130
离 130
粘@@ 130
芝麻 130
蛙@@ 130
触摸 130
适@@ 130
防疫 130
阴@@ 130
靓@@ 130
音量 130
骚 130
鸟笼 130
(m@@ 129
..@@ 129
1100 129
11月 129
2013 129
2018@@ 129
202 129
2g 129
450@@ 129
a2@@ 129
audi 129
bi 129
cl 129
ga-@@ 129
ii@@ 129
ina 129
jp0@@ 129
men 129
pack 129
sx@@ 129
tn@@ 129
zb@@ 129
▲ 129
事业 129
儿童节 129
出清) 129
划痕 129
卡特 129
咖啡壶 129
大童 129
奇异 129
奈米 129
寒 129
山地 129
影城 129
快递 129
断@@ 129
水乳 129
滚@@ 129
现场 129
甲醛 129
电源线 129
盖子 129
碧玺 129
粉白 129
蛙 129
表面 129
输出 129
运动@@ 129
铁板 129
锁@@ 129
126 128
155 128
1ml 128
701 128
buy 128
crv 128
eye 128
f0@@ 128
jc 128
kk 128
mate 128
men@@ 128
mit@@ 128
paris 128
prime 128
sho@@ 128
tamiya 128
wars 128
xl) 128
シ@@ 128
乐高积木 128
五代 128
人份 128
克兰 128
全部 128
公文 128
分析 128
剃须刀 128
势 128
包膜 128
发膜 128
套头衫 128
好好 128
小推车 128
工程车 128
抽取 128
收音机 128
晚 128
有效 128
正货 128
汽油 128
浪@@ 128
溪 128
玩具店 128
疲劳 128
皮筋 128
石英钟 128
胶鞋 128
腻 128
酒神 128
量贩 128
销售 128
雷朋 128
驾驶 128
(1) 127
(新 127
-h@@ 127
2.4 127
225@@ 127
236@@ 127
414@@ 127
880@@ 127
bobo 127
che@@ 127
ci 127
ele@@ 127
emporio 127
ic 127
kit 127
land 127
n\ 127
nms 127
oshkosh 127
sh 127
tg@@ 127
triple 127
vintage" 127
一体 127
仁@@ 127
兰花 127
凉爽 127
凤 127
初中 127
励志 127
回弹 127
妳 127
室@@ 127
廖 127
弥 127
承 127
拾 127
果酱 127
梦网 127
流水 127
测试 127
深海 127
爷 127
现货# 127
知名 127
立体声 127
等身 127
缇@@ 127
莫斯 127
菜板 127
营@@ 127
蒙古包 127
蓝绿 127
装饰灯 127
贝雷帽 127
链子 127
魏 127
鱼眼 127
150g 126
15ml 126
and@@ 126
at 126
edition 126
f/@@ 126
lexus 126
lucky 126
m2 126
np@@ 126
r2 126
ren@@ 126
slim 126
tab 126
ven@@ 126
ye@@ 126
yi@@ 126
业@@ 126
人体工学 126
出门 126
十足 126
发泡 126
圆球 126
备注 126
复合 126
小子 126
开瓶器 126
必@@ 126
忧 126
排水 126
期@@ 126
框架 126
椅@@ 126
牛皮@@ 126
现金 126
硫化 126
硬度 126
神域 126
维多利亚 126
芭@@ 126
芸芸 126
苏菲 126
蝶古 126
追@@ 126
铅 126
领巾 126
高雅 126
魔女 126
黑眼圈 126
＄@@ 126
-6 125
1/144 125
158 125
alexander 125
c0@@ 125
chang 125
et@@ 125
gen@@ 125
iii 125
kh@@ 125
ky@@ 125
ml+ 125
tl@@ 125
三明治 125
仪表 125
伴 125
光年 125
全民 125
出品 125
十一 125
右@@ 125
哄 125
啤酒 125
喵喵 125
坂 125
大王 125
宣言 125
层次 125
差 125
市集 125
徒步 125
得力 125
手链@@ 125
折起 125
拆卸 125
拉面 125
捞 125
捧 125
控@@ 125
擦拭 125
料@@ 125
旧@@ 125
朗@@ 125
机身 125
果蔬 125
棉袄 125
止@@ 125
治@@ 125
浣熊 125
海棉 125
涂 125
灯管 125
牙齿 125
狗狗 125
玛莎拉蒂 125
班@@ 125
礼券 125
章鱼 125
肤宝水 125
解析 125
赤@@ 125
镀铬 125
霜@@ 125
黑黑 125
＜ 125
20g 124
beats 124
bur@@ 124
g.@@ 124
m9@@ 124
mm/@@ 124
per@@ 124
su 124
❥@@ 124
优惠@@ 124
全集 124
公仔@@ 124
切片 124
制品 124
印尼 124
名字 124
垃圾 124
增强 124
备@@ 124
家) 124
崎@@ 124
干洗 124
折叠伞 124
挂毯 124
曲线 124
杂@@ 124
洗面 124
测@@ 124
火山 124
研磨机 124
紫罗兰 124
翠@@ 124
育@@ 124
蚊器 124
触屏 124
调味料 124
账 124
资讯 124
车手 124
防晒乳 124
阵 124
(b@@ 123
(四 123
(男 123
6g 123
8.@@ 123
ani@@ 123
ec@@ 123
ml- 123
pg@@ 123
por@@ 123
reno 123
swoosh 123
usb3.0 123
with 123
wn@@ 123
x7 123
优惠) 123
全方位 123
出清@@ 123
剧@@ 123
同名 123
咖哩 123
啰 123
少@@ 123
屁@@ 123
开学 123
待 123
手作 123
摇杆 123
擦@@ 123
杜@@ 123
果干 123
橄榄 123
浅色 123
潘多拉 123
白白 123
纯净 123
聪明 123
芭 123
莲@@ 123
超声波 123
辛 123
邮 123
配送 123
金) 123
钓鱼竿 123
长型 123
长方 123
随便 123
雕像 123
#新品 122
(新款 122
(蓝 122
.5@@ 122
11-@@ 122
2019/@@ 122
24k 122
512 122
ahc 122
ape 122
estee 122
god 122
pin@@ 122
下杀@@@ 122
价$@@ 122
偏光镜 122
动能 122
包子 122
即食 122
吾 122
呢 122
商业 122
喷雾器 122
夫@@ 122
奴比 122
掌柜 122
教材 122
文书 122
文具盒 122
暴@@ 122
李@@ 122
染@@ 122
橡皮擦 122
涂层 122
狐 122
电视机 122
离合器 122
编号: 122
聚宝盆 122
肯@@ 122
船型 122
茶叶罐 122
谈 122
车皮 122
鲁夫 122
麻绳 122
1.6 121
136@@ 121
145 121
390 121
3s 121
dm@@ 121
epic 121
lauder 121
pd 121
piece 121
print 121
rb@@ 121
t男 121
下巴 121
丝带 121
会议桌 121
假@@ 121
加压 121
印象 121
口水 121
墙@@ 121
太子 121
女网 121
季@@ 121
密度 121
巴士 121
布贴 121
录@@ 121
无烟 121
柱@@ 121
毛刷 121
沉@@ 121
浪琴 121
涂料 121
照镜 121
牵引 121
电力 121
电吉他 121
男学生 121
砸 121
稳定 121
舞会 121
藻 121
装扮 121
超硬 121
(12 120
(9 120
(简体 120
608 120
ali@@ 120
black@@ 120
ft 120
gsc 120
insta 120
isbn: 120
james 120
lv/ 120
m5 120
sampo 120
tr 120
wh 120
√ 120
亚马逊 120
克斯 120
内外 120
冰凉 120
勋 120
名器 120
喷枪 120
妃包 120
完成 120
宾@@ 120
工场 120
引@@ 120
慈@@ 120
扭扭 120
探 120
晕染 120
栗 120
沙包 120
注 120
浴@@ 120
潮t 120
烘@@ 120
焕 120
纱窗 120
纹路 120
织@@ 120
绣@@ 120
船@@ 120
草坪 120
菌@@ 120
衣裤 120
裁 120
谢@@ 120
贵妇 120
追 120
重力 120
钻头 120
鲸鱼 120
.2 119
902 119
e.@@ 119
evo 119
ez 119
js 119
max90 119
ni 119
pen@@ 119
platform 119
s1 119
shimano 119
sl 119
spade 119
tb@@ 119
tester 119
wr@@ 119
○ 119
中小学生 119
主机板 119
京@@ 119
供应器 119
冷风 119
凸 119
刀头 119
劳 119
合售 119
听@@ 119
品味 119
城@@ 119
夹板 119
宜@@ 119
展@@ 119
布面 119
弗@@ 119
忘 119
拓 119
摩洛哥 119
收纳@@ 119
无糖 119
杠@@ 119
检验 119
民谣 119
汗衫 119
海盐 119
熙 119
白银 119
窗台 119
端 119
粉) 119
红枣 119
蚊@@ 119
转盘 119
金盏花 119
闪光灯 119
阿赞@@ 119
鞋盒 119
顶上 119
(近 118
113 118
24cm 118
3m@@ 118
ang@@ 118
bobbi 118
bu9@@ 118
der@@ 118
double 118
f5@@ 118
gar@@ 118
mac@@ 118
master 118
mor@@ 118
new@@ 118
play@@ 118
t/@@ 118
|| 118
亦 118
免运@@ 118
全省 118
区) 118
卓 118
厘米 118
友@@ 118
吹@@ 118
呢子 118
响@@ 118
女裤 118
层@@ 118
工作台 118
幻@@ 118
异形 118
息 118
手电 118
整箱 118
标示 118
每日 118
灰姑娘 118
烟盒 118
用品. 118
监视器 118
眼镜架 118
祝福 118
纪念版 118
自慰杯 118
螺@@ 118
试管 118
跟@@ 118
醒 118
错 118
问题 118
附录 118
陶@@ 118
领口 118
馅 118
￥@@ 118
(非 117
10月 117
13-@@ 117
380@@ 117
60cm 117
dyson 117
joy 117
porsche 117
re 117
si 117
sw 117
togo 117
✪@@ 117
主持人 117
佳能 117
勇 117
包围 117
卡卡 117
印字 117
原料 117
变焦 117
呆 117
地靴 117
坎肩 117
声卡 117
定妆 117
想@@ 117
成犬 117
指针 117
排气管 117
杀价@@ 117
污 117
沃@@ 117
沟 117
火烈鸟 117
炖锅 117
理论 117
眼皮 117
神仙 117
稳 117
空瓶 117
籽@@ 117
网购 117
胶底 117
航@@ 117
茵 117
衬 117
袖短t 117
装饰@@ 117
视觉 117
身体乳 117
酷奇 117
醉 117
金丝绒 117
闻 117
面) 117
-10 116
114 116
3-6 116
70-@@ 116
d0@@ 116
huang 116
mh@@ 116
nice 116
pop@@ 116
seventeen 116
sf 116
too 116
wu@@ 116
☞@@ 116
光面 116
包包包 116
哈利波特 116
堂@@ 116
大容量 116
太极 116
妞妞 116
娟 116
手工艺 116
承重 116
抽奖 116
明日 116
果盘 116
止痒 116
死皮 116
水泵 116
测量 116
火星 116
玻璃膜 116
百货公司 116
程@@ 116
站@@ 116
纪@@ 116
练字 116
老爷 116
肥@@ 116
裤腰带 116
说@@ 116
象@@ 116
超级@@ 116
透亮 116
颈部 116
飞镖 116
饭碗 116
(8 115
(中 115
1.0 115
2012 115
2020/@@ 115
4月 115
7p 115
7月 115
a6 115
gtr 115
kakao 115
m4 115
po 115
rd@@ 115
s7@@ 115
shf 115
t- 115
t型 115
um 115
v/@@ 115
vivo@@ 115
vol.@@ 115
you@@ 115
yoyo 115
仙境 115
克拉 115
刊 115
动物园 115
医@@ 115
发露 115
吊椅 115
埃及 115
域 115
套装@@ 115
密码箱 115
开刃 115
彼 115
搅拌机 115
播 115
文件柜 115
朵@@ 115
油壶 115
溜 115
煲 115
牛仔布 115
珠子 115
男包 115
画册 115
瘾 115
监测 115
石榴 115
笔芯 115
缓冲 115
莹 115
蜘蛛 115
袖口 115
西点 115
赵 115
金丝 115
阳具 115
验 115
＆ 115
(白 114
402 114
5cm 114
aape 114
ban@@ 114
bt21 114
cm/@@ 114
daniel 114
fun@@ 114
good 114
laneige 114
len@@ 114
mil@@ 114
muji 114
note3 114
sk 114
ste@@ 114
summer 114
✪ 114
一键 114
上课 114
仙气 114
保洁 114
双子 114
发行 114
吃@@ 114
小提琴 114
库@@ 114
快手 114
成型 114
打气 114
抢先 114
探@@ 114
改善 114
晚@@ 114
校 114
浏海 114
渍 114
煤油 114
瞬间 114
神话 114
缝线 114
老二 114
苏打 114
蜂 114
许@@ 114
谦 114
钟@@ 114
门窗 114
阶 114
食用 114
鹅@@ 114
｝@@ 114
**@@ 113
.0 113
15/@@ 113
6-12 113
ax 113
bc 113
ep@@ 113
ino 113
ld@@ 113
lte 113
m3 113
mf@@ 113
mg@@ 113
mk5@@ 113
sgs 113
ultraboost 113
wd@@ 113
x手机 113
今日 113
会场 113
力量 113
吊扇 113
售出) 113
客户 113
封面 113
彼得 113
恐怖 113
战争 113
打蜡 113
更新 113
椅背 113
欣@@ 113
纽西兰 113
老年人 113
耶诞 113
股 113
背斜 113
轮滑鞋 113
钢架 113
驱车 113
(3@@ 112
119 112
17-@@ 112
256g 112
303 112
826@@ 112
830 112
ho 112
maserati 112
mercci22 112
note10 112
nova 112
out@@ 112
school 112
vga 112
xt 112
zoo 112
い@@ 112
中空 112
井@@ 112
作业 112
兼容 112
分层 112
初版 112
单鞋 112
大摆 112
季节 112
宗@@ 112
尚@@ 112
居家家 112
年代 112
广@@ 112
手巾 112
打结 112
拼@@ 112
捆 112
探险 112
教具 112
杆@@ 112
杉 112
水母 112
沙漏 112
河马 112
滑滑 112
硬币 112
经济学 112
胖@@ 112
自助 112
观@@ 112
贵宾 112
釉 112
麻布 112
黑面 112
齿轮 112
(h@@ 111
(女) 111
*1 111
10) 111
1000@@ 111
316@@ 111
5mm 111
63@@ 111
917@@ 111
b37@@ 111
charles& 111
cho@@ 111
der 111
dw@@ 111
fossil 111
hellokitty 111
jr 111
kipling 111
lol 111
mcqueen 111
moto 111
pet@@ 111
pochette 111
suzuki 111
wood 111
下铺 111
亲笔 111
保险 111
元宝 111
军装 111
凤凰 111
切菜 111
化妆盒 111
北极熊 111
匙@@ 111
匹 111
古龙 111
员工 111
国画 111
宣 111
小人 111
恤 111
惠普 111
懂 111
拆卖 111
拳 111
排球 111
敲 111
更换 111
楼@@ 111
水草 111
沙袋 111
海鲜 111
游泳池 111
爵士 111
瓶装 111
生态 111
瘦脸 111
白熊 111
盈 111
盥洗 111
绿) 111
羽毛球 111
衣袋 111
计时器 111
软软 111
铲子 111
银河 111
202@@ 110
aj4 110
bn@@ 110
chicco 110
dsquared2 110
fe 110
gear 110
gtx@@ 110
hyper@@ 110
l'@@ 110
lancome 110
london 110
lt@@ 110
mickey 110
pam@@ 110
polo衫@@ 110
tra@@ 110
ver 110
不同 110
会客 110
出货@@ 110
吊柜 110
垢 110
墨绿色 110
射灯 110
小米@@ 110
幻想 110
开心 110
心灵 110
急速 110
旗@@ 110
日制 110
末 110
柔顺 110
浅蓝 110
煎锅 110
玉髓 110
瘦长 110
筑 110
美工 110
艾草 110
葛 110
薰香 110
蚂蚁 110
轴承 110
逆@@ 110
重量 110
铁塔 110
随身听 110
风力 110
飘逸 110
鹅 110
"nike 109
(4@@ 109
(s@@ 109
(蓝) 109
1300 109
2l 109
310@@ 109
330@@ 109
9.7 109
cam@@ 109
cd) 109
cm-@@ 109
gundam 109
jy 109
nike/ 109
oil 109
oppo@@ 109
story 109
vit@@ 109
zu@@ 109
フ@@ 109
人像 109
低调 109
体感 109
免税 109
加工 109
名侦探柯南 109
商品) 109
国文 109
坏 109
大口 109
大阪 109
头) 109
契尔氏 109
套鞋 109
寇 109
尿@@ 109
干爽 109
弘 109
成套 109
打折 109
挑逗 109
旋风 109
日杂 109
最低 109
桃子 109
概念 109
母子 109
汝 109
浴衣 109
温度计 109
灯罩 109
爱恋 109
牛肉 109
玫 109
神明 109
米桶 109
纸尿裤 109
背袋 109
蔓越莓 109
货到付款 109
酒瓶 109
餐车 109
马卡龙 109
魔幻 109
麦克 109
(2) 108
(满 108
(预购 108
*10 108
1- 108
108@@ 108
230@@ 108
24v 108
499 108
50-@@ 108
602 108
957@@ 108
cafe 108
cn@@ 108
eh@@ 108
hero 108
ken@@ 108
mn@@ 108
momo 108
rl 108
s- 108
s/ 108
wo@@ 108
丝器 108
五月天 108
人类 108
勒@@ 108
半圆 108
卡包 108
坊@@ 108
大堂 108
山居 108
扣子 108
抄 108
日用 108
早@@ 108
时刻 108
柒@@ 108
格斗 108
电话机 108
竹制 108
节庆 108
范@@ 108
茶器 108
萍 108
薄款 108
裸色 108
认知 108
贴纸@@ 108
软垫 108
适用) 108
遇 108
铃@@ 108
铝圈 108
隔@@ 108
雀 108
颂 108
题库 108
餐桌布 108
首发 108
高街 108
鲑鱼 108
1/ 107
1028 107
270@@ 107
42mm 107
808 107
90ml 107
\n\n 107
ah 107
bio@@ 107
f7@@ 107
fb@@ 107
ferrari 107
jet 107
md 107
mitsubishi 107
oi@@ 107
s9@@ 107
sat@@ 107
speed 107
tf@@ 107
v领@@ 107
xxl 107
ア@@ 107
专用) 107
亏本 107
亮度 107
今 107
冠@@ 107
冰河 107
凝@@ 107
包机 107
包组 107
变身 107
哈雷 107
喷水 107
地区 107
大腿 107
妮妮 107
娜美 107
字体 107
宁@@ 107
崎 107
工地 107
戈 107
扁 107
摆台 107
散打 107
施工 107
杀价@ 107
果果 107
核@@ 107
档案 107
橱 107
氨基酸 107
温控 107
温暖 107
渲染 107
湿@@ 107
焕肤 107
爱上 107
玖 107
珂 107
细腻 107
缺 107
罪 107
羽@@ 107
背带裤 107
能力 107
脚底 107
裕 107
觉 107
谊 107
豆浆 107
辐射 107
运送 107
远射 107
降@@ 107
预购@@ 107
风暴 107
1.5@@ 106
124 106
199@@ 106
211@@ 106
310 106
350v2 106
3ds 106
best 106
bre@@ 106
carhartt 106
con 106
dj 106
forever 106
fs@@ 106
gucci包包 106
i6s 106
jp 106
ker@@ 106
mon 106
nature 106
sweet 106
ting 106
y.@@ 106
z3 106
一样 106
三角@@ 106
乙 106
云南 106
人造 106
公牛 106
冲洗 106
切割机 106
刷牙 106
前灯 106
卖场; 106
合格 106
四轴 106
在@@ 106
垒 106
基本款 106
境内 106
寒@@ 106
带线 106
年会 106
应@@ 106
弟 106
扭结 106
摩托 106
救@@ 106
新颖 106
曲奇 106
枝@@ 106
泊 106
潮鞋 106
灶 106
炼@@ 106
百折 106
秘@@ 106
秘书 106
粉彩 106
自留 106
芳@@ 106
谜 106
连裤袜 106
通风 106
铁灰 106
陆@@ 106
靶 106
高度 106
高阶 106
黑水 106
(0@@ 105
(全) 105
165 105
36-@@ 105
5月 105
duffy 105
i7@@ 105
ia 105
iv 105
jordan@@ 105
kiki 105
l]@@ 105
mark 105
the@@ 105
war@@ 105
xb@@ 105
yy@@ 105
一番 105
久@@ 105
人形 105
似 105
住 105
保湿 105
八卦 105
公鸡 105
农用 105
力士 105
咖啡@@ 105
国语 105
大同 105
婷婷 105
嫩白 105
宝盒 105
宽袖 105
尾翼 105
屈 105
年轻 105
扎@@ 105
按摩@@ 105
挡风板 105
救 105
普洱茶 105
来电 105
来自 105
查 105
栓 105
橡皮 105
欢@@ 105
汀 105
派@@ 105
浴袍 105
海钓 105
爆乳 105
球球 105
瓜子 105
电表 105
皮裤 105
盆架 105
矽@@ 105
立牌 105
统一 105
芭蕾舞 105
菩萨 105
蒜@@ 105
要@@ 105
警 105
说话 105
贝尔 105
赫 105
趾 105
造@@ 105
长颈鹿 105
门锁 105
雪糕 105
驼背 105
﹞@@ 105
-a@@ 104
...... 104
1g 104
2018/@@ 104
25g 104
370@@ 104
38mm 104
528@@ 104
60g 104
680@@ 104
728@@ 104
888 104
are 104
bear@@ 104
bh 104
iphone7/@@ 104
ita 104
kaws 104
kg@@ 104
kk@@ 104
m10 104
mama 104
mp 104
prm 104
s2 104
sb@@ 104
size@@ 104
tc@@ 104
x9@@ 104
上色 104
丑 104
东西 104
件) 104
伤@@ 104
佳人 104
功夫茶 104
包屁 104
区@@ 104
单冷 104
单排扣 104
受 104
后备箱 104
吸乳器 104
图片 104
堆 104
奇妙 104
婆@@ 104
婴@@ 104
小衫 104
屋顶 104
山水 104
岸 104
折) 104
摄 104
断电 104
月饼 104
有限 104
朱@@ 104
模式 104
沁 104
渔 104
渣 104
灌 104
烧水壶 104
画笔 104
碎@@ 104
系列) 104
级@@ 104
纪念@@ 104
纸箱 104
肖 104
色料 104
芥末 104
菜瓜 104
萧 104
薄型 104
蜡线 104
讲机 104
贵@@ 104
赫本 104
转印 104
连续 104
遮阳板 104
酱油 104
钞票 104
锯齿 104
雕塑 104
鞋#@@ 104
鞋店 104
马戏团 104
麦片 104
鼠@@ 104
(50 103
-9@@ 103
1/2@@ 103
]#@@ 103
aj11 103
chan@@ 103
com@@ 103
free@@ 103
hang 103
king@@ 103
lacoste 103
rock 103
s3 103
sr 103
td@@ 103
whoo 103
wish 103
→@@ 103
☆☆ 103
一) 103
七夕 103
任意 103
伞@@ 103
卫@@ 103
史迪奇 103
启 103
奔驰 103
妆前乳 103
弦@@ 103
心情 103
怡@@ 103
抱@@ 103
拍拍 103
捏 103
救援 103
杂 103
柴@@ 103
梦游 103
椰 103
汗@@ 103
沈 103
油瓶 103
点缀 103
热水器 103
照明灯 103
睫@@ 103
童袜 103
羊肉 103
老花镜 103
贵族 103
起坐 103
迪奥@@ 103
长桌 103
闪闪 103
香菇 103
魅 103
＃@@ 103
11100 102
2.1 102
abc 102
basic 102
cas@@ 102
cuxi 102
dream@@ 102
joy@@ 102
ky 102
nars 102
ne 102
pm 102
roo@@ 102
series 102
show 102
shu 102
tea 102
tour 102
vivi 102
xz@@ 102
丝质 102
什么 102
休息 102
佑@@ 102
作者 102
做@@ 102
入/@@ 102
军规 102
划@@ 102
卡) 102
双重 102
启@@ 102
吸附 102
夫人 102
字帖 102
宇@@ 102
巴利 102
弯头 102
影视 102
抱抱 102
指尖 102
撒@@ 102
新春 102
桐 102
椰@@ 102
汁@@ 102
汽修 102
浅蓝色 102
湾 102
烘干机 102
玩乐 102
琪@@ 102
男朋友 102
百合 102
盒带 102
直升机 102
真爱 102
绳子 102
膝盖 102
自在 102
自带 102
苍@@ 102
荷花 102
蒸笼 102
蜂胶 102
褥子 102
警察 102
长卷 102
长短 102
防静电 102
饵@@ 102
(内 101
(男) 101
-40 101
-45 101
1kg 101
5吋 101
6mm 101
a2 101
baseus 101
cream 101
df@@ 101
fre@@ 101
iphone6/@@ 101
kan@@ 101
low@@ 101
may@@ 101
maybelline 101
music 101
oo 101
out 101
ox 101
p/@@ 101
q-@@ 101
soft 101
ster 101
sugar 101
t/ 101
top@@ 101
wl@@ 101
主义 101
书坊 101
休眠 101
俊@@ 101
克力@@ 101
六色 101
划 101
制作人 101
叶草 101
外置 101
嫁 101
宝剑 101
工具车 101
开店 101
慕@@ 101
戴尔 101
捷@@ 101
机场 101
权@@ 101
束缚 101
柑橘 101
桦 101
橘红 101
欣欣 101
汤姆 101
泛 101
洗衣 101
流量 101
滋 101
灯座 101
玉a 101
珮@@ 101
番茄 101
盆景 101
礼品盒 101
第六 101
绑@@ 101
菠萝 101
褶 101
进击 101
阴蒂 101
风云 101
(m) 100
-03 100
-46 100
122 100
203 100
30/@@ 100
6s/@@ 100
760@@ 100
8p 100
:: 100
ar24@@ 100
bas@@ 100
des 100
f.@@ 100
intel 100
jack 100
ld-@@ 100
m2@@ 100
mx@@ 100
oppor@@ 100
playboy 100
racing 100
rc@@ 100
tm@@ 100
丹麦 100
刘@@ 100
前卫 100
勤 100
勾@@ 100
命@@ 100
嘴@@ 100
壁@@ 100
壹湾 100
天地 100
妇 100
席子 100
形状 100
支) 100
敏@@ 100
无双 100
束带 100
椅套 100
油箱 100
浓@@ 100
爵 100
环绕 100
生产 100
电子琴 100
皮具 100
绵羊 100
翻斗 100
舰队 100
花布 100
适配器 100
邮寄 100
雪靴 100
风大 100
饮@@ 100
-s@@ 99
1-0@@ 99
131 99
50/@@ 99
bon 99
element 99
ers 99
fan@@ 99
flight 99
grey 99
hb@@ 99
ine@@ 99
ling 99
mimi 99
np-@@ 99
p30 99
r9@@ 99
realme 99
wen 99
严选 99
俗 99
停 99
八角 99
列@@ 99
创作 99
初秋 99
前置 99
加湿 99
单字 99
卖场) 99
吊挂 99
命运 99
和平 99
品の 99
器) 99
四月 99
园林 99
坠饰 99
声波 99
大力 99
大圆 99
奖杯 99
女朋友 99
存@@ 99
巡 99
带) 99
技@@ 99
曼谷 99
木炭 99
杰克 99
洞@@ 99
测验 99
深度 99
父亲节 99
祈福 99
篮@@ 99
袍 99
裸妆 99
触感 99
豆子 99
贝亲 99
越野车 99
输 99
这样 99
鞋内 99
(s) 98
.... 98
/6 98
1.4 98
2010 98
25mm 98
410 98
430 98
70g 98
749@@ 98
age 98
apieu 98
br 98
civic 98
df 98
dr 98
fc@@ 98
fx@@ 98
goo@@ 98
kai@@ 98
m0@@ 98
nx@@ 98
over@@ 98
poli 98
power@@ 98
pvc@@ 98
re: 98
select 98
toshiba 98
wei 98
zippo 98
►@@ 98
ハ@@ 98
上下 98
付@@ 98
再@@ 98
发声 98
周年庆 98
固体 98
妖 98
妹@@ 98
婚@@ 98
宾馆 98
小鞋 98
应急 98
暴龙 98
棉花 98
榨汁 98
正规 98
毒@@ 98
汽机 98
洗澡盆 98
洲 98
浴帘 98
液压 98
混@@ 98
添 98
清香 98
漏@@ 98
炫酷 98
牵 98
短发 98
研究 98
祖@@ 98
纸杯 98
舍@@ 98
芭蕾 98
苦 98
范冰冰 98
蜘蛛侠 98
裁剪 98
资@@ 98
赏@@ 98
跳台 98
逢 98
醋 98
镇@@ 98
香膏 98
黄水晶 98
(特价 97
050@@ 97
127 97
40-@@ 97
603 97
997 97
a57 97
ach@@ 97
head 97
hi-@@ 97
hu 97
l.@@ 97
lb@@ 97
mc 97
o.@@ 97
pad 97
rav4 97
sneaker 97
taiwan 97
touch 97
uni 97
vi 97
xbox 97
╭☆ 97
不二 97
五月 97
享@@ 97
亭 97
代买 97
写@@ 97
冻@@ 97
功@@ 97
加温 97
劲@@ 97
单孔 97
卡钳 97
啊 97
坚 97
奶器 97
孙悟空 97
宗 97
小心 97
屁衣@@ 97
张) 97
彦 97
得标 97
情趣@@ 97
推车 97
摄像机 97
放松 97
敬酒 97
新书 97
新型 97
新疆 97
春节 97
朋克 97
机) 97
板式 97
步机 97
毛领 97
水上 97
水笔 97
求@@ 97
法器 97
洋装@@ 97
洛克 97
滑步 97
焕@@ 97
熨烫 97
留言板 97
监@@ 97
碳粉匣 97
筱@@ 97
系小 97
紧@@ 97
翻译 97
耐穿 97
背心@@ 97
艇 97
艺品 97
芯@@ 97
谁 97
起来 97
车模 97
逍遥 97
避光 97
香料 97
魔王 97
鹰@@ 97
龟@@ 97
(6@@ 96
(中) 96
121 96
1s 96
20-@@ 96
2019@@ 96
35-39 96
8cm 96
amy 96
b4@@ 96
c5 96
camry 96
cdg 96
christian 96
chu 96
compact 96
cy 96
iris 96
kb@@ 96
lenovo 96
mal@@ 96
pw@@ 96
toy@@ 96
trainer 96
tree 96
vin@@ 96
xr1 96
zip 96
☆nike 96
伟@@ 96
倩 96
凡@@ 96
卡车 96
卡通@@ 96
吋/@@ 96
君@@ 96
喇叭裤 96
坐椅 96
太太 96
头带 96
套套 96
套组 96
婴幼 96
宅@@ 96
小香 96
工作@@ 96
工具@@ 96
手作@@ 96
打印 96
文件夹 96
日语 96
晒@@ 96
格丽 96
棍@@ 96
死@@ 96
毅 96
泡菜 96
消防 96
清洁器 96
满满 96
炭 96
牙签 96
留@@ 96
矫正器 96
穿戴 96
签字笔 96
红花 96
线圈 96
罗纹 96
美体 96
背面 96
葱@@ 96
蚊香 96
裙裤 96
西裤 96
覆盖 96
规@@ 96
遗@@ 96
邪 96
长巾 96
风镜 96
飞翔 96
髪@@ 96
鼓@@ 96
(5@@ 95
(黑色 95
169 95
213@@ 95
28cm 95
844@@ 95
]: 95
bp@@ 95
che 95
diy@@ 95
kiehl's 95
m1 95
moon 95
o-@@ 95
oh@@ 95
ph 95
slide 95
专科 95
伍 95
凉垫 95
包保 95
午餐 95
可口可乐 95
名款 95
土豆 95
坦克 95
够 95
大厅 95
天蓝 95
寺 95
心理学 95
意威 95
戒子 95
战国 95
批@@ 95
招@@ 95
拱 95
春日 95
束腰 95
杠 95
样@@ 95
桌球 95
欲 95
沃 95
沙发巾 95
泳帽 95
珠珠 95
瑕膏 95
确认 95
章@@ 95
竹编 95
缝纫机 95
胸花 95
腊 95
自然@@ 95
蒸@@ 95
蛮 95
蟹@@ 95
触@@ 95
车轮 95
运动表 95
造形 95
题@@ 95
137 94
161 94
235@@ 94
420 94
:@@ 94
chen@@ 94
chloe@@ 94
coco@@ 94
ef 94
key 94
lunar 94
miumiu 94
nt@@ 94
q3 94
qq@@ 94
sharp 94
► 94
✧@@ 94
仙子 94
你@@ 94
储水 94
克星 94
免@@ 94
公寓 94
兴@@ 94
刻版 94
卡带 94
后座 94
喜庆 94
嘉班纳 94
地漏 94
垂钓 94
帝国 94
怪物 94
手霜 94
投资 94
掌@@ 94
揹巾 94
摔壳 94
无人机 94
日用品 94
更@@ 94
柠檬@@ 94
桶@@ 94
毛毛虫 94
洗脚 94
源@@ 94
濑@@ 94
烘干 94
玛丽 94
甲虫 94
电锯 94
皮箱 94
磨牙 94
窗纱 94
缺货 94
罐) 94
罩@@ 94
葡萄酒 94
蛇头 94
行者 94
课@@ 94
超级英雄 94
进阶 94
锐步 94
韩流 94
鱿鱼 94
鸥@@ 94
1/6 93
20吋 93
210@@ 93
24-@@ 93
3mm 93
6/6s 93
704 93
819@@ 93
901 93
9月 93
basket 93
char@@ 93
cle@@ 93
den 93
dz@@ 93
f1s 93
i5-@@ 93
j7@@ 93
lan@@ 93
lovelive 93
mm*@@ 93
natural 93
nikeair@@ 93
ong 93
open 93
p0@@ 93
pri@@ 93
r.@@ 93
sisley 93
tp@@ 93
vc 93
カ@@ 93
串@@ 93
乐团 93
传动 93
伯爵 93
但 93
兽@@ 93
凹凸 93
列印 93
制冰 93
医用 93
压克力 93
发簪 93
咒 93
哲@@ 93
头绳 93
工坊 93
工房 93
年货 93
底盘 93
扇@@ 93
扩音器 93
搞笑 93
放置 93
教练 93
景德镇 93
柯@@ 93
栏杆 93
栖 93
比亚 93
涡轮 93
潜航 93
火辣 93
烟斗 93
猿人 93
理疗 93
瓷碗 93
直立 93
窝@@ 93
筛@@ 93
老鹰 93
胎@@ 93
脚凳 93
脚趾 93
花圈 93
草机 93
萌@@ 93
蒜 93
袋鼠 93
费雪 93
路易 93
迪士尼乐园 93
酸奶 93
金钢 93
除螨 93
饰品@@ 93
骨头 93
(粉 92
(约 92
152 92
214@@ 92
2b 92
555 92
599 92
a30 92
aqua 92
birkin 92
earth 92
lux 92
otg 92
sch@@ 92
sen@@ 92
squishy 92
t短t 92
we 92
wild 92
woven 92
乌克丽丽 92
乐天 92
人工 92
介 92
伪 92
佳丽 92
全新@@ 92
动感 92
午后 92
协@@ 92
卖) 92
卖场@@ 92
卷发器 92
古巴 92
夏新 92
大家 92
层板 92
广告牌 92
延@@ 92
开拓者 92
搁板 92
新鲜货 92
无声 92
时尚@@ 92
杀) 92
校服 92
植萃 92
正式 92
毫升 92
水电 92
汤勺 92
波希米亚 92
演奏 92
照相机 92
燕窝 92
电焊 92
码数 92
积 92
笠@@ 92
管家 92
胃 92
脖围 92
若@@ 92
营业 92
落地镜 92
表皮 92
讲@@ 92
谭 92
距 92
辅助器 92
迎@@ 92
铝框 92
风尚 92
飞轮 92
饮品 92
(l) 91
10mm 91
2015年 91
212 91
526@@ 91
680 91
6s@@ 91
a77 91
adidas/ 91
all@@ 91
apple@@ 91
a字裙 91
cap@@ 91
dxf 91
fit@@ 91
flex 91
good@@ 91
house@@ 91
hs 91
io@@ 91
ite 91
lisa 91
m-xxl码 91
mina 91
nk 91
soul 91
t3／ 91
turbo 91
vita 91
wellington 91
xdr 91
z2 91
zero@@ 91
♪ 91
イ@@ 91
ク@@ 91
书局 91
俏丽 91
值得 91
卡拉 91
厚实 91
口腔 91
告白 91
咖啡店 91
器具 91
固态 91
圣经 91
堤 91
声音 91
姿@@ 91
小品 91
小金 91
屁屁 91
帽檐 91
开岔 91
拜@@ 91
挂帘 91
显@@ 91
普普 91
柚@@ 91
校@@ 91
桂花 91
水蜜桃 91
油污 91
浮标 91
漆@@ 91
火箭 91
灶台 91
点烟器 91
焦点 91
珍珠@@ 91
画框 91
疏通 91
砂@@ 91
穗 91
簿 91
粉碎机 91
精品@@ 91
系列@@ 91
绘@@ 91
缘子 91
耗材 91
肥皂盒 91
胜利 91
自黏 91
蓁 91
袖子 91
言情小说 91
近@@ 91
部分 91
针织@@ 91
露脐 91
预售 91
颜@@ 91
食指 91
饭团 91
饱 91
魅惑 91
黑暗 91
() 90
-4 90
1600 90
2- 90
3.1 90
405 90
40g 90
502 90
candy 90
cel@@ 90
dai@@ 90
deluxe 90
den@@ 90
e27 90
issey 90
jin 90
ld 90
ls@@ 90
m8 90
n\n 90
night 90
of@@ 90
sup 90
ton@@ 90
tor@@ 90
ugg 90
◤@@ 90
与@@ 90
丛林 90
中秋 90
主管 90
买卖 90
做工 90
光盘 90
凡赛斯 90
分子 90
卡夹 90
卢 90
双排 90
发油 90
嘟嘟 90
国产 90
坐@@ 90
基地 90
奇幻 90
娱乐 90
宝缇 90
宽裤 90
小学 90
拆装 90
机动 90
检@@ 90
汇@@ 90
汪汪 90
滋@@ 90
滴@@ 90
漏水 90
炉@@ 90
焊接 90
玻璃门 90
琪琪 90
瓷@@ 90
痘印 90
究 90
竹子 90
背光 90
花样 90
话@@ 90
运动型 90
难@@ 90
雪人 90
雷神 90
高山 90
默@@ 90
#-no.t1 89
#4@@ 89
(k@@ 89
-l@@ 89
1.8@@ 89
129 89
19-@@ 89
2ml 89
305 89
315@@ 89
801 89
850 89
b. 89
bm@@ 89
class 89
eau 89
english 89
falcon 89
fujifilm 89
gm@@ 89
h.@@ 89
il@@ 89
ios 89
junior 89
kar@@ 89
lancome兰蔻 89
laser 89
lesportsac 89
m6 89
mate@@ 89
montblanc万 89
nm 89
nmd_r1 89
race 89
sen 89
subaru 89
tsu@@ 89
walk 89
ze 89
不倒翁 89
为止 89
内衣裤 89
则 89
半截 89
单手 89
可选) 89
呵护 89
和风 89
善@@ 89
喜宴 89
喜帖 89
国王 89
如约 89
孔@@ 89
幻影 89
幼犬 89
往 89
我@@ 89
拆) 89
拟 89
操 89
效能 89
无损 89
显白 89
朝@@ 89
杖 89
棘轮 89
江@@ 89
波兰 89
测器 89
海尔 89
海蓝 89
淘宝 89
淡水 89
渗透 89
炒菜 89
热售 89
瓷器 89
盘香 89
素食 89
结构 89
绞肉机 89
缘@@ 89
脉 89
航拍 89
英文版 89
蒂芙尼 89
蓉 89
蔡依林 89
街@@ 89
被单 89
覆 89
译 89
贴耳 89
足部 89
通道 89
釉@@ 89
钛合金 89
锥 89
锥@@ 89
镜架 89
防腐 89
霸@@ 89
颗) 89
饵 89
饼@@ 89
鲁夫@@ 89
鲜花 89
&no.t1 88
(60 88
(白色) 88
15g 88
2-3@@ 88
25/@@ 88
302 88
314@@ 88
36mm 88
a73 88
american 88
ate 88
a款 88
color@@ 88
ey@@ 88
ez@@ 88
g家 88
hc@@ 88
hydro 88
kiehl's契尔氏 88
kn@@ 88
leboy 88
look 88
miyake 88
n4@@ 88
pocket 88
sea 88
urban 88
van@@ 88
三轮 88
东芝 88
关键 88
务 88
包/@@ 88
吊顶 88
哑 88
地垫 88
坛 88
大礼包 88
婴 88
弧形 88
律 88
心动 88
惊 88
揉 88
揹包 88
改造 88
效期 88
施华 88
晾晒 88
村@@ 88
树枝 88
样式 88
橡皮筋 88
水平仪 88
水族箱 88
海底 88
灭@@ 88
甘菊 88
画架 88
痘 88
百科 88
矿@@ 88
磁石 88
秋衣 88
箱) 88
红猪 88
经络 88
绿水 88
背部 88
脚蹬 88
腿部 88
蜥蜴 88
语言 88
费@@ 88
超重 88
车业 88
释@@ 88
钳子 88
铁人 88
锡@@ 88
难 88
骑@@ 88
鱼子 88
ｍ@@ 88
#免 87
(20 87
(红 87
-p@@ 87
10g 87
133 87
153 87
18650 87
2017@@ 87
204 87
235 87
510 87
belt 87
carbon 87
dar@@ 87
dou@@ 87
em 87
eyes 87
fila斐 87
fm@@ 87
ink 87
ino@@ 87
ley 87
lov@@ 87
make 87
nylon 87
ten 87
♪@@ 87
一卡通 87
事务 87
二用 87
产妇 87
关公 87
刺客 87
卡/@@ 87
可调整 87
告@@ 87
啾啾 87
孕 87
宝龙 87
小桌 87
小百货 87
川久保玲 87
弧@@ 87
影像 87
手幅 87
振 87
晶晶 87
柚木 87
样板 87
梯形 87
段式 87
沙漠 87
洋芋 87
点烟 87
璇 87
用带 87
皮靴 87
简体 87
粉橘 87
紧身衣 87
终@@ 87
胆 87
胡须 87
臣 87
臣氏 87
英式 87
茶花 87
调教 87
豆沙 87
赛斯@@ 87
赠@@ 87
身高 87
输入 87
辣@@ 87
针管 87
铁制 87
险 87
雕@@ 87
鸭嘴 87
鼠标垫 87
#爆款 86
(保留) 86
(黄 86
----@@ 86
116@@ 86
12mm 86
2.7 86
22cm 86
316l 86
4000 86
420@@ 86
610 86
699 86
6cm 86
a&@@ 86
apm 86
blue@@ 86
bs@@ 86
dr.wu 86
elle 86
eu@@ 86
fa 86
fresh 86
google 86
koso 86
lock 86
m3@@ 86
mam@@ 86
ob@@ 86
pd@@ 86
pk@@ 86
q10 86
rihanna 86
ry@@ 86
s5 86
ser@@ 86
vr@@ 86
w) 86
z1 86
zc@@ 86
と@@ 86
ラ@@ 86
云端 86
会计学 86
印表机 86
古铜色 86
吊绳 86
哈士奇 86
图鉴 86
填充 86
夹) 86
奶昔 86
姜@@ 86
孝 86
宗教 86
平台 86
庆@@ 86
床笠 86
序号 86
强磁 86
御@@ 86
徽 86
忠@@ 86
态 86
恶@@ 86
打蛋器 86
折屏 86
推拉门 86
摘 86
收口 86
故 86
材@@ 86
枫叶 86
柜边 86
棋盘 86
润色 86
爱迪生 86
猫爪 86
现在 86
珍藏版 86
生长 86
病@@ 86
盖) 86
盖板 86
盖毯 86
短上衣 86
碰 86
礼帽 86
福音 86
粉丝 86
肤乳 86
芮@@ 86
苑 86
虹 86
装小 86
见@@ 86
议价) 86
评@@ 86
跃 86
蹲 86
车库 86
钢制 86
门票 86
阅 86
阶@@ 86
雨天 86
霖 86
霞 86
非洲 86
食器 86
鸡翅 86
(8@@ 85
-42 85
/3 85
107@@ 85
146 85
154 85
1800 85
188 85
2000@@ 85
2月 85
4l 85
51@@ 85
6.0 85
a70 85
back 85
bal@@ 85
bar 85
don@@ 85
edp 85
eslite 85
i11 85
i5@@ 85
iw@@ 85
jdi 85
k0@@ 85
kolin 85
ler 85
lily 85
moncler 85
note9 85
p1 85
pm2.5 85
real 85
run@@ 85
selfie 85
ster@@ 85
t) 85
tan@@ 85
tiffany& 85
tre@@ 85
ysl包包 85
ル@@ 85
丝网 85
亮眼 85
人员 85
何@@ 85
便盆 85
倩碧 85
关系 85
出行 85
卷纸 85
压壳 85
厚度 85
只为 85
吴@@ 85
因@@ 85
圆弧 85
复活节 85
外观 85
婕@@ 85
对开 85
小铺@@ 85
心理 85
志龙 85
手机@@ 85
朵朵 85
梨子 85
榉木 85
气氛 85
水柜 85
汪 85
潜@@ 85
灰) 85
爬@@ 85
片式 85
牛油 85
球拍 85
电暖器 85
皮卡 85
睡裤 85
程式 85
竞@@ 85
粉刷 85
罗宾 85
胺 85
脚链 85
腹带 85
花王 85
草写 85
薇@@ 85
请@@ 85
货铺 85
辛巴 85
遮@@ 85
阻@@ 85
限时.特价 85
预约 85
鲨 85
(原价 84
(黑@@ 84
0.9 84
1-4 84
206 84
3-4@@ 84
30*@@ 84
3l 84
6l 84
950 84
crew 84
ei@@ 84
g. 84
gi 84
hardy 84
id@@ 84
iphone7plus 84
irving 84
ju 84
kin 84
kl@@ 84
que@@ 84
sar@@ 84
tc 84
ㄧ 84
一定 84
京都 84
人) 84
仔店 84
任何 84
休闲@@ 84
伽@@ 84
保健品 84
勾勾 84
卫星 84
发现 84
叔叔 84
古筝 84
哲 84
地瓜 84
好评 84
婚宴 84
宾 84
寄送 84
小资 84
岁@@ 84
帘布 84
底板 84
扇形 84
抚 84
拌 84
拐杖 84
拭@@ 84
捷克 84
政 84
教程 84
敦@@ 84
斗士 84
木瓜 84
淘@@ 84
深色 84
热带 84
牛轧糖 84
狐@@ 84
皮纹 84
精粹 84
统@@ 84
群@@ 84
翻转 84
耶诞节 84
艳@@ 84
萃取 84
蒸锅 84
蜂窝 84
蜜糖 84
讲 84
诚@@ 84
起泡 84
车儿 84
选物 84
酥@@ 84
醇 84
醒@@ 84
钛晶 84
钢化膜 84
雄狮 84
集线器 84
雾化 84
音乐@@ 84
音效 84
香气 84
驾 84
(全@@ 83
(请 83
(高 83
14cm 83
15cm 83
2.5d 83
24/@@ 83
2mm 83
44mm 83
7/8/@@ 83
850@@ 83
8吋 83
ann 83
bikini 83
cool@@ 83
dot 83
fv@@ 83
ga-100 83
jan@@ 83
jd@@ 83
l'occitane 83
lc 83
light@@ 83
miss@@ 83
mm/ 83
od@@ 83
psv 83
rog 83
room 83
sg@@ 83
un 83
white@@ 83
wings 83
上网 83
不凋花 83
专案 83
临时 83
乌龙 83
书: 83
仿@@ 83
优生 83
低温 83
光灯 83
关于 83
兵@@ 83
十二生肖 83
原理 83
向@@ 83
品家 83
商行 83
喔) 83
夜市 83
学t 83
守@@ 83
安德森 83
定价: 83
恒@@ 83
悬浮 83
所有 83
护耳 83
提手 83
撞@@ 83
救星 83
文豪 83
晴@@ 83
木腿 83
果树 83
柳@@ 83
民俗 83
泫雅 83
活肤 83
流星 83
物流 83
琳@@ 83
璐 83
甄 83
电热水壶 83
男外套 83
疏油 83
稀@@ 83
筋膜 83
签@@ 83
箭头 83
线组 83
网袋 83
肤水 83
艾尔 83
芝 83
荷@@ 83
虚拟 83
蝇 83
视窗 83
记事 83
贞 83
贵人 83
还有 83
霉@@ 83
骚@@ 83
黑格 83
龙婆 83
"isbn: 82
..... 82
.3 82
/2 82
171 82
3-4 82
6splus 82
702 82
717@@ 82
android 82
bf@@ 82
bor@@ 82
c3 82
canmake 82
creuset 82
cx@@ 82
dn@@ 82
g0@@ 82
got7 82
ji 82
jy@@ 82
k8 82
kai 82
longines 82
n9@@ 82
ou 82
re-ment 82
sel@@ 82
sha@@ 82
sky@@ 82
store@@ 82
t5／ 82
vii 82
zoo@@ 82
さ@@ 82
众@@ 82
兵器 82
内装 82
军刀 82
动人 82
古代 82
吸血鬼 82
喝水 82
嗨 82
嚼 82
圆饼 82
复习 82
奥地利 82
如何 82
威力 82
嫩@@ 82
子实 82
强度 82
影印 82
惊@@ 82
打击 82
打气筒 82
捆绑 82
操作 82
收集 82
机顶盒 82
桥@@ 82
次@@ 82
水墨 82
水溶性 82
沛纳海 82
没@@ 82
海螺 82
燃 82
燕@@ 82
生活@@ 82
生理 82
盲@@ 82
眉毛 82
真皮@@ 82
眼唇 82
砂纸 82
约@@ 82
纪录 82
纪录器 82
绒毯 82
绘图 82
缝纫 82
联合 82
臭@@ 82
荒野 82
表壳 82
货号: 82
踏@@ 82
踏板车 82
踝靴 82
酒壶 82
酱料 82
鱼鳞 82
麦饭石 82
黑檀 82
(a@@ 81
-04 81
/adidas 81
0.3 81
1/100 81
1/64 81
1112 81
14k 81
2k@@ 81
35-44 81
368@@ 81
7/8plus 81
ao 81
bag@@ 81
bigbang 81
cal@@ 81
cv@@ 81
dji 81
flower 81
g1 81
gal@@ 81
jm 81
key@@ 81
lala 81
n.@@ 81
p20 81
shi 81
silver 81
t4／ 81
t短袖 81
vw 81
wal@@ 81
ws 81
か@@ 81
三通 81
三重 81
丽塔 81
信箱 81
冲泡 81
冲绳 81
冻膜 81
凸@@ 81
出) 81
单一 81
国内 81
士兵 81
奴 81
婉 81
小可 81
小咪 81
布套 81
师傅 81
庙 81
延时 81
彤 81
戳 81
技嘉 81
振@@ 81
整人 81
斐乐 81
施@@ 81
晏 81
模仿 81
橡@@ 81
正品) 81
泼 81
淋雨 81
烘 81
爆炸 81
盾牌 81
硬盘 81
碱 81
筒靴 81
绞@@ 81
缝@@ 81
胀气 81
脱色 81
膝上 81
臭氧 81
花蕾 81
莉玫 81
装置 81
豆浆机 81
赔本 81
避邪 81
都@@ 81
金冠 81
铁三角 81
银灰 81
键@@ 81
门铃 81
高音 81
魔道 81
黑子 81
(只 80
-5 80
/1 80
126@@ 80
144 80
156 80
185 80
2+@@ 80
2016@@ 80
208 80
20mm 80
20ss 80
222 80
2xl 80
3t 80
400g 80
4mm 80
4t 80
580@@ 80
640@@ 80
air2 80
alo@@ 80
aq 80
avent 80
bee 80
fd@@ 80
garmin 80
gc@@ 80
h0@@ 80
hr@@ 80
ic@@ 80
jd 80
lbj 80
ner@@ 80
order 80
p.@@ 80
rose@@ 80
rr 80
sol 80
stage 80
stone 80
sv@@ 80
tex 80
uv@@ 80
y) 80
°@@ 80
ღ 80
主打 80
任@@ 80
侦探 80
保障 80
信号 80
修剪 80
储@@ 80
先锋 80
副乳 80
包装) 80
发射器 80
发酵 80
壮 80
家具@@ 80
屎 80
工业级 80
弓形 80
按摩棒 80
教益 80
新郎 80
无盖 80
旺旺 80
本命年 80
氟 80
池@@ 80
滑液 80
点数 80
狼@@ 80
球裤 80
瘦小 80
盗 80
睿 80
矿石 80
码) 80
肌粹 80
脖 80
腿@@ 80
膝 80
舌@@ 80
芸@@ 80
茂 80
茹 80
裁@@ 80
觉醒 80
试衣间 80
询价 80
跨年 80
车厢 80
远投 80
钢板 80
防护栏 80
限定@@ 80
飞碟 80
(多 79
105@@ 79
115@@ 79
1200@@ 79
166 79
198 79
1m 79
2.4g 79
23.5 79
23cm 79
38-45 79
6000 79
7/8 79
ate@@ 79
brother 79
card 79
cross 79
dk@@ 79
dog 79
easy 79
eos 79
essence 79
g4 79
glow 79
kor@@ 79
lc@@ 79
like 79
lp@@ 79
oem 79
pa+++ 79
ra 79
rv 79
shine 79
tfboys 79
tx 79
w.@@ 79
ᅡ 79
丝棉 79
乌龙茶 79
书橱 79
二色 79
休闲服 79
僵尸 79
创见 79
参@@ 79
喉 79
噗@@ 79
地面 79
坡 79
夜场 79
天气 79
小樱 79
岛@@ 79
影院 79
抓绒 79
拔@@ 79
捏捏 79
攻@@ 79
文玩 79
旅@@ 79
明子 79
映 79
植绒 79
椒 79
毛发 79
油箱盖 79
清晰 79
溅 79
灯架 79
炸@@ 79
玉镯 79
环境 79
电冰箱 79
白钢 79
破损 79
票夹 79
秋天 79
童女 79
练功 79
绵@@ 79
美观 79
胜@@ 79
自来水 79
艺术品 79
芳香剂 79
苦@@ 79
蒂芬妮 79
虾米 79
蛋器 79
裤) 79
轮毂 79
进口@@ 79
迷你型 79
锌 79
集合 79
马来西亚 79
驱@@ 79
高倍 79
鸟巢 79
鼻子 79
龙泉 79
(赠 78
(金 78
12月 78
1400 78
181 78
20年 78
2色 78
3/ 78
630@@ 78
678 78
805 78
9789864@@ 78
ada 78
bh@@ 78
canvas 78
cos@@ 78
cs-@@ 78
dior@@ 78
dvd) 78
first 78
girl@@ 78
john 78
k1 78
kr@@ 78
lp 78
m-4xl 78
oc@@ 78
project 78
rm 78
seed 78
shin@@ 78
special 78
tro@@ 78
uemura 78
vivi@@ 78
vs@@ 78
win 78
works 78
╭@@ 78
し@@ 78
リ@@ 78
乔迁 78
促销@@ 78
做饭 78
初中生 78
刷白 78
割破 78
压机 78
叶黄素 78
名产 78
吨 78
坠@@ 78
堵 78
大黄蜂 78
封闭 78
小包 78
小小@@ 78
岩@@ 78
开孔 78
感谢 78
扭蛋 78
搁 78
故障 78
日志 78
时空 78
晨@@ 78
正义 78
殿 78
氏@@ 78
泰迪 78
浇花 78
海藻 78
深灰色 78
混纺 78
灰尘 78
热卖@@ 78
爬爬 78
爱美 78
电棒 78
电流 78
疏水 78
砂锅 78
磨砂皮 78
租 78
线衣 78
苹果x 78
葡 78
蓝蓝 78
螨虫 78
裙装 78
裤衩 78
裱 78
足银 78
车窗 78
辟邪 78
邮局 78
金刚@@ 78
铃木 78
铆 78
铝制 78
银耳 78
销@@ 78
镀@@ 78
闵 78
陀 78
陪护 78
震@@ 78
音波 78
鸭@@ 78
麝香 78
黑人 78
"adidas 77
-05 77
1-4@@ 77
12.@@ 77
151 77
2.0@@ 77
404 77
504 77
626@@ 77
6m 77
a'pieu 77
ami@@ 77
aw 77
cb 77
crocs 77
d3@@ 77
dl@@ 77
dre@@ 77
duo 77
fin@@ 77
furylite 77
gr 77
hademu 77
hid 77
home@@ 77
idolish7 77
j2@@ 77
jh@@ 77
max/@@ 77
muse 77
nail 77
nine 77
oh 77
om@@ 77
oni@@ 77
ot@@ 77
oz@@ 77
red@@ 77
republic 77
sm-@@ 77
tl 77
tod's 77
v10 77
wireless 77
xc@@ 77
young 77
zr@@ 77
zz 77
♛ 77
キ@@ 77
コ@@ 77
一字@@ 77
丝边 77
之恋 77
乙@@ 77
争@@ 77
五行 77
五金@@ 77
亚曼尼 77
亮丽 77
会计 77
偏@@ 77
六月 77
军靴 77
医院 77
单杠 77
原价$@@ 77
双边 77
叫@@ 77
后跟 77
咖啡馆 77
固定器 77
圣物 77
墙体 77
声道 77
妈@@ 77
妖精 77
小床 77
巡@@ 77
市区 77
帕 77
情绪 77
愤怒 77
招牌 77
摔@@ 77
日本语 77
来袭 77
栽 77
桔@@ 77
民国 77
洽询 77
牛筋 77
玻@@ 77
珀 77
画集 77
百褶 77
绒卫衣 77
老佛爷 77
腰围 77
自学 77
舱 77
菈 77
落地扇 77
蓝莓 77
蜻蜓 77
行李袋 77
表白 77
读书 77
转接器 77
轻跑 77
选购 77
邓 77
钢木 77
钨钢 77
防水表 77
阿迪 77
隆@@ 77
雷姆 77
馆) 77
黏贴 77
黑豆 77
(t@@ 76
(红) 76
(路易威登) 76
(颜色 76
-3 76
/4 76
11.@@ 76
138 76
15) 76
253 76
403 76
604 76
810 76
820@@ 76
aux 76
beauty@@ 76
bel@@ 76
cm*@@ 76
col@@ 76
d&g 76
g3 76
gre@@ 76
hario 76
jogger 76
mag@@ 76
mega 76
mio 76
montblanc 76
p10 76
palace 76
pat@@ 76
perfect 76
queen@@ 76
studio@@ 76
swift 76
sy 76
tokyo 76
typec 76
v8 76
vc@@ 76
victoria's 76
wallet 76
wei@@ 76
zebra 76
〃 76
书写 76
亚克力@@ 76
今年 76
仪@@ 76
伶 76
佛堂 76
例 76
便签 76
刮刀 76
剪发 76
包被 76
十月 76
半帘 76
半盔 76
味道 76
噜噜米 76
图) 76
外墙 76
宝适 76
小布 76
小腿 76
小舖"@@ 76
布帘 76
彰化 76
慈 76
慢@@ 76
手) 76
手工@@ 76
扫把 76
拉伸 76
挖@@ 76
推拿 76
推理 76
收藏品 76
日记本 76
旺@@ 76
梅子 76
棠 76
水果刀 76
沙拉碗 76
油桶 76
注音 76
洗碗池 76
活塞 76
消毒器 76
淇 76
港@@ 76
煮@@ 76
熬 76
版大 76
物盒 76
玻璃罩 76
百元 76
知道 76
移@@ 76
空中 76
筋@@ 76
筛 76
糖果盒 76
红外 76
结缘 76
缩@@ 76
耀@@ 76
股东会 76
肽@@ 76
艾斯@@ 76
英吋 76
菩提 76
葳 76
衫m-3xl 76
装水 76
货款 76
迪奥 76
迷宫 76
速食 76
醋@@ 76
靓 76
马克杯 76
高亮 76
鲸 76
(e@@ 75
(l@@ 75
(r@@ 75
.7 75
1. 75
1050 75
136 75
1b 75
2.2 75
2way 75
3+ 75
3500 75
40-4@@ 75
60-@@ 75
616@@ 75
61@@ 75
923 75
[a@@ 75
brand 75
cre@@ 75
dan@@ 75
del@@ 75
far@@ 75
gf@@ 75
golden 75
gra@@ 75
grand 75
hc 75
kevin 75
lx@@ 75
mamaway 75
pigeon 75
rr@@ 75
tai@@ 75
team 75
vo 75
wy 75
中老年人 75
乃@@ 75
仓@@ 75
住宿 75
佬 75
偷@@ 75
克罗心 75
准@@ 75
券@@ 75
包退 75
双层床 75
发票) 75
变色龙 75
古奇@@ 75
外带 75
奶锅 75
实验室 75
尽 75
巴洛克 75
带头 75
弹弓 75
我& 75
截 75
手书) 75
技巧 75
挂牌 75
振兴 75
掌上 75
效率 75
昕 75
显瘦 75
木门 75
果实 75
桶装 75
梦梦 75
植@@ 75
洽 75
浓香 75
清风 75
渔@@ 75
滑行 75
漏斗 75
灸@@ 75
烟熏 75
热水瓶 75
燃脂 75
牙线 75
特典 75
特效 75
现货. 75
电信 75
电灯 75
电饭煲 75
知识 75
神偷 75
糕点 75
翁 75
聚合物 75
腹肌 75
舌 75
蟑螂 75
衣帽间 75
认@@ 75
蹦迪 75
蹭 75
车顶 75
迈@@ 75
逗猫 75
门牌 75
防止 75
雨披 75
雷根 75
马蹄 75
鲫鱼 75
(f@@ 74
(古 74
-35 74
006@@ 74
12) 74
12.5 74
14/@@ 74
164 74
186 74
18v 74
2014年 74
325@@ 74
4a 74
540@@ 74
703 74
7g 74
8000 74
ari@@ 74
bwsr 74
gymboree 74
keyway 74
pal@@ 74
psp 74
puzzle 74
r3 74
rac@@ 74
ring 74
sandisk 74
skin@@ 74
sonic 74
t2 74
t5@@ 74
tab@@ 74
thrasher 74
una 74
v3 74
xy 74
xz1 74
ん@@ 74
一流 74
不晕 74
专用@@ 74
中央 74
乐高 74
乳油 74
今天 74
佑 74
储蓄罐 74
八音盒 74
典@@ 74
册@@ 74
冰晶 74
击@@ 74
划算 74
初级 74
卓@@ 74
卷轴 74
叮@@ 74
和服 74
咸蛋 74
喷墨 74
喷壶 74
四脚 74
外挂 74
头像 74
妆前 74
姑娘 74
寝 74
将军 74
尤@@ 74
床架 74
康乃馨 74
录影 74
思考 74
护身符 74
排气 74
文法 74
旅行@@ 74
旋@@ 74
无极 74
明治 74
橙色 74
氛围 74
水星 74
求生 74
沙拉 74
牌) 74
牧@@ 74
瓷盘 74
电熨斗 74
画眉 74
痘痘 74
白发 74
碳粉 74
糖糖 74
绗缝 74
编着 74
罐子 74
而@@ 74
自动伞 74
舖☆ 74
蓝绿色 74
薄棉 74
蜜饯 74
血压 74
裸靴 74
评 74
负 74
资源 74
车壳 74
辞典 74
遮脸 74
防磨 74
高田 74
＃ 74
(500 73
(正 73
(限时 73
1# 73
135@@ 73
139 73
2003 73
306 73
327 73
4s 73
50mm 73
6.1 73
7ml 73
^^ 73
aro@@ 73
ation 73
a级 73
bosch 73
burberry@@ 73
c) 73
c200 73
cg 73
co. 73
d/@@ 73
dragon 73
ev@@ 73
eye@@ 73
gtx 73
hero@@ 73
ix@@ 73
jump 73
lcd 73
lt 73
lun@@ 73
model 73
nx 73
om 73
ona 73
polo@@ 73
s. 73
tv@@ 73
ung 73
yang 73
za@@ 73
ッ@@ 73
ル 73
三世 73
乳器 73
于@@ 73
交流 73
亮光 73
会所 73
佩戴 73
保管 73
保鲜膜 73
光圈 73
免运# 73
六甲 73
动手 73
勃 73
包金 73
半价 73
华伦天奴 73
单板 73
压线 73
原子 73
吸吮 73
唇釉@@ 73
垃圾筒 73
复制 73
孩@@ 73
害 73
寝具 73
小猪 73
床尾 73
廷 73
开封 73
微风 73
扣手 73
指南 73
揹@@ 73
斩 73
方法 73
旱冰鞋 73
止汗 73
毒液 73
济@@ 73
海星 73
滤纸 73
炖@@ 73
烤架 73
猫耳 73
瑄 73
瓢 73
瓶子 73
皮夹@@ 73
皮绳 73
真的 73
碎纸机 73
祭@@ 73
粒@@ 73
绸缎 73
缠绕 73
网吧 73
美国制 73
羽毛球拍 73
聚@@ 73
背板 73
脚踝 73
芙妮 73
花莲 73
莱恩 73
蚊子 73
视讯 73
讯号 73
超弹性 73
路灯 73
还@@ 73
迪卡侬 73
迹 73
释 73
金鱼 73
铬 73
门槛 73
闷烧 73
阴茎 73
面碗 73
餐券 73
骏 73
鸣@@ 73
鹿角 73
｛@@ 73
(双 72
(预 72
-d@@ 72
2007 72
2011 72
25cm 72
340@@ 72
345@@ 72
39-44 72
3cm 72
3吋 72
605 72
606 72
620 72
996@@ 72
a50 72
ace@@ 72
ato@@ 72
camo 72
d) 72
dm 72
ell@@ 72
fas@@ 72
fen@@ 72
fly@@ 72
gel-@@ 72
gy@@ 72
hair 72
hui 72
iphone6@@ 72
jimmy 72
kobe@@ 72
l2 72
lb 72
long 72
mars 72
may 72
ob 72
pants 72
pr 72
pt 72
r7 72
s20@@ 72
sal@@ 72
sil@@ 72
street 72
sunny 72
ultra@@ 72
vios 72
vn@@ 72
ww@@ 72
y6@@ 72
zi 72
き@@ 72
く@@ 72
ト 72
不要 72
中老年 72
临摹 72
全景 72
全职 72
加州 72
匠@@ 72
压器 72
发型师 72
垫被 72
增加 72
大妈 72
字) 72
家用电脑 72
导入 72
小刀 72
年度 72
异色 72
弯曲 72
忘@@ 72
戏@@ 72
手珠 72
按扣 72
斯特 72
暴力 72
木材 72
木桶 72
楔型 72
油机 72
热卖# 72
版小 72
瑟@@ 72
生锈 72
电波 72
电量 72
疗@@ 72
盏 72
碟子 72
算 72
紧实 72
紫砂壶 72
红心 72
缀 72
缓 72
胸口 72
腊@@ 72
腮 72
袭 72
设定 72
距离 72
车头 72
达摩 72
郁 72
铁锅 72
镖@@ 72
长绒 72
防污 72
阶梯 72
随机) 72
香辣 72
骆 72
鱼油 72
黑框 72
#6@@ 71
(7 71
1-2-3@@ 71
1.3 71
120cm 71
12m 71
132 71
163 71
2cm 71
2t 71
323 71
35-@@ 71
5.1 71
8x 71
911 71
990@@ 71
bonbon 71
c4 71
cha@@ 71
chanel/ 71
cm/ 71
es-@@ 71
fenty 71
gentle 71
grace 71
i5 71
kat@@ 71
kinyo 71
lie 71
lit@@ 71
lu 71
m9 71
makita 71
metis 71
olympus 71
pei 71
ppsu 71
pretty 71
s20 71
s8+@@ 71
saber 71
sim 71
t6／ 71
t8@@ 71
t9／ 71
t恤衫 71
v7 71
xp@@ 71
ytl 71
╭＊ 71
不补 71
世界杯 71
丰盈 71
九折 71
兆 71
光纤 71
内径 71
农村 71
包.@@ 71
半自动 71
原文 71
吹风 71
唇膜 71
唇蜜 71
售楼 71
囍@@ 71
块@@ 71
大钞 71
孤@@ 71
容器 71
小方包 71
屏东 71
屑 71
巷 71
带扣 71
幕@@ 71
庄园 71
情侣@@ 71
戒@@ 71
战场 71
扩大 71
护脊 71
抽真空 71
拉链@@ 71
拿@@ 71
指套 71
换季 71
捷运 71
普利@@ 71
智旻 71
本色 71
机台 71
板材 71
桔 71
正反 71
水帘 71
润滑油 71
源氏 71
满屋 71
煮壶 71
犬猫 71
玩水 71
球杆 71
瑶瑶 71
电烤箱 71
番@@ 71
盅 71
直销@@ 71
真实 71
砂轮 71
礼袋 71
移动式 71
红光 71
纯水 71
罗斯 71
芙蓉 71
芭比 71
葡萄@@ 71
葱 71
蒜器 71
蒲团 71
蔓@@ 71
行军床 71
警车 71
跆拳道 71
轿车 71
锅铲 71
闲 71
雀巢 71
面粉 71
音源 71
颜色: 71
飞鼠 71
馨@@ 71
齿器 71
""@@ 70
*3 70
-011 70
-44 70
1/4 70
13.3 70
162 70
2001 70
2005 70
205 70
30-@@ 70
35cm 70
45mm 70
506 70
6a 70
7.1 70
708 70
a+ 70
ant 70
ar5@@ 70
ax7 70
bio 70
bird 70
b款 70
cla@@ 70
diva 70
dk 70
gn@@ 70
hg@@ 70
hx@@ 70
j2 70
lon@@ 70
mel@@ 70
metal 70
ms-@@ 70
nana 70
noki@@ 70
pm@@ 70
ron@@ 70
ry 70
se2 70
sti@@ 70
t7／ 70
u-@@ 70
v- 70
yes 70
♚@@ 70
あ@@ 70
な@@ 70
三阳 70
上身 70
严@@ 70
乱@@ 70
亨 70
人机 70
倒挂 70
光) 70
克斯@@ 70
冰袋 70
创新 70
制化@@ 70
加深 70
包装纸 70
单耳 70
味) 70
商铺 70
嘉义 70
地理 70
垫高 70
复方 70
奢侈 70
她 70
安妮 70
定价 70
实拍) 70
小兔子 70
席梦思 70
延 70
微距 70
念珠 70
打卡 70
挤@@ 70
提醒 70
改变 70
星期 70
晗 70
暴 70
曦 70
杂志架 70
标签纸 70
棉线 70
椒@@ 70
概要 70
比特 70
毡 70
污@@ 70
烟器 70
热水袋 70
爽@@ 70
状况 70
玳瑁 70
理想 70
瓢虫 70
睡美人 70
短外套 70
研究所 70
磅@@ 70
禁@@ 70
精巧 70
纱帘 70
线板 70
胡椒 70
脂肪 70
腹器 70
舟 70
艾伦 70
芝加哥 70
芬迪 70
花环 70
藻@@ 70
蛋蛋 70
袍@@ 70
订下 70
贷 70
走失 70
辛普森 70
辟 70
连接线 70
金卡 70
银白 70
链式 70
镯 70
长直 70
雄@@ 70
鸽 70
". 69
#超 69
(15 69
(经典 69
++@@ 69
-43 69
-f@@ 69
.4 69
134 69
205@@ 69
208@@ 69
236 69
246 69
2500 69
40*@@ 69
45x@@ 69
5.5吋 69
666 69
745@@ 69
802 69
906 69
9mm 69
\\\ 69
a75 69
a9s 69
ara 69
bling 69
c300 69
c9 69
car 69
charms 69
com 69
d'@@ 69
dx@@ 69
eh-@@ 69
fer@@ 69
flux 69
fu 69
gaming 69
gucc@@ 69
hr 69
hub 69
human 69
j5 69
joe 69
lr@@ 69
maru@@ 69
mj@@ 69
nova@@ 69
o型 69
pb 69
ram 69
rayban 69
salvatore 69
smile 69
sou@@ 69
spf50@@ 69
true 69
tta 69
vcd 69
☆╮ 69
中小型 69
临@@ 69
乡@@ 69
了@@ 69
以下 69
佩佩 69
候 69
倾@@ 69
内搭 69
初恋 69
匣@@ 69
即@@ 69
历@@ 69
发货) 69
咨询 69
噪@@ 69
回力 69
圆柱 69
地摊 69
垫板 69
处@@ 69
头箍 69
套子 69
宽边 69
尽@@ 69
希腊 69
平头 69
平日 69
建议 69
当当 69
思思 69
惜 69
战车 69
扩展 69
抢@@ 69
护垫 69
拜 69
捕鱼 69
搅 69
无色 69
显示卡 69
条码 69
柒 69
桌巾 69
欲望 69
沙金 69
油压 69
注水 69
湖@@ 69
焦@@ 69
然@@ 69
现货★ 69
町 69
登场 69
百万 69
种籽 69
窥@@ 69
精神 69
紫光 69
繁殖 69
线) 69
绯@@ 69
维纳斯 69
胜肽 69
花梨木 69
茱@@ 69
茶桶 69
菜篮 69
蕾@@ 69
薛 69
衫潮 69
西藏 69
训练器 69
该 69
贝恩 69
辣味 69
边角 69
鉴 69
锥形 69
镁@@ 69
阁@@ 69
阴道 69
隐 69
食谱 69
饭@@ 69
饭厅 69
鱼网 69
(200 68
(粉) 68
142 68
157 68
184 68
189 68
192 68
216@@ 68
249 68
322 68
3色 68
4吋 68
5c 68
5m 68
600g 68
7a 68
8月 68
90-@@ 68
ar14@@ 68
bridge 68
choo 68
dell 68
dress 68
excel 68
factory 68
fan 68
fear 68
food 68
g9@@ 68
garden 68
han 68
hifi 68
ion 68
jj 68
kg/@@ 68
lomo 68
lulu 68
mari@@ 68
mix@@ 68
ml+@@ 68
n0@@ 68
native 68
neverfull 68
note7 68
os@@ 68
palette 68
qi 68
sin@@ 68
tar@@ 68
tx@@ 68
um@@ 68
x/xs 68
xp 68
z4 68
─@@ 68
✧ 68
フ 68
一箱 68
三四 68
中药材 68
乐家 68
乳酸菌 68
五谷杂粮 68
介面 68
会社 68
低帮 68
像@@ 68
具) 68
冈山 68
冷光 68
单边 68
吐 68
品汇 68
喷射 68
四层 68
大脚 68
天窗 68
奥利奥 68
女夏 68
妤 68
娇@@ 68
家居の 68
寻@@ 68
山水画 68
廊 68
开式 68
彩条 68
手工制 68
护肩 68
拎包 68
拖布 68
拥有 68
指示牌 68
挽 68
撕@@ 68
播放机 68
敬 68
桌边 68
桩 68
植物@@ 68
樱花@@ 68
死神 68
油纸 68
泰迪@@ 68
洁面乳 68
澄@@ 68
特种兵 68
猪年 68
环扣 68
珀@@ 68
短途 68
碰@@ 68
磨粉机 68
祛痘 68
纯正 68
绷 68
缎@@ 68
老公 68
肝@@ 68
脑@@ 68
舖棉 68
芒@@ 68
蒲公英 68
蝴蝶@@ 68
补货 68
贞@@ 68
货柜 68
资料柜 68
足底 68
转转 68
轮滑 68
软体 68
轻柔 68
重生 68
铁板烧 68
长腿 68
集) 68
露露 68
餐巾 68
骰子 68
(中@@ 67
)@@ 67
++ 67
,@@ 67
109@@ 67
2013年 67
2k 67
308 67
312 67
318@@ 67
326 67
537@@ 67
5w 67
60*@@ 67
90g 67
a71 67
alpha 67
auto@@ 67
boy@@ 67
bro@@ 67
dear 67
dvz' 67
edt 67
eq@@ 67
exq 67
fac@@ 67
future 67
gabrielle 67
gift 67
hel@@ 67
kangol 67
ker 67
kv@@ 67
lego@@ 67
mir@@ 67
ns@@ 67
pink@@ 67
qc3.0 67
rosherun 67
s4 67
s6@@ 67
sk-ii 67
snow 67
sym 67
t+ 67
t5 67
tec 67
tennis 67
tws 67
your 67
z5p 67
は@@ 67
ス 67
ラ 67
㊋@@ 67
七件 67
上下铺 67
不褪色 67
主人 67
光滑 67
全盔 67
写作 67
加油 67
包. 67
包潮 67
县 67
合页 67
吸力 67
呼 67
啦啦 67
圆桶 67
地狱 67
大) 67
大肠 67
奇奇蒂蒂@@ 67
宜兴 67
寻宝 67
小红帽 67
嵌入式 67
巴伦 67
帐号 67
平纹 67
平行 67
庭@@ 67
悦@@ 67
惑 67
所@@ 67
拆封) 67
招财进宝 67
握力 67
摇床 67
整体 67
晴天 67
有氧 67
机械式 67
杀│ 67
束身 67
枣@@ 67
枫木 67
标识 67
格) 67
桔梗 67
档@@ 67
榛 67
次方 67
母亲 67
比利时 67
水粉 67
海水 67
漂浮 67
火速 67
爬虫 67
盔 67
盟 67
石榴石 67
空心 67
童帽 67
第七 67
算@@ 67
类@@ 67
索隆 67
红格 67
约定 67
绝色 67
统计学 67
缕空 67
翻页 67
老婆 67
舒适@@ 67
茗@@ 67
茶漏 67
藕粉 67
蚊虫 67
西餐厅 67
试穿 67
贺@@ 67
超取 67
达) 67
酷炫 67
镀银 67
闭 67
阿尔@@ 67
领子 67
饮食 67
饰板 67
马桶盖 67
高中生 67
(单@@ 66
(新货 66
/4@@ 66
1+ 66
1-3-6 66
149 66
178 66
2008 66
228 66
24.5 66
25*@@ 66
490@@ 66
4cm 66
50% 66
6p 66
7cm 66
80-@@ 66
84955@@ 66
a00@@ 66
abercrombie 66
acs 66
b5@@ 66
big@@ 66
coach/蔻 66
ex-@@ 66
field 66
gw@@ 66
hon@@ 66
ice@@ 66
j0@@ 66
kymco 66
lan 66
moc 66
mp4 66
mt-@@ 66
phone@@ 66
plu@@ 66
powder 66
short 66
s~@@ 66
thea 66
toreba 66
yam@@ 66
☜ 66
ㄉ@@ 66
专车 66
乐金 66
休@@ 66
伯奇 66
依依 66
傲 66
元祖 66
光电 66
冈 66
冈@@ 66
写生 66
凹@@ 66
制冰机 66
占 66
厕 66
只@@ 66
吟 66
国度 66
坦@@ 66
埃@@ 66
壁柜 66
太空舱 66
女宝 66
守护 66
宠@@ 66
宣纸 66
宾士@@ 66
待@@ 66
懒得 66
护头 66
抽抽 66
指甲刀 66
捉 66
捣@@ 66
收据 66
无痛 66
日夜 66
是否 66
晚霜 66
曹 66
月) 66
柴油 66
桨 66
正确 66
母女 66
毫米 66
水平 66
消毒柜 66
涉水 66
游戏@@ 66
漂@@ 66
环形 66
略 66
盖巾 66
盘式 66
研@@ 66
祖师 66
税@@ 66
笑@@ 66
精雕 66
繁花 66
红色) 66
细菌 66
网球鞋 66
网红 66
者@@ 66
育儿 66
脏@@ 66
脚踏板 66
腕表 66
色卡 66
艾玛@@ 66
花子 66
菓 66
营养@@ 66
萨尔 66
蓓@@ 66
薯 66
融@@ 66
蟹 66
装饰柜 66
触媒 66
词 66
调味瓶 66
贩卖 66
转蛋 66
迅@@ 66
速干 66
遮盖 66
金融 66
银魂 66
防伪 66
防锈 66
非本 66
项@@ 66
顾 66
颗@@ 66
驰) 66
(完) 65
-m@@ 65
/20 65
195 65
209 65
25-@@ 65
333 65
366 65
37-@@ 65
390@@ 65
490 65
5*@@ 65
575@@ 65
7000 65
8.0 65
909 65
__@@ 65
ae 65
armani亚曼尼 65
a梦@@ 65
ban 65
bg 65
co.@@ 65
c型 65
diptyque 65
dry 65
fg 65
fish 65
fragment 65
ger@@ 65
guerlain 65
hearts 65
i7/@@ 65
k5@@ 65
kanye 65
kawasaki 65
lady@@ 65
micro@@ 65
ml-@@ 65
nillkin 65
nor@@ 65
nt 65
nyx 65
o. 65
pcs 65
rg@@ 65
rider 65
sanlux 65
ski@@ 65
suv 65
tam@@ 65
thunder 65
ut 65
vt 65
water 65
wow 65
xa2 65
yaris 65
yonex 65
★★@@ 65
イ 65
上手 65
下标@@ 65
专营 65
乐谱 65
企划 65
佛经 65
修正 65
光影 65
八哥 65
内含 65
内容 65
凝乳 65
切菜器 65
午夜 65
博物馆 65
史迪奇@@ 65
啾@@ 65
国宝 65
图形 65
垂直 65
大豆 65
奇美 65
奖@@ 65
好玩 65
嫩肤 65
导轨 65
尼康 65
尼斯 65
崔 65
幕布 65
干贝 65
废@@ 65
形象 65
扶 65
折叠车 65
折扇 65
护肘 65
按钮 65
捕@@ 65
故事书 65
新奇 65
新生婴儿 65
新茶 65
无线电 65
映@@ 65
暂 65
期间 65
木器 65
木地板 65
木桌 65
条) 65
每个 65
油管 65
渍@@ 65
渔网 65
煤@@ 65
狐仙 65
猪猪 65
症 65
皇室 65
监听 65
眼袋 65
着色 65
稳定器 65
笔袋 65
粘胶 65
红发 65
纹眉 65
结发 65
绪 65
缓解 65
耶 65
胸部 65
腌@@ 65
臂章 65
药盒 65
菇 65
蔬@@ 65
薰 65
蚁@@ 65
证) 65
贡 65
贾 65
赚 65
软壳@@ 65
运动装 65
逗 65
避@@ 65
金饰 65
钩针 65
钰 65
钱币 65
铁丝 65
镜台 65
面交) 65
香肠 65
高脚杯 65
#创意 64
$100 64
&儿 64
(20@@ 64
(全场 64
(另 64
(随机 64
010@@ 64
1-5 64
100/@@ 64
1tb 64
258@@ 64
32mm 64
505 64
545@@ 64
6/6s/@@ 64
816@@ 64
\\@@ 64
ance 64
authentic 64
balance@@ 64
bask 64
bri@@ 64
c. 64
cherry 64
clarins 64
denim 64
f3@@ 64
girls 64
handle 64
happy@@ 64
il 64
j3 64
j4 64
klein@@ 64
lar@@ 64
m. 64
modern 64
mol@@ 64
mv@@ 64
nn 64
oli@@ 64
only 64
opp 64
pi 64
rx 64
sto@@ 64
t6@@ 64
tank 64
t长 64
ur 64
ux@@ 64
velvet 64
ver. 64
well 64
wheels 64
ws@@ 64
xs/@@ 64
╮@@ 64
☆小 64
下垂 64
主角 64
丽芙 64
乐蒂@@ 64
乳房 64
互@@ 64
今@@ 64
众多 64
优选# 64
伙伴 64
位@@ 64
供@@ 64
保暖@@ 64
关注 64
养殖 64
决@@ 64
几@@ 64
利亚 64
制造) 64
剂@@ 64
前列腺 64
勃@@ 64
午@@ 64
卡式 64
厕纸 64
同志 64
呼@@ 64
咬咬 64
回忆 64
固定架 64
墨水匣 64
备用 64
头花 64
媛 64
宏碁 64
官@@ 64
小叶 64
尘@@ 64
庄@@ 64
影响 64
手提箱 64
扑 64
投射 64
抗震 64
挤压 64
摄影棚 64
收音 64
放大 64
放心 64
斗牛犬 64
方舟 64
昆虫 64
春联 64
暮 64
梨@@ 64
橙@@ 64
此款 64
毛皮 64
清理 64
溶@@ 64
滑梯 64
热感 64
皮带@@ 64
目录 64
瞬 64
碟片 64
碧儿 64
粉盒 64
细胞 64
罗拉 64
肉干 64
肚脐 64
脉冲 64
腾@@ 64
芸 64
苍蝇 64
藻土 64
衣裙 64
规划 64
谢谢 64
贞德 64
软木 64
追加 64
适用: 64
遥 64
鉴定 64
锻@@ 64
集市 64
鞋器 64
预订) 64
额@@ 64
马夹 64
驱动 64
高铁 64
默 64
!!@@ 63
(7@@ 63
/10 63
0-1 63
0.7 63
1166@@ 63
198@@ 63
234 63
238 63
299@@ 63
2s 63
315 63
345 63
40/@@ 63
480@@ 63
6d 63
750ml 63
828@@ 63
905 63
97898@@ 63
??? 63
a- 63
a39 63
alphabounce 63
ax5 63
bell 63
bow@@ 63
doll 63
fil@@ 63
g*2 63
gabbana 63
gogoro2 63
gy 63
hyundai 63
iphonexs 63
k.@@ 63
ken 63
kg) 63
mcm 63
mos 63
ons 63
oro 63
peanuts 63
pentel 63
remax 63
sata 63
sexy 63
sk-@@ 63
sta@@ 63
tcg 63
tl-@@ 63
tp 63
via 63
wen@@ 63
wtaps 63
y/ 63
三月 63
上网卡 63
下) 63
下午 63
举 63
乘 63
乳酪 63
五号 63
人家 63
介绍 63
伍@@ 63
会区 63
使@@ 63
光板 63
六一 63
共用 63
冲孔 63
单机 63
南非 63
卯钉 63
卷尺 63
原生 63
厨@@ 63
双语 63
发音 63
口交 63
吉利 63
后排 63
后盖 63
啰@@ 63
喜乐 63
器. 63
土城 63
墬 63
夹头 63
奈米@@ 63
妮维雅 63
姆斯 63
子代 63
它 63
家饰 63
宽度 63
小) 63
小物@@ 63
嵌 63
弱@@ 63
征 63
手部 63
扒 63
扭力 63
抢手 63
推出 63
揹 63
斋 63
方式 63
昂 63
机型 63
杀人 63
标准型 63
梦境 63
榨@@ 63
比例 63
水印 63
水貂 63
浸 63
消除 63
湘 63
湘@@ 63
火龙 63
烤面 63
烫发 63
熟@@ 63
电磨 63
白色@@ 63
百褶@@ 63
皮革@@ 63
皱褶 63
真书 63
碳化 63
笔套 63
筋 63
红唇 63
绿叶 63
缺@@ 63
耳线 63
至@@ 63
艾灸@@ 63
花语 63
蛇皮 63
计时表 63
订婚 63
说明 63
调酒 63
贤@@ 63
购物@@ 63
超人力 63
超级赛亚 63
跳绳 63
车) 63
车子 63
轻型 63
达特 63
连结 63
邂逅 63
郎@@ 63
配对 63
阶段 63
际 63
面包@@ 63
马赛克 63
驰@@ 63
ａ@@ 63
(下标 62
(五 62
(仅 62
(海外 62
(特价) 62
(蓝色) 62
(附@@ 62
-r@@ 62
....... 62
1.1 62
1/8 62
1080@@ 62
117@@ 62
183 62
233 62
290 62
3-001 62
30mm 62
34-40 62
365@@ 62
432 62
470 62
523@@ 62
980 62
\\\"" 62
action 62
biore 62
craft 62
dt 62
e0@@ 62
ever@@ 62
f36@@ 62
fire 62
fleece 62
giant 62
gore-tex 62
hana 62
im@@ 62
iphone7@@ 62
j4@@ 62
jill 62
just@@ 62
k2g27@@ 62
kappa 62
kit@@ 62
laura 62
los 62
lq@@ 62
m64@@ 62
mic 62
mistine 62
miu@@ 62
no.1 62
ora 62
oreo 62
outdoor 62
pad@@ 62
pgm 62
reno@@ 62
s79@@ 62
stella 62
sv 62
t8／ 62
tony 62
ts-@@ 62
vintage@@ 62
wel@@ 62
xzs 62
─ 62
ち@@ 62
下水道 62
丽儿 62
亚瑟士 62
仕女 62
优优 62
八分 62
公尺 62
北极@@ 62
午 62
卡纸 62
卤@@ 62
厕@@ 62
受@@ 62
吊兰 62
呎 62
呎码 62
咸 62
唯一 62
喔@@ 62
喜字 62
圣诞老人 62
壁钟 62
外传 62
好奇 62
子多 62
孟 62
富士山 62
小说@@ 62
巢 62
帐@@ 62
序 62
御寒 62
微软 62
德式 62
急救 62
总裁 62
悠 62
扬@@ 62
折纸 62
拉线 62
挑选 62
排水管 62
接受 62
摄像 62
数据 62
旋转木马 62
显微镜 62
普卡 62
晶石 62
村风 62
条文 62
桂圆 62
案@@ 62
气机 62
水陆 62
沐 62
活性炭 62
炒@@ 62
烫衣板 62
热熔 62
牛仔@@ 62
猫眼石 62
玄 62
男仕 62
皮草 62
盖碗 62
积@@ 62
穿) 62
竖条 62
简约@@ 62
精品屋 62
纱巾 62
纸篓 62
纾困 62
组合式 62
花式 62
苹果绿 62
菜单 62
西洋 62
调色 62
赚到 62
超导 62
达尔@@ 62
迈克 62
道路 62
酵母 62
金士顿 62
钢扣 62
锌合金 62
锻造 62
闺蜜@@ 62
防风衣 62
雷达 62
青花瓷 62
鞋. 62
页@@ 62
飞龙 62
马龙 62
验@@ 62
鼻毛 62
龙虾 62
(上) 61
(下) 61
(九 61
12v@@ 61
13) 61
1:1 61
2.5吋 61
211 61
28-@@ 61
3.4 61
325 61
32cm 61
551 61
6.3 61
706 61
80) 61
a+@@ 61
ain 61
armani@@ 61
bone 61
buff 61
cci 61
creeper 61
daybreak 61
dia 61
disruptor 61
dl 61
gap@@ 61
gio 61
gt-@@ 61
heart@@ 61
hk@@ 61
hol@@ 61
ie@@ 61
jbl 61
lamy 61
las@@ 61
lf@@ 61
lion 61
m8@@ 61
mango 61
mask 61
medi@@ 61
mer 61
minkoff 61
mk3@@ 61
mrl@@ 61
mvp 61
nat@@ 61
neo@@ 61
nex 61
nex@@ 61
p9 61
per 61
petit 61
s10@@ 61
speed@@ 61
switch@@ 61
t" 61
t2／ 61
toeic 61
travel 61
ua@@ 61
ub@@ 61
v2@@ 61
vault 61
west 61
winnie 61
wx@@ 61
zy 61
├@@ 61
●@@ 61
♔@@ 61
〖@@ 61
ク 61
三宝 61
临 61
五十 61
作坊 61
保险套 61
修枝 61
全国 61
公车 61
兹@@ 61
军工 61
冷水 61
凌@@ 61
刀锋 61
切肉 61
列车 61
力学 61
北京 61
单只 61
单品 61
发套 61
可移 61
咏 61
咒@@ 61
国民 61
圆片 61
壹号 61
奇奇 61
威利 61
子网 61
字样 61
家居@@ 61
宽楦 61
小甜甜 61
尺寸) 61
户@@ 61
托里 61
拼图@@ 61
旋转式 61
日文版 61
日清 61
昊 61
显示屏 61
木框 61
标语 61
栗子 61
燃气灶 61
狗屋 61
猪肉 61
球迷 61
理发器 61
盘) 61
睿@@ 61
矮@@ 61
硬笔 61
空盒 61
童装@@ 61
粒) 61
纯黑 61
线材 61
绝缘 61
腰果 61
膳魔师 61
至尊 61
茉@@ 61
蜂王 61
裤脚 61
褶@@ 61
解构 61
调速 61
贩@@ 61
贰@@ 61
贸 61
达尔 61
逃@@ 61
配) 61
门把手 61
雨棚 61
馥@@ 61
骆驼 61
鸿@@ 61
#现货 60
(上 60
(出清) 60
).@@ 60
-24 60
18m 60
2.5@@ 60
225 60
24m 60
331 60
3ml 60
3xl 60
413@@ 60
428@@ 60
552 60
7吋 60
9428@@ 60
99-@@ 60
[c@@ 60
a10@@ 60
a14@@ 60
ak 60
ama 60
base 60
bathing 60
colourpop 60
cushion 60
ea 60
f2.8 60
family 60
hf@@ 60
ips 60
kao 60
molly 60
moto@@ 60
nd 60
nu 60
pure@@ 60
rimowa 60
s/s 60
s75@@ 60
sab@@ 60
shock 60
shoulder 60
sportswear 60
sta 60
uag 60
v型 60
wm@@ 60
york 60
z0@@ 60
zippy 60
ᴇ@@ 60
■@@ 60
★全馆 60
☛@@ 60
タ@@ 60
テ@@ 60
二轮 60
亚丝娜 60
人间 60
优先 60
倪 60
兼@@ 60
凑 60
制造@@ 60
刷洗 60
割草机 60
单身 60
卷帘 60
含运 60
嘴唇 60
团队 60
地砖 60
坦 60
外盖 60
威化 60
威尔 60
娅 60
实拍@@ 60
寄@@ 60
小镇 60
开裆 60
弹珠 60
彩屏 60
思维 60
急@@ 60
悬@@ 60
戽斗 60
手枪 60
手环@@ 60
据 60
授 60
放大器 60
无暇 60
月历 60
杀$ 60
杯杯 60
架) 60
格格 60
楦@@ 60
死亡 60
沿帽 60
泳池 60
洛杉矶 60
消音 60
温热 60
炸鸡 60
焊@@ 60
焰 60
照相 60
玮 60
电饭锅 60
研磨器 60
竖@@ 60
篇@@ 60
米奇@@ 60
粉笔 60
红宝石 60
纲 60
经理 60
罗马数字 60
耳钉 60
耶@@ 60
肉片 60
腰垫 60
腰身 60
荳@@ 60
莱尔 60
言@@ 60
诱@@ 60
调温 60
貂 60
贝拉 60
贝母 60
贝瑞 60
越@@ 60
车套 60
轰 60
这个 60
追逐 60
透明@@ 60
金表 60
钩@@ 60
钱袋 60
长洋 60
阿拉@@ 60
韵律 60
风气 60
香) 60
黑橘 60
龙凤 60
ｃ@@ 60
(300 59
(保 59
-s 59
/30 59
007@@ 59
1'07 59
1-5@@ 59
1.2m 59
1111 59
16mm 59
175 59
191 59
1x@@ 59
20*@@ 59
213 59
216 59
218 59
231 59
238@@ 59
24hr 59
24mm 59
24吋 59
2x@@ 59
300g 59
5-6 59
5t 59
7-11@@ 59
710 59
ard 59
bat@@ 59
betty 59
bg@@ 59
bit@@ 59
chanel包包 59
clot 59
cover 59
eagle 59
eri@@ 59
ever 59
extreme 59
fs 59
ger 59
homme 59
i.@@ 59
in-@@ 59
int@@ 59
ir 59
joanna 59
lei@@ 59
liu 59
ln 59
m&@@ 59
m-xxxl码 59
monaco 59
nude 59
prophere 59
qposket 59
s" 59
she@@ 59
social 59
spa@@ 59
t恤女 59
t素t 59
u领 59
vans@@ 59
v字 59
wear 59
work 59
xr/@@ 59
xzp 59
ᅩ 59
ᆫ@@ 59
◥ 59
つ@@ 59
ㄚ@@ 59
下单@@ 59
不怕 59
中坜 59
为什么 59
义大利@@ 59
乳垫 59
伦裤 59
伸 59
佐 59
保龄球 59
党 59
军训 59
剑麻 59
剪纸 59
加价 59
努@@ 59
发牌 59
吋盆 59
咪咪 59
喷泉 59
圆角 59
土地 59
土豪 59
坚@@ 59
堵漏 59
大包 59
太空@@ 59
失 59
奖励 59
奶酪 59
好帮手 59
妈祖 59
客制化 59
寸@@ 59
导游 59
封闭式 59
小舖) 59
小花 59
干净 59
延伸 59
影子 59
怎么 59
技师 59
抹@@ 59
损@@ 59
排档 59
斑马纹 59
新房 59
旅游鞋 59
梯@@ 59
横杆 59
橄榄@@ 59
武术 59
水水 59
泰拳 59
洒 59
海神 59
满分 59
灯笼裤 59
直角 59
石材 59
确 59
私房 59
称@@ 59
纬 59
纯钛 59
纹理 59
线钳 59
练@@ 59
经文 59
继电器 59
罩子 59
肚皮舞 59
芦@@ 59
芽@@ 59
苹果@@ 59
茶罐 59
莉莉 59
菜篮子 59
蓁@@ 59
藤蔓 59
螺母 59
衬衫@@ 59
诺基亚 59
踝@@ 59
踢@@ 59
较 59
速溶 59
遮阳帘 59
酷咕 59
野炊 59
金粉 59
防晒衫 59
雅芳 59
鱼口 59
鱼钩 59
鲸@@ 59
鸡腿 59
黑发 59
#0@@ 58
#虾皮 58
(3) 58
+2 58
/a@@ 58
0.4 58
10.1 58
10.2 58
111008@@ 58
176 58
21-@@ 58
265 58
3*@@ 58
30) 58
355 58
370 58
375@@ 58
4x 58
5v 58
711@@ 58
95-@@ 58
99% 58
9h@@ 58
9s 58
\""""" 58
a51 58
ano 58
book@@ 58
cars 58
chan 58
cooper 58
dmv 58
ery 58
fol@@ 58
fur@@ 58
gogo 58
high@@ 58
hyperdunk 58
igo@@ 58
infocus 58
ja 58
jing 58
lam@@ 58
let's 58
m612@@ 58
marcelo 58
mia 58
ml" 58
mr 58
ness 58
ow@@ 58
pig@@ 58
pilot百 58
pon@@ 58
ps2 58
remix 58
s4@@ 58
sacai 58
san 58
shu@@ 58
sneakers 58
stayreal 58
t大 58
t恤t恤 58
v5 58
vape 58
vol.2 58
w205 58
wan@@ 58
ye 58
zy@@ 58
☞ 58
☼@@ 58
こ@@ 58
た@@ 58
一千 58
丙级 58
串灯 58
主动 58
乳头 58
人格 58
假日 58
健美 58
凌志 58
刚@@ 58
助力 58
包含 58
化器 58
单靴 58
卡组 58
卧@@ 58
友人 58
反向 58
另@@ 58
可洗 58
合体 58
向日葵 58
唱@@ 58
四川 58
圣保罗 58
型车 58
培 58
大三 58
大海 58
太空铝 58
左手 58
干透 58
并 58
幽 58
快门 58
快餐 58
惊奇 58
懒@@ 58
手提@@ 58
手摇铃 58
执@@ 58
抛光机 58
挪 58
掉@@ 58
摇铃 58
播放 58
文具@@ 58
日规 58
橄榄油 58
橡树 58
橡皮@@ 58
毕@@ 58
气息 58
永远 58
沟通 58
法规 58
游乐园 58
灯头 58
热卖#@@ 58
热情 58
燕子 58
牌照 58
猛@@ 58
猜 58
玛士 58
玛莉@@ 58
珂@@ 58
珍妮 58
用餐 58
疆 58
疤@@ 58
白瓷 58
皙@@ 58
盒装) 58
相簿 58
瞬@@ 58
祝@@ 58
禄 58
租@@ 58
粹 58
糯 58
繁 58
维斯 58
罩衣 58
羊羔绒 58
花生@@ 58
蓝色) 58
螺丝@@ 58
詹 58
计步器 58
读卡机 58
货源 58
赛季 58
超音波 58
软式 58
辛@@ 58
运动衫 58
退换 58
部品 58
配套 58
量杯 58
阳伞 58
阿迪达 58
雅致 58
风管 58
飘带 58
香水@@ 58
高校 58
黑桃 58
&超 57
(p@@ 57
(附赠 57
1-6 57
100-@@ 57
143 57
144@@ 57
148 57
14mm 57
15.@@ 57
219 57
22mm 57
3- 57
324 57
5w@@ 57
5x@@ 57
5xl 57
81@@ 57
820 57
830@@ 57
998 57
>@@ 57
__ 57
ag 57
amo@@ 57
arashi 57
blaze 57
cec 57
cin@@ 57
clean 57
clinique 57
code 57
cup 57
db 57
don 57
dr.martens 57
e/@@ 57
ear 57
fog 57
fz@@ 57
gk@@ 57
goyard 57
heran 57
holika 57
icash 57
ie 57
internationalist 57
ip 57
jj@@ 57
kel@@ 57
labo 57
lindy 57
logitech 57
lunarepic 57
m7 57
march 57
met-@@ 57
money 57
ok@@ 57
pdd 57
pearl 57
princess 57
q5 57
ras@@ 57
saddle 57
simple 57
skoda 57
stars 57
suqqu 57
s型 57
t7@@ 57
tas@@ 57
tat@@ 57
three 57
tic 57
tk@@ 57
track 57
utility 57
van 57
zo 57
∣@@ 57
✩@@ 57
一百 57
七色 57
三门 57
不用 57
中药 57
主场 57
二手机 57
伴侣 57
余@@ 57
保险@@ 57
倾 57
偷 57
凯文 57
前线 57
剑桥 57
化妆舞会 57
单位 57
单间 57
卡尔 57
卫衣@@ 57
历届 57
发丝 57
发烧 57
口裤 57
台) 57
后厢 57
哥哥 57
唇露 57
圆圆 57
地板@@ 57
增长 57
墩 57
复兴 57
大学t 57
女t 57
姐@@ 57
婆婆 57
婴儿鞋 57
字画 57
宅女 57
宝藏 57
客房 57
小雨 57
山羊皮 57
市面 57
希望 57
帝王 57
弧 57
弹簧夹 57
感情 57
手杖 57
执事 57
握@@ 57
播@@ 57
斐@@ 57
旦 57
早安 57
显色 57
朋@@ 57
服务@@ 57
染发膏 57
柾国 57
桂@@ 57
案板 57
梳@@ 57
残 57
沛 57
泉@@ 57
泳@@ 57
浴帽 57
清爽型 57
港式 57
漫步 57
灵魂 57
热卖) 57
煤气 57
熏@@ 57
男士@@ 57
百分百 57
直上 57
省@@ 57
秦 57
穴位 57
米饭 57
糊 57
组合柜 57
经营 57
翰@@ 57
老北京 57
肌因 57
肛塞 57
脸巾 57
花花世界 57
花鸟 57
茄@@ 57
茗 57
菇@@ 57
菊花茶 57
薰机 57
藏青 57
融 57
被罩 57
裤内 57
裱@@ 57
谷物 57
运中 57
连帽@@ 57
逗@@ 57
钥匙@@ 57
锁匙 57
闭@@ 57
阪@@ 57
阿尔法 57
阿甘 57
陵 57
零嘴 57
马鞭 57
黑色@@ 57
＋@@ 57
ｔ@@ 57
-ez 56
0000 56
1-10 56
10*@@ 56
1234 56
15mm 56
197 56
2+ 56
2009 56
22.5 56
223 56
232 56
258 56
275@@ 56
29-42 56
307 56
313@@ 56
399@@ 56
512@@ 56
6*@@ 56
834@@ 56
950@@ 56
@@ 56
a. 56
a60 56
airpods2 56
ash@@ 56
ay 56
bike 56
boo@@ 56
boost@@ 56
cla 56
cro@@ 56
dolce& 56
drive 56
eco 56
ee 56
hearts克罗心 56
honey 56
hy 56
jam 56
jets 56
kw@@ 56
ling@@ 56
luna 56
m415@@ 56
m7@@ 56
moon@@ 56
ner 56
op 56
pharrell 56
pig 56
ryz 56
sale 56
sk2 56
skater 56
stuart 56
t4@@ 56
tit@@ 56
town 56
tshirt 56
tte 56
us10 56
ver.@@ 56
vespa 56
vivienne 56
vn0a3@@ 56
way@@ 56
wifi@@ 56
wii 56
yy. 56
ᅵ 56
■ 56
三开门 56
下水 56
专门 56
乞丐 56
二胡 56
从@@ 56
佰@@ 56
佳佳 56
偶@@ 56
充线 56
兔兔 56
兜@@ 56
养成 56
军旅 56
几乎 56
创造 56
加码 56
北面 56
单) 56
卡纳赫拉 56
叠加 56
吉祥物 56
听力 56
唤 56
啦@@ 56
啫喱 56
四面 56
团子 56
团购 56
圆珠笔 56
土司 56
基隆 56
塑型 56
夏普 56
大悲咒 56
大眼睛 56
天珠 56
奏 56
女儿 56
婷@@ 56
学: 56
小台灯 56
幸@@ 56
当代 56
录音带 56
影集 56
怕 56
恬@@ 56
扁平 56
报纸 56
拚@@ 56
振动 56
挺@@ 56
敬@@ 56
晚会 56
有趣 56
望@@ 56
板) 56
栀子 56
标志性 56
梵 56
橙子 56
款#@@ 56
歌曲 56
波纹 56
洛洛 56
流线 56
浮动 56
淋@@ 56
清除 56
灯箱 56
特选 56
狠 56
理财 56
生姜 56
生机 56
电车 56
皱折 56
监控器 56
石膏 56
硫@@ 56
碧蓝 56
磁砖 56
福神 56
种菜 56
糖霜 56
纠正 56
红鹤 56
纺纱 56
结合 56
罚 56
翔@@ 56
聚宝 56
肌密 56
背侧 56
蓝水 56
藏版 56
藤条 56
蟒蛇 56
裂@@ 56
襟 56
识 56
课程 56
跟凉 56
逼 56
金字 56
金葱 56
钧 56
锯片 56
限定) 56
韦@@ 56
顽皮 56
风范 56
飘@@ 56
验货 56
"☆ 55
#爆款# 55
(120@@ 55
(加 55
(橘@@ 55
(粉@@ 55
(粉色) 55
(艾 55
/二手 55
1450@@ 55
147 55
182 55
207 55
237 55
263 55
3+@@ 55
30x@@ 55
336 55
354 55
36-46 55
363 55
45cm 55
460 55
503 55
590 55
690 55
720@@ 55
804 55
903 55
986@@ 55
9吋 55
a80@@ 55
ale 55
als 55
ar0@@ 55
burlon 55
chic@@ 55
co2 55
coffee 55
crazy 55
d3 55
footscape 55
fy 55
gba 55
hs@@ 55
infinite 55
k2@@ 55
kon@@ 55
l-4xl 55
l0@@ 55
line@@ 55
lv8 55
m-xxxl 55
market 55
min 55
mont 55
nie 55
nt$@@ 55
padlock 55
p助 55
ride 55
rs-@@ 55
sarah 55
scottish 55
shark 55
shinee 55
signature 55
silver@@ 55
sis 55
sj@@ 55
slip-on 55
snapback 55
soho 55
tescom 55
wing 55
woo@@ 55
xin 55
y5@@ 55
★ifairies 55
♔ 55
✩ 55
り@@ 55
ん 55
ヒ@@ 55
三角巾 55
亨@@ 55
亲爱 55
停@@ 55
克) 55
八代 55
冬瓜 55
冷饮 55
切片机 55
削皮 55
危机 55
厂) 55
口盖 55
可用 55
名家 55
国大 55
垮 55
头部 55
奖品 55
奥德赛 55
女板 55
女警 55
存储 55
客服) 55
家居) 55
巨大 55
帐本 55
座机 55
微微 55
微积分 55
惟 55
报警器 55
抵 55
搭衫 55
敦 55
斧 55
晶亮 55
晶洞 55
最终 55
木鞋 55
束@@ 55
歌手 55
水车 55
沐沐 55
洋洋 55
活性碳 55
海夹 55
热风 55
煎蛋 55
狐貍 55
玥@@ 55
玺 55
玺@@ 55
用于 55
电击 55
疤痕 55
瘦瘦 55
皮套@@ 55
神器@@ 55
秸秆 55
立得 55
竹席 55
第1 55
精细 55
素) 55
紧急 55
繁@@ 55
继@@ 55
老公公 55
耍 55
耳机@@ 55
肉肉 55
股@@ 55
艺术家 55
花园) 55
葡萄牙 55
蜜蜡 55
螺 55
螺丝起子 55
触摸屏 55
负@@ 55
踝 55
车车 55
软硬 55
轻质 55
运# 55
运输 55
进场 55
迷雾 55
钉书机 55
钱包@@ 55
长凳 55
队@@ 55
雪白 55
革命 55
靶@@ 55
香榭 55
麟 55
麻糬 55
黑色) 55
#新款 54
(24 54
(每 54
(白@@ 54
-00 54
/8@@ 54
0000@@ 54
0001 54
10w 54
11) 54
12.9 54
141 54
159 54
1620@@ 54
18/@@ 54
220v@@ 54
245 54
252 54
505@@ 54
540 54
5cgo 54
6-100 54
615 54
7-100 54
718@@ 54
789 54
8s 54
a20 54
amd 54
ast@@ 54
b/@@ 54
band@@ 54
benq 54
can 54
ch-@@ 54
charm 54
chris 54
cotton 54
diesel 54
disney@@ 54
dt@@ 54
f10 54
fh@@ 54
fl 54
george 54
he 54
hobo 54
hot@@ 54
hun@@ 54
hunter 54
koko 54
legends 54
m440@@ 54
miku 54
mk57@@ 54
posh 54
qx@@ 54
rainbow 54
robot 54
ryan 54
shield 54
st-@@ 54
tanjun 54
tm 54
tru@@ 54
twist 54
type-c@@ 54
vel@@ 54
venus 54
waffle 54
x.@@ 54
x2@@ 54
x8 54
xw 54
zs@@ 54
╮ 54
☆chanel 54
お@@ 54
リ 54
一拖 54
丁丁 54
万年历 54
不修 54
书报 54
亮色 54
亲亲 54
人手 54
介@@ 54
价钱 54
充充 54
全智贤 54
养护 54
切片器 54
制药 54
剃@@ 54
割@@ 54
力车 54
卡龙@@ 54
卵磷脂 54
厚外套 54
啤酒杯 54
圣衣 54
垫) 54
处方 54
大白 54
大眼仔 54
大网 54
太平洋 54
女外套 54
奴@@ 54
姓 54
家用@@ 54
宽带 54
尼泊尔 54
岭 54
座) 54
座套 54
弯@@ 54
彬 54
恶灵 54
悟@@ 54
战斗机 54
抽水 54
拳@@ 54
指手 54
掏 54
摸 54
撒 54
收纳包 54
新安 54
普考 54
朋 54
柴犬@@ 54
沙发椅子 54
泡器 54
洗洁 54
满版 54
澎湖 54
热裤 54
燃@@ 54
牛蒡 54
生意 54
画质 54
盗@@ 54
砂轮机 54
立柱 54
端@@ 54
笼@@ 54
籍 54
粘土 54
紫檀 54
红潮 54
红米@@ 54
络 54
美发店 54
美梦 54
翼@@ 54
耐晒 54
舞鞋 54
色带 54
芊@@ 54
花花公子 54
菊@@ 54
蒟蒻 54
行政 54
谈@@ 54
超短 54
轮圈 54
还原 54
逻@@ 54
遮阳网 54
酒具 54
酵@@ 54
野犬 54
销量 54
长项 54
闹铃 54
阁楼 54
阻力 54
除草机 54
面试 54
鞋汇 54
顺丰 54
饭菜 54
马达@@ 54
鳞 54
鸡精 54
鸭子 54
鹿皮 54
黑巧克力 54
＿ 54
￥ 54
#5@@ 53
(4) 53
(出货 53
(日 53
(红色) 53
-06 53
-12@@ 53
-400@@ 53
002@@ 53
1-2-3 53
119@@ 53
173 53
187 53
2.8 53
212@@ 53
224 53
247@@ 53
256@@ 53
3kg 53
3w 53
4" 53
43mm 53
50cm 53
5x 53
620@@ 53
630 53
705@@ 53
a10 53
age@@ 53
aj5 53
anderson 53
aqu@@ 53
au 53
banana 53
bm 53
board 53
c250 53
cer@@ 53
cny 53
dkny 53
e's 53
ear@@ 53
foundation 53
fro@@ 53
ful 53
g+ 53
gl 53
hand 53
hotwheels 53
im 53
kas@@ 53
keds 53
kid 53
kt-@@ 53
long@@ 53
m20@@ 53
madness 53
mand@@ 53
mann 53
monarch 53
mouse 53
nan@@ 53
naraya 53
p2 53
qw@@ 53
revolution 53
ron 53
sandal 53
sense 53
sentra 53
sk8-hi 53
solo 53
spi@@ 53
tg 53
ther@@ 53
toro 53
ura 53
v.@@ 53
vapor 53
vdl 53
victor 53
wet 53
wood@@ 53
xiaomi 53
ᅳ 53
ᅵ@@ 53
∮@@ 53
✦@@ 53
下杀☆ 53
专营店 53
中级 53
之宝 53
乒乓球 53
书画 53
书立 53
人造花 53
代售 53
免税店 53
公共 53
公家 53
公馆 53
农家 53
创业 53
利器 53
加仑 53
勇@@ 53
医师 53
即溶 53
厄文 53
厘@@ 53
原厂 53
厢 53
及@@ 53
发射 53
古曼@@ 53
告 53
哑光@@ 53
哟 53
唯@@ 53
喝@@ 53
噪音 53
地球仪 53
塑料@@ 53
壹家 53
天空之城 53
太阳@@ 53
奏@@ 53
宝利 53
小孩子 53
市价 53
布) 53
带子 53
店家 53
弥勒佛 53
很@@ 53
恢复 53
戚 53
手卷 53
拓@@ 53
描述 53
搓澡 53
故宫 53
星期五 53
昱@@ 53
有限公司 53
术@@ 53
残@@ 53
气门 53
法师 53
泪 53
洋娃娃 53
洗菜 53
消防车 53
火腿 53
灯壳 53
灰橘 53
点火 53
煎饼 53
爱用 53
牛奶糖 53
狼人 53
王鲁夫 53
珑 53
电缆 53
电阻 53
皇帝 53
盲盒 53
直筒@@ 53
真正 53
磨刀器 53
神像 53
童年 53
米格 53
级别 53
绸 53
置@@ 53
肖@@ 53
肽 53
膳 53
菲律宾 53
萝莉 53
蓝橘 53
行事历 53
行李箱@@ 53
行装 53
辣妹 53
运#@@ 53
郡 53
部队 53
量化 53
錬 53
长条桌 53
雪儿 53
青瓷 53
非凡 53
面条 53
面皮 53
革@@ 53
鞋粉 53
风沙 53
飞天 53
飞飞 53
ｏ@@ 53
&全场 52
(韩国 52
-e@@ 52
-y@@ 52
/12 52
/r@@ 52
/百 52
1/43 52
11.5 52
16/@@ 52
1600@@ 52
167 52
1:18 52
2-3 52
2/ 52
2012年 52
20190@@ 52
217@@ 52
25) 52
255 52
335 52
340 52
35mm 52
36-4@@ 52
4.1 52
5.6 52
8l 52
918@@ 52
995 52
?@@ 52
a20@@ 52
ani 52
anti@@ 52
ava 52
banila 52
bb6@@ 52
bot 52
bucket 52
cabas 52
chain 52
climacool 52
d2@@ 52
dio 52
dj@@ 52
doris 52
faye 52
fran@@ 52
full 52
g- 52
hand@@ 52
hsu 52
ht 52
iron 52
j6@@ 52
jf 52
jk@@ 52
k10 52
kuma 52
lancer 52
link 52
lm 52
major 52
nn@@ 52
note2 52
org@@ 52
pillow 52
pw 52
q7 52
ren 52
running 52
s-2xl 52
scott 52
stick 52
suga 52
t. 52
t1 52
tough 52
tp-@@ 52
type@@ 52
uncaged 52
undefeated 52
v15 52
wt 52
xy@@ 52
yun@@ 52
˙@@ 52
○@@ 52
ロ@@ 52
上托 52
中信 52
中网 52
乌拉圭 52
亮泽 52
伊伊 52
伐木 52
住@@ 52
使用) 52
侧面 52
农药 52
冥@@ 52
冰激凌 52
刑@@ 52
加强型 52
加热器 52
加绒卫衣 52
包装机 52
卡莉 52
卤味 52
双胞胎 52
咖色 52
地方 52
地铺 52
塑封 52
塑料袋 52
多孔 52
天平 52
太空人 52
奔 52
套房 52
奥特曼 52
女大 52
女巫 52
娘娘 52
字型 52
宇航员 52
家务 52
小钱 52
屋子 52
岳 52
己 52
年华 52
当家 52
忍@@ 52
手排 52
手袋@@ 52
扫描 52
找@@ 52
投篮 52
折价 52
抽气 52
换装 52
排队 52
搅拌棒 52
文房四宝 52
新干线 52
无铅 52
明天 52
晚餐 52
暂@@ 52
杂货舖 52
染色 52
标签机 52
格雷 52
棉花棒 52
榴@@ 52
毕 52
民众 52
水胶 52
水靴 52
油封 52
波斯 52
浮力 52
海岸 52
润滑剂 52
涮 52
淋 52
渔轮 52
漂白 52
潮流@@ 52
焖 52
特卖@@ 52
电光 52
男单 52
男青年 52
登山@@ 52
真空@@ 52
矢@@ 52
知性 52
砍 52
福气 52
福鞋 52
笛@@ 52
米) 52
练习@@ 52
结束 52
编制 52
网兜 52
网线 52
老帽 52
脸器 52
腹部 52
芭比@@ 52
花) 52
花篮 52
茂@@ 52
药妆 52
萨斯 52
蒋 52
蔻超 52
街机 52
袖扣 52
议) 52
访 52
诊@@ 52
说明书 52
超合金 52
超大号 52
车队 52
辉@@ 52
这里 52
道士 52
遛 52
金属框 52
鎏金 52
铅笔@@ 52
锐@@ 52
错过 52
键帽 52
镊子 52
长明灯 52
防螨 52
阿玛@@ 52
鞋.@@ 52
飞侠 52
马来貘 52
驼 52
高桥 52
高空 52
髪 52
(#@@ 51
(w@@ 51
(台@@ 51
(日@@ 51
(长 51
1.8米 51
1/18 51
1月 51
20l 51
226 51
242 51
251 51
277 51
39-45 51
45-@@ 51
456 51
4g@@ 51
508 51
612 51
6x@@ 51
705 51
747@@ 51
8-10 51
849@@ 51
908 51
910 51
929 51
::: 51
_y@@ 51
_☆ 51
a40 51
ail 51
ami 51
amissa 51
ane 51
anpanman 51
ant@@ 51
ariel 51
b) 51
bjd 51
care@@ 51
cc- 51
daiwa 51
dri-fit 51
ds-@@ 51
effect 51
ek@@ 51
eli@@ 51
eni@@ 51
farm 51
gle 51
green@@ 51
hor@@ 51
hybrid 51
ins@@ 51
iphone8@@ 51
iphone8plus 51
kir@@ 51
kirkland 51
l/ 51
m- 51
maison 51
mk58@@ 51
mma 51
msp 51
online 51
pant 51
pen 51
pixel 51
r20 51
rilakkuma 51
rock@@ 51
sogo 51
sq@@ 51
style@@ 51
t3 51
t365 51
tin@@ 51
tina 51
ul 51
u凸 51
v9 51
wb 51
ze552 51
zenfone@@ 51
ᆫ 51
✤@@ 51
・ 51
世界@@ 51
丽人 51
乱斗 51
产地 51
优美 51
传感器 51
保护@@ 51
保护垫 51
值@@ 51
冰冰 51
冰棒 51
冷气机 51
凉风 51
减负 51
刀叉 51
刮伤 51
前叉 51
加长型 51
包包@@ 51
化妆@@ 51
医学 51
占卜 51
双肩背 51
台塑 51
后灯 51
吸尘 51
吸收 51
哒 51
圆顶 51
土机 51
堵塞 51
大蒜 51
天幕 51
奕迅 51
如果 51
妆蛋 51
姊妹 51
始 51
学生@@ 51
孩儿 51
实价 51
宣@@ 51
对) 51
小伙 51
小便 51
小苏打 51
尺) 51
布防 51
平衡@@ 51
年) 51
废 51
彩笔 51
往@@ 51
征@@ 51
微光 51
心) 51
愿@@ 51
慕斯 51
扰 51
拐角 51
持妆 51
挡水 51
捡 51
旅人 51
无线@@ 51
杀￥ 51
材料@@ 51
松本 51
果香 51
染料 51
标价 51
水银 51
汽材 51
沾@@ 51
波波@@ 51
浓郁 51
海洋@@ 51
海豹 51
淫@@ 51
炸弹 51
热销@@ 51
牙骨 51
牧场 51
猿@@ 51
玟@@ 51
珍宝 51
珐瑯@@ 51
生) 51
田玉 51
疏 51
病毒 51
白紫 51
皮件 51
皮毛 51
盔甲 51
真金 51
矽 51
砲 51
神龙 51
秀款 51
秒杀@@ 51
穿衣 51
笔架 51
签筒 51
篷 51
簇 51
簿@@ 51
米妮@@ 51
粉尘 51
纯棉@@ 51
绳) 51
缎 51
胚@@ 51
脊椎 51
自身 51
色素 51
芒星 51
芭比娃娃 51
花果 51
菲菲 51
蓉@@ 51
蔻驰@@ 51
薏米 51
行为 51
衬裙 51
詹姆士 51
订金 51
译@@ 51
财神爷 51
货☆ 51
蹦蹦 51
车上 51
车带 51
软性 51
载@@ 51
酪 51
酿 51
铁链 51
铝材 51
键鼠 51
镁 51
长辈 51
防火 51
障 51
雪地 51
鞋柜 51
飞马 51
马卡龙@@ 51
鲨@@ 51
麒麟 51
ｉ@@ 51
"# 50
$200 50
(剩 50
(新@@ 50
(美 50
(限量 50
-004 50
/5 50
/925 50
0507 50
1+1 50
1.5l 50
10a 50
12*@@ 50
125g 50
13/@@ 50
130g 50
15w 50
18ss 50
2.3 50
2006 50
2020.@@ 50
2020ss 50
2021/@@ 50
334@@ 50
351 50
406 50
417@@ 50
4764@@ 50
4d@@ 50
511 50
693 50
6xl 50
775@@ 50
806 50
809 50
816 50
910@@ 50
93/17 50
9m 50
a50@@ 50
adilette 50
aj6 50
b1 50
bao 50
bebe 50
bin 50
bubu 50
cd-@@ 50
cle 50
eng@@ 50
ferragamo菲拉格 50
fi 50
fish@@ 50
fp@@ 50
g7@@ 50
gold@@ 50
hey 50
impact 50
korea@@ 50
lh@@ 50
lite@@ 50
lunar@@ 50
lux@@ 50
ma-@@ 50
magi@@ 50
many 50
mh 50
mh-@@ 50
mmx@@ 50
mod 50
moma 50
neighborhood 50
nite 50
pap@@ 50
pouch 50
puma@@ 50
r11s 50
rx-@@ 50
sana 50
solar 50
sp-@@ 50
sunshine 50
teco 50
tin 50
tsumtsum 50
t百 50
und@@ 50
val@@ 50
vol.1 50
ying 50
yt 50
◈@@ 50
♞@@ 50
ま@@ 50
丛书 50
两相宜 50
之前 50
之子 50
乐乐@@ 50
乐趣 50
乘@@ 50
九尾狐 50
习@@ 50
仲 50
价值 50
任选) 50
伊人 50
伪装 50
伴郎 50
俐落 50
修脚 50
光明 50
光采 50
关东 50
切切 50
包装@@ 50
北方 50
十三 50
单筒 50
博古 50
卡其@@ 50
印泥 50
原声 50
去屑 50
双星 50
发条 50
吉斯 50
名匠 50
后裔 50
哭 50
唇萃 50
喷火 50
外罩 50
奇奇@@ 50
奕@@ 50
婉@@ 50
媛@@ 50
嫁@@ 50
字母@@ 50
学会 50
定时器 50
将@@ 50
小型@@ 50
小宜 50
小楷 50
小鬼 50
尹 50
山包 50
岑 50
工程@@ 50
幔 50
幽@@ 50
底部 50
度数 50
廉@@ 50
开放式 50
异性 50
归 50
悍将 50
悠悠 50
成为 50
战机 50
扑满 50
打孔器 50
拉链式 50
拥抱 50
持续 50
探照灯 50
提琴 50
文化@@ 50
断裂 50
族@@ 50
日光 50
日月 50
木偶 50
本土 50
杀价│ 50
查@@ 50
格尔 50
桑拿 50
梭 50
检定 50
楷 50
楷书 50
残疾人 50
气泵 50
水剂 50
水货 50
油膏 50
油门 50
泫 50
洁肤 50
活口 50
流明 50
漂流 50
演 50
灌篮高手 50
烟灰 50
煎@@ 50
爵@@ 50
物箱 50
特价品 50
特惠@@ 50
犬用 50
独一无二 50
瑟 50
电脑@@ 50
町@@ 50
疤 50
白面 50
省钱 50
祢 50
禧 50
立体@@ 50
竞标 50
管理学 50
糖蛋白 50
紫) 50
紫红 50
纺车 50
终 50
结实 50
绚@@ 50
翻毛 50
老板桌 50
联网 50
肚兜 50
肥佬 50
胶布 50
脱妆 50
腊肠 50
腰椎 50
自信 50
船锚 50
荞麦 50
药师 50
蒜泥 50
蔓 50
蚀 50
表现 50
裕@@ 50
裤管 50
覆@@ 50
设@@ 50
误 50
课桌 50
财经 50
超q 50
路亚@@ 50
软膜 50
运动衣 50
追求 50
通过 50
郁@@ 50
部曲 50
配合 50
酒吧台 50
采购 50
金字塔 50
钉枪 50
钥@@ 50
锦鲤 50
镀钛 50
镶@@ 50
闲@@ 50
隔水 50
雀斑 50
霓@@ 50
露台 50
顾客 50
香水瓶 50
马铃薯 50
骨架 50
黑手 50
黑管 50
黑线 50
鼠尾草 50
(1@@ 49
(2018) 49
(25 49
(下单 49
(亮 49
(正@@ 49
(灰) 49
(白色 49
(适用 49
-41 49
-x@@ 49
0-3 49
005@@ 49
070@@ 49
10l 49
10吋 49
1300@@ 49
14吋 49
215 49
3" 49
321 49
335@@ 49
369 49
408 49
5.2 49
660 49
678@@ 49
988 49
9t 49
_k@@ 49
bir@@ 49
bit 49
bwfc 49
cc. 49
die@@ 49
dna 49
doom 49
dresseum 49
easy@@ 49
ero@@ 49
f30 49
formula 49
fox 49
g6@@ 49
gb/@@ 49
glc 49
ham@@ 49
harden 49
h扣 49
i6@@ 49
iope 49
ito 49
j&@@ 49
kaishi 49
kw 49
last 49
legend 49
lon 49
mdns 49
mis@@ 49
mm-@@ 49
moo@@ 49
nfc 49
olive 49
p3 49
peppa 49
plan@@ 49
planet 49
qc 49
rain@@ 49
rin 49
s-l 49
shar@@ 49
shorts 49
sofina 49
surface 49
t10@@ 49
t6 49
thermos膳 49
txt 49
uma 49
undercover 49
v60 49
versace@@ 49
visee 49
volvo 49
wf@@ 49
wild@@ 49
wip 49
y9@@ 49
ykk 49
zone 49
ᄉ@@ 49
ᅡ@@ 49
♤@@ 49
下载 49
业务 49
两侧 49
中间 49
五星 49
作文 49
修剪器 49
停车场 49
光临 49
公司级 49
切面 49
卢@@ 49
原始 49
参考书 49
发电机 49
古着 49
右手 49
叶片 49
告示牌 49
周刊 49
咬@@ 49
品. 49
品: 49
哥伦比亚 49
唇膏#@@ 49
嘉年华 49
圣母 49
垒球 49
堡@@ 49
大卫 49
女佣 49
婆 49
孔雀@@ 49
宿@@ 49
崁 49
差@@ 49
床帘 49
度度 49
座钟 49
开发票 49
归@@ 49
御用 49
必备@@ 49
志祥 49
忠 49
患 49
惯性 49
感恩 49
戈@@ 49
戒指@@ 49
房屋 49
推子 49
摇控 49
散步 49
新婚 49
新居 49
方盒 49
昆@@ 49
杯) 49
杵 49
松下 49
构造 49
检测仪 49
死角 49
毛绒绒 49
毫@@ 49
汐 49
油灯 49
油炸 49
油炸锅 49
沿 49
泡芙 49
洋葱 49
涛 49
淋浴器 49
港仔 49
满足 49
滨 49
潜行 49
灌@@ 49
火热 49
熔@@ 49
特定 49
狄@@ 49
猪排 49
现实 49
珉 49
球形 49
疮 49
疾风 49
痒 49
白领 49
百合@@ 49
皮夹克 49
皱纹 49
矶钓 49
破壁 49
祥@@ 49
票据 49
稻@@ 49
空专 49
笔刀 49
符号 49
米粒 49
精制 49
纪念日 49
组织 49
终局 49
绣球 49
缓@@ 49
翰林 49
肾 49
腻子 49
自我 49
艾斯 49
花香 49
茶托 49
药局 49
菲尔 49
薏仁 49
表器 49
裁缝 49
裆@@ 49
裤. 49
褐色 49
象牙 49
超紧 49
趣@@ 49
路线 49
转动 49
转向 49
辅料 49
远近 49
郁金香 49
金金 49
钩子 49
钵 49
铰链 49
锤子 49
防护@@ 49
阿拉丁 49
靠@@ 49
驻 49
骑士@@ 49
高点 49
鲜肉 49
鸦 49
(10@@ 48
(盒装) 48
-g@@ 48
.黑 48
0.2 48
106@@ 48
1150 48
12v24v 48
15*@@ 48
16) 48
18) 48
18w 48
193 48
1t 48
2.4a 48
2011年 48
229 48
24h@@ 48
281 48
2m 48
31-@@ 48
312@@ 48
319 48
32/@@ 48
328 48
338@@ 48
349 48
361 48
384 48
409 48
6/26 48
609 48
655 48
8*@@ 48
8a 48
90x@@ 48
955@@ 48
=@@ 48
ala 48
angel@@ 48
asos 48
ath@@ 48
box@@ 48
cbr@@ 48
cen@@ 48
cheng 48
cindy 48
colors 48
coo@@ 48
das 48
dora 48
durant 48
f3 48
fang 48
flash 48
fuji@@ 48
g5@@ 48
gam@@ 48
gazelle 48
i/@@ 48
ipsa 48
iq@@ 48
iroo 48
j1 48
jin@@ 48
kanebo 48
land@@ 48
legacy 48
let 48
lovfee 48
mur@@ 48
nar@@ 48
nd@@ 48
neonoe 48
olivia 48
onitsuka 48
peace 48
percent 48
qi@@ 48
ram@@ 48
room@@ 48
rouge 48
s'@@ 48
s+ 48
slp 48
spf50+ 48
str@@ 48
stu@@ 48
swiss 48
tn 48
tnf 48
tr70 48
united 48
ur8d] 48
u形 48
vie 48
whi@@ 48
x12 48
yeezy@@ 48
zenfone4 48
┋@@ 48
◄@@ 48
东海 48
也@@ 48
五合一 48
他人 48
信纸 48
倾心 48
六字真言 48
凝膜 48
凹槽 48
副@@ 48
加水 48
包内 48
十八 48
厨卫 48
发展 48
口臭 48
口钳 48
另类 48
名人 48
喊 48
国标 48
图样 48
在家 48
坚固 48
坜@@ 48
培林 48
奔腾 48
奥特 48
好友 48
字典 48
孟@@ 48
完结 48
宜兰 48
宝典 48
客场 48
导线 48
小东西 48
小仓 48
小毛 48
小气 48
席@@ 48
引擎盖 48
弱 48
怀 48
悬疑 48
手术 48
手枪钻 48
打孔机 48
打蛋 48
护板 48
抽水机 48
拉拉@@ 48
描 48
援@@ 48
搜@@ 48
摆放 48
攀爬 48
敷@@ 48
晕 48
朱砂 48
机票 48
柏林 48
桌脚 48
椎@@ 48
橄榄绿 48
殿堂 48
水培 48
水质 48
永不 48
沫@@ 48
油光 48
涂@@ 48
润发 48
淑 48
淘气 48
湾@@ 48
溯溪 48
潜水表 48
火线 48
灵动 48
热缩 48
爽肤 48
牛牛 48
玫红 48
直线 48
砲@@ 48
磁吸式 48
祛斑 48
私藏 48
秋裤 48
称重 48
税) 48
稳固 48
笑笑 48
第2 48
策略 48
绫@@ 48
职@@ 48
职业装 48
肩颈 48
脚器 48
脚踏式 48
自家 48
舔@@ 48
色粉 48
芋 48
花型 48
芷@@ 48
莜莜 48
虚@@ 48
蜜妮 48
行器 48
衣. 48
裂缝 48
襦裙 48
西西 48
记号 48
论@@ 48
询@@ 48
谱架 48
豹@@ 48
车间 48
边防 48
送人 48
选择) 48
速效 48
道家 48
邪@@ 48
配备 48
配戴 48
野狼 48
錬@@ 48
钢印 48
钻孔 48
铜板 48
阿里山 48
陪@@ 48
露乳 48
青柠 48
颜乳 48
风刺 48
风干 48
香吉士 48
鲇鱼 48
鲜食 48
鸵鸟 48
麂皮绒 48
(80 47
(9@@ 47
(gs) 47
(保证 47
(陈 47
-07 47
-15 47
-38 47
/三 47
16cm 47
2002 47
2019.@@ 47
218@@ 47
248 47
266 47
271 47
275 47
3-0@@ 47
3.5@@ 47
309 47
3780@@ 47
41-@@ 47
415@@ 47
434@@ 47
4434@@ 47
6-8 47
640 47
670@@ 47
675@@ 47
70/@@ 47
709 47
780 47
7mm 47
848@@ 47
9789865@@ 47
999@@ 47
_q@@ 47
alice@@ 47
amazing 47
ar18@@ 47
are@@ 47
ashlee's 47
a赏 47
bella 47
d. 47
d7@@ 47
din@@ 47
dior迪奥 47
d赏 47
e5@@ 47
epi 47
final 47
fuji 47
g+@@ 47
g2 47
gri@@ 47
heritage 47
hsi@@ 47
icash2.0 47
icon 47
ini 47
intex 47
let@@ 47
lia 47
lm@@ 47
lou@@ 47
mavic 47
ml*2 47
ml574 47
n6@@ 47
oblique 47
origins 47
papa 47
people 47
platinum 47
ple 47
point 47
puku 47
real@@ 47
rex 47
rou@@ 47
rpm 47
ruby 47
sc-@@ 47
se/@@ 47
sg 47
shin 47
storm 47
tape 47
tom@@ 47
totoro 47
u12 47
walker 47
yan@@ 47
ze520 47
ze554 47
zeus 47
❥ 47
て@@ 47
み@@ 47
レ@@ 47
上下床 47
下杀★ 47
不再 47
东北 47
主板 47
久坐 47
交易 47
产业 47
亭@@ 47
仰@@ 47
份@@ 47
便条 47
假发 47
光碟) 47
免邮 47
净肤 47
凉拖鞋 47
切割器 47
刷) 47
力器 47
加绒@@ 47
半高 47
双筒 47
口服 47
可变 47
吊车 47
名画 47
后置 47
哈密瓜 47
哈特 47
哲学 47
士顿 47
壹体 47
外星人 47
外送 47
姬@@ 47
娃娃@@ 47
婕 47
字幕 47
安抚巾 47
宋@@ 47
宝丽来 47
审@@ 47
家生 47
小头 47
小球 47
小米米家 47
属@@ 47
工具袋 47
康宁 47
彩带 47
德曼 47
感光 47
手脚 47
托德斯 47
护发膜 47
披@@ 47
拉长石 47
拜拜 47
推杆 47
搏击 47
操@@ 47
收款 47
文版) 47
斌 47
旅行用 47
旅馆 47
旷野 47
明亮 47
春酒 47
札@@ 47
果绿 47
柳丁 47
桌灯 47
榜 47
水头 47
水温 47
水溶 47
洪@@ 47
消磁 47
淇淋 47
滤清器 47
漏勺 47
炒菜锅 47
焊工 47
焖烧 47
爽身粉 47
牡蛎 47
狂野 47
玻璃球 47
珪 47
生化 47
申@@ 47
癌 47
白星 47
白花 47
看板 47
矿泉水 47
积雪草 47
稀少 47
竞赛 47
箔 47
纯金 47
绮@@ 47
羞@@ 47
聚光 47
胶膜 47
胸围 47
胺@@ 47
脖式 47
自动@@ 47
艾玛 47
芮&美 47
苏格兰 47
荒@@ 47
莱特 47
萤@@ 47
落叶 47
虹@@ 47
螺旋@@ 47
补色 47
装机 47
视野 47
认 47
贪@@ 47
贱 47
贺卡 47
车锁 47
迎 47
送客 47
选手 47
郊游 47
配电 47
重要 47
金莎 47
针孔 47
铅@@ 47
银弹 47
错@@ 47
面机 47
面积 47
颊@@ 47
风筝 47
魂@@ 47
鱼池 47
鸽子 47
麻辣烫 47
#款 46
#特价 46
(d@@ 46
(二@@ 46
(未 46
(深@@ 46
(爱 46
(购 46
(银 46
-t@@ 46
/// 46
0.38 46
1500@@ 46
158@@ 46
18*@@ 46
180g 46
1st 46
224@@ 46
243 46
278@@ 46
305@@ 46
308@@ 46
33-@@ 46
334 46
35-41 46
35g 46
367 46
40cm 46
5547@@ 46
555@@ 46
6-001 46
6. 46
617@@ 46
75g 46
9789869@@ 46
a/ 46
aa3@@ 46
aka 46
arden 46
ath-@@ 46
b00@@ 46
bandai@@ 46
batman 46
brembo 46
brush 46
bu 46
cab@@ 46
cal 46
campus 46
cm- 46
coin 46
dance 46
dionysus 46
diva's 46
dv 46
ec 46
edc 46
edifice 46
fast 46
fendi@@ 46
flyknit@@ 46
h7@@ 46
hal@@ 46
hei@@ 46
hola 46
hop 46
iphone6/6s 46
ity 46
jt 46
kc@@ 46
kiki@@ 46
kikilala 46
kiwi 46
ks@@ 46
kyosho 46
mate10 46
mbs 46
med 46
mfi 46
moonstar 46
mq@@ 46
mw 46
nc@@ 46
pa+++@@ 46
park 46
ping 46
ple@@ 46
pooh 46
prada/ 46
ps4@@ 46
qasa 46
rg 46
rich 46
rilakkuma拉拉 46
sakura 46
tonymoly 46
t连 46
unt 46
vans万 46
wk@@ 46
wor@@ 46
x21 46
x]@@ 46
xl码 46
xv 46
xz2 46
zoe 46
★现货 46
❖@@ 46
❧@@ 46
ふ@@ 46
カ 46
丁香 46
下册 46
专场 46
丞@@ 46
丶 46
习 46
乳牛 46
二手) 46
亮亮 46
介意 46
伊丽莎白 46
体脂 46
佳品 46
便宜@@ 46
保温壶 46
光头 46
光控 46
公民 46
养颜 46
内部 46
冰柜 46
凝冻 46
切换 46
剥@@ 46
卡套 46
发根 46
发泄 46
只) 46
君子 46
吸睛 46
咖啡因 46
品木 46
哆@@ 46
哩 46
器械 46
回礼 46
埠 46
墨西哥 46
大v 46
大逃杀 46
大野 46
奇兵 46
奢侈品 46
女婴 46
女帽 46
女段 46
姊姊 46
子长 46
宝格 46
容易 46
小卡@@ 46
小鹿斑比 46
尺寸@@ 46
屁屁@@ 46
屯 46
巷@@ 46
干裂 46
得意 46
怀孕 46
恤@@ 46
感应器 46
才@@ 46
折叠凳 46
拉长 46
挖掘机 46
捣蒜 46
接触 46
揪 46
搜寻 46
教科书 46
方程式 46
时报 46
晋 46
晨光 46
月份 46
服贴 46
束发带 46
板架 46
标) 46
框) 46
梭织 46
次) 46
欢喜 46
氧@@ 46
泄 46
泡汤 46
浩@@ 46
消费 46
湿气 46
滋味 46
滑地 46
澡盆 46
灾 46
热狗 46
焗@@ 46
爷爷 46
牧羊@@ 46
物袋 46
特技 46
玥 46
用电 46
百宝箱 46
短袖@@ 46
硼@@ 46
磨刀 46
禁止 46
秀气 46
穿越 46
突@@ 46
策 46
类似 46
素雅 46
纶 46
纽@@ 46
续@@ 46
缤@@ 46
羊毛衫 46
翘板 46
背负式 46
膨胀 46
膳@@ 46
航模 46
艾米粒 46
葡萄柚 46
薄膜 46
行星 46
衣夹 46
裆 46
西雅图 46
调味品 46
贴心 46
贼 46
踪 46
车箱 46
边毯 46
连接器 46
醇@@ 46
铁灰色 46
铸 46
长毛 46
门门 46
队服 46
阴影 46
阴毛 46
附送 46
露得清 46
韩超 46
飞盘 46
魔兽 46
魔神 46
鳕鱼 46
麻吉@@ 46
黎@@ 46
ｓ@@ 46
"[@@ 45
(150 45
(台中 45
-22 45
-w@@ 45
0.8 45
1-001 45
1.25 45
1080 45
11/11 45
139@@ 45
14) 45
168@@ 45
17) 45
196 45
2. 45
2022@@ 45
3.0@@ 45
3.3 45
3200 45
362 45
368 45
3p 45
460@@ 45
4ml 45
570 45
60/@@ 45
777 45
960@@ 45
arduino 45
arts 45
be@rbrick 45
blade 45
bred 45
buy@@ 45
bz@@ 45
b赏 45
c2 45
cca 45
cube 45
cut 45
d5@@ 45
dark 45
die 45
dp@@ 45
e) 45
egg 45
elsa 45
emilie 45
epsom 45
evo@@ 45
faber-castell 45
fendi/ 45
gla@@ 45
gogo@@ 45
gti 45
gunze 45
gym 45
heat 45
hf 45
hl 45
hoo@@ 45
i8@@ 45
ignite 45
inter@@ 45
iphonexr 45
it's 45
ite@@ 45
juice 45
jun 45
kf@@ 45
lotto 45
m-5xl 45
m435@@ 45
master@@ 45
mazda@@ 45
mesh 45
nerf 45
nin@@ 45
odyssey 45
ola 45
oz/@@ 45
pack@@ 45
panerai沛纳海 45
paul& 45
pos@@ 45
r11@@ 45
rabbit 45
rich@@ 45
s/m/@@ 45
say 45
simba 45
socks 45
strap 45
t10 45
td 45
thom 45
tiida 45
t恤百 45
use 45
w204 45
westwood 45
x_plr 45
your@@ 45
yun 45
zenpad 45
zmi 45
¥@@ 45
┃@@ 45
▷蔡 45
▸@@ 45
✦ 45
丈 45
专供 45
专注 45
串串 45
亦@@ 45
人造@@ 45
仓库@@ 45
代谢 45
仪表板 45
企管 45
体积 45
侬侬 45
保留) 45
俱 45
假期 45
偏远 45
偷窥 45
全家福 45
冬日 45
冲击钻 45
凛@@ 45
分体式 45
利率 45
制作@@ 45
功放 45
务@@ 45
古玩 45
古驰 45
只能 45
各类 45
吸铁石 45
吸音 45
哈哈 45
因为 45
均@@ 45
垫圈 45
壳) 45
外衣 45
大沿 45
大米 45
大马士革 45
天蓝色 45
头牌 45
嫣 45
孵@@ 45
宝贝@@ 45
实木@@ 45
家◁ 45
宸 45
尊@@ 45
小丸 45
小户 45
屑@@ 45
山羊 45
师大 45
开放 45
彩妆@@ 45
性价比 45
愈小 45
手工艺品 45
抗氧化 45
护罩 45
报警 45
拧 45
拳击手套 45
挖土机 45
收银机 45
斑点 45
是@@ 45
柑@@ 45
格林 45
棋@@ 45
模块 45
水盆 45
沙盘 45
洗手乳 45
清洁@@ 45
漂移 45
演讲台 45
漫游 45
牡丹花 45
物) 45
玧其 45
玮@@ 45
球星 45
甘草 45
画本 45
白纱 45
白起 45
皿 45
目前 45
相框 45
睫 45
磨刀石 45
示@@ 45
福斯 45
科克兰 45
稻 45
稿 45
立即 45
等) 45
答@@ 45
米缸 45
粉红@@ 45
纸质 45
绽放 45
绿豆 45
缇嘉 45
聚财 45
肌底 45
肝 45
色/@@ 45
苔藓 45
葵@@ 45
装甲 45
褐@@ 45
观光 45
解题 45
誉 45
议价: 45
负重 45
遥@@ 45
金光 45
金泰亨 45
鑚 45
铁道 45
镜箱 45
闪烁 45
阻 45
隐扣 45
鞣@@ 45
韦 45
领针 45
飙@@ 45
饰) 45
骑士队 45
高频 45
魔芋 45
鲔鱼 45
黄) 45
黄绿 45
黏胶 45
#1 44
(现 44
(米 44
(黄) 44
-08 44
/g@@ 44
/m@@ 44
0.6 44
010 44
1-1 44
1001 44
137@@ 44
14.5 44
160g 44
165@@ 44
16吋 44
194 44
1x 44
20) 44
217 44
221 44
2400@@ 44
273 44
288 44
2d 44
3-100 44
32-@@ 44
332 44
338 44
356 44
38-@@ 44
4.2 44
429@@ 44
4e 44
4g/@@ 44
4xl 44
525@@ 44
6.2 44
6.6 44
607 44
60x 44
799 44
803 44
8x@@ 44
90/@@ 44
907 44
a75s 44
aid 44
ale@@ 44
ao29@@ 44
ba-@@ 44
balance新百 44
bebe@@ 44
brown@@ 44
bun@@ 44
c6 44
cd+@@ 44
city@@ 44
clear 44
cp9@@ 44
dam@@ 44
dm-@@ 44
dor@@ 44
eas@@ 44
eb@@ 44
ek 44
elantra 44
elizabeth 44
energy 44
ess 44
fifty 44
fy@@ 44
gol@@ 44
hd-@@ 44
hl@@ 44
i7-@@ 44
joyride 44
k3@@ 44
kur@@ 44
lou 44
marjorie 44
medium 44
monkey 44
p20@@ 44
pa++ 44
peach 44
performance 44
pliage 44
shopping 44
sof@@ 44
stay 44
tas 44
tenga 44
tho@@ 44
ultimate 44
ure 44
v6 44
vu@@ 44
why&1/2 44
winflo 44
yves 44
ze550 44
∣ 44
◢ 44
ら@@ 44
シ 44
一对一 44
丢@@ 44
书夹 44
些 44
人人 44
人民 44
仙鹤 44
代理@@ 44
倾城 44
光源 44
克里里 44
兔兔@@ 44
全长 44
出生 44
凿 44
刮刮 44
剁 44
办@@ 44
功能@@ 44
勃肯 44
包户 44
化机 44
匣 44
午安 44
南方 44
卡子 44
卡尺 44
卷心 44
原住民 44
去毛 44
取) 44
变化 44
变成 44
变速箱 44
叠@@ 44
口琴 44
古堡 44
台下 44
咕叽 44
品名 44
哪 44
围嘴 44
地铁 44
均衡 44
壹字 44
处理器 44
天然@@ 44
夹心饼干 44
妤@@ 44
妮子 44
孝@@ 44
安装) 44
实际 44
宥@@ 44
家具城 44
小和尚 44
小时候 44
小毛巾 44
小豆 44
小香@@ 44
属于 44
岁) 44
工坊@@ 44
巫师 44
平板电脑 44
引体向上 44
彩印 44
徒 44
怀@@ 44
愈@@ 44
感觉 44
成形 44
房门 44
手串 44
批发@@ 44
抽水器 44
拆售 44
择@@ 44
挎@@ 44
挑色 44
挡泥板 44
排风扇 44
文昌 44
斐 44
方圆 44
旅程 44
旋钮 44
日系 44
晨曦 44
替代 44
月球 44
有弹性 44
服务员 44
木椅 44
本月 44
杂货) 44
条形 44
柔肤 44
柚 44
标本 44
棉纱 44
樟@@ 44
模特儿 44
每天 44
永和 44
油脂 44
洛克@@ 44
浪漫@@ 44
湖南 44
滢@@ 44
灭菌 44
烛@@ 44
烟酰胺 44
熨衣 44
熨衣板 44
猎 44
画布 44
登山杖 44
矿物质 44
筷@@ 44
篮球架 44
粮@@ 44
糯米 44
终结 44
绕@@ 44
美金 44
脱落 44
腹@@ 44
臂力 44
舌头 44
舒柔 44
色块 44
艾莉丝 44
芦洲 44
茶艺 44
莎莎 44
薯@@ 44
蜂箱 44
衣舖 44
角钢 44
词@@ 44
课桌椅 44
贝吉@@ 44
贝蒂 44
财运 44
足贴 44
趴@@ 44
跨@@ 44
软膏 44
软骨 44
过夜 44
迷你@@ 44
送给 44
速器 44
邮政 44
重点 44
野马 44
金沙 44
金门 44
金龙 44
铜线 44
长耳 44
防护网 44
陪 44
雅痞 44
鞋) 44
飞沫 44
香氛@@ 44
魔女宅急便 44
鱼儿 44
黑芝麻 44
黛安芬 44
ｔ 44
"#@@ 43
#3 43
$新品 43
&m 43
(双@@ 43
(女 43
(绿 43
(绿色) 43
---- 43
-28 43
/s 43
0.0 43
1-100 43
1c 43
22-@@ 43
2400 43
259 43
2p 43
3.2 43
30日 43
318 43
369@@ 43
410@@ 43
498 43
628 43
707 43
709@@ 43
875@@ 43
928 43
991 43
@秒 43
_j@@ 43
aero 43
af/hco) 43
aki 43
al-@@ 43
alex 43
astone 43
axis 43
boots 43
bounce 43
brick 43
brita 43
camera 43
cha 43
chimei 43
comp@@ 43
constance 43
couture 43
days 43
dsq 43
evisu 43
excelsior 43
exo@@ 43
fen 43
friend 43
gh 43
gildan 43
gle@@ 43
guard 43
hao@@ 43
herschel 43
hip 43
hugo 43
instax 43
iphone6plus 43
jun@@ 43
kingston 43
kors/@@ 43
lai@@ 43
lamigo 43
lanvin 43
les@@ 43
limited 43
lip@@ 43
mah@@ 43
mai@@ 43
mart 43
mate20 43
mcq 43
ment 43
mercedes 43
ml/100 43
mono 43
monsta 43
mv 43
mx 43
m~@@ 43
nina 43
nr-@@ 43
oa 43
orange 43
pand@@ 43
pf 43
pick 43
port 43
rd 43
reading 43
ris 43
roxy 43
sau@@ 43
shell 43
shot 43
show@@ 43
sk0@@ 43
swingman 43
t8 43
tool 43
uk@@ 43
uv400 43
var@@ 43
vomero 43
vy 43
wp@@ 43
wt@@ 43
wwe 43
y7@@ 43
yn@@ 43
zenfone3 43
{{ 43
ᄀ@@ 43
◣@@ 43
☚ 43
♚\ 43
♚北美 43
マ@@ 43
ミ@@ 43
一壶 43
七号 43
上学 43
下杀&@@ 43
中低 43
仓储 43
任务 43
伴@@ 43
佩奇 43
供应) 43
侦@@ 43
修护@@ 43
停车牌 43
光华 43
克洛伊 43
全书 43
全日 43
公式 43
公益 43
冢虎 43
凉感@@ 43
几何图形 43
分解 43
切菜板 43
刮痕 43
动漫@@ 43
北美 43
卡文克莱 43
印第安 43
双杠 43
发蜡 43
口味) 43
口袋@@ 43
古着@@ 43
可可@@ 43
可能 43
台东 43
吉他@@ 43
名片盒 43
呀 43
告知 43
员@@ 43
品# 43
品茗杯 43
唇笔 43
嘎@@ 43
嘻@@ 43
四分 43
回来 43
国棉 43
地缚 43
域@@ 43
壸 43
夏凉 43
多样 43
大哥大 43
大幅 43
大鱼 43
大麦 43
妇幼 43
娜赫拉 43
存放 43
学生装 43
宝儿 43
封条 43
小天使 43
小票 43
布拉@@ 43
彼@@ 43
念佛 43
恒久 43
恨 43
想想 43
扬声器 43
扭@@ 43
披巾 43
拌面 43
拳套 43
搬运车 43
攀岩 43
收纳筒 43
收购 43
新色 43
有间 43
机上 43
杓 43
查理布朗 43
梓@@ 43
椰子油 43
橱@@ 43
毛巾@@ 43
毛茸茸 43
氛 43
氧气 43
汤姆福特 43
沙拉@@ 43
治疗 43
泉水 43
泪@@ 43
流行色 43
测试仪 43
游标卡尺 43
溜@@ 43
澎@@ 43
炉子 43
炮@@ 43
烘烤 43
烟嘴 43
烯 43
爱马仕@@ 43
状@@ 43
狸 43
猩猩 43
猫薄荷 43
珈@@ 43
珍爱 43
珠帘 43
甲壳 43
电笔 43
白米 43
矶@@ 43
秋冬 43
空气@@ 43
窗花 43
纾压 43
经书 43
网咖 43
置地 43
美版 43
肩部 43
胎盘 43
胭脂 43
膜) 43
自卫 43
自取) 43
舒丹 43
色笔 43
花仙子 43
蒲 43
薄饼 43
藕色 43
蝉 43
衣帽钩 43
裸睡 43
质) 43
超微 43
路卡 43
车尾 43
软q 43
辰@@ 43
这@@ 43
通通 43
逸@@ 43
逻辑 43
鉴@@ 43
钉子 43
钢弹 43
铜管 43
铭@@ 43
银行@@ 43
键盘膜 43
门板 43
防噪音 43
陌@@ 43
随心 43
青花 43
青铜 43
靴男 43
顺畅 43
预防 43
鹏 43
麦芽 43
黏贴@@ 43
龄@@ 43
"可 42
#7@@ 42
#8@@ 42
#可 42
(12@@ 42
(90@@ 42
(出清 42
(勿 42
(女@@ 42
(正版 42
(深蓝) 42
.9 42
/nike 42
1+2 42
10% 42
12.3 42
13.@@ 42
138@@ 42
149@@ 42
1700 42
2.6 42
214 42
215@@ 42
228@@ 42
285 42
29) 42
3.7v 42
311@@ 42
355@@ 42
373 42
375 42
45/@@ 42
450g 42
5.7 42
535@@ 42
685@@ 42
7/7@@ 42
718 42
80/@@ 42
839@@ 42
9-001 42
908@@ 42
9g 42
ans@@ 42
any@@ 42
apollo 42
armani/ 42
ata 42
avene 42
avi@@ 42
bai@@ 42
bank 42
block 42
b群 42
chin@@ 42
ching 42
cli@@ 42
cob 42
coleman 42
cou@@ 42
c纹 42
d+@@ 42
desire@@ 42
discovery 42
e. 42
e9 42
edwin 42
elf 42
elmo 42
fate/@@ 42
fine 42
forever21 42
goose 42
hat 42
hoda 42
hud 42
if@@ 42
ih 42
john@@ 42
k50@@ 42
lee@@ 42
lv-@@ 42
mall 42
mate30 42
melissa 42
ml. 42
mom 42
nasa 42
now 42
ot 42
pa++++ 42
pf@@ 42
pul@@ 42
ray@@ 42
redmi 42
rucksack 42
s&@@ 42
sneaker@@ 42
soldier 42
sq 42
stephen 42
suit 42
supreme@@ 42
sur@@ 42
tal@@ 42
th-@@ 42
tiguan 42
tiny 42
tm-@@ 42
tu 42
ue 42
v1 42
v11 42
voyage 42
w0@@ 42
w8 42
watch@@ 42
water@@ 42
what 42
wil@@ 42
wmf 42
wol@@ 42
wonder 42
xl-@@ 42
xmart 42
x型 42
ysl@@ 42
yx042813 42
z00 42
zen 42
~~ 42
う@@ 42
る@@ 42
レ 42
三孔 42
中青年 42
之一 42
书_ 42
乳牙 42
二手车 42
仕皮带 42
代客 42
侍@@ 42
侣@@ 42
健身器 42
储物 42
克力立牌 42
养蜂 42
军用 42
判 42
加重 42
化石 42
占@@ 42
卡斯@@ 42
受损 42
可梦 42
可混 42
可穿) 42
吉他弦 42
吊架 42
周杰 42
咨@@ 42
咩咩 42
哨 42
哺乳@@ 42
器皿 42
坏@@ 42
埋 42
处女 42
外文 42
大和 42
天王 42
头短 42
奥斯@@ 42
妇@@ 42
安安 42
安然 42
宪 42
害@@ 42
小天鹅 42
小羊皮 42
小钢炮 42
小龙 42
屌@@ 42
干货 42
康复 42
廉 42
异端 42
弹力@@ 42
彩蛋 42
怀表 42
截@@ 42
手表@@ 42
打光 42
拉筋 42
接收 42
描金 42
揹带 42
救生衣 42
敢 42
斋@@ 42
新式 42
暖炉 42
木箱 42
机工 42
极地 42
查理 42
桐@@ 42
汉字 42
油) 42
泛@@ 42
涂色 42
清夜 42
渊 42
湿控 42
滋补 42
烟管 42
照灯 42
片/@@ 42
猪皮 42
猫猫 42
猿 42
玩具狗 42
环卫 42
瑞斯 42
瑰@@ 42
生鲜 42
申 42
电吹风 42
男t恤 42
画像 42
畔 42
白条 42
相关 42
瞳@@ 42
码器 42
砖@@ 42
破裂 42
磨砂膏 42
祛@@ 42
神脑 42
第八 42
篆刻 42
米线 42
粉底霜 42
粉灰 42
索尼@@ 42
纤长 42
纯净水 42
综@@ 42
绿色) 42
老花眼镜 42
肚@@ 42
肛门 42
肤露 42
胶片 42
胸肌 42
自强 42
色调 42
芊 42
芋@@ 42
茶室 42
获 42
菱@@ 42
萨克斯 42
蓝天 42
薄荷@@ 42
蚕 42
蚝@@ 42
补给 42
衬垫 42
裤.@@ 42
褪色 42
西柚 42
贡缎 42
跟着 42
车型 42
车组 42
转生 42
轮椅 42
达人@@ 42
运☆ 42
连线@@ 42
适配 42
道会 42
那些 42
里面 42
金币 42
铁路 42
锹 42
问@@ 42
闷 42
阿曼尼 42
院@@ 42
鞋凉 42
音符 42
预定) 42
颈圈 42
频道 42
颜霜 42
饲@@ 42
饺子@@ 42
香粉 42
驼@@ 42
骷颅 42
高画质 42
高飞 42
黑豹 42
ｄ@@ 42
"乐@@ 41
#下杀# 41
($@@ 41
(21@@ 41
(40 41
(三@@ 41
(下 41
(原@@ 41
(宅 41
(手 41
(美国 41
*150 41
-1a 41
........ 41
/b@@ 41
0002 41
080@@ 41
1/12 41
129@@ 41
14k金 41
177 41
179 41
18mm 41
2" 41
22/@@ 41
329 41
3x@@ 41
4+@@ 41
4-0@@ 41
407 41
424@@ 41
46-@@ 41
48-@@ 41
5.8 41
610@@ 41
628@@ 41
8-12 41
818@@ 41
920@@ 41
_o@@ 41
a" 41
anello 41
atomy 41
b2 41
b7@@ 41
banpresto 41
bhm 41
c&@@ 41
cc-@@ 41
cell 41
daisy 41
damier 41
doo@@ 41
dou 41
down 41
exchange 41
fantasy 41
flor@@ 41
force@@ 41
france 41
frozen 41
gro@@ 41
her 41
hw@@ 41
ins百 41
jl 41
kid@@ 41
kpu 41
lipstick 41
lock@@ 41
mar 41
mid@@ 41
mini2 41
miyuki 41
moire 41
mont@@ 41
montaigne 41
mu 41
mul@@ 41
ng@@ 41
nik@@ 41
ozweego 41
pac@@ 41
peak 41
peter 41
pilot 41
pra@@ 41
pro-@@ 41
pur@@ 41
rayban雷朋 41
rf 41
rh@@ 41
ripndip 41
rt 41
s80@@ 41
sand@@ 41
sigma 41
solution 41
syn@@ 41
sz@@ 41
t-arts 41
toto 41
tra 41
two@@ 41
vuitton/ 41
williams 41
y" 41
yuri 41
z5@@ 41
๑@@ 41
ᅮ@@ 41
╯ 41
★限时 41
♕ 41
ひ@@ 41
ロ 41
七星 41
三峡 41
三段式 41
三环 41
下床 41
不良 41
两瓶 41
之钥 41
书屋 41
乳清蛋白 41
享受 41
亲自 41
人力 41
伏@@ 41
会议室 41
低脂 41
佐助 41
修眉 41
假人 41
儿时 41
公职 41
再见 41
分割 41
制版 41
加速 41
化剂 41
十字@@ 41
单张 41
南洋 41
博文 41
卷) 41
压力锅 41
压缩机 41
双开 41
变形虫 41
吉/nike 41
吊环 41
同轴 41
咕咕 41
喇叭@@ 41
固定式 41
塞斯 41
增大 41
士林 41
大底 41
天花板 41
娃@@ 41
子. 41
寒流 41
封膜 41
尊贵 41
小区 41
小提 41
小文 41
小白兔 41
小苍兰 41
屋☆ 41
巅峰 41
年底 41
底乳 41
当季 41
意见箱 41
成本 41
成语 41
打草 41
扰@@ 41
批发) 41
抑@@ 41
护腿 41
抬头 41
抵@@ 41
挂锁 41
捂 41
掌上型 41
攻击 41
教师节 41
新潮 41
旱冰 41
暖气 41
月牙 41
有缘 41
机械@@ 41
材质: 41
杠铃 41
柔滑 41
柯瑞 41
标记 41
棉质 41
款款 41
水中 41
水解 41
汀@@ 41
沥@@ 41
涂装 41
消防@@ 41
淳@@ 41
炎@@ 41
热销) 41
烹饪 41
煌 41
燕麦片 41
爬梯 41
爱玛仕 41
牌手 41
牙器 41
物美 41
狼牙 41
献 41
玉兰 41
玉米@@ 41
玫瑰色 41
环游 41
珍珠粉 41
生酮 41
用车 41
电子@@ 41
电热@@ 41
男篮 41
白菜 41
白蜡 41
百科@@ 41
盲 41
矽灵 41
码: 41
碟@@ 41
神灯 41
童裤 41
笔电 41
笔笔 41
管理@@ 41
米粉 41
米茄@@ 41
紫藤 41
红萝卜 41
纪念册 41
细条纹 41
绿化 41
肠@@ 41
肤霜 41
脚印 41
脸型 41
芥@@ 41
草皮 41
药材 41
药箱 41
菲拉格慕 41
落地窗 41
葡萄干 41
蒂芬@@ 41
蕙@@ 41
蛤蟆 41
蟾蜍 41
行) 41
裂纹 41
视听 41
详解 41
谣 41
质地 41
资料架 41
赖@@ 41
蹦@@ 41
逊 41
遮风 41
酷酷 41
金银花 41
铁片 41
镯子 41
附小 41
限量@@ 41
霏慕 41
霓净思 41
青鸟 41
韩东 41
韶涵 41
马克@@ 41
骏@@ 41
高容量 41
高蛋白 41
鸢@@ 41
鸭舌 41
龙眼 41
ｘ@@ 41
#秒 40
(三色 40
(中文版) 40
(售 40
(第二 40
-09 40
-36 40
.8 40
1.00 40
1101 40
12-18m 40
120/@@ 40
13.5 40
179@@ 40
1900 40
2004 40
2006年 40
2010年 40
25.5 40
261 40
2kg 40
304@@ 40
350ml 40
353 40
36--44 40
364 40
388 40
398@@ 40
4000@@ 40
411@@ 40
45*@@ 40
475@@ 40
4x@@ 40
55-@@ 40
5v@@ 40
728 40
790@@ 40
810@@ 40
9789866@@ 40
acg 40
aj12 40
alano 40
amiibo 40
ar-@@ 40
ar59@@ 40
asa 40
balmain 40
bbq 40
bkk 40
blo@@ 40
burst 40
bus 40
butterfly 40
cd+dvd 40
choker 40
cicily 40
cri@@ 40
crossbody 40
cru@@ 40
d& 40
d&@@ 40
d- 40
d/ 40
dio@@ 40
dual 40
ei 40
ess@@ 40
eyeshadow 40
fiesta 40
fortis 40
g1@@ 40
gin@@ 40
gli@@ 40
gx2 40
hepa 40
hh@@ 40
hsu@@ 40
i7plus 40
i9@@ 40
ik@@ 40
infinity 40
integrate 40
jen@@ 40
kan 40
karl 40
kiehl's@@ 40
l'oreal 40
lbj@@ 40
led灯 40
liquid 40
ltd 40
mark@@ 40
mc-@@ 40
moshi 40
nano@@ 40
nes 40
note4x 40
nuk 40
ocean 40
osmo 40
pencil 40
ppy 40
premi@@ 40
rin@@ 40
road 40
ros 40
rt@@ 40
sheturwx881 40
smart@@ 40
stri@@ 40
sub@@ 40
sulwhasoo 40
tag 40
tan 40
ted 40
toms 40
t韩 40
ub 40
uc 40
under@@ 40
us9 40
vjr 40
v纹 40
y' 40
ღ唯一 40
✰@@ 40
万用表 40
三叶 40
不断 40
且 40
中原 40
丽丝 40
乒乓@@ 40
乖乖 40
五彩 40
亚曼尼@@ 40
代) 40
以色列 40
仪式 40
侦测 40
俐 40
倒翁 40
健身车 40
充头 40
光碟@@ 40
克里@@ 40
公交 40
兼 40
删减 40
刨冰 40
削皮器 40
剩@@ 40
卡牌 40
卿 40
厨柜 40
双倍 40
双龙 40
发发 40
发电 40
发货@@ 40
可) 40
台阶 40
吋笔 40
唇部 40
喜爱 40
国中 40
圈) 40
增量 40
大声 40
奥利@@ 40
孩童 40
完美@@ 40
宰 40
寓@@ 40
小帽 40
小松 40
小火 40
山本@@ 40
左旋 40
巫婆 40
庆典 40
店☆ 40
开水 40
弹片 40
彻 40
心跳 40
愉@@ 40
慰器 40
扎染 40
抠 40
护甲 40
拉环 40
拉货 40
排骨 40
推荐@@ 40
摩天 40
擕式 40
敏感@@ 40
敲@@ 40
新机 40
日子 40
日晒 40
星期@@ 40
本式 40
本草 40
机座 40
染色剂 40
栈@@ 40
桂格 40
棱@@ 40
款/@@ 40
正牌 40
步摇 40
武海 40
浆@@ 40
清洁工具 40
游泳裤 40
游记 40
湿乳 40
湿洗 40
湿润 40
澄 40
炖 40
烂@@ 40
烊千玺 40
烟雾 40
焙 40
煲汤 40
爆款# 40
爬藤 40
父 40
版型 40
物件 40
独家❀ 40
独立筒 40
狮子@@ 40
王牌 40
玟 40
玩具枪 40
玩物 40
现货#@@ 40
现货✪ 40
瓣 40
瓣@@ 40
甜筒 40
电子钟 40
电弧 40
男中 40
疏@@ 40
百货☆ 40
真心 40
石磨 40
硕@@ 40
磨砂玻璃 40
科技@@ 40
章) 40
童床 40
籐@@ 40
红款 40
约翰 40
纵@@ 40
纸筒 40
缠@@ 40
美洲 40
老姜 40
脱水 40
脸盆架 40
色版 40
芝麻@@ 40
芬迪@@ 40
芭乐@@ 40
花椒 40
花灯 40
花蜜 40
苗@@ 40
范儿 40
荡 40
蒂蒂 40
蕉@@ 40
补习 40
袋鼯 40
裤潮 40
裴 40
西华 40
解锁 40
识@@ 40
详@@ 40
详细 40
调色盘 40
貂@@ 40
车票 40
辣椒酱 40
还愿 40
迷彩@@ 40
避 40
酋@@ 40
酥油 40
酥油灯 40
野蛮 40
针) 40
铜扣 40
铝膜 40
铱 40
铸@@ 40
铺) 40
防盗门 40
防窥 40
陀@@ 40
陆龟 40
雨具 40
霍@@ 40
青山 40
靠椅 40
面巾 40
鞋# 40
鞋潮 40
鞭@@ 40
领花 40
饰边 40
饲养 40
馆★ 40
香吉士@@ 40
马靴 40
驾驶证 40
驿站 40
鬼怪 40
鱼片 40
麦田 40
黑花 40
"※ 39
(1000 39
(32@@ 39
(739) 39
(i@@ 39
(上@@ 39
(无@@ 39
(普卡) 39
(正品) 39
(深 39
(纯 39
-012 39
-20 39
-38@@ 39
-adidas 39
-z@@ 39
.lv 39
0-3@@ 39
1.7 39
1/7 39
1002 39
1100@@ 39
1109 39
127@@ 39
175@@ 39
19) 39
2-001 39
2-3-@@ 39
23-@@ 39
24) 39
26mm 39
278 39
27cm 39
3.5g 39
36/@@ 39
377 39
4*@@ 39
40ml 39
425 39
453 39
487 39
48v 39
6/7 39
60mm 39
7- 39
70s 39
7c 39
840 39
880 39
924@@ 39
955 39
^臻 39
a18@@ 39
ade 39
agv 39
ao3108-@@ 39
asus@@ 39
bbia 39
blythe 39
bold 39
bow 39
bright 39
cam 39
case@@ 39
chao@@ 39
charlotte 39
cher@@ 39
curry@@ 39
desert 39
edge@@ 39
epoch 39
er/ 39
essentials 39
flap 39
flow 39
fx 39
g&g 39
h&@@ 39
hb 39
hiphop 39
hit@@ 39
ico@@ 39
jay@@ 39
jw 39
k6 39
kinaz 39
l1 39
lac@@ 39
lai 39
lamborghini 39
lor@@ 39
lulu@@ 39
luxgen 39
m-j 39
m-xx@@ 39
m/ 39
m616@@ 39
ma-1 39
maker 39
mercer 39
messenger 39
mine 39
mountain 39
niki 39
nis@@ 39
non 39
ore 39
outerspace 39
p) 39
palm 39
panda 39
panerai 39
pb@@ 39
pod 39
prada@@ 39
res 39
retro@@ 39
s-3xl 39
sad@@ 39
saffiano 39
sas@@ 39
sim@@ 39
ssa 39
standard 39
taito 39
tie 39
tier 39
tim 39
tour@@ 39
trefoil 39
tur@@ 39
v4 39
viral 39
wi-fi 39
wind 39
wolf 39
xbox360 39
xc 39
xt@@ 39
y7 39
ybw 39
y型 39
〗@@ 39
ウ@@ 39
㊣➋ 39
万用@@ 39
三节 39
世勋 39
主厨 39
举重 39
九宫 39
乳霜@@ 39
争 39
事件 39
人偶 39
价款 39
低糖 39
倍@@ 39
偏小 39
儿子 39
充充电 39
克洛@@ 39
免烫 39
八宝 39
公牛队 39
军风 39
凹 39
动态 39
半透 39
卧式 39
即时 39
卸妆@@ 39
压条 39
压表 39
反复 39
发饰品 39
古巴特 39
古曼 39
古驰@@ 39
句 39
咕@@ 39
品种 39
哑@@ 39
哺 39
喝茶 39
回) 39
回旋 39
坡@@ 39
外框 39
天竺葵 39
夺 39
契@@ 39
契尔氏@@ 39
奖牌 39
套环 39
好货@@ 39
存卡 39
守护神 39
安德玛@@ 39
宝宝@@ 39
实习 39
家具店 39
家里 39
察@@ 39
对话 39
小舖- 39
少女@@ 39
尝 39
就@@ 39
尿盆 39
崇 39
崛起 39
工学 39
带走 39
干燥剂 39
平装 39
平顶 39
年节 39
底托 39
弥@@ 39
总统 39
我# 39
战将 39
扑@@ 39
托运 39
抓破 39
折刀 39
折叠@@ 39
抛@@ 39
护脚 39
拉姆 39
换机 39
搞定 39
撑杆 39
擦擦 39
擦车 39
敌 39
散货 39
文) 39
方型 39
曼秀雷敦 39
有声 39
朋堂 39
期: 39
柜橱 39
株 39
样品 39
档板 39
梅森 39
棉绒 39
槽@@ 39
橡 39
款.@@ 39
正面 39
死侍 39
水果@@ 39
法律 39
波波 39
注意 39
洗剂 39
洗浴 39
浸@@ 39
混凝土 39
游艇 39
漩涡 39
瀑布 39
灸 39
烙 39
烟具 39
烟花 39
煤气灶 39
煮饭 39
版v 39
版日 39
版衣 39
特价: 39
玲@@ 39
珊@@ 39
电影票 39
电路 39
白色) 39
皂模 39
眉膏 39
短柄 39
硬挺 39
硬质 39
祐 39
神力 39
科大 39
笠 39
符@@ 39
箍@@ 39
米诺@@ 39
索尔 39
紫蓝 39
纸牌 39
细腰 39
罗利 39
美肤 39
老虎@@ 39
耐吉 39
肉球 39
肥料 39
肩膀 39
胡萝卜 39
胸衣 39
脏污 39
腕@@ 39
膳食 39
自然色 39
舖"@@ 39
花粉 39
荞@@ 39
莓果 39
菁英 39
菓子 39
蕃茄 39
蜗@@ 39
装裱 39
襦 39
观赏 39
解答 39
触控式 39
询问) 39
贝贝 39
贝贝@@ 39
赢 39
辅@@ 39
逐 39
量子 39
金属色 39
钥 39
铜色 39
银光 39
银灰色 39
长城 39
闹 39
防磁 39
阿姨 39
雾霾 39
鞋袜 39
顶尖 39
频@@ 39
飘飘 39
食品@@ 39
马力欧 39
马尾@@ 39
驴@@ 39
鸡尾酒 39
鼓风机 39
ｎ@@ 39
#2 38
&co 38
(16 38
(g@@ 38
(二手@@ 38
(适合 38
(降价) 38
(需 38
-16@@ 38
-20@@ 38
-28@@ 38
-2a 38
-300 38
-32 38
-39@@ 38
.nike 38
018 38
1000g 38
100m 38
1980 38
2-0@@ 38
2008年 38
2015@@ 38
20w 38
22*@@ 38
257 38
28mm 38
3-1 38
35/@@ 38
35ml 38
3c] 38
4-6 38
4.3 38
40x@@ 38
42-@@ 38
440 38
470@@ 38
478@@ 38
499@@ 38
50x@@ 38
5200 38
570@@ 38
665@@ 38
6x 38
7s 38
806@@ 38
8plus/@@ 38
9cm 38
aibo 38
airpods@@ 38
aj7@@ 38
ann@@ 38
ash 38
auto 38
ba7@@ 38
back@@ 38
bang 38
bla@@ 38
blossom 38
blush 38
bottle 38
browne 38
bul@@ 38
casio@@ 38
circle 38
clio 38
crown 38
d9@@ 38
daily 38
daiso 38
deco@@ 38
deep 38
dimotiv 38
doraemon 38
dp 38
duo@@ 38
emma 38
equipment 38
fancy 38
fd 38
feel 38
fila@@ 38
fle@@ 38
flo@@ 38
fri@@ 38
g7 38
gla 38
grandline 38
grip 38
gts@@ 38
h7 38
hawk 38
hello@@ 38
hou@@ 38
iphone8/@@ 38
j6 38
j7prime 38
jelly 38
jtc 38
kaiyi 38
l- 38
large 38
lauren@@ 38
less 38
lg@@ 38
live@@ 38
loo@@ 38
louis@@ 38
lovely 38
m+ 38
matte 38
meier.q 38
mimi@@ 38
mk32@@ 38
model@@ 38
mothercare 38
mus@@ 38
n3 38
n5 38
nct 38
nh@@ 38
nv@@ 38
octavia 38
oi 38
oni 38
phi@@ 38
place 38
playmobil 38
pn@@ 38
rcp 38
re-@@ 38
ree@@ 38
rl@@ 38
rody 38
rt-@@ 38
rv@@ 38
s8+ 38
sa-@@ 38
sai@@ 38
shop" 38
skii 38
sli@@ 38
snidel 38
splus 38
sui@@ 38
sx 38
t2@@ 38
t9@@ 38
tac@@ 38
tc-@@ 38
toe 38
trail 38
t男女 38
ufo 38
vogue 38
vuitton@@ 38
v脸 38
wang@@ 38
xiii 38
years 38
yellow 38
yl 38
yoga 38
zne 38
zx700 38
ℊℴℴ₫ 38
∮ 38
└@@ 38
☆adidas 38
☜@@ 38
♚ 38
タ 38
ㄧ字 38
一下 38
一切 38
万事 38
三越 38
主线 38
乐芬 38
伊姆斯 38
便鞋 38
俊凯 38
保持 38
修订@@ 38
免持 38
入手 38
冉 38
冲壶 38
凡士林 38
到期 38
包女 38
千斤顶 38
印记 38
卸@@ 38
压印 38
口头 38
召唤 38
号/@@ 38
合金钢 38
名著 38
呈 38
味觉 38
咏@@ 38
咖啡粉 38
啾 38
囍 38
四季@@ 38
回转 38
园丁 38
地下 38
大盘 38
天坛 38
夹具 38
套潮 38
妳]☆ 38
威士忌 38
孙@@ 38
实感 38
客订@@ 38
导演 38
小房子 38
小玩意 38
小苍 38
小雪 38
尸@@ 38
屋) 38
展柜 38
岱@@ 38
崴 38
嵌@@ 38
帆布@@ 38
希尔@@ 38
帮助 38
干粮 38
干胶 38
平均 38
年糕 38
床褥 38
底价 38
式样 38
录像 38
彩云 38
徐@@ 38
德玛库里 38
忧郁 38
念@@ 38
情境 38
成熟 38
扫除 38
抗痘 38
抬@@ 38
拐 38
择 38
拼盘 38
挂绳 38
按摩椅 38
挡@@ 38
换新 38
掌握 38
描@@ 38
插销 38
搂 38
摄@@ 38
新人 38
方凳 38
日葵 38
明星赛 38
晃 38
暴风 38
曼尼@@ 38
有人 38
木兰 38
果子 38
柔和 38
柿@@ 38
格纹 38
桃花@@ 38
桌游 38
梅花@@ 38
棒垒球 38
棚@@ 38
槌 38
樟木 38
款. 38
步骤 38
水垢 38
汽水 38
沙滩椅 38
沟@@ 38
油器 38
游乐场 38
湛蓝 38
滑冰鞋 38
滚滚 38
澡巾 38
焕白 38
牧马 38
玲珑 38
球花 38
生物学 38
电池) 38
电热水器 38
白霜 38
白鞋 38
皮) 38
盘组 38
相思 38
眉刀 38
眼镜@@ 38
短衫 38
矶 38
确认) 38
碑 38
磨头 38
穹 38
童男 38
端午 38
竹木 38
管) 38
米/@@ 38
粉条 38
精华乳 38
精彩 38
糕@@ 38
繁体@@ 38
纠@@ 38
纪念币 38
组. 38
绊 38
结晶 38
绪@@ 38
网上 38
网架 38
罗勒 38
美眉 38
耀眼 38
老光 38
脚部 38
臀@@ 38
自封 38
自选 38
艾米@@ 38
芋头 38
花店 38
花插 38
苍兰 38
菈@@ 38
蔡@@ 38
蕙 38
蛇@@ 38
蜜粉 38
衣饰 38
袋. 38
视镜 38
订书机 38
讨@@ 38
诉 38
详阅 38
豆花 38
象棋 38
贝克@@ 38
赢@@ 38
超人@@ 38
路虎 38
蹦 38
运费@@ 38
返@@ 38
远端 38
配件@@ 38
酮 38
酷奇@@ 38
重计 38
金证@@ 38
金钱 38
铁艺@@ 38
铂@@ 38
银币 38
锈钢 38
附带 38
陈列柜 38
陪伴 38
陶陶 38
雅轩 38
雷姆@@ 38
霸王龙 38
风量 38
香道 38
驾驶镜 38
鲍@@ 38
"小@@ 37
(0 37
(50@@ 37
(一@@ 37
(优 37
(居家家) 37
(浅 37
(绿) 37
(韩 37
*5 37
+) 37
-26 37
-l 37
-v@@ 37
/c@@ 37
001@@ 37
030@@ 37
0w 37
1107 37
12l 37
145@@ 37
15x@@ 37
170g 37
1995 37
1吋 37
2007年 37
2016/@@ 37
282 37
286 37
292 37
2c 37
3/4/@@ 37
319@@ 37
382 37
3b 37
5.5@@ 37
560 37
564@@ 37
599@@ 37
5kg 37
5千 37
6000@@ 37
611@@ 37
660@@ 37
66s 37
70cm 37
763 37
818 37
890 37
992 37
9a 37
a1@@ 37
active 37
af/@@ 37
amber 37
ar17@@ 37
asi@@ 37
ati@@ 37
a字@@ 37
ba-110 37
bass 37
beat@@ 37
ber 37
best@@ 37
c" 37
c1 37
camp 37
chicago 37
ciao 37
cz@@ 37
date 37
dg@@ 37
dobe 37
f2 37
fhd 37
fj@@ 37
fn@@ 37
furyu 37
gan 37
gfriend 37
grace@@ 37
have 37
hermes/ 37
hood 37
island 37
iv@@ 37
jac@@ 37
jam@@ 37
jb@@ 37
jersey 37
jimin 37
jtc-@@ 37
juicy 37
k9 37
kuku 37
lane@@ 37
ley.tw 37
linda 37
line: 37
m-3@@ 37
medicom 37
metallic 37
minnie 37
mk5896 37
news 37
no.t1 37
orbis 37
oro@@ 37
over 37
ovo 37
pl 37
qm 37
quest 37
rm@@ 37
sco@@ 37
sin 37
soli@@ 37
ss-@@ 37
titi@@ 37
tone 37
t卫 37
t长袖 37
v20 37
vac@@ 37
vol.3 37
wit@@ 37
zc55@@ 37
⋯ 37
│新货 37
♤ 37
♫@@ 37
ㄉ 37
一博 37
三能 37
下雨 37
不可@@ 37
不点 37
东南亚 37
主持 37
举@@ 37
今生 37
代用 37
伸展 37
保安 37
修改 37
修脸 37
克罗@@ 37
公道 37
兴隆 37
军帽 37
决定 37
刃@@ 37
刨@@ 37
制图 37
前导 37
割爱 37
勋章 37
包圆 37
包裹 37
华夫 37
单独 37
卖完 37
原汁 37
参考) 37
口感 37
台大 37
台湾@@ 37
合法 37
吋手机 37
和谐 37
品免运 37
喜舖 37
园区 37
国防 37
圆头 37
地平线 37
堆叠 37
复刻 37
大脑 37
太郎 37
头顶 37
夷@@ 37
奇肌 37
奇趣 37
套袖 37
奥克斯 37
好事 37
姗姗 37
娜妞 37
媲美 37
子弹头 37
安全@@ 37
对策 37
小型犬 37
小美@@ 37
少年@@ 37
崁灯 37
广东 37
广播 37
广角镜 37
店舖 37
庙@@ 37
开槽 37
开罐器 37
异国 37
影碟机 37
微调 37
忧伤 37
怒@@ 37
手表带 37
打包机 37
扫@@ 37
把握 37
拷贝 37
换式 37
据@@ 37
提示 37
搪瓷 37
撑@@ 37
文物 37
普洱 37
期) 37
木架 37
末@@ 37
条杠 37
果然 37
果胶 37
柔美 37
柠@@ 37
标用 37
梗 37
棉服 37
棕榈 37
横纹 37
歌词 37
武装 37
段@@ 37
比得 37
毫 37
氨@@ 37
氩 37
江户 37
沙滩@@ 37
沸@@ 37
油腻 37
淡雅 37
湿器 37
溶解 37
滑面 37
滴水 37
漱@@ 37
潮8) 37
澡@@ 37
灯眉 37
灰黑色 37
烦 37
烧杯 37
热水 37
热火 37
爱神 37
牛乳 37
物业 37
玖@@ 37
琉@@ 37
瓶盖 37
瓷花瓶 37
用型 37
畅销书 37
白皙 37
百达翡丽 37
皮皮@@ 37
盎司 37
直购 37
眉粉 37
真我 37
眼睫毛 37
眼霜 37
破坏@@ 37
硝 37
碎冰机 37
礼物) 37
稳@@ 37
穴@@ 37
突破 37
窗器 37
童书 37
笛子 37
第4 37
米黄 37
粗细 37
精纯 37
糖果屋 37
纤维@@ 37
纯粹 37
纱门 37
线衫 37
终身 37
绑腿 37
结帐 37
绢花 37
绽 37
缴费 37
置物 37
考级 37
肤皂 37
胺基酸 37
脚丫 37
腐@@ 37
膝@@ 37
舞曲 37
节奏 37
茉 37
茶楼 37
茶碗 37
草本@@ 37
营养素 37
葛根 37
蓄 37
蓓 37
薄片 37
行政学 37
衍 37
补习班 37
衫百 37
裸粉 37
觉@@ 37
解决 37
触碰 37
警报器 37
认识 37
训@@ 37
讲台 37
象牙白 37
资材 37
辨识 37
边柜 37
运★ 37
运动会 37
速成 37
配全 37
野战 37
钓虾 37
铁质 37
铠甲 37
锈@@ 37
锯子 37
长形 37
长期 37
门店 37
闺@@ 37
闻@@ 37
阀门 37
队#@@ 37
集团 37
雪松 37
霉 37
音器 37
风筒 37
饿 37
香槟色 37
驾@@ 37
高背 37
鱼杆 37
麻油 37
麻麻 37
龙波 37
龙王 37
︵@@ 37
＜@@ 37
"│ 36
#2@@ 36
#下杀 36
#二手 36
(200@@ 36
(90 36
(n@@ 36
(新版) 36
(玫瑰 36
*) 36
-30 36
0.1 36
0918 36
114@@ 36
116610 36
120x@@ 36
124@@ 36
185@@ 36
19*@@ 36
1970@@ 36
2% 36
2100 36
2200 36
227 36
254 36
27-@@ 36
272 36
28*@@ 36
2代 36
3100 36
346 36
4.7吋 36
40) 36
4c 36
534@@ 36
55/@@ 36
560@@ 36
6+@@ 36
634@@ 36
645 36
7+@@ 36
722@@ 36
80s 36
813 36
825 36
85g 36
887 36
922 36
97-@@ 36
_n@@ 36
a12@@ 36
adi 36
aero@@ 36
ame@@ 36
a货@@ 36
bandouliere 36
beach 36
bee@@ 36
biotherm 36
bj@@ 36
bobo@@ 36
boite 36
boys 36
cherry@@ 36
chia 36
chou 36
christmas 36
clu@@ 36
cr 36
cute 36
cx 36
doe 36
dri@@ 36
d型 36
eco@@ 36
esp@@ 36
fk@@ 36
form 36
ful@@ 36
get 36
gshock 36
h8@@ 36
heroes 36
i8plus 36
ink@@ 36
iphone5 36
iqos 36
ire 36
isport 36
j7pro 36
jf@@ 36
k5 36
kal@@ 36
kamera 36
l. 36
lay 36
lifestyle 36
living 36
logo短t 36
loop 36
lunarglide 36
mary@@ 36
mee@@ 36
michaelkors 36
ming 36
momo@@ 36
nc 36
ngk 36
nm@@ 36
nuby 36
pets 36
pla@@ 36
prem 36
pride 36
pt-@@ 36
r7@@ 36
s.g 36
serpenti 36
sevenfriday 36
sion 36
sleeve 36
sn 36
solo@@ 36
sos 36
spf30 36
squad 36
sty@@ 36
tak@@ 36
thomas 36
tint 36
tomica@@ 36
travis 36
tun@@ 36
t恤m-3xl 36
t潮t 36
us11 36
victorine 36
v牌 36
winter 36
work@@ 36
x/xs/xr/@@ 36
xxxl 36
y12 36
yourself 36
z生活 36
┌@@ 36
█@@ 36
☆" 36
✤ 36
す@@ 36
セ@@ 36
ㄇ型 36
万花筒 36
上方 36
不破 36
丨 36
义勇 36
乎 36
予 36
二三 36
五千 36
代理商 36
代订 36
仰 36
份) 36
体乳 36
体内 36
佛牌 36
作家 36
促销$ 36
催眠 36
冒 36
凛 36
刑法 36
创世 36
北仓 36
博美 36
卜力 36
卡拉@@ 36
双) 36
发型 36
发罩 36
取代 36
吉普 36
名: 36
名模 36
后面 36
咸@@ 36
哔 36
商务@@ 36
四星 36
复活 36
外型 36
夜晚 36
大厂 36
女家 36
始@@ 36
娃娃衫 36
孔) 36
安德@@ 36
射击 36
小妞 36
小宝宝 36
小队 36
尖嘴 36
尚好 36
履@@ 36
巴尔曼 36
幼教 36
底) 36
开张 36
开窗 36
引力 36
徐坤 36
微晶 36
急救@@ 36
意义 36
手足 36
打坐 36
抖@@ 36
折合 36
护肤膏 36
抽油烟机 36
拍器 36
搅拌器 36
摩根 36
星之卡比 36
普拉@@ 36
月刊 36
林) 36
果味 36
果园 36
栅 36
梁@@ 36
梗@@ 36
橘红色 36
橘黄 36
欧根 36
款人 36
步伐 36
步步 36
水绿 36
水雾 36
油墨 36
泫雅风 36
泰山 36
洒@@ 36
洗刷 36
洗器 36
洲@@ 36
活化 36
济州 36
消化 36
涤纶 36
涯 36
深夜 36
深紫 36
清洁用品 36
港版 36
溪@@ 36
滢 36
潮人 36
灯) 36
灵感 36
烈@@ 36
烟缸 36
热血 36
焙@@ 36
照) 36
父亲 36
牧牧家 36
牧草 36
物篮 36
特工 36
狮子座 36
现货: 36
琵琶 36
甩棍 36
由@@ 36
白武士 36
白水 36
百灵 36
瞬洁 36
石墨 36
砖石 36
硝@@ 36
秦@@ 36
笔器 36
筒式 36
米娜 36
红星 36
红皮 36
纹) 36
绢@@ 36
继 36
绵绵 36
绿松石 36
缠 36
罪@@ 36
美容美发 36
美语 36
羹 36
翡 36
翻翻 36
老爸 36
聊 36
胶) 36
腋毛 36
芒 36
花儿 36
苏苏 36
草地 36
荒 36
荷包蛋 36
莫兰@@ 36
菜园 36
蒙田 36
虎眼石 36
虑 36
行政法 36
行李车 36
衣包 36
衣钩 36
衣领 36
衫卫衣 36
袖衫 36
裳 36
角川 36
讯@@ 36
设计@@ 36
试吃 36
询 36
贝克 36
账本 36
质料 36
贾@@ 36
资料@@ 36
赔钱 36
超纤 36
蹈 36
车站 36
轮车 36
输@@ 36
辫 36
运动器材 36
连身@@ 36
迪士尼史迪奇 36
迷幻 36
退色 36
避孕套 36
量) 36
金包 36
铁床 36
铁血 36
铃兰 36
铲@@ 36
锁具 36
锈 36
锋利 36
镀锌 36
长版 36
防冻 36
陈情 36
露娜 36
面额 36
鞋-@@ 36
韵@@ 36
顾@@ 36
领券 36
领取 36
领收 36
饶舌 36
高浓度 36
鱼饵 36
黄斑 36
黄白 36
龟头 36
＠ 36
"i@@ 35
"小 35
"送 35
#304 35
#m 35
#爆款@@ 35
(2016) 35
(201@@ 35
(5.@@ 35
(v@@ 35
(六 35
(好 35
(实拍) 35
(水 35
(灰 35
+s10 35
-11@@ 35
-m 35
.6 35
0.9m 35
01-@@ 35
1/10 35
1/4@@ 35
100w 35
1010 35
14.@@ 35
18-24m 35
1a@@ 35
1年 35
2-4@@ 35
21/@@ 35
24*@@ 35
26*@@ 35
2800 35
287 35
2年 35
317 35
32吋 35
38cm 35
3e 35
440@@ 35
50) 35
571 35
58mm 35
612@@ 35
654 35
66-@@ 35
6plus/@@ 35
7.2 35
730 35
730@@ 35
739@@ 35
799@@ 35
8- 35
8-001 35
8.1 35
822@@ 35
870@@ 35
[p@@ 35
a80 35
aaa 35
aga@@ 35
alma 35
anastasia 35
anda 35
ann's 35
anti 35
app@@ 35
ar19@@ 35
army 35
avon 35
b&@@ 35
b1@@ 35
boot 35
bp 35
brazza 35
bunny 35
bw 35
c10 35
c63 35
cable 35
cd0@@ 35
cho 35
converse@@ 35
cq23@@ 35
cross@@ 35
cur@@ 35
custom 35
c字 35
derma 35
dol@@ 35
eb-@@ 35
ela 35
ella 35
ens 35
eva@@ 35
ew 35
ew@@ 35
f5 35
fate/grand 35
figma 35
flora 35
freak 35
game@@ 35
gia 35
hat@@ 35
heal@@ 35
i8/@@ 35
ista 35
iti@@ 35
j1@@ 35
jeep 35
jenny 35
k4 35
kiehls 35
kobe11 35
kuga 35
kus@@ 35
l3 35
lab@@ 35
lala@@ 35
lemon 35
liao 35
lm汽 35
ln@@ 35
loreal 35
m67@@ 35
mary 35
mate9 35
max/xr/@@ 35
mes 35
mexico 35
mlx@@ 35
multi 35
nav@@ 35
newbalance 35
nmd@@ 35
oakley 35
onepiece 35
ous 35
ov@@ 35
p3@@ 35
pc-@@ 35
petite 35
poke@@ 35
qb@@ 35
que 35
q弹 35
q饼 35
razer 35
ree 35
rev 35
roger 35
ros@@ 35
ru 35
s.h 35
sam 35
seven 35
side 35
sk6 35
spo@@ 35
spring 35
sse 35
staub 35
structure 35
toki 35
u.@@ 35
u3 35
ure@@ 35
vers@@ 35
wan 35
wjlp 35
women 35
world@@ 35
wuz 35
x4@@ 35
xsg 35
yard 35
z/@@ 35
α@@ 35
∞@@ 35
∥@@ 35
⊙@@ 35
◢@@ 35
☆日光 35
に@@ 35
ゃ@@ 35
る 35
れ@@ 35
チ@@ 35
ナ@@ 35
一件式 35
一组) 35
七月 35
三部曲 35
下杀& 35
东风 35
丰富 35
丽丽 35
乐队 35
九号 35
习惯 35
书│ 35
乳清 35
事机 35
五帝 35
亚培 35
人中之龙 35
人仔 35
代理版 35
代购. 35
仲基 35
仲夏 35
仿生 35
优儿 35
伸缩式 35
侨 35
允 35
允@@ 35
元/@@ 35
军人 35
军品 35
冲凉 35
制迪士尼 35
刺穿 35
前轮 35
加装 35
劵 35
包m4@@ 35
包壳 35
十五 35
半球 35
卡布奇诺 35
卡达 35
卯 35
印花@@ 35
厚道 35
友情 35
台北市 35
吸引 35
呎@@ 35
商标 35
啪@@ 35
喊@@ 35
喵星 35
回家 35
国手 35
国潮 35
埔@@ 35
堿 35
备品 35
大c 35
大中小 35
大童@@ 35
大补 35
天河石 35
天高 35
头家 35
夹克衫 35
好物 35
如来 35
姊 35
娴 35
嫣儿 35
宁静 35
安瓶 35
定量 35
小乖 35
小家电 35
尔斯 35
尾款 35
屁 35
展览 35
山楂 35
崁@@ 35
崖 35
帮鞋 35
年轻人 35
延迟 35
弘@@ 35
强震 35
恩善 35
恰 35
打字 35
打扫 35
技法 35
报表 35
拉力器 35
拉姆@@ 35
拉门 35
接单 35
推荐) 35
敞@@ 35
整块 35
整蛊 35
斜角 35
斯特@@ 35
新乐 35
时下 35
时装@@ 35
普拉 35
暖水袋 35
木杆 35
机种 35
杀虫剂 35
杉木 35
构 35
果器 35
柔嫩 35
柔润 35
柔肤水 35
柠檬黄 35
格拉芙 35
梭@@ 35
梵文 35
检查 35
榆木 35
横滨 35
欧阳 35
民法 35
水) 35
水下 35
水巾 35
水洗 35
沙发@@ 35
油刷 35
油罐 35
法学 35
洛可可 35
津@@ 35
海浪 35
海盗船 35
淳 35
清降噪 35
火器 35
火红 35
灬 35
炕桌 35
炸机 35
热压 35
热饮 35
爆款-@@ 35
玄凤 35
玛丽@@ 35
畅@@ 35
疼 35
痛@@ 35
白字 35
皂液 35
皓@@ 35
皮制 35
盆花 35
监狱 35
眼泪 35
睡床 35
瞬效 35
矫@@ 35
短t@@ 35
石面 35
碧玉 35
祈 35
种花 35
空调毯 35
穿法 35
管子 35
篱笆 35
粒绒 35
糖) 35
系列: 35
练习生 35
组/@@ 35
组合@@ 35
绿绿 35
缩小 35
美乐蒂 35
羞 35
肉色 35
肌精 35
胶皮 35
脚位 35
般 35
节水 35
花火 35
花籽 35
茎 35
荔@@ 35
菲拉格 35
蔽 35
蚁 35
蛋壳 35
行李架 35
补发 35
表/@@ 35
褐 35
西德 35
西施 35
议@@ 35
诺斯 35
课外 35
豆乳 35
贝斯 35
赐 35
赫拉@@ 35
跳蛋 35
车床 35
边缘 35
违 35
迦@@ 35
迹@@ 35
邻@@ 35
鑚@@ 35
钢索 35
锁边 35
闸 35
防毒 35
阳极 35
阻燃 35
限购 35
随心所欲 35
隔热@@ 35
震动器 35
霏 35
面条机 35
鞋女 35
韩语 35
颊 35
风光 35
饭勺 35
饼铛 35
马口铁 35
高架 35
高筒靴 35
高考 35
黑/@@ 35
龙门 35
ｅ@@ 35
ｌ@@ 35
ｐ 35
##@@ 34
(75@@ 34
(x@@ 34
(一般 34
(今日 34
(英@@ 34
(蓝色 34
(首 34
*桥@@ 34
-007 34
-200 34
-23 34
-30@@ 34
-39 34
-44@@ 34
-47 34
-he 34
-xxl 34
1,@@ 34
100) 34
1008 34
1108 34
12+@@ 34
17.5 34
172 34
174 34
195@@ 34
1:24 34
200/@@ 34
220ml 34
23) 34
240ml 34
290@@ 34
2nd 34
311 34
332@@ 34
34-39 34
352 34
372 34
38/@@ 34
39mm 34
3a@@ 34
3ds@@ 34
4-001 34
435@@ 34
455 34
525 34
590@@ 34
6-7-@@ 34
6.7 34
65w 34
663 34
664 34
670 34
6b 34
712 34
740@@ 34
858 34
860 34
8d 34
916@@ 34
9ss 34
[h@@ 34
_p@@ 34
a11@@ 34
ack 34
act 34
aesop 34
amour 34
ams 34
animal 34
apo@@ 34
ass 34
ass@@ 34
ato 34
ator 34
augelute 34
b8@@ 34
bears 34
bie@@ 34
blackpink 34
blend 34
bonnie 34
c6@@ 34
c77@@ 34
call 34
carters 34
christ@@ 34
clar@@ 34
clip 34
design@@ 34
devil 34
dewalt 34
diy/ 34
dolly 34
dr.cink 34
edison 34
extra 34
fighter 34
foamposite 34
gaoria 34
ghz 34
gie 34
gir@@ 34
godox 34
graphic 34
gros 34
gt-r 34
g扣 34
h4 34
hills 34
hoody 34
hs-@@ 34
huahua 34
i7+@@ 34
ipod 34
jason 34
jb 34
jean 34
jessica 34
jt-@@ 34
k2 34
k88 34
kak@@ 34
kia 34
kr 34
kuo 34
lh 34
l夹 34
m68@@ 34
majestic 34
ment@@ 34
mis 34
mk8@@ 34
mobile 34
motion 34
ms.@@ 34
music&ecology 34
myprotein 34
n1 34
n60@@ 34
nikelab 34
nine@@ 34
nini 34
nixon 34
not 34
novo 34
nrg 34
p30@@ 34
passat 34
penny 34
ptt 34
rain 34
rb 34
richell 34
rit@@ 34
river 34
s-max 34
samantha 34
self 34
shelliemay 34
sher@@ 34
solarsoft 34
soul@@ 34
spigen 34
swim 34
take 34
tempo 34
tpe 34
train 34
ture 34
t潮 34
usb-@@ 34
usb3.1 34
view 34
vw@@ 34
w/ 34
wannaone 34
war 34
wn 34
wrx 34
x20 34
x27@@ 34
xa@@ 34
xl号 34
xs/ 34
y9 34
ysl/ 34
ze620 34
zg 34
}} 34
~) 34
ʀ@@ 34
ᴏ@@ 34
⋯⋯ 34
│六月 34
║@@ 34
□ 34
□@@ 34
◥@@ 34
★免 34
☆hermes 34
☆lv 34
☆爱心 34
☛ 34
✽@@ 34
サ@@ 34
ム 34
不对称 34
中统 34
丶@@ 34
二维 34
五斗橱 34
五星级 34
亲笔签名 34
人脸 34
仑 34
优派 34
传真 34
低卡 34
侏㑩纪 34
侏罗纪 34
促销) 34
俗@@ 34
像素 34
光机 34
克莱 34
全新│ 34
兮 34
再现 34
农庄 34
冰温 34
冷却 34
冷媒 34
刀割 34
分离器 34
判@@ 34
利制 34
刷头 34
半导体 34
华为p30 34
南部 34
卡卡@@ 34
卡贴 34
压褶 34
双料 34
双缸 34
反转 34
变型 34
口哨 34
合一@@ 34
吾@@ 34
呆@@ 34
哪@@ 34
喆 34
嘎 34
回到 34
回头客 34
固) 34
垃圾箱 34
基因 34
基本@@ 34
堆@@ 34
塌 34
塔克 34
塘 34
士牌 34
外用 34
多边形 34
大码@@ 34
天上 34
天文 34
天竺鼠 34
太宰治 34
姻缘 34
媒体 34
字汇 34
宁宁 34
宝箱 34
宴@@ 34
家事 34
密宗 34
密封@@ 34
富山 34
寥@@ 34
小公仔 34
小衣橱 34
小键盘 34
尿不湿 34
层层 34
展场 34
巨星 34
帕玛@@ 34
平盘 34
年末 34
开立 34
思域 34
成分 34
或@@ 34
战队 34
截止 34
手提包包 34
手纸 34
扶桑 34
抢购★ 34
拉a梦 34
拓展 34
拜佛 34
挂轴 34
指南针 34
挥@@ 34
提盒 34
揭 34
摊@@ 34
摔角 34
敲打 34
文件架 34
旁 34
旅行者 34
无头 34
无花果 34
日版@@ 34
时尚达人 34
昆布 34
晒衣夹 34
月相 34
木业 34
杆子 34
束胸 34
极佳 34
果茶 34
柒柒 34
格丽@@ 34
梦工厂 34
概@@ 34
榨汁器 34
欲@@ 34
款潮 34
水分 34
汉考克 34
油蜡 34
法莱绒 34
泽泽 34
浓厚 34
海龟 34
涉 34
涵@@ 34
淘淘 34
滋补品 34
滑动 34
激战 34
火柴 34
灯台 34
灰灰 34
烧石 34
热荐 34
焊机 34
爆款@@ 34
特优 34
狐臭 34
玉珮 34
珠串 34
电子手表 34
电板 34
疯马 34
白兔 34
白洁 34
百花 34
着妳]☆ 34
硅@@ 34
磁场 34
礼仪 34
禽 34
穿搭 34
窄@@ 34
童颜 34
符咒 34
精心 34
糊涂 34
红粉 34
美军 34
美品 34
羚 34
老化 34
聚酯 34
肤仪 34
背椅 34
腕力 34
舜 34
芭蒂萝 34
茶) 34
药用 34
菌) 34
菠@@ 34
蒙娜丽莎 34
藕@@ 34
藜 34
虐恋 34
蚕丝@@ 34
街景 34
衣) 34
补给站 34
被褥 34
西式 34
西门 34
觅 34
计算 34
诞生 34
读卡器 34
豆腐@@ 34
赌@@ 34
跳蚤 34
身材 34
躲@@ 34
车体 34
车把 34
车种 34
轮式 34
迦 34
迷迭香 34
遮阳棚 34
酒桶 34
酵 34
里岛 34
重庆 34
金发 34
金水 34
钉鞋 34
钛金 34
铁柜 34
铁观音 34
银白色 34
镯@@ 34
长) 34
间隙 34
阿波@@ 34
阿波罗 34
雪尼尔 34
零配件 34
霜) 34
露天 34
韩) 34
预) 34
风平 34
风靡 34
飞鸟 34
香奈@@ 34
香甜 34
香茅 34
骨骼 34
魔法@@ 34
鲔 34
鲜奶 34
鸦@@ 34
黑熊 34
黑陶 34
"lv 33
#全场 33
#台湾 33
&新品 33
(22@@ 33
(j@@ 33
(m-@@ 33
(s-@@ 33
(宽 33
(数位 33
(整 33
(桃@@ 33
(粉色 33
(紫 33
-210 33
-300@@ 33
-40@@ 33
-c 33
/s@@ 33
1-3-5 33
1060@@ 33
110-220v 33
12h 33
15吋 33
15日 33
178@@ 33
1d 33
2021 33
23/@@ 33
232@@ 33
268 33
283 33
295 33
3-2@@ 33
33*@@ 33
337 33
35) 33
358 33
4-5 33
411 33
451 33
464@@ 33
4k@@ 33
5-001 33
507 33
510@@ 33
595@@ 33
6-7 33
625 33
658 33
668 33
695@@ 33
6t 33
7.0 33
744@@ 33
790 33
7p@@ 33
8+@@ 33
840@@ 33
878@@ 33
881 33
9*@@ 33
904 33
918 33
921733-@@ 33
?????? 33
??@@ 33
_i@@ 33
a's 33
ach 33
adore 33
ane@@ 33
ans 33
ar46@@ 33
arai 33
ary 33
astro 33
bandai万代 33
beast 33
berry@@ 33
ble@@ 33
botani@@ 33
c8@@ 33
chane 33
cky 33
cloud 33
cola 33
cp-@@ 33
dc-@@ 33
dex 33
duck 33
ef-@@ 33
emp@@ 33
ence 33
er-@@ 33
f20 33
f8@@ 33
fairy 33
fal@@ 33
fashion@@ 33
fei@@ 33
feng 33
ft-@@ 33
fusion 33
gnc 33
gucc 33
hater 33
hdr 33
hill@@ 33
holi@@ 33
hrv 33
huf 33
ingni 33
inomata 33
ion@@ 33
iting 33
ivy 33
iz* 33
j.house 33
j7+@@ 33
jadior 33
je 33
kill 33
km 33
kore@@ 33
kun 33
lace 33
lazy@@ 33
leg@@ 33
luminor 33
m-3xl@@ 33
m12 33
m414@@ 33
m45@@ 33
megahouse 33
mk33@@ 33
mk60@@ 33
ml.@@ 33
mrt580 33
n2 33
nas@@ 33
nautica 33
nereides 33
noe 33
nxt 33
o.y 33
olay 33
ox@@ 33
pa++@@ 33
pass 33
r/@@ 33
rai@@ 33
revenge 33
ricoh 33
sav@@ 33
shir@@ 33
spray 33
square 33
steel 33
sweatshirt 33
sylvie 33
t3@@ 33
tata 33
teana 33
test 33
tp-link 33
type-c转 33
t恤潮 33
usb-c 33
vag 33
very 33
whirlpool 33
xf 33
xf@@ 33
xp140@@ 33
yxs 33
ze500 33
zs6@@ 33
˙ 33
ღ先 33
║ 33
◐ 33
✯@@ 33
❁@@ 33
❦ 33
い 33
ゆ@@ 33
エ@@ 33
ㄇ@@ 33
ㄇ字 33
一点 33
三轴 33
不规则 33
丑@@ 33
中古@@ 33
乳胶漆 33
二战 33
互 33
人头 33
仁堂 33
仟@@ 33
令@@ 33
价│ 33
休闲馆 33
俏@@ 33
信义 33
元年 33
公司@@ 33
公爵 33
六角@@ 33
冯 33
凯蒂 33
匹@@ 33
华语 33
单排 33
卫生@@ 33
却 33
卷筒 33
压面机 33
反应 33
取暖器 33
取物 33
变脸 33
古典@@ 33
吸入 33
呈@@ 33
周周 33
啡 33
嘿 33
噪 33
图案@@ 33
培养 33
堆堆 33
复古格 33
大仙 33
大夫 33
大班 33
女内裤 33
娜美@@ 33
婚纱照 33
字号 33
宝坚 33
寄卖 33
富豪 33
对流 33
对表 33
寻找 33
导向 33
封袋 33
小喇叭 33
小径 33
小文$ 33
小方@@ 33
小贝 33
小野 33
尘螨 33
峻 33
崩坏 33
巢@@ 33
工具书 33
巴克 33
巴巴 33
帅哥 33
平锅 33
年历 33
庭园 33
廷@@ 33
弯弯 33
强劲 33
彩图 33
彰@@ 33
役 33
徕@@ 33
心心相印 33
忧@@ 33
总共 33
总部 33
恐 33
扭蛋@@ 33
拐棍 33
拜年 33
挂画 33
按@@ 33
挪威 33
换) 33
捶 33
接听 33
搭载 33
摇马 33
支付 33
收藏家 33
文创 33
料架 33
新款) 33
新车 33
旁@@ 33
日日 33
晋@@ 33
晴空 33
服饰店 33
木屑 33
木木@@ 33
杀价# 33
杂粮 33
松果 33
枕巾 33
柳编 33
楼顶 33
模型) 33
款# 33
比克 33
气体 33
氧机 33
泊尔 33
泡泡@@ 33
泡茶器 33
洗澡间 33
活动) 33
浅绿 33
浓汤 33
海南 33
深绿 33
烙饼 33
烤鱼 33
爆棚 33
父母 33
猴@@ 33
王一 33
玛卡 33
珍藏@@ 33
瑛 33
瑞兴 33
生铁 33
甩@@ 33
电吹风机 33
电热锅 33
画墙 33
痕迹 33
白茶 33
的) 33
皮球 33
着妳 33
短裤@@ 33
碁峰 33
碳钢 33
神经 33
福士 33
福寿 33
空机 33
空版 33
等待 33
粗线 33
红莲 33
纸) 33
练习本 33
绕颈 33
老山 33
耳勺 33
肉泥 33
肿 33
背包#@@ 33
脸谱 33
自销 33
自驾游 33
艺术@@ 33
芝士 33
花栗鼠 33
花花@@ 33
英雄@@ 33
苹@@ 33
范特西 33
茄子 33
药水 33
薯片 33
藕 33
蚤 33
螺帽 33
补妆 33
袖上 33
西门@@ 33
视力 33
解剖 33
记者 33
评量 33
试卷 33
读物 33
调音器 33
貂绒 33
货. 33
身衣 33
轨迹 33
软木塞 33
载重 33
这么 33
透气@@ 33
造型@@ 33
遮阳@@ 33
郭@@ 33
钥匙环 33
钦 33
钧@@ 33
钻) 33
铁壶 33
铜制 33
银杏 33
锉刀 33
锰钢 33
长裤@@ 33
门把 33
闸@@ 33
防暴 33
防蛀 33
阻尼 33
阿弥陀佛 33
除锈 33
隐形磁 33
雪莉玫 33
霍 33
静物 33
靠得住 33
顽童 33
颈带 33
颈挂 33
风雪 33
飞溅 33
餐杯 33
香器 33
马扎 33
马桶圈 33
高产 33
麂@@ 33
黑胡椒 33
"现货 32
#韩国 32
(18@@ 32
(34@@ 32
(y@@ 32
(厂家 32
(台北 32
(带 32
-50 32
-i@@ 32
/f@@ 32
03-@@ 32
090@@ 32
1.5g 32
1113 32
12000 32
169@@ 32
18.5 32
180*@@ 32
200w 32
2010@@ 32
2021.@@ 32
204@@ 32
20cm@@ 32
20v 32
20x@@ 32
241 32
265@@ 32
298 32
3-6@@ 32
314 32
339 32
360ml 32
383 32
385 32
391 32
3dwoo 32
4/ 32
4500 32
6/20 32
673 32
686 32
7-001 32
766 32
780@@ 32
8000@@ 32
831 32
928@@ 32
9l 32
^) 32
_x@@ 32
accord 32
ade@@ 32
agne@@ 32
animate 32
ank@@ 32
anne 32
annie 32
ar5905 32
asdf764 32
aspire 32
athle 32
ax5s 32
bath@@ 32
bc-@@ 32
bea@@ 32
beams 32
ben 32
benefit 32
blk 32
boo 32
brit@@ 32
bumbag 32
cafe@@ 32
claire 32
co-@@ 32
consortium 32
cosme 32
cq2@@ 32
cra@@ 32
crt300 32
c级@@ 32
d' 32
deco 32
disco 32
drg 32
du 32
e5 32
e5-@@ 32
ell 32
find 32
flip 32
fo 32
georg 32
giordano 32
got@@ 32
gui@@ 32
gurashi 32
h6@@ 32
hak@@ 32
hape 32
has@@ 32
healthy 32
hn 32
hollister/@@ 32
ht-@@ 32
iphone/@@ 32
iphone76s 32
iri@@ 32
j5@@ 32
jensen 32
k8@@ 32
kgh 32
kicks 32
kl) 32
lar 32
leten 32
livina 32
lockme 32
luxe 32
m.2 32
makeup 32
mani@@ 32
meme 32
merrell 32
met 32
mit-@@ 32
ml/瓶 32
ms249 32
naked 32
nb-@@ 32
nba@@ 32
nizza 32
oc 32
onic 32
opi 32
p40 32
pan 32
photo 32
photo@@ 32
pico@@ 32
pippen 32
pleats 32
r88@@ 32
rer 32
rm-@@ 32
s-m 32
s9+ 32
sac 32
sanrio@@ 32
sdi 32
shan@@ 32
ske@@ 32
sl-@@ 32
sne@@ 32
spectra 32
stanley 32
start 32
ston 32
stop 32
ta-@@ 32
taipei 32
think 32
time@@ 32
tus@@ 32
twice@@ 32
tz@@ 32
t米家) 32
uk 32
usb2.0 32
uu 32
vetements 32
ville 32
vk 32
vl@@ 32
volkswagen 32
vv@@ 32
wc 32
wed@@ 32
window 32
wow@@ 32
xii 32
xo@@ 32
yang@@ 32
yung-@@ 32
yz@@ 32
zakka@@ 32
zar@@ 32
zb63 32
ᄒ@@ 32
↓ 32
∼ 32
≡@@ 32
│全场 32
╯@@ 32
▼ 32
♡性感 32
❖ 32
ア 32
キ 32
マ 32
一生@@ 32
专人 32
世绘 32
丛 32
丞琳 32
主演 32
亨利 32
人味 32
人性 32
伦理 32
估价 32
供电 32
侧标 32
保密 32
停电 32
停车@@ 32
储蓄 32
全世界 32
全开 32
公转 32
公里 32
再版 32
农会 32
冰镇 32
冲水 32
凯里 32
切换器 32
刨刀 32
利达 32
刷卡) 32
刹@@ 32
加厚@@ 32
加护 32
勤@@ 32
匀 32
化工 32
北大 32
匠心 32
卡斯 32
卧房 32
危险 32
压气 32
发动机 32
发片 32
另外 32
台钟 32
吉它 32
后轮 32
呦 32
回归 32
图书馆 32
圃 32
土黄 32
地带 32
垂@@ 32
垂吊 32
墩布 32
大帝 32
大毛 32
天生 32
套件 32
女篮 32
姵@@ 32
姿势 32
子筒 32
安神 32
宙@@ 32
宝芙 32
小吃店 32
小王子 32
小钻 32
尿布垫 32
州@@ 32
工作证 32
平安@@ 32
年年 32
开箱 32
弃 32
弄 32
彩球 32
彰 32
微米 32
德楼 32
心心 32
忙 32
恬廊 32
憨@@ 32
打击@@ 32
打洞 32
打猎 32
打褶 32
扣款 32
抗压 32
抗寒 32
折伞 32
抵用 32
拚 32
拱门 32
挂灯 32
挤奶器 32
捡便宜 32
捷安特 32
控器 32
放电 32
文房 32
斯加 32
斯坦 32
无后 32
日常@@ 32
昌@@ 32
春茶 32
普卡@@ 32
晶体 32
暖暖@@ 32
木屋 32
杜邦 32
条案 32
果脯 32
柔情 32
柜) 32
柯尔斯 32
栈 32
桔红 32
楚 32
榨 32
模板 32
欧斯 32
歪 32
毛膏 32
毛躁 32
水润 32
汽球 32
沙丁鱼 32
法则 32
洋行 32
洗澡@@ 32
洗衣粉 32
活用 32
液) 32
混装 32
源头 32
漫漫 32
潜水衣 32
潭 32
潮酷 32
火山@@ 32
灵芝 32
炫光 32
热气球 32
热量 32
爵士鼓 32
版女 32
狮子王 32
狱 32
玉器 32
王公仔 32
王冠 32
王子@@ 32
珍贵 32
珪@@ 32
球棒 32
甚 32
电池@@ 32
电筒 32
男靴 32
画线 32
疾@@ 32
白天 32
白巧克力 32
白点 32
皂液器 32
皂盒 32
皮器 32
盗墓 32
直营 32
眉刷 32
督@@ 32
砚 32
硅藻土 32
碎肉 32
窑变 32
立方 32
简体@@ 32
箭@@ 32
篱 32
籁 32
米米@@ 32
粉粉 32
系风. 32
红薯 32
级) 32
纾 32
经销商 32
绿篱 32
编码 32
美国队 32
老天 32
耕 32
肌活 32
肌轮 32
肛交 32
胖丁 32
脆饼 32
腔 32
自然光 32
色泽 32
芮 32
苣 32
茶炉 32
荧幕 32
莲子 32
菓@@ 32
萤石 32
葆 32
葛@@ 32
薪 32
藜@@ 32
蝎子 32
行包 32
补助 32
话器 32
诠@@ 32
谱@@ 32
贴) 32
贴膜@@ 32
超过 32
车位 32
车盘 32
过期 32
远东 32
连网 32
迪达@@ 32
通信 32
酪@@ 32
重奏 32
金丝@@ 32
金曲 32
金牛座 32
金行 32
针织衣 32
钢瓶 32
钢精 32
铜钱 32
锁链 32
锄@@ 32
镭@@ 32
长椅 32
除臭剂 32
隼 32
雪山 32
霆 32
鞍@@ 32
韩蕾 32
音速 32
风凉 32
饱腹 32
饵料 32
香烟 32
香片 32
马灯 32
鲨鱼鳍 32
黏贴式 32
ｐ@@ 32
!!! 31
"三@@ 31
"百 31
(6) 31
(70 31
(70@@ 31
(no.@@ 31
(rolex) 31
(u@@ 31
(三色) 31
(特@@ 31
(赠送 31
(金) 31
))) 31
.g 31
.s 31
/led 31
0003 31
1-6@@ 31
10-12 31
10k 31
10x@@ 31
1102 31
1212 31
155@@ 31
16.@@ 31
166@@ 31
18年 31
1mm 31
2# 31
2-100 31
2021年 31
209@@ 31
21cm 31
239 31
2600 31
267 31
291 31
2: 31
31512@@ 31
33mm 31
341 31
393 31
3: 31
422@@ 31
44-@@ 31
448 31
449 31
518 31
55吋 31
575 31
613 31
661 31
662 31
669 31
6ml 31
6sp 31
712@@ 31
752 31
758 31
764@@ 31
765 31
7l 31
7日 31
800g 31
855 31
860@@ 31
886 31
888@@ 31
9. 31
90% 31
922@@ 31
9999@@ 31
@全场 31
a8+@@ 31
aga 31
aj13 31
aj3 31
albion 31
amp; 31
angela 31
apbs 31
b.toys 31
basketball 31
berry 31
beverly 31
blanc 31
body@@ 31
bonjouracc 31
braun 31
bryant 31
burberry/ 31
business 31
chenn 31
chiu 31
chukka 31
chun 31
cipu 31
cis 31
cit@@ 31
cmx@@ 31
control 31
cover@@ 31
cr-v 31
creator 31
cv 31
cx-@@ 31
dashing 31
derma@@ 31
digital 31
dvd-@@ 31
dw-@@ 31
e7 31
f11 31
faced 31
ferragamo菲拉格慕 31
fg@@ 31
first@@ 31
fr 31
g*3 31
gmt 31
gra 31
gts 31
halo 31
head@@ 31
hey@@ 31
hk 31
hsin 31
i6/@@ 31
ista伊士达 31
ix35 31
j&y 31
jack@@ 31
jaguar 31
jas@@ 31
jet@@ 31
jill@@ 31
k) 31
k7 31
kap@@ 31
kc 31
lat@@ 31
liz 31
lla 31
lotte 31
lowrys 31
maz@@ 31
mazda3 31
men's 31
miki 31
mini4 31
mini5 31
miniso 31
mk59@@ 31
mmj 31
mode 31
moomin@@ 31
multi@@ 31
mus 31
mw@@ 31
nh 31
nk@@ 31
no. 31
norns 31
nr@@ 31
ob11 31
open@@ 31
opp@@ 31
ori 31
pai@@ 31
palladium 31
pcs) 31
pei@@ 31
prius 31
pv@@ 31
py@@ 31
rement 31
rick 31
rmk 31
r·h· 31
s+@@ 31
s1-@@ 31
sabon 31
sandy 31
satchel 31
sea@@ 31
see@@ 31
sephora 31
sf-@@ 31
shan 31
shopping168 31
shop㊣ 31
sound 31
sound@@ 31
spirit 31
sport@@ 31
t00@@ 31
ta/@@ 31
tap@@ 31
tou@@ 31
travel@@ 31
t字 31
u2 31
u6 31
uno 31
v30 31
vapor@@ 31
vene@@ 31
vtech 31
w.lab 31
wr 31
x23 31
x30 31
xh@@ 31
y-3@@ 31
yaya 31
year 31
zc554 31
zh@@ 31
~~~~@@ 31
ɴ@@ 31
ᄋ 31
ᅮ 31
∴@@ 31
☚@@ 31
☼ 31
❉ 31
コ 31
ム@@ 31
メ@@ 31
三叉 31
业务员 31
东立 31
丫@@ 31
中音 31
丹丹 31
乾@@ 31
交错 31
亮肤 31
以及 31
企 31
伊曼 31
会馆 31
伯贤 31
伸缩@@ 31
佐料 31
你家 31
侬@@ 31
保险丝 31
信报箱 31
倒数 31
倪@@ 31
傅 31
克林 31
入组 31
八八@@ 31
公母 31
典礼 31
再生 31
冷藏箱 31
冻干 31
分开 31
切尔西 31
初夏 31
别致 31
制冷器 31
刷刷 31
剃头刀 31
前掌 31
勇气 31
包布 31
包饭 31
北市 31
南投 31
卡尔@@ 31
卫生衣 31
即发 31
卵@@ 31
压头 31
厚片 31
原型 31
去油 31
叉勺 31
发明 31
发绳 31
品乐家 31
哉 31
哨子 31
啪 31
喔喔 31
喜鹊 31
噢 31
围棋 31
坐骑 31
塞尔 31
墬@@ 31
大宝 31
大赛 31
夹.@@ 31
女裙 31
奴比@@ 31
妈咪) 31
始祖鸟 31
娟@@ 31
安安@@ 31
定妆@@ 31
寸: 31
对子 31
小将 31
小瓶 31
小盒 31
小颗 31
尼克@@ 31
展厅 31
峰@@ 31
布鲁@@ 31
布鲁斯 31
带电 31
幸福@@ 31
幺 31
廊@@ 31
弛 31
强悍 31
径@@ 31
微缩 31
心意 31
必败 31
悲@@ 31
惊魂 31
感恩节 31
手编 31
手铐 31
折扣@@ 31
抢眼 31
护身 31
抽风机 31
拉紧 31
拼音 31
指甲钳 31
按摩棒@@ 31
挚爱 31
挤牙膏 31
挥 31
提高 31
插线 31
搓@@ 31
摩儿 31
效果器 31
救生 31
救生圈 31
教养 31
旋律 31
旭@@ 31
时来运转 31
旻@@ 31
普罗旺斯 31
曼陀@@ 31
木柜 31
木片 31
机关 31
材质) 31
束发 31
枕边 31
棉t恤 31
椰子@@ 31
檀@@ 31
款-@@ 31
正方 31
殿@@ 31
每组 31
气管 31
氙气 31
汉方 31
汪喵 31
法斗 31
海杆 31
消暑 31
滑凉 31
漫步者 31
漫画@@ 31
潘朵拉@@ 31
火鸡 31
灰指甲 31
炙@@ 31
炫彩@@ 31
炫耀 31
烤肉架 31
烦@@ 31
焊枪 31
焕采 31
爱国者 31
爱玩 31
牌: 31
特斯拉 31
猫熊 31
玉山 31
玩具反斗城 31
现货_ 31
现货丶 31
玻璃钢 31
生气 31
甩卖 31
电) 31
电动@@ 31
电包 31
电梯 31
疫@@ 31
白酒 31
百夫长 31
盈@@ 31
眩@@ 31
眼仔 31
督 31
破解 31
碱性 31
票) 31
空军一号 31
立农 31
童) 31
第九 31
管器 31
簪子 31
精装@@ 31
紫红色 31
纤细 31
纯绵 31
纹布 31
练习器 31
组-@@ 31
绕线 31
维特 31
编织@@ 31
网球拍 31
老大 31
耐力 31
耳环. 31
肆 31
肌研 31
肤) 31
肾@@ 31
背) 31
胶垫 31
腥@@ 31
臻品 31
舖ღ 31
舞蹈鞋 31
航线 31
艺人 31
艾灸 31
花枝 31
草席 31
藏式 31
蚕@@ 31
行程 31
衔扣 31
褥@@ 31
览 31
请在 31
豌豆 31
贝印 31
财富 31
货物 31
走道 31
跪@@ 31
辫子 31
迪斯@@ 31
遇@@ 31
邱@@ 31
郑@@ 31
酒精@@ 31
酷乐 31
醋瓶 31
重建 31
钛晶@@ 31
银) 31
锭@@ 31
锯@@ 31
问号 31
际@@ 31
除氯 31
陨石 31
陶艺 31
雅马哈 31
需@@ 31
青轴 31
靖@@ 31
鞋/@@ 31
韦德 31
颐 31
风t恤 31
飞旋 31
食品袋 31
香浓 31
香火 31
香脆 31
香花 31
马桶@@ 31
骨干 31
魔法师 31
麻将桌 31
黄花 31
黏袋 31
鼻器 31
︱ 31
"+@@ 30
"/@@ 30
"\@@ 30
'est 30
(11@@ 30
(150@@ 30
(19@@ 30
(25@@ 30
(f) 30
(z@@ 30
(优) 30
(半 30
(台 30
(城邦 30
(有@@ 30
(第三 30
(红@@ 30
(银) 30
****@@ 30
+++ 30
-22@@ 30
-2色 30
-500 30
-k 30
.) 30
/e@@ 30
/usb 30
011 30
020 30
03/@@ 30
1.8/@@ 30
1090@@ 30
10m 30
110/@@ 30
1280 30
1400@@ 30
15.5 30
150x@@ 30
1999@@ 30
1f 30
2-3-4-@@ 30
2300 30
244 30
264 30
274 30
284 30
288@@ 30
29*@@ 30
3-12 30
3-5 30
3-6m 30
306@@ 30
30w 30
324@@ 30
33cm 30
34mm 30
35*@@ 30
40l 30
43-@@ 30
446 30
452 30
459 30
463 30
5-100 30
5.3 30
559 30
55mm 30
565@@ 30
578@@ 30
5th 30
5z 30
690@@ 30
717 30
789@@ 30
8-100 30
832@@ 30
8k 30
8w 30
9000 30
930@@ 30
989 30
_j005d 30
_z@@ 30
a01 30
aba@@ 30
acc 30
adata 30
ah8050@@ 30
aj7 30
allure 30
and1/2 30
ari 30
assc 30
atm 30
aven@@ 30
b4 30
bel 30
bin@@ 30
bloom 30
boutique 30
brisk 30
bye 30
c/ 30
caran 30
celine@@ 30
champion@@ 30
chance 30
coat 30
comm@@ 30
comme 30
coo 30
cosply 30
coupe 30
craftholic 30
cx5 30
d9 30
dan 30
deer 30
diana 30
din 30
ducati 30
dun@@ 30
dur@@ 30
duramo 30
e1 30
eclipse 30
efr@@ 30
eng 30
escape 30
eve 30
ey 30
f. 30
f4 30
fashion- 30
ffy@@ 30
find@@ 30
fir@@ 30
fire@@ 30
flower@@ 30
flu@@ 30
fs1@@ 30
furla 30
future@@ 30
gen 30
gogoro@@ 30
gon 30
gucci双g 30
havaianas 30
hguc 30
hh 30
hobby 30
honey@@ 30
hsieh 30
hype 30
hyper 30
h家 30
infiniti 30
iphone5s 30
iphonex/@@ 30
j'adior 30
j12 30
k70@@ 30
kb 30
kg/ 30
kiss@@ 30
lagerfeld 30
lazy 30
liqu@@ 30
lr 30
luggage 30
m.a.c 30
m10@@ 30
made@@ 30
mamba 30
med@@ 30
memo 30
mercedes-benz 30
mercier 30
mind 30
mm200 30
moomin 30
more@@ 30
nas 30
nds 30
nest 30
no: 30
nubra 30
official 30
organic 30
original@@ 30
ory 30
p8@@ 30
pa++++@@ 30
pallas 30
pam00@@ 30
park@@ 30
phe 30
pho@@ 30
pods 30
poe 30
proct@@ 30
quin@@ 30
rb-@@ 30
rca 30
ri 30
rn@@ 30
s76@@ 30
s9/@@ 30
saem 30
sas 30
satin 30
sd-@@ 30
shopsmart 30
sj 30
sko@@ 30
spe@@ 30
stre@@ 30
su: 30
superme 30
sus@@ 30
swi@@ 30
tailwind 30
talk 30
tek 30
terra 30
thinkpad 30
tk 30
tomytec 30
transcend 30
tree@@ 30
tto 30
tube 30
t恤m-xxl 30
t素t素 30
ultr@@ 30
v20@@ 30
vip@@ 30
viv@@ 30
wat@@ 30
whit@@ 30
wind@@ 30
wy@@ 30
x27 30
x8@@ 30
xmax 30
xu@@ 30
y- 30
yohji 30
yuan 30
zb602 30
zeta 30
ω@@ 30
이 30
┃ 30
▼@@ 30
♕@@ 30
✰ 30
め@@ 30
ノ@@ 30
ホ@@ 30
ャ@@ 30
㊣➊ 30
一律 30
三合一@@ 30
三日 30
三脚 30
上蜡 30
下杀^@@ 30
不锈钢@@ 30
专属) 30
丫买买铺 30
么 30
乌木 30
乐福 30
买一送@@ 30
五谷 30
什锦 30
休闲装 30
体操 30
供桌 30
保健食品 30
保湿乳 30
保证卡 30
信誉 30
修理 30
俱@@ 30
倒立 30
储存罐 30
僧 30
儿童文学 30
克莱@@ 30
公务 30
公斤) 30
六分 30
兰香 30
共有 30
其它 30
典) 30
冢 30
冷兵器 30
前戏 30
剧"@@ 30
包# 30
包车 30
北斗 30
半裙 30
单条 30
卡匣 30
卡片@@ 30
卡龙色 30
印制 30
卸除 30
厂牌 30
双人@@ 30
双心 30
双拍 30
口香糖 30
可触 30
合并 30
吉尔 30
含税 30
吮吸 30
告栏 30
呢@@ 30
咀@@ 30
咩@@ 30
哈瓦仕 30
哥吉拉@@ 30
唱机 30
啃咬 30
国) 30
国学 30
圆满 30
圣诞@@ 30
坐卧 30
壁贴 30
壮@@ 30
壹家壹 30
处理@@ 30
复杂 30
夏季@@ 30
多用途 30
大孔 30
大披肩 30
大棚 30
天下@@ 30
天竺 30
头层 30
奎 30
套书 30
女伶 30
女星 30
女百 30
妇婴 30
妊娠 30
妮可 30
娃娃) 30
婴儿@@ 30
嬉皮 30
孕期 30
安全套 30
官网 30
宝罗宠品 30
导论 30
小公 30
小兵 30
小卖 30
小巷 30
小版 30
小跑 30
小黄瓜 30
尤加 30
尬 30
展会 30
岗@@ 30
巫 30
巴斯夫 30
布质 30
帆@@ 30
希尔思 30
带宽 30
平板车 30
年前 30
幽默 30
弓@@ 30
快艇 30
惹 30
战地 30
所以 30
扣扣 30
扭伤 30
扶梯 30
投币 30
报告 30
拆卖) 30
拉斯@@ 30
招财@@ 30
拟@@ 30
拯救 30
接着 30
推推 30
播种@@ 30
撸@@ 30
操作台 30
收藏版 30
整型 30
文明 30
斯拉 30
新增 30
方案 30
无影 30
日落 30
旺角. 30
星球大战 30
暗扣 30
曾@@ 30
朔 30
朗基 30
木心 30
木木 30
本命 30
本舖"@@ 30
机. 30
机智 30
村上隆 30
枚) 30
柄@@ 30
柜角 30
标贴 30
桌下 30
桑葚 30
梦想家 30
棕) 30
楠木 30
樱木花道 30
水晶@@ 30
水道 30
汽座 30
沙发毯 30
沙棘 30
泊@@ 30
法棍 30
洒水壶 30
洗发@@ 30
洗衣盆 30
活泼 30
流苏@@ 30
浇@@ 30
浇水 30
浪板 30
海关 30
涤@@ 30
深绿色 30
添加剂 30
渐@@ 30
湖人队 30
潘@@ 30
潜水艇 30
潮包 30
澈 30
澳门 30
火神 30
炭治郎 30
烛光 30
熔 30
爆款#@@ 30
爱小 30
版画 30
牌底 30
牙套 30
牵@@ 30
犬泰迪 30
狙击@@ 30
献@@ 30
玻 30
玻璃窗 30
球类 30
瓶/@@ 30
生物@@ 30
电焊机 30
略@@ 30
痕@@ 30
白云 30
白兰氏 30
百叶 30
百货) 30
百货@ 30
皂机 30
益菌 30
盔@@ 30
盘点 30
盟@@ 30
直板 30
相纸 30
短帘 30
短毛 30
矿灯 30
码头 30
研究室 30
硬派 30
磁贴 30
磷 30
示范 30
礼物@@ 30
祐@@ 30
窈窕 30
笙@@ 30
第6 30
筑@@ 30
简报 30
箔@@ 30
絮 30
红袍 30
纸板 30
绒被 30
绚丽 30
绝版) 30
编程 30
美) 30
美能 30
羔羊 30
翊@@ 30
耗@@ 30
聊@@ 30
联府 30
肉感 30
肌板 30
胶囊@@ 30
脆@@ 30
艺兴 30
节棍 30
芬兰 30
芹@@ 30
苹 30
蛋) 30
蝎 30
行走 30
补水 30
补胎 30
装订 30
西方 30
观察 30
训练@@ 30
证照 30
详情 30
豚 30
貍@@ 30
负担 30
财金 30
货品 30
购入) 30
贴布 30
贷款 30
起毛 30
趟 30
轮盘 30
轴心 30
辉煌 30
返 30
迷恋 30
退货 30
配线 30
酿酒 30
量: 30
金玉 30
金石 30
金黄色 30
鉴定@@ 30
钓箱 30
钗 30
钻钻 30
铉 30
锅子 30
镜头@@ 30
长款 30
门号 30
门边 30
防御 30
阿卡@@ 30
集美 30
雨林 30
雪花@@ 30
雷诺 30
霖@@ 30
青轴@@ 30
鞋鞋 30
须@@ 30
领夹 30
领导 30
风速 30
飘香 30
飞行@@ 30
餐馆 30
饱@@ 30
饱满 30
骄@@ 30
高帮 30
鱼) 30
鱼具 30
鸡汤 30
黄瓜 30
黑色素 30
＄ 30
"- 29
"不@@ 29
#\n 29
$500 29
(22 29
(30@@ 29
(5) 29
(一盒 29
(专属 29
(专柜 29
(全馆 29
(实 29
(实拍 29
(尺 29
(灰色) 29
(版 29
(精装) 29
(红色 29
(自 29
(香奈儿) 29
-008 29
-05@@ 29
-140@@ 29
-250 29
-32@@ 29
-35@@ 29
-50@@ 29
.c 29
.gucci 29
/1000 29
0.33 29
004@@ 29
011@@ 29
012 29
014@@ 29
017 29
02/@@ 29
1.8l 29
1/2/@@ 29
1009 29
1155 29
12g 29
12v24v@@ 29
1350 29
1360@@ 29
187@@ 29
1900@@ 29
1950 29
2-6 29
2017/@@ 29
26) 29
269 29
28-36 29
29吋 29
3.5吋 29
308364 29
336@@ 29
348 29
357 29
386 29
394 29
3v 29
3三 29
40-47 29
454 29
456@@ 29
50w 29
515 29
516 29
538@@ 29
550ml 29
566 29
5q 29
621 29
652 29
725 29
756 29
788 29
7d 29
7plus/@@ 29
8637@@ 29
895 29
8g/@@ 29
90*@@ 29
900g 29
911@@ 29
92-@@ 29
920 29
942842-@@ 29
:00 29
@@@@ 29
a13@@ 29
abo@@ 29
aco 29
ah80@@ 29
airmax 29
anna@@ 29
arc@@ 29
aro 29
ated 29
bau@@ 29
betta 29
blackmores 29
bose 29
bt-@@ 29
butter 29
c- 29
c8 29
calvinklein 29
cath 29
cb-@@ 29
cc霜 29
centurion 29
cher 29
cm" 29
continental 29
cr-@@ 29
crocodile 29
ddr3 29
doll@@ 29
doremi 29
dr.satin 29
dress@@ 29
dz 29
ely 29
ere 29
ettusais 29
f) 29
f3.5 29
f9@@ 29
fat@@ 29
fb: 29
fiel@@ 29
figure 29
fix 29
f赏 29
g10 29
gate 29
gn-@@ 29
goods@@ 29
gucci/@@ 29
guccl 29
hai@@ 29
hdmi@@ 29
hill 29
hooded 29
ifme 29
ikids♬@@ 29
impreza 29
instapump 29
international 29
iphone6/6s/@@ 29
iphone6s/@@ 29
ira 29
j72016 29
j8 29
joi@@ 29
js@@ 29
jur@@ 29
kd-@@ 29
keepall 29
ket@@ 29
kinloch 29
kitchen 29
lumin@@ 29
lw-@@ 29
ly00@@ 29
m11 29
m40156 29
m60017 29
m62@@ 29
ma1 29
mania 29
map 29
marco 29
martin 29
max2 29
mf 29
microsd 29
milk 29
mivue 29
ml/50 29
mm- 29
mondeo 29
move 29
mun@@ 29
mx-@@ 29
nak@@ 29
nf@@ 29
nice@@ 29
nicole 29
nie@@ 29
noname 29
off@@ 29
ops 29
peli@@ 29
pentax 29
phy@@ 29
pod-s3.1 29
r&@@ 29
rebecc@@ 29
rel@@ 29
rene 29
retina 29
rival 29
rj 29
rogue 29
rol@@ 29
round 29
san-x@@ 29
sao 29
see 29
skyline 29
slo@@ 29
so-@@ 29
some 29
ssi@@ 29
ssk 29
steam@@ 29
stitch 29
sup@@ 29
swee@@ 29
this 29
tilbury 29
tion 29
tsai 29
tucson 29
twin@@ 29
t大学 29
u11+@@ 29
ui 29
une 29
v5@@ 29
venomenon 29
vichy 29
viii 29
w&@@ 29
was@@ 29
woman 29
x-trail 29
xe 29
xxx 29
yozu 29
zara@@ 29
zenfone2 29
zp 29
zs570 29
ღ*玛琪朵 29
ᅦ 29
ᆨ 29
ᴀ@@ 29
∞ 29
∼@@ 29
┋秒 29
╭ 29
△ 29
☆兔兔 29
の家 29
ター 29
ッ 29
ㄅ@@ 29
一路@@ 29
万能@@ 29
三彩 29
上线 29
下杀$@@ 29
不对 29
丝缎 29
丝衫 29
丝雪肌 29
丧 29
中华民国 29
中山 29
中秋节 29
亚历山大 29
亚版 29
交锋 29
仆@@ 29
仑@@ 29
代币 29
优胜 29
优选@@ 29
伤口 29
伯特 29
体育@@ 29
你好 29
保真 29
俪@@ 29
儒 29
儿歌 29
光小语 29
光帘 29
光彩 29
公主@@ 29
养生@@ 29
凉水壶 29
凯蒂猫@@ 29
函@@ 29
分享器 29
分装) 29
利斯 29
剥皮 29
剪子 29
努 29
势不可挡 29
勇敢 29
匀@@ 29
单人@@ 29
单向 29
博基尼 29
卜 29
压克力@@ 29
厚底@@ 29
双勾 29
双钩 29
发网 29
叛 29
口内 29
可选 29
各色 29
吉娃娃 29
吊牌 29
同时 29
后街 29
吐@@ 29
吞 29
周末 29
品客 29
哦@@ 29
哪里 29
售后 29
啵@@ 29
喜气 29
噜噜 29
回购 29
圆领t 29
土星 29
圭@@ 29
地下室 29
场合 29
垦丁 29
复合式 29
外汇 29
外翻 29
夜行 29
大圣 29
天丝@@ 29
天神 29
太古 29
太妃糖 29
奇桌游 29
奇葩 29
奈子 29
妲@@ 29
孤 29
学家 29
安东尼 29
安全门 29
定座 29
宝岛 29
家俱 29
寥寥 29
尊爵 29
小摆设 29
小锅 29
小雅 29
局部 29
层) 29
展板 29
展示板 29
山田 29
布鲁托 29
帽加绒 29
平底凉 29
序@@ 29
开启 29
弹力布 29
律师 29
怪手 29
悍@@ 29
悬 29
战舰 29
房顶 29
扁头 29
托鞋 29
扶手椅 29
技能 29
拨@@ 29
持@@ 29
挂机 29
指示 29
挑色) 29
接环 29
提灯 29
插手 29
插板 29
播种 29
收涎 29
改版 29
新包 29
新闻 29
方便面 29
无名 29
昊@@ 29
明火 29
星星@@ 29
星河 29
晓晓 29
晟 29
晟@@ 29
晨露 29
暗影 29
更衣室 29
有余 29
有型 29
未用 29
术后 29
村秀 29
果仁 29
果酸 29
架子@@ 29
架式 29
树林 29
梧桐 29
棒. 29
棒球手套 29
椅) 29
植物性 29
次氯酸 29
歇@@ 29
殿下 29
毛球 29
气色 29
氧化 29
水晶绒 29
水网 29
水面 29
江湖 29
污垢 29
汽车蜡 29
油条 29
油水 29
泰勒 29
洗) 29
洛特 29
活水 29
测距仪 29
测量仪 29
浮夸 29
海绵@@ 29
海草 29
海陆 29
润肌 29
添@@ 29
清单 29
港风 29
湿度 29
滑冰 29
灰黄 29
炊具 29
烘碗机 29
烛 29
热带鱼 29
热爱 29
熬@@ 29
爱玛@@ 29
爷@@ 29
版. 29
牙粉 29
犄角 29
猴年 29
玛莎拉蒂@@ 29
球器 29
瑞克 29
瑞拉 29
瑯@@ 29
璃@@ 29
瓜果 29
生日蛋糕 29
电话线 29
疹 29
百伦@@ 29
皙 29
皮克斯 29
皿@@ 29
益生菌 29
盐味 29
盒/@@ 29
盘大 29
石) 29
碳酸 29
祈愿 29
祝 29
票券 29
祯 29
福冈 29
秘诀 29
积木@@ 29
立坽 29
童舖 29
等等 29
篷@@ 29
粉末 29
粉色) 29
粉黄 29
粒子 29
系绳 29
红人 29
红盘 29
纯度 29
纱布巾 29
纳福 29
线路 29
织物 29
羊羊 29
美人@@ 29
美容师 29
老板@@ 29
耕@@ 29
耽美 29
肠胃 29
肩宽 29
胖mm 29
胡椒粉 29
脉@@ 29
脱皮 29
自创 29
自杀 29
舒丹@@ 29
舖★ 29
舞毯 29
节能灯 29
芹 29
苔@@ 29
苦瓜 29
英汉 29
荳荳 29
菜盆 29
菜菜 29
萨波 29
蓝黑色 29
蔚蓝 29
藏传 29
蛋白@@ 29
蝇@@ 29
袁 29
装饰布 29
裕隆 29
裸装 29
观世音 29
言情 29
计划@@ 29
诊所 29
语文 29
豚@@ 29
象征 29
贝比@@ 29
贝缇 29
贯通 29
贴.@@ 29
贴纸) 29
赠品) 29
蹒 29
辈 29
辑@@ 29
过膝靴 29
送) 29
速写 29
邮筒 29
配件) 29
重新 29
量身 29
钙@@ 29
钢铁侠 29
铝镁合金 29
铬@@ 29
铺☆ 29
铺床 29
阿信 29
降落伞 29
限制级 29
除垢 29
除毛器 29
除霉 29
隔断帘 29
隔间 29
雕刻刀 29
青梅 29
青草 29
青金石 29
面筋 29
鞘 29
顿@@ 29
颜色) 29
飨宴 29
餐台 29
马尔@@ 29
马毛 29
驴 29
骇客 29
鱼丸 29
鲜艳 29
鲤 29
鸡皮 29
鹅卵石 29
黄蜂 29
黎明 29
黑米 29
!!) 28
"a@@ 28
"爱 28
$新货 28
&g 28
(15@@ 28
(18 28
(a) 28
(八 28
(内含 28
(卡 28
(售出) 28
(圣 28
(左 28
(种子 28
(臻 28
(黄色) 28
*4 28
-005 28
-006 28
-27 28
-29 28
-37@@ 28
/7 28
07/@@ 28
1005 28
1011@@ 28
1167@@ 28
16.5 28
17*@@ 28
1729 28
189@@ 28
1: 28
1tb@@ 28
20000@@ 28
219@@ 28
22.@@ 28
23c 28
245@@ 28
24v@@ 28
26-@@ 28
2l@@ 28
2吋 28
313 28
317@@ 28
344 28
37) 28
378@@ 28
407@@ 28
40w 28
458 28
45g 28
493 28
5% 28
5-17 28
5.8吋 28
5/5s 28
513@@ 28
567 28
569 28
574@@ 28
6.9 28
60x@@ 28
657 28
698 28
7.3 28
7.9 28
70*@@ 28
708@@ 28
751 28
760 28
774 28
7p/@@ 28
807 28
812 28
8450@@ 28
845@@ 28
8524@@ 28
8v 28
929@@ 28
987 28
a&m 28
a92018 28
addict 28
addiction 28
adr 28
alan 28
amigo@@ 28
angeles 28
apink 28
ar16@@ 28
armor 28
ations 28
aura 28
b& 28
b375@@ 28
balance/nb 28
balea 28
bdsm 28
beetle 28
blu-ray 28
bq415@@ 28
build 28
bx@@ 28
captain 28
crazy@@ 28
c款 28
daytona 28
diet 28
dior/迪奥 28
dog@@ 28
e" 28
e-books 28
e90 28
eda 28
electrolux 28
ena 28
fc-@@ 28
fei 28
flair 28
fleur 28
forest 28
forester 28
four 28
g# 28
gao 28
gd-@@ 28
gf 28
gj@@ 28
glam@@ 28
gor 28
grandista 28
group 28
gv@@ 28
h.c 28
hallmark 28
hoo 28
hq@@ 28
hua 28
hur@@ 28
i-style 28
ingo 28
innisfree@@ 28
inno@@ 28
irene 28
ition 28
j000@@ 28
jewel 28
jumbo 28
kanahei 28
kang@@ 28
katze 28
keep 28
kiko 28
kj@@ 28
kors@@ 28
l/xl 28
lak@@ 28
lbj13 28
lj 28
logy 28
lthr 28
ltp-@@ 28
lv零 28
m2r 28
m50@@ 28
m54@@ 28
mamonde 28
mat 28
maxi 28
microsoft 28
mini-@@ 28
miui 28
mkb 28
mp5 28
mrl247@@ 28
multiple 28
n\n@@ 28
neogence霓 28
nit@@ 28
note8pro 28
offwhite 28
our 28
p&g 28
pas@@ 28
phyto 28
piano 28
pit@@ 28
pocky 28
pper 28
press 28
r7s 28
rd-@@ 28
revlon 28
rita 28
rowa 28
sain@@ 28
schwarzkopf 28
seagate 28
season 28
seoul 28
set@@ 28
shm 28
shock@@ 28
shoe 28
soft99 28
soo@@ 28
sou 28
spf 28
stan@@ 28
ste 28
stream 28
sugar@@ 28
swisse 28
trey 28
trunk 28
ttbooks 28
twm 28
t恤男 28
t爱 28
u1 28
uf@@ 28
ux 28
vap@@ 28
veer 28
vie@@ 28
vin 28
vis 28
vision 28
volu@@ 28
w1 28
warm 28
well@@ 28
woo 28
wt-@@ 28
xd@@ 28
yan 28
z.@@ 28
zd@@ 28
zer 28
zer@@ 28
zp* 28
zs-@@ 28
zx750 28
¥ 28
ᄅ@@ 28
‖@@ 28
▸ 28
◄ 28
☽ 28
❆@@ 28
け@@ 28
も@@ 28
ツ@@ 28
ニ@@ 28
ョ@@ 28
ㄇ 28
一拳 28
七七 28
三千 28
丫店 28
中医 28
主妇 28
之梦 28
五指 28
交响@@ 28
亿@@ 28
他@@ 28
众星 28
优品 28
优惠# 28
优惠券 28
会员卡 28
会话 28
伯伦 28
伺服器 28
低压 28
供应@@ 28
促销&@@ 28
借 28
假山 28
催 28
傻@@ 28
元件 28
充满 28
光光 28
克杯@@ 28
全员 28
全新. 28
公开 28
六折 28
兰仕 28
共和国 28
内胎 28
军团 28
冲刺 28
凋 28
出售) 28
出版) 28
出版社@@ 28
函 28
初见 28
制. 28
前进 28
剔@@ 28
剪剪 28
剪影 28
加倍 28
加厚型 28
加藤 28
升降机 28
单单 28
博世 28
厝 28
发出 28
发束 28
发膏 28
古巴@@ 28
句@@ 28
可口 28
可食用 28
台历 28
吊袜带 28
含水 28
呐 28
品格 28
哆啦a梦 28
唤醒 28
喀@@ 28
喇 28
团团 28
固定@@ 28
坎@@ 28
坛子 28
垂耳 28
塔罗@@ 28
塞尔@@ 28
壹号店@@ 28
复式 28
夏天@@ 28
大便 28
大器 28
大头@@ 28
大富翁 28
大树 28
大鼻子 28
太极@@ 28
套裙 28
好莱坞 28
妇女 28
妈☆ 28
姨妈 28
媳妇 28
守护者 28
安全网 28
宙斯 28
实力 28
宾士w@@ 28
寂寞 28
寄) 28
寄送) 28
密语 28
对照 28
小栈 28
小菜 28
小虾 28
屉 28
屠@@ 28
山茶 28
工匠 28
工笔 28
左边 28
已经 28
币@@ 28
带板 28
常用 28
平方 28
床头板 28
建构 28
弓箭 28
弹簧@@ 28
录音@@ 28
心手 28
心电图 28
必读 28
性能 28
恋恋 28
息@@ 28
恶名昭彰 28
戟 28
手写板 28
扑克 28
打洞@@ 28
扫描@@ 28
扯 28
技g@@ 28
抗风 28
折现 28
担@@ 28
拉丁舞 28
招考 28
排水孔 28
接地 28
掰 28
插页 28
搬运 28
搭裤 28
摄影@@ 28
收到 28
效应 28
敏镐 28
整合 28
斯卡@@ 28
新星 28
日间 28
易峰 28
春夏@@ 28
昼@@ 28
显影 28
晒网 28
暑 28
暖意 28
暗红 28
暴雨 28
曙光 28
曼尼 28
月付 28
有点 28
木凳 28
本: 28
本体 28
机防 28
杀$@@ 28
杀│@@ 28
杓@@ 28
松露 28
株式会社 28
格: 28
栽@@ 28
棉针织 28
椰子树 28
款式@@ 28
毛) 28
气功 28
气密 28
氢 28
氧化@@ 28
水牌 28
法会 28
泡椒 28
泡泡糖 28
泰亨 28
活体 28
浦@@ 28
涵涵 28
深棕色 28
灌溉 28
灰蓝色 28
炒面 28
炖盅 28
爬山 28
爱妳]☆ 28
父@@ 28
牙科 28
牛头 28
特务 28
狗狗@@ 28
狮@@ 28
玛利欧 28
环氧树脂 28
珮 28
琳瑯 28
琼 28
电烙铁 28
电视剧 28
登月 28
百日 28
盆子 28
直通 28
眼圈 28
矽藻土 28
砚台 28
硫 28
碎片 28
社区 28
社长 28
神社 28
秀美 28
租屋 28
穹@@ 28
穿墙 28
笋 28
第十 28
筏@@ 28
签到 28
算盘 28
管钳 28
篇) 28
簸箕 28
米勒 28
米白 28
粪 28
精典 28
糖罐 28
糙米 28
繁星 28
红铜 28
红鞋 28
纸张 28
组合) 28
绅@@ 28
细长 28
结石 28
绫 28
绿蓝 28
缇花@@ 28
缸@@ 28
网) 28
罗兰@@ 28
美甲@@ 28
翅 28
老牌 28
老茧 28
耳套 28
耶稣 28
肉桂 28
脆皮 28
脊@@ 28
脐@@ 28
脐带 28
脱水机 28
脸池 28
脾@@ 28
舌舔 28
般若 28
苍 28
茉莉@@ 28
荡@@ 28
莹@@ 28
菁@@ 28
菁萃 28
萱@@ 28
蒜头 28
蓝白 28
蕨@@ 28
蛋糕@@ 28
蜂蜡 28
蜗 28
蜡皮 28
衫男 28
袋泡茶 28
裁纸机 28
裸妆@@ 28
裸石 28
观念 28
计量 28
记忆@@ 28
讲课 28
话梅 28
调整器 28
财源 28
货币 28
超霸 28
足印 28
路板 28
车垫 28
车辆 28
转身 28
软布 28
输) 28
连帽帽t 28
遮瑕@@ 28
郝 28
酸辣 28
量级 28
金/@@ 28
金钟 28
金鸡 28
金黄金 28
钢丝钳 28
铠@@ 28
锡纸 28
镍 28
长寿 28
门器 28
防雨布 28
附件 28
降价@@ 28
随书 28
雪纳@@ 28
震撼 28
霏@@ 28
面漆 28
鞋跟 28
顶天立地 28
顽@@ 28
风流 28
香木 28
马裤 28
马里奥 28
高尚 28
鬃毛 28
鬼脸 28
鱼干 28
鲁鲁@@ 28
ｄ 28
"大 27
"超 27
#4 27
( 27
(100@@ 27
(14 27
(14@@ 27
(armani) 27
(for 27
(q@@ 27
(中文 27
(林 27
(欢迎 27
(紫) 27
(编号 27
(迪 27
-013 27
-3色 27
-925 27
-k@@ 27
-p 27
.5x 27
.小 27
/100 27
05070 27
060@@ 27
0k 27
1% 27
1/24 27
101@@ 27
102@@ 27
110g 27
1119 27
1210 27
13mm 27
150mm 27
16a 27
17/@@ 27
2.1a 27
20200@@ 27
2022 27
249@@ 27
2500@@ 27
26cm 27
279 27
2r 27
2z 27
3# 27
3.6 27
30000 27
30l 27
3300 27
359 27
3600 27
366@@ 27
378 27
38-46 27
395 27
468 27
488@@ 27
4b 27
5/6 27
527@@ 27
565 27
605@@ 27
611 27
622@@ 27
674 27
6v 27
7.8 27
725@@ 27
7500 27
755@@ 27
7x 27
80*@@ 27
828 27
864@@ 27
88-@@ 27
882 27
883 27
885 27
899 27
899@@ 27
8m 27
8t 27
9-100 27
9-12 27
926 27
930 27
945 27
9d 27
ab0@@ 27
agf 27
ago 27
album 27
alien 27
ame 27
andy 27
ape@@ 27
api@@ 27
arm 27
atx 27
audio 27
bao@@ 27
baobao 27
battle 27
bay 27
beaute 27
beige 27
blan@@ 27
bv007@@ 27
c12 27
cf-@@ 27
chapeau 27
cia 27
clio@@ 27
clo@@ 27
co- 27
cocod@@ 27
company 27
cookie 27
cz 27
d'ache 27
dailo 27
dea 27
defiant 27
dic@@ 27
dr-@@ 27
dra@@ 27
dsquare@@ 27
duplo 27
dvd9 27
e60 27
e63 27
e9+@@ 27
echo 27
eg 27
emily 27
esprit 27
e赏 27
fab@@ 27
frando 27
freestyle] 27
french 27
from 27
fs-@@ 27
g*10 27
g2000 27
g8@@ 27
ges 27
global 27
grand@@ 27
guilty 27
here 27
hermes@@ 27
hin 27
holic 27
hope 27
how 27
hung 27
i'm 27
ings 27
iniki 27
iphonexsmax 27
irobot 27
itas 27
jabra 27
japan@@ 27
jd-@@ 27
jl@@ 27
jol@@ 27
jou@@ 27
justin 27
k&@@ 27
k2g@@ 27
kc-@@ 27
kidston 27
kimi 27
kitty/ 27
kumamon 27
lc-@@ 27
le-@@ 27
ler@@ 27
lets 27
lex@@ 27
lic 27
lillard 27
lim 27
lips 27
lisalisa@@ 27
little@@ 27
lt-@@ 27
m18 27
max95 27
mb/s 27
mba 27
moda 27
moony 27
motor@@ 27
movie 27
n412@@ 27
n5@@ 27
napolex 27
nb247 27
ncc 27
non@@ 27
nyc 27
nz@@ 27
omega@@ 27
on-@@ 27
onia 27
ord@@ 27
ore@@ 27
ours 27
outlander 27
peau 27
peugeot 27
philipp@@ 27
plr 27
polar 27
poli@@ 27
pos 27
produ@@ 27
pureboost 27
q2 27
ran@@ 27
rav@@ 27
recol@@ 27
rika 27
rio 27
rivalry 27
s-3@@ 27
s-xx@@ 27
s11 27
s7edge 27
scotch 27
seed@@ 27
shang 27
shop- 27
shopp@@ 27
sia 27
simply 27
six@@ 27
sle@@ 27
sml 27
sol@@ 27
sole 27
song 27
sor@@ 27
spm 27
springs 27
sti 27
stock 27
swagger 27
tation 27
tattoo 27
thebuy-@@ 27
thi@@ 27
toryburch 27
tran@@ 27
t圆领 27
t宽松 27
t帽t 27
ud 27
ui@@ 27
ula 27
ult 27
usm 27
ut@@ 27
v8@@ 27
vicky 27
victoria 27
vol 27
wp 27
x00 27
x3@@ 27
xz3 27
y/@@ 27
y17 27
yee@@ 27
ym 27
ys-@@ 27
ᄇ@@ 27
₳@@ 27
ⅱ 27
│新品 27
┥ 27
★送 27
☆polly 27
☆尚☆ 27
☆爱 27
☆现货 27
♪♪@@ 27
✐@@ 27
✽ 27
え@@ 27
し 27
そ@@ 27
テ 27
ナ 27
一罐 27
三元 27
三四@@ 27
中部 27
之间 27
乐儿 27
乐芙 27
乖@@ 27
书坊@@ 27
书斋 27
书豪 27
乳酸 27
云豹 27
仗 27
伶@@ 27
体恤衫 27
便利商店 27
修补膏 27
修订 27
元旦 27
充气@@ 27
光片 27
免提 27
六边形 27
关门 27
养身 27
内藏 27
冒@@ 27
农夫 27
冲量 27
冲锋@@ 27
冷感 27
凯撒 27
刀具架 27
分线器 27
划线 27
刷毛 27
剂) 27
剧院 27
动动 27
劵@@ 27
北海 27
十二@@ 27
华为@@ 27
华人 27
华尔@@ 27
协会 27
单相 27
博柏利巴 27
卡包@@ 27
卡林@@ 27
厂件 27
厌 27
叁@@ 27
友友 27
双f 27
双拼 27
双核 27
反光镜 27
反射 27
反派 27
发叉 27
发师 27
发胶 27
台卡 27
号#@@ 27
合式 27
吋大 27
吐血 27
吧@@ 27
呆呆 27
周转 27
哀@@ 27
哔@@ 27
哥特 27
唇膏@@ 27
唷@@ 27
啡@@ 27
噜噜米@@ 27
器/@@ 27
国家队 27
图画 27
培育 27
增发 27
壁扇 27
夜叉 27
夜钓 27
大姨妈 27
大意 27
大礼 27
夺@@ 27
奈奈 27
奔跑 27
女衬衫 27
威威 27
娘@@ 27
子家 27
字贴 27
完工 27
实践 27
宠物@@ 27
家. 27
家居馆 27
富丽 27
寸衫 27
寺庙 27
小喵 27
小店@@ 27
小柜 27
尺子 27
尺码) 27
尼亚 27
尼克斯 27
尼尔 27
山口 27
巡回 27
巨型 27
巾/@@ 27
布书 27
布纹 27
布置@@ 27
希尔顿 27
帮套 27
庆祝 27
床子 27
度计 27
开光 27
异想 27
彩虹@@ 27
彭@@ 27
徕福 27
心脏 27
心面 27
恒星 27
恕 27
恼 27
意者 27
戏服 27
战利品 27
房客 27
手势 27
手机游戏 27
打开 27
扫帚 27
抄@@ 27
拉娜 27
拼板 27
拾音器 27
挂饰 27
指挥@@ 27
捌@@ 27
捕手 27
探测 27
探险@@ 27
揉面 27
插孔 27
搬 27
摩擦 27
摩斯 27
摸@@ 27
收录 27
故事@@ 27
教条 27
文艺@@ 27
斑霜 27
斯/@@ 27
斯摩@@ 27
新天鹅堡 27
方枕 27
旋转@@ 27
无尽 27
无忧 27
无羡 27
日月潭 27
日货@@ 27
昭 27
普普风 27
暑假 27
期限@@ 27
末日 27
机械手 27
机组 27
杀人鲸 27
杯器 27
杰拉 27
板子 27
板手 27
极薄 27
果糖 27
柿 27
格力 27
桌儿 27
桑蚕 27
楔形 27
楦 27
横线 27
欧意 27
欧盟 27
死海 27
比较 27
毛巾被 27
水族馆 27
汰 27
沧海 27
油精 27
油膜 27
波罗@@ 27
洁面@@ 27
洗涤 27
测温 27
淇@@ 27
添加@@ 27
渴望 27
滑雪@@ 27
澳@@ 27
濑 27
火锅@@ 27
灰色) 27
灿@@ 27
热转印 27
燕尾 27
爪子 27
爱尔@@ 27
版t 27
牌子 27
牢 27
牧牧 27
狙击 27
狩猎 27
狸@@ 27
玉佩 27
王妃 27
王源 27
玛丽珍 27
玩具) 27
现货☆ 27
玻璃水瓶 27
班服 27
瑜@@ 27
瓦楞纸 27
瓶罐 27
甄@@ 27
用品) 27
用家 27
电绣 27
电通 27
男m-3xl 27
男段 27
留学 27
登高 27
白晶 27
皮克 27
盒饭 27
相遇 27
看护 27
矩@@ 27
砖墙 27
硅藻 27
硕珍 27
福尔摩斯 27
私讯 27
符合 27
米其林 27
米米 27
糖浆 27
糯@@ 27
紧器 27
红红 27
约克 27
绍@@ 27
经销 27
绞 27
绸@@ 27
网友 27
羊奶 27
美商 27
翅@@ 27
翘@@ 27
翡翠@@ 27
翻译@@ 27
耐热玻璃 27
耳环s925 27
聚焦 27
肤水@@ 27
肤质 27
背带) 27
胶粘 27
脱发 27
脱毛机 27
膨@@ 27
臂力器 27
自爱器 27
自由@@ 27
臭味 27
舔 27
舖) 27
艺妓 27
艾米丽 27
花盒 27
苏拉 27
若素家@@ 27
茶香 27
药品 27
获@@ 27
菇菇 27
萧@@ 27
蓝牙 27
薏@@ 27
藏书 27
蚊液 27
蛙式 27
蝙蝠衫 27
螺栓 27
衫m-2xl 27
袋.@@ 27
裁判 27
装. 27
西亚 27
西洋@@ 27
覆盆子 27
观音@@ 27
详 27
谋 27
谎言 27
豪迈 27
貂毛 27
贰 27
费) 27
赛尔 27
赵@@ 27
起源 27
超时空 27
超自然 27
超薄型 27
躲猫猫 27
辛巴@@ 27
边) 27
达尔文 27
运用 27
迪特 27
选择@@ 27
遮阴 27
郡@@ 27
配方) 27
金牛 27
针线盒 27
钛金@@ 27
钞@@ 27
钢刀 27
钢门 27
铁环 27
铁锹 27
铠 27
银红 27
长大衣 27
防尘@@ 27
阵@@ 27
阿卡将 27
阿拉伯 27
阿胶 27
阿飞 27
除草 27
陷 27
难度 27
雷电 27
霓虹 27
霾@@ 27
靡 27
靴潮 27
韧 27
韧@@ 27
预计 27
领袖 27
颈项 27
风情@@ 27
马可 27
魔术师 27
鹦@@ 27
麻豆 27
黑茶 27
龄犬 27
＂ 27
"* 26
"3 26
"新 26
"正 26
"美@@ 26
&& 26
(13@@ 26
(250 26
(600 26
(促 26
(促销 26
(多色 26
(时尚 26
(最 26
(金色) 26
*6 26
-009 26
-48 26
-lv 26
-o 26
-x 26
.二手 26
.日本 26
/6@@ 26
/9 26
/橘 26
015 26
020@@ 26
040@@ 26
1-12 26
1-7@@ 26
1.0@@ 26
1/2/3 26
1003 26
1004 26
1006 26
1011 26
110v@@ 26
1110088@@ 26
11mm 26
12.7 26
125/@@ 26
12w 26
1701 26
184@@ 26
19.5 26
1:64 26
2/1 26
2/3 26
2003年 26
2004年 26
2022年 26
2025 26
21) 26
28吋 26
298@@ 26
2n@@ 26
2w 26
3-3@@ 26
309@@ 26
35x@@ 26
36) 26
371 26
381 26
392 26
3way 26
40--@@ 26
416@@ 26
433@@ 26
445 26
45) 26
466 26
474 26
486 26
495@@ 26
4i 26
4v 26
50*@@ 26
5001 26
5050 26
524@@ 26
555088-@@ 26
6-12m 26
6-7-8-@@ 26
6.13 26
60w 26
619 26
623@@ 26
626 26
636@@ 26
65/@@ 26
667 26
695 26
7-12 26
715 26
716@@ 26
723@@ 26
740 26
75% 26
781 26
782 26
812@@ 26
864 26
889 26
8c 26
9-10 26
921826-@@ 26
921826@@ 26
9ml 26
????@@ 26
@^ 26
a19@@ 26
a59 26
acti@@ 26
ado 26
aldo 26
angle 26
anni@@ 26
arena 26
arm@@ 26
aroma 26
artist 26
aw-@@ 26
aya 26
az 26
babygap 26
bal 26
band 26
birkenstock 26
books 26
bour@@ 26
bre 26
c11 26
c180 26
camp@@ 26
cav@@ 26
cc) 26
cell@@ 26
ces 26
check 26
chin 26
cl-@@ 26
closet 26
cn 26
cole 26
cologne 26
colt 26
come@@ 26
concert 26
cosplay@@ 26
cost@@ 26
cph@@ 26
czmmsn54 26
c家 26
darphin 26
dd* 26
deli@@ 26
deni@@ 26
dge 26
dior包包 26
dis@@ 26
dsq2 26
dunlop 26
d扣 26
e9@@ 26
earth@@ 26
eds 26
enjoy 26
ent 26
est 26
f50@@ 26
f8 26
fair@@ 26
fc789 26
foo@@ 26
foot 26
g-0@@ 26
gaga 26
gee@@ 26
gel@@ 26
glass 26
glo@@ 26
gn 26
god@@ 26
godzilla 26
goomea 26
gun 26
gx3 26
h2 26
hammer 26
hanna 26
hard 26
hay@@ 26
hco) 26
hong 26
hush 26
hyperx 26
i. 26
ide@@ 26
if 26
imos 26
iphone7/8 26
its 26
j'code 26
j8@@ 26
jc@@ 26
jct 26
jewelry 26
jie 26
jm@@ 26
jojo@@ 26
joyce 26
k/ 26
k1@@ 26
k6@@ 26
kam@@ 26
kids@@ 26
kim 26
kl/@@ 26
kle@@ 26
lea@@ 26
leadcat 26
liyo 26
lla@@ 26
lli@@ 26
lomo@@ 26
ls-@@ 26
m-2@@ 26
m43@@ 26
macbook@@ 26
mad@@ 26
maggie 26
marshall 26
maxi@@ 26
merry 26
miffy 26
mira 26
mk2 26
mustela 26
na-v@@ 26
nb574 26
nel 26
ning 26
n°@@ 26
p00@@ 26
p1@@ 26
p8 26
path 26
penhalig@@ 26
pg1 26
purcell 26
px@@ 26
rc-@@ 26
rhino 26
ring@@ 26
roche-posay 26
royale 26
sac@@ 26
safe 26
salad 26
sale@@ 26
santa 26
ser 26
sfc 26
skinny 26
soap 26
spao 26
sse@@ 26
stand 26
strix 26
success 26
system 26
tang 26
think@@ 26
ting@@ 26
tor 26
try 26
tti 26
tty@@ 26
tus 26
t情侣 26
u11+ 26
ulker_@@ 26
us9.5 26
v17 26
vat@@ 26
vir@@ 26
vuit@@ 26
v格 26
windcheater 26
wl574 26
won@@ 26
ws-@@ 26
x- 26
y6 26
yd 26
yx04 26
z3+z5 26
zenfone5 26
zett 26
zip@@ 26
zs 26
ᄀ 26
⊙ 26
⋆ 26
│低价 26
┇@@ 26
◈ 26
★xq-3c@@ 26
☆louis 26
♧@@ 26
❁ 26
〖小桃美衣 26
〞 26
う 26
の店 26
オ@@ 26
㊒@@ 26
㊕@@ 26
一见钟情 26
上山 26
不可思议 26
东区 26
丞丞 26
中岛@@ 26
中考 26
丽丝尔 26
义卖 26
之语 26
乐园@@ 26
乱乱 26
乳木果 26
五月@@ 26
五角@@ 26
仑美奂 26
价廉 26
俊雅 26
保修 26
保护剂 26
俞 26
信仰 26
假饵 26
光波 26
全黑 26
冠霖 26
冥想 26
冰山 26
冷热水 26
冷藏柜 26
凯西 26
分配器 26
制订 26
北意 26
半成品 26
华歌@@ 26
卑@@ 26
卓越 26
单售 26
卜@@ 26
卢卡 26
卫裤 26
卫队 26
即将 26
压板 26
去火 26
去角 26
反绒 26
发) 26
发亮 26
发言台 26
叔 26
变态 26
叙@@ 26
台币 26
台钓 26
呛 26
味精 26
和合 26
哈佛 26
售完) 26
啥 26
喰@@ 26
喽 26
噜 26
四分@@ 26
四方 26
地柜 26
坪@@ 26
垒@@ 26
培根 26
墓 26
增订 26
处) 26
夕阳 26
大吉@@ 26
大肚 26
大道 26
天伯伦 26
天龙 26
夹. 26
妆前@@ 26
委@@ 26
委托 26
威尼斯 26
娘子 26
嫚@@ 26
嬉@@ 26
孑 26
字长 26
孤儿 26
安培 26
完/@@ 26
宝瓶 26
客栈 26
客满 26
客订-@@ 26
射手 26
小b 26
小不点 26
小丫 26
小女孩 26
小蚁 26
小象 26
少见 26
岔@@ 26
川崎 26
已@@ 26
布/@@ 26
带柄 26
帮板鞋 26
帽沿 26
幅@@ 26
年人 26
并@@ 26
异型 26
录音机 26
彩旗 26
彩金 26
徕 26
态@@ 26
性酷 26
恐@@ 26
恰恰 26
房地 26
手套@@ 26
扣) 26
抗过 26
报童 26
拉手 26
拒绝 26
拔罐 26
拳皇 26
换气扇 26
掀@@ 26
排气扇 26
控制@@ 26
掸子 26
描红 26
提示牌 26
擎@@ 26
收纳袋 26
放气 26
散件 26
斯图西 26
无脚 26
无障碍 26
日本@@ 26
星期四 26
星矢 26
春游 26
普丽@@ 26
普莱 26
晾@@ 26
暖壶 26
有底 26
朝日 26
本人 26
机构 26
机洗 26
架车 26
柠 26
格子@@ 26
格拉 26
格林@@ 26
桂冠 26
榻 26
横须贺 26
橘里壹家@@ 26
款式) 26
正韩 26
水球 26
江南 26
汤包 26
汤面 26
汪@@ 26
泓 26
波器 26
流光 26
海尼根 26
深紫色 26
滴管 26
漾@@ 26
灭火器 26
灵性 26
灿烂 26
炼金@@ 26
炽 26
烘衣机 26
烽火 26
熊) 26
燥 26
爱子 26
牙龈 26
特种 26
犯 26
狼毫 26
猪头 26
王) 26
王星 26
玛莎 26
玻璃纤维 26
理台 26
瑄@@ 26
瑕疵@@ 26
瑞克@@ 26
甘蔗 26
电话卡 26
甸@@ 26
白兰 26
皮皮 26
睛@@ 26
短袖t 26
矮人 26
砗磲 26
碎石 26
磨砂@@ 26
祺儿 26
禧@@ 26
种) 26
稍 26
穿线 26
突击@@ 26
童子 26
笔杆 26
筹@@ 26
篷布 26
粉饼@@ 26
粽@@ 26
精油@@ 26
红玉 26
纪梵希 26
纳帕 26
纸包 26
组$@@ 26
结) 26
结婚礼 26
绘本 26
绞肉 26
绣花鞋 26
罂@@ 26
网站 26
网通 26
罕@@ 26
美惠 26
老爷车 26
聊聊@@ 26
聪 26
肉包 26
胭@@ 26
脖圈 26
脚裤 26
腋@@ 26
腮@@ 26
自然风 26
舍利 26
色#@@ 26
节省 26
草药 26
荷重 26
莱姆 26
菲斯 26
萌萌@@ 26
萝莉@@ 26
营地 26
蒜泥器 26
蓄@@ 26
蘸 26
虎皮 26
虹吸 26
蚀刻 26
行军 26
行灯 26
衣刷 26
表_ 26
衰 26
装下 26
裤# 26
观赏@@ 26
计算器 26
订书 26
让@@ 26
讯) 26
记得 26
证日 26
诗风 26
诱饵 26
请问 26
貍 26
败家 26
赐福 26
超级玛利欧 26
足膜 26
软绵绵 26
轰@@ 26
运输车 26
进水 26
迪奇 26
速寄 26
遇见@@ 26
醯@@ 26
针头 26
铁管 26
铁门 26
镍氢 26
长枕 26
长白山 26
长虹 26
门缝 26
防卫 26
防锈@@ 26
阿朗 26
除雾 26
隐密 26
雁 26
雯@@ 26
霓 26
静静 26
鞋业 26
鞋油 26
颜皂 26
风儿 26
饭锅 26
香珍 26
骨传导 26
高人 26
高压锅 26
高大 26
鬃 26
鬼屋 26
鬼火 26
鲁士@@ 26
麦穗 26
黑莓 26
"b@@ 25
"二 25
"阿@@ 25
#便宜 25
#日本 25
(110 25
(16@@ 25
(28@@ 25
(35@@ 25
(b11@@ 25
(y-) 25
(上衣 25
(二色 25
(任选 25
(优惠 25
(卷 25
(尺寸 25
(居家 25
(效 25
(紫色) 25
(蓝@@ 25
(袋装) 25
(超值 25
(香奈儿 25
*** 25
-08@@ 25
-15@@ 25
-18@@ 25
-250@@ 25
-3d 25
-4-6 25
.e 25
/三民 25
01/@@ 25
0g 25
1-8 25
1.5m1.8 25
108年 25
12345@@ 25
1512 25
1650 25
167@@ 25
16ss 25
188@@ 25
1998年 25
1p 25
1~@@ 25
20% 25
2009年 25
250ml 25
255@@ 25
297 25
2tb 25
2x 25
3-6-12 25
347 25
36.@@ 25
397 25
3入 25
4. 25
40-50 25
426 25
430@@ 25
447 25
462 25
4760@@ 25
484 25
491 25
4s店 25
5" 25
5.4 25
507@@ 25
515@@ 25
528 25
547@@ 25
553 25
556@@ 25
568 25
6.4 25
617 25
6y 25
7-18 25
70ml 25
761 25
762 25
807471-@@ 25
8ml 25
917 25
91@@ 25
940 25
983 25
[a0@@ 25
[e@@ 25
a15@@ 25
a180 25
accessories 25
aci@@ 25
af-@@ 25
agete 25
aire 25
airpo@@ 25
airpods1/2 25
alph@@ 25
amo 25
amp 25
anniversary 25
anth@@ 25
aren@@ 25
armo@@ 25
ars 25
asp@@ 25
aster 25
ata@@ 25
b' 25
bai 25
ball@@ 25
blender 25
bob@@ 25
bp-@@ 25
bvl@@ 25
c10@@ 25
calculus 25
carol 25
chimmy 25
clima 25
corolla 25
cq240@@ 25
cx-5 25
c赏 25
d1 25
dark@@ 25
dazz@@ 25
decay 25
drive@@ 25
driver 25
dyn@@ 25
d家 25
e- 25
e27@@ 25
e46 25
eat 25
ebay 25
eco-drive 25
ego 25
eh 25
epo@@ 25
erry 25
est@@ 25
ew-@@ 25
fami@@ 25
five 25
flash@@ 25
ford@@ 25
fresh@@ 25
fuse 25
g4@@ 25
gb-@@ 25
gentlemonster 25
gigabyte 25
gma-s110 25
grain 25
gram 25
halloween 25
hard@@ 25
hen@@ 25
huang@@ 25
i/ 25
i6+@@ 25
i8+@@ 25
iwc万国 25
jane 25
jdm 25
jessie 25
jn 25
jx@@ 25
k- 25
k/@@ 25
k12 25
kana@@ 25
kitan 25
kno@@ 25
ks▸ 25
lauren拉夫@@ 25
leica 25
leo 25
lex 25
li-@@ 25
limit 25
lulus 25
lumix 25
lush 25
l码 25
m1.5 25
m30@@ 25
m44022 25
marukan 25
mccartney 25
mee 25
miz@@ 25
mk-@@ 25
mk3 25
ml# 25
mono@@ 25
mother 25
moun@@ 25
mp3) 25
mug 25
music@@ 25
n626@@ 25
nmd_@@ 25
note8t 25
oguma 25
p& 25
panel 25
paradise 25
phy 25
pix@@ 25
posket 25
pre 25
prime@@ 25
ps-@@ 25
purple 25
qind 25
qp 25
qqbow 25
qt 25
quot; 25
r. 25
rb3025 25
rda 25
rel 25
relax 25
renew 25
reno2 25
s& 25
s10e 25
s_ 25
second 25
seeds 25
sei@@ 25
sennheiser 25
sing@@ 25
some@@ 25
speedform 25
sr-@@ 25
stam@@ 25
sticker 25
stylus3 25
sue@@ 25
sul@@ 25
sum@@ 25
sumikko 25
sunny@@ 25
sw-@@ 25
sweet@@ 25
t&@@ 25
tarte 25
tcl 25
tech@@ 25
tmb@@ 25
too@@ 25
trainers 25
ttl 25
tuning 25
t女 25
t裤 25
ug@@ 25
us13 25
us8.5 25
ush 25
v-220v 25
v-gucci 25
v1@@ 25
ven 25
very@@ 25
vessel 25
victorinox 25
virgil 25
vista 25
wachi@@ 25
who@@ 25
wrap 25
yamamoto 25
yeh 25
yis@@ 25
yts 25
ze553 25
zs620 25
zu 25
ᄃ@@ 25
ᄉ 25
ᅥ 25
―@@ 25
▷@@ 25
♫ 25
✎ 25
ィ@@ 25
ケ 25
スタ 25
ット 25
ハ 25
ース 25
ㄟ 25
一级 25
一组 25
三十 25
三百 25
上市) 25
上帝 25
上床 25
不失 25
丙烯 25
个子 25
丰润 25
丽质 25
乐器. 25
书人 25
乳/@@ 25
乳晕 25
云台 25
京剧 25
亮晶晶 25
仙草 25
价: 25
仿真丝 25
优良 25
伪@@ 25
佐罗 25
体位 25
体验@@ 25
佛手 25
侬 25
便利@@ 25
促销& 25
保湿@@ 25
信用 25
健步 25
催@@ 25
傻瓜 25
儿) 25
元山 25
克/@@ 25
克仿 25
全实木 25
公制 25
兵马俑 25
冰川 25
冰球 25
冲程 25
减肥@@ 25
凯蒂@@ 25
凯迪@@ 25
出入 25
出击 25
出包 25
出包王@@ 25
切断 25
列传 25
初春 25
初榨 25
刮水器 25
前方 25
加入 25
十分 25
升级版) 25
半拉 25
华泰 25
单方 25
印鉴 25
即插即用 25
卵 25
历险记 25
双侧 25
双带 25
双模 25
双面@@ 25
叛@@ 25
台网 25
号手 25
吉儿 25
吋4k 25
吋八 25
后卫 25
后土 25
后脚 25
呼呼 25
哆啦a梦@@ 25
哈姆@@ 25
哟@@ 25
哺@@ 25
唇蜜@@ 25
喂@@ 25
噗 25
器# 25
圆领@@ 25
土豆泥 25
境界 25
复古风 25
外野 25
多益 25
大兔兔 25
大哥 25
大眼蛙 25
大褂 25
天) 25
天花 25
头罩 25
夹趾 25
套挂 25
套票 25
好走 25
妍@@ 25
妏 25
妮薇 25
孚 25
孵 25
宛@@ 25
宝塔 25
宵@@ 25
家教 25
寄出 25
密封圈 25
富冈 25
小公主 25
小如 25
小姐@@ 25
小泉 25
小玩具 25
小美 25
少儿 25
尖叫 25
尘机 25
屁屁裤 25
层架 25
居室 25
屈@@ 25
屏屋 25
山姆 25
工兵 25
巫@@ 25
布幕 25
布条 25
带. 25
幂@@ 25
干燥@@ 25
平躺 25
应急@@ 25
底妆 25
弟@@ 25
归来 25
形态 25
彤彤 25
彩珠 25
往复 25
心房 25
恭喜 25
感动 25
懒骨头 25
房车 25
手灯 25
打发 25
扭曲 25
扭转 25
抚@@ 25
报刊架 25
拍打 25
指标 25
指示灯 25
挖耳 25
挡车 25
挽回 25
掀翻 25
排水口 25
推荐# 25
搜寻: 25
擎 25
教主 25
文儿@ 25
斜边 25
斯) 25
新款式 25
旗帜 25
无度 25
早午餐 25
旼@@ 25
星级 25
昭@@ 25
暨 25
替@@ 25
月经 25
有机@@ 25
期货 25
木底 25
杀戮 25
杜蕾斯 25
杭@@ 25
极轻 25
林心如 25
林氏 25
柏油 25
栏@@ 25
桃仁 25
桦@@ 25
梓 25
梢 25
梵克雅@@ 25
棉条 25
棉棉 25
棉絮 25
楠@@ 25
樱井 25
橡胶@@ 25
歌剧 25
毛裤 25
气大 25
气筒 25
氯@@ 25
水床 25
污渍 25
沃克 25
油亮 25
油彩 25
泌@@ 25
波特 25
泥膜 25
泽言 25
洁肤@@ 25
活宝 25
流行@@ 25
浓度 25
海绵垫 25
润润 25
润肤霜 25
清爽@@ 25
清纯 25
温器 25
温室 25
滴剂 25
潜水@@ 25
灰白色 25
点子 25
炼金 25
烈焰 25
烫手 25
熙@@ 25
燃油 25
爆膜 25
版: 25
牙具 25
牵念 25
犀利 25
犬宠物 25
独立@@ 25
猫猫@@ 25
獭 25
玉米须 25
玛德@@ 25
现货)) 25
玲儿 25
珞@@ 25
班长 25
球) 25
球手 25
瑕 25
瑕盘 25
瑾 25
生日卡 25
用地 25
用心 25
电磁@@ 25
留声机 25
痔@@ 25
痞@@ 25
百货店) 25
目鱼 25
相宜 25
相架 25
眠@@ 25
矿泉 25
砖块 25
硅油 25
硬板 25
磁疗 25
磅秤 25
社会@@ 25
祯@@ 25
禁忌 25
空调衫 25
突 25
窟 25
端午节 25
竿@@ 25
笔管 25
第3 25
筠 25
筱 25
箫 25
箴言 25
米纳 25
米菈 25
粤语 25
素体 25
红石榴 25
红糖 25
纤体 25
约: 25
纳海姆 25
纸笔 25
细软 25
经济@@ 25
绒球 25
统计 25
绢 25
绿豆糕 25
缆@@ 25
羊绒衫 25
美娜 25
老王 25
耗 25
耘@@ 25
耿 25
股东 25
胃@@ 25
胶印 25
脚后跟 25
脚气 25
脱毛膏 25
自助餐 25
自律 25
舵@@ 25
船长 25
艺匠 25
艾迪 25
芙莎 25
芯片 25
花溪 25
芳芳 25
茯苓 25
草绿 25
草绿色 25
莱姆@@ 25
菜籽 25
蒂芬 25
蒜蓉 25
薇薇 25
藤席 25
蛋白质 25
蜜柚 25
蜜汁 25
行款 25
衍生 25
衣服@@ 25
衣舍 25
衰@@ 25
裙) 25
裤#@@ 25
裱花 25
裸光 25
视界 25
试验 25
语) 25
调理器 25
貌 25
货运 25
质保 25
购买) 25
起夜 25
超时 25
超频 25
路易斯 25
转速 25
轮) 25
软水 25
辣椒@@ 25
过滤@@ 25
迫@@ 25
述 25
迷你裙 25
追踪 25
通用@@ 25
邮箱 25
酥脆 25
酸性 25
醋酸 25
重金属 25
钓虾@@ 25
钢丝@@ 25
钨 25
钱箱 25
铁杆 25
铁网 25
铣刀 25
铨 25
长袖@@ 25
长途 25
防晒@@ 25
防腐剂 25
除尘器 25
隔音@@ 25
雨罩 25
雷霆s 25
青岛 25
靖 25
静心 25
靛蓝 25
鞋壹 25
鞣 25
韩. 25
顽 25
频) 25
风格@@ 25
风雨衣 25
餐盘 25
马丁@@ 25
马仕@@ 25
马力 25
马斯 25
驯鹿 25
骑士靴 25
骨折 25
魅族 25
鲜果 25
麦斯 25
麻将@@ 25
黄昏 25
黑字 25
"#360 24
"-@@ 24
"chanel 24
"台湾 24
"金@@ 24
#39@@ 24
$300 24
$50 24
(120 24
(2017 24
(2019@@ 24
(下@@ 24
(宝 24
(平 24
(最后 24
(本 24
(杏@@ 24
(盛 24
(迷你 24
(阿 24
*12 24
*30 24
*7 24
-13@@ 24
-52 24
-600 24
001) 24
009@@ 24
051 24
08-@@ 24
1.9 24
1/72 24
1026@@ 24
1030 24
1165@@ 24
1401 24
140g 24
150/@@ 24
170ml 24
1m@@ 24
2000年 24
2005年 24
200u 24
2088 24
23.@@ 24
230g 24
240g 24
26/@@ 24
262 24
27.5 24
297@@ 24
29cm 24
307@@ 24
30年 24
32) 24
32g/@@ 24
374 24
389 24
396 24
3x 24
4.7@@ 24
428 24
4664@@ 24
481 24
482 24
498@@ 24
4kg 24
4四 24
4色 24
5- 24
500w 24
501@@ 24
531 24
557@@ 24
558 24
5600 24
571-@@ 24
6+/@@ 24
6- 24
6-10 24
6.14 24
6.8 24
6/7/8 24
653 24
697 24
7-10 24
7/7 24
726@@ 24
75/@@ 24
757 24
766@@ 24
783 24
786 24
787 24
7b 24
8+ 24
80x@@ 24
81968@@ 24
82-@@ 24
826 24
9% 24
90) 24
927 24
95% 24
9527 24
981 24
984 24
99.@@ 24
9t@@ 24
_g@@ 24
a-2@@ 24
a-kay0 24
a5/@@ 24
a82018 24
a92020 24
a] 24
about 24
accessory 24
agi@@ 24
aime 24
allen 24
amiss[a@@ 24
anny 24
apeach 24
ar2448 24
ar60@@ 24
arc'teryx 24
b6 24
babycare 24
balenciaga@@ 24
bang@@ 24
bbgo/ 24
bio-@@ 24
birthday 24
ble 24
bleu 24
blu@@ 24
brit 24
bs-@@ 24
c-0@@ 24
ca-@@ 24
champs 24
charming 24
chien 24
cj 24
clas@@ 24
classic@@ 24
cocos 24
cq24@@ 24
crazylight 24
cw 24
d's 24
dad 24
daks 24
dash 24
david 24
db-@@ 24
decor@@ 24
del 24
door@@ 24
dvd~ 24
edu@@ 24
elephant 24
evi@@ 24
f35@@ 24
f4@@ 24
f7 24
fai@@ 24
felicie 24
figuarts 24
foam 24
frame 24
frank 24
fz 24
g" 24
g00@@ 24
gat@@ 24
gb) 24
gift@@ 24
givench@@ 24
gor@@ 24
great 24
grl 24
guy 24
g±@@ 24
havaianas@@ 24
heron 24
hil@@ 24
hr-@@ 24
hsgcsreg 24
hstnn-@@ 24
hz 24
ic-@@ 24
iphone7plus/@@ 24
j1gc@@ 24
jordan1 24
jvc 24
k7@@ 24
kiehls契尔氏 24
kong 24
kwazi 24
kyrie@@ 24
ladies 24
levi@@ 24
lf 24
liu@@ 24
lk@@ 24
llon 24
lover@@ 24
lucas 24
m" 24
m20 24
m320 24
m445@@ 24
management 24
marlmarl 24
meliss@@ 24
mk56@@ 24
ml*5 24
mr530 24
mtg 24
n41@@ 24
nacnac 24
nana@@ 24
naruto 24
nature's 24
nbhd 24
ncy 24
note6 24
od 24
omron 24
on's 24
ong@@ 24
oria 24
oxo 24
p4 24
pa-@@ 24
paper 24
parfum 24
phantom 24
picnic｜ 24
playstation 24
please 24
polarstar 24
prince 24
proctsbe 24
r18 24
r698 24
raw 24
roberta 24
roland 24
rs-x 24
s3@@ 24
s9+@@ 24
samsonite 24
sdxc 24
season@@ 24
sh-@@ 24
shop[@@ 24
side@@ 24
sj4000 24
sk8 24
ski 24
smar@@ 24
smi@@ 24
st.@@ 24
starwars 24
strike 24
stripe 24
superman 24
swatch 24
t063.61 24
te-@@ 24
tencel 24
ters 24
tex@@ 24
tobot 24
toyo@@ 24
tretta@@ 24
trinomic 24
trio 24
tro 24
u3@@ 24
uhs-i 24
underarmour 24
unicorn 24
uniq@@ 24
uq 24
vivier 24
vor@@ 24
wall 24
whe@@ 24
wide 24
wk 24
word 24
xon 24
xq@@ 24
xs-@@ 24
y& 24
yabbi 24
yn 24
z01 24
zd552 24
zoeva 24
ɪ@@ 24
ᄂ@@ 24
ᄌ@@ 24
ᆼ@@ 24
℃ 24
ⅱ@@ 24
∵@@ 24
┍全场 24
┝@@ 24
╭☆雪 24
☆代购 24
☛☛ 24
♡♡ 24
✤ℊℴℴ₫ 24
✶ 24
ほ@@ 24
ュ@@ 24
ㄚ 24
ㄧ组 24
一体@@ 24
丅@@ 24
万斯@@ 24
三星s10 24
上架@@ 24
不见不散 24
专卖@@ 24
世一 24
两用) 24
丫头 24
中小 24
中裤 24
丽叶 24
丽莎@@ 24
义乳 24
书. 24
二哥 24
云集 24
五角 24
些@@ 24
人: 24
仔机 24
企业@@ 24
伊莱克斯 24
优惠价: 24
优然 24
伤发 24
体质 24
作品集 24
例@@ 24
供货 24
侧灯 24
侧睡 24
促进 24
傲@@ 24
僧@@ 24
元. 24
充大 24
免疫@@ 24
兑换券 24
全功能 24
公子 24
养生壶 24
内建 24
内里@@ 24
军绿 24
凉靴 24
凰 24
出版@@ 24
分析@@ 24
刻花 24
剩下 24
力强 24
包包) 24
包屁衣 24
升级@@ 24
半熟 24
华为p20 24
华美 24
协调 24
单价 24
[...]
