i n 217883
a n 174068
r e 171939
e r</w> 154695
a r 126168
c o 117620
e r 114650
a s 110208
o r 106370
l e 104448
i t 102628
a c 101016
o n 96926
s t 93737
a l 91959
a t 90751
s h 89151
l o 83895
e n 79233
o n</w> 75132
o r</w> 74734
c h 69639
l e</w> 67215
l i 66762
r o 65717
in g</w> 65363
s e 62530
2 0 60743
a l</w> 58312
f or</w> 55432
m e 55415
d i 55340
b a 55230
s i 55184
t o 53400
u n 52725
e s</w> 52026
t i 51598
a m 49819
a i 49704
r i 49266
b o 48048
e d</w> 47622
l u 47609
现 货</w> 47328
s s</w> 44996
t h 42662
m a 42249
i r 42249
p o 42181
1 0 41992
n e 41426
l a 40589
an d</w> 38752
e l 38711
u r 35729
m i 35372
r a 34677
a n</w> 34267
s p 33013
n i 32933
h i 32577
t e 31619
t s</w> 31548
c as 31441
新 款</w> 31083
o l 30997
a p 30385
ac k</w> 29654
20 1 29527
sh o 29371
e a 29269
k i 29210
u s 28739
me n</w> 28420
m o 28388
c k 28150
s u 27973
休 闲</w> 27910
d e 27879
p h 27566
k e</w> 27553
d re 27496
on e</w> 27443
u l 26743
a b 26338
m l</w> 25701
w it 25653
ba g</w> 25540
s o 25482
0 0 24991
e l</w> 24714
an d 23972
c h</w> 23604
dre ss</w> 23420
i n</w> 23297
wit h</w> 23216
t t 22895
全 新</w> 22791
se t</w> 22479
w o 22186
时 尚</w> 22155
c e</w> 22147
cas e</w> 22054
c k</w> 21841
p re 21235
p r 21030
q u 20857
i g 20776
e n</w> 20652
k o 20615
v e</w> 20465
' s</w> 20378
d a 20352
b y</w> 20053
ir t</w> 20001
d s</w> 19905
b r 19871
d er</w> 19578
b l 19332
p lu 19187
e t</w> 18993
m e</w> 18965
ni ke</w> 18768
g h 18555
p p 18512
g e</w> 18406
a u 18172
h o 17923
简 约</w> 17746
m p 17636
m in 17549
f i 17503
1 0</w> 17475
a d 17346
n o 17278
co d</w> 17275
5 0 17270
c ar 17247
b i 17124
l as 17043
ab le</w> 16902
w h 16791
v er 16747
g u 16717
ne w</w> 16709
sh irt</w> 16573
v er</w> 16568
ai r</w> 16518
re d</w> 16472
v i 16460
2 0</w> 16435
plu s</w> 16433
it e</w> 16364
ph one</w> 16098
日 本</w> 15865
收 纳</w> 15805
s t</w> 15657
to p</w> 15638
c s</w> 15629
t er 15626
t y</w> 15589
p ro 15302
p i 15289
代 购</w> 15186
wo men</w> 15181
s e</w> 15049
si z 14944
1 2 14940
ti c</w> 14901
t e</w> 14864
c u 14756
w at 14677
w i 14658
f as 14528
运 动</w> 14468
d o 14339
al l</w> 14292
ko re 14228
ac e</w> 14227
短 袖</w> 14198
bl ack</w> 13989
d e</w> 13973
o f</w> 13844
t er</w> 13839
a r</w> 13829
t r 13829
ac k 13628
p a 13528
b u 13510
c re 13454
e ar 13375
in g 13360
siz e</w> 13288
上 衣</w> 13254
5 0</w> 13146
lo v 13127
儿 童</w> 13081
正 品</w> 13073
ol d</w> 13036
k e 13017
fas hi 12926
3 0 12879
背 包</w> 12866
a di 12810
sh or 12705
p er 12671
b lu 12284
kore an</w> 12233
i c</w> 12228
w e 12150
or ig 12069
f re 12057
l o</w> 12006
套 装</w> 11989
da s</w> 11939
学 生</w> 11924
it y</w> 11883
l y</w> 11844
orig in 11843
l ing</w> 11805
p cs</w> 11800
adi das</w> 11779
b e 11755
s s 11683
m ar 11676
10 0</w> 11640
o o 11575
s un 11559
t 恤</w> 11424
fashi on</w> 11399
手 机</w> 11393
外 套</w> 11389
o u 11325
sho es</w> 11322
lov ed</w> 11319
co n 11312
ar d</w> 11275
r y</w> 11198
c c 11135
ch ar 11132
th e</w> 11132
al e</w> 11066
g o</w> 11060
d y</w> 11036
pr o</w> 11005
u m</w> 10965
ba by</w> 10937
1 8 10867
wh ite</w> 10859
创 意</w> 10850
s k 10844
in e</w> 10823
a m</w> 10817
ki ds</w> 10706
r u 10687
p an 10672
男 士</w> 10641
e le 10552
m at 10487
复 古</w> 10481
un i 10473
er s</w> 10422
s le 10417
经 典</w> 10381
co l 10302
th en 10263
韩 国</w> 10262
二 手</w> 10156
情 侣</w> 10120
1 1 10116
au then 10100
t ed</w> 10089
p l 10034
origin al</w> 10034
t a 10021
authen tic</w> 10004
f l 9993
f e 9981
sle e 9890
s am 9843
us e</w> 9833
t o</w> 9809
li gh 9801
t h</w> 9729
p e 9666
系 列</w> 9646
a p</w> 9596
bo o 9530
m as 9518
ai n</w> 9517
ti on</w> 9500
pre loved</w> 9484
3 0</w> 9478
台 湾</w> 9465
夏 季</w> 9425
min i</w> 9418
i on</w> 9414
1 1</w> 9353
c t 9348
m en 9323
c ro 9282
1 2</w> 9279
l on 9253
10 0 9240
c i 9237
潮 流</w> 9189
p ack</w> 9170
黑 色</w> 9153
ea r</w> 9113
st i 8940
c m</w> 8893
i phone</w> 8888
n o</w> 8884
m m</w> 8862
现 代</w> 8828
ma x</w> 8801
le d</w> 8784
4 0 8749
j u 8743
l v</w> 8733
in k</w> 8715
功 能</w> 8601
b lo 8546
6 0 8543
ur e</w> 8535
gu cc 8529
s h</w> 8500
s ale</w> 8477
可 爱</w> 8471
a v 8411
. 5</w> 8384
le ss</w> 8301
客 厅</w> 8284
f or 8273
k it 8261
si g 8240
. . 8216
防 水</w> 8215
at h 8195
m m 8162
特 价</w> 8161
tt on</w> 8152
手 表</w> 8135
on e 8113
ac h</w> 8108
co lo 8077
an t</w> 8034
pr in 7986
sun g</w> 7982
h u 7963
sam sung</w> 7903
fre e</w> 7874
g i 7869
gucc i</w> 7858
g h</w> 7833
f o 7807
g old</w> 7793
p u 7791
po w 7765
an g 7719
运 动 7711
f u 7708
1 6 7659
d u 7636
3 6 7630
宝 宝</w> 7559
家 用</w> 7539
t - 7512
c e 7500
f t</w> 7493
玩 具</w> 7487
女 鞋</w> 7479
s li 7473
co r 7430
p le</w> 7418
1 5 7404
b le</w> 7394
u s</w> 7385
an i 7369
j e 7326
1 9 7321
ch e 7318
lo w</w> 7310
卧 室</w> 7300
b at 7285
al s</w> 7272
g las 7270
blu e</w> 7237
o f 7214
h ea 7167
a t</w> 7142
in s</w> 7118
hi gh</w> 7099
si l 7096
p s</w> 7093
al ity</w> 7012
精 品</w> 7009
宽 松</w> 6941
de sig 6932
wat ch</w> 6925
g ir 6923
北 欧</w> 6920
m on 6912
201 8</w> 6895
le t</w> 6885
9 2 6879
co tton</w> 6858
运动 鞋</w> 6810
h el 6808
长 袖</w> 6801
e x 6799
qu ality</w> 6778
s m 6773
us b</w> 6764
di es</w> 6730
p er</w> 6680
i t</w> 6677
c le 6663
ligh t</w> 6660
2 4 6656
201 9</w> 6620
t u 6618
l l 6611
s c 6585
透 气</w> 6578
牛 皮</w> 6577
1 4 6562
h e 6527
r ing</w> 6515
8 0 6504
s a 6474
g re 6473
p ri 6433
shor ts</w> 6392
g r 6360
- 4 6340
s ling</w> 6333
纯 棉</w> 6297
w a 6279
bo x</w> 6274
美 国</w> 6270
b b 6263
la dies</w> 6240
un d 6221
礼 物</w> 6217
l ace</w> 6200
m b 6188
sho ul 6176
7 0 6160
包 包</w> 6146
20 20</w> 6141
e y 6126
手 提 6123
p e</w> 6121
w al 6109
x y</w> 6107
m i</w> 6106
pan ts</w> 6106
g er</w> 6101
kit ty</w> 6082
ing s</w> 6071
加 厚</w> 6047
s and 6042
st e 6029
ter no</w> 6004
desig n</w> 5985
b al 5966
慢 跑</w> 5948
shoul der</w> 5929
h and</w> 5923
不 锈 5898
专 用</w> 5895
shor t</w> 5889
or i 5872
st u 5870
耳 环</w> 5867
bo dy</w> 5855
汽 车</w> 5850
不锈 钢</w> 5837
u p</w> 5830
ch an 5815
n at 5812
cre am</w> 5804
e d 5784
1 3 5777
mas k</w> 5772
新 品</w> 5771
glas s</w> 5770
at e</w> 5756
li p</w> 5755
or s</w> 5745
o i 5742
y s</w> 5731
ch i 5716
p ink</w> 5713
女 士</w> 5695
sil ver</w> 5646
x l</w> 5635
洋 装</w> 5625
lon g</w> 5625
sp or 5617
1 5</w> 5614
g ra 5611
t re 5582
男 女</w> 5572
201 7</w> 5550
真 皮</w> 5541
ma n</w> 5539
co ach</w> 5531
fl or 5503
en i 5495
a k 5484
b as 5480
le n 5479
造 型</w> 5468
p ar 5450
沙 发</w> 5432
个 性</w> 5395
装 饰</w> 5373
y o 5371
b ack 5369
1 . 5365
用 品</w> 5365
er i 5354
t ra 5342
co ver</w> 5329
短 裤</w> 5315
pro of</w> 5311
2 5 5300
ki n</w> 5300
g o 5299
e red</w> 5279
er ry</w> 5275
折 叠</w> 5273
ck s</w> 5273
l s</w> 5262
flor al</w> 5248
colo r</w> 5244
厨 房</w> 5242
h er 5238
印 花</w> 5237
玻 璃</w> 5234
so ap</w> 5217
j o 5208
o pp 5193
s on 5192
an s</w> 5172
d a</w> 5171
钱 包</w> 5159
f f 5158
blo use</w> 5153
手提 包</w> 5142
g en 5135
拖 鞋</w> 5126
to o 5104
p en 5085
pi e 5068
ath er</w> 5062
p or 5057
m an 5041
le s</w> 5041
b ea 5035
sh i 5004
9 0 4993
迷 你</w> 4980
b ro 4975
正 版</w> 4970
预 购</w> 4957
ma g 4956
c lo 4951
te mp 4940
hel lo</w> 4938
1 8</w> 4935
物 架</w> 4933
di s 4920
卡 通</w> 4918
h ard</w> 4911
- 3 4908
w ear</w> 4904
d r 4901
i s</w> 4867
t en 4862
st a 4854
lo go</w> 4850
slee v 4848
f lo 4827
st y 4821
女 生</w> 4818
t ri 4817
20 0 4817
se x</w> 4801
st ri 4788
l a</w> 4787
m a</w> 4780
白 色</w> 4769
修 身</w> 4750
s wi 4740
t or 4721
圆 领</w> 4719
l it 4712
s - 4688
in 1</w> 4684
f ace</w> 4671
a 3 4655
衬 衫</w> 4653
le ather</w> 4640
背 心</w> 4637
a ge</w> 4621
热 卖</w> 4613
b ur 4601
b el 4597
an ce</w> 4594
z er</w> 4590
a s</w> 4586
ai r 4584
实 拍</w> 4577
or d 4574
opp o</w> 4574
b e</w> 4568
at ion</w> 4560
1 7 4546
户 外</w> 4544
限 定</w> 4535
as h 4535
or g 4504
w n</w> 4499
c tion</w> 4495
c r 4493
g b</w> 4490
ac h 4490
2 1</w> 4471
性 感</w> 4464
h and 4444
娃 娃</w> 4440
li ve</w> 4438
ar e</w> 4436
h ol 4424
g s</w> 4421
2 . 4419
饰 品</w> 4409
chan el</w> 4405
- 0 4398
充 电</w> 4387
热 销</w> 4385
uni sex</w> 4372
男 生</w> 4370
k s</w> 4368
电 脑</w> 4366
t able</w> 4357
v o</w> 4356
c o</w> 4355
men t</w> 4337
back pack</w> 4332
boo k</w> 4319
k er</w> 4308
su it</w> 4301
se l 4298
b ack</w> 4287
al i 4255
生 活</w> 4248
c y 4244
家 居</w> 4236
组 合</w> 4235
m u 4228
temp ered</w> 4225
tr a</w> 4204
c las 4202
1 6</w> 4191
长 裤</w> 4188
f la 4187
s kin</w> 4186
v en 4186
气 质</w> 4173
t a</w> 4169
出 清</w> 4165
公 司</w> 4163
li p 4155
u al</w> 4153
w or 4147
ou t</w> 4147
h air</w> 4143
商 务</w> 4143
d eni 4134
i d</w> 4133
8 0</w> 4128
po lo</w> 4127
简 易</w> 4125
透 明</w> 4121
c am 4108
v e 4103
拉 链</w> 4097
婴 儿</w> 4094
hea d 4081
3 5 4074
p ap 4070
针 织</w> 4069
t- shirt</w> 4068
牛 仔</w> 4067
跑 步</w> 4059
l ar 4057
oi l</w> 4051
出 货</w> 4049
3 2 4048
容 量</w> 4045
gre en</w> 4043
st ra 4042
自 动</w> 4035
t in 4034
ne ck 4019
a g 4018
a we 4016
deni m</w> 4015
衣 服</w> 4005
oo d</w> 4005
f r 3996
m ul 3993
1 7</w> 3993
b an 3973
手 工</w> 3961
ul l</w> 3956
st er</w> 3951
pie ce</w> 3949
t y 3940
us h</w> 3939
sm all</w> 3939
st ar</w> 3926
保 护</w> 3918
ch a 3892
皮 带</w> 3886
f ro 3874
神 器</w> 3869
pa d</w> 3866
c a</w> 3857
6 0</w> 3850
v el</w> 3840
进 口</w> 3834
d i</w> 3807
la y</w> 3806
awe i</w> 3804
t on</w> 3801
c le</w> 3797
201 6</w> 3794
通 用</w> 3793
w er</w> 3792
ack et</w> 3788
2 2 3772
di y</w> 3767
c a 3760
懒 人</w> 3760
neck lace</w> 3744
苹 果</w> 3740
b ri 3731
黑 白</w> 3724
c an 3708
u ch</w> 3700
cas ual</w> 3697
ph one 3691
舒 适</w> 3689
o ver 3671
化 妆</w> 3671
st o 3668
贴 纸</w> 3642
ver s 3641
3 d</w> 3640
fi t</w> 3633
bea u 3620
7 0</w> 3619
me di 3610
成 人</w> 3606
pro te 3606
c t</w> 3602
ho o 3597
游 戏</w> 3575
slee ve</w> 3575
g ar 3574
- 2 3573
wal let</w> 3560
i phone 3553
c ar</w> 3553
g g 3550
blu e 3548
p s 3542
br and</w> 3529
am e</w> 3526
公 仔</w> 3522
n y</w> 3519
sti ck</w> 3519
防 滑</w> 3518
5 5 3515
sta in 3510
an s 3508
gir l</w> 3491
迪 士 3489
9 9 3485
sty le</w> 3485
v in 3484
限 量</w> 3481
sand als</w> 3478
20 0</w> 3476
sp i 3476
sti ck 3471
耳 机</w> 3467
专 柜</w> 3465
香 水</w> 3462
r ings</w> 3450
金 属</w> 3450
k a 3449
92 5</w> 3448
编 织</w> 3444
stain less</w> 3439
j ord 3429
b erry</w> 3429
mat te</w> 3427
设 计</w> 3423
m y</w> 3416
b a</w> 3415
眼 镜</w> 3411
sk irt</w> 3410
篮 球</w> 3406
wat er 3404
so ft</w> 3403
电 动</w> 3396
小 型</w> 3394
hu awei</w> 3392
b all</w> 3388
la y 3387
f ac 3385
l l</w> 3385
无 线</w> 3375
g e 3374
w ai 3373
as s 3365
配 件</w> 3345
swi m 3340
项 链</w> 3337
居 家</w> 3334
t w 3329
3 . 3323
per fu 3323
i on 3302
1 3</w> 3297
迪 达</w> 3295
ai l</w> 3280
50 0</w> 3279
ter y</w> 3277
mi cha 3274
必 备</w> 3273
保 护 3271
h y 3260
v a</w> 3260
al a 3259
红 色</w> 3256
lo ve</w> 3253
k in 3248
men s</w> 3247
br ac 3245
w el 3238
o p 3237
凉 鞋</w> 3235
挎 包</w> 3224
tt e</w> 3223
玫 瑰</w> 3217
p ur 3213
jord an</w> 3213
保 暖</w> 3212
hol der</w> 3211
v it 3205
st re 3199
3 8 3196
me s</w> 3196
d ri 3194
brac ele 3192
of f</w> 3191
too th</w> 3189
i o</w> 3187
9 0</w> 3183
2 8 3179
水 晶</w> 3174
n e</w> 3173
ck et</w> 3172
mm er</w> 3169
1 - 3168
迪士 尼</w> 3166
sp e 3163
l ite</w> 3160
50 ml</w> 3160
co u 3158
x i 3156
mo bi 3153
4 0</w> 3151
d ol 3150
po p</w> 3150
1 9</w> 3149
商 品</w> 3149
wat er</w> 3149
si on</w> 3147
g el</w> 3143
bat tery</w> 3143
j acket</w> 3141
mi l 3141
c ap 3140
7 5 3139
o l</w> 3138
l in 3136
3 - 3135
micha el</w> 3130
ne ck</w> 3128
气 垫</w> 3123
s n 3120
prin ted</w> 3120
m k</w> 3112
p u</w> 3109
te e</w> 3104
as h</w> 3096
天 然</w> 3095
蓝 色</w> 3093
en t</w> 3092
blue tooth</w> 3088
c al</w> 3085
k ing</w> 3082
2 4</w> 3078
支 架</w> 3074
ul tra</w> 3074
un d</w> 3073
r un 3068
p c</w> 3067
m l 3065
pl ain</w> 3063
m s</w> 3058
摆 件</w> 3058
5 00 3057
下 标</w> 3056
n er</w> 3053
sho p</w> 3048
bracele t</w> 3040
t ro 3039
cu te</w> 3036
限 时</w> 3034
女 装</w> 3033
se xy</w> 3033
su per</w> 3029
ear rings</w> 3026
防 晒</w> 3019
d er 3017
茶 几</w> 3006
sh e 3002
la r</w> 3000
lar ge</w> 2999
牛 仔 2995
so cks</w> 2995
宠 物</w> 2993
vi vo</w> 2992
刺 绣</w> 2983
st or 2982
欧 式</w> 2980
lon g 2980
1 4</w> 2978
n u 2977
on ly</w> 2976
pow er</w> 2973
p hi 2968
条 纹</w> 2967
少 女</w> 2966
情 趣</w> 2966
ch o 2964
car d</w> 2964
ap ple</w> 2962
货 )</w> 2961
gir ls</w> 2960
衣 裙</w> 2958
wh it 2958
f ull</w> 2950
gh t</w> 2949
ki t</w> 2948
bo tt 2942
pre mi 2942
perfu me</w> 2940
工 具</w> 2939
si c</w> 2939
k ors</w> 2938
女 童</w> 2938
z i 2934
ru bb 2920
6 s</w> 2915
ll er</w> 2914
pp er</w> 2910
mobi le</w> 2898
lo u 2897
连 衣裙</w> 2894
大 号</w> 2892
d ing</w> 2885
旅 行</w> 2884
de n</w> 2878
c ur 2874
2 5</w> 2871
欧 美</w> 2869
卖 场</w> 2869
ju mp 2866
k a</w> 2864
s qu 2856
h ear 2855
公 主</w> 2855
立 体</w> 2853
am p</w> 2850
保护 套</w> 2847
char ger</w> 2838
or ted</w> 2837
香 奈 2834
d y 2832
4 5 2832
ap e</w> 2831
pow der</w> 2823
牛仔 裤</w> 2819
sk in 2816
en ing</w> 2815
ss en 2814
da y</w> 2813
ey e 2813
t le</w> 2810
c able</w> 2810
se s</w> 2803
b re 2802
手 链</w> 2793
g a</w> 2789
30 0</w> 2785
下 单</w> 2784
k o</w> 2777
香奈 儿</w> 2772
br ush</w> 2769
ma x 2767
m - 2760
s er 2759
w ar 2758
9 9</w> 2756
a 5 2755
cy cle</w> 2750
to y</w> 2748
at ed</w> 2739
n ing</w> 2732
g a 2731
je ans</w> 2728
ch es</w> 2726
br and 2724
清 新</w> 2721
wa y</w> 2721
ma de</w> 2717
ct or</w> 2715
2 6 2714
premi um</w> 2712
优 惠</w> 2709
ch ain</w> 2706
户 型</w> 2705
pri me</w> 2705
办 公 2696
water proof</w> 2695
g lu 2694
8 8 2684
链 条</w> 2684
u r</w> 2678
内 衣</w> 2672
z ed</w> 2671
连 身</w> 2670
j ap 2667
su mmer</w> 2664
模 型</w> 2663
a o 2661
宿 舍</w> 2656
d ar 2655
s an 2652
ba gs</w> 2652
b en 2649
d v 2648
纯 银</w> 2646
t i</w> 2641
li c</w> 2641
ke y 2640
f ig 2637
f e</w> 2633
g ala 2624
t al</w> 2621
rubb er</w> 2621
.. .. 2616
皮 革</w> 2614
beau ty</w> 2614
col le 2613
ste el</w> 2608
f un 2607
se cre 2607
d ed</w> 2601
c el 2600
pap er</w> 2598
w in 2594
咖 啡</w> 2594
re less</w> 2594
wai st</w> 2593
s ch 2591
lo tion</w> 2591
ri c</w> 2590
gala xy</w> 2589
s we 2585
字 母</w> 2584
po uch</w> 2584
c and 2583
medi um</w> 2582
h ar 2572
b ar 2570
an g</w> 2568
y a</w> 2567
bi g</w> 2562
t on 2555
no te 2547
mag ic</w> 2545
品 质</w> 2541
mo tor 2535
t ing</w> 2534
por table</w> 2531
eri es</w> 2529
sleev es</w> 2528
su per 2525
it ion</w> 2523
6 4 2522
re n 2520
7 - 2516
j a 2516
v u 2513
1 50</w> 2510
wo o 2510
m er 2507
p h</w> 2507
陶 瓷</w> 2505
2 3 2502
whit ening</w> 2497
1 / 2494
co mp 2494
k ni 2493
f fe 2492
wi reless</w> 2491
t ur 2487
l ine</w> 2484
car e</w> 2482
bo y</w> 2481
浴 室</w> 2477
珍 珠</w> 2474
sho ck</w> 2473
co m 2471
e ssen 2469
卫 生 2469
bott le</w> 2469
g - 2467
mul ti 2459
o m</w> 2451
secre t</w> 2451
spor t</w> 2447
on g</w> 2443
tre n 2442
cas io</w> 2441
r y 2434
br a</w> 2433
do u 2430
co n</w> 2429
d o</w> 2428
tt er</w> 2427
家 具</w> 2426
短 t</w> 2425
路 易 2425
零 钱</w> 2424
prin t</w> 2423
室 内</w> 2417
粉 色</w> 2416
sel ling</w> 2413
cou ple</w> 2403
vu it 2403
bo ard</w> 2402
s eries</w> 2398
跑 鞋</w> 2397
m al</w> 2394
tra vel</w> 2391
两 用</w> 2389
ou t 2388
7 8 2377
路易 威 2376
ne y</w> 2373
st ar 2368
t shirt</w> 2365
as us</w> 2361
spor ts</w> 2359
er a</w> 2358
3 4 2356
b und 2356
h al 2352
拼 接</w> 2352
7 1</w> 2347
皮 夹</w> 2347
i s 2346
to ps</w> 2346
org ani 2343
s cre 2341
c al 2340
2 - 2336
6 - 2335
k g</w> 2333
快 速</w> 2331
che ck 2329
di e</w> 2327
冬 季</w> 2319
ap p 2319
on s</w> 2315
l er</w> 2314
m ir 2312
fro m</w> 2312
in e 2311
at ing</w> 2311
双 人</w> 2306
适 用</w> 2301
100 ml</w> 2299
flo wer</w> 2295
p at 2294
nat ur 2294
路易威 登</w> 2292
vuit ton</w> 2291
ci al</w> 2290
a h 2287
g ood</w> 2287
p en</w> 2282
高 腰</w> 2281
x s</w> 2272
bur berry</w> 2268
v al</w> 2265
ad e</w> 2265
l d</w> 2261
clas sic</w> 2261
n a</w> 2258
sh ir 2255
lou is</w> 2254
motor cycle</w> 2254
定 制</w> 2251
bat h</w> 2248
m it 2247
落 地</w> 2247
ho me</w> 2244
合 金</w> 2241
ro se</w> 2237
l - 2236
联 名</w> 2234
b ang 2231
健 身</w> 2229
stra p</w> 2227
c ap</w> 2225
促 销</w> 2223
an ti 2219
clo th 2219
内 裤</w> 2217
c ti 2216
y s 2213
di g 2213
bund le</w> 2213
stick er</w> 2212
ass orted</w> 2212
蝴 蝶 2209
sp ea 2203
d ra 2198
l and</w> 2197
m or 2195
卫生 间</w> 2195
f it 2191
餐 厅</w> 2187
风 扇</w> 2186
s au 2184
品 牌</w> 2184
现 货)</w> 2184
w ash 2178
vi ct 2177
沙 滩</w> 2175
am i 2175
智 能</w> 2174
h a 2173
hear t</w> 2173
双 层</w> 2172
ta ge</w> 2169
周 边</w> 2168
ck e 2168
f in 2164
k y 2163
架 子</w> 2163
毛 衣</w> 2160
电 池</w> 2158
阳 台</w> 2158
v in</w> 2150
pi l 2149
son y</w> 2148
l an 2145
吊 带</w> 2145
帆 布</w> 2145
at e 2143
厚 底</w> 2142
蝴蝶 结</w> 2142
批 发</w> 2141
ra y</w> 2141
动 漫</w> 2135
雪 纺</w> 2134
c d</w> 2120
do or</w> 2120
boo st</w> 2119
桌 面</w> 2118
bel t</w> 2118
专 业</w> 2116
椅 子</w> 2113
dis ney</w> 2109
d - 2105
单 人</w> 2103
3 3 2102
精 华</w> 2101
桌 子</w> 2101
z z 2100
p ack 2097
ho t</w> 2097
童 装</w> 2095
纯 色</w> 2094
b ir 2092
面 膜</w> 2090
特 惠</w> 2087
1 20 2085
lu x 2085
fi l 2085
00 0 2084
v a 2083
to ys</w> 2083
专 属</w> 2082
礼 盒</w> 2081
tin t</w> 2081
ver se</w> 2077
stri p 2077
ad ul 2074
v c</w> 2072
l y 2070
b la 2067
钥 匙 2067
打 底</w> 2067
m on</w> 2065
si li 2065
el s</w> 2064
ro und</w> 2063
18 k</w> 2054
e m</w> 2053
nat ure</w> 2052
s mar 2050
ele ss</w> 2049
t at 2048
s y 2047
f f</w> 2046
化 妆 2046
no te</w> 2046
b and</w> 2045
ar a</w> 2045
st and</w> 2044
p top</w> 2043
c lu 2043
char g 2042
p as 2040
ac t</w> 2040
jap an</w> 2039
o z</w> 2038
in spi 2038
f en 2037
p and 2036
塑 料</w> 2033
mo use</w> 2033
运 费</w> 2032
te a</w> 2032
n s</w> 2028
char ac 2027
inspi red</w> 2026
ir e</w> 2019
ac ce 2015
uni vers 2012
co s 2002
mp er</w> 2002
i al</w> 2000
按 摩</w> 1999
美 式</w> 1995
dou ble</w> 1994
ban k</w> 1993
li qu 1992
ph o 1992
9 5</w> 1989
尺 码</w> 1989
布 鞋</w> 1987
vin tage</w> 1982
叶 草</w> 1977
k n 1976
m o</w> 1975
b ts</w> 1974
i ce</w> 1973
6 5 1968
of fi 1967
3 2</w> 1965
9 8 1964
电 视</w> 1964
g en</w> 1963
f ri 1963
石 英</w> 1963
bro wn</w> 1960
布 艺</w> 1959
je wel 1959
spea ker</w> 1959
in ches</w> 1958
f an</w> 1957
vict ori 1957
0 . 1956
v el 1956
百 货</w> 1956
彩 色</w> 1955
办 公</w> 1955
ar y</w> 1952
办公 室</w> 1952
36 0</w> 1951
圆 形</w> 1949
b ra 1944
hi gh 1943
t pu</w> 1942
方 形</w> 1942
腰 带</w> 1936
lo o 1935
j 7</w> 1934
秋 季</w> 1934
ele ct 1932
le tte</w> 1931
ori es</w> 1928
sleev eless</w> 1928
to te</w> 1927
f ol 1926
su pp 1924
p las 1922
c m 1918
cle ar</w> 1917
ma h</w> 1915
univers al</w> 1915
h on 1907
am s</w> 1905
o s</w> 1904
3 6</w> 1903
p lay 1903
c at 1902
清 洁</w> 1901
th er 1901
相 机</w> 1898
2 7 1897
lip stick</w> 1896
绑 带</w> 1895
p - 1894
ch ri 1894
per son 1891
s ne 1890
弹 力</w> 1890
3 7 1884
车 载</w> 1880
s en 1877
三 叶草</w> 1875
双 肩 1874
小 舖</w> 1872
太 阳</w> 1871
皮 套</w> 1870
00 0</w> 1870
a d</w> 1867
le go</w> 1867
手 环</w> 1862
am po 1862
m p</w> 1861
co o 1861
fla t</w> 1861
i a</w> 1858
s si 1856
金 色</w> 1853
acce ss 1853
f i</w> 1852
9 5 1851
双 面</w> 1850
格 子</w> 1848
p vc</w> 1847
色 )</w> 1843
材 料</w> 1843
am a</w> 1843
y 6 1842
猫 咪</w> 1842
n av 1840
d ge</w> 1839
爱 心</w> 1838
ed ition</w> 1837
sne ak 1837
克 力</w> 1836
charac ter</w> 1836
al o 1835
口 袋</w> 1833
电 源</w> 1831
mil k</w> 1828
y u 1826
日 式</w> 1826
( 现货)</w> 1825
4 4 1825
cle ans 1825
小 米</w> 1823
or a</w> 1823
al y</w> 1823
fo re 1823
随 身</w> 1822
书 桌</w> 1821
shir ts</w> 1821
质 感</w> 1820
pu ma</w> 1820
po cket</w> 1819
5 . 1818
organi zer</w> 1817
公 分</w> 1816
le y</w> 1815
plas tic</w> 1815
2 2</w> 1812
ho use</w> 1812
ba r</w> 1810
mi cro 1809
an a</w> 1808
v o 1807
静 音</w> 1805
on hand</w> 1805
cam era</w> 1805
cand y</w> 1805
德 国</w> 1803
scre en</w> 1802
3 5</w> 1801
cro p</w> 1801
双肩 包</w> 1801
z en 1798
少 年</w> 1797
宝 贝</w> 1797
wit ch</w> 1797
机 械</w> 1796
c at</w> 1795
kni t</w> 1795
se d</w> 1794
natur al</w> 1791
k i</w> 1789
swim suit</w> 1789
女 孩</w> 1788
钱 夹</w> 1788
cu t</w> 1788
明 星</w> 1787
be st</w> 1784
动 物</w> 1783
colle ction</w> 1782
f ra 1781
b y 1781
耐 克</w> 1781
it aly</w> 1780
p ure</w> 1779
st r 1779
gu ard</w> 1779
b b</w> 1777
d mi</w> 1776
ty pe</w> 1770
p ra 1769
org an 1769
y 5 1767
tw o</w> 1766
kore a</w> 1764
ru n</w> 1762
学 院</w> 1761
liqu id</w> 1761
e e 1758
sh ad 1757
2 6</w> 1755
2 8</w> 1755
adul t</w> 1754
jewel ry</w> 1752
f - 1751
on es</w> 1750
d s 1749
victori a</w> 1749
u re 1747
咖 啡 1747
n ba</w> 1746
di or</w> 1746
6 6 1744
re mo 1744
. .</w> 1742
pp ing</w> 1741
d d 1738
2 in1</w> 1738
生 日</w> 1734
d ant</w> 1733
bo ys</w> 1733
ma ke 1733
dar k</w> 1731
原 装</w> 1727
si de</w> 1727
g ri 1726
p c 1724
灰 色</w> 1724
f le 1722
戒 指</w> 1721
m s 1720
f oo 1719
o w</w> 1719
餐 桌</w> 1716
th e 1716
ne t</w> 1716
8 5 1715
- - 1714
und er 1714
sp ray</w> 1713
伸 缩</w> 1712
f ood</w> 1709
at or</w> 1709
g ame</w> 1707
co ffe 1707
12 5</w> 1707
y el 1706
超 薄</w> 1705
米 奇</w> 1704
mo i 1704
整 理</w> 1700
推 荐</w> 1699
fre e 1699
ta ke</w> 1699
5 s</w> 1698
co st 1694
organ ic</w> 1694
k u 1693
镂 空</w> 1693
dol l</w> 1693
in t</w> 1692
ear s</w> 1691
b or 1690
me tal</w> 1690
w all</w> 1689
100 0</w> 1686
矽 胶</w> 1684
z oo 1683
帆 布鞋</w> 1683
风 格</w> 1681
手 套</w> 1678
y st 1678
海 贼</w> 1677
ar ri 1676
ro mper</w> 1674
00 1</w> 1674
c er 1672
coffe e</w> 1670
g g</w> 1669
pre - 1669
防 尘</w> 1667
m k 1666
t or</w> 1666
g lo 1666
sli m</w> 1666
h app 1665
lo n</w> 1665
1 10 1663
ey e</w> 1657
stri pe</w> 1657
4 - 1656
ou r</w> 1654
con verse</w> 1653
du al</w> 1651
安 全</w> 1650
mi st</w> 1648
cor n</w> 1647
access ories</w> 1647
s witch</w> 1644
睡 衣</w> 1641
礼 品</w> 1640
s y</w> 1639
brand ed</w> 1639
2 3</w> 1638
man i</w> 1638
t v</w> 1636
oo l</w> 1636
pow er 1635
c es</w> 1634
行 车</w> 1633
kin i</w> 1633
经 济 1632
yel low</w> 1631
i i</w> 1628
col ors</w> 1628
g am 1627
sh ampo 1627
n y 1625
hea d</w> 1624
电 子</w> 1623
201 5</w> 1622
v ans</w> 1619
书 架</w> 1619
ba n</w> 1618
par ty</w> 1618
男 童</w> 1617
环 保</w> 1616
u t</w> 1615
5 - 1613
ar mani</w> 1613
bo w</w> 1613
shampo o</w> 1613
w ash</w> 1607
i l 1607
qu e 1604
增 高</w> 1602
平 底</w> 1601
c - 1600
4 . 1599
太 阳 1598
1 10</w> 1597
gra y</w> 1597
英 伦</w> 1594
mat e</w> 1594
e p</w> 1593
elect ric</w> 1592
bu y</w> 1591
轻 量</w> 1590
tren dy</w> 1590
i l</w> 1588
do g</w> 1588
ch en</w> 1586
ll a</w> 1585
玄 关</w> 1584
m d</w> 1580
c an</w> 1579
her mes</w> 1578
lit tle</w> 1578
bal ance</w> 1576
at er</w> 1575
p air</w> 1574
手 书</w> 1573
origin als</w> 1573
d ro 1572
head set</w> 1570
kn it 1570
f las 1569
min i 1569
泳 衣</w> 1568
smar t</w> 1566
t ain</w> 1565
全 馆</w> 1565
cloth es</w> 1564
ys l</w> 1561
ter s</w> 1560
stor age</w> 1560
essen ti 1558
全 场</w> 1557
no va</w> 1556
40 0</w> 1556
fac ial</w> 1556
x r</w> 1553
短 款</w> 1553
gr ams</w> 1553
car to 1552
5 g</w> 1546
世 界</w> 1546
学 习</w> 1544
全 自动</w> 1543
衣 架</w> 1542
pra da</w> 1542
制 造</w> 1540
精 致</w> 1540
t as 1539
z y</w> 1539
衣 柜</w> 1537
- 1</w> 1536
加 大</w> 1536
帽 子</w> 1536
en g 1536
prote ctor</w> 1536
s w 1535
墨 镜</w> 1535
g low</w> 1534
hoo die</w> 1534
轻 便</w> 1532
sch ool</w> 1532
a f 1531
anti - 1531
钥 匙</w> 1530
春 秋</w> 1529
书 包</w> 1529
s ur 1526
nav y</w> 1526
z e</w> 1525
col la 1524
a 7</w> 1523
裤 子</w> 1522
vit am 1522
展 示</w> 1519
bro w</w> 1519
skin ny</w> 1518
s on</w> 1517
arri val</w> 1517
50 g</w> 1516
壁 挂</w> 1512
8 5</w> 1509
che ck</w> 1507
s ing 1506
机 车</w> 1506
尺 寸</w> 1506
in ch</w> 1506
pen dant</w> 1506
厂 家</w> 1505
qu e</w> 1505
2 9 1503
c ra 1503
fl y 1503
v ing</w> 1502
唇 膏</w> 1499
携 式</w> 1499
抱 枕</w> 1496
zoo m</w> 1495
经济 型</w> 1495
st one</w> 1494
cke y</w> 1494
ar i 1491
甜 美</w> 1490
礼 服</w> 1490
pen ci 1489
s a</w> 1487
流 苏</w> 1487
r e</w> 1486
con e</w> 1486
stre t 1486
蛋 糕</w> 1485
co stu 1485
sho ck 1485
make up</w> 1485
喷 雾</w> 1484
男 装</w> 1483
围 巾</w> 1483
30 4</w> 1482
b ear</w> 1480
b er 1479
香 港</w> 1477
鞋 子</w> 1476
顶 级</w> 1476
la ptop</w> 1476
sand o</w> 1475
b s</w> 1474
c lip</w> 1473
sp a 1473
carto on</w> 1470
0 1</w> 1468
7 5</w> 1467
v 领</w> 1467
大 学</w> 1467
材 质</w> 1467
mi ckey</w> 1465
fashi on 1465
wor ks</w> 1465
y 9 1464
防 风</w> 1464
记 本</w> 1464
check out</w> 1464
t an 1463
a i</w> 1462
dv d</w> 1459
an ge</w> 1458
mm y</w> 1456
w el</w> 1455
耐 磨</w> 1451
su pre 1450
t ab 1449
b er</w> 1449
xi ao 1449
bi kini</w> 1448
in a</w> 1447
pil low</w> 1447
ke t 1445
for ce</w> 1444
max i</w> 1444
gi ft</w> 1443
on al</w> 1442
at s</w> 1442
char m</w> 1442
m g</w> 1441
a z 1441
包 装</w> 1441
-4 4</w> 1441
x - 1439
si ve</w> 1438
ti e</w> 1438
台 式</w> 1437
移 动</w> 1436
水 壶</w> 1433
on d</w> 1433
i pad</w> 1432
c c</w> 1432
us t</w> 1432
one y</w> 1432
cu p</w> 1431
绿 色</w> 1430
夏 天</w> 1429
fu l</w> 1429
春 季</w> 1428
w s</w> 1426
j 7 1426
j i 1425
p et</w> 1424
zen f 1423
d ai 1422
s al 1422
喇 叭</w> 1422
训 练</w> 1422
s l 1421
英 国</w> 1420
7 4 1418
海 外</w> 1417
chi l 1416
happ y</w> 1415
风 衣</w> 1414
an k 1412
con d 1412
ai d</w> 1410
pan ty</w> 1410
dig it 1409
v - 1407
ad ap 1406
bu tt 1405
m al 1402
r s</w> 1402
bo dy 1401
3 9 1400
ac ti 1400
li sh</w> 1400
ck y</w> 1400
so u 1400
shock proof</w> 1400
夏 装</w> 1399
xiao mi</w> 1399
knit ted</w> 1398
bal lo 1397
m y 1396
小 孩</w> 1395
玩 偶</w> 1395
el l</w> 1395
小 熊</w> 1393
mir r 1392
8 3</w> 1391
西 装</w> 1391
cr yst 1391
92 .5</w> 1388
8 - 1386
c y</w> 1386
笔 记本</w> 1386
打 孔</w> 1385
羊 皮</w> 1385
仿 真</w> 1384
te es</w> 1384
2 7</w> 1383
加 绒</w> 1383
幼 儿</w> 1383
ser um</w> 1383
t wi 1382
she et</w> 1381
sili cone</w> 1381
po lo 1380
tor y</w> 1378
6 . 1376
tr o</w> 1375
b - 1374
swim wear</w> 1374
直 销</w> 1373
便 宜</w> 1370
di o</w> 1369
4 5</w> 1366
uni corn</w> 1365
sau di</w> 1365
in er</w> 1364
fr on 1364
100 %</w> 1363
penci l</w> 1363
k en 1361
ren t</w> 1361
ke y</w> 1360
av ai 1359
l amp</w> 1358
no . 1358
yo u</w> 1358
水 果</w> 1356
床 头</w> 1356
pa j 1355
a - 1353
积 木</w> 1353
m er</w> 1352
h an 1352
泰 国</w> 1352
shad ow</w> 1351
2 50</w> 1350
图 案</w> 1350
c li 1348
at i 1348
s no 1347
购 物</w> 1347
lo ck</w> 1347
strip es</w> 1347
柜 子</w> 1346
costu me</w> 1345
e - 1344
h t 1344
餐 具</w> 1344
钥匙 圈</w> 1344
ps 4</w> 1343
b and 1342
电 器</w> 1341
钢 化</w> 1341
8 8</w> 1339
反 光</w> 1339
it h</w> 1338
cos me 1337
shi pping</w> 1336
sp lay</w> 1335
车 用</w> 1334
旋 转</w> 1334
po l 1334
to wel</w> 1333
supre me</w> 1332
宝 莉</w> 1331
cost e</w> 1331
w n 1329
塑 胶</w> 1329
四 季</w> 1326
re al</w> 1326
植 物</w> 1325
妈 妈</w> 1325
情 人 1325
12 pcs</w> 1324
60 0</w> 1324
la coste</w> 1321
圣 诞</w> 1320
hand bag</w> 1319
sli p</w> 1318
mirr or</w> 1318
an ti</w> 1317
se y</w> 1315
cho col 1315
g ol 1314
el ly</w> 1314
ele g 1314
gen u 1314
fra gr 1314
翻 盖</w> 1312
fre sh</w> 1308
re l</w> 1307
贝 壳</w> 1306
3 00 1305
ea u</w> 1304
情人 节</w> 1304
粉 红</w> 1303
che e 1303
棉 麻</w> 1301
跟 鞋</w> 1300
ar t</w> 1300
l un 1299
fas t</w> 1299
fo am</w> 1299
digit al</w> 1299
小 号</w> 1298
ni ght</w> 1298
st ring</w> 1297
法 国</w> 1295
ch erry</w> 1295
ri bb 1295
阿 玛 1293
妈 咪</w> 1291
on ic</w> 1291
ma s</w> 1291
glas ses</w> 1291
3 3</w> 1289
se ller</w> 1289
s at 1288
e mb 1287
su n</w> 1287
cu sto 1287
vitam in</w> 1287
can v 1286
a 7 1285
o em</w> 1284
z e 1284
h p</w> 1283
z en</w> 1283
pl an 1283
购 物 1282
3 in1</w> 1281
n md</w> 1281
保 温</w> 1281
qu i 1281
水 钻</w> 1278
7 6 1276
2. 0</w> 1275
a j 1274
k y</w> 1274
ki d</w> 1274
li fe</w> 1273
保 证</w> 1271
青 年</w> 1270
th er</w> 1270
len s</w> 1269
v ol 1268
改 装</w> 1266
ar m 1266
ligh t 1266
玻 璃 1265
chri st 1265
吊 灯</w> 1264
sneak ers</w> 1264
空 气</w> 1262
弹 性</w> 1262
d able</w> 1261
3 1</w> 1261
f an 1261
b le 1261
外 线</w> 1260
3 8</w> 1259
3 50</w> 1259
滑 板</w> 1258
pp ers</w> 1257
p li 1256
b o</w> 1255
行 动</w> 1255
木 质</w> 1252
or ange</w> 1252
无 袖</w> 1251
in ten 1251
bas ket 1249
a qu 1248
squ are</w> 1248
v en</w> 1247
ou s</w> 1247
cro ss</w> 1246
or der</w> 1245
阿玛 尼</w> 1245
o m 1243
z ara</w> 1243
a c</w> 1242
水 桶</w> 1241
t al 1240
per fe 1240
e f</w> 1239
a f</w> 1239
生 日 1239
it ion 1238
官 方</w> 1237
basket ball</w> 1236
col or 1235
绝 版</w> 1234
cryst al</w> 1234
g ro 1233
colla gen</w> 1233
s po 1232
run s</w> 1232
g ger</w> 1231
下 杀 1231
优 质</w> 1231
ar m</w> 1230
to yo 1230
hand le</w> 1230
1 .5</w> 1229
2 20 1228
h d</w> 1226
ac e 1226
袜 子</w> 1225
s o</w> 1223
f ab 1223
eleg ant</w> 1223
球 鞋</w> 1222
音 乐</w> 1222
cr o</w> 1222
代 理</w> 1220
泡 泡</w> 1220
vers ace</w> 1218
fig ure</w> 1218
沐 浴</w> 1217
配 色</w> 1217
ra in 1216
ni e</w> 1216
ig e</w> 1215
one si 1215
水 杯</w> 1214
m t 1213
p ear 1213
9 7</w> 1213
mi x</w> 1213
zenf one</w> 1213
v et</w> 1211
c en 1210
kit chen</w> 1209
ah a</w> 1208
di am 1207
genu ine</w> 1207
三 星</w> 1206
星 星</w> 1206
服 装</w> 1206
女 性</w> 1205
硅 胶</w> 1205
8 1</w> 1204
f ly</w> 1204
特 卖</w> 1203
toyo ta</w> 1203
he al 1202
t ape</w> 1201
零 食</w> 1201
ton er</w> 1201
持 久</w> 1199
sing le</w> 1199
d ry</w> 1198
p le 1198
mar i 1198
over runs</w> 1197
fri en 1196
u v</w> 1195
m ac 1192
i mp 1192
le gg 1192
hon da</w> 1190
p ad 1189
7 7 1188
中 式</w> 1188
re al 1188
r ac 1185
无 痕</w> 1183
电 脑 1183
肩 带</w> 1183
毛 巾</w> 1183
fr ame</w> 1183
床 头 1181
cap su 1180
n ail</w> 1179
版 )</w> 1179
sto ck</w> 1179
f a 1178
ap pa 1178
麂 皮</w> 1177
原 宿</w> 1176
胶 带</w> 1176
wh e 1176
生日 礼物</w> 1176
ea ble</w> 1175
chocol ate</w> 1174
安 全 1173
迷 彩</w> 1172
糖 果</w> 1172
眼 影</w> 1172
un der</w> 1172
bang ko 1172
c ity</w> 1171
b ul 1171
活 动</w> 1171
孕 妇</w> 1171
ma t</w> 1171
key chain</w> 1171
co mb 1170
3 m</w> 1169
英 文</w> 1169
re dmi</w> 1169
p p</w> 1167
行 李 1165
p on 1164
新 )</w> 1164
可 折叠</w> 1164
3 4</w> 1163
ch am 1162
老 爹</w> 1161
wi fi</w> 1160
花 朵</w> 1159
ka y</w> 1157
pre- loved</w> 1157
y o</w> 1156
fore ver</w> 1156
on - 1155
cor e</w> 1155
pand ora</w> 1155
mi o</w> 1154
合 一</w> 1153
it e 1149
s .</w> 1147
套 头</w> 1147
道 具</w> 1147
au to 1146
appa rel</w> 1145
自 行车</w> 1144
工 作</w> 1144
素 面</w> 1144
g ap</w> 1143
an o</w> 1142
ne w 1142
f er 1141
精 油</w> 1141
ju st 1141
essenti al</w> 1141
装 饰 1140
canv as</w> 1140
bangko k</w> 1140
mon o 1138
电脑 桌</w> 1138
x x 1137
k le 1136
枕 头</w> 1136
国 际</w> 1136
工 业</w> 1135
po d</w> 1135
4 00 1134
er ing</w> 1134
r a</w> 1133
全 套</w> 1133
腰 包</w> 1133
荔 枝</w> 1133
s / 1131
for mal</w> 1131
jump suit</w> 1131
铝 合金</w> 1130
柔 软</w> 1130
j an 1129
mi cro</w> 1129
ph ones</w> 1129
wo mens</w> 1129
g lit 1127
欧 洲</w> 1127
遮 阳 1127
桌 椅</w> 1126
素 色</w> 1125
re ju 1122
paj ama</w> 1122
m ale</w> 1120
li mit 1120
5 ml</w> 1119
实 用</w> 1119
co at</w> 1119
ca ke</w> 1119
mon th 1118
fashion able</w> 1117
直 播</w> 1115
tu be</w> 1115
w ra 1114
5 7 1114
m bl 1113
y l</w> 1113
夹 克</w> 1113
4 8 1112
o d 1111
b on 1111
老 花</w> 1111
折 叠 1111
纤 维</w> 1111
lu cky</w> 1111
adap ter</w> 1111
\ n</w> 1109
优 雅</w> 1109
平 板</w> 1109
e ss</w> 1108
sh i</w> 1108
5 6 1107
空 调</w> 1106
1 20</w> 1105
装 饰品</w> 1105
li e</w> 1105
li n</w> 1105
ch able</w> 1102
wal l 1100
ne o 1099
te l</w> 1099
con tro 1099
fly knit</w> 1099
s m</w> 1098
4 6 1097
j er 1097
裙 子</w> 1097
巴 黎</w> 1097
zi pper</w> 1097
三 角</w> 1094
婚 礼</w> 1094
ed ge</w> 1094
龙 头</w> 1093
ti me</w> 1093
run ning</w> 1093
chil dre 1093
机 壳</w> 1092
18 0 1092
bu m</w> 1091
s mo 1090
女 神</w> 1090
cle an 1089
p lay</w> 1088
长 裙</w> 1088
el d</w> 1088
低 价</w> 1087
g un 1086
盒 装</w> 1086
bu tton</w> 1086
a 5</w> 1082
ar t 1082
美 容</w> 1081
k ate</w> 1080
隐 形</w> 1079
diam ond</w> 1079
t 恤 1078
流 行</w> 1077
强 力</w> 1077
购物 袋</w> 1077
fen di</w> 1076
9 - 1075
l am 1075
ap er</w> 1075
.. .</w> 1075
fun ko</w> 1075
ba g 1074
音 响</w> 1073
fron t</w> 1073
m c 1072
凳 子</w> 1072
饼 干</w> 1071
遥 控</w> 1071
20 20 1071
pur se</w> 1071
vel vet</w> 1070
旅 行 1069
sli ppers</w> 1069
legg ings</w> 1069
w l</w> 1068
圣 诞 1066
酒 店</w> 1066
靠 背</w> 1066
que en</w> 1066
limit ed</w> 1066
3 9</w> 1065
p ul 1065
亲 子</w> 1064
g- shock</w> 1064
挂 件</w> 1061
woo d</w> 1059
b v 1058
b al</w> 1058
漫 画</w> 1058
ro y 1057
mi c</w> 1057
bi es</w> 1057
y ears</w> 1056
二 手 1056
文 版</w> 1056
in o</w> 1056
power bank</w> 1056
空 间</w> 1055
sho e</w> 1054
保 温 1053
ba by 1053
工 作 1052
si mp 1050
s old</w> 1049
樱 花</w> 1049
sh a</w> 1049
软 壳</w> 1048
迪 达 1047
la dy</w> 1046
bla zer</w> 1046
6 / 1044
文 具</w> 1044
五 金</w> 1043
bl ack 1043
spe cial</w> 1043
p ing</w> 1042
f ru 1042
co in</w> 1042
8 g</w> 1041
t ail</w> 1041
3. 0</w> 1041
坐 垫</w> 1040
t t</w> 1039
ma ke</w> 1039
cond ition 1039
w e</w> 1038
短 裙</w> 1038
4 7 1037
tr an 1037
c ri 1036
g y</w> 1034
毛 绒</w> 1034
boo ks</w> 1033
l v 1032
y am 1032
le x</w> 1032
7 / 1031
pear l</w> 1030
h ang 1029
bir th 1029
平 底 1028
高 档</w> 1028
to uch</w> 1028
st ate 1027
超 级</w> 1026
深 蓝</w> 1026
month s</w> 1026
re tro</w> 1025
th ai 1024
le gen 1023
woo den</w> 1023
person ali 1023
at a</w> 1022
ce ss</w> 1022
m r 1021
j o</w> 1021
w ho 1020
pu mp</w> 1018
小 说</w> 1016
系 带</w> 1016
ma c</w> 1016
冰 箱</w> 1014
w - 1013
商 用</w> 1013
5 8 1012
dri ve</w> 1012
v y</w> 1011
charg ing</w> 1011
9 6 1010
it i 1010
ro id</w> 1010
ba vin</w> 1010
ne ss</w> 1009
childre n</w> 1009
state ment</w> 1009
1 s</w> 1008
巧 克力</w> 1008
pp ed</w> 1008
be d 1008
jo gger</w> 1008
2 9</w> 1007
角 落</w> 1007
萤 幕</w> 1007
4 8</w> 1006
牙 刷</w> 1006
sp ade</w> 1006
christ mas</w> 1006
磨 砂</w> 1005
er o 1005
d c</w> 1004
3 7</w> 1003
餐 椅</w> 1003
bi e</w> 1003
华 为</w> 1002
co de</w> 1002
bo x 1002
polo 衫</w> 1002
w ire</w> 999
j elly</w> 999
pa lette</w> 999
充 气</w> 998
wash able</w> 998
彩 虹</w> 997
翻 领</w> 997
茶 具</w> 997
供 应</w> 996
colo ur 996
te ster</w> 995
he els</w> 995
迪达 斯</w> 995
ear phone</w> 993
高 筒</w> 992
l g</w> 991
皮 鞋</w> 991
m ol 990
y - 989
洋 气</w> 989
m ach 988
ch amp</w> 988
4 g</w> 987
发 饰</w> 987
原 创</w> 987
po s 987
no t</w> 987
blu sh</w> 987
v ac 986
长 方形</w> 986
钻 石</w> 986
e s 985
moi stu 985
mm ing</w> 983
2 1 982
f ir 982
c er</w> 981
perfe ct</w> 981
ad just 980
卡 片</w> 979
棒 球 979
拉 杆</w> 979
艺 术</w> 978
ru b</w> 978
j i</w> 977
b l</w> 976
pr e</w> 976
尼 龙</w> 975
阿 迪达斯</w> 975
豆 豆</w> 975
th i 975
y ee 974
座 椅</w> 974
70 0</w> 974
offi ce</w> 974
er o</w> 973
fi er</w> 973
y a 972
计 时</w> 972
ro i 972
moistu ri 972
b t 971
键 盘</w> 971
1 50 970
派 对</w> 970
pri ce</w> 969
la ble</w> 968
ur a</w> 967
and roid</w> 967
t w</w> 965
台 灯</w> 965
to dd 965
bi ke</w> 965
fil ter</w> 965
多 色</w> 964
mar vel</w> 964
紫 色</w> 963
10 pcs</w> 963
sp f 963
ver y</w> 963
l li 962
z ing</w> 962
口 罩</w> 961
ing er</w> 961
ju ice</w> 961
sc en 961
bor n</w> 961
干 燥</w> 959
at ion 959
gre y</w> 959
out door</w> 959
e t 958
k l</w> 958
co ol</w> 958
cleans ing</w> 958
fragr ance</w> 958
t ure</w> 957
0 2</w> 956
j 2</w> 956
clo th</w> 956
发 夹</w> 955
or t</w> 954
m bo 953
t ai 953
x xl</w> 953
ig h 953
h er</w> 952
大 理 952
购 )</w> 952
condition er</w> 952
街 头</w> 951
lu s</w> 951
w r 950
personali zed</w> 950
紫 外线</w> 949
垃 圾 949
行李 箱</w> 949
g y 948
高 跟鞋</w> 948
ar mo 948
prin cess</w> 948
fi la</w> 947
y rs</w> 945
表 带</w> 945
ribb on</w> 945
大理 石</w> 945
t ch</w> 944
包 邮</w> 944
3 c</w> 943
房 间</w> 943
ni s 942
g oo 941
jer sey</w> 941
款 )</w> 940
in st 940
er y</w> 940
卫 衣</w> 939
sh a 938
gu ess</w> 938
adjust able</w> 938
al bum</w> 937
fo und 937
组 装</w> 936
书 房</w> 936
5 .5</w> 935
小 脚</w> 935
中 国</w> 935
乔 丹</w> 935
黄 色</w> 935
am eri 935
6 plus</w> 934
7 plus</w> 934
custo mi 934
p in</w> 933
升 降</w> 933
手 提</w> 930
j 5</w> 930
背 带</w> 930
益 智</w> 930
hu man</w> 930
棒球 帽</w> 930
女 包</w> 929
尖 头</w> 929
re charg 929
po ds</w> 929
uni q 929
10 1</w> 928
wor ld</w> 928
wall paper</w> 928
蝴 蝶</w> 927
充 电器</w> 927
fab ric</w> 927
e ds</w> 925
镜 子</w> 925
re ad 925
ballo on</w> 923
露 营</w> 922
ar o 922
g ar</w> 921
ur y</w> 921
18 0</w> 921
too l</w> 921
mag ne 921
书 柜</w> 920
ro om</w> 920
eye brow</w> 920
alo e</w> 920
5 5</w> 919
z o 919
朋 友</w> 919
吧 台</w> 919
v an 918
露 肩</w> 918
thai land</w> 918
6 g</w> 917
t b</w> 917
青 少年</w> 917
al u 917
ad he 917
自 然</w> 916
mb er</w> 916
t one</w> 915
( 全 914
tr u 914
be ach</w> 914
mat ic</w> 914
bas ic</w> 914
f 5</w> 913
n a 912
口 红</w> 912
连 体</w> 911
emb roi 911
p in 910
手 包</w> 910
摩 托 910
b ed</w> 909
收 藏</w> 908
birth day</w> 908
钓 鱼</w> 907
pho to 907
a 4</w> 906
a3 7</w> 906
so f 905
car ds</w> 905
沙 发 904
co s</w> 904
ver sion</w> 904
stret chable</w> 904
w are</w> 903
c d 903
b on</w> 903
拼 图</w> 903
窗 帘</w> 903
搭 配</w> 903
tan k</w> 903
w a</w> 902
b len 902
blo ck</w> 902
k er 901
厕 所</w> 901
pl ated</w> 901
of f 900
pie ces</w> 900
面 包</w> 899
in nis 899
found ation</w> 899
9 . 898
结 婚</w> 897
8 plus</w> 896
盒 子</w> 896
ti cs</w> 896
7 9</w> 895
周 年</w> 895
us a</w> 895
9 8</w> 894
f 7</w> 894
浪 漫</w> 894
夏 日</w> 894
学 者</w> 894
uniq lo</w> 894
中 文版</w> 893
梳 妆 893
摩托 车</w> 893
使 用</w> 892
air s</w> 892
kle in</w> 892
r al 889
v 2</w> 889
clas s</w> 889
初 学者</w> 888
入 )</w> 888
罗 兰</w> 888
ir on</w> 888
a3 s</w> 888
wra p</w> 888
s d</w> 887
银 色</w> 887
too th 887
食 品</w> 885
bo t 885
avai lable</w> 885
e as 884
f 9</w> 883
烘 焙</w> 882
h k</w> 881
超 人</w> 881
da m</w> 880
泳 装</w> 879
化妆 品</w> 879
gam ing</w> 879
ch u 878
mach ine</w> 878
s co 877
连 线</w> 876
一 字</w> 876
虾 皮</w> 876
mo un 876
梳妆 台</w> 876
4 2</w> 875
杯 子</w> 875
cro ss 875
fo il</w> 875
offi cial</w> 875
yee zy</w> 875
0 5 874
recharg eable</w> 874
便 当</w> 873
la u 873
旅 游</w> 872
ss a</w> 872
cur tain</w> 872
com for 871
a 71</w> 870
k - 870
arm or</w> 870
颜 色</w> 869
灯 具</w> 869
armo ur</w> 869
innis free</w> 869
基 本</w> 868
pa wn 867
米 妮</w> 866
le te</w> 865
sel f</w> 865
w on 864
魔 法</w> 864
挂 钩</w> 864
colo red</w> 864
飞 机</w> 863
x e</w> 862
夜 光</w> 862
it s</w> 862
te ch</w> 862
dre am</w> 862
号 :</w> 861
杂 货</w> 861
flas h</w> 860
c lay</w> 859
te n</w> 859
butt er 859
stick ers</w> 858
chee k</w> 858
6 4</w> 857
登 山</w> 857
ch ic</w> 857
key board</w> 857
x s 856
双 色</w> 856
童 鞋</w> 856
安全 帽</w> 856
e ts</w> 855
洗 发 855
mo s</w> 855
ey el 855
cti ve</w> 855
镜 头</w> 854
授 权</w> 853
la ure 853
we dge</w> 853
long sleeve</w> 853
lu tion</w> 852
mi x 852
6 pcs</w> 851
粉 底</w> 851
超 大</w> 851
s 8</w> 850
cleans er</w> 850
布 置</w> 849
pur ple</w> 849
y 6</w> 848
独 家</w> 848
ma y 848
魔 术</w> 847
骑 士</w> 847
me ter</w> 847
to m</w> 847
swe et</w> 847
手 镯</w> 846
海 报</w> 846
6 8 845
9 78 845
v 7</w> 845
真 品</w> 845
se i 844
太阳 镜</w> 844
m 4 843
航 海</w> 843
小 学生</w> 842
订 制</w> 842
00 2</w> 842
u sed</w> 841
li ps</w> 841
兔 子</w> 840
pl ate</w> 840
head band</w> 840
s ing</w> 839
p al 839
wo man</w> 838
bal m</w> 838
lay er</w> 838
w ri 837
adhe sive</w> 837
健 康</w> 835
sc rub</w> 835
数 位</w> 834
衬 衣</w> 834
x l 833
外 出</w> 833
tu mbl 833
prote ction</w> 833
转 卖</w> 832
jump er</w> 832
s or</w> 831
生 物</w> 831
30 ml</w> 829
安 卓</w> 828
最 新</w> 828
stu d</w> 828
over run</w> 828
大 衣</w> 827
马 桶</w> 827
拍 照</w> 826
y our</w> 826
we d 826
pur po 826
6 5</w> 825
s . 825
思 哲</w> 825
h at</w> 824
5 mm</w> 824
智 慧</w> 824
in fin 824
发 货</w> 823
真 空</w> 823
d h 822
s 6</w> 822
修 护</w> 822
dra g 822
生 儿</w> 821
马 仕</w> 821
f 1s</w> 820
pro du 820
-4 5</w> 820
9 4 819
k ar 818
范 思哲</w> 818
in f 817
ro ller</w> 817
de l</w> 817
laure n</w> 817
衣 物</w> 816
上 市</w> 816
an e 816
re o</w> 816
me t</w> 816
reju ven 816
2 pcs</w> 815
点 点</w> 815
d en 814
落 地 814
000 mah</w> 814
x r 813
鞋 架</w> 813
九 分</w> 813
al ph 813
sh ar 813
bur ch</w> 813
平底 鞋</w> 813
a 83</w> 812
托 特</w> 812
仙 女</w> 812
do wn</w> 812
三 色</w> 811
co ol 811
av on</w> 811
遮 阳</w> 810
st on</w> 810
essen ce</w> 810
圣诞 节</w> 809
ko be</w> 808
fi ber</w> 807
保 鲜</w> 806
li ving</w> 806
g t 805
p am 805
针 织 805
un g</w> 805
床头 柜</w> 805
2 50ml</w> 804
sp on 804
de co 804
brand new</w> 804
b m 803
地 毯</w> 803
pa ds</w> 803
se a 802
w ing</w> 801
6 7 800
神 奇 800
ear ring</w> 800
3 / 799
高 端</w> 799
po ke 799
eye shadow</w> 798
foo t</w> 798
body con</w> 798
( 附</w> 797
变 频</w> 797
隔 断</w> 796
交 叉</w> 796
披 肩</w> 796
ral ph</w> 796
6 00 795
v 11</w> 794
短 靴</w> 794
半 身</w> 794
s ses</w> 793
an na</w> 793
to mmy</w> 793
ff on</w> 793
f lip</w> 792
纸 巾</w> 792
g et</w> 791
s 7</w> 791
j 2 791
x t</w> 791
it o</w> 791
for d</w> 791
24 h</w> 791
6 3</w> 790
rejuven ating</w> 790
ac tion</w> 789
to i 789
chi ffon</w> 789
0 0</w> 788
海 绵</w> 788
洗 衣 788
di aper</w> 788
o t 787
洗 澡</w> 785
普 拉 784
th ing</w> 784
bi o 784
k et</w> 783
克 风</w> 783
am ic</w> 783
p t 782
z u 782
y5 3</w> 782
彩 绘</w> 781
宝 石</w> 781
tt i</w> 781
u a</w> 780
水 器</w> 780
原 价</w> 780
colour pop</w> 780
摄 影</w> 779
fe ssi 779
装饰 画</w> 779
神奇 宝贝</w> 779
松 紧</w> 778
折 扣</w> 778
草 莓</w> 778
密 封</w> 778
as t</w> 778
mi s 778
customi zed</w> 778
long champ</w> 777
swe ater</w> 777
e tu 776
家 庭</w> 776
模 具</w> 776
si s</w> 776
m am 775
睫 毛</w> 775
yam aha</w> 775
4 2 774
r ack</w> 774
5 d</w> 774
n or 774
奢 华</w> 774
服 饰</w> 774
钢 带</w> 774
so s</w> 774
ty pe 774
multi - 774
fol dable</w> 774
文 艺</w> 773
hal ter</w> 773
d on 772
pol ka</w> 772
m all</w> 771
sh ion</w> 770
se mi</w> 770
-4 0</w> 770
立 式</w> 769
几 何</w> 769
7- 11</w> 769
推 车</w> 768
s so 767
v 9</w> 767
感 应</w> 767
购 买</w> 767
精 灵</w> 767
me sh</w> 767
7 . 765
直 筒</w> 765
n ur 765
绒 毛</w> 765
麦 克风</w> 765
cham pi 765
todd ler</w> 765
n b</w> 764
吸 管</w> 764
力 士</w> 763
按 摩 763
cel l 762
tre e</w> 761
shi eld</w> 761
f 3</w> 760
de li 760
mar c</w> 760
d es</w> 759
科 技</w> 759
黄 金</w> 759
glu ta</w> 759
pho to</w> 759
超 值</w> 758
sp ar 757
完 美</w> 756
no vo</w> 756
ani mal</w> 756
80 0</w> 756
h or 754
送 礼</w> 754
se l</w> 754
多 肉</w> 753
儿 园</w> 753
sa fe 753
re si 752
de red</w> 752
l ink</w> 751
抽 屉</w> 751
酒 吧</w> 751
gar i</w> 751
z a</w> 750
雨 伞</w> 750
9 6</w> 749
re e 749
ver a</w> 749
普拉 达</w> 749
t su 748
h d 748
co splay</w> 748
h o</w> 747
种 子</w> 747
大 型</w> 746
mas sa 746
t s 745
u kay</w> 745
sh ine</w> 745
pawn able</w> 745
乐 器</w> 744
双 肩</w> 744
re pl 744
cu shion</w> 744
poke mon</w> 744
0 3</w> 743
二手 )</w> 743
a h</w> 742
门 口</w> 742
文 化</w> 742
to mi 742
gra phi 742
1/ 2</w> 742
pos able</w> 742
5 4 741
万 用</w> 741
pro fessi 741
deco r</w> 741
紧 身</w> 740
fru it</w> 740
etu de</w> 740
d on</w> 739
全 身</w> 739
瑜 伽</w> 739
幼 儿园</w> 739
a o</w> 738
v 5</w> 738
免 运</w> 738
先 生</w> 738
bo ss</w> 738
ne o</w> 738
ni c</w> 738
mul ti</w> 738
spe ed</w> 738
新 娘</w> 737
sm ith</w> 737
dis posable</w> 737
英 雄</w> 736
款 式</w> 736
靠 垫</w> 736
st ed</w> 736
c l 735
60 ml</w> 735
tumbl er</w> 735
1 )</w> 734
1 a</w> 734
a e 734
6 6</w> 734
n on- 734
器 材</w> 734
can on</w> 734
- -</w> 733
s k</w> 733
n ar 733
欧 风</w> 733
恐 龙</w> 733
办公 桌</w> 733
capsu les</w> 733
数 字</w> 732
ri e</w> 732
cor d</w> 732
2 70</w> 731
k u</w> 731
el a</w> 731
magne tic</w> 731
法 式</w> 730
榻 米</w> 730
设 计 730
tt y</w> 730
ex ten 730
de cor 729
gra m</w> 729
1. 8 729
under wear</w> 729
立 领</w> 728
le ts</w> 728
fac e 728
p a</w> 727
p 20</w> 727
榻 榻米</w> 727
co co</w> 727
ss y</w> 727
fl ats</w> 727
air pods</w> 727
glu tat 727
fil m</w> 727
7 2</w> 726
l cd</w> 726
pu b 726
.... .... 726
super star</w> 726
a a 725
羊 毛</w> 725
su gar</w> 725
no va 725
fro zen</w> 725
d ata</w> 724
制 作</w> 724
梦 幻</w> 724
ch ro 723
pack age</w> 723
顶 灯</w> 722
隔 热</w> 722
开 关</w> 722
comp lete</w> 722
supp ort</w> 722
bv l 722
purpo se</w> 722
a 6</w> 721
g er 721
发 光</w> 721
价 )</w> 721
七 龙 721
铅 笔</w> 721
her o</w> 721
a5 9</w> 721
har d 721
note book</w> 721
gun dam</w> 721
7 g</w> 720
j 4</w> 720
hi one</w> 720
por t</w> 720
男 子</w> 719
co ach 719
lo t</w> 719
p ull</w> 718
高 级</w> 718
第 一</w> 718
ac ry 718
fir st</w> 718
洗衣 机</w> 718
工 厂</w> 717
gi cal</w> 717
hal f</w> 717
strip ed</w> 717
a 8</w> 716
9 h</w> 716
基 尼</w> 716
2 i</w> 715
3 .5</w> 715
f ami 715
卡 西 715
拉 拉</w> 715
固 定</w> 715
sp en 715
tr ans 715
ord in 715
r at 714
精 选</w> 713
aqu a</w> 713
0 - 712
s 925</w> 712
东 京</w> 712
清 仓</w> 712
re lla</w> 712
to ol 712
1. 5 712
professi onal</w> 712
4 1</w> 711
海 洋</w> 711
中 性</w> 711
bra ke</w> 711
m us 710
3 pcs</w> 710
9 2</w> 710
日 常</w> 710
ex o</w> 710
ach e</w> 710
butter fly</w> 710
t d</w> 709
r o</w> 709
or y</w> 709
ac er</w> 709
pp y</w> 709
bed sheet</w> 709
i p 708
徽 章</w> 708
as e</w> 708
100 g</w> 708
h oney</w> 707
v ap 707
ki e</w> 707
par is</w> 707
j 6</w> 706
ur ban</w> 706
ag a</w> 706
acry lic</w> 706
椰 子</w> 705
min t</w> 705
/ /</w> 704
武 士</w> 704
照 片</w> 704
(全 新)</w> 704
or e</w> 703
wi ld</w> 703
sl ing 703
t u</w> 702
t an</w> 702
le x 702
at es</w> 702
col d</w> 702
500 ml</w> 702
卡西 欧</w> 702
w m 701
9 7 701
500 g</w> 701
分 装</w> 700
吸 顶灯</w> 700
war s</w> 700
glutat hione</w> 700
l ing 699
u p 699
ti n</w> 699
no v 699
cu tter</w> 699
ht c</w> 699
七龙 珠</w> 699
8 / 698
as onic</w> 698
ta g</w> 698
( 二手)</w> 697
1 pc</w> 697
4 3</w> 697
6 8</w> 697
9 1</w> 697
ang le</w> 697
contro l</w> 697
h a</w> 696
pe sos</w> 696
n - 695
后 背</w> 695
杂 货 695
in ter 695
lux xe</w> 695
wed ding</w> 695
2 .5</w> 694
ang el</w> 694
家 居 693
台 北</w> 693
le mon</w> 693
pon y</w> 693
champi on</w> 693
( 现货</w> 692
s er</w> 692
手 动</w> 692
o h</w> 692
柠 檬</w> 692
渔 夫</w> 692
hy dr 692
tomi ca</w> 692
嘻 哈</w> 691
好 )</w> 690
12 v</w> 690
cal vin</w> 690
inf ant</w> 690
安 装</w> 689
? ? 689
de o</w> 689
w hi 688
a k</w> 688
4 a</w> 688
g ear</w> 688
c ed</w> 688
购 入</w> 688
bvl gari</w> 688
帽 t</w> 687
墙 壁</w> 687
涂 鸦</w> 687
ki d 687
ati ve</w> 687
p an</w> 686
f lu 686
保 养</w> 686
天 使</w> 686
ro se 686
el la</w> 686
tran spa 686
an y</w> 685
se eds</w> 685
棒 球</w> 684
香 氛</w> 684
ri ce</w> 684
cu s</w> 684
手提 袋</w> 684
who le 684
美 妆</w> 683
男 性</w> 683
li d</w> 683
un k</w> 683
ru ff 683
igh t</w> 683
min nie</w> 682
s ol 681
电 影</w> 681
d or 680
s sed</w> 680
三 角 680
印 章</w> 680
震 动</w> 680
公 文 680
en s</w> 680
car a</w> 680
针织 衫</w> 680
雪 花</w> 679
优 惠 679
帅 气</w> 679
gu lar</w> 679
s 9</w> 678
p airs</w> 678
螺 丝</w> 678
le novo</w> 678
al l 678
ch et</w> 678
bi t</w> 678
ter n</w> 678
remo ver</w> 678
se at</w> 677
ny lon</w> 677
cosme tics</w> 677
比 基尼</w> 676
交 换</w> 676
写 字</w> 676
re pli 676
kin a</w> 676
person al</w> 676
设计 师</w> 676
transpa rent</w> 676
良 好)</w> 675
开 发</w> 675
森 林</w> 675
墙 面</w> 675
flo w 675
simp le</w> 675
4 6</w> 674
洗发 精</w> 674
cell phone</w> 674
4 4</w> 673
le e</w> 673
fe male</w> 673
str ai 673
g l 672
n on</w> 672
剪 刀</w> 672
10 8</w> 672
6 1</w> 671
优 选</w> 671
床 垫</w> 671
ro u 671
mo del</w> 671
ite ms</w> 671
e u 670
e li 670
8 gb</w> 670
b f</w> 670
史 努 670
名 媛</w> 670
沥 水</w> 670
sea led</w> 670
4 in1</w> 669
新 生儿</w> 669
墙 上</w> 669
橡 胶</w> 669
vin yl</w> 669
( 良好)</w> 668
冷 气</w> 668
标 准</w> 668
圣 节</w> 668
携 带</w> 668
a ero 667
单 车</w> 667
su e 667
de ep</w> 667
sk i</w> 667
a re 666
i cs</w> 666
指 甲 666
旅行 包</w> 666
垃圾 桶</w> 666
graphi c</w> 666
三 件</w> 665
乳 液</w> 665
规 则</w> 665
秋 装</w> 665
rain bow</w> 665
史努 比</w> 665
s car 664
衣 橱</w> 664
耳 针</w> 664
万 圣节</w> 664
5 / 663
丽 鸥</w> 663
包 装 663
len ci 663
gri p</w> 663
1 30 662
s mi 662
游 泳</w> 662
田 园</w> 662
ex tra</w> 662
bas e 662
fit s</w> 662
auto matic</w> 662
off shoulder</w> 662
repli ca</w> 662
9 3</w> 661
le br 661
st it 661
si ble</w> 661
10 ml</w> 661
10 00 661
mal one</w> 661
高 跟</w> 660
主 机</w> 660
mi t</w> 660
car dig 660
clu tch</w> 660
公文 包</w> 660
手 袋</w> 659
o v 659
低 筒</w> 659
名 牌</w> 659
-3 xl</w> 659
小 姐</w> 658
机 能</w> 658
劳 力士</w> 658
clean er</w> 658
家 家</w> 657
吸 水</w> 657
sc o</w> 657
品 )</w> 656
茶 杯</w> 656
店 铺</w> 656
bu cks</w> 656
t ar 655
y 71</w> 655
鸭 舌 655
果 冻</w> 655
牛 奶</w> 655
摆 饰</w> 655
pre st 655
wa ve</w> 655
rac ing</w> 655
1 40 654
b ath 654
ste reo</w> 653
8 . 652
发 带</w> 652
怪 兽</w> 652
ba bies</w> 652
ath ering</w> 652
stu ff 652
micro phone</w> 652
鸭舌 帽</w> 652
h air 651
y ing</w> 651
小 童</w> 651
大 气</w> 651
老 人</w> 651
磁 铁</w> 651
高 尔 651
16 gb</w> 651
r and 650
滋 润</w> 650
垫 子</w> 650
毛 孔</w> 650
液 晶</w> 650
gra de</w> 650
ja co 650
mari kina</w> 650
a 字</w> 649
v 11 649
加 长</w> 649
bo k</w> 649
ligh ts</w> 649
二 代</w> 648
人 床</w> 648
降 价</w> 648
pa int</w> 648
tool s</w> 648
背 景 647
roy al</w> 647
drag on</w> 647
g le</w> 646
预 购)</w> 646
sil k</w> 646
e va</w> 645
1 kg</w> 645
g / 645
c ab 645
罗 马</w> 645
8 00 644
网 布</w> 644
破 洞</w> 644
ch y</w> 644
li ke</w> 644
洗 手 643
po t</w> 643
car ter</w> 643
sc ent</w> 643
man go</w> 643
防 护</w> 642
亮 片</w> 642
背景 墙</w> 642
衣 着</w> 641
奶 瓶</w> 641
澳 洲</w> 641
挂 钟</w> 641
mi ss</w> 641
220 v</w> 641
onesi e</w> 641
r ash 640
粉 饼</w> 640
时 钟</w> 640
玫 瑰 640
in k 640
re e</w> 640
te red</w> 640
m ani 639
中 文</w> 639
床 单</w> 639
纪 念</w> 639
ba lenci 639
long sleeves</w> 639
t un 638
g athering</w> 638
黑 红</w> 638
fi e</w> 638
f 11</w> 637
可 调</w> 637
聊 聊</w> 637
me ga</w> 637
mor e</w> 637
p ly</w> 636
o g</w> 636
n al</w> 636
小 巧</w> 636
第 二</w> 636
青 春</w> 636
mi d</w> 636
ra di 636
ky rie</w> 636
read y</w> 636
c lin 635
l ac 634
巴 克</w> 634
小 时</w> 633
制 服</w> 633
plu sh</w> 633
钥匙 扣</w> 633
- c</w> 632
7 8</w> 632
s 10</w> 632
花 园</w> 632
香 精</w> 632
as s</w> 632
mo on</w> 632
legen ds</w> 632
a 50</w> 631
防 弹</w> 631
背 景</w> 631
运 )</w> 631
lo r</w> 631
战 士</w> 630
摆 设</w> 630
st and 630
al lo 630
sp ring</w> 630
mu g</w> 630
r ai 629
女 款</w> 629
蜡 烛</w> 629
出 版</w> 629
维 尼</w> 629
lebr on</w> 629
d w</w> 628
c ir 628
星 空</w> 628
钢 圈</w> 628
st an</w> 628
mo tor</w> 628
op y</w> 628
sn ail</w> 628
遮阳 帽</w> 628
fami ly</w> 628
k ing 627
丝 绒</w> 627
st er 627
ch er</w> 627
( 含</w> 626
8 4 626
g la 626
ki a</w> 626
sue de</w> 626
mas ter</w> 625
hea vy</w> 625
fol ding</w> 625
ree bok</w> 625
g s 624
简 单</w> 624
专 辑</w> 624
欢 迎</w> 624
ki es</w> 624
sun glasses</w> 624
safe ty</w> 624
whole sale</w> 624
m oney</w> 623
h - 623
ac id</w> 623
z o</w> 622
询 问</w> 622
pe ach</w> 622
sling bag</w> 622
1 60 621
工 具 621
or o</w> 621
mar o 621
star bucks</w> 621
real me</w> 621
p o</w> 620
sp a</w> 620
c am</w> 619
男 用</w> 619
z ero</w> 618
te en</w> 618
( 可</w> 617
1 70 617
a x 617
罩 衫</w> 617
版 百</w> 617
音 箱</w> 617
子 女</w> 617
民 族</w> 617
t ap 615
羽 绒</w> 615
bo u 615
moisturi zing</w> 615
门 帘</w> 614
cro chet</w> 614
保温 杯</w> 614
t it 613
r 1</w> 613
拆 封</w> 613
零 件</w> 613
邮 差</w> 613
鳄 鱼</w> 613
an de 613
ko j 613
bla de</w> 613
glit ter</w> 613
a 1</w> 612
k ne 612
衣 帽 612
付 款</w> 612
stor e</w> 612
ga - 612
5. 0</w> 612
in ner</w> 611
ac le</w> 611
bar bie</w> 611
imp orted</w> 611
v eni 610
屁 衣</w> 610
首 饰</w> 610
( 2</w> 609
c g</w> 609
婴 幼儿</w> 609
ea t</w> 609
cle an</w> 609
heal th</w> 609
2020 年</w> 609
m 6 608
百 货 608
dre sses</w> 608
be st 608
8 7</w> 607
机 器 607
指 甲</w> 607
卸 妆</w> 607
总 动 607
so lar</w> 607
sn ap 607
fun ction</w> 607
win do 607
check ered</w> 607
loo se</w> 607
al co 606
min um</w> 606
mu sic</w> 606
re s</w> 605
me tal 605
mo ss</w> 605
color ful</w> 605
cross body</w> 605
e q 604
h dmi</w> 604
蛋 白</w> 604
mas cara</w> 604
wa ys</w> 604
pas te</w> 604
机器 人</w> 604
总动 员</w> 604
e tti</w> 603
s d 603
幸 福</w> 603
in -1</w> 602
sh ing</w> 602
现 货 601
挂 式</w> 601
siz e 601
hang ing</w> 601
2 50 600
太 空</w> 600
星 巴克</w> 600
台 中</w> 600
gh ten 600
va len 600
pub lic</w> 600
遮 光</w> 599
re ar</w> 599
sh ape</w> 599
hi l 599
ap y</w> 599
n inten 598
抽 屉 598
to o</w> 598
new born</w> 598
embroi dered</w> 598
cardig an</w> 598
balenci aga</w> 598
2 / 597
底 座</w> 597
co al</w> 597
sh ell</w> 597
el ite</w> 597
boo ts</w> 597
dr ink</w> 597
jan sport</w> 596
v11 i</w> 596
日 历</w> 595
角 色</w> 595
维 修</w> 595
纹 身</w> 595
in i</w> 595
el le</w> 595
pand a</w> 595
car bon</w> 594
ag ing</w> 594
alu minum</w> 594
可 以</w> 593
cm )</w> 593
plan ner</w> 593
thi ck</w> 593
koj ic</w> 593
ninten do</w> 593
e ach</w> 592
r on 592
小 店</w> 592
杀 价</w> 592
珠 宝</w> 592
to u 592
slee p 592
nur sing</w> 592
a ya</w> 591
雨 衣</w> 591
茶 壶</w> 591
sili con</w> 591
( 全新</w> 590
- 5 590
bang le</w> 590
lux e</w> 590
high waist</w> 590
qui ck</w> 590
pan asonic</w> 589
信 封</w> 588
板 车</w> 588
壁 灯</w> 588
200 0</w> 588
抽屉 式</w> 588
m b</w> 587
5 a</w> 587
v ir 587
果 汁</w> 587
co un 587
f ur 586
v i</w> 586
吉 他</w> 586
电 子 586
偏 光</w> 586
bu il 586
ky lie</w> 586
may bel 586
maro on</w> 586
荷 叶</w> 585
th in</w> 585
球 衣</w> 584
修 复</w> 584
帐 篷</w> 584
lov es</w> 584
r x</w> 583
p la 583
护 理</w> 583
诱 惑</w> 583
du ty</w> 583
9 4</w> 582
风 机</w> 582
人 鱼</w> 582
re public</w> 582
vi o 582
tur ban</w> 582
dai ly</w> 582
f 1</w> 581
水 龙头</w> 581
hel met</w> 581
h am 580
p ig 580
c in 580
功 率</w> 580
to p 580
jo y</w> 580
ion al</w> 580
杂 志</w> 579
di splay</w> 579
so le</w> 579
zz le</w> 579
世 家</w> 578
床 边</w> 578
pa in 578
1. 8</w> 578
op en</w> 578
rand om</w> 578
毛 线</w> 577
服 装 577
尘 器</w> 577
clas sy</w> 577
jaco bs</w> 577
v al 576
c ts</w> 576
b n 576
b i</w> 576
ai ry</w> 576
fl are</w> 576
ak i</w> 576
zi p</w> 576
拍 摄</w> 575
u mb 575
清 洁 575
挂 衣</w> 575
身 衣</w> 575
lux ury</w> 575
e ver 574
m 号</w> 574
t le 574
v ari 574
头 饰</w> 574
毛 呢</w> 574
st a</w> 574
sp ir 574
bas ed</w> 574
jo h 574
dis k</w> 574
xs max</w> 574
wm ns</w> 574
翡 翠</w> 573
ar ache</w> 573
shi p</w> 573
0 7</w> 572
高 领</w> 572
功 夫</w> 572
专 区</w> 572
bre ath 572
me li 571
el lo</w> 571
prin ts</w> 571
y9 1</w> 571
7 7</w> 570
花 束</w> 570
包 )</w> 570
香 风</w> 570
奶 油</w> 570
吸 盘</w> 570
er e</w> 570
mar k</w> 570
con ce 570
cosme tic</w> 570
j ust</w> 569
c ac 569
发 票</w> 569
婚 纱</w> 569
ro o 569
sho wer</w> 569
8 2</w> 568
v es</w> 568
隔 离</w> 568
抗 菌</w> 568
no w</w> 568
for m</w> 568
light ning</w> 568
spo on</w> 568
ane se</w> 568
e x</w> 567
随 机</w> 567
凝 胶</w> 567
专 卖 567
lan e 567
直 送</w> 566
x per 566
精 美</w> 566
浴 巾</w> 566
chro me</w> 566
微 波 565
bo wl</w> 565
so o 565
gucc i 565
sli pper</w> 565
spa gh 565
5 30</w> 564
躺 椅</w> 564
00 3</w> 564
pl at 564
gol den</w> 564
纪 念 563
lu min 563
po lish</w> 563
sp ace</w> 563
cer amic</w> 563
碳 纤维</w> 562
sli mming</w> 562
g )</w> 561
y 81</w> 561
装 )</w> 561
双 g</w> 561
flas h 561
bm w</w> 561
调 节</w> 560
方 便</w> 560
麋 鹿</w> 560
se as 560
po st 560
pre ne</w> 560
lov e 560
por e</w> 560
服装 店</w> 560
6 2</w> 559
f au 559
b v</w> 559
旗 舰 559
oo td</w> 559
go wn</w> 559
咖啡 厅</w> 559
微波 炉</w> 559
4 3 558
1. 2</w> 558
sno opy</w> 558
离 子</w> 557
se a</w> 557
bo y 557
su b 557
br acket</w> 557
jap anese</w> 557
次 性</w> 556
32 gb</w> 556
stit ch</w> 556
s b</w> 555
电 动 555
sn ap</w> 555
l t</w> 554
开 衫</w> 554
度 假</w> 554
con t 554
m aid</w> 553
a & 553
p es</w> 553
胶 囊</w> 553
d le</w> 552
j en 552
适 合</w> 552
聚 拢</w> 552
牛 津</w> 552
排 汗</w> 552
打 底 552
午 睡</w> 552
萤 光</w> 552
hu arache</w> 552
stre et</w> 552
frien ds</w> 552
最 爱</w> 551
眼 睛</w> 550
lo w 550
20 ml</w> 550
ma ong</w> 550
fi sh</w> 550
ta y 550
ll s</w> 550
neo prene</w> 550
j 1</w> 549
镜 面</w> 549
金 刚</w> 549
实 体</w> 549
cro cs</w> 549
( 黑 548
d ani 547
s war 547
y i</w> 547
联 盟</w> 547
面 交</w> 547
文 胸</w> 547
we st</w> 547
皮 质</w> 546
克 杯</w> 546
耳 饰</w> 546
电 镀</w> 546
lo ver</w> 546
hel lo 546
ml )</w> 546
打底 衫</w> 546
a q 545
i co 545
一 次性</w> 545
pi g</w> 545
tu tu</w> 545
free size</w> 545
spagh etti</w> 545
n i</w> 544
被 套</w> 544
新 年</w> 544
公 斤</w> 544
资 料</w> 544
bl an 544
car s</w> 544
fla v 544
bag pack</w> 544
专卖 店</w> 544
休 闲 543
si m</w> 543
90 0</w> 543
remo te</w> 543
maybel line</w> 543
a 30</w> 542
乐 园</w> 542
平 安</w> 542
身 体</w> 542
靠 枕</w> 542
sh ap 542
松 糕</w> 541
奶 茶</w> 541
婴 儿 541
吸 尘器</w> 541
ani me</w> 541
手 推车</w> 540
米 花</w> 540
原 版</w> 540
of f- 540
花 边</w> 539
en g</w> 539
cro ptop</w> 539
s ci 538
饮 料</w> 538
al er</w> 538
te e 538
wh y</w> 538
男 鞋</w> 537
写 真</w> 537
ki ss</w> 537
mag net</w> 537
swar ov 537
乡 村</w> 536
ro moss</w> 536
cap s</w> 536
8 6</w> 535
s f</w> 535
v ed</w> 535
花 卉</w> 535
钟 表</w> 535
ac ne</w> 535
ch air</w> 535
ti es</w> 535
201 9 535
wa x</w> 535
s or 534
平 衡</w> 534
pre ss</w> 533
vi s</w> 533
colle cti 533
xper ia</w> 533
5 pcs</w> 532
l i</w> 532
y er</w> 532
蜜 蜂</w> 532
wor k</w> 532
e h 531
e gg</w> 531
b ble</w> 531
泡 沫</w> 531
in o 531
re ad</w> 531
ro ll</w> 531
te c</w> 531
bat man</w> 531
alo g</w> 531
c b 530
花 架</w> 530
被 子</w> 530
气 球</w> 530
爆 米花</w> 530
in - 530
sh e</w> 530
ro lex</w> 530
12 - 530
d as 529
5 1</w> 529
防 潮</w> 529
艺 品</w> 529
sa int</w> 529
k at 528
v ape</w> 528
客 订</w> 528
遥 控 528
me d</w> 528
ti re</w> 528
15 ml</w> 528
she ets</w> 528
mir acle</w> 528
twi ce</w> 528
旗舰 店</w> 528
s r 527
自 由</w> 527
明 信 527
洗 漱</w> 527
冠 军</w> 527
su l 527
sk y</w> 527
bt 21</w> 527
eas y</w> 527
2 99</w> 526
! !</w> 526
盆 栽</w> 526
ar ti 526
li es</w> 526
bl ank 526
pat tern</w> 526
露 背</w> 525
y6 9</w> 525
电动 车</w> 525
n c</w> 524
偶 像</w> 524
le tter</w> 524
umb rella</w> 524
blank et</w> 524
女 用</w> 523
压 花</w> 523
ri er</w> 523
mi n</w> 523
char coal</w> 523
m ing</w> 522
g loves</w> 522
y 9</w> 522
瑞 士</w> 522
tre at 522
infin ity</w> 522
y ou 521
v 15</w> 521
x a</w> 521
春 装</w> 521
th o 521
bas e</w> 521
dr . 521
a3 9</w> 521
c it 520
桌 布</w> 520
壁 画</w> 520
so ck</w> 520
pi o</w> 520
prote ctive</w> 520
dra w 520
lane ige</w> 520
1 30</w> 519
t ami 519
g ne</w> 519
siz es</w> 519
gr and</w> 519
vit a</w> 519
明信 片</w> 519
10 2</w> 518
bea ds</w> 518
手 工 517
5 2</w> 517
野 餐</w> 517
an ello</w> 517
be e</w> 517
fo cus</w> 517
pap er 517
cloth ing</w> 517
whe els</w> 517
mis sha</w> 517
cont act</w> 517
m -3xl</w> 516
g d</w> 516
打 火 516
缅 甸</w> 516
ti er</w> 516
ste m</w> 516
200 ml</w> 516
fac tory</w> 516
a5 s</w> 516
mit su 516
swarov ski</w> 516
型 号:</w> 515
日 货</w> 515
qu art 515
vi sor</w> 515
s p</w> 514
s 3</w> 514
黑 灰</w> 514
表 盘</w> 514
te x</w> 514
pp er 514
cle ar 514
sneak er</w> 514
ank le</w> 514
o c 513
用 )</w> 513
大 利</w> 513
空 运</w> 513
一 个</w> 513
口 味</w> 513
0 4</w> 512
4 k</w> 512
v s</w> 512
脚 架</w> 512
奶 嘴</w> 512
铆 钉</w> 512
au to</w> 512
pe el 512
cti onal</w> 512
eq t</w> 512
sleep wear</w> 512
plu g</w> 511
char ge</w> 511
g al 510
p ac 510
in ing</w> 510
cand le</w> 510
vio let</w> 510
0 4 509
r ain</w> 509
jo y 509
band ai</w> 509
repl ace 509
a 9</w> 508
银 针</w> 508
us er</w> 508
vi a</w> 508
av ent</w> 508
phi lips</w> 508
treat ment</w> 508
9 00 507
三 合一</w> 507
sou veni 507
n er 506
u se 506
x i</w> 506
料 理</w> 506
天 堂</w> 506
cro wn</w> 506
metal lic</w> 506
8 9</w> 505
a 10</w> 505
h i</w> 505
女 式</w> 505
补 充</w> 505
桌 上</w> 505
un o</w> 505
ri o</w> 505
mat e 505
onesi es</w> 505
quart z</w> 505
j 8</w> 504
k t</w> 504
c ul 504
sho p 504
du o</w> 504
sand al</w> 504
spe e 504
8 7 503
g in 503
马 甲</w> 503
灯 饰</w> 503
轻 薄</w> 503
sk y 503
mon t</w> 503
hoo d</w> 503
souveni r</w> 503
c f</w> 502
皮 卡 502
特 别</w> 502
赛 车</w> 502
忍 者</w> 502
li pp 502
ba king</w> 502
sig nature</w> 502
pc s.</w> 502
按摩 器</w> 502
windo w</w> 502
装 备</w> 501
古 典</w> 501
大 师</w> 501
夹 子</w> 501
包 头</w> 501
附 发</w> 501
stuff ed</w> 501
rash guard</w> 501
p 30</w> 500
j ade</w> 500
c tr 500
小 屋</w> 500
白 金</w> 500
综 合</w> 500
化妆 台</w> 500
打火 机</w> 500
c ru 499
大 门</w> 499
木 制</w> 499
脚 踏 499
记 忆</w> 499
旗 袍</w> 499
min e</w> 499
be ige</w> 499
mon ster</w> 499
bri lli 499
ameri can</w> 499
allo y</w> 499
2 36 498
证 件</w> 498
re pair</w> 498
ba mbo 498
wo ven</w> 498
moi st 498
v- neck</w> 498
moun t</w> 498
e f 497
t us</w> 497
裤 裙</w> 497
ho w</w> 497
ho l</w> 497
par f 497
pat ch</w> 497
女 表</w> 496
出 售</w> 496
lo ck 496
ti ger</w> 496
po cke 496
10 - 496
ve st</w> 496
s 1</w> 495
s ke 495
p k</w> 495
f airy</w> 495
l d 495
美 丽</w> 495
高 雄</w> 495
ga mes</w> 495
bambo o</w> 495
e m 494
p ush</w> 494
replace ment</w> 494
m me</w> 493
t am 493
y ear</w> 493
风 水</w> 493
花 盆</w> 493
屏 风</w> 493
显 示 493
酵 素</w> 493
as t 493
mo ther</w> 493
gu n</w> 493
ff y</w> 493
spi der 493
38 -44</w> 493
dro p</w> 493
tab let</w> 493
kne e</w> 493
a 3</w> 492
a . 492
b ear 492
工 装</w> 492
so cket</w> 492
0 5</w> 491
o d</w> 491
樱 桃</w> 491
车 贴</w> 491
室 外</w> 491
11 pro</w> 491
bel l</w> 491
tami ya</w> 491
6 7</w> 490
ul tra 490
ig o</w> 490
a v</w> 489
3 50 489
r h 489
bu tter</w> 489
type -c</w> 489
breath able</w> 489
清 洗</w> 488
温 泉</w> 488
ap pro 488
ans i</w> 488
face mask</w> 488
g th</w> 487
s u</w> 487
s 号</w> 487
sh u 487
ear phones</w> 487
75 ml</w> 487
mer maid</w> 487
咖啡 色</w> 487
smo o 487
l b 486
c p</w> 486
饲 料</w> 486
an ne</w> 486
10 5</w> 486
te ens</w> 486
bal l 486
nu de</w> 486
jump short</w> 486
mono gram</w> 486
978 98 486
d an 485
o k</w> 485
脚 踏</w> 485
庭 院</w> 485
ta k 485
blo sso 485
swe at 485
to ur</w> 484
spon ge</w> 484
毛 毛</w> 483
mo squ 483
cor te 483
comp u 483
sat in</w> 483
parf um</w> 483
u . 482
大 象</w> 482
爱 丽 482
签 名</w> 482
re gular</w> 482
el f</w> 482
whe el</w> 482
新 货</w> 481
ab i 481
衣帽 架</w> 481
皮卡 丘</w> 481
s 5</w> 480
5 4</w> 480
k ap 480
十 字</w> 480
se ts</w> 480
vi e 480
cer ity</w> 480
4 50</w> 479
t m 479
5 3</w> 479
f b</w> 479
图 腾</w> 479
食 物</w> 479
desig ns</w> 479
家居 服</w> 479
压 纹</w> 478
an alog</w> 478
wi de</w> 478
ed t</w> 478
stra w 478
out let</w> 478
7 3</w> 477
f al 477
c p 477
杂 物</w> 477
se ed</w> 477
so lid</w> 477
3 i</w> 476
\ n 476
传 输 476
po ol</w> 476
base ball</w> 476
k ong</w> 475
布 料</w> 475
卡 位</w> 475
价 格</w> 475
原 木</w> 475
ch lo 475
col lar</w> 475
clu b</w> 475
6 9</w> 474
in es</w> 474
gu it 474
fl at 474
24 k</w> 474
bri ef</w> 474
lin er</w> 474
lun ch</w> 474
磁 性</w> 473
潜 水</w> 473
挂 架</w> 473
ro w</w> 473
am az 473
av eng 473
stu dio</w> 473
a5 7</w> 473
fun ctional</w> 473
水 机</w> 472
毕 业</w> 472
di a</w> 472
ad a</w> 472
bi shi</w> 472
100 pcs</w> 472
alco hol</w> 472
电 线</w> 471
da ys</w> 471
fe ed 471
ds n</w> 471
ico nic</w> 471
( 预购)</w> 470
e mp 470
a 0 470
+ + 470
高 脚</w> 470
高 温</w> 470
市 多</w> 470
ch i</w> 470
te ch 470
pl ant</w> 470
pas tel</w> 470
j ack</w> 469
布 包</w> 469
水 保</w> 469
串 珠</w> 469
消 毒</w> 469
al a</w> 469
g an</w> 468
y e 468
老 虎</w> 468
面 乳</w> 468
拆 洗</w> 468
管 理</w> 468
on a</w> 468
no kia</w> 468
mar y</w> 468
gg age</w> 468
phi n</w> 468
corte z</w> 468
气 垫 467
接 头</w> 467
荷 叶 467
体 恤</w> 467
ni ke 467
sno w</w> 467
机 器</w> 466
点 心</w> 466
养 生</w> 466
to e</w> 466
gar den</w> 466
fan tas 466
mosqu ito</w> 466
aveng ers</w> 466
d dr 465
m d 465
f c</w> 465
快 乐</w> 465
自 慰</w> 465
有 线</w> 465
任 选</w> 465
ra m</w> 465
pp e</w> 465
120 ml</w> 465
荷叶 边</w> 465
4 9</w> 464
s ko 464
f y</w> 464
十 字 464
午 休</w> 464
ni ce</w> 464
hil fig 464
好 市多</w> 463
波 浪</w> 463
19 0 463
mt g</w> 463
传输 线</w> 463
w et</w> 462
5 3 462
f ine</w> 462
c la 462
x 2</w> 462
士 顿</w> 462
扮 演</w> 462
car rier</w> 462
gen t</w> 462
tsu m</w> 462
d ea 461
k pop</w> 461
面 料</w> 461
组 )</w> 461
灯 泡</w> 461
da u 461
pad ded</w> 461
r are</w> 460
g b 460
5 9 460
# 爆 460
酒 柜</w> 460
cas h</w> 460
car tri 460
do m</w> 460
pu zzle</w> 460
pri vac 460
化妆 水</w> 460
d ers</w> 459
a me 459
头 盔</w> 459
树 脂</w> 459
黏 土</w> 459
co ver 459
ro ck</w> 459
di c 459
so lution</w> 459
dv d 459
glo ssy</w> 459
hello kitty</w> 459
内 里</w> 458
书 籍</w> 458
把 手</w> 458
50 pcs</w> 458
we e 458
pu ff</w> 458
vap or 458
o x 457
b ig 457
指 环</w> 457
幸 运</w> 457
透 视</w> 457
pi c</w> 457
draw string</w> 457
1 50ml</w> 456
p ling</w> 456
连 身衣</w> 456
转 接</w> 456
蚊 帐</w> 456
st ation</w> 456
el y</w> 456
ter i 456
hu b</w> 456
tri ple</w> 456
won der</w> 456
feed ing</w> 456
烧 烤</w> 455
ba ba</w> 455
bo t</w> 455
pro je 455
36 -44</w> 455
i ke 454
托 盘</w> 454
双 头</w> 454
国 风</w> 454
骷 髅</w> 454
静 电</w> 454
se am 454
14 4</w> 454
win ter</w> 454
mitsu bishi</w> 454
a 20</w> 453
7 00 453
k on</w> 453
调 料</w> 453
女 友</w> 453
有 机</w> 453
滑 板车</w> 453
睡 眠</w> 453
it a</w> 453
ni a</w> 453
ben e 453
foo t 453
sal t</w> 453
prest o</w> 453
meli ssa</w> 453
hilfig er</w> 453
privac y</w> 453
8 6 452
花 花</w> 452
64 gb</w> 452
5 2 451
件 式</w> 451
发 箍</w> 451
lu ggage</w> 451
sli t</w> 451
加 热</w> 450
di spen 450
yo ung</w> 450
a3 3</w> 450
d ur 449
5 8</w> 449
浮 雕</w> 449
壁 挂式</w> 449
me mor 449
mon o</w> 449
stor y</w> 449
wash i</w> 449
ballo ons</w> 449
表 演</w> 448
豪 华</w> 448
ry x</w> 448
fle x</w> 448
气垫 鞋</w> 448
7 9 447
p 9</w> 447
n g</w> 447
b are</w> 447
保 留</w> 447
人 气</w> 447
冰 雪</w> 447
ar i</w> 447
ni ss 447
gu e</w> 447
bas ket</w> 447
e ffe 446
1 l</w> 446
5 6</w> 446
围 裙</w> 446
se ven 446
ti ff 446
her o 446
straw berry</w> 446
2 n 445
4 / 445
j et</w> 445
纸 盒</w> 445
水 槽</w> 445
车 内</w> 445
ph p</w> 445
64 g</w> 445
y u</w> 444
v ea 444
盘 格</w> 444
丝 巾</w> 444
丝 袜</w> 444
深 蓝色</w> 444
me i 444
sp f</w> 444
bu cket</w> 444
skin cerity</w> 444
太阳 能</w> 444
mac book</w> 444
e p 443
d al</w> 443
r an 443
外 贸</w> 443
水 管</w> 443
平 角</w> 443
耐 用</w> 443
棋 盘格</w> 443
tt ing</w> 443
16 0</w> 443
her bal</w> 443
stand ard</w> 443
0 9 442
a g</w> 442
b d 442
当 天</w> 442
me ters</w> 442
ni es</w> 442
ben z</w> 442
a& f</w> 442
t wo 441
s 4</w> 441
p m</w> 441
b un 441
in ci 441
bo s 441
防 水 440
牙 膏</w> 440
.. ..</w> 440
sa k 440
soo thing</w> 440
tay lor</w> 440
a 70</w> 439
雨 鞋</w> 439
茶 桌</w> 439
滑 鼠</w> 439
con ta 439
dol phin</w> 439
deli very</w> 439
玫瑰 花</w> 439
d el 438
d dy</w> 438
k h 438
蛋 黄</w> 438
学 步</w> 438
en d</w> 438
ho t 438
ali baba</w> 438
bri ght</w> 438
acti ve</w> 438
7 6</w> 437
烤 箱</w> 437
足 球</w> 437
同 步</w> 437
am ing</w> 437
pre ss 437
hea t</w> 437
ps 3</w> 437
inst ant</w> 437
沙发 床</w> 437
爱丽 丝</w> 437
guit ar</w> 437
dispen ser</w> 437
g /</w> 436
f m</w> 436
v ani 436
男 孩</w> 436
香 薰</w> 436
短 袜</w> 436
插 座</w> 436
in clu 436
le g</w> 436
tt a</w> 436
mp 3</w> 436
ori g</w> 436
hand made</w> 436
glo ss</w> 436
t g 435
n max</w> 435
镜 片</w> 435
生 堂</w> 435
门 厅</w> 435
开 叉</w> 435
练 习</w> 435
缓 震</w> 435
we ight</w> 435
gi t</w> 435
inci pio</w> 435
m . 434
4 pcs</w> 434
橱 柜</w> 434
an e</w> 434
ne l</w> 434
sp ande 434
ki pling</w> 434
ck er</w> 434
18 - 434
op ti 434
pul lover</w> 434
moist ure</w> 434
w an</w> 433
o ver</w> 433
天 天</w> 433
地 板</w> 433
悟 空</w> 433
ch e</w> 433
201 8 433
pre tty</w> 433
gh ter</w> 433
ther apy</w> 433
cartri dge</w> 433
e sp 432
y ar 432
古 风</w> 432
变 色</w> 432
配 方</w> 432
战 靴</w> 432
升 级</w> 432
筷 子</w> 432
de c 432
99 9</w> 432
ure s</w> 432
niss an</w> 432
r - 431
电 风扇</w> 431
最 后</w> 431
入 门</w> 431
定 做</w> 431
硬 壳</w> 431
bo ho</w> 431
po ster</w> 431
hol li 431
美 人鱼</w> 430
蔬 菜</w> 430
fi ll</w> 430
n ai 429
头 套</w> 429
吃 饭</w> 429
颗 粒</w> 429
am y</w> 429
10 k</w> 429
gi vea 429
stu ff</w> 429
tra y</w> 429
capsu le</w> 429
指甲 油</w> 429
spande x</w> 429
4 7</w> 428
6 50</w> 428
o pen 428
大 人</w> 428
园 艺</w> 428
赫 拉</w> 428
10 . 428
wash ing</w> 428
tat tered</w> 428
spar k 428
ike a</w> 428
1 -3 427
保 险 427
香 皂</w> 427
配 饰</w> 427
壁 纸</w> 427
资 生堂</w> 427
议 价</w> 427
an as</w> 427
at in</w> 427
el as 427
real me 427
bul b</w> 427
h un 426
5 9</w> 426
红 酒</w> 426
公 事 426
re li 426
it em</w> 426
blosso m</w> 426
j u</w> 425
j as 425
c ent</w> 425
购 证</w> 425
薄 荷</w> 425
锁 骨</w> 425
li on</w> 425
-4 6</w> 425
lit er</w> 425
valen tin 425
( 已</w> 424
p au 424
清 爽</w> 424
脸 盆</w> 424
闺 蜜</w> 424
po ly 424
10 6</w> 424
la b</w> 424
au dio</w> 424
char ms</w> 424
a 9 423
y an</w> 423
基 础</w> 423
绣 花</w> 423
奇 缘</w> 423
mi di</w> 423
av e 423
vo lu 423
lau rent</w> 423
memor y</w> 423
k ers</w> 422
匡 威</w> 422
怀 旧</w> 422
bu lar</w> 422
ta b</w> 422
19 9</w> 422
glu e</w> 422
公事 包</w> 422
u n</w> 421
棉 衣</w> 421
en er 421
vac u 421
wri st 421
c ling</w> 420
买 家</w> 420
近 视</w> 420
过 敏</w> 420
故 事</w> 420
tu bular</w> 420
spee dy</w> 420
2 )</w> 419
粉 红色</w> 419
早 餐</w> 419
pe e</w> 419
sc ale</w> 419
len t</w> 419
sel fie</w> 419
mol y</w> 419
h avai 418
手 柄</w> 418
晚 宴</w> 418
开 车</w> 418
转 角</w> 418
施 华 418
in t 418
ele ctr 418
ot g</w> 418
seam less</w> 418
j a</w> 417
花 纹</w> 417
好 货</w> 417
过 道</w> 417
围 栏</w> 417
co con 417
sh er</w> 417
14 0</w> 417
stret ch</w> 417
- 00 416
d ust</w> 416
美 容 416
线 条</w> 416
洗 手</w> 416
润 滑</w> 416
开 口</w> 416
ar my</w> 416
po li 416
comb o</w> 416
tooth paste</w> 416
j 3</w> 415
f inger</w> 415
黑 金</w> 415
中 号</w> 415
利 浦</w> 415
德 玛</w> 415
ro she</w> 415
and er</w> 415
pe t 415
chri sti 415
cra ft</w> 415
杂货 铺</w> 415
g as</w> 414
s ab 414
机 芯</w> 414
两 件式</w> 414
第 三</w> 414
公 升</w> 414
避 震</w> 414
ti s</w> 414
t es</w> 413
f er</w> 413
la p</w> 413
sty lus</w> 413
hoo k</w> 413
ja mes</w> 413
frien d</w> 413
coach 蔻</w> 413
vacu um</w> 413
( 一</w> 412
p 10</w> 412
美 女</w> 412
棉 裤</w> 412
蒂 猫</w> 412
雕 花</w> 412
re act</w> 412
las ting</w> 412
bu bble</w> 412
14 k</w> 412
g ab 411
s ni 411
一 般</w> 411
电 筒</w> 411
飞 利浦</w> 411
赠 品</w> 411
认 证</w> 411
ti l 411
las er</w> 411
tab lets</w> 411
落地 式</w> 411
d 2</w> 410
1 st</w> 410
乐 蒂</w> 410
自 己</w> 410
盒 )</w> 410
缤 纷</w> 410
玩 具 410
能 量</w> 410
泼 水</w> 410
di e 410
tr y</w> 410
sta y</w> 410
af for 410
玻璃 杯</w> 410
box er</w> 410
a a</w> 409
魔 鬼</w> 409
b 0 409
b t</w> 409
饭 盒</w> 409
福 袋</w> 409
ro t 409
pap aya</w> 409
7 2 408
r on</w> 408
b ears</w> 408
橘 色</w> 408
pro mo</w> 408
men ts</w> 408
ve lo 408
star ter</w> 408
k k</w> 407
f ire</w> 407
c ing</w> 407
长 条</w> 407
火 锅</w> 407
钢 琴</w> 407
寝 室</w> 407
ho li 407
bi cycle</w> 407
vi c</w> 407
200 g</w> 407
run ner</w> 407
tas sel</w> 407
j7 pro</w> 407
acti v 407
ation s</w> 407
cocon ut</w> 407
宴 会</w> 406
ch a</w> 406
15 5</w> 406
a bo 405
n ity</w> 405
腮 红</w> 405
过 滤</w> 405
成 品</w> 405
re d 405
mat ion</w> 405
mu st 405
cur ry</w> 405
smar t 405
sou l</w> 405
时 光</w> 404
城 市</w> 404
闹 钟</w> 404
av es</w> 404
yo ga</w> 404
clear ance</w> 404
j bl</w> 403
c q 403
. tw</w> 403
花 瓶</w> 403
二 合一</w> 403
阅 读</w> 403
( 不</w> 402
龙 猫</w> 402
皇 冠</w> 402
瑜 珈</w> 402
mi z 402
ol a</w> 402
ligh ter</w> 402
sti cks</w> 402
fu n</w> 402
swi mming</w> 402
fla ge</w> 402
( 3</w> 401
6 .5</w> 401
r c</w> 401
b sco</w> 401
油 画</w> 401
靴 子</w> 401
ch ers</w> 401
10 g</w> 401
hi - 401
clo ck</w> 401
toi lette</w> 401
compu ter</w> 401
i os</w> 400
风 行</w> 400
大 牌</w> 400
贴 膜</w> 400
双 耳</w> 400
赛 斯</w> 400
st ain</w> 400
siz ed</w> 400
gy m</w> 400
massa ge</w> 400
conce aler</w> 400
洞 洞</w> 399
cre ative</w> 399
for mul 399
( 1</w> 398
w d</w> 398
7 50</w> 398
l t 398
极 致</w> 398
亚 麻</w> 398
洛 世 398
桃 红</w> 398
商 店</w> 398
孩 子</w> 398
plu m</w> 398
min er 398
gi ven 398
cam ou 398
cho co</w> 398
sy stem</w> 398
1 : 397
a b</w> 397
t 1</w> 397
o b 397
y ard</w> 397
空 军</w> 397
长 t</w> 397
导 航</w> 397
to my</w> 397
br u 397
eri e</w> 397
lip tint</w> 397
cel ine</w> 397
z y 396
杯 垫</w> 396
订 单</w> 396
四 件</w> 396
全 家</w> 396
宜 家</w> 396
首 选</w> 396
st ation 396
20 1</w> 396
con ne 396
ban ana</w> 396
brilli ant</w> 396
- g</w> 395
代 尔</w> 395
l . 395
l le</w> 395
海 边</w> 395
卫 生</w> 395
防 晒 395
一 送 395
茶 叶</w> 395
mo der 395
boo k 395
oi ce</w> 395
cy cling</w> 395
dau ghter</w> 395
2 40 394
f ul 394
文 字</w> 394
超 长</w> 394
秘 密</w> 394
le af</w> 394
20 cm</w> 394
24 0</w> 394
tri pod</w> 394
ker atin</w> 394
flav or</w> 394
施华 洛世 394
0 6</w> 393
买 一送 393
彩 妆</w> 393
舒 缓</w> 393
di or 393
ti mate</w> 393
ma z 393
mar mont</w> 393
ex tr 393
tre me</w> 393
dis c</w> 393
1 m</w> 392
1 12 392
1 18 392
扶 手</w> 392
影 机</w> 392
除 臭</w> 392
al l- 392
lu x</w> 392
cc a</w> 392
slee ping</w> 392
stra w</w> 392
havai anas</w> 392
g el 391
s ar 391
玻 尿 391
女 王</w> 391
to mat 391
gi o</w> 391
nov a3 391
vapor max</w> 391
角 质</w> 390
线 器</w> 390
水 瓶</w> 390
饭 店</w> 390
分 体</w> 390
汤 匙</w> 390
雕 刻</w> 390
减 震</w> 390
de od 390
gen er 390
tren d</w> 390
produ cts</w> 390
electr onic</w> 390
施华洛世 奇</w> 390
4 x</w> 389
p un 389
货 到</w> 389
汉 服</w> 389
us able</w> 389
30 g</w> 389
cap tain</w> 389
ny x</w> 389
4. 0</w> 389
a 10 388
卷 发</w> 388
亲 节</w> 388
湿 器</w> 388
mo m</w> 388
su e</w> 388
com b</w> 388
exten sion</w> 388
formul a</w> 388
h m</w> 387
j 4 387
卡 龙</w> 387
电 话</w> 387
围 兜</w> 387
豹 纹</w> 387
bas s</w> 387
san rio</w> 387
peel ing</w> 387
m 1</w> 386
2 20</w> 386
c s 386
工 艺品</w> 386
us b 386
der m</w> 386
san disk</w> 386
y5 5</w> 386
玻尿 酸</w> 386
e du 385
d r</w> 385
贴 片</w> 385
工 艺</w> 385
魅 力</w> 385
万 向</w> 385
广 告</w> 385
at o 385
da y 385
sa w</w> 385
a3 1</w> 385
head phone</w> 385
r 17</w> 384
电 磁</w> 384
棕 色</w> 384
速 发</w> 384
con ver 384
ine se</w> 384
resi st 384
b el</w> 383
泡 茶</w> 383
凉 席</w> 383
梳 妆</w> 383
as ics</w> 383
pi pe</w> 383
dri ll</w> 383
遥控 器</w> 383
b ac 382
锆 石</w> 382
re usable</w> 382
la n</w> 382
head phones</w> 382
blen d</w> 382
holli ster</w> 382
1 -2 381
4 s</w> 381
3 )</w> 381
g m</w> 381
s ai 381
b us 381
光 疗</w> 381
护 发</w> 381
店 面</w> 381
仿 古</w> 381
le git</w> 381
dre ss 381
bi ble</w> 381
13 5</w> 381
eng lish</w> 381
高尔 夫</w> 381
8 9 380
裤 袜</w> 380
密 码</w> 380
设 备</w> 380
in vit 380
ri pped</w> 380
bo b</w> 380
clo u 380
bot tom</w> 380
scar f</w> 380
affor dable</w> 380
2 xl</w> 379
手 电筒</w> 379
y 95</w> 379
下 杀</w> 379
熊 猫</w> 379
达 菲</w> 379
雏 菊</w> 379
vi e</w> 379
shi sei 379
ach ing</w> 379
fr an 379
eyel iner</w> 379
脚踏 车</w> 379
x 3</w> 378
冬 天</w> 378
自 取</w> 378
耳 朵</w> 378
漆 皮</w> 378
潘 朵 378
过 滤 378
方 巾</w> 378
ch el</w> 378
me lo 378
do ve</w> 378
essenti als</w> 378
ameri ca</w> 378
0 6 377
f t 377
f old</w> 377
背 椅</w> 377
时 间</w> 377
薰 衣 377
睡 觉</w> 377
le tt 377
ni gh 377
supp lies</w> 377
sei ko</w> 377
flow ers</w> 377
3 g</w> 376
b w 376
文 件</w> 376
入 耳</w> 376
到 货</w> 376
in der</w> 376
ke ith</w> 376
tur tle</w> 376
保温 瓶</w> 376
u ri 375
二 手书</w> 375
出 租</w> 375
万 能</w> 375
升 级 375
un a</w> 375
lon don</w> 375
loo k</w> 375
conta iner</w> 375
4 1 374
g shock</w> 374
独 角 374
ro pe</w> 374
out fit</w> 374
camou flage</w> 374
n b 373
b q 373
香 炉</w> 373
轻 松</w> 373
pri mer</w> 373
mb o</w> 373
j2 prime</w> 373
1.8 m</w> 373
sak ura</w> 373
( 免</w> 372
g 4</w> 372
p ti 372
平 价</w> 372
mi d 372
12 3</w> 372
wel l</w> 372
pack aging</w> 372
comfor table</w> 372
d ang 371
g t</w> 371
b bit</w> 371
指 纹</w> 371
白 黑</w> 371
prote ct</w> 371
d ent</w> 370
y or 370
趣 味</w> 370
时 代</w> 370
书 )</w> 370
蜂 蜜</w> 370
ma kap 370
ce i 370
ga me 370
shisei do</w> 370
w ol 369
4 9 369
h g</w> 369
n am 369
防 盗</w> 369
科 比</w> 369
价 $ 369
淑 女</w> 369
su zu 369
las h</w> 369
vi sion</w> 369
ed p</w> 369
cho ker</w> 369
ken zo</w> 369
pt cg</w> 369
优惠 价</w> 369
sko ol</w> 369
vani lla</w> 369
j c</w> 368
o live</w> 368
拆 卸</w> 368
拼 装</w> 368
提 单</w> 368
刀 剑</w> 368
眼 线</w> 368
墙 纸</w> 368
密 斯</w> 368
re fill</w> 368
it or</w> 368
sho pee</w> 368
de luxe</w> 368
vi br 368
工作 服</w> 368
christi an</w> 368
moder n</w> 368
独角 兽</w> 368
j uni 367
u 型</w> 367
x 1</w> 367
x und 367
标 签</w> 367
对 称</w> 367
笑 脸</w> 367
ch inese</w> 367
tri bal</w> 367
nova3 i</w> 367
a y 366
l te</w> 366
波 士顿</w> 366
七 彩</w> 366
全 球</w> 366
弹 簧</w> 366
la ven 366
car go</w> 366
beau ti 366
hoo ded</w> 366
bott les</w> 366
produ ct</w> 366
xund d</w> 366
d am 365
j s</w> 365
k ir 365
c f 365
版 本</w> 365
护 眼</w> 365
袜 套</w> 365
数 据 365
深 层</w> 365
温 馨</w> 365
淇 淋</w> 365
colo gne</w> 365
t- shirts</w> 365
go pro</w> 365
man ual</w> 365
dr .</w> 365
kni fe</w> 365
ine ss</w> 365
5 7</w> 364
刷 卡</w> 364
皇 家</w> 364
鲨 鱼</w> 364
lo gy</w> 364
10 80 364
cas es</w> 364
plu s 364
pl aid</w> 364
sty lish</w> 364
swi m</w> 364
32 g</w> 364
fore ver 364
sw eat</w> 364
买一送 一</w> 364
0 8 363
g i</w> 363
s coo 363
调 整</w> 363
商 城</w> 363
蔻 驰</w> 363
缎 带</w> 363
10 4</w> 363
ul zz 363
win d 363
ha y</w> 363
薰衣 草</w> 363
i r</w> 362
c . 362
大 码</w> 362
耐 热</w> 362
ba y 362
ra dio</w> 362
00 4</w> 362
16 8</w> 362
pack s</w> 362
makap al</w> 362
6 9 361
i - 361
z 1</w> 361
风 口</w> 361
公 路</w> 361
轮 胎</w> 361
吹 风机</w> 361
an ces</w> 361
ck le</w> 361
s- m</w> 361
nu t</w> 361
chlo e</w> 361
数据 线</w> 361
大 战</w> 360
星 际</w> 360
变 形</w> 360
行 李</w> 360
la s</w> 360
do t</w> 360
ve ge 360
ble aching</w> 360
chu ck</w> 360
清洁 剂</w> 360
flash light</w> 360
ske chers</w> 360
appro x</w> 360
given chy</w> 360
laven der</w> 360
m 2 359
l ' 359
玛 瑙</w> 359
le ar 359
lo l</w> 359
iphone x</w> 359
har ry</w> 359
tomat o</w> 359
下 标 358
轻 巧</w> 358
别 墅</w> 358
se n</w> 358
me l 358
cu p 358
over lap</w> 358
hon or</w> 358
comb i</w> 358
seven teen</w> 358
2 50g</w> 357
c i</w> 357
皮 面</w> 357
货 架</w> 357
自 慰 357
神 奇</w> 357
超 强</w> 357
福 利</w> 357
co ordin 357
se le 357
pe an 357
flo or</w> 357
nu mber</w> 357
tooth brush</w> 357
m ai 356
r s 356
c m- 356
卡 其</w> 356
套 餐</w> 356
12 . 356
spor ty</w> 356
fer ra 356
显示 器</w> 356
s i</w> 355
系 统</w> 355
老 板</w> 355
悠 游</w> 355
男 友</w> 355
仓 库</w> 355
an y 355
an as 355
th ree</w> 355
ra bbit</w> 355
ju i 355
blo cks</w> 355
-0 1</w> 355
dri ver</w> 355
7 4</w> 354
5 50</w> 354
y 17</w> 354
c 2</w> 354
调 理</w> 354
史 密斯</w> 354
肤 色</w> 354
箱 子</w> 354
台 南</w> 354
ma gical</w> 354
da i</w> 354
11 / 354
运动 服</w> 354
fu ji 354
strai ght</w> 354
e g 353
x / 353
b new</w> 353
老 鼠</w> 353
净 化</w> 353
起 子</w> 353
co co 353
sa fe</w> 353
comb in 353
s ach 352
耳 坠</w> 352
加 湿器</w> 352
in di 352
di sh</w> 352
wat ches</w> 352
11 5</w> 352
pu re 352
sli de</w> 352
iphone 6</w> 352
ssi l</w> 352
tru e</w> 352
d f 351
0 9</w> 351
r 9 351
i 7</w> 351
海 滩</w> 351
美 少女</w> 351
可 乐</w> 351
隔 板</w> 351
人 物</w> 351
黄 铜</w> 351
ab er 351
pe el</w> 351
-3 9</w> 351
ash a</w> 351
110 v</w> 351
nor th</w> 351
2 a</w> 350
j p 350
j ar</w> 350
特 殊</w> 350
b . 350
枕 套</w> 350
尺 寸 350
营 养</w> 350
烫 金</w> 350
貔 貅</w> 350
li a</w> 350
th y</w> 350
do ts</w> 350
ml / 350
spider man</w> 350
suzu ki</w> 350
e ps 349
j un 349
上 架</w> 349
飞 行 349
战 斗</w> 349
淋 浴</w> 349
st ic</w> 349
so phi 349
vol . 349
decor ation</w> 349
潘朵 拉</w> 349
h b 348
k not</w> 348
布 丁</w> 348
盘 子</w> 348
铁 艺</w> 348
姆 斯</w> 348
尿 布</w> 348
播 放 348
re ct 348
un ce</w> 348
ma y</w> 348
ki eh 348
cro pped</w> 348
ht p</w> 348
e th 347
d unk</w> 347
3 16</w> 347
i que</w> 347
双 人床</w> 347
后 现代</w> 347
de sk 347
pre ci 347
cro m 347
fo ssil</w> 347
bre ak 347
sen se</w> 347
r gb</w> 346
s f 346
n ak 346
美 人</w> 346
电 玩</w> 346
脚 垫</w> 346
游 戏 346
茶 店</w> 346
钓 具</w> 346
摇 摇</w> 346
as p 346
ri p 346
ap ri 346
br on 346
ben ch</w> 346
baby -g</w> 346
vie w</w> 346
j - 345
防 爆</w> 345
爆 款</w> 345
会 议</w> 345
闪 电</w> 345
in flat 345
co ur 345
so und</w> 345
12 8</w> 345
dri fit</w> 345
ling ton</w> 345
8 4</w> 344
a 20 344
大 学生</w> 344
最 低价</w> 344
洗 车</w> 344
产 品</w> 344
宫 廷</w> 344
名 片 344
茶 盘</w> 344
靠 背椅</w> 344
in et</w> 344
st amp</w> 344
me lon</w> 344
po p 344
ing er 344
iphone 11</w> 344
gg le</w> 344
d m 343
a y</w> 343
s sion</w> 343
k es</w> 343
用 具</w> 343
z ak 343
网 路</w> 343
真 丝</w> 343
企 鹅</w> 343
唇 釉</w> 343
仇 者</w> 343
co me</w> 343
er as 343
mi di 343
ad v</w> 343
ad ven 343
j7 prime</w> 343
dic kies</w> 343
美容 院</w> 343
inflat able</w> 343
a j</w> 342
t n 342
g k</w> 342
p el 342
k t 342
z b 342
自 制</w> 342
月 亮</w> 342
游 泳衣</w> 342
踏 板</w> 342
li fe 342
cas t</w> 342
500 0</w> 342
cel l</w> 342
gri ll</w> 342
( 大 341
r ush</w> 341
y . 341
z z</w> 341
窗 户</w> 341
春 秋季</w> 341
凉 感</w> 341
羽 毛</w> 341
法 兰 341
ar ts</w> 341
el li 341
aber crom 341
g ig 340
安 抚</w> 340
意 大利</w> 340
婚 庆</w> 340
as a</w> 340
ri ch</w> 340
de cal</w> 340
sau ce</w> 340
y9 1 340
sat chel</w> 340
forever 21</w> 340
j ack 339
o mega</w> 339
n ed</w> 339
b u</w> 339
复 仇者</w> 339
乳 胶</w> 339
走 廊</w> 339
po tter</w> 339
fre sh 339
sun nies</w> 339
contro ller</w> 339
ster ling</w> 339
e co 338
3 20 338
卡 娜</w> 338
活 力</w> 338
80 g</w> 338
go d</w> 338
m- xxl</w> 338
blen der</w> 338
rose gold</w> 338
n ano</w> 337
c lar 337
头 发</w> 337
中 古</w> 337
耳 塞</w> 337
纱 裙</w> 337
可 穿</w> 337
袋 子</w> 337
眼 镜 337
满 额</w> 337
强 化</w> 337
le a 337
on i 337
me i</w> 337
gu i 337
wi red</w> 337
gen tle</w> 337
iphone 7</w> 337
0 8</w> 336
n ame</w> 336
极 度</w> 336
老 师</w> 336
微 型</w> 336
本 田</w> 336
ba k 336
hi m</w> 336
15 . 336
mus cle</w> 336
bath room</w> 336
ulzz ang</w> 336
小 汽车</w> 335
大 小</w> 335
鱼 尾</w> 335
一 体 335
新 版</w> 335
201 7 335
au th</w> 335
per i 335
pu ri 335
ash ley</w> 335
comp act</w> 335
( 小 334
d . 334
g * 334
i sh 334
超 高</w> 334
蚕 丝</w> 334
di al</w> 334
mi cs</w> 334
gar teri 334
clean ing</w> 334
spf 50</w> 334
wri st</w> 334
valentin o</w> 334
法兰 绒</w> 334
w ren 333
m un 333
k l 333
小 马</w> 333
皮 包</w> 333
防 震</w> 333
杀 菌</w> 333
花 洒</w> 333
st ea 333
ma ker</w> 333
ul timate</w> 333
12 8gb</w> 333
par t</w> 333
tra vel 333
hy un 333
high - 333
床头 灯</w> 333
massa ger</w> 333
ordin ary</w> 333
deod or 333
s ac 332
s an</w> 332
o t</w> 332
加 肥</w> 332
选 择</w> 332
ch opp 332
si a</w> 332
de vi 332
ab sor 332
loo p</w> 332
micro fiber</w> 332
sur gical</w> 332
dh c</w> 332
ferra gam 332
e co</w> 331
笔 记</w> 331
低 音</w> 331
绅 士</w> 331
po in 331
us sy</w> 331
ad van 331
lov ely</w> 331
mat er 331
for k</w> 331
cab inet</w> 331
station ery</w> 331
melo dy</w> 331
yor k</w> 331
e ver</w> 330
分 类</w> 330
板 鞋</w> 330
压 器</w> 330
扳 手</w> 330
10 3</w> 330
da vi 330
tr ac 330
high lighter</w> 330
8 3 329
9 / 329
网 眼</w> 329
下 摆</w> 329
@ 新品</w> 329
水 滴</w> 329
护 栏</w> 329
录 音</w> 329
re f</w> 329
sh in 329
de sk</w> 329
ag e 329
ghten ing</w> 329
236 ml</w> 329
2 10</w> 328
s 2</w> 328
z el</w> 328
机 油</w> 328
马 达</w> 328
宝 蓝</w> 328
闪 亮</w> 328
整 套</w> 328
le aves</w> 328
te le 328
sho ppe</w> 328
no se</w> 328
ligh ten</w> 328
fig h 328
volu me</w> 328
w as 327
0 7 327
s in 327
型 号</w> 327
清 净</w> 327
冷 热</w> 327
陀 螺</w> 327
毛 毯</w> 327
任 天堂</w> 327
se qu 327
eri al</w> 327
squ are 327
rain coat</w> 327
ever y 327
elas tic</w> 327
升级 版</w> 327
sach et</w> 327
m 2</w> 326
s cu 326
调 味</w> 326
情 人</w> 326
专 卖</w> 326
珊 瑚</w> 326
en ce</w> 326
ro bot</w> 326
201 4</w> 326
00 7</w> 326
fantas y</w> 326
tiff any</w> 326
g 21</w> 325
k en</w> 325
内 饰</w> 325
\ \ 325
数 码</w> 325
钢 笔</w> 325
me ssen 325
ti que</w> 325
ni kon</w> 325
cu be</w> 325
hu midi 325
mon key</w> 325
yu an 325
scen ted</w> 325
smoo th</w> 325
deodor ant</w> 325
a 50 324
5 50 324
i ri 324
外 壳</w> 324
灰 白</w> 324
职 业</w> 324
负 离子</w> 324
co m</w> 324
ne on</w> 324
fu r</w> 324
eye glasses</w> 324
cli ps</w> 324
57 4</w> 324
rh ine 324
d d</w> 323
9 .5</w> 323
好 看</w> 323
car tier</w> 323
bu y 323
d b 322
s ki 322
爱 马仕</w> 322
兄 弟</w> 322
mb er 322
a3 5</w> 322
hy per 322
super man</w> 322
star s</w> 322
supp le 322
hang er</w> 322
q 版</w> 321
. 5 321
亚 克力</w> 321
换 器</w> 321
宝 马</w> 321
雷 射</w> 321
葡 萄 321
替 换</w> 321
sun flower</w> 321
迪士 尼 321
w in</w> 320
f ury</w> 320
元 素</w> 320
丰 田</w> 320
显 示</w> 320
慵 懒</w> 320
36 5</w> 320
15 - 320
oi d</w> 320
yo ur 320
head light</w> 320
wel lington</w> 320
g es</w> 319
丝 光</w> 319
脸 部</w> 319
迷 妳</w> 319
桃 园</w> 319
圆 桌</w> 319
? ?</w> 319
毛 帽</w> 319
楼 梯</w> 319
琉 璃</w> 319
ba hay</w> 319
fre n 319
hy bri 319
1- 2</w> 319
ser t</w> 319
under arm</w> 319
bos ch</w> 319
wren ch</w> 319
e u</w> 318
e mer 318
a lex 318
k no 318
n in 318
家 族</w> 318
筒 袜</w> 318
编 号</w> 318
冰 淇淋</w> 318
未 来</w> 318
al mon 318
pre ssed</w> 318
hyun dai</w> 318
r ash</w> 317
l x</w> 317
i e</w> 317
c ele 317
c ali 317
布 袋</w> 317
无 限</w> 317
刻 字</w> 317
超 级 317
超 市</w> 317
bo he 317
her sch 317
flo p</w> 317
ban ner</w> 317
az tec</w> 317
aero x</w> 317
休闲 椅</w> 317
8 .5</w> 316
h old</w> 316
l c</w> 316
l and 316
y 15</w> 316
n it 316
合 身</w> 316
纸 袋</w> 316
马 丁</w> 316
米 色</w> 316
教 学</w> 316
甜 心</w> 316
便 利</w> 316
火 爆</w> 316
早 春</w> 316
方 包</w> 316
秋 冬季</w> 316
lo we 316
ho se</w> 316
wi pes</w> 316
legen d</w> 316
extr act</w> 316
messen ger</w> 316
humidi fier</w> 316
a 8 315
v r</w> 315
葡 萄</w> 315
茶 道</w> 315
支 撑</w> 315
po int</w> 315
te x 315
sig n</w> 315
tu al</w> 315
ey es</w> 315
m 5 314
小 小 314
用 途</w> 314
鱼 缸</w> 314
胸 针</w> 314
视 镜</w> 314
原 味</w> 314
吸 湿</w> 314
ch al 314
bo w 314
ck en</w> 314
30 s</w> 314
mas ks</w> 314
-0 10</w> 314
play er</w> 314
hersch el</w> 314
- 100</w> 313
- up</w> 313
图 书</w> 313
发 器</w> 313
春 夏</w> 313
素 t</w> 313
压 缩</w> 313
ti s 313
ul tr 313
cu ps</w> 313
pri me 313
custo m</w> 313
折叠 桌</w> 313
eyel ash</w> 313
d c 312
a 6 312
s w</w> 312
防 雨</w> 312
传 说</w> 312
书 店</w> 312
蜘 蛛 312
th r 312
vi deo</w> 312
boo ster</w> 312
bea t</w> 312
phi lipp 312
play station</w> 312
cost co</w> 312
lv 包包</w> 312
cool er</w> 312
o . 311
联 系</w> 311
爱 情</w> 311
物 柜</w> 311
熊 熊</w> 311
木 工</w> 311
封 口</w> 311
高 中</w> 311
奶 粉</w> 311
凤 梨</w> 311
ch ang 311
ch ron 311
li li 311
ab s</w> 311
pe pp 311
ct ure</w> 311
d .</w> 310
t -</w> 310
i de 310
插 头</w> 310
sh ade</w> 310
am ansi</w> 310
ni s</w> 310
00 5</w> 310
bu ds</w> 310
wal ker</w> 310
ca re 310
invit ation</w> 310
cup cake</w> 310
coordin ates</w> 310
e . 309
手 把</w> 309
红 茶</w> 309
老 年</w> 309
护 肤 309
无 毒</w> 309
满 天 309
阳 光</w> 309
pan el</w> 309
hel d</w> 309
bra lette</w> 309
vo lution</w> 309
desk top</w> 309
e k 308
1 200</w> 308
7 .5</w> 308
r x 308
特 大</w> 308
保 罗</w> 308
收 缩</w> 308
便 器</w> 308
星 球</w> 308
螺 丝 308
辅 助</w> 308
伴 娘</w> 308
哺 乳</w> 308
co ck 308
st am 308
cor ner</w> 308
mater nity</w> 308
bohe mi 308
- fit</w> 307
5 in1</w> 307
y ang</w> 307
男 表</w> 307
水 果 307
re fle 307
at ure</w> 307
ri de</w> 307
so fi 307
pack ed</w> 307
tas ia</w> 307
n an 306
z x 306
女 子</w> 306
版 潮</w> 306
面 板</w> 306
微 笑</w> 306
10 7</w> 306
sp lus</w> 306
cur ler</w> 306
cos rx</w> 306
fragr ances</w> 306
hybri d</w> 306
- 2</w> 305
d k 305
3 60 305
h & 305
g p</w> 305
q q</w> 305
x a1</w> 305
韩 妞</w> 305
前 后</w> 305
棉 花 305
耐 高温</w> 305
草 本</w> 305
主 播</w> 305
co p 305
ton y</w> 305
remo val</w> 305
pam bahay</w> 305
nova 2i</w> 305
clin ique</w> 305
w u</w> 304
m )</w> 304
代 步</w> 304
武 器</w> 304
o - 304
n ine</w> 304
z u</w> 304
六 角</w> 304
马 克</w> 304
纱 布</w> 304
唯 美</w> 304
摄 像 304
sam ple</w> 304
multi functional</w> 304
ther mal</w> 304
nai ls</w> 304
( 大</w> 303
e z</w> 303
8 mm</w> 303
a way</w> 303
3 1 303
制 化</w> 303
精 品 303
激 光</w> 303
白 )</w> 303
棉 t</w> 303
宇 宙</w> 303
免 费</w> 303
se e</w> 303
00 6</w> 303
do gs</w> 303
ing o</w> 303
ex treme</w> 303
bir ken 303
alph a</w> 303
yuan r 303
1 500</w> 302
男 式</w> 302
可 可</w> 302
学 园</w> 302
稀 有</w> 302
adi das 302
16 g</w> 302
fin i 302
ms .</w> 302
满天 星</w> 302
t f 301
红 外线</w> 301
克 斯</w> 301
项 圈</w> 301
co mics</w> 301
ro man 301
ne xt</w> 301
mi u</w> 301
char les</w> 301
sk ater</w> 301
2. 4a</w> 301
op ard</w> 301
ple ated</w> 301
百货 店</w> 301
d f</w> 300
m j</w> 300
1 50g</w> 300
j 5 300
o ce 300
l or 300
实 战</w> 300
码 :</w> 300
单 人床</w> 300
舞 台</w> 300
批 发 300
蝙 蝠</w> 300
lo ft</w> 300
sp y</w> 300
wat ts</w> 300
len gth</w> 300
der y</w> 300
fit ness</w> 300
aj 1</w> 300
photo card</w> 300
d ash 299
l ate 299
n ac</w> 299
景 观</w> 299
温 和</w> 299
钢 铁</w> 299
12 8g</w> 299
ge or 299
bre ak</w> 299
洗手 间</w> 299
anas tasia</w> 299
t f</w> 298
l 号</w> 298
x 5</w> 298
b k 298
蓝 )</w> 298
烤 盘</w> 298
香 蕉</w> 298
万 代</w> 298
领 带</w> 298
洽 谈</w> 298
请 勿</w> 298
le n</w> 298
10 / 298
vi vi 298
sun screen</w> 298
ex p 298
chi a</w> 298
super dry</w> 298
beauti ful</w> 298
m n</w> 297
m old</w> 297
2 30</w> 297
y 7 297
轨 道</w> 297
1- 3</w> 297
she er</w> 297
miner al</w> 297
bus iness</w> 297
下标 )</w> 297
w anna</w> 296
m 10</w> 296
m ang 296
t c</w> 296
k as 296
f ying</w> 296
l )</w> 296
面 霜</w> 296
电 压</w> 296
绒 布</w> 296
圆 盘</w> 296
ap i 296
sho t</w> 296
tra ining</w> 296
hear ts</w> 296
dy e</w> 296
san iti 296
gol f</w> 296
hydr ating</w> 296
中 )</w> 295
内 外</w> 295
肌 肤</w> 295
绿 茶</w> 295
毛 巾 295
抢 购</w> 295
st ru 295
1. 2 295
pocke ts</w> 295
d ash</w> 294
2 60 294
a x</w> 294
5 20</w> 294
k ai 294
n 1</w> 294
三 星 294
可 移动</w> 294
儿 童 294
me tri 294
mi a</w> 294
gu ar 294
cen tr 294
two - 294
pau l</w> 294
dang ling</w> 294
m h 293
m t</w> 293
0 3 293
h co</w> 293
k 10</w> 293
# 爆</w> 293
女 人</w> 293
贴 画</w> 293
别 针</w> 293
摇 滚</w> 293
re - 293
co mm 293
gr an 293
rat tan</w> 293
bohemi an</w> 293
m n 292
0 .5</w> 292
7 50 292
s j 292
小 小</w> 292
防 寒</w> 292
牙 音</w> 292
软 糖</w> 292
方 向 292
照 明</w> 292
las t</w> 292
back less</w> 292
tw in</w> 292
pre- order</w> 292
pain ting</w> 292
a w 291
保 健</w> 291
鞋 垫</w> 291
传 统</w> 291
人 体</w> 291
书 本</w> 291
话 筒</w> 291
散 热</w> 291
ki lo</w> 291
12 5 291
bu mper</w> 291
fl am 291
gar lic</w> 291
adul ts</w> 291
shad es</w> 291
trans for 291
snap back</w> 291
edu cat 291
resist ant</w> 291
yuanr oro</w> 291
g at 290
直 邮</w> 290
手 感</w> 290
o sh 290
z c 290
防 臭</w> 290
大 全</w> 290
三 丽鸥</w> 290
鞋 套</w> 290
mon itor</w> 290
sy n 290
cli ck</w> 290
black pink</w> 290
婴儿 床</w> 290
sweat shirt</w> 290
eps on</w> 290
m erry</w> 289
i x</w> 289
母 亲节</w> 289
加 强</w> 289
出 清 289
牛 皮 289
鼠 标</w> 289
写 字 289
perfu mes</w> 289
pac i 289
a10 s</w> 289
supple ment</w> 289
方向 盘</w> 289
e c 288
0 1 288
k d</w> 288
y 85</w> 288
n p 288
型 )</w> 288
x 9</w> 288
指 定</w> 288
刺 激</w> 288
滋 养</w> 288
标 志</w> 288
质 量</w> 288
茶 花</w> 288
同 款</w> 288
羊 绒</w> 288
毫 安</w> 288
re n</w> 288
re ver 288
120 g</w> 288
cir cle</w> 288
2019 年</w> 288
#爆 品</w> 288
0 2 287
s and</w> 287
q s</w> 287
v 5s</w> 287
场 景</w> 287
玉 石</w> 287
台 制</w> 287
强 光</w> 287
on y</w> 287
50 1</w> 287
sleev ed</w> 287
cool ing</w> 287
bun ny</w> 287
nak ed</w> 287
3 w</w> 286
k al 286
黑 头</w> 286
工 程</w> 286
as se 286
lo tte</w> 286
li ly</w> 286
201 6 286
ko sh</w> 286
br e</w> 286
che st</w> 286
par ts</w> 286
flo ps</w> 286
bre ast</w> 286
juni or</w> 286
educat ional</w> 286
( 全</w> 285
大 灯</w> 285
潮 牌</w> 285
面 纸</w> 285
宾 士</w> 285
人 生</w> 285
校 园</w> 285
毛 膏</w> 285
in sul 285
an i</w> 285
st ussy</w> 285
li zer</w> 285
su its</w> 285
ho le</w> 285
per s</w> 285
shi ba</w> 285
2. 5 285
wor k 285
cap ac 285
tat too</w> 285
300 ml</w> 285
miz uno</w> 285
名片 夹</w> 285
a 货</w> 284
x x</w> 284
水 族</w> 284
丸 子</w> 284
影 音</w> 284
舞 蹈</w> 284
喷 头</w> 284
梵 希</w> 284
mo to 284
tr ack</w> 284
win d</w> 284
fit ch</w> 284
cra y 284
smi ggle</w> 284
buil ding</w> 284
bru sh 284
游戏 机</w> 284
8 2 283
s )</w> 283
卖 场 283
边 框</w> 283
瘦 身</w> 283
节 能</w> 283
扫 地</w> 283
di ff 283
40 g</w> 283
bou tique</w> 283
lowe en</w> 283
c g 282
红 包</w> 282
尼 尔</w> 282
颈 椎</w> 282
低 音 282
方 块</w> 282
循 环</w> 282
bi b</w> 282
ass i</w> 282
lun a</w> 282
fa ke</w> 282
sof t 282
hero es</w> 282
givea ways</w> 282
2 -3 281
r ing 281
k elly</w> 281
o li 281
客 服</w> 281
蜡 笔 281
织 带</w> 281
高 速</w> 281
选 )</w> 281
南 瓜</w> 281
过 膝</w> 281
约 会</w> 281
厨 师</w> 281
le opard</w> 281
hi l</w> 281
mar ble</w> 281
pu t</w> 281
pri se</w> 281
bal an 281
chi cken</w> 281
pas sport</w> 281
body suit</w> 281
洗手 盆</w> 281
fau x</w> 281
in- ear</w> 281
press ure</w> 281
a 4 280
k tv</w> 280
f ar 280
中 型</w> 280
* * 280
木 头</w> 280
st le</w> 280
se al</w> 280
10 000</w> 280
wal k</w> 280
hand held</w> 280
comfor t</w> 280
joh n 280
amaz ing</w> 280
reli ef</w> 280
1080 p</w> 280
fren ch</w> 280
写字 台</w> 280
d x</w> 279
j in</w> 279
f our</w> 279
小 新</w> 279
海 军</w> 279
物 语</w> 279
拖 把</w> 279
sh er 279
ri ght</w> 279
bi e 279
ex clu 279
sc rip 279
organi cs</w> 279
bir d</w> 279
mani la</w> 279
低音 炮</w> 279
蜡笔 小新</w> 279
6 2 278
3 30</w> 278
p t</w> 278
i o 278
y 7</w> 278
大 头</w> 278
电 热</w> 278
饭 桌</w> 278
出 口</w> 278
奇 迹</w> 278
20 g</w> 278
ki mono</w> 278
mo u 278
and a</w> 278
plu s/ 278
ad o</w> 278
11 1</w> 278
jo ur 278
cam i</w> 278
whit e 278
val ve</w> 278
joh n</w> 278
paper back</w> 278
4 .5</w> 277
r . 277
中 心</w> 277
金 链</w> 277
实 木</w> 277
套 筒</w> 277
春 夏季</w> 277
售 )</w> 277
猫 头 277
猫 窝</w> 277
in fe 277
20 000mah</w> 277
di sh 277
10 9</w> 277
ph y 277
car ters</w> 277
supp ly</w> 277
y5 1</w> 277
the ft</w> 277
sof a</w> 277
sub li 277
ener gy</w> 277
播放 器</w> 277
m als</w> 276
7 p</w> 276
i pad 276
z a 276
日 期</w> 276
古 装</w> 276
飞 行</w> 276
超 亮</w> 276
餐 盒</w> 276
hi p</w> 276
de ter 276
ss d</w> 276
保护 膜</w> 276
fit ted</w> 276
d ell</w> 275
m and 275
g gi 275
s av 275
o p</w> 275
中 华</w> 275
野 营</w> 275
华 丽</w> 275
泡 面</w> 275
后 视镜</w> 275
si an</w> 275
ab e 275
ho me 275
no od 275
tri mmer</w> 275
af 1</w> 275
1 ml</w> 274
g in</w> 274
g sm</w> 274
f l</w> 274
i ma 274
实 物</w> 274
典 雅</w> 274
车 身</w> 274
胸 罩</w> 274
钛 钢</w> 274
床 罩</w> 274
辐 射</w> 274
ne u 274
mo ther 274
de t 274
de to 274
ho use 274
cc o</w> 274
over sized</w> 274
stick y</w> 274
spon ge 274
7 3 273
n es</w> 273
v ga</w> 273
裤 带</w> 273
号 )</w> 273
草 帽</w> 273
惊 喜</w> 273
单 )</w> 273
闪 光</w> 273
绝 对</w> 273
恒 温</w> 273
an th 273
201 2</w> 273
sli me</w> 273
ali ce</w> 273
cam ping</w> 273
45 cm</w> 273
play boy</w> 273
ther mo 273
cra f 273
mix ed</w> 273
1.5 m</w> 273
( 台湾</w> 272
- 6 272
日 记</w> 272
珠 光</w> 272
售 出</w> 272
胶 水</w> 272
冰 鞋</w> 272
饰 盒</w> 272
首 饰盒</w> 272
at h</w> 272
en velo 272
ri se</w> 272
de gre 272
tt le</w> 272
wo c</w> 272
sk ir 272
fo li 272
ce tap 272
hal loween</w> 272
coo ker</w> 272
ball pen</w> 272
lear ning</w> 272
k d 271
. 00</w> 271
科 学</w> 271
发 乳</w> 271
水 波</w> 271
平 光</w> 271
浓 缩</w> 271
订 )</w> 271
鸡 肉</w> 271
转 换器</w> 271
妹 妹</w> 271
橡 皮 271
colo ur</w> 271
chan el 271
pen s</w> 271
ben to</w> 271
multi color</w> 271
roo ts</w> 271
seas on</w> 271
rever sible</w> 271
m um</w> 270
m ala 270
4 gb</w> 270
h an</w> 270
s 7 270
s 10 270
y un 270
) ,</w> 270
高 压</w> 270
越 野</w> 270
in tel</w> 270
co le</w> 270
se mi 270
be ach 270
tra iner</w> 270
ven e 270
tin a</w> 270
dri -fit</w> 270
kid die</w> 270
shap ed</w> 270
dec als</w> 270
pepp a</w> 270
m f 269
m ur 269
o o</w> 269
y e</w> 269
n on 269
x 4</w> 269
头 皮</w> 269
特 级</w> 269
re no</w> 269
ri ck</w> 269
sp ro 269
be at 269
fe min 269
gi or 269
lin ing</w> 269
exclu sive</w> 269
( 有</w> 268
m sm 268
4 d</w> 268
3 d 268
5 20 268
f ate</w> 268
i ve</w> 268
) )</w> 268
花 茶</w> 268
磁 吸</w> 268
超 低价</w> 268
欢 乐</w> 268
as si 268
sam e</w> 268
pe g 268
ste p</w> 268
ten t</w> 268
scre w</w> 268
y6 7</w> 268
cen ter</w> 268
沙发 套</w> 268
cetap hil</w> 268
a 2</w> 267
6 50 267
n lighten</w> 267
小 舖 267
生 活 267
公 克</w> 267
奇 奇 267
拿 大</w> 267
虎 头</w> 267
繁 体</w> 267
鹦 鹉</w> 267
in sta 267
to kong</w> 267
ti p</w> 267
mo sch 267
slee p</w> 267
wa s</w> 267
go t 267
17 0</w> 267
gg ing</w> 267
高尔 夫 267
- c 266
2 80</w> 266
r inger</w> 266
i es</w> 266
大 方</w> 266
中 筒</w> 266
鱼 竿</w> 266
~ ~ 266
价 :</w> 266
店 )</w> 266
ro s 266
am i</w> 266
te am</w> 266
stri p</w> 266
ben assi</w> 266
coo kie</w> 266
moisturi zer</w> 266
a20 s</w> 266
rhine stone</w> 266
tis sue</w> 266
猫头 鹰</w> 266
w ings</w> 265
1 pcs</w> 265
s c</w> 265
v neck</w> 265
c et</w> 265
b it 265
诗 兰 265
收 腹</w> 265
雅 诗兰 265
四 轮</w> 265
跳 跳</w> 265
ni pp 265
00 8</w> 265
fi c</w> 265
ion s</w> 265
m- xx 265
com fy</w> 265
zz a</w> 265
ink le</w> 265
adven ture</w> 265
h& m</w> 265
deter gent</w> 265
q c 264
5 t</w> 264
f av 264
雨 靴</w> 264
加 拿大</w> 264
甜 品</w> 264
冷 冻</w> 264
仓 鼠</w> 264
干 湿</w> 264
转 运</w> 264
ch ing</w> 264
li ve 264
ti mber 264
am er</w> 264
po oh</w> 264
pe plum</w> 264
fo g</w> 264
ff le</w> 264
tw s</w> 264
the me</w> 264
color ing</w> 264
tai wan</w> 264
best seller</w> 264
tak ara</w> 264
u. s</w> 264
zak ka</w> 264
osh kosh</w> 264
高尔夫 球</w> 264
雅诗兰 黛</w> 264
k ins</w> 263
家 电</w> 263
三 脚架</w> 263
冬 装</w> 263
厂 商</w> 263
分 离 263
视 频</w> 263
片 )</w> 263
me al</w> 263
de si 263
du ction</w> 263
太阳 帽</w> 263
goo d 263
ling erie</w> 263
(黑 )</w> 263
maz da</w> 263
t . 262
f s</w> 262
n m</w> 262
u e</w> 262
古 奇</w> 262
藤 原 262
加 宽</w> 262
袋 装</w> 262
高 潮</w> 262
炫 彩</w> 262
低 腰</w> 262
支 持</w> 262
st roller</w> 262
bot te 262
garteri zed</w> 262
femin ine</w> 262
gior gio</w> 262
w ang</w> 261
m 3</w> 261
代 言</w> 261
海 鸥</w> 261
老 式</w> 261
健 身 261
隔 音</w> 261
橱 窗</w> 261
超 轻量</w> 261
减 肥</w> 261
航 空</w> 261
le d 261
al arm</w> 261
to shiba</w> 261
bo lt</w> 261
ra y 261
ta ke 261
av en 261
sc ra 261
stea m</w> 261
护肤 品</w> 261
t l 260
k 歌</w> 260
o k 260
u ses</w> 260
雨 刷</w> 260
去 污</w> 260
护 肤</w> 260
出 版 260
开 门</w> 260
眼 罩</w> 260
专 利</w> 260
霸 气</w> 260
si ded</w> 260
to y 260
ea gle</w> 260
blo od</w> 260
kit a</w> 260
19 0</w> 260
tu pper 260
gen eva</w> 260
rac er</w> 260
wr it 260
nar u 260
you th</w> 260
2n d</w> 260
d x 259
拍 卖</w> 259
o z 259
v p</w> 259
迪 奥 259
面 部</w> 259
登 机</w> 259
泰 迪 259
巾 纸</w> 259
尺 码:</w> 259
莲 花</w> 259
le vis</w> 259
st ones</w> 259
en han 259
li t</w> 259
do ctor</w> 259
cc tv</w> 259
du st 259
mono pod</w> 259
cock tail</w> 259
diff user</w> 259
m / 258
3 000</w> 258
g ps</w> 258
f 11pro</w> 258
n ap 258
西 米</w> 258
马 车</w> 258
水 泥</w> 258
麻 花</w> 258
变 压器</w> 258
规 格</w> 258
ba t</w> 258
10 .5</w> 258
ph y</w> 258
36 -40</w> 258
nat ional</w> 258
ban g</w> 258
rai der</w> 258
wrist let</w> 258
w ine</w> 257
6 m</w> 257
p it 257
l at 257
i m 257
筒 裤</w> 257
双 向</w> 257
博 士</w> 257
20 pcs</w> 257
cu tting</w> 257
prin ter</w> 257
par k</w> 257
eli z 257
must ard</w> 257
s l</w> 256
l u</w> 256
y 3</w> 256
客 人</w> 256
b by</w> 256
防 霉</w> 256
士 尼</w> 256
老 鸭</w> 256
保 守</w> 256
面 具</w> 256
激 情</w> 256
草 编</w> 256
景 品</w> 256
卖 家</w> 256
王 子</w> 256
蜜 桃</w> 256
re r</w> 256
le ver</w> 256
ch o</w> 256
10 mm</w> 256
da r</w> 256
60 1</w> 256
16 - 256
dis infe 256
butt ons</w> 256
kar ao 256
xr m</w> 256
shar k</w> 256
bac ter 256
a50 s</w> 256
k an 255
y 12</w> 255
分 期</w> 255
周 岁</w> 255
童 车</w> 255
接 待</w> 255
软 皮</w> 255
队 长</w> 255
蝙 蝠 255
镭 射</w> 255
炸 锅</w> 255
sh ka</w> 255
me l</w> 255
mo du 255
-2 xl</w> 255
ge o 255
cal amansi</w> 255
birken stock</w> 255
( 4</w> 254
y y</w> 254
v an</w> 254
随 行</w> 254
唐 老鸭</w> 254
主 题</w> 254
不 锈</w> 254
战 术</w> 254
完 整</w> 254
詹 姆斯</w> 254
in door</w> 254
la und 254
201 3</w> 254
dr in 254
fau cet</w> 254
oce an</w> 254
sponge bob</w> 254
mosch ino</w> 254
tupper ware</w> 254
m x 253
5 m</w> 253
l ers</w> 253
小 狗</w> 253
日 文</w> 253
女 中</w> 253
提 包</w> 253
采 用</w> 253
板 凳</w> 253
叶 子</w> 253
亲 肤</w> 253
荣 耀</w> 253
变 形 253
早 期</w> 253
密 码 253
契 尔 253
睡 袋</w> 253
so l</w> 253
ani mals</w> 253
tw in 253
note 8</w> 253
inten se</w> 253
aro und</w> 253
mix er</w> 253
hor se</w> 253
pla ins</w> 253
尺寸 :</w> 253
karao ke</w> 253
- 1 252
6 3 252
h s- 252
手 腕</w> 252
j . 252
9 3 252
美 颜</w> 252
b k</w> 252
藤 编</w> 252
平 滑</w> 252
维 他 252
灯 笼</w> 252
赠 送</w> 252
滚 筒</w> 252
ac tual</w> 252
at o</w> 252
bo l 252
10 000mah</w> 252
so me</w> 252
ig en</w> 252
ho mme</w> 252
be cca</w> 252
for tun 252
he el</w> 252
fla w 252
ml b</w> 252
sen sor</w> 252
fle xi 252
下杀 #</w> 252
heal thy</w> 252
三角 裤</w> 252
plat form</w> 252
藤原 浩</w> 252
e e</w> 251
t ela</w> 251
r r 251
p g</w> 251
直 接</w> 251
v 15 251
调 味 251
以 上</w> 251
透 光</w> 251
剧 场</w> 251
雷 霆</w> 251
独 特</w> 251
冲 击</w> 251
缎 面</w> 251
mo d</w> 251
ul t</w> 251
blo om</w> 251
bri ghtening</w> 251
sto ck 251
off- shoulder</w> 251
v 8</w> 250
小 朋友</w> 250
x box</w> 250
美 术</w> 250
正 常</w> 250
马 鞍</w> 250
棉 被</w> 250
音 乐 250
圈 圈</w> 250
站 立</w> 250
坚 果</w> 250
永 生</w> 250
围 脖</w> 250
社 团</w> 250
演 唱 250
le m</w> 250
lo s</w> 250
mar ker</w> 250
sle y</w> 250
fo x</w> 250
36 -45</w> 250
70 s</w> 250
nat asha</w> 250
bel la</w> 250
gar ter</w> 250
lock ed</w> 250
inclu ded</w> 250
r am 249
r 11</w> 249
g d 249
k k 249
马 丁 249
新 手</w> 249
仪 器</w> 249
笼 子</w> 249
11 100 249
gr 5</w> 249
chi ld</w> 249
her e</w> 249
tro l 249
旅行 袋</w> 249
won der 249
strai ghten 249
sci ss 249
kir k 249
subli mation</w> 249
peg asus</w> 249
laund ry</w> 249
- 6</w> 248
d less</w> 248
h it 248
g as 248
k 金</w> 248
c l</w> 248
# 下</w> 248
x 6</w> 248
x 10</w> 248
日 立</w> 248
索 尼</w> 248
中 年</w> 248
洗 面乳</w> 248
蓬 蓬</w> 248
lo go 248
be y 248
con tour</w> 248
fig ures</w> 248
mor ning</w> 248
eng ine</w> 248
flam ingo</w> 248
演唱 会</w> 248
e i 247
5 l</w> 247
i ii</w> 247
上 型</w> 247
翅 膀</w> 247
多 功能</w> 247
文 学</w> 247
企 业</w> 247
st an 247
me ch 247
si cal</w> 247
mat ting</w> 247
pil low 247
dai sy</w> 247
heal ing</w> 247
almon d</w> 247
saniti zer</w> 247
( 小</w> 246
- h 246
a 30s</w> 246
6 18</w> 246
t 5 246
r d</w> 246
s ad 246
/ / 246
q q 246
美 甲</w> 246
鱼 子 246
克 力 246
收 纳 246
录 器</w> 246
对 折</w> 246
螺 纹</w> 246
玉 米</w> 246
旗 舰</w> 246
渐 变</w> 246
so ap 246
so da</w> 246
12 / 246
cor al</w> 246
14 - 246
bel le</w> 246
3- 6</w> 246
工作 室</w> 246
dani el</w> 246
棉花 糖</w> 246
6 splus</w> 245
s 5 245
花 瓣</w> 245
水 饺</w> 245
可 拆卸</w> 245
电 钻</w> 245
达 人</w> 245
洗 碗</w> 245
恋 爱</w> 245
单 件</w> 245
书 法</w> 245
碗 柜</w> 245
汤 锅</w> 245
恶 魔</w> 245
sp igen</w> 245
00 mah</w> 245
wi l 245
bal let</w> 245
chi ps</w> 245
90 ml</w> 245
3. 5mm</w> 245
phi lip 245
size :</w> 245
8 p</w> 244
2 way</w> 244
7 20</w> 244
r c 244
s r</w> 244
s mas 244
i 8</w> 244
i v 244
座 垫</w> 244
水 性</w> 244
热 卖 244
绒 面</w> 244
书 宝</w> 244
改 良</w> 244
排 扣</w> 244
打 包</w> 244
茉 莉</w> 244
di re 244
pi ck</w> 244
11 8</w> 244
gra ph</w> 244
go g 244
tin y</w> 244
ass y</w> 244
m c</w> 243
s 0 243
v 3</w> 243
英 语</w> 243
卡 其 243
粉 刺</w> 243
莱 士</w> 243
文 件 243
其 他</w> 243
店 长</w> 243
秋 千</w> 243
sa f 243
25 6 243
ber shka</w> 243
ble ach</w> 243
ruff led</w> 243
spark le</w> 243
botte ga</w> 243
kirk land</w> 243
t ine</w> 242
s wa 242
f lip 242
相 片</w> 242
适 用 242
可 放</w> 242
伦 敦</w> 242
轮 车</w> 242
焦 糖</w> 242
芳 香</w> 242
ba o</w> 242
ri t</w> 242
ul a</w> 242
pro max</w> 242
be ver 242
coo king</w> 242
sur prise</w> 242
spo t</w> 242
小小 兵</w> 242
lili w</w> 242
m 20</w> 241
a de 241
h one 241
西 班 241
椅 垫</w> 241
白 底</w> 241
护 照</w> 241
个 人</w> 241
侧 边</w> 241
阴 阳</w> 241
滑 鼠 241
凭 证</w> 241
20 2 241
la k 241
mo on 241
vi p</w> 241
ang er</w> 241
cle s</w> 241
ach i</w> 241
spi cy</w> 241
bre ast 241
rou gh</w> 241
sofi a</w> 241
t shirts</w> 240
i u</w> 240
小 铺</w> 240
隐 藏</w> 240
b c</w> 240
b one</w> 240
甜 甜</w> 240
杏 仁</w> 240
硬 碟</w> 240
永 久</w> 240
纯 白</w> 240
re volution</w> 240
lo e 240
su s</w> 240
swe e 240
sy ru 240
chil i</w> 240
light weight</w> 240
photo cards</w> 240
hor n</w> 240
cac tus</w> 240
off- white</w> 240
skir ts</w> 240
e k</w> 239
e mbo 239
w ar</w> 239
d g</w> 239
3 ds</w> 239
s 8 239
. 3</w> 239
皮 肤</w> 239
蒸 汽</w> 239
加 固</w> 239
国 小</w> 239
书 签</w> 239
羽 绒 239
肚 子</w> 239
餐 巾纸</w> 239
观 音</w> 239
煞 车</w> 239
ack s</w> 239
be an</w> 239
gi f 239
bat ch</w> 239
ex cel 239
fla p</w> 239
dol ls</w> 239
ms m</w> 239
ribb ed</w> 239
all er 239
poin ted</w> 239
( 限</w> 238
w k</w> 238
4 t</w> 238
3 ml</w> 238
3 99</w> 238
k ri 238
包 皮</w> 238
桃 花</w> 238
童 话</w> 238
泡 澡</w> 238
钱 筒</w> 238
证 明</w> 238
ap h 238
man o</w> 238
lit ers</w> 238
wor d</w> 238
collecti ons</w> 238
timber land</w> 238
h en 237
f k</w> 237
y y 237
库 存</w> 237
白 粉</w> 237
百 褶 237
重 复</w> 237
bo und</w> 237
qu il 237
bu ckle</w> 237
mar io</w> 237
25 g</w> 237
ash i</w> 237
ali a</w> 237
war m</w> 237
.... .</w> 237
chee se</w> 237
tou gh</w> 237
chopp er</w> 237
维他 命</w> 237
flexi ble</w> 237
鱼子 酱</w> 237
2 80 236
a w</w> 236
3 a</w> 236
g p 236
f w</w> 236
c j 236
皮 衣</w> 236
附 发票</w> 236
色 系</w> 236
哆 啦 236
铅 笔 236
bl ing</w> 236
do or 236
ct ors</w> 236
lin en</w> 236
twi st</w> 236
qui ck 236
om ing</w> 236
西班 牙</w> 236
滑鼠 垫</w> 236
- 7 235
a ke</w> 235
3 20</w> 235
g n 235
s 6 235
s -</w> 235
j j 235
生 肖</w> 235
本 舖</w> 235
紫 水晶</w> 235
铁 盒</w> 235
木 纹</w> 235
华 莱士</w> 235
出 货)</w> 235
单 层</w> 235
狮 王</w> 235
瓷 砖</w> 235
橡 木</w> 235
畅 销</w> 235
ph ant</w> 235
ml * 235
400 ml</w> 235
ruff le</w> 235
plat in 235
combin ation</w> 235
mech ani 235
- on</w> 234
d w 234
k w 234
c pu</w> 234
魔 力</w> 234
特 价)</w> 234
内 置</w> 234
长 袜</w> 234
烤 肉</w> 234
车 门</w> 234
逼 真</w> 234
叮 当</w> 234
ma xi 234
vi sible</w> 234
pa w</w> 234
shor t 234
gi ant</w> 234
air max</w> 234
6- 12</w> 234
resi n</w> 234
工具 箱</w> 234
十字 绣</w> 234
15. 6</w> 234
6 p</w> 233
g ur 233
z ir 233
古 董</w> 233
白 铁</w> 233
棉 布</w> 233
纳 米</w> 233
造 景</w> 233
伙 伴</w> 233
as ter</w> 233
as ure</w> 233
ro l</w> 233
th is</w> 233
fi eld</w> 233
bu t</w> 233
ci vic</w> 233
pu ppy</w> 233
jo jo</w> 233
tro pi 233
ky o</w> 233
coo kies</w> 233
toi let</w> 233
straighten er</w> 233
2 t</w> 232
3 16 232
p m 232
i p</w> 232
c nc</w> 232
小 吃</w> 232
布 偶</w> 232
z 3</w> 232
美 食</w> 232
防 身</w> 232
花 色</w> 232
丝 绸</w> 232
电 瓶 232
音 器</w> 232
碗 碟</w> 232
疯 狂</w> 232
葫 芦</w> 232
弥 月</w> 232
ac o</w> 232
lo af 232
ch en 232
per for 232
11 2</w> 232
dol l 232
cat s</w> 232
advan ced</w> 232
( 客</w> 231
a 梦</w> 231
p y 231
p i</w> 231
j r</w> 231
j on 231
k yo 231
y n</w> 231
n au 231
复 古 231
发 店</w> 231
附 赠</w> 231
食 品 231
上 班 231
火 影 231
王 者</w> 231
取 货</w> 231
鬼 毡</w> 231
考 试</w> 231
to ms</w> 231
10 m</w> 231
wo ol</w> 231
cre w</w> 231
30 1</w> 231
mat ch</w> 231
medi a</w> 231
wai sted</w> 231
cur ity</w> 231
flaw less</w> 231
syru p</w> 231
电瓶 车</w> 231
e v 230
5 c</w> 230
精 梳</w> 230
精 准</w> 230
发 热</w> 230
环 球</w> 230
刀 架</w> 230
竹 节</w> 230
法 拉 230
馒 头</w> 230
驾 车</w> 230
ti me 230
de fen 230
nat ive</w> 230
lou is 230
fer r 230
3 80</w> 229
t bag</w> 229
g 530</w> 229
k or 229
红 )</w> 229
太 空 229
胡 刀</w> 229
拼 贴</w> 229
欧 文</w> 229
开 始</w> 229
绘 画</w> 229
各 种</w> 229
砧 板</w> 229
hu go</w> 229
je ju</w> 229
ka i</w> 229
dv r</w> 229
natur als</w> 229
loo t</w> 229
roy ale</w> 229
97898 6 229
v15 pro</w> 229
platin um</w> 229
d ear</w> 228
z - 228
b es</w> 228
黑 板</w> 228
西 瓜</w> 228
贴 身</w> 228
心 机</w> 228
灯 光</w> 228
警 示</w> 228
di ffe 228
th ri 228
te ddy</w> 228
mo to</w> 228
cre me</w> 228
11 7</w> 228
ve hi 228
stre aming</w> 228
-- -</w> 228
asse mbl 228
上班 族</w> 228
火影 忍者</w> 228
e st</w> 227
2 s</w> 227
2 g</w> 227
t l</w> 227
x 7</w> 227
防 漏</w> 227
金 属 227
水 巾</w> 227
护 具</w> 227
饺 子</w> 227
史 迪 227
产 后</w> 227
酒 杯</w> 227
po ur</w> 227
la bel</w> 227
te st</w> 227
cas e 227
ig n 227
12 m</w> 227
pan ini</w> 227
mon t 227
squ ish 227
ja g</w> 227
om ni</w> 227
mr . 227
hard cover</w> 227
sophi e</w> 227
毛巾 架</w> 227
deto x</w> 227
bacter ial</w> 227
1 tb</w> 226
4 50 226
3 t</w> 226
p 1</w> 226
特 产</w> 226
鞋 带</w> 226
长 夹</w> 226
可 动</w> 226
安 娜</w> 226
热 销 226
时 髦</w> 226
镀 金</w> 226
漂 亮</w> 226
试 用</w> 226
睫 毛膏</w> 226
禅 意</w> 226
di um</w> 226
to tal</w> 226
ir s</w> 226
gh z</w> 226
ll ers</w> 226
he i 226
bur y</w> 226
85 ml</w> 226
under wire</w> 226
lam in 226
coun t</w> 226
j4 plus</w> 226
vege table</w> 226
eras er</w> 226
fini sh</w> 226
( 共</w> 225
8 80 225
4 )</w> 225
g lam 225
用 品 225
卡 地 225
一 生</w> 225
天 鹅</w> 225
传 奇</w> 225
抽 象</w> 225
第 四</w> 225
sho pping</w> 225
00 9</w> 225
24 pcs</w> 225
tin ted</w> 225
emb lem</w> 225
scen ts</w> 225
bene fit</w> 225
ferragam o</w> 225
e ven 224
r 15</w> 224
i an</w> 224
c ure</w> 224
x 5 224
水 彩</w> 224
国 旗</w> 224
铃 铛</w> 224
独 立</w> 224
斑 马</w> 224
幼 稚 224
in sert</w> 224
ma kita</w> 224
ho ut</w> 224
bi c</w> 224
bi o</w> 224
12 5ml</w> 224
ear th</w> 224
per a</w> 224
con sole</w> 224
11 - 224
dr e</w> 224
ten s</w> 224
der ma</w> 224
fit flop</w> 224
zz o</w> 224
ly n</w> 224
ms i</w> 224
the tic</w> 224
ham mer</w> 224
metri c</w> 224
abe th</w> 224
马丁 靴</w> 224
ferr ari</w> 224
卡地 亚</w> 224
幼稚 园</w> 224
m ama</w> 223
g . 223
s lot</w> 223
p 30 223
f all</w> 223
眉 笔</w> 223
保 存</w> 223
一 盒</w> 223
棒 棒 223
菲 利 223
粉 嫩</w> 223
罗 斯</w> 223
预 定</w> 223
打 磨</w> 223
散 装</w> 223
滚 轮</w> 223
le g 223
ph e</w> 223
au x</w> 223
fi re 223
blo uses</w> 223
go d 223
pen shoppe</w> 223
clou d</w> 223
自慰 器</w> 223
y91 c</w> 223
eliz abeth</w> 223
w w 222
d un 222
h p 222
p 20 222
j k</w> 222
f a</w> 222
v ar 222
头 巾</w> 222
美 好</w> 222
b c 222
女 单</w> 222
丹 尼尔</w> 222
电 扇</w> 222
多 多</w> 222
随 手</w> 222
出 )</w> 222
哈 娜</w> 222
泳 裤</w> 222
走 光</w> 222
鸳 鸯</w> 222
re a 222
co .</w> 222
ro ck 222
ba pti 222
un locked</w> 222
la zy</w> 222
gr inder</w> 222
tre tta</w> 222
shi mano</w> 222
99 0</w> 222
wai i</w> 222
.... ..</w> 222
acti cal</w> 222
iti ve</w> 222
dor ae 222
批发 价</w> 222
trol ley</w> 222
philip p</w> 222
法拉 利</w> 222
( 无</w> 221
1 + 221
5 )</w> 221
f u</w> 221
调 式</w> 221
运 费 221
车 灯</w> 221
扇 子</w> 221
袖 套</w> 221
高 低</w> 221
方 向</w> 221
控 制</w> 221
声 波</w> 221
榨 汁 221
lo g 221
vi os</w> 221
pi x 221
do me</w> 221
prin ting</w> 221
beau te 221
dai so</w> 221
sou ven 221
包装 袋</w> 221
cac ao</w> 221
pean ut</w> 221
vene ta</w> 221
蝙蝠 侠</w> 221
w . 220
3 xl</w> 220
风 味</w> 220
比 赛</w> 220
电 瓶</w> 220
多 种</w> 220
提 花</w> 220
兰 蔻</w> 220
菜 盆</w> 220
售 完</w> 220
曼 尼</w> 220
原 子 220
名 品</w> 220
转 椅</w> 220
抛 光</w> 220
降 温</w> 220
re g 220
wit hout</w> 220
con centr 220
ta was</w> 220
du al 220
ali st</w> 220
hy dro 220
dy n 220
ple in</w> 220
杂货 店</w> 220
cour t</w> 220
( 二手</w> 219
3 80 219
s b 219
手 指</w> 219
k ak 219
精 工</w> 219
阿 曼</w> 219
笔 筒</w> 219
售 价</w> 219
全 能</w> 219
茶 水</w> 219
坠 子</w> 219
摇 摆</w> 219
按 压</w> 219
渔 具</w> 219
赤 足</w> 219
冒 险</w> 219
am ber</w> 219
bo bb 219
pre love</w> 219
stu dent</w> 219
eye glass</w> 219
embroi dery</w> 219
smi le</w> 219
clin ic</w> 219
proje ct</w> 219
envelo pe</w> 219
assembl y</w> 219
e di 218
n t 218
c iti 218
小 鸟</w> 218
魔 鬼毡</w> 218
长 线</w> 218
精 度</w> 218
男 裤</w> 218
狐 狸</w> 218
奥 运</w> 218
毛 料</w> 218
减 压</w> 218
gre at</w> 218
17 - 218
mil k 218
com pre 218
glo be</w> 218
4. 7</w> 218
adap tor</w> 218
纪念 品</w> 218
契尔 氏</w> 218
e ste 217
3 s</w> 217
p ine 217
长 柄</w> 217
面 盆</w> 217
前 台</w> 217
气 动</w> 217
橘 子</w> 217
荧 光</w> 217
晾 衣</w> 217
re ser 217
er t</w> 217
sh elf</w> 217
bo ar 217
mo t 217
ack er</w> 217
mar ine</w> 217
pan ties</w> 217
ele phant</w> 217
40 -46</w> 217
ban a</w> 217
over size</w> 217
3. 1</w> 217
bar ley</w> 217
ry x 217
aqu ari 217
zo o</w> 217
king dom</w> 217
电子 表</w> 217
fuji film</w> 217
e vi 216
d den</w> 216
h . 216
g li 216
s 9 216
萝 卜</w> 216
u k</w> 216
篮 子</w> 216
西 服</w> 216
信 用 216
双 c</w> 216
第 五</w> 216
部 落</w> 216
过 年</w> 216
梳 子</w> 216
re pel 216
se con 216
am pli 216
la i</w> 216
ke e 216
pe ts</w> 216
pri de</w> 216
tri al</w> 216
s- xl</w> 216
fro sted</w> 216
ca fe</w> 216
遮阳 伞</w> 216
lumin ous</w> 216
effe ct</w> 216
geor ge</w> 216
got 7</w> 216
出版 社</w> 216
souven irs</w> 216
e on</w> 215
w cf</w> 215
m yst 215
t 0 215
小 卡</w> 215
z one</w> 215
美 发</w> 215
护 颈</w> 215
护 膝</w> 215
印 度</w> 215
浴 缸</w> 215
高 效</w> 215
杏 色</w> 215
夜 视</w> 215
云 朵</w> 215
跳 舞</w> 215
演 出</w> 215
蘑 菇</w> 215
en a</w> 215
th ai</w> 215
ur ing</w> 215
su it 215
fi ed</w> 215
ad ri 215
mat erial</w> 215
ju ju 215
bb q</w> 215
下杀 $</w> 215
分离 式</w> 215
菲利 普</w> 215
原子 笔</w> 215
( 10</w> 214
6 in1</w> 214
r ace</w> 214
h at 214
y x</w> 214
v c 214
小 物</w> 214
小 鸡</w> 214
保 固</w> 214
面 罩</w> 214
年 人</w> 214
仙 人 214
抹 茶</w> 214
刮 胡刀</w> 214
支 援</w> 214
冲 浪</w> 214
吐 司</w> 214
爸 爸</w> 214
蔬 果</w> 214
re max</w> 214
or o 214
ro ad</w> 214
to wer</w> 214
de ck</w> 214
dre am 214
fi le</w> 214
12 8 214
40 mm</w> 214
ath er 214
cor re 214
15 g</w> 214
sto ve</w> 214
multi function</w> 214
no. t1</w> 214
conne ctor</w> 214
naru to</w> 214
loe we</w> 214
6 s/ 213
r n</w> 213
r i</w> 213
g u</w> 213
s lo 213
l c 213
长 发</w> 213
技 术</w> 213
电 工</w> 213
野 生</w> 213
香 草</w> 213
热 器</w> 213
木 马</w> 213
体 验</w> 213
房 子</w> 213
搅 拌 213
po lar 213
te k 213
40 ml</w> 213
sli p- 213
bro ther</w> 213
-0 2</w> 213
35 -40</w> 213
spe ed 213
glu tam 213
400 g</w> 213
?? ??</w> 213
wol f</w> 213
squish y</w> 213
f on 212
l 型</w> 212
小 鱼</w> 212
z i</w> 212
加 粗</w> 212
初 学</w> 212
晚 礼服</w> 212
am our</w> 212
cre amy</w> 212
cy lin 212
band s</w> 212
frien d 212
2017 年</w> 212
信用 卡</w> 212
( ( 211
e tte</w> 211
w ave 211
r b 211
g 1</w> 211
三 菱</w> 211
发 财</w> 211
胸 前</w> 211
圆 点</w> 211
切 割</w> 211
巴 特</w> 211
摄 影机</w> 211
se curity</w> 211
ti sso 211
car d 211
do zen</w> 211
pa ++ 211
fu sion</w> 211
is bn 211
dra wer</w> 211
cri b</w> 211
tru ck</w> 211
juju be</w> 211
- b 210
m u</w> 210
i se</w> 210
y i 210
颜 料</w> 210
光 碟</w> 210
水 箱</w> 210
纽 约</w> 210
胖 子</w> 210
建 筑</w> 210
富 士</w> 210
寿 司</w> 210
体 育</w> 210
成 长</w> 210
挂 脖</w> 210
co il</w> 210
20 5</w> 210
fi x</w> 210
sun block</w> 210
11 3</w> 210
pu mp 210
gre en 210
ste ph 210
son s</w> 210
man y</w> 210
bri ck</w> 210
war ri 210
elect ro 210
过滤 器</w> 210
your self</w> 210
dish washing</w> 210
- 001</w> 209
j v</w> 209
小 麦</w> 209
b in</w> 209
中 长</w> 209
水 池</w> 209
新 鲜</w> 209
白 灰</w> 209
月 光</w> 209
艾 米</w> 209
假 面</w> 209
理 学</w> 209
即 期</w> 209
福 特</w> 209
珊 瑚 209
in d</w> 209
an ni 209
lu lu 209
16 5</w> 209
sil ver 209
stre n 209
cli pper</w> 209
alph ab 209
棒棒 糖</w> 209
e ce</w> 208
1 x</w> 208
r 9</w> 208
g inger 208
直 径</w> 208
l p</w> 208
y es</w> 208
制 冷</w> 208
非 常</w> 208
印 刷</w> 208
车 牌</w> 208
野 外</w> 208
铝 箔</w> 208
草 机</w> 208
国 制</w> 208
遮 瑕</w> 208
简 体</w> 208
沐 浴 208
参 考</w> 208
at en</w> 208
to m 208
ma m</w> 208
ligh ting</w> 208
60 cm</w> 208
san ta</w> 208
卫生 纸</w> 208
ku ma</w> 208
zenf one 208
butt on 208
6. 1</w> 208
a7 3</w> 208
bul let</w> 208
........ ........ 208
aero post 208
preci ous</w> 208
scrip tion</w> 208
羽绒 服</w> 208
g .</w> 207
f arm</w> 207
三 轮车</w> 207
甜 点</w> 207
星 座</w> 207
麻 将</w> 207
莱 姆</w> 207
圆 圈</w> 207
缝 隙</w> 207
狗 窝</w> 207
蛤 蟆 207
熨 斗</w> 207
贸 易</w> 207
ro be</w> 207
se wing</w> 207
mi st 207
av a</w> 207
len a</w> 207
lan come</w> 207
cat cher</w> 207
glit ters</w> 207
smart phone</w> 207
摄像 头</w> 207
生活 馆</w> 207
disinfe ct 207
h r 206
直 条</w> 206
手 摇</w> 206
c ad 206
衣 裤</w> 206
中 海</w> 206
通 话</w> 206
上 班</w> 206
香 香</w> 206
香 槟</w> 206
高 清</w> 206
妖 怪</w> 206
式 )</w> 206
凉 拖</w> 206
城 堡</w> 206
染 发 206
霹 雳</w> 206
re stock</w> 206
20 00 206
ti cal</w> 206
ck ed</w> 206
mm a</w> 206
war ran 206
inten sive</w> 206
simp ly</w> 206
包装 盒</w> 206
radi ation</w> 206
syn thetic</w> 206
蛤蟆 镜</w> 206
warran ty</w> 206
- x</w> 205
- 10 205
m 40 205
6 )</w> 205
h s</w> 205
g 点</w> 205
f 21</w> 205
c .</w> 205
英 寸</w> 205
十 二</w> 205
烟 灰 205
通 勤</w> 205
效 果</w> 205
肥 皂</w> 205
火 车</w> 205
定 位</w> 205
桌 上型</w> 205
灯 芯 205
体 重</w> 205
名 片</w> 205
渡 假</w> 205
芦 荟</w> 205
re st</w> 205
ar gan</w> 205
po st</w> 205
fe et</w> 205
13 5g</w> 205
pat ches</w> 205
ze bra</w> 205
ya o</w> 205
gui de</w> 205
变形 金刚</w> 205
w an 204
1 36 204
2 lite</w> 204
r us 204
p ea 204
j in 204
j ol 204
o wl</w> 204
i do 204
n 0 204
c el</w> 204
山 茶花</w> 204
智 慧 204
教 室</w> 204
平 面</w> 204
便 携式</w> 204
鸡 蛋</w> 204
地 中海</w> 204
固 定 204
监 控</w> 204
lo g</w> 204
30 cm</w> 204
ju mp</w> 204
ju mbo</w> 204
24 v</w> 204
yu gi 204
(黑 色)</w> 204
2018 年</w> 204
game pad</w> 204
beaute derm</w> 204
aeropost ale</w> 204
灯芯 绒</w> 204
( 单</w> 203
( 送</w> 203
- 8 203
m r</w> 203
h w</w> 203
5 cm</w> 203
u - 203
z 2</w> 203
肌 肉</w> 203
套 )</w> 203
吊 饰</w> 203
丁 字</w> 203
挡 风</w> 203
毛 器</w> 203
台 面</w> 203
延 长线</w> 203
摇 椅</w> 203
伴 手</w> 203
矫 正</w> 203
in visible</w> 203
le s 203
ch ed</w> 203
di vi 203
ab c</w> 203
au tu 203
no uri 203
ke e</w> 203
24 7</w> 203
bro w 203
ali an</w> 203
dar t</w> 203
下杀 # 203
comfor ter</w> 203
ame l</w> 203
sni per</w> 203
capac ity</w> 203
奇奇 蒂 203
desi re</w> 203
yugi oh</w> 203
e vo</w> 202
3 10</w> 202
7 a</w> 202
t r</w> 202
手 册</w> 202
j m</w> 202
v at 202
u v 202
亚 瑟</w> 202
母 乳</w> 202
长 筒</w> 202
夹 缝</w> 202
星 辰</w> 202
定 型</w> 202
素 材</w> 202
尾 牙</w> 202
茶 色</w> 202
酒 精</w> 202
坡 跟</w> 202
跑 车</w> 202
广 角</w> 202
犀 牛</w> 202
sh aper</w> 202
ap p</w> 202
mo vie</w> 202
ph p 202
ad v 202
pi cture</w> 202
ke ds</w> 202
sun ny</w> 202
ex foli 202
back case</w> 202
25 6</w> 202
jo gging</w> 202
gen ic</w> 202
temp o</w> 202
swi ft</w> 202
nu tr 202
lea gue</w> 202
isbn :</w> 202
w l 201
- 3</w> 201
m g 201
t z</w> 201
h ai 201
f el 201
l la 201
系 列 201
雪 纺 201
特 色</w> 201
铺 子</w> 201
花 草</w> 201
狂 欢</w> 201
表 情</w> 201
甜 蜜</w> 201
紫 砂</w> 201
出 服</w> 201
破 坏</w> 201
漱 口</w> 201
演 出服</w> 201
斗 篷</w> 201
in sp 201
al tis</w> 201
si e</w> 201
am p 201
ni sh</w> 201
mil ky</w> 201
300 g</w> 201
spar k</w> 201
r9 s</w> 201
cop y</w> 201
este e</w> 201
6 mm</w> 200
h r</w> 200
j ac 200
# #</w> 200
b in 200
水 晶 200
学 校</w> 200
世 纪</w> 200
佛 教</w> 200
满 月</w> 200
战 马</w> 200
梯 子</w> 200
re x</w> 200
ro und 200
mo ti 200
car ter 200
ear ings</w> 200
por ter</w> 200
lay ered</w> 200
hun ter</w> 200
dorae mon</w> 200
烟灰 缸</w> 200
w t</w> 199
d ino 199
h f</w> 199
g inger</w> 199
手 臂</w> 199
爬 行</w> 199
快 干</w> 199
b li 199
b bies</w> 199
存 钱</w> 199
典 藏</w> 199
教 育</w> 199
分 钟</w> 199
透 肤</w> 199
浴 盆</w> 199
接 线</w> 199
有 盖</w> 199
博 柏 199
领 结</w> 199
毛 边</w> 199
暗 黑</w> 199
玩 家</w> 199
舒 服</w> 199
温 柔</w> 199
汉 堡</w> 199
私 密</w> 199
青 蛙</w> 199
泼 墨</w> 199
靠 墙</w> 199
腋 下</w> 199
ch er 199
30 3</w> 199
11 6</w> 199
pl ace</w> 199
son ic</w> 199
vitam ins</w> 199
om bre</w> 199
折叠 床</w> 199
multi- function</w> 199
bear ing</w> 199
exp lo 199
pillow case</w> 199
p 8</w> 198
v oice</w> 198
u le</w> 198
小 车</w> 198
露 趾</w> 198
美 美</w> 198
珐 瑯</w> 198
外 接</w> 198
特 大号</w> 198
相 容</w> 198
杀 价 198
刷 子</w> 198
光 灯</w> 198
耳 罩</w> 198
磁 力</w> 198
出 国</w> 198
明 治</w> 198
研 磨 198
帮 手</w> 198
引 擎</w> 198
搅 拌</w> 198
am as</w> 198
mi lit 198
sp l</w> 198
sho w</w> 198
ho bo</w> 198
pu s</w> 198
chan nel</w> 198
bea ded</w> 198
tri u 198
ve a</w> 198
hear t 198
eye wear</w> 198
sno w 198
take 1</w> 198
仙人 掌</w> 198
3 ce</w> 197
7 ml</w> 197
s ity</w> 197
j y 197
小 美人鱼</w> 197
x y 197
b 5</w> 197
暖 手</w> 197
油 烟</w> 197
豆 腐</w> 197
高 手</w> 197
晚 安</w> 197
动 画</w> 197
社 会</w> 197
ch un 197
ti ca</w> 197
ur s</w> 197
mi u 197
tt ed</w> 197
ver s</w> 197
pi lot</w> 197
18 m</w> 197
-4 xl</w> 197
mb ers</w> 197
dol ce</w> 197
comp ati 197
cond ition</w> 197
gol d 197
imp act</w> 197
9. 7</w> 197
lau der</w> 197
螺丝 刀</w> 197
insul ated</w> 197
p tor</w> 196
作 品</w> 196
o y</w> 196
家 )</w> 196
包 # 196
绿 萝</w> 196
软 管</w> 196
褶 皱</w> 196
颈 链</w> 196
巴 西</w> 196
者 :</w> 196
滚 边</w> 196
re cei 196
20 000</w> 196
be e 196
fu ture</w> 196
ten nis</w> 196
s- xxl</w> 196
clas si 196
et c</w> 196
repl ac 196
break er</w> 196
asp ire</w> 196
蜘蛛 人</w> 196
insta x</w> 196
nipp le</w> 196
ampli fier</w> 196
tisso t</w> 196
alphab et</w> 196
( 两</w> 195
d al 195
a ur 195
4 80</w> 195
6 a</w> 195
. hk</w> 195
客 制</w> 195
风 琴</w> 195
货 号</w> 195
杀 手</w> 195
花 器</w> 195
语 音</w> 195
教 师</w> 195
耳 环 195
新 店</w> 195
天 下</w> 195
提 供</w> 195
南 极</w> 195
in c</w> 195
sh el 195
to kyo</w> 195
am g</w> 195
ki ds 195
mp h</w> 195
min er</w> 195
ad di 195
cu cu 195
sc rat 195
fron tro 195
pad lock</w> 195
mc queen</w> 195
防水 布</w> 195
open er</w> 195
gab bana</w> 195
plus size</w> 195
abercrom bie 195
aquari um</w> 195
智慧 型</w> 195
( 二</w> 194
t 1 194
t .</w> 194
p ment</w> 194
手 帕</w> 194
o ven</w> 194
n en 194
c lamp</w> 194
z 5</w> 194
元 )</w> 194
货 车</w> 194
下 单)</w> 194
松 紧 194
米 茄</w> 194
水 手</w> 194
拉 丝</w> 194
工 装 194
无 敌</w> 194
星 光</w> 194
不 易</w> 194
全 网</w> 194
羽 球</w> 194
柜 组</w> 194
柴 犬</w> 194
节 日</w> 194
苹 果 194
an gular</w> 194
lo lit 194
se ga</w> 194
th ings</w> 194
cor dless</w> 194
tri angle</w> 194
bri cks</w> 194
dra wing</w> 194
工作 鞋</w> 194
shar p</w> 194
tm x</w> 194
防晒 霜</w> 194
(大 )</w> 194
卡其 色</w> 194
hone y 194
autu mn</w> 194
m cm</w> 193
2 30 193
r l</w> 193
c 0 193
小 鹿</w> 193
美 肌</w> 193
网 卡</w> 193
收 银 193
电 热 193
加 高</w> 193
越 南</w> 193
抹 布</w> 193
石 头</w> 193
软 毛</w> 193
碗 盘</w> 193
轻 盈</w> 193
镀 膜</w> 193
专 家</w> 193
ar c 193
ba y</w> 193
to pper</w> 193
ol y 193
ki ll</w> 193
so lu 193
fi ve</w> 193
one - 193
bri ef 193
iphone 6s</w> 193
tur bo</w> 193
kn 95</w> 193
arm ani 193
泰迪 熊</w> 193
cucu mber</w> 193
frontro w</w> 193
d l</w> 192
i so 192
海 军 192
风 潮</w> 192
实 惠</w> 192
佩 佩 192
月 子</w> 192
圆 脸</w> 192
定 版</w> 192
蜂 巢</w> 192
口 水巾</w> 192
挂 布</w> 192
坐 姿</w> 192
it ed</w> 192
al d</w> 192
ro m</w> 192
ni vea</w> 192
ta ins</w> 192
40 -44</w> 192
dr yer</w> 192
mil d</w> 192
fle ece</w> 192
安全 带</w> 192
y- 3</w> 192
落地 灯</w> 192
gener ation</w> 192
jour nal</w> 192
msm .hk</w> 192
cylin der</w> 192
d 0 191
2 25 191
p ins</w> 191
风 景</w> 191
b s 191
如 意</w> 191
) .</w> 191
水 鬼</w> 191
< <</w> 191
识 别</w> 191
洗 菜盆</w> 191
竹 炭</w> 191
数 学</w> 191
化 器</w> 191
猴 子</w> 191
转 换</w> 191
摇 篮</w> 191
按 键</w> 191
an k</w> 191
bo at</w> 191
hi mala 191
de er</w> 191
no tes</w> 191
pi e</w> 191
12 7</w> 191
mm )</w> 191
gr ass</w> 191
88 8</w> 191
tee th</w> 191
手工 皂</w> 191
activ ity</w> 191
nigh t 191
1 g</w> 190
g w 190
q - 190
v ol</w> 190
清 凉</w> 190
丽 婴</w> 190
护 发 190
电 机</w> 190
雷 朋</w> 190
挂 包</w> 190
er ci 190
ne t 190
el sa</w> 190
mi mi</w> 190
su i</w> 190
gh o 190
fe ather</w> 190
pe o 190
prin ce</w> 190
gi a</w> 190
medi c 190
sn ack</w> 190
咖啡 豆</w> 190
sha ke</w> 190
aro mat 190
gal lon</w> 190
十字 架</w> 190
vehi cle</w> 190
运费 )</w> 190
雪纺 衫</w> 190
2 l</w> 189
g r</w> 189
k on 189
f j 189
f at</w> 189
调 光</w> 189
翻 新</w> 189
军 事</w> 189
牛 角</w> 189
毯 子</w> 189
姑 娘</w> 189
压 力</w> 189
打 造</w> 189
评 价</w> 189
溜 溜</w> 189
放 大 189
伞 架</w> 189
re la 189
as cor 189
tt o</w> 189
mar ket</w> 189
mb a</w> 189
man ce</w> 189
note 5</w> 189
cal cul 189
box es</w> 189
todd lers</w> 189
9. 9</w> 189
sol o</w> 189
tech ni 189
every day</w> 189
出清 )</w> 189
ros ary</w> 189
珊瑚 绒</w> 189
compati ble</w> 189
6 x</w> 188
3 10 188
g round</w> 188
p . 188
拍 杆</w> 188
c all</w> 188
布 娃娃</w> 188
老 年人</w> 188
发 圈</w> 188
水 冷</w> 188
便 利 188
挡 板</w> 188
当 日</w> 188
干 花</w> 188
动 力</w> 188
搬 家</w> 188
le vel</w> 188
st abi 188
ri der</w> 188
hi lls</w> 188
wi g</w> 188
-4 2</w> 188
90 g</w> 188
temp er 188
铅笔 盒</w> 188
louis vuitton</w> 188
abercrombie &</w> 188
3 mm</w> 187
g x 187
p d</w> 187
代 购 187
作 战</w> 187
o cc 187
球 拍</w> 187
蒸 气</w> 187
织 布</w> 187
净 水</w> 187
开 业</w> 187
羽 毛 187
地 车</w> 187
螺 旋</w> 187
职 员</w> 187
重 磅</w> 187
ch oice</w> 187
ri es</w> 187
po ly</w> 187
las h 187
40 -45</w> 187
one piece</w> 187
multi purpose</w> 187
bang les</w> 187
pil aten</w> 187
dro ps</w> 187
tab le 187
nar s</w> 187
rai der 187
bak una</w> 187
slip- on</w> 187
milit ary</w> 187
工装 裤</w> 187
8 pcs</w> 186
2 60</w> 186
g au 186
o val</w> 186
u 盘</w> 186
小 丑</w> 186
乐 乐</w> 186
一 起</w> 186
男 款</w> 186
五 色</w> 186
天 鹅 186
利 亚</w> 186
分 )</w> 186
灰 黑</w> 186
单 宁</w> 186
磨 砂 186
当 劳</w> 186
麦 当劳</w> 186
餐 饮</w> 186
转 售</w> 186
烘 培</w> 186
an n</w> 186
re v 186
ani um</w> 186
ex erci 186
chi cco</w> 186
air e</w> 186
fro g 186
hoo dies</w> 186
下杀 @</w> 186
blan c</w> 186
apri l</w> 186
bron ze</w> 186
peri pera</w> 186
精品 店</w> 186
tropi cal</w> 186
diffe rent</w> 186
( 5</w> 185
d ate</w> 185
m ks</w> 185
m -2xl</w> 185
2 12</w> 185
a .</w> 185
p les</w> 185
5 xl</w> 185
k ra 185
东 方</w> 185
年 级</w> 185
精 萃</w> 185
子 星</w> 185
深 灰</w> 185
计 划</w> 185
广 场</w> 185
ro l 185
20 2</w> 185
si n</w> 185
ti ons</w> 185
th or</w> 185
40 1</w> 185
90 cm</w> 185
hand y</w> 185
spi der</w> 185
zi pp 185
m- xl</w> 185
play ed</w> 185
ssi mo</w> 185
prest ige</w> 185
emer gen 185
海军 蓝</w> 185
g x</w> 184
f s 184
f b 184
y 5</w> 184
风 情</w> 184
背 后</w> 184
* *</w> 184
长 效</w> 184
热 门</w> 184
墨 水</w> 184
俏 皮</w> 184
液 体</w> 184
供 应 184
in tex</w> 184
er - 184
en o</w> 184
di ap 184
ra z 184
201 1</w> 184
201 0</w> 184
mo o 184
pa zzo</w> 184
gr ain</w> 184
1. 6</w> 184
ag ed</w> 184
sto cks</w> 184
win nie</w> 184
mer ic</w> 184
pat rol</w> 184
tou ch 184
vir gin</w> 184
mid night</w> 184
眼镜 框</w> 184
nood les</w> 184
perfor mance</w> 184
榨汁 机</w> 184
沐浴 乳</w> 184
( 黑</w> 183
1 pair</w> 183
7 11</w> 183
j p</w> 183
f x</w> 183
f low</w> 183
o at 183
联 想</w> 183
山 地车</w> 183
内 胆</w> 183
码 表</w> 183
凯 蒂猫</w> 183
辣 椒</w> 183
时 装</w> 183
史 莱姆</w> 183
单 个</w> 183
数 量</w> 183
牛 排</w> 183
帽 衫</w> 183
横 条</w> 183
核 心</w> 183
消 光</w> 183
懒 懒</w> 183
矮 凳</w> 183
in ver 183
ar ch</w> 183
th rough</w> 183
ne ver</w> 183
ki ller</w> 183
60 g</w> 183
ak o</w> 183
ag nes</w> 183
glu ta 183
mor phe</w> 183
tat a</w> 183
ari el</w> 183
fan cy</w> 183
ite ch</w> 183
who le</w> 183
trans fer</w> 183
snap s</w> 183
dani el 183
thr ones</w> 183
semi - 183
d get</w> 182
g ate</w> 182
作 者:</w> 182
小 样</w> 182
海 苔</w> 182
网 络</w> 182
晴 雨</w> 182
衫 女</w> 182
自 然 182
电 话 182
天 空</w> 182
袖 短</w> 182
火 焰</w> 182
冲 锋</w> 182
团 体</w> 182
菱 形</w> 182
供 佛</w> 182
滚 珠</w> 182
19 9 182
sc ar</w> 182
13 - 182
swi ss</w> 182
cr v</w> 182
ka waii</w> 182
van ity</w> 182
gig ab 182
bever ly</w> 182
- s 181
2 mm</w> 181
t ell</w> 181
r m</w> 181
j am</w> 181
5 吋</w> 181
9 m</w> 181
f 5 181
b p 181
空 姐</w> 181
护 士</w> 181
磁 扣</w> 181
粉 )</w> 181
喜 欢</w> 181
租 房</w> 181
眼 部</w> 181
原 液</w> 181
喷 漆</w> 181
边 柜</w> 181
没 有</w> 181
遇 见</w> 181
投 影</w> 181
te al</w> 181
de st 181
qu a 181
ko se</w> 181
br assi 181
ke vin</w> 181
sli des</w> 181
gr 3</w> 181
ca len 181
lay ers</w> 181
y6 6</w> 181
free bies</w> 181
sw ing</w> 181
my phone</w> 181
paj amas</w> 181
degre e</w> 181
mechani cal</w> 181
compre ssion</w> 181
adv ance</w> 181
replac eable</w> 181
3 30 180
7 s</w> 180
7 50ml</w> 180
o xi 180
i g</w> 180
机 架</w> 180
蓝 宝石</w> 180
白 光</w> 180
加 密</w> 180
胸 章</w> 180
记 事 180
刀 具</w> 180
铂 金</w> 180
di ary</w> 180
ba d 180
us ers</w> 180
so up</w> 180
pro 2019</w> 180
pi ston</w> 180
18 inches</w> 180
ci a</w> 180
wal king</w> 180
mag az 180
tri - 180
ag ate</w> 180
over all</w> 180
-2 4</w> 180
ka y 180
squ ee 180
ampo ule</w> 180
glo bal</w> 180
hydr o</w> 180
1000 ml</w> 180
spro cket</w> 180
triu mph</w> 180
lolit a</w> 180
e s- 179
0 p</w> 179
0 50 179
7 10 179
f light</w> 179
小 猫</w> 179
布 朗</w> 179
女 潮</w> 179
鞋 面</w> 179
库 里</w> 179
马 拉 179
安 心</w> 179
气 囊</w> 179
分 隔</w> 179
兰 特</w> 179
闪 耀</w> 179
深 v</w> 179
除 毛</w> 179
re new</w> 179
le t 179
st ers</w> 179
si ons</w> 179
de tai 179
50 - 179
18 8</w> 179
kit ty 179
19 70</w> 179
2. 4</w> 179
gg les</w> 179
99 99</w> 179
hy po 179
gri d</w> 179
cele br 179
松紧 带</w> 179
oly mp 179
emergen cy</w> 179
w d 178
t p- 178
s g 178
c av 178
风 车</w> 178
下 铺</w> 178
乳 器</w> 178
自 用</w> 178
记 忆 178
子 )</w> 178
添 加</w> 178
邮 票</w> 178
巴 斯</w> 178
幽 灵</w> 178
le vi 178
on line</w> 178
li - 178
20 - 178
wi sh</w> 178
ke to</w> 178
pe pper 178
bro o 178
ven us</w> 178
dri ed</w> 178
is o</w> 178
fa b</w> 178
black head</w> 178
inter national</w> 178
m2 k</w> 178
一体 机</w> 178
writ ing</w> 178
e mi 177
d ance</w> 177
2 70 177
j d 177
o real</w> 177
b ani 177
正 方形</w> 177
花 生</w> 177
流 沙</w> 177
鲁 夫</w> 177
木 耳</w> 177
出 游</w> 177
飞 人</w> 177
子 弹</w> 177
理 发店</w> 177
垫 片</w> 177
尾 灯</w> 177
锅 盖</w> 177
淡 化</w> 177
炒 锅</w> 177
互 动</w> 177
姓 名</w> 177
st y</w> 177
vi vo 177
24 m</w> 177
sta ge</w> 177
stra ps</w> 177
ka was 177
cur tains</w> 177
collecti ble</w> 177
calcul ator</w> 177
记事 本</w> 177
1 set</w> 176
p ass 176
k at</w> 176
n u</w> 176
z x</w> 176
制 )</w> 176
b h</w> 176
门 后</w> 176
靴 女</w> 176
纽 扣</w> 176
华 硕</w> 176
出 差</w> 176
洗 发</w> 176
唱 歌</w> 176
芒 果</w> 176
我 们</w> 176
姐 姐</w> 176
各 式</w> 176
an dre 176
po we 176
ra w</w> 176
vi t</w> 176
12 6</w> 176
mar ks</w> 176
80 8</w> 176
17 5</w> 176
2- in-1</w> 176
sen s 176
str ong</w> 176
pc .</w> 176
vol can 176
ruff les</w> 176
eu ro 176
gla m</w> 176
jas mine</w> 176
飞行 器</w> 176
puri fier</w> 176
sac he 176
适用 于</w> 176
citi zen</w> 176
ryx skincerity</w> 176
佩佩 猪</w> 176
e os</w> 175
g 5</w> 175
k 1</w> 175
i x 175
c 3</w> 175
金 证</w> 175
油 漆</w> 175
组 合 175
粘 贴</w> 175
隔 层</w> 175
燕 麦</w> 175
夜 灯</w> 175
全 新)</w> 175
定 时</w> 175
预 订</w> 175
哑 光</w> 175
计 时 175
脱 毛</w> 175
镶 嵌</w> 175
厨 具</w> 175
室 内外</w> 175
概 论</w> 175
as ted</w> 175
at t 175
li me</w> 175
se al 175
un i</w> 175
ir ving</w> 175
br ai 175
ear buds</w> 175
ele ment</w> 175
40 - 175
for e</w> 175
kni ght</w> 175
a7 7</w> 175
seas on 175
kh aki</w> 175
holi day</w> 175
百褶 裙</w> 175
carter 's</w> 175
oat meal</w> 175
m s- 174
a 60</w> 174
3 -4 174
k el 174
o x</w> 174
l bs</w> 174
c w 174
小 凳子</w> 174
西 餐</w> 174
菲 拉 174
上 海</w> 174
托 架</w> 174
木 板</w> 174
单 色</w> 174
立 体 174
碗 筷</w> 174
服 务</w> 174
集 中</w> 174
完 全</w> 174
重 机</w> 174
纯 天然</w> 174
首 尔</w> 174
re vit 174
re seller</w> 174
er ina</w> 174
ac ade 174
tr ain</w> 174
be ans</w> 174
60 2</w> 174
chan ce</w> 174
bur ner</w> 174
sat a</w> 174
moun tain</w> 174
tit anium</w> 174
健身 房</w> 174
diap ers</w> 174
daniel wellington</w> 174
e qui 173
2 pc</w> 173
t 8 173
p ai 173
o ther</w> 173
大 款</w> 173
大 陆</w> 173
女 仆</w> 173
经 济</w> 173
男 人</w> 173
新 竹</w> 173
刺 青</w> 173
上 衣 173
天 梭</w> 173
个 子</w> 173
音 机</w> 173
原 色</w> 173
成 功</w> 173
声 光</w> 173
钢 管</w> 173
披 风</w> 173
齐 全</w> 173
午 茶</w> 173
锁 头</w> 173
降 噪</w> 173
椭 圆</w> 173
总 成</w> 173
勺 子</w> 173
拇 指</w> 173
an ch 173
st ing</w> 173
en er</w> 173
li f 173
se same</w> 173
me d 173
ri lak 173
ath le 173
jo e</w> 173
dis ru 173
2. 1</w> 173
2. 1a</w> 173
3- 4</w> 173
out put</w> 173
charac ters</w> 173
y6 2018</w> 173
-- -- 173
978 95 173
nov a5 173
cir cu 173
ultra boost</w> 173
paci fier</w> 173
pine apple</w> 173
t1 ／</w> 173
sache ts</w> 173
m po 172
a 40</w> 172
s x 172
p ain</w> 172
i m</w> 172
风 铃</w> 172
卡 )</w> 172
烤 炉</w> 172
工 程 172
商 场</w> 172
箱 包</w> 172
珍 藏</w> 172
富 贵</w> 172
泳 池</w> 172
冠 希</w> 172
杜 兰特</w> 172
未 使用</w> 172
an t 172
re trac 172
or i</w> 172
le ft</w> 172
li an</w> 172
hi king</w> 172
ter nal</w> 172
12 v 172
char lotte</w> 172
pe dal</w> 172
bal ly</w> 172
spor t 172
dr ying</w> 172
ban presto</w> 172
iphone 6/ 172
55 5</w> 172
cou ture</w> 172
ton y 172
cen se</w> 172
pal m</w> 172
spir al</w> 172
pocke t 172
esp adri 172
die sel</w> 172
bobb i</w> 172
aromat her 172
kawas aki</w> 172
( 6</w> 171
a e</w> 171
4 28 171
7 20 171
g 6</w> 171
g ad 171
j d</w> 171
k ur 171
小 妹</w> 171
小 伙伴</w> 171
风 火 171
正 宗</w> 171
扩 充</w> 171
松 饼</w> 171
修 饰</w> 171
洁 净</w> 171
人 缘</w> 171
不 沾</w> 171
奥 迪</w> 171
挂 表</w> 171
藏 版</w> 171
co ck</w> 171
co mic</w> 171
st ate</w> 171
st eri 171
me e</w> 171
po u 171
10 8 171
de scription</w> 171
min a</w> 171
chan ge</w> 171
38 mm</w> 171
access ory</w> 171
平底 锅</w> 171
non- slip</w> 171
kid ston</w> 171
mun a 171
prime knit</w> 171
音乐 盒</w> 171
e mo 170
w ear 170
1 100</w> 170
1 200 170
a vi 170
6 80 170
3 月</w> 170
k . 170
f w 170
l s 170
c 1</w> 170
c 6</w> 170
大 众</w> 170
内 衬</w> 170
光 学</w> 170
一 直</w> 170
发 廊</w> 170
心 形</w> 170
门 市</w> 170
菜 板</w> 170
芝 麻</w> 170
宝 可</w> 170
荷 兰</w> 170
销 价</w> 170
胶 条</w> 170
打 印 170
壁 饰</w> 170
控 制 170
皆 可</w> 170
锻 炼</w> 170
co tt 170
ne ver 170
sp inner</w> 170
br y 170
wat ch 170
18 650</w> 170
11 9</w> 170
60 8</w> 170
desig ner</w> 170
sm - 170
eri zed</w> 170
clo set</w> 170
mu ji</w> 170
tro users</w> 170
nu mbers</w> 170
m- l</w> 170
cra zy</w> 170
han na</w> 170
glutam ansi</w> 170
peo ple</w> 170
( 日本</w> 169
t b 169
r as 169
p b</w> 169
5 x</w> 169
l / 169
y as 169
n n 169
小 米 169
晒 衣架</w> 169
女 郎</w> 169
中 童</w> 169
金 银</w> 169
实 心</w> 169
长 型</w> 169
克 兰</w> 169
洛 克</w> 169
香 味</w> 169
冷 藏</w> 169
促 销 169
梨 花</w> 169
霸 王</w> 169
除 湿</w> 169
幼 童</w> 169
投 影机</w> 169
副 食品</w> 169
re no 169
co d 169
20 4</w> 169
20 v</w> 169
ni ll 169
wh at</w> 169
cu ff</w> 169
ing co</w> 169
uni que</w> 169
gi e</w> 169
fu el</w> 169
14 5</w> 169
gr ace</w> 169
90 2</w> 169
-3 5</w> 169
tri o</w> 169
medi cal</w> 169
ka ws</w> 169
water melon</w> 169
tren ding</w> 169
2- 3</w> 169
read ing</w> 169
ga- 110</w> 169
philipp ines</w> 169
d ji</w> 168
a )</w> 168
a le 168
4 ml</w> 168
t actical</w> 168
k b 168
& g</w> 168
& 优</w> 168
瓦 斯</w> 168
米 兰</w> 168
呼 吸</w> 168
润 肤</w> 168
瓶 )</w> 168
舞 会</w> 168
名 &优</w> 168
进 化</w> 168
li ft</w> 168
po made</w> 168
sk - 168
du ck</w> 168
36 - 168
ani e</w> 168
70 1</w> 168
500 mg</w> 168
lan yard</w> 168
yu n</w> 168
pon y 168
on- hand</w> 168
davi d</w> 168
牛皮 纸</w> 168
beach kin</w> 168
nill kin</w> 168
m 44 167
a 2 167
3 50ml</w> 167
3 ply</w> 167
r it 167
s ack</w> 167
o lay</w> 167
v 4</w> 167
海 马</w> 167
' s 167
外 销</w> 167
防 辐射</w> 167
+ / 167
五 角 167
五 斗 167
好 吃</w> 167
文 具 167
芝 麻 167
公 分)</w> 167
刮 皮</w> 167
免 运 167
法 兰</w> 167
屏 幕</w> 167
勇 士</w> 167
穿 鞋</w> 167
私 人</w> 167
ro ll 167
me mo</w> 167
si de 167
to ds</w> 167
ma p</w> 167
par i 167
25 pcs</w> 167
coo k 167
happ y 167
j7 10</w> 167
bon net</w> 167
折叠 椅</w> 167
婴儿 车</w> 167
dur able</w> 167
dk ny</w> 167
thermo meter</w> 167
mot ors</w> 167
exerci se</w> 167
qua ff</w> 167
风火 轮</w> 167
t 4 166
t p</w> 166
r in 166
h q</w> 166
g eni 166
j h 166
q 10</w> 166
5 v</w> 166
5 80</w> 166
f 3 166
合 作</w> 166
马 尾</w> 166
发 售</w> 166
克 罗 166
艺 术 166
双 门</w> 166
桃 红色</w> 166
订 做</w> 166
接 口</w> 166
财 神</w> 166
狮 子</w> 166
液 态</w> 166
课 本</w> 166
蜗 牛</w> 166
供 奉</w> 166
示 牌</w> 166
璀 璨</w> 166
mo mmy</w> 166
ho lic</w> 166
ho bbies</w> 166
pro - 166
gi ld 166
fo aming</w> 166
ang e 166
19 70s</w> 166
sm o</w> 166
sm al</w> 166
go ggles</w> 166
op hi 166
is ure</w> 166
5. 2</w> 166
mk 5 166
boy leg</w> 166
til ity</w> 166
nap kin</w> 166
aller genic</w> 166
brief s</w> 166
volcan ic</w> 166
m .</w> 165
m ers</w> 165
s kid</w> 165
直 出</w> 165
j ig 165
o w 165
y 11</w> 165
小 鸭</w> 165
红 绿</w> 165
燃 气</w> 165
大 眼</w> 165
机 )</w> 165
花 苞</w> 165
松 木</w> 165
电 视 165
蛋 器</w> 165
气 泡</w> 165
拖 地</w> 165
提 升</w> 165
木 雕</w> 165
记 录</w> 165
明 灯</w> 165
人 机</w> 165
搭 扣</w> 165
檀 香</w> 165
悬 挂</w> 165
re le 165
co pper</w> 165
le - 165
ma dre</w> 165
qu et</w> 165
gh am</w> 165
ho u 165
do min 165
30 pcs</w> 165
sun shine</w> 165
70 - 165
go ur 165
-3 6</w> 165
2. 0 165
stre chable</w> 165
3- in-1</w> 165
foo ds</w> 165
christ ening</w> 165
boy friend</w> 165
dea d</w> 165
ame th 165
opti cal</w> 165
roman tic</w> 165
drin king</w> 165
hit achi</w> 165
pepper mint</w> 165
retrac table</w> 165
gild an</w> 165
( 三</w> 164
w u 164
d 3</w> 164
4 mm</w> 164
l ati 164
特 价 164
花 架子</w> 164
裤 头</w> 164
水 枪</w> 164
板 房</w> 164
洗 面 164
会 议 164
冷 淡</w> 164
奇 诺</w> 164
义 大利</w> 164
媒 体</w> 164
扑 克 164
画 家</w> 164
需 要</w> 164
掉 色</w> 164
牡 丹</w> 164
待 机</w> 164
lo real</w> 164
ba d</w> 164
ap ad</w> 164
su al</w> 164
11 . 164
sa ver</w> 164
sel f- 164
she a</w> 164
war dro 164
is land</w> 164
twi sted</w> 164
圣诞 树</w> 164
fal se</w> 164
sele ct</w> 164
shin y</w> 164
2016 年</w> 164
tek no</w> 164
raider 150</w> 164
inver ter</w> 164
aromather apy</w> 164
( 限定</w> 163
2 ml</w> 163
r g</w> 163
o s 163
l ly</w> 163
i con</w> 163
c ation</w> 163
小 兔</w> 163
红 豆</w> 163
网 格</w> 163
外 卖</w> 163
大 地</w> 163
三 联</w> 163
光 镜</w> 163
流 浪</w> 163
梦 想</w> 163
车 架</w> 163
洗 澡 163
扣 头</w> 163
遮 挡</w> 163
蓬 松</w> 163
佛 珠</w> 163
柜 台</w> 163
台 上</w> 163
狗 头</w> 163
医 生</w> 163
市 场</w> 163
驼 色</w> 163
铸 铁</w> 163
整 装</w> 163
re becca</w> 163
ma am</w> 163
cas h 163
mo p</w> 163
de ca 163
mar t</w> 163
ru by</w> 163
11 4</w> 163
go t</w> 163
dr um</w> 163
ven t</w> 163
lin e 163
nu ts</w> 163
is sey</w> 163
折叠 式</w> 163
rect angular</w> 163
age ment</w> 163
john son</w> 163
哆啦 a</w> 163
anni vers 163
( b 162
e po 162
8 19 162
3 l</w> 162
p r</w> 162
l b</w> 162
n 4 162
v 17</w> 162
家 具 162
罩 杯</w> 162
电 锅</w> 162
玛 莎 162
反 折</w> 162
唇 彩</w> 162
画 画</w> 162
交 通</w> 162
碳 素</w> 162
an n 162
ar s</w> 162
ar on</w> 162
st d</w> 162
al li 162
al do</w> 162
to wn</w> 162
ne x 162
hi fi</w> 162
mo tion</w> 162
mo ssimo</w> 162
vi ce</w> 162
30 5</w> 162
fe e</w> 162
fe el</w> 162
je ssi 162
gra phy</w> 162
25 cm</w> 162
tor o</w> 162
ps p</w> 162
sn ake</w> 162
ml /</w> 162
scre w 162
cat h</w> 162
mr .</w> 162
sciss ors</w> 162
dire ct</w> 162
muna fie</w> 162
e pic</w> 161
n ct</w> 161
衣 帽</w> 161
大 功率</w> 161
机 电</w> 161
光 泽</w> 161
精 装</w> 161
新 加 161
甜 甜 161
王 国</w> 161
回 馈</w> 161
茶 树</w> 161
计 学</w> 161
样 板房</w> 161
细 致</w> 161
楠 竹</w> 161
ac en 161
on o 161
20 / 161
di va</w> 161
ba c</w> 161
ba re 161
bo mb</w> 161
so me 161
wi per</w> 161
do ctors</w> 161
bu ff 161
15 8</w> 161
shi mmer</w> 161
mu sh 161
ag es</w> 161
99 6</w> 161
stre am</w> 161
ys l 161
va ult</w> 161
bra zi 161
pain ted</w> 161
pet ite</w> 161
conver ter</w> 161
食品 级</w> 161
brassi ere</w> 161
powe red</w> 161
( m 160
t ac 160
k ad 160
f c 160
海 道</w> 160
吉 祥</w> 160
烟 器</w> 160
工 学</w> 160
恤 衫</w> 160
气 压</w> 160
粉 扑</w> 160
爆 裂</w> 160
陈 列</w> 160
袋 )</w> 160
冷 暖</w> 160
低 胸</w> 160
毛 笔</w> 160
绝 地</w> 160
什 么</w> 160
劳 保</w> 160
滑 轮</w> 160
走 路</w> 160
省 力</w> 160
ar row</w> 160
20 3</w> 160
lu ffy</w> 160
th u 160
el l 160
el ine</w> 160
hi p 160
au str 160
no vel</w> 160
50 mm</w> 160
cc i</w> 160
pe pper</w> 160
sc ape</w> 160
1. 0</w> 160
bea d</w> 160
ha wk</w> 160
j2 pro</w> 160
gucci /</w> 160
mou th</w> 160
256 gb</w> 160
新加 坡</w> 160
w y</w> 159
a ff 159
3 90</w> 159
j 8 159
k 0 159
9 55 159
o va</w> 159
y an 159
司 机</w> 159
红 木</w> 159
b ws</w> 159
关 节</w> 159
潮 t</w> 159
老 花 159
连 接</w> 159
无 瑕</w> 159
苏 打</w> 159
假 花</w> 159
润 泽</w> 159
骑 车</w> 159
台 桌</w> 159
只 要</w> 159
钢 针</w> 159
散 热器</w> 159
插 画</w> 159
橄 榄 159
拳 击</w> 159
le isure</w> 159
lo ws</w> 159
sp in</w> 159
ea 7</w> 159
pi c 159
uni t</w> 159
14 . 159
por ts</w> 159
lit ter</w> 159
nu tri 159
note 9</w> 159
ther mos</w> 159
-- - 159
y9 2019</w> 159
tran scen 159
垃圾 袋</w> 159
nova 2lite</w> 159
rou ge</w> 159
dvd -</w> 159
foot wear</w> 159
holi ka</w> 159
jui cy</w> 159
chang ing</w> 159
ggi es</w> 159
house hold</w> 159
ginger snaps</w> 159
tony moly</w> 159
e y</w> 158
e ve</w> 158
t 5</w> 158
t 桖</w> 158
t ation</w> 158
h g 158
手 作</w> 158
j y</w> 158
l ace 158
i i 158
y n 158
小 站</w> 158
x b 158
黑 曜 158
北 极 158
北 海道</w> 158
白 板</w> 158
吊 床</w> 158
分 享</w> 158
! )</w> 158
最 高</w> 158
枕 芯</w> 158
袖 珍</w> 158
俱 乐 158
洗 头</w> 158
刻 度</w> 158
垫 脚</w> 158
酒 器</w> 158
碳 纤</w> 158
睡 袍</w> 158
消 毒 158
投 影 158
in it 158
ac cent</w> 158
sh ed</w> 158
ba pe</w> 158
la d 158
wo men 158
pi d</w> 158
12 2</w> 158
che tte</w> 158
24 cm</w> 158
sa y</w> 158
stor m</w> 158
fore st</w> 158
gro wer</w> 158
nin ja</w> 158
bapti smal</w> 158
黑曜 石</w> 158
m mi 157
2 35 157
h eng</w> 157
p g 157
j 6plus</w> 157
o int 157
v as 157
x 9 157
美 味</w> 157
大 耳</w> 157
正 生</w> 157
智 力</w> 157
长 靴</w> 157
灵 顿</w> 157
分 离</w> 157
桃 木</w> 157
维 尼 157
变 速</w> 157
珍 珠 157
度 计</w> 157
切 割 157
巨 人</w> 157
模 拟</w> 157
乌 龟</w> 157
剪 裁</w> 157
an te 157
it alian</w> 157
ac y</w> 157
ch as 157
li er</w> 157
di o 157
ma r</w> 157
ur o</w> 157
cas tor</w> 157
12 1</w> 157
be ats</w> 157
pan t</w> 157
sa c</w> 157
bal ls</w> 157
il lumin 157
shar pen 157
gin gham</w> 157
dea d 157
dior 迪奥 157
(小 )</w> 157
stren gth</w> 157
anch or</w> 157
扑克 牌</w> 157
2 gb</w> 156
6 吋</w> 156
r pm</w> 156
g t- 156
o per 156
l ala</w> 156
v t</w> 156
防 汗</w> 156
迪 奥</w> 156
花 艺</w> 156
盖 布</w> 156
真 人</w> 156
珍 品</w> 156
喜 糖</w> 156
柜 门</w> 156
回 收</w> 156
早 秋</w> 156
检 测</w> 156
计 算 156
目 镜</w> 156
试 题</w> 156
on de</w> 156
la t</w> 156
bl k</w> 156
pi yao</w> 156
ke ttle</w> 156
be fore</w> 156
pl er</w> 156
sm all- 156
ori a</w> 156
spor ts 156
3. 8</w> 156
long - 156
a7 9</w> 156
hard bound</w> 156
dor oid</w> 156
activ ated</w> 156
gel - 156
reser ved</w> 156
secon d</w> 156
nouri shing</w> 156
博柏 利</w> 156
nen doroid</w> 156
wardro be</w> 156
甜甜 圈</w> 156
俱乐 部</w> 156
( c 155
d an</w> 155
2 x 155
2 x</w> 155
t g</w> 155
手 持 155
k 7</w> 155
f 0 155
o h 155
大 大</w> 155
屁 股</w> 155
球 员</w> 155
百 搭</w> 155
安 德 155
时 尚 155
便 条 155
道 教</w> 155
扣 环</w> 155
全 面</w> 155
世 代</w> 155
眼 膜</w> 155
方 桌</w> 155
薯 条</w> 155
迎 宾</w> 155
ch oo 155
sp lash</w> 155
de x</w> 155
be ef</w> 155
fe e 155
wal lets</w> 155
25 mm</w> 155
pen gu 155
200 8</w> 155
spe ci 155
sch e</w> 155
make -up</w> 155
moi st</w> 155
pam pers</w> 155
tar te</w> 155
pig eon</w> 155
chron o 155
disinfect ant</w> 155
annivers ary</w> 155
init ial</w> 155
e c</w> 154
w h</w> 154
m 5</w> 154
8 50</w> 154
1 -</w> 154
a &</w> 154
7 60 154
t x</w> 154
r 2</w> 154
手 饰</w> 154
f o</w> 154
娜 娜</w> 154
极 限</w> 154
' t</w> 154
用 款</w> 154
古 铜</w> 154
三 洋</w> 154
+ +</w> 154
购 价</w> 154
无 缝</w> 154
电 容</w> 154
藤 椅</w> 154
提 琴</w> 154
补 丁</w> 154
高 贵</w> 154
奶 器</w> 154
梅 花</w> 154
眼 圈</w> 154
佛 像</w> 154
留 言</w> 154
墙 角</w> 154
猫 眼</w> 154
羊 羔</w> 154
摇 头</w> 154
孔 雀</w> 154
嫁 接</w> 154
co t</w> 154
st at 154
st ance</w> 154
lu ck 154
mo mo</w> 154
12 4</w> 154
tu b</w> 154
-3 2</w> 154
cr un 154
stra p 154
note 10</w> 154
tur meric</w> 154
gt x</w> 154
top shop</w> 154
hot wheels</w> 154
vibr ator</w> 154
eth yl</w> 154
calen dar</w> 154
disru ptor</w> 154
玛莎 拉 154
投影 仪</w> 154
oint ment</w> 154
( 超</w> 153
e z 153
d j</w> 153
h ang</w> 153
v able</w> 153
x z 153
x 12</w> 153
网 状</w> 153
下 午茶</w> 153
夹 层</w> 153
刺 猬</w> 153
摩 登</w> 153
叉 子</w> 153
拖 车</w> 153
单 眼</w> 153
惠 灵顿</w> 153
巨 无 153
毛 毡</w> 153
干 果</w> 153
台 风</w> 153
哑 铃</w> 153
溜 冰鞋</w> 153
钮 扣</w> 153
re ci 153
lo west</w> 153
ro d</w> 153
un ited</w> 153
wo w</w> 153
br o</w> 153
per ry</w> 153
hea ds</w> 153
ori o</w> 153
lip o</w> 153
sal on</w> 153
han abi 153
plan e</w> 153
玻璃 瓶</w> 153
don ut</w> 153
king ston</w> 153
yar n</w> 153
late st</w> 153
zir con</w> 153
dyn amic</w> 153
steph en</w> 153
equi pment</w> 153
transcen d</w> 153
便条 纸</w> 153
d t</w> 152
1 300</w> 152
o u</w> 152
i . 152
c n 152
. 2</w> 152
防 虫</w> 152
相 册</w> 152
金 )</w> 152
蓝 光</w> 152
好 运</w> 152
地 球</w> 152
满 意</w> 152
培 训</w> 152
姐 妹</w> 152
研 磨</w> 152
管 道</w> 152
莲 蓬 152
医 疗</w> 152
期 限</w> 152
敏 感</w> 152
si der</w> 152
bo mb 152
gh ts</w> 152
50 2</w> 152
30 2</w> 152
ct ing</w> 152
80 1</w> 152
pri ced</w> 152
13 3</w> 152
1. 0 152
her b</w> 152
ten g</w> 152
ach able</w> 152
hol low</w> 152
rubb erized</w> 152
app li 152
sur face</w> 152
mt b</w> 152
inst a</w> 152
洗发 水</w> 152
up tempo</w> 152
rot ating</w> 152
scoo ter</w> 152
round neck</w> 152
magaz ine</w> 152
brai ded</w> 152
d l 151
m 0 151
8 x</w> 151
0 -3 151
2 10 151
t 7 151
r r</w> 151
h ur 151
s ink</w> 151
p f</w> 151
k 2 151
9 t</w> 151
f . 151
l r</w> 151
i v</w> 151
v 1</w> 151
c age</w> 151
u tility</w> 151
美 学</w> 151
吋 )</w> 151
b ong</w> 151
东 西</w> 151
机 箱</w> 151
机 柜</w> 151
去 除</w> 151
光 阳</w> 151
包 覆</w> 151
兜 兜</w> 151
彩 膜</w> 151
铁 皮</w> 151
木 色</w> 151
菜 刀</w> 151
: :</w> 151
夜 间</w> 151
冰 块</w> 151
增 压</w> 151
除 尘</w> 151
都 市</w> 151
竞 技</w> 151
俄 罗斯</w> 151
in se 151
li s</w> 151
di n</w> 151
lu ck</w> 151
au di</w> 151
sk ull</w> 151
ju sti 151
36 -39</w> 151
70 g</w> 151
chi ef</w> 151
yo yo</w> 151
mu les</w> 151
mu sical</w> 151
fr ance</w> 151
hoo p</w> 151
skin care</w> 151
tur tle 151
anti bacterial</w> 151
eng ine 151
sof tg 151
mang a</w> 151
rea der</w> 151
scrat ch</w> 151
记忆 体</w> 151
手持 式</w> 151
hanabi shi</w> 151
( 直</w> 150
m 60 150
a / 150
r t</w> 150
代 购)</w> 150
i su 150
i mm 150
v on</w> 150
布 衣</w> 150
背 带 150
金 箔</w> 150
+ 1</w> 150
套 头 150
处 理</w> 150
物 品</w> 150
异 味</w> 150
气 管</w> 150
罐 头</w> 150
便 捷</w> 150
国 外</w> 150
唱 片</w> 150
不 可</w> 150
零 售</w> 150
结 单</w> 150
过 家家</w> 150
钢 丝</w> 150
练 习 150
探 索</w> 150
认 明</w> 150
re ll</w> 150
li sa</w> 150
se c</w> 150
bo ur 150
bo ston</w> 150
lu re</w> 150
ki m</w> 150
ki ki</w> 150
min ions</w> 150
fi x 150
12 mm</w> 150
sil ky</w> 150
ex press</w> 150
24 - 150
sa le 150
shi ft</w> 150
17 pro</w> 150
sto p</w> 150
jord an 150
fin al</w> 150
mk 6 150
mini m 150
bath ing</w> 150
ophi dia</w> 150
巨无 霸</w> 150
d z</w> 149
m j 149
h l</w> 149
p ir 149
9 50</w> 149
小 飞 149
b inder</w> 149
空 白</w> 149
最 佳</w> 149
麻 辣</w> 149
刀 片</w> 149
聚 会</w> 149
种 植</w> 149
乔 治</w> 149
公 园</w> 149
化 学</w> 149
冰 冰</w> 149
望 远 149
柠 檬 149
檀 木</w> 149
co ated</w> 149
lo tus</w> 149
po chette</w> 149
ko ut</w> 149
car ol 149
bu g</w> 149
ju n</w> 149
sig nal</w> 149
15 6</w> 149
bal i</w> 149
25 ml</w> 149
200 5</w> 149
fla vo 149
cam er 149
iphone 7/ 149
fac ed</w> 149
bre ad</w> 149
cand les</w> 149
sau r</w> 149
fen g</w> 149
gy mbo 149
pin ky</w> 149
vap or</w> 149
tit an</w> 149
shu i</w> 149
水果 盘</w> 149
frog suit</w> 149
洗面 奶</w> 149
莲蓬 头</w> 149
softg els</w> 149
望远 镜</w> 149
d z 148
8 1 148
7 )</w> 148
h in 148
h as 148
h ush</w> 148
s am</w> 148
手 掌</w> 148
手 办</w> 148
o reo</w> 148
u ts</w> 148
小 个子</w> 148
马 自 148
发 卡</w> 148
护 套</w> 148
爆 款 148
八 五</w> 148
瑞 典</w> 148
主 食</w> 148
奶 奶</w> 148
路 由 148
宫 崎 148
湿 机</w> 148
锁 扣</w> 148
启 动</w> 148
整 组</w> 148
re packed</w> 148
le mon 148
on ce</w> 148
20 8</w> 148
ne eds</w> 148
hi ll</w> 148
de ss 148
plu shi 148
ho p</w> 148
we st 148
blo oming</w> 148
gr and 148
25 - 148
dr i</w> 148
2. 8</w> 148
note 2</w> 148
y6 pro</w> 148
mini figure</w> 148
proje ctor</w> 148
revit ali 148
lati v</w> 148
路由 器</w> 148
5 x 147
5 12</w> 147
装 潢</w> 147
美 睫</w> 147
b .</w> 147
b r</w> 147
如 图</w> 147
蜡 笔</w> 147
迷 人</w> 147
安 德玛</w> 147
蛋 卷</w> 147
国 家</w> 147
震 器</w> 147
步 车</w> 147
领 劵</w> 147
攻 略</w> 147
旋 转 147
贵 妃</w> 147
绷 带</w> 147
re cor 147
ar den</w> 147
at tire</w> 147
di p</w> 147
si sley</w> 147
bo bo</w> 147
mi k 147
sp read</w> 147
min d</w> 147
cu tie</w> 147
be dro 147
uni form</w> 147
pu pp 147
19 - 147
har ness</w> 147
fan tech</w> 147
bio aqua</w> 147
\n \</w> 147
emp ty</w> 147
absor b 147
gog oro</w> 147
even ing</w> 147
a 80</w> 146
r d 146
g ap 146
s max</w> 146
5 12 146
v s 146
. ph</w> 146
衣 镜</w> 146
米 老鼠</w> 146
瑕 疵</w> 146
罐 装</w> 146
圆 型</w> 146
卖 )</w> 146
全 屏</w> 146
猎 人</w> 146
永 恒</w> 146
模 特</w> 146
温 度</w> 146
脖 子</w> 146
重 型</w> 146
今 日</w> 146
除 湿机</w> 146
细 节</w> 146
端 子</w> 146
插 花</w> 146
琥 珀</w> 146
in side</w> 146
st .</w> 146
si x</w> 146
th at</w> 146
ir on 146
mo de</w> 146
su ka</w> 146
gh ty</w> 146
car pet</w> 146
90 1</w> 146
air po 146
prote in</w> 146
28 cm</w> 146
abercrom bie</w> 146
oli via</w> 146
modu le</w> 146
friend ly</w> 146
收银 台</w> 146
天鹅 绒</w> 146
pengu in</w> 146
chrono graph</w> 146
justi ce</w> 146
t ing 145
r 3</w> 145
r .</w> 145
手 推</w> 145
c j</w> 145
. 1</w> 145
制 作 145
黑 )</w> 145
中 生</w> 145
图 解</w> 145
生 命</w> 145
迷 你 145
托 特 145
桃 色</w> 145
记 录器</w> 145
盆 架</w> 145
菊 花</w> 145
立 牌</w> 145
原 矿</w> 145
留 )</w> 145
口 径</w> 145
穿 衣镜</w> 145
挑 战</w> 145
夸 张</w> 145
in du 145
di l 145
di ent</w> 145
am u 145
th ro 145
th row</w> 145
su gar 145
pa ul 145
we i 145
18 5</w> 145
1. 4</w> 145
ash es</w> 145
tin ts</w> 145
pat ter 145
il lu 145
ber ry 145
lex us</w> 145
base us</w> 145
sar ah</w> 145
过滤 网</w> 145
jack ets</w> 145
alex ander</w> 145
染发 剂</w> 145
aur ora</w> 145
himala yan</w> 145
levi 's</w> 145
isu zu</w> 145
宫崎 骏</w> 145
t c 144
g c 144
n md 144
v 7plus</w> 144
c cu 144
调 情</w> 144
基 酸</w> 144
保 时</w> 144
实 拍 144
鞋 底</w> 144
鱼 骨</w> 144
夹 心</w> 144
包 机</w> 144
水 光</w> 144
彩 灯</w> 144
可 伸缩</w> 144
良 好</w> 144
会 员</w> 144
恋 人</w> 144
维 生 144
床 边柜</w> 144
跟 单</w> 144
le vi</w> 144
ac i 144
me as 144
un ds</w> 144
ri ch 144
lu c 144
ma gi 144
sp ra 144
15 cm</w> 144
mon th</w> 144
tre ss</w> 144
bur st</w> 144
sal vat 144
light stick</w> 144
aro ma</w> 144
xl )</w> 144
lb c</w> 144
emp orio</w> 144
pun ch</w> 144
飞行 员</w> 144
dino saur</w> 144
控制 器</w> 144
pari sian</w> 144
flavo red</w> 144
bedro om</w> 144
e a</w> 143
6 月</w> 143
3 15 143
3 70 143
s se</w> 143
s woo 143
f ted</w> 143
f air 143
i 6</w> 143
n . 143
n sw</w> 143
花 花 143
贴 花</w> 143
精 英</w> 143
马 来 143
食 用</w> 143
热 敷</w> 143
双 排扣</w> 143
莱 卡</w> 143
瓶 器</w> 143
银 楼</w> 143
麦 片</w> 143
尾 巴</w> 143
浅 灰</w> 143
穆 勒</w> 143
行 家</w> 143
方 格</w> 143
册 )</w> 143
声 控</w> 143
蔷 薇</w> 143
re ne</w> 143
re priced</w> 143
le le</w> 143
sh f</w> 143
mi ya 143
201 6- 143
da vis</w> 143
gu m</w> 143
pro / 143
ang ler</w> 143
tu red</w> 143
tra ding</w> 143
fla kes</w> 143
multi media</w> 143
mini ature</w> 143
sco pe</w> 143
rou ter</w> 143
tech no 143
kl airs</w> 143
late x</w> 143
geo metric</w> 143
打印 机</w> 143
gymbo ree</w> 143
2 13 142
t ang 142
h ul 142
5 w</w> 142
5 10</w> 142
f ad 142
纺 布</w> 142
y ab 142
c s- 142
' m</w> 142
乐 高 142
亚 曼尼</w> 142
b n</w> 142
女 帝</w> 142
中 大</w> 142
松 鼠</w> 142
自 行</w> 142
自 动 142
白 雪 142
棉 外套</w> 142
心 率</w> 142
提 袋</w> 142
音 频</w> 142
土 耳 142
绿 )</w> 142
童 趣</w> 142
接 器</w> 142
接 收 142
湖 水</w> 142
体 乳</w> 142
妃 包</w> 142
成 年</w> 142
性 爱</w> 142
杨 幂</w> 142
an ten 142
al ur 142
ro g</w> 142
to l 142
po tat 142
mi zer</w> 142
su ccu 142
br ass</w> 142
no ir</w> 142
12 9</w> 142
bu s</w> 142
cre di 142
ru s</w> 142
40 2</w> 142
gir l 142
ex per 142
gra pe 142
cam o</w> 142
22 5</w> 142
note 4</w> 142
fen ty</w> 142
a7 2018</w> 142
reju vin 142
goo gle</w> 142
flu id</w> 142
arti fi 142
ultra - 142
figh ter</w> 142
fortun er</w> 142
热销 #</w> 142
mush room</w> 142
strap less</w> 142
d s- 141
4 l</w> 141
t 2 141
h av 141
p d 141
k ab 141
海 豚</w> 141
特 价$ 141
大 叔</w> 141
无 纺布</w> 141
野 兽</w> 141
多 拉</w> 141
波 特</w> 141
圆 珠</w> 141
肤 宝 141
春 天</w> 141
超 越</w> 141
售 出)</w> 141
资 料 141
画 板</w> 141
淡 斑</w> 141
宣 传</w> 141
co me 141
se ven</w> 141
am o 141
sp lit</w> 141
hi n</w> 141
sho o 141
min iso</w> 141
vi vi</w> 141
ang el 141
por sche</w> 141
max x</w> 141
lan tern</w> 141
sen se 141
购物 车</w> 141
3/ 4</w> 141
sai lor</w> 141
\\ \</w> 141
iri s</w> 141
史迪 奇</w> 141
log itech</w> 141
raz or</w> 141
五角 星</w> 141
小飞 象</w> 141
swoo sh</w> 141
h 0 140
s /</w> 140
v 5 140
x u 140
日 版</w> 140
b g 140
女 靴</w> 140
金 边</w> 140
清 水</w> 140
新 生</w> 140
物 理</w> 140
随 意</w> 140
提 篮</w> 140
枕 头套</w> 140
墨 绿</w> 140
战 神</w> 140
喷 雾 140
茶 器</w> 140
证 书</w> 140
锂 电池</w> 140
柚 子</w> 140
混 合</w> 140
仰 卧</w> 140
in nova</w> 140
it an</w> 140
ch in 140
di ac</w> 140
ma inten 140
mo us 140
ter o</w> 140
pi ano</w> 140
mar u 140
手提 式</w> 140
tra p</w> 140
-3 8</w> 140
200 9</w> 140
spi ce</w> 140
op po 140
lou t</w> 140
skin food</w> 140
bra d 140
high quality</w> 140
fol ded</w> 140
fa ith</w> 140
sha wl</w> 140
aa a</w> 140
0- 3</w> 140
sci ence</w> 140
scoo p</w> 140
mother care</w> 140
bry ant</w> 140
deca y</w> 140
screw driver</w> 140
土耳 其</w> 140
( 白 139
( 原</w> 139
d in 139
m x</w> 139
3 rd</w> 139
t 6 139
h e</w> 139
j j</w> 139
f go</w> 139
v ity</w> 139
x p 139
x c</w> 139
布 鲁 139
比 亚</w> 139
快 感</w> 139
晴 雨伞</w> 139
实 务</w> 139
护 目镜</w> 139
色 彩</w> 139
号 码</w> 139
沉 香</w> 139
个 )</w> 139
胖 胖</w> 139
传 输</w> 139
学 步车</w> 139
理 发</w> 139
烛 台</w> 139
薄 纱</w> 139
缇 花</w> 139
钓 竿</w> 139
染 发</w> 139
区 )</w> 139
讲 义</w> 139
en ne</w> 139
se ph 139
di p 139
ri n</w> 139
th read</w> 139
el bow</w> 139
su spen 139
ho pe</w> 139
mar sh 139
hu da</w> 139
che f</w> 139
chan g</w> 139
gra dient</w> 139
tre ats</w> 139
eni x</w> 139
clo se</w> 139
200 7</w> 139
air con</w> 139
-0 3</w> 139
hy alur 139
san -x</w> 139
ren ce</w> 139
comp lex</w> 139
sur f</w> 139
om nia</w> 139
eyel ashes</w> 139
infin ite</w> 139
xr m 139
pig ment</w> 139
cei ling</w> 139
exfoli ating</w> 139
e 27</w> 138
a lex</w> 138
t ul 138
5 30 138
f m 138
l p 138
l 码</w> 138
y 19</w> 138
x s/ 138
大 量</w> 138
背 包 138
卷 边</w> 138
沙 龙</w> 138
木 床</w> 138
兰 芝</w> 138
文 乐</w> 138
主 持 138
石 英 138
简 洁</w> 138
闪 灯</w> 138
汤 碗</w> 138
鼠 年</w> 138
应 用</w> 138
穿 过</w> 138
重 工</w> 138
腕 带</w> 138
栅 栏</w> 138
re scu 138
at f</w> 138
ch an</w> 138
di et</w> 138
ma d 138
la p 138
sp y 138
be tter</w> 138
60 3</w> 138
24 9</w> 138
13 1</w> 138
oi ls</w> 138
len e</w> 138
ple ase</w> 138
mari e</w> 138
jan e</w> 138
zo diac</w> 138
poli ce</w> 138
brush es</w> 138
gif ts</w> 138
doll shoes</w> 138
水晶 球</w> 138
pony tail</w> 138
minim alist</w> 138
马自 达</w> 138
salvat ore</w> 138
白雪 公主</w> 138
rejuvin ating</w> 138
( 白)</w> 137
d square 137
8 cm</w> 137
4 14 137
3 pc</w> 137
t d 137
t 短</w> 137
q i 137
9 17 137
f ty</w> 137
n ers</w> 137
c / 137
c b</w> 137
极 品</w> 137
正 货</w> 137
基 本 137
实 验</w> 137
通 讯</w> 137
百 搭 137
活 性</w> 137
仙 子</w> 137
普 通</w> 137
多 彩</w> 137
少 量</w> 137
学 t</w> 137
钻 戒</w> 137
刹 车</w> 137
沛 纳 137
方 框</w> 137
鲤 鱼</w> 137
避 震器</w> 137
in te 137
le e 137
on it 137
la kers</w> 137
201 5 137
min ers</w> 137
car b</w> 137
80 5</w> 137
ste amer</w> 137
22 2</w> 137
22 cm</w> 137
cur l</w> 137
dou ble 137
alph abo 137
三角 形</w> 137
celebr ity</w> 137
bani la</w> 137
indu stri 137
维生 素</w> 137
artifi cial</w> 137
m ble</w> 136
8 x 136
1 x 136
t 3 136
t m</w> 136
h b</w> 136
j el 136
f 7 136
i 5</w> 136
' pie 136
' oreal</w> 136
亚 马 136
背 巾</w> 136
机 手</w> 136
线 香</w> 136
母 婴</w> 136
胡 子</w> 136
修 补</w> 136
棉 鞋</w> 136
电 源 136
活 页</w> 136
夏 威 136
音 质</w> 136
半 透明</w> 136
板 桥</w> 136
树 叶</w> 136
贝 儿</w> 136
石 榴</w> 136
开 花</w> 136
凉 被</w> 136
餐 垫</w> 136
底 裤</w> 136
链 带</w> 136
延 长</w> 136
湿 巾</w> 136
求 婚</w> 136
en e 136
me at</w> 136
ne stle</w> 136
mo d 136
hu a 136
hu ggies</w> 136
he m</w> 136
ori z 136
water color</w> 136
ja zz</w> 136
best way</w> 136
遥控 车</w> 136
givea way</w> 136
ave eno</w> 136
usb 3.0</w> 136
det achable</w> 136
defen se</w> 136
p30 lite</w> 136
chun ky</w> 136
iso pro 136
便利 店</w> 136
hypo allergenic</w> 136
托特 包</w> 136
接收 器</w> 136
rescu e</w> 136
( 2 135
2 b</w> 135
t 2</w> 135
s ket 135
9 g</w> 135
n t</w> 135
u ce</w> 135
装 修</w> 135
极 光</w> 135
亚 洲</w> 135
货 到 135
) :</w> 135
长 度</w> 135
年 终</w> 135
神 秘</w> 135
电 饭 135
吊 篮</w> 135
阿 拉 135
订 购</w> 135
净 化器</w> 135
开 幕</w> 135
夫 妻</w> 135
等 级</w> 135
私 处</w> 135
须 刀</w> 135
倒 流</w> 135
试 衣</w> 135
岁 月</w> 135
li m</w> 135
un sealed</w> 135
ti ble</w> 135
am d</w> 135
su p</w> 135
de ss</w> 135
car ry</w> 135
wi ll</w> 135
ru sh 135
ta gs</w> 135
ex pand 135
ak er</w> 135
90 5</w> 135
-0 5</w> 135
beau ty 135
xi e</w> 135
lan cer</w> 135
canv ass</w> 135
wr angler</w> 135
gt x 135
flow y</w> 135
lett ers</w> 135
reg ul 135
奇奇蒂 蒂</w> 135
马拉 松</w> 135
alphabo unce</w> 135
( 30</w> 134
d ami 134
s se 134
k ki</w> 134
9 oz</w> 134
f x 134
n p- 134
美 杜 134
镜 框</w> 134
雪 茄</w> 134
筒 靴</w> 134
精 密</w> 134
包 巾</w> 134
马 上</w> 134
五 月 134
微 波</w> 134
音 波</w> 134
圆 凳</w> 134
超 取</w> 134
单 面</w> 134
书 套</w> 134
储 存</w> 134
刮 痧</w> 134
塑 钢</w> 134
行 销</w> 134
勇 者</w> 134
诚 信</w> 134
鉴 赏</w> 134
re fri 134
on ly 134
ba dge</w> 134
la ura</w> 134
hi dden</w> 134
fi sh 134
we i</w> 134
cc i 134
gi ord 134
ex ternal</w> 134
14 4 134
fro g</w> 134
wai st 134
max / 134
war mer</w> 134
23 6</w> 134
tur n</w> 134
tren ch</w> 134
0. 5mm</w> 134
valen tine</w> 134
warri ors</w> 134
美杜 莎</w> 134
( 买</w> 133
( 保留</w> 133
2 k 133
6 20</w> 133
3 c 133
t pad</w> 133
g 7 133
s ure</w> 133
9 )</w> 133
i k 133
件 )</w> 133
魔 方</w> 133
大 马</w> 133
卡 龙 133
蓝 黑</w> 133
购 价)</w> 133
马 桶 133
无 法</w> 133
本 )</w> 133
润 滑 133
曲 面</w> 133
影 片</w> 133
轮 子</w> 133
财 务</w> 133
柔 光</w> 133
喇 叭 133
远 程</w> 133
历 史</w> 133
启 蒙</w> 133
续 航</w> 133
ro ber 133
ba i 133
to k</w> 133
bo mber</w> 133
po le</w> 133
de rella</w> 133
qu es</w> 133
be ast</w> 133
hu a</w> 133
mb ps</w> 133
note 3</w> 133
ren a</w> 133
polo shirt</w> 133
no. 1</w> 133
三角 架</w> 133
bou quet</w> 133
oc to 133
spark ling</w> 133
conver tible</w> 133
一体 式</w> 133
密码 锁</w> 133
stan ley</w> 133
smas h</w> 133
emo ji</w> 133
五斗 柜</w> 133
turtle neck</w> 133
( 公司</w> 132
- 5</w> 132
直 排</w> 132
手 写</w> 132
y r 132
n k</w> 132
c x 132
合 器</w> 132
网 球</w> 132
元 气</w> 132
机 械 132
兔 毛</w> 132
食 堂</w> 132
蒙 古 132
平 民</w> 132
净 水器</w> 132
及 膝</w> 132
式 机</w> 132
煮 锅</w> 132
潜 水 132
台 式机</w> 132
同 学</w> 132
许 愿</w> 132
项 链 132
倒 车</w> 132
瓷 杯</w> 132
ar bu 132
co phone</w> 132
mi ss 132
mp ers</w> 132
car t</w> 132
pi mp 132
per man 132
ou l</w> 132
blo wer</w> 132
16 8 132
16 1</w> 132
wa y 132
nat ion 132
13 8</w> 132
ag a 132
22 8</w> 132
spe cs</w> 132
bar s</w> 132
j7 30</w> 132
tho mas</w> 132
保险 柜</w> 132
abo ut</w> 132
balan ce 132
yun teng</w> 132
miya ke</w> 132
mainten ance</w> 132
onit suka</w> 132
- 10</w> 131
2 11 131
4 20</w> 131
q i</w> 131
l r 131
z ar 131
z el 131
防 疫</w> 131
大 童</w> 131
生 存</w> 131
刷 色</w> 131
保 健 131
保 留)</w> 131
韩 版</w> 131
工 坊</w> 131
无 味</w> 131
本 子</w> 131
素 描</w> 131
地 图</w> 131
银 行</w> 131
弹 跳</w> 131
晶 片</w> 131
茶 叶 131
台 布</w> 131
模 组</w> 131
核 桃</w> 131
抛 弃</w> 131
悬 挂式</w> 131
co w</w> 131
at i</w> 131
ki sses</w> 131
mar s</w> 131
mar ia</w> 131
32 5</w> 131
wash er</w> 131
ha ve</w> 131
gol d- 131
工具 包</w> 131
电子 秤</w> 131
ox ford</w> 131
保险 箱</w> 131
transfor mer</w> 131
克罗 心</w> 131
inse ct</w> 131
mous se</w> 131
refri ger 131
( 100</w> 130
d u</w> 130
m vp</w> 130
1 pack</w> 130
2 m</w> 130
a cou 130
a ape</w> 130
6 000</w> 130
t wee 130
r j</w> 130
h ex 130
h oriz 130
s g</w> 130
p / 130
f ear</w> 130
' kitty</w> 130
合 奏</w> 130
b f 130
b les</w> 130
中 学生</w> 130
角 度</w> 130
乳 霜</w> 130
男 t</w> 130
碧 玺</w> 130
多 媒体</w> 130
音 量</w> 130
尖 端</w> 130
维 多 130
鸟 笼</w> 130
影 楼</w> 130
影 城</w> 130
帘 子</w> 130
腰 部</w> 130
转 印</w> 130
程 式</w> 130
决 战</w> 130
伞 状</w> 130
停 车</w> 130
侃 爷</w> 130
st ack 130
al ma</w> 130
si on 130
ne ed 130
mo st</w> 130
fi sher</w> 130
pi zza</w> 130
tr unk</w> 130
cre am 130
ele d</w> 130
pl ates</w> 130
15 00 130
je an</w> 130
sty ling</w> 130
plan et</w> 130
pul lout</w> 130
gt r</w> 130
radi ator</w> 130
lett uce</w> 130
jui cer</w> 130
kieh l' 130
儿童 节</w> 130
enhan cer</w> 130
breast feeding</w> 130
ign ition</w> 130
giord ano</w> 130
perman ent</w> 130
d b</w> 129
1 box</w> 129
3 75 129
t s- 129
h ak 129
海 盗</w> 129
合 售</w> 129
山 地</w> 129
快 递</w> 129
b 4 129
b ond</w> 129
b ha</w> 129
现 场</w> 129
卡 特</w> 129
西 兰</w> 129
事 业</w> 129
油 性</w> 129
水 乳</w> 129
收 音机</w> 129
百 年</w> 129
盖 子</w> 129
绒 卫衣</w> 129
短 筒</w> 129
触 摸</w> 129
雷 帽</w> 129
皇 后</w> 129
颈 枕</w> 129
妆 前 129
输 出</w> 129
柯 南</w> 129
速 度</w> 129
宠 爱</w> 129
动 物 129
划 痕</w> 129
斜 纹</w> 129
终 极</w> 129
滑 雪</w> 129
严 选</w> 129
枸 杞</w> 129
it i</w> 129
al y 129
20 mm</w> 129
ti k 129
lu bri 129
th ers</w> 129
so und 129
wo of 129
bu bb 129
we igh 129
be er</w> 129
be tty</w> 129
11 月</w> 129
hu ang</w> 129
pow dered</w> 129
je sus</w> 129
70 2</w> 129
ff el</w> 129
mu d</w> 129
zi p 129
the a</w> 129
sw an</w> 129
smo ke</w> 129
fresh ener</w> 129
transfor mers</w> 129
embo ssed</w> 129
thri fted</w> 129
fon dant</w> 129
recei ver</w> 129
护发 素</w> 129
anten na</w> 129
arbu tin</w> 129
- 4</w> 128
m 6</w> 128
a q</w> 128
7 pcs</w> 128
t p 128
t 3</w> 128
g ang</w> 128
p w 128
f inger 128
v alu 128
u pper</w> 128
小 推车</w> 128
皮 筋</w> 128
* 2</w> 128
金 钢</w> 128
暖 暖</w> 128
鞋 # 128
光 感</w> 128
一 体</w> 128
拉 力</w> 128
天 线</w> 128
好 好</w> 128
分 析</w> 128
铁 板</w> 128
浓 密</w> 128
圆 筒</w> 128
良 品</w> 128
帆 船</w> 128
人 体 128
有 效</w> 128
全 部</w> 128
公 文</w> 128
奇 异</w> 128
汽 油</w> 128
胶 鞋</w> 128
倒 翁</w> 128
剃 须刀</w> 128
椭 圆形</w> 128
驾 驶</w> 128
st ap 128
lo st</w> 128
ch op 128
di le</w> 128
ti de</w> 128
ma d</w> 128
ra men</w> 128
car amel</w> 128
wh eat</w> 128
gu c</w> 128
wat tpad</w> 128
ke ep</w> 128
ligh ten 128
mon tero</w> 128
sc ul 128
stu d 128
man u 128
s- l</w> 128
cam i 128
55 2</w> 128
is er</w> 128
cal ming</w> 128
que en 128
xr / 128
玩具 店</w> 128
api eu</w> 128
beat le</w> 128
fav or 128
放大 镜</w> 128
工程 车</w> 128
sharpen er</w> 128
计算 机</w> 128
bomb shell</w> 128
hyalur onic</w> 128
石英 钟</w> 128
沛纳 海</w> 128
'pie u</w> 128
( 1)</w> 127
w en 127
- l 127
- man</w> 127
1 liter</w> 127
4 wd</w> 127
r ina</w> 127
h h 127
g 3</w> 127
g on</w> 127
5 1 127
9 a</w> 127
n ms</w> 127
现 金</w> 127
流 水</w> 127
包 膜</w> 127
神 域</w> 127
五 代</w> 127
微 电脑</w> 127
表 面</w> 127
限 定 127
铁 架</w> 127
粉 白</w> 127
莫 斯</w> 127
初 中</w> 127
开 襟</w> 127
薄 型</w> 127
销 售</w> 127
回 弹</w> 127
框 架</w> 127
甲 醛</w> 127
酒 神</w> 127
链 子</w> 127
等 身</w> 127
营 养 127
励 志</w> 127
总 代理</w> 127
co se</w> 127
ba of 127
po ts</w> 127
mo ul 127
ab ac 127
so dium</w> 127
fi la 127
tr ail</w> 127
col a</w> 127
fe mme</w> 127
sam son 127
men ow</w> 127
cro co 127
16 9</w> 127
chi p</w> 127
17 1</w> 127
1- 4</w> 127
装饰 灯</w> 127
180 0</w> 127
fru its</w> 127
wr inkle</w> 127
cd )</w> 127
multi- purpose</w> 127
sad dle</w> 127
var sity</w> 127
kra ft</w> 127
芝麻 街</w> 127
gour met</w> 127
套头 衫</w> 127
spra yer</w> 127
电源 线</w> 127
蒙古 包</w> 127
woof er</w> 127
baof eng</w> 127
( 新</w> 126
w / 126
w x 126
8 50 126
a 字 126
4 99</w> 126
h c 126
k r 126
i w 126
家 用 126
黑 眼圈</w> 126
十 足</w> 126
运 中</w> 126
熊 本</w> 126
知 名</w> 126
圆 球</w> 126
灰 )</w> 126
洗 碗 126
抽 取</w> 126
芸 芸</w> 126
排 水</w> 126
喵 喵</w> 126
配 器</w> 126
抑 菌</w> 126
烈 鸟</w> 126
铜 色</w> 126
备 注</w> 126
侦 探 126
疲 劳</w> 126
le i 126
on yx</w> 126
lo ss</w> 126
ch u</w> 126
sho e 126
de fin 126
ko ko</w> 126
min e 126
bi l 126
ter ra</w> 126
wi - 126
char les 126
ori e</w> 126
13 .3</w> 126
stri ps</w> 126
sel l</w> 126
iphone 8</w> 126
hy per</w> 126
cal ci 126
ah c</w> 126
sy nc</w> 126
elect ri 126
sw ad 126
gro w</w> 126
mt p- 126
现货 #</w> 126
joy stick</w> 126
refle ctive</w> 126
sj cam</w> 126
rilak kuma</w> 126
乐高 积木</w> 126
( 女 125
e ma</w> 125
e ster</w> 125
e uro</w> 125
a z</w> 125
6 10</w> 125
9 90 125
u l</w> 125
u ki</w> 125
制 品</w> 125
复 合</w> 125
机 身</w> 125
黑 黑</w> 125
十 一</w> 125
牙 齿</w> 125
光 年</w> 125
丽 丽</w> 125
一 )</w> 125
折 起</w> 125
五 件</w> 125
棉 袄</w> 125
得 力</w> 125
随 身 125
出 门</w> 125
礼 品 125
果 蔬</w> 125
触 屏</w> 125
开 瓶器</w> 125
切 片</w> 125
擦 拭</w> 125
资 讯</w> 125
矿 物</w> 125
硫 化</w> 125
浣 熊</w> 125
徒 步</w> 125
in as</w> 125
ar 24 125
co in 125
st he 125
al ly</w> 125
sh u</w> 125
en ts</w> 125
se tting</w> 125
20 6</w> 125
di y 125
mi le</w> 125
pi er 125
30 mm</w> 125
ss o</w> 125
mar tin</w> 125
uni verse</w> 125
sam pler</w> 125
gi l 125
19 v</w> 125
2. 4g</w> 125
fla g</w> 125
bri dge</w> 125
ml +</w> 125
tro user</w> 125
a5 1</w> 125
bar u</w> 125
1/ 144</w> 125
smo cked</w> 125
\n \n</w> 125
ox y 125
esp rit</w> 125
lt p- 125
jp 0 125
devi ce</w> 125
buy 1 125
quil ted</w> 125
jon i</w> 125
rev lon</w> 125
never full</w> 125
玛莎拉 蒂</w> 125
stud ded</w> 125
w yi</w> 124
d 3 124
1 b</w> 124
1 600</w> 124
a ura</w> 124
4 10</w> 124
4 30</w> 124
r j 124
o wn</w> 124
i pa 124
n as 124
大 王</w> 124
下 )</w> 124
三 明治</w> 124
发 膜</w> 124
章 鱼</w> 124
普 洱 124
阿 尔 124
礼 券</w> 124
糖 果 124
宝 盆</w> 124
人 份</w> 124
贝 雷帽</w> 124
仪 表</w> 124
增 强</w> 124
领 巾</w> 124
底 片</w> 124
解 析</w> 124
深 海</w> 124
挂 毯</w> 124
段 式</w> 124
st ella</w> 124
ro xy</w> 124
de te 124
do om</w> 124
30 x 124
be be</w> 124
sk ort</w> 124
pe ti 124
ce ss 124
15 2</w> 124
che v 124
sa ge</w> 124
gr am 124
13 7</w> 124
fol der</w> 124
咖啡 壶</w> 124
lun ar</w> 124
pli age</w> 124
指甲 剪</w> 124
coco a</w> 124
evi l</w> 124
potat o</w> 124
夏威 夷</w> 124
人体 工学</w> 124
croco dile</w> 124
( 四</w> 123
e ty</w> 123
w ea 123
a u</w> 123
a ero</w> 123
3 n1</w> 123
7 mm</w> 123
r x- 123
g ly 123
p k 123
o .</w> 123
l m</w> 123
装 扮</w> 123
z inc</w> 123
蓝 绿</w> 123
拉 面</w> 123
随 便</w> 123
果 酱</w> 123
主 机 123
火 山</w> 123
全 集</w> 123
全 民</w> 123
凉 爽</w> 123
潘 多拉</w> 123
量 贩</w> 123
钓 鱼竿</w> 123
雕 像</w> 123
镀 铬</w> 123
蝶 古</w> 123
涂 料</w> 123
涂 层</w> 123
蚊 器</w> 123
垃 圾</w> 123
in fra 123
mo ck</w> 123
bi scu 123
ke ima 123
bat e</w> 123
ste ering</w> 123
chi e</w> 123
tri m</w> 123
200 3</w> 123
17 8</w> 123
cam ry</w> 123
stra ppy</w> 123
fen der</w> 123
sen sual</w> 123
tai l 123
tee ther</w> 123
tak al</w> 123
ful l 123
pean uts</w> 123
indi an</w> 123
cali for 123
调味 料</w> 123
loaf ers</w> 123
研磨 机</w> 123
立体 声</w> 123
喷雾 器</w> 123
kiehl' s 123
( 男</w> 122
( 蓝</w> 122
( 新款</w> 122
m ain</w> 122
8 )</w> 122
8 10</w> 122
t x 122
s q 122
s gs</w> 122
k ed</w> 122
f / 122
f p 122
f d</w> 122
i d 122
v r 122
u m 122
海 棉</w> 122
布 贴</w> 122
b d</w> 122
金 牌</w> 122
包 子</w> 122
教 材</w> 122
收 藏 122
白 白</w> 122
车 手</w> 122
兰 花</w> 122
苏 菲</w> 122
商 业</w> 122
聚 宝盆</w> 122
咖 哩</w> 122
配 送</w> 122
编 号:</w> 122
皂 盒</w> 122
浅 色</w> 122
掌 柜</w> 122
硬 度</w> 122
链 式</w> 122
测 试</w> 122
摇 杆</w> 122
藻 土</w> 122
ch ap 122
li l</w> 122
me m 122
ai l 122
ma - 122
10 a</w> 122
la c</w> 122
pre order</w> 122
br it 122
ho tel</w> 122
sk et</w> 122
ta in 122
ju li 122
je gg 122
14 cm</w> 122
-4 1</w> 122
flor a</w> 122
35 5</w> 122
35 -39</w> 122
cha in 122
iphone 5</w> 122
ml -</w> 122
max 90</w> 122
.... ...</w> 122
lan e</w> 122
af ter</w> 122
sou th</w> 122
下杀 @ 122
auto light</w> 122
折叠 伞</w> 122
spf 30</w> 122
sco tt</w> 122
42 mm</w> 122
gs c</w> 122
oc cas 122
door mat</w> 122
电视 机</w> 122
absorb ent</w> 122
货到 付款</w> 122
维多 利亚</w> 122
6 cm</w> 121
3 14 121
h u</w> 121
k am 121
l x 121
l ang</w> 121
i 7 121
i c 121
c lip 121
c di</w> 121
海 盐</w> 121
太 子</w> 121
女 网</w> 121
下 巴</w> 121
花 布</w> 121
长 方</w> 121
梦 网</w> 121
印 尼</w> 121
电 吉他</w> 121
加 压</w> 121
紫 罗兰</w> 121
麻 绳</w> 121
超 声波</w> 121
偏 光镜</w> 121
全 新 121
即 食</w> 121
名 器</w> 121
名 字</w> 121
毛 刷</w> 121
干 洗</w> 121
动 能</w> 121
照 镜</w> 121
农 场</w> 121
携 带 121
螃 蟹</w> 121
or ts</w> 121
st - 121
se duction</w> 121
am ore</w> 121
ab le 121
fi lip 121
pe i</w> 121
ci ous</w> 121
sc - 121
beau te</w> 121
hoo dy</w> 121
wel ding</w> 121
bracele ts</w> 121
san it 121
comp art 121
mam ba</w> 121
优惠 )</w> 121
2019 / 121
2n 1</w> 121
kak ao</w> 121
sens itive</w> 121
文具 盒</w> 121
会议 桌</w> 121
plushi e</w> 121
亚马 逊</w> 121
茶叶 罐</w> 121
( 简体</w> 120
d n 120
d ora</w> 120
8 s</w> 120
1 -0 120
6 x 120
t l- 120
g m 120
p aid</w> 120
p yl</w> 120
j f</w> 120
n x 120
# 新品</w> 120
正 品)</w> 120
鞋 盒</w> 120
男 学生</w> 120
印 象</w> 120
拉 门</w> 120
工 场</w> 120
车 皮</w> 120
无 烟</w> 120
电 力</w> 120
奈 米</w> 120
草 坪</w> 120
哈 利 120
层 次</w> 120
果 干</w> 120
超 硬</w> 120
蔓 越 120
开 学</w> 120
灯 管</w> 120
民 谣</w> 120
奴 比</w> 120
方 位</w> 120
研 究 120
离 合器</w> 120
同 名</w> 120
完 成</w> 120
贵 妇</w> 120
午 餐</w> 120
宣 言</w> 120
聪 明</w> 120
牵 引</w> 120
on g 120
al th</w> 120
sh ine 120
lo u</w> 120
la de 120
de light</w> 120
no ki 120
car har 120
car ry 120
bi a</w> 120
ver tical</w> 120
mas er 120
60 6</w> 120
sa em</w> 120
clo ver</w> 120
vin e 120
tw inkle</w> 120
stre ss</w> 120
dy son</w> 120
mer cci 120
lv /</w> 120
sha ft</w> 120
sco tch</w> 120
sol di 120
8. 0</w> 120
ner f</w> 120
bay max</w> 120
airpo ds 120
肤宝 水</w> 120
industri al</w> 120
1 kl</w> 119
6 l</w> 119
6 80</w> 119
3 40 119
t 男</w> 119
h n 119
s wit 119
s ala 119
n 9 119
合 成</w> 119
浪 琴</w> 119
女 裤</w> 119
暖 器</w> 119
顶 上</w> 119
夹 板</w> 119
附 录</w> 119
纱 窗</w> 119
白 银</w> 119
扭 扭</w> 119
窗 台</w> 119
沙 包</w> 119
视 器</w> 119
出 品</w> 119
洗 面</w> 119
刀 头</w> 119
公 仔 119
眼 石</w> 119
巴 士</w> 119
钻 头</w> 119
口 水</w> 119
检 验</w> 119
汗 衫</w> 119
啤 酒</w> 119
re new 119
re tail</w> 119
ar c</w> 119
co b</w> 119
it as</w> 119
di c</w> 119
ma de 119
po sket</w> 119
ne g 119
cas tle 119
bl in 119
ho les</w> 119
ad d</w> 119
ter ran 119
pi a</w> 119
wi se</w> 119
ing a</w> 119
ke ys</w> 119
15 1</w> 119
gra pe</w> 119
par adi 119
bel tbag</w> 119
ach u</w> 119
bir kin</w> 119
nav ar 119
lun ar 119
玻璃 膜</w> 119
art work</w> 119
pig gy</w> 119
cin derella</w> 119
shop kins</w> 119
防晒 乳</w> 119
y. o</w> 119
soap s</w> 119
edi fi 119
isopro pyl</w> 119
acou stic</w> 119
samson ite</w> 119
infra red</w> 119
( 9</w> 118
( 近</w> 118
d angle</w> 118
8 000</w> 118
t 9 118
r 11 118
h k 118
s ap 118
5 28 118
o wn 118
l m 118
i 5- 118
y .</w> 118
y oo 118
u c</w> 118
u ten 118
z ero 118
卡 卡</w> 118
中 小学生</w> 118
| |</w> 118
金 盏 118
烟 盒</w> 118
丝 带</w> 118
发 泡</w> 118
米 粒</w> 118
北 京</w> 118
酷 奇</w> 118
异 形</w> 118
活 性 118
阿 赞 118
飞 镖</w> 118
文 书</w> 118
问 题</w> 118
全 省</w> 118
闪 光灯</w> 118
喷 枪</w> 118
重 力</w> 118
纹 路</w> 118
监 视器</w> 118
试 管</w> 118
稳 定</w> 118
晕 染</w> 118
al len</w> 118
ch - 118
to go</w> 118
ti res</w> 118
ma king</w> 118
po pu 118
el mo</w> 118
ph an 118
sk ate 118
bb w</w> 118
70 4</w> 118
chi bi</w> 118
par ker</w> 118
dr one</w> 118
lip cream</w> 118
bri dal</w> 118
-2 5</w> 118
fun ny</w> 118
liqu e</w> 118
cm x 118
play ing</w> 118
ms . 118
anti- theft</w> 118
工作 台</w> 118
drag on 118
7. 1</w> 118
ast ac 118
poly ester</w> 118
自慰 杯</w> 118
boar d 118
refriger ator</w> 118
侦探 柯南</w> 118
califor nia</w> 118
w i</w> 117
w and</w> 117
3 45 117
h ab 117
直 升 117
k g 117
y 79</w> 117
红 枣</w> 117
风 板</w> 117
网 购</w> 117
b en</w> 117
大 容量</w> 117
妞 妞</w> 117
金 丝绒</w> 117
裤 腰带</w> 117
蓝 色)</w> 117
包 围</w> 117
水 泵</w> 117
无 糖</w> 117
星 期 117
高 雅</w> 117
冷 风</w> 117
越 野 117
果 盘</w> 117
理 论</w> 117
排 气管</w> 117
标 签 117
曲 线</w> 117
地 靴</w> 117
原 料</w> 117
冰 凉</w> 117
留 言 117
领 口</w> 117
骨 头</w> 117
声 卡</w> 117
转 盘</w> 117
祝 福</w> 117
厘 米</w> 117
呢 子</w> 117
坎 肩</w> 117
en tal</w> 117
li sh 117
ro s</w> 117
to toro</w> 117
10 月</w> 117
su m</w> 117
su ction</w> 117
de co</w> 117
ko so</w> 117
adi an</w> 117
blu sher</w> 117
con cer 117
mat tress</w> 117
pl acen 117
sam po</w> 117
je t 117
he li 117
wa ffle</w> 117
nat ure 117
13 2</w> 117
13 9</w> 117
jo ker</w> 117
bur n</w> 117
ps 2</w> 117
san a</w> 117
bar ako</w> 117
zz y</w> 117
the med</w> 117
dh a</w> 117
纪念 版</w> 117
手工 艺</w> 117
ox o</w> 117
big bang</w> 117
int elli 117
眼镜 架</w> 117
sav ing</w> 117
用品 .</w> 117
divi ded</w> 117
rele ase</w> 117
dess ert</w> 117
seph ora</w> 117
主持 人</w> 117
regul ator</w> 117
主机 板</w> 117
maser ati</w> 117
e 0 116
e mul 116
w th</w> 116
2 14 116
2 kg</w> 116
h z</w> 116
g ain</w> 116
s cho 116
p j</w> 116
手 电</w> 116
f d 116
y 75</w> 116
c z 116
魔 女</w> 116
带 )</w> 116
z h</w> 116
b 2</w> 116
老 爷</w> 116
指 针</w> 116
包 包包</w> 116
水 族 116
佳 能</w> 116
棉 花</w> 116
摩 洛 116
袖 短t</w> 116
灰 姑娘</w> 116
肤 水</w> 116
抽 奖</w> 116
全 方位</w> 116
承 重</w> 116
胶 底</w> 116
止 痒</w> 116
画 册</w> 116
狗 狗</w> 116
死 皮</w> 116
市 集</w> 116
练 字</w> 116
蜘 蛛</w> 116
in fan 116
ar 5 116
sh in</w> 116
ro y</w> 116
ro asted</w> 116
se t 116
po mpo 116
ne st</w> 116
la dy 116
cas tle</w> 116
pre paid</w> 116
da d</w> 116
las er 116
mat t</w> 116
sam yang</w> 116
sc ato</w> 116
her it 116
ge m</w> 116
23 5</w> 116
ken ne 116
goo ds</w> 116
decor ative</w> 116
mani cure</w> 116
百货 公司</w> 116
clar i 116
bey blade</w> 116
milk tea</w> 116
myst ery</w> 116
bee tle</w> 116
nova5 t</w> 116
ante ed</w> 116
ipa ky</w> 116
jegg ings</w> 116
携带 型</w> 116
哈利 波特</w> 116
terran ova</w> 116
金盏 花</w> 116
( s 115
( 非</w> 115
w we</w> 115
8 a</w> 115
8 18 115
4 月</w> 115
p l</w> 115
j 1 115
k ate 115
9 50 115
o le</w> 115
太 极</w> 115
布 面</w> 115
b m</w> 115
品 味</w> 115
空 瓶</w> 115
西 点</w> 115
光 面</w> 115
米 亚</w> 115
男 包</w> 115
印 字</w> 115
珠 子</w> 115
无 线 115
仙 境</w> 115
吊 椅</w> 115
沙 拉 115
埃 及</w> 115
明 日</w> 115
商 品 115
蒂 芬 115
变 焦</w> 115
火 星</w> 115
改 善</w> 115
开 刃</w> 115
世 界 115
眼 皮</w> 115
骑 士 115
密 度</w> 115
纯 净</w> 115
测 量</w> 115
摇 铃</w> 115
阳 具</w> 115
娃 娃 115
整 箱</w> 115
le ash</w> 115
st ande 115
ba i</w> 115
th ong</w> 115
th under</w> 115
10 5 115
us b- 115
wo o</w> 115
fi dget</w> 115
pi k 115
15 3</w> 115
ex o 115
80 2</w> 115
13 5 115
200 1</w> 115
-0 4</w> 115
牛仔 布</w> 115
star wars</w> 115
ha zel</w> 115
2020 / 115
pul ley</w> 115
sha ver</w> 115
arti st</w> 115
u. s.</w> 115
fal con</w> 115
密码 箱</w> 115
god dess</w> 115
concentr ate</w> 115
ascor bate</w> 115
techni ques</w> 115
供应 器</w> 115
vine gar</w> 115
placen ta</w> 115
摩洛 哥</w> 115
e qu 114
w en</w> 114
w av 114
7 月</w> 114
t / 114
t ella</w> 114
s us 114
s 20</w> 114
j 0 114
l tb</w> 114
x l- 114
日 杂</w> 114
快 手</w> 114
金 丝</w> 114
一 键</w> 114
油 壶</w> 114
发 行</w> 114
水 袋</w> 114
神 话</w> 114
上 课</w> 114
饭 碗</w> 114
仙 气</w> 114
力 量</w> 114
火 烈鸟</w> 114
轮 滑 114
颈 部</w> 114
完 )</w> 114
莉 玫</w> 114
钢 架</w> 114
抢 先</w> 114
re ce 114
it ane</w> 114
en ter 114
ro mpers</w> 114
la v 114
and er 114
50 cm</w> 114
wi lli 114
30 - 114
60 - 114
one er</w> 114
gi ve</w> 114
du ffy</w> 114
15 mm</w> 114
14 9</w> 114
80 - 114
25 6g</w> 114
200 6</w> 114
gg y</w> 114
multi ple</w> 114
plan ts</w> 114
customi ze</w> 114
cit rus</w> 114
poli s</w> 114
die cast</w> 114
ful ly</w> 114
devi l</w> 114
guar anteed</w> 114
repel lent</w> 114
olymp us</w> 114
mmi es</w> 114
mercci 22</w> 114
轮滑 鞋</w> 114
- free</w> 113
m 4</w> 113
m to</w> 113
r ust</w> 113
p al</w> 113
手 机 113
j k 113
j ul 113
k w</w> 113
f li 113
i q 113
i z</w> 113
i k</w> 113
n ina</w> 113
c 万</w> 113
红 色)</w> 113
x 手机</w> 113
客 户</w> 113
制 造 113
背 斜</w> 113
纸 尿 113
吊 扇</w> 113
视 觉</w> 113
每 日</w> 113
脚 蹬</w> 113
袖 口</w> 113
季 节</w> 113
打 蜡</w> 113
鲸 鱼</w> 113
成 犬</w> 113
监 测</w> 113
测 器</w> 113
船 型</w> 113
吹 风</w> 113
驱 车</w> 113
缓 冲</w> 113
煤 油</w> 113
co le 113
st ories</w> 113
20 9</w> 113
ba - 113
to s</w> 113
ti fied</w> 113
bo ws</w> 113
sp in 113
201 80 113
mo cha</w> 113
su baru</w> 113
ph ar 113
tt es</w> 113
bi ore</w> 113
vi al</w> 113
tr i</w> 113
tr ash</w> 113
cre pe</w> 113
con tin 113
con stru 113
40 5</w> 113
t- in</w> 113
gir dle</w> 113
sc a 113
go ku</w> 113
90 - 113
kin e 113
har den</w> 113
aj 4</w> 113
mol der</w> 113
den tal</w> 113
1.5 l</w> 113
cover s</w> 113
square pants</w> 113
saf ari</w> 113
搅拌 机</w> 113
lash es</w> 113
choo se</w> 113
iron man</w> 113
nmd _ 113
hul k</w> 113
- a 112
m 9 112
3 cm</w> 112
t 型</w> 112
r anger</w> 112
作 业</w> 112
k ang 112
f g</w> 112
l .</w> 112
y ves</w> 112
v / 112
z 0 112
耶 诞</w> 112
b 37 112
大 摆</w> 112
六 月</w> 112
马 卡龙</w> 112
发 露</w> 112
教 具</w> 112
自 助</w> 112
工 业 112
拆 卖</w> 112
气 机</w> 112
门 窗</w> 112
沙 漏</w> 112
初 版</w> 112
会 场</w> 112
游 泳池</w> 112
味 )</w> 112
定 妆</w> 112
标 示</w> 112
汽 机</w> 112
战 争</w> 112
晶 晶</w> 112
成 型</w> 112
功 夫 112
滑 滑</w> 112
瓷 器</w> 112
探 险</w> 112
浏 海</w> 112
烘 干 112
橄 榄</w> 112
恐 怖</w> 112
兼 容</w> 112
as tro</w> 112
li z</w> 112
bo unce</w> 112
10 w</w> 112
10 28</w> 112
la bo</w> 112
mi ghty</w> 112
qu in 112
wi d 112
11 5 112
mas ter 112
100 m</w> 112
pu ff 112
16 oz</w> 112
man n</w> 112
mag s</w> 112
dr ain</w> 112
org e 112
can adian</w> 112
99 7</w> 112
op p</w> 112
der ma 112
comp any</w> 112
fin d</w> 112
经济 学</w> 112
anti- aging</w> 112
inst ru 112
type c</w> 112
gla di 112
stam ps</w> 112
mh z</w> 112
phy si 112
文件 柜</w> 112
316 l</w> 112
rush guard</w> 112
动物 园</w> 112
carhar tt</w> 112
d v</w> 111
2 -</w> 111
a ve</w> 111
h x 111
手 巾</w> 111
q 7</w> 111
i or</w> 111
i pan 111
i ld</w> 111
i sta</w> 111
y st</w> 111
n \</w> 111
c l- 111
更 新</w> 111
更 换</w> 111
* 1</w> 111
保 险</w> 111
椅 背</w> 111
套 装 111
水 母</w> 111
神 仙</w> 111
白 熊</w> 111
分 层</w> 111
沙 袋</w> 111
透 亮</w> 111
麻 布</w> 111
封 面</w> 111
国 画</w> 111
单 鞋</w> 111
软 软</w> 111
惠 普</w> 111
瘦 脸</w> 111
缝 线</w> 111
贵 宾</w> 111
身 体乳</w> 111
轴 承</w> 111
员 工</w> 111
爵 士</w> 111
re ra</w> 111
lo ad</w> 111
ti c 111
ri hanna</w> 111
ma j 111
mo use 111
be li 111
av an 111
mm / 111
sli cer</w> 111
cor set</w> 111
cor por 111
15 / 111
15 4</w> 111
13 6</w> 111
1. 3</w> 111
35 ml</w> 111
cha ins</w> 111
dri ving</w> 111
woo d 111
star ry</w> 111
000 0</w> 111
y6 ii</w> 111
6. 0</w> 111
spider -man</w> 111
kee per</w> 111
medic ine</w> 111
tp- link</w> 111
oper ated</w> 111
tik tok</w> 111
charles &</w> 111
lade sh</w> 111
( 8</w> 110
( 白</w> 110
( 12</w> 110
3 m 110
g 0 110
i ce 110
y r</w> 110
y ur 110
n d</w> 110
c ig 110
小 人</w> 110
小 子</w> 110
海 鲜</w> 110
风 力</w> 110
b p</w> 110
b g</w> 110
元 宝</w> 110
黑 面</w> 110
中 空</w> 110
老 二</w> 110
面 )</w> 110
鱼 眼</w> 110
贴 纸 110
吊 柜</w> 110
题 库</w> 110
国 文</w> 110
亲 笔</w> 110
会 客</w> 110
切 片 110
兵 器</w> 110
薄 款</w> 110
打 折</w> 110
蚂 蚁</w> 110
瘦 长</w> 110
居 家家</w> 110
齿 轮</w> 110
急 速</w> 110
铲 子</w> 110
re born</w> 110
st o</w> 110
ch box</w> 110
me ga 110
un lock</w> 110
mi sh</w> 110
us ing</w> 110
pr m</w> 110
ko be 110
fi e 110
fi ller</w> 110
ver .</w> 110
per spir 110
18 9</w> 110
15 w</w> 110
19 5</w> 110
desig ned</w> 110
ex cel</w> 110
flo ater</w> 110
gar nish</w> 110
dar k 110
app le 110
ha wai 110
化妆 盒</w> 110
ji mmy</w> 110
sl acks</w> 110
band ana</w> 110
pol kad 110
gro up</w> 110
toi le 110
whi p</w> 110
jen na</w> 110
350 v2</w> 110
羽毛 球</w> 110
detai ls</w> 110
dsquare d2</w> 110
lubri c 110
随身 听</w> 110
popu lar</w> 110
( 中</w> 109
( 预购</w> 109
8 吋</w> 109
2 k</w> 109
4 oz</w> 109
g 2</w> 109
j 6 109
j ag 109
小 提琴</w> 109
日 制</w> 109
b w</w> 109
b ite</w> 109
大 阪</w> 109
卡 包</w> 109
保 洁</w> 109
母 子</w> 109
套 鞋</w> 109
加 工</w> 109
心 灵</w> 109
纽 西兰</w> 109
桃 子</w> 109
人 像</w> 109
不 同</w> 109
排 球</w> 109
泰 迪</w> 109
灯 罩</w> 109
切 菜</w> 109
体 感</w> 109
餐 车</w> 109
冰 机</w> 109
名 侦探柯南</w> 109
嘉 班 109
玉 髓</w> 109
打 气</w> 109
打 结</w> 109
狮 子 109
硬 币</w> 109
凤 凰</w> 109
酒 瓶</w> 109
射 灯</w> 109
飘 逸</w> 109
药 材</w> 109
盥 洗</w> 109
in 1 109
le y 109
me ss 109
ba be</w> 109
mi ll</w> 109
ra t</w> 109
sho w 109
ab str 109
so ul 109
wh o</w> 109
pe di 109
40 -4 109
16 6</w> 109
16 2</w> 109
15 7</w> 109
desig n 109
sc al 109
14 2</w> 109
sa ve</w> 109
oi se</w> 109
gen a</w> 109
ten er</w> 109
stri ke</w> 109
bri gh 109
cap ri</w> 109
ml - 109
fig u 109
bang ladesh</w> 109
colla p 109
neo 7</w> 109
180 ml</w> 109
who o</w> 109
spf 50 109
cd g</w> 109
exten der</w> 109
buil t-in</w> 109
blan k</w> 109
nike /</w> 109
combin ed</w> 109
preci sion</w> 109
toy castle 109
fire fly</w> 109
kids wear</w> 109
net work</w> 109
gho st</w> 109
电话 机</w> 109
li- ion</w> 109
broo ch</w> 109
reci pe</w> 109
dami er</w> 109
五月 天</w> 109
oxy gen</w> 109
keima v</w> 109
herit age</w> 109
ipan ema</w> 109
toycastle 3</w> 109
( 满</w> 108
d p</w> 108
m v 108
1 -4 108
a 's</w> 108
4 80 108
4 000</w> 108
3 25 108
t v 108
k m</w> 108
f lo</w> 108
l ton</w> 108
娜 美</w> 108
衣 板</w> 108
衣 袋</w> 108
头 )</w> 108
美 工</w> 108
山 居</w> 108
潮 鞋</w> 108
生 态</w> 108
适 用)</w> 108
通 风</w> 108
丝 器</w> 108
包 组</w> 108
米 桶</w> 108
克 拉</w> 108
神 明</w> 108
食 器</w> 108
摩 托</w> 108
铝 圈</w> 108
双 子</w> 108
艾 草</w> 108
芭 蕾 108
浴 衣</w> 108
高 街</w> 108
赛 斯 108
军 装</w> 108
扣 子</w> 108
竹 制</w> 108
书 坊</w> 108
软 垫</w> 108
瓶 装</w> 108
民 国</w> 108
低 调</w> 108
裸 色</w> 108
柔 顺</w> 108
成 套</w> 108
节 庆</w> 108
旋 风</w> 108
薰 香</w> 108
首 发</w> 108
or al</w> 108
ch ase</w> 108
me xi 108
un e</w> 108
ai de 108
po sh</w> 108
la gun 108
sp l 108
cu tl 108
30 8</w> 108
mat eri 108
ta les</w> 108
blo o 108
fo un 108
19 8</w> 108
oi l- 108
gra ded</w> 108
bro ws</w> 108
dis count</w> 108
200 2</w> 108
cr ush</w> 108
35 mm</w> 108
stra y</w> 108
she y</w> 108
bre e 108
y5 ii</w> 108
4. 1</w> 108
gro wth</w> 108
fer n</w> 108
eas y 108
lac es</w> 108
tiff any 108
sab er</w> 108
ato my</w> 108
wind proof</w> 108
rect angle</w> 108
hyper dunk</w> 108
anth a</w> 108
iv ory</w> 108
excel lent</w> 108
pm 2.5</w> 108
corre ction</w> 108
杀价 @</w> 108
miu miu</w> 108
计时 器</w> 108
espadri lle</w> 108
jig saw</w> 108
dil do</w> 108
meas uring</w> 108
sanit ary</w> 108
concer t</w> 108
( 2)</w> 107
- p 107
8 oz</w> 107
3 40</w> 107
r ca</w> 107
g an 107
n 6 107
格 斗</w> 107
带 线</w> 107
风 暴</w> 107
b ale</w> 107
大 堂</w> 107
图 形</w> 107
蜡 线</w> 107
十 二 107
码 )</w> 107
长 颈 107
一 样</w> 107
妮 妮</w> 107
工 地</w> 107
铁 塔</w> 107
豆 浆</w> 107
半 圆</w> 107
哈 雷</w> 107
果 果</w> 107
氨 基酸</w> 107
奥 利 107
开 心</w> 107
地 区</w> 107
噜 噜 107
喷 水</w> 107
干 爽</w> 107
浅 蓝</w> 107
瞬 间</w> 107
能 力</w> 107
温 控</w> 107
重 量</w> 107
鼻 子</w> 107
细 腻</w> 107
散 打</w> 107
施 工</w> 107
挑 逗</w> 107
摆 台</w> 107
彼 得</w> 107
概 念</w> 107
亏 本</w> 107
褪 色</w> 107
渲 染</w> 107
re se 107
co very</w> 107
le boy</w> 107
ro cker</w> 107
si l</w> 107
to ur 107
10 50</w> 107
ol d 107
pi oneer</w> 107
cre e 107
11 6 107
men t 107
sti x</w> 107
36 mm</w> 107
19 8 107
19 2</w> 107
-2 8</w> 107
gg ed</w> 107
.... ....</w> 107
mer ce 107
cke ts</w> 107
y6 pro2019</w> 107
polo 衫 107
xr 1</w> 107
flu ffy</w> 107
gucci 包包</w> 107
blan c万</w> 107
a9 2020</w> 107
indi vi 107
neu tro 107
橡皮 擦</w> 107
bol ts</w> 107
loaf er</w> 107
nutr ition</w> 107
season ing</w> 107
cook ware</w> 107
vas eline</w> 107
背带 裤</w> 107
pimp le</w> 107
valu e</w> 107
wi- fi</w> 107
calci um</w> 107
buy1 take1</w> 107
soldi er</w> 107
( 蓝)</w> 106
e .</w> 106
w b</w> 106
- s</w> 106
m use</w> 106
1 /</w> 106
4 20 106
7 吋</w> 106
s as 106
5 月</w> 106
f r</w> 106
i 11</w> 106
v ans 106
c v 106
c ani 106
魔 幻</w> 106
z ers</w> 106
日 用</w> 106
合 格</w> 106
古 龙</w> 106
背 袋</w> 106
黑 水</w> 106
* 10</w> 106
刷 牙</w> 106
连 裤袜</w> 106
票 )</w> 106
年 会</w> 106
运 送</w> 106
自 留</w> 106
前 灯</w> 106
新 颖</w> 106
炖 锅</w> 106
时 刻</w> 106
商 品)</w> 106
宝 盒</w> 106
人 类</w> 106
人 造</w> 106
四 轴</w> 106
变 身</w> 106
公 牛</w> 106
曲 奇</w> 106
麦 克</w> 106
餐 桌布</w> 106
免 税</w> 106
秘 书</w> 106
统 一</w> 106
远 射</w> 106
认 知</w> 106
re i 106
re tte</w> 106
ac hi 106
en chan 106
di an</w> 106
ba gu 106
ti ck</w> 106
ti ps</w> 106
ir a</w> 106
te en 106
ho lo 106
mas s</w> 106
bat tle</w> 106
14 6</w> 106
70 cm</w> 106
oi l 106
gra b</w> 106
bel ly</w> 106
hand ker 106
2. 4 106
2. 2</w> 106
lip sticks</w> 106
can to</w> 106
ge m 106
pur itan</w> 106
33 3</w> 106
cat or</w> 106
band age</w> 106
neo 9</w> 106
smo k</w> 106
bot ani 106
67 8</w> 106
non- wire</w> 106
post card</w> 106
wee ken 106
gab ri 106
absor ber</w> 106
卖场 ;</w> 106
qc 3.0</w> 106
dx f</w> 106
euro pe 106
切割 机</w> 106
engine ering</w> 106
kenne th</w> 106
abstr act</w> 106
cutl ery</w> 106
8 in1</w> 105
4 年</w> 105
4 xl</w> 105
6 d</w> 105
r u</w> 105
k 20</w> 105
o b</w> 105
l j 105
i f</w> 105
i zed</w> 105
u d</w> 105
皮 裤</w> 105
菩 萨</w> 105
雪 糕</w> 105
大 口</w> 105
大 同</w> 105
纸 箱</w> 105
水 草</w> 105
说 话</w> 105
佳 人</w> 105
上 色</w> 105
幻 想</w> 105
电 表</w> 105
扭 结</w> 105
肉 机</w> 105
亮 度</w> 105
门 锁</w> 105
字 体</w> 105
婷 婷</w> 105
浴 袍</w> 105
八 卦</w> 105
高 度</w> 105
贝 尔</w> 105
有 限</w> 105
挡 风板</w> 105
墨 绿色</w> 105
塑 料 105
尾 翼</w> 105
雕 塑</w> 105
黄 蜂</w> 105
煎 锅</w> 105
农 用</w> 105
驼 背</w> 105
来 自</w> 105
境 内</w> 105
co ro 105
or chi 105
st ent</w> 105
ch ina</w> 105
se ssion</w> 105
th ink 105
de tail</w> 105
pp ee</w> 105
fi shing</w> 105
50 5</w> 105
bi lena</w> 105
vi lle</w> 105
12 6 105
mar ch</w> 105
pan er 105
11 66 105
boo t</w> 105
70 3</w> 105
chi ca 105
her bs</w> 105
opp or 105
gen tle 105
flo ur</w> 105
mu gs</w> 105
can make</w> 105
can non</w> 105
hoo ks</w> 105
secre ts</w> 105
hal o</w> 105
120 cm</w> 105
hon g 105
aj 11</w> 105
reju v</w> 105
es lite</w> 105
xl 码</w> 105
hd d</w> 105
eu c</w> 105
lipp ie</w> 105
ferragam o 105
chal len 105
wave 125</w> 105
andre a</w> 105
ameth yst</w> 105
实拍 )</w> 105
exper t</w> 105
普洱 茶</w> 105
compart ment</w> 105
collap sible</w> 105
neutro gena</w> 105
europe an</w> 105
d g 104
s v 104
s word</w> 104
j l 104
5 99</w> 104
k s 104
i kon</w> 104
v w</w> 104
v 领 104
小 衫</w> 104
正 器</w> 104
图 片</w> 104
连 续</w> 104
西 亚</w> 104
鞋 店</w> 104
球 球</w> 104
色 料</w> 104
百 折</w> 104
二 色</w> 104
月 饼</w> 104
! ! 104
爆 乳</w> 104
力 器</w> 104
礼 包</w> 104
河 马</w> 104
人 力</w> 104
单 冷</w> 104
后 备 104
断 电</w> 104
奇 妙</w> 104
冰 河</w> 104
鲜 货</w> 104
云 南</w> 104
穿 )</w> 104
模 式</w> 104
温 暖</w> 104
吸 乳器</w> 104
来 电</w> 104
讲 机</w> 104
钞 票</w> 104
st en 104
sh an 104
me et</w> 104
ri m</w> 104
ri x</w> 104
10 l</w> 104
ra v4</w> 104
so cial</w> 104
min ion</w> 104
do w 104
do re 104
do ta</w> 104
ear ing</w> 104
sun set</w> 104
18 v</w> 104
ele s</w> 104
fu ji</w> 104
he al</w> 104
pri z 104
her shey</w> 104
pat ent</w> 104
lan vin</w> 104
remo vable</w> 104
free ship</w> 104
bor ne</w> 104
flas k</w> 104
light ly</w> 104
pear ls</w> 104
cham pa 104
(全 )</w> 104
cit ron 104
mate 20 104
cover age</w> 104
dur ant</w> 104
cray on</w> 104
lamin ating</w> 104
button ed</w> 104
occ itane</w> 104
zipp o</w> 104
squee ze</w> 104
austr alia</w> 104
double - 104
peti t</w> 104
emul sion</w> 104
功夫 茶</w> 104
perspir ant</w> 104
figu arts</w> 104
芭蕾 舞</w> 104
aide lai</w> 104
长颈 鹿</w> 104
后备 箱</w> 104
( 3 103
- 12</w> 103
2 16</w> 103
3 pro</w> 103
3 3- 103
r f</w> 103
g f</w> 103
g w</w> 103
g l</w> 103
p 0 103
手 链 103
5 th</w> 103
9 s</w> 103
f .</w> 103
f fl 103
u 11</w> 103
格 丽</w> 103
日 本 103
山 水</w> 103
大 腿</w> 103
保 湿</w> 103
长 桌</w> 103
年 轻</w> 103
点 缀</w> 103
油 瓶</w> 103
折 )</w> 103
奔 驰</w> 103
宽 袖</w> 103
热 水器</w> 103
字 帖</w> 103
芭 比 103
国 语</w> 103
七 夕</w> 103
烧 水壶</w> 103
起 坐</w> 103
盒 带</w> 103
磨 刀 103
打 孔 103
赫 本</w> 103
屋 顶</w> 103
乌 克 103
专 用)</w> 103
唯 一</w> 103
锯 齿</w> 103
档 案</w> 103
橡 皮</w> 103
co re 103
as y 103
st ine</w> 103
ro ses</w> 103
di sco</w> 103
ri s</w> 103
po me 103
te s 103
so ur 103
qu er</w> 103
fi ction</w> 103
pan ther</w> 103
ele t</w> 103
fe li 103
fo ur 103
ce e</w> 103
he eled</w> 103
2. 7</w> 103
2. 5d</w> 103
cal y 103
bir th</w> 103
person a</w> 103
micro matic</w> 103
bor o</w> 103
bon bon</w> 103
cri ss 103
thi ck 103
ae sthe 103
y91 i</w> 103
ide apad</w> 103
mang o 103
ggi e</w> 103
lulu lemon</w> 103
arc tic</w> 103
touch screen</w> 103
athle tic</w> 103
brazi lian</w> 103
老花 镜</w> 103
基本 款</w> 103
妆前 乳</w> 103
e ter 102
w s 102
- x 102
8 26 102
a 1 102
g ts</w> 102
代 理 102
作 者</w> 102
5 40 102
f ter</w> 102
l 's</w> 102
l d- 102
i mar 102
n h 102
n v 102
n ine 102
z d 102
风 云</w> 102
爱 上</w> 102
爱 恋</w> 102
长 卷</w> 102
长 短</w> 102
指 尖</w> 102
蒸 笼</w> 102
年 华</w> 102
油 箱</w> 102
包 屁</w> 102
男 朋友</w> 102
梦 游</w> 102
新 春</w> 102
胡 椒</w> 102
百 合</w> 102
绳 子</w> 102
酱 油</w> 102
限 时 102
时 空</w> 102
周 年 102
瓜 子</w> 102
脚 底</w> 102
菜 瓜</w> 102
预 购 102
汽 修</w> 102
巴 利</w> 102
任 意</w> 102
焕 肤</w> 102
冲 洗</w> 102
弯 头</w> 102
吸 附</w> 102
褥 子</w> 102
警 察</w> 102
辅 助 102
抱 抱</w> 102
in al</w> 102
le an</w> 102
st ir 102
lo cal</w> 102
ba s</w> 102
ti e 102
ti le</w> 102
10 )</w> 102
201 8- 102
201 8/ 102
su ga</w> 102
00 7 102
pi ck 102
pa y 102
bu 9 102
pan ty 102
11 100</w> 102
ta p</w> 102
ta i</w> 102
pe ter</w> 102
40 cm</w> 102
ce real</w> 102
long back</w> 102
super hero</w> 102
chri s</w> 102
a- line</w> 102
遮阳 板</w> 102
ot to 102
poly mer</w> 102
dam age</w> 102
two- piece</w> 102
hip ster</w> 102
礼品 盒</w> 102
直升 机</w> 102
纸尿 裤</w> 102
烘干 机</w> 102
materi als</w> 102
citron ella</w> 102
e 5 101
e h</w> 101
d m</w> 101
d k</w> 101
m t- 101
2 13</w> 101
s la 101
j t</w> 101
5 80 101
5 kg</w> 101
o logy</w> 101
y te</w> 101
n ana</w> 101
小 香</w> 101
z ard</w> 101
货 铺</w> 101
鱼 子</w> 101
自 带</w> 101
自 在</w> 101
无 双</w> 101
铁 灰</w> 101
盆 景</w> 101
真 爱</w> 101
宝 剑</w> 101
军 规</w> 101
贝 亲</w> 101
蒂 芙 101
主 义</w> 101
单 排扣</w> 101
第 六</w> 101
牛 肉</w> 101
开 店</w> 101
后 跟</w> 101
灯 座</w> 101
公 鸡</w> 101
束 缚</w> 101
邮 寄</w> 101
影 视</w> 101
荷 花</w> 101
玉 a</w> 101
汤 姆</w> 101
画 笔</w> 101
阴 蒂</w> 101
照 明灯</w> 101
膝 盖</w> 101
休 息</w> 101
贵 族</w> 101
芥 末</w> 101
进 击</w> 101
杂 粮</w> 101
an ts</w> 101
ch el 101
ro t</w> 101
am ar 101
bo o</w> 101
ur ai</w> 101
ni er</w> 101
201 2 101
qu oise</w> 101
car i 101
pro polis</w> 101
cu xi</w> 101
pa ge</w> 101
cre ations</w> 101
30 m</w> 101
be anie</w> 101
sun day</w> 101
18 6</w> 101
ta c</w> 101
ci e</w> 101
60 4</w> 101
60 5</w> 101
hu i</w> 101
16 4</w> 101
gre et 101
len ses</w> 101
dr y 101
1- 5</w> 101
2- way</w> 101
pil lows</w> 101
pas sion</w> 101
mac aron</w> 101
fur y 101
jen ny</w> 101
ide al</w> 101
craf ts</w> 101
bey ond</w> 101
kyo wa</w> 101
fel t</w> 101
rela x 101
制作 人</w> 101
fad ed</w> 101
tul le</w> 101
inte gr 101
lighten ing</w> 101
paradi se</w> 101
edifi ce</w> 101
own ed</w> 101
gladi ator</w> 101
champa gne</w> 101
( 7 100
( 粉 100
m h</w> 100
2 cm</w> 100
3 x 100
3 kg</w> 100
t k 100
t /</w> 100
s it 100
s dhc</w> 100
p ine</w> 100
k 5</w> 100
f at 100
n s 100
v amp 100
小 心</w> 100
. 0</w> 100
皮 具</w> 100
风 大</w> 100
外 置</w> 100
品 の</w> 100
女 朋友</w> 100
生 产</w> 100
六 色</w> 100
椅 套</w> 100
前 卫</w> 100
天 地</w> 100
戴 尔</w> 100
心 情</w> 100
香 菇</w> 100
翻 斗</w> 100
气 筒</w> 100
杰 克</w> 100
欣 欣</w> 100
豆 子</w> 100
橘 红</w> 100
壹 湾</w> 100
银 河</w> 100
原 价$ 100
炫 酷</w> 100
浅 蓝色</w> 100
嫩 白</w> 100
形 状</w> 100
夫 人</w> 100
休 眠</w> 100
广 告 100
椰 子 100
席 子</w> 100
菠 萝</w> 100
lo w- 100
ch ea 100
si m 100
ri m 100
ma gen 100
ne ed</w> 100
ph a</w> 100
qu al 100
br al 100
cu e</w> 100
tr d</w> 100
30 / 100
shor t- 100
slee k</w> 100
sam antha</w> 100
sam urai</w> 100
colo ure 100
92 3</w> 100
80 9</w> 100
70 8</w> 100
bas ics</w> 100
90 6</w> 100
bur ger</w> 100
bur berry 100
wor th</w> 100
lin es</w> 100
run way</w> 100
premi ere</w> 100
1/ 2 100
tur quoise</w> 100
ine 100</w> 100
0. 9</w> 100
cm / 100
ank let</w> 100
pin k 100
mis sion</w> 100
130 g</w> 100
工具 车</w> 100
fur nit 100
电子 琴</w> 100
figh t</w> 100
buy 1</w> 100
zc 55 100
ido lish 100
系列 )</w> 100
gau ge</w> 100
circu lar</w> 100
sports wear</w> 100
luck y 100
ting i</w> 100
蔓越 莓</w> 100
pik achu</w> 100
lagun a</w> 100
handker chief</w> 100
coro lla</w> 100
greet ings</w> 100
( 内</w> 99
( 上 99
8 44 99
g orge 99
p 2</w> 99
p vc 99
j l</w> 99
q w 99
9 11</w> 99
f v 99
i e 99
i pod</w> 99
n asa</w> 99
c 5</w> 99
小 鞋</w> 99
# - 99
, , 99
b 1</w> 99
命 运</w> 99
鞋 内</w> 99
适 配器</w> 99
流 量</w> 99
新 书</w> 99
加 湿</w> 99
气 灶</w> 99
双 重</w> 99
木 炭</w> 99
最 低</w> 99
初 秋</w> 99
奖 杯</w> 99
园 林</w> 99
四 月</w> 99
童 袜</w> 99
单 字</w> 99
番 茄</w> 99
闪 闪</w> 99
服 务 99
言 情 99
羊 肉</w> 99
测 验</w> 99
钢 珠</w> 99
父 亲节</w> 99
鲑 鱼</w> 99
祈 福</w> 99
in s 99
st e</w> 99
st ro 99
al kal 99
at m</w> 99
se awe 99
me tro 99
lu lu</w> 99
hi s</w> 99
dre ams</w> 99
qu ad</w> 99
do ff</w> 99
bu ild</w> 99
boo ties</w> 99
ori zed</w> 99
son g</w> 99
air 2</w> 99
ali ve</w> 99
ca y 99
cur ved</w> 99
bar be 99
mer a</w> 99
app a</w> 99
penci ls</w> 99
glit tery</w> 99
ation al</w> 99
purpo ses</w> 99
decor ations</w> 99
peel er</w> 99
effe ctive</w> 99
roman ce</w> 99
kas oy</w> 99
abac a</w> 99
越野 车</w> 99
coloure tte</w> 99
( a 98
( f 98
2 500</w> 98
2 95 98
4 cm</w> 98
6 t</w> 98
7 000</w> 98
j di</w> 98
k ami 98
l 0 98
n n</w> 98
v oo 98
c ate</w> 98
u te</w> 98
# 4 98
x c 98
雪 靴</w> 98
b ull</w> 98
防 静电</w> 98
正 规</w> 98
机 场</w> 98
纸 杯</w> 98
丝 质</w> 98
和 平</w> 98
马 戏 98
前 置</w> 98
五 月</w> 98
宾 馆</w> 98
得 标</w> 98
加 温</w> 98
香 料</w> 98
短 发</w> 98
创 作</w> 98
浴 帘</w> 98
八 角</w> 98
笔 芯</w> 98
人 形</w> 98
人 造 98
起 来</w> 98
触 感</w> 98
范 冰冰</w> 98
步 机</w> 98
毛 领</w> 98
蜂 胶</w> 98
暴 龙</w> 98
碎 机</w> 98
裸 妆</w> 98
固 体</w> 98
坠 饰</w> 98
液 压</w> 98
绵 羊</w> 98
榨 汁</w> 98
裁 剪</w> 98
凋 花</w> 98
in cense</w> 98
re :</w> 98
as ia</w> 98
or nam 98
20 5 98
di r 98
bo un 98
bo se</w> 98
ma g</w> 98
po reless</w> 98
10 7 98
201 4- 98
su v</w> 98
su shi</w> 98
00 00 98
tr acker</w> 98
30 6</w> 98
36 6</w> 98
je wel</w> 98
he mat 98
sa i</w> 98
13 4</w> 98
eni s</w> 98
back packs</w> 98
can dies</w> 98
wel l 98
1- 1</w> 98
squ ad</w> 98
45 mm</w> 98
88 1</w> 98
ton ite</w> 98
mir age</w> 98
lan come 98
0. 3</w> 98
44 mm</w> 98
dd le</w> 98
sur vi 98
pol i</w> 98
fir ming</w> 98
non- stick</w> 98
whi stle</w> 98
cin nam 98
kat erina</w> 98
41 -45</w> 98
davi doff</w> 98
蜘蛛 侠</w> 98
j5 prime</w> 98
卖场 )</w> 98
gas ket</w> 98
smas h 98
洗澡 盆</w> 98
carol ina</w> 98
recor der</w> 98
chica go</w> 98
周年 庆</w> 98
chea p</w> 98
( 4 97
- 9 97
8 ml</w> 97
2 15</w> 97
6 40 97
3 年</w> 97
h t</w> 97
g f 97
s z 97
s 75 97
p unk</w> 97
代 买</w> 97
拍 拍</w> 97
f ate 97
o dy 97
x z</w> 97
x s- 97
魔 王</w> 97
美 体</w> 97
乐 家</w> 97
大 圆</w> 97
发 声</w> 97
水 上</w> 97
环 绕</w> 97
新 疆</w> 97
上 下</w> 97
可 口 97
车 模</w> 97
翻 译</w> 97
耐 穿</w> 97
登 山 97
板 式</w> 97
春 节</w> 97
单 孔</w> 97
不 二</w> 97
束 带</w> 97
法 器</w> 97
名 款</w> 97
研 究</w> 97
深 度</w> 97
应 急</w> 97
穿 戴</w> 97
温 度计</w> 97
黄 水晶</w> 97
跳 台</w> 97
读 卡 97
训 练 97
这 样</w> 97
避 光</w> 97
孙 悟空</w> 97
救 援</w> 97
敬 酒</w> 97
熨 烫</w> 97
逍 遥</w> 97
re ar 97
re fre 97
re du 97
re cord</w> 97
er l 97
st rings</w> 97
sh aker</w> 97
en gra 97
li st</w> 97
20 7</w> 97
di ce</w> 97
ai s</w> 97
bo ss 97
201 9- 97
de o 97
so le 97
ko lin</w> 97
pi cks</w> 97
kore an 97
bu dd 97
18 w</w> 97
100 - 97
sig n 97
ath y</w> 97
one x</w> 97
-3 4</w> 97
ali en</w> 97
32 3</w> 97
32 7</w> 97
bri de</w> 97
iphone 7 97
500 0 97
san te</w> 97
har dy</w> 97
23 3</w> 97
y6 7 97
ition al</w> 97
cl aire</w> 97
ga- 100</w> 97
top sider</w> 97
love live</w> 97
mate 20</w> 97
dan cing</w> 97
book mark</w> 97
摄像 机</w> 97
modu lar</w> 97
北极 熊</w> 97
camer as</w> 97
swad dle</w> 97
foun tain</w> 97
magen ta</w> 97
马戏 团</w> 97
( 6 96
( 5 96
( 特价</w> 96
( s)</w> 96
e mma</w> 96
8 30</w> 96
2 38 96
a -2 96
7 10</w> 96
7 cm</w> 96
r ul 96
r s- 96
s z</w> 96
s sey</w> 96
p ed</w> 96
j .</w> 96
v ary</w> 96
u ku 96
u em 96
u ag</w> 96
红 花</w> 96
. 特价</w> 96
风 镜</w> 96
日 语</w> 96
b h 96
大 力</w> 96
卡 车</w> 96
爱 迪 96
牙 签</w> 96
长 巾</w> 96
套 组</w> 96
珠 珠</w> 96
琪 琪</w> 96
天 奴</w> 96
香 膏</w> 96
土 机</w> 96
张 )</w> 96
会 社</w> 96
刻 版</w> 96
曼 谷</w> 96
打 印</w> 96
行 者</w> 96
支 )</w> 96
缝 纫 96
噪 音</w> 96
放 松</w> 96
滑 步</w> 96
坐 椅</w> 96
覆 盖</w> 96
舰 队</w> 96
确 认</w> 96
矫 正器</w> 96
驾 驶 96
in i 96
le a</w> 96
ac tor</w> 96
al lure</w> 96
lo vers</w> 96
20 21</w> 96
ti les</w> 96
th in 96
ma u 96
ur ine</w> 96
ra pid</w> 96
ap ron</w> 96
mo del 96
su cc 96
ear ly</w> 96
pl s</w> 96
av ail</w> 96
gi s</w> 96
16 3</w> 96
19 95</w> 96
24 mm</w> 96
ey elet</w> 96
ak es</w> 96
sty le 96
tor ch</w> 96
head bands</w> 96
can ada</w> 96
iphone 7plus</w> 96
99 8</w> 96
ben tonite</w> 96
str anger</w> 96
66 8</w> 96
4. 2</w> 96
chocol ates</w> 96
7. 0</w> 96
rash er</w> 96
lac ed</w> 96
windo ws</w> 96
coun ting</w> 96
清洁 器</w> 96
ddr 3</w> 96
bene tton</w> 96
dash board</w> 96
文件 夹</w> 96
pix el</w> 96
cad bury</w> 96
tri- color</w> 96
fee der</w> 96
喇叭 裤</w> 96
留言 板</w> 96
intelli gent</w> 96
wid th</w> 96
hawai ian</w> 96
alkal ine</w> 96
( 0 95
( h 95
( 中 95
( 男 95
( m)</w> 95
d t 95
m us</w> 95
1 400</w> 95
a pol 95
4 90 95
6 99</w> 95
7 80</w> 95
t 百</w> 95
s lightly</w> 95
p ond</w> 95
q 3</w> 95
q c</w> 95
5 11</w> 95
l f 95
l ai 95
小 咪</w> 95
x 18</w> 95
x 155</w> 95
海 钓</w> 95
太 太</w> 95
日 葵</w> 95
大 厅</w> 95
品 汇</w> 95
卡 带</w> 95
套 套</w> 95
电 锯</w> 95
心 理学</w> 95
胸 花</w> 95
土 豆</w> 95
高 阶</w> 95
洗 衣</w> 95
竹 编</w> 95
盒 装)</w> 95
泡 菜</w> 95
凉 垫</w> 95
束 腰</w> 95
满 满</w> 95
战 国</w> 95
裙 裤</w> 95
朋 克</w> 95
久 保 95
思 思</w> 95
] :</w> 95
意 威</w> 95
戒 子</w> 95
碳 粉 95
浆 机</w> 95
消 防</w> 95
柑 橘</w> 95
in spir 95
ar o</w> 95
co lic</w> 95
on ion</w> 95
en lar 95
me la</w> 95
th re 95
th rasher</w> 95
ap ex</w> 95
su m 95
qu a</w> 95
fi fty</w> 95
50 / 95
gu mmy</w> 95
tr on</w> 95
30 7</w> 95
18 1</w> 95
mat tel</w> 95
16 00 95
sc allo 95
shoul ders</w> 95
70 ml</w> 95
1. 1</w> 95
17 6</w> 95
hand s</w> 95
35 cm</w> 95
gar min</w> 95
3- 6 95
mer ci 95
23 4</w> 95
23 cm</w> 95
multi vitamins</w> 95
pho enix</w> 95
loo tbag</w> 95
5- 6</w> 95
que st</w> 95
sco t 95
multi- functional</w> 95
spen cer</w> 95
yar is</w> 95
10. 1</w> 95
kieh l's</w> 95
emer ald</w> 95
lamin ated</w> 95
pump s</w> 95
button down</w> 95
jessi ca</w> 95
amu let</w> 95
astac lat</w> 95
corpor ate</w> 95
bree ze</w> 95
furnit ure</w> 95
( )</w> 94
( 黑色</w> 94
w ard</w> 94
m 3 94
r astaclat</w> 94
h s 94
/ 6</w> 94
手 霜</w> 94
k 8</w> 94
k ang</w> 94
i 6s</w> 94
i bo</w> 94
n x</w> 94
n am</w> 94
v ig 94
u ka 94
头 带</w> 94
皮 箱</w> 94
系 小</w> 94
日 用品</w> 94
士 奇</w> 94
卡 通 94
韩 流</w> 94
清 香</w> 94
克 星</w> 94
水 笔</w> 94
宾 士 94
车 轮</w> 94
无 人机</w> 94
物 )</w> 94
天 蓝</w> 94
吊 挂</w> 94
窗 纱</w> 94
波 希 94
字 笔</w> 94
脚 趾</w> 94
推 荐 94
洗 脚</w> 94
罗 纹</w> 94
桌 球</w> 94
后 座</w> 94
婴 幼</w> 94
储 水</w> 94
公 寓</w> 94
地 漏</w> 94
泳 帽</w> 94
压 克力</w> 94
毛 虫</w> 94
蛇 头</w> 94
甲 虫</w> 94
招 财 94
蚊 香</w> 94
消 防 94
投 资</w> 94
烘 干</w> 94
签 字笔</w> 94
垂 钓</w> 94
in d 94
or ing</w> 94
bo s</w> 94
la va</w> 94
te k</w> 94
so y</w> 94
pro bio 94
pa ges</w> 94
bu t 94
mar tens</w> 94
mm * 94
3. 5 94
jump shorts</w> 94
26 5</w> 94
organi x</w> 94
spea kers</w> 94
sy m</w> 94
cer ami 94
tal k</w> 94
sha w</w> 94
na h</w> 94
600 ml</w> 94
sky drive</w> 94
chlo e 94
ato mizer</w> 94
葡萄 酒</w> 94
超级 英雄</w> 94
ultr asonic</w> 94
1.2 m</w> 94
cray ola</w> 94
sport sac</w> 94
嘉班 纳</w> 94
mess age</w> 94
ffl er</w> 94
gorge ous</w> 94
可口 可乐</w> 94
y67 v5s</w> 94
缝纫 机</w> 94
碳粉 匣</w> 94
( 50</w> 93
d ining</w> 93
0 10</w> 93
2 d</w> 93
2 11</w> 93
6 s 93
r g 93
直 立</w> 93
5 70</w> 93
k an</w> 93
9 月</w> 93
l al 93
i 5 93
i f 93
y z 93
v als</w> 93
c eries</w> 93
u ps</w> 93
u gg</w> 93
头 绳</w> 93
特 惠 93
背 面</w> 93
希 尔 93
线 圈</w> 93
西 裤</w> 93
扩 音器</w> 93
烟 斗</w> 93
年 货</w> 93
发 簪</w> 93
新 型</w> 93
瑕 膏</w> 93
揹 巾</w> 93
德 镇</w> 93
粉 彩</w> 93
坦 克</w> 93
玛 丽</w> 93
景 德镇</w> 93
脚 凳</w> 93
芭 蕾</w> 93
袋 鼠</w> 93
火 辣</w> 93
理 疗</w> 93
喜 庆</w> 93
开 拓 93
潜 航</w> 93
化 膜</w> 93
凡 赛斯</w> 93
底 盘</w> 93
摔 壳</w> 93
依 林</w> 93
缺 货</w> 93
造 形</w> 93
猿 人</w> 93
照 灯</w> 93
医 用</w> 93
凹 凸</w> 93
演 奏</w> 93
酸 奶</w> 93
锐 步</w> 93
涡 轮</w> 93
栏 杆</w> 93
鱿 鱼</w> 93
搞 笑</w> 93
in ty</w> 93
le tt</w> 93
le sportsac</w> 93
ch in</w> 93
se tte</w> 93
20 吋</w> 93
di stri 93
si um</w> 93
un g 93
cas ing</w> 93
de sert</w> 93
da zz 93
cu bic</w> 93
18 7</w> 93
mat cha</w> 93
ta s</w> 93
40 4</w> 93
运动 表</w> 93
fu bu</w> 93
36 -4 93
che w 93
stu dy</w> 93
32 2</w> 93
32 mm</w> 93
ps v</w> 93
ka o</w> 93
28 5</w> 93
1/ 6</w> 93
33 1</w> 93
mini figures</w> 93
colla red</w> 93
6. 6</w> 93
genu ine100</w> 93
gro ceries</w> 93
77 7</w> 93
bul ls</w> 93
glit tered</w> 93
infin ix</w> 93
appro ved</w> 93
nike air 93
#爆 款</w> 93
til bury</w> 93
advan tage</w> 93
cali per</w> 93
j5 10</w> 93
gog oro 93
credi t</w> 93
octo pus</w> 93
navar ro</w> 93
stande e</w> 93
乌克 丽丽</w> 93
aesthe tic</w> 93
( 粉</w> 92
2 -4 92
2 90</w> 92
a 14 92
3 500</w> 92
7 17 92
t les</w> 92
t 短t</w> 92
r asp 92
h c</w> 92
s eni 92
p ear</w> 92
i 8 92
小 品</w> 92
x dr</w> 92
吋 / 92
大 家</w> 92
伯 爵</w> 92
正 式</w> 92
黑 暗</w> 92
杀 )</w> 92
老 鹰</w> 92
花 圈</w> 92
屁 屁</w> 92
实 验 92
码 数</w> 92
光 机</w> 92
器 具</w> 92
包 保</w> 92
教 练</w> 92
水 道</w> 92
水 电</w> 92
百 分 92
工 房</w> 92
卷 发器</w> 92
无 声</w> 92
电 池 92
电 焊</w> 92
传 动</w> 92
学 生 92
燕 窝</w> 92
飞 翔</w> 92
层 板</w> 92
怪 物</w> 92
不 可 92
疏 通</w> 92
饮 品</w> 92
预 售</w> 92
磨 牙</w> 92
校 服</w> 92
动 式</w> 92
脖 围</w> 92
挂 帘</w> 92
照 相机</w> 92
除 螨</w> 92
放 置</w> 92
午 后</w> 92
进 阶</w> 92
值 得</w> 92
费 雪</w> 92
摄 影 92
搁 板</w> 92
in voice</w> 92
re sso</w> 92
ar du 92
co sp 92
al - 92
me tis</w> 92
to - 92
to wel 92
un de 92
la w</w> 92
so m</w> 92
qu ad 92
da w 92
gu il 92
cre ed</w> 92
18 4</w> 92
col gate</w> 92
pe e 92
pe ace</w> 92
pe tal</w> 92
for ce 92
ang els</w> 92
16 mm</w> 92
sli der</w> 92
tu ff</w> 92
he x</w> 92
he at 92
chi ll</w> 92
ak a</w> 92
ff in</w> 92
dis on</w> 92
22 3</w> 92
3. 0 92
ser vice</w> 92
78 9</w> 92
star t</w> 92
pat rick</w> 92
y6 2</w> 92
twi lly</w> 92
ze us</w> 92
ze 55 92
tal kie</w> 92
落地 镜</w> 92
gla n</w> 92
sub woofer</w> 92
pac o</w> 92
jas on</w> 92
a9 2018</w> 92
puri fying</w> 92
quick sand</w> 92
gur t</w> 92
hei st</w> 92
suit case</w> 92
acade mia</w> 92
luc as</w> 92
weigh ing</w> 92
mouse pad</w> 92
ferragamo 菲拉 92
辅助 器</w> 92
广告 牌</w> 92
言情 小说</w> 92
apol lo</w> 92
波希 米亚</w> 92
e b</w> 91
e w</w> 91
e ve 91
2 色</w> 91
a 01</w> 91
t au 91
r l 91
h ats</w> 91
p enis</w> 91
k c 91
i vy</w> 91
x 8</w> 91
乐 团</w> 91
b 1 91
古 巴</w> 91
防 护 91
基 地</w> 91
通 道</w> 91
贴 耳</w> 91
年 代</w> 91
油 灯</w> 91
油 污</w> 91
丹 麦</w> 91
食 指</w> 91
新 鲜货</w> 91
佳 丽</w> 91
百 科</w> 91
效 期</w> 91
伦 天奴</w> 91
夏 新</w> 91
人 工</w> 91
书 局</w> 91
理 器</w> 91
浮 标</w> 91
部 分</w> 91
路 易</w> 91
地 垫</w> 91
地 摊</w> 91
焊 接</w> 91
焦 点</w> 91
毛 毛虫</w> 91
玩 乐</w> 91
为 止</w> 91
专 科</w> 91
缘 子</w> 91
⋯ ⋯ 91
耗 材</w> 91
灶 台</w> 91
乒 乓 91
en e</w> 91
me tro</w> 91
ri ding</w> 91
10 x</w> 91
sp r 91
hi lux</w> 91
ki ck</w> 91
ki sh</w> 91
su t 91
de mon</w> 91
da inty</w> 91
50 4</w> 91
pro ph 91
30 9</w> 91
con s</w> 91
du bai</w> 91
19 1</w> 91
tu mmy</w> 91
14 1</w> 91
ste p 91
par a 91
25 3</w> 91
dis ne 91
cr ack 91
mu si 91
mu ffler</w> 91
wor kout</w> 91
1- 6</w> 91
spe c 91
cho o</w> 91
brand ing</w> 91
vel ve 91
咖啡 店</w> 91
66 6</w> 91
85 g</w> 91
anti- spy</w> 91
74 7 91
acti ve 91
neo 5</w> 91
7/ 8</w> 91
flu x</w> 91
bn wt</w> 91
bear d</w> 91
amaz on</w> 91
cla t</w> 91
effe cts</w> 91
realme 3</w> 91
bron zer</w> 91
philipp ine</w> 91
adidas /</w> 91
m-xx l码</w> 91
dust bag</w> 91
cher ry 91
gigab yte</w> 91
dest in 91
lif ting</w> 91
lace y</w> 91
2015 年</w> 91
t3 ／</w> 91
a字 裙</w> 91
clari fying</w> 91
lubric ant</w> 91
开拓 者</w> 91
( 约</w> 90
m se</w> 90
0 18</w> 90
a 00 90
4 15 90
6 30</w> 90
/ 3</w> 90
5 pro</w> 90
5 26 90
o re 90
v -</w> 90
v 10</w> 90
c ler</w> 90
u m- 90
小 学</w> 90
小 金</w> 90
露 脐</w> 90
风 尚</w> 90
镜 架</w> 90
英 文版</w> 90
机 动</w> 90
卡 夹</w> 90
卡 钳</w> 90
中 秋</w> 90
内 含</w> 90
光 盘</w> 90
器 )</w> 90
一 番</w> 90
水 平 90
拆 )</w> 90
普 普</w> 90
宽 裤</w> 90
粉 碎机</w> 90
蔡 依林</w> 90
肥 皂盒</w> 90
袖 子</w> 90
国 产</w> 90
春 日</w> 90
火 箭</w> 90
喜 帖</w> 90
素 食</w> 90
鲜 花</w> 90
轧 糖</w> 90
汤 勺</w> 90
漏 水</w> 90
画 框</w> 90
毫 升</w> 90
专 用 90
痘 印</w> 90
告 白</w> 90
营 业</w> 90
嘟 嘟</w> 90
啾 啾</w> 90
故 事 90
娱 乐</w> 90
in do 90
on i</w> 90
ro w 90
se agate</w> 90
se oul</w> 90
si des</w> 90
to day</w> 90
th ank</w> 90
10 s</w> 90
mi che 90
so il</w> 90
min is</w> 90
vi lla 90
ter ry</w> 90
pi ping</w> 90
12 .5</w> 90
pa vi 90
30 8 90
mar y 90
uni on</w> 90
boo m</w> 90
ct 100</w> 90
40 3</w> 90
60 w</w> 90
ce ci 90
200 4</w> 90
32 6</w> 90
gg ay</w> 90
3. 4</w> 90
3- 5</w> 90
bre mod</w> 90
23 7</w> 90
cti on 90
fri dge</w> 90
supp lier</w> 90
5. 6</w> 90
4- 6</w> 90
tab s</w> 90
玻璃 门</w> 90
birth stone</w> 90
hair pin</w> 90
ax le</w> 90
ax is</w> 90
dress ing</w> 90
sequ ins</w> 90
re- ment</w> 90
one- piece</w> 90
stabi lizer</w> 90
tol sen</w> 90
kab uki</w> 90
sala d</w> 90
yoo bao</w> 90
toile try</w> 90
uem ura</w> 90
( 中)</w> 89
- 101</w> 89
1 c</w> 89
1 年</w> 89
3 90 89
h am</w> 89
s cou 89
s ent</w> 89
j z 89
j am 89
5 w 89
i md</w> 89
v or 89
c aged</w> 89
海 尔</w> 89
盘 香</w> 89
防 腐</w> 89
如 约</w> 89
背 光</w> 89
_ _ 89
和 风</w> 89
点 烟器</w> 89
被 单</w> 89
尼 斯</w> 89
拆 装</w> 89
无 损</w> 89
优 选 89
淘 宝</w> 89
热 售</w> 89
分 子</w> 89
铁 人</w> 89
半 截</w> 89
宝 缇</w> 89
单 手</w> 89
不 倒翁</w> 89
雷 神</w> 89
川 久保 89
结 构</w> 89
喜 宴</w> 89
泉 水</w> 89
圣 经</w> 89
口 腔</w> 89
动 感</w> 89
厚 实</w> 89
声 音</w> 89
航 拍</w> 89
做 工</w> 89
棘 轮</w> 89
炒 菜</w> 89
绞 肉机</w> 89
显 白</w> 89
渗 透</w> 89
ro lls</w> 89
20 8 89
to e 89
201 7- 89
ck ing</w> 89
no ise</w> 89
gu det 89
vi be</w> 89
vi et 89
12 5g</w> 89
bu tt</w> 89
sun glass</w> 89
sun rise</w> 89
pan g</w> 89
11 12</w> 89
ci der</w> 89
kit chen 89
stu ds</w> 89
par t 89
tri logy</w> 89
air plane</w> 89
spi rit</w> 89
cou ples</w> 89
cur ling</w> 89
ja y 89
23 .5</w> 89
bund les</w> 89
is a</w> 89
is sue</w> 89
free shipping</w> 89
eng agement</w> 89
sur plus</w> 89
180 g</w> 89
lac quer</w> 89
cin ia</w> 89
迪士尼 乐园</w> 89
chal k</w> 89
work book</w> 89
balan cing</w> 89
io pe</w> 89
aph ro 89
nau tica</w> 89
k2 g 89
蒂芙 尼</w> 89
#- no.t1</w> 89
ody ssey</w> 89
budd ha</w> 89
rasp berry</w> 89
水平 仪</w> 89
gudet ama</w> 89
( l)</w> 88
e lu 88
d 's</w> 88
4 th</w> 88
4 13 88
7 v</w> 88
r 7</w> 88
s 4 88
j b 88
& no.t1</w> 88
o c</w> 88
i ps</w> 88
y onex</w> 88
n c 88
小 桌</w> 88
海 蓝</w> 88
皮 靴</w> 88
雪 人</w> 88
复 活 88
大 礼包</w> 88
背 部</w> 88
卡 拉</w> 88
下 床</w> 88
内 衣裤</w> 88
经 络</w> 88
点 烟</w> 88
发 油</w> 88
色 :</w> 88
效 能</w> 88
揹 包</w> 88
可 选)</w> 88
车 )</w> 88
车 业</w> 88
幻 影</w> 88
鲁 夫 88
饭 团</w> 88
吊 顶</w> 88
心 动</w> 88
香 吉 88
铝 框</w> 88
磁 石</w> 88
双 排</w> 88
波 兰</w> 88
钳 子</w> 88
国 王</w> 88
竹 子</w> 88
超 重</w> 88
改 造</w> 88
魅 惑</w> 88
钛 合金</w> 88
开 岔</w> 88
干 燥 88
鼠 标 88
画 架</w> 88
画 质</w> 88
黄 )</w> 88
列 印</w> 88
样 式</w> 88
秋 衣</w> 88
汪 汪</w> 88
蜥 蜴</w> 88
晾 晒</w> 88
in duction</w> 88
an nie</w> 88
ac s</w> 88
st opp 88
lo lli 88
20 w</w> 88
th an</w> 88
ne il</w> 88
mi cr 88
ra glan</w> 88
sp ell</w> 88
hi d</w> 88
de w</w> 88
au th 88
bi lli 88
wi ck</w> 88
orig in</w> 88
18 2</w> 88
ru bi 88
40 x 88
du ffle</w> 88
mon arch</w> 88
mon cler</w> 88
sa g 88
gra vity</w> 88
her rera</w> 88
tri gger</w> 88
lit hi 88
lip balm</w> 88
32 cm</w> 88
22 mm</w> 88
55 mm</w> 88
dol ly</w> 88
ser pen 88
note 7</w> 88
23 2</w> 88
mor inga</w> 88
bla ze</w> 88
mk 58 88
sal mon</w> 88
perfe cting</w> 88
gro oming</w> 88
zo e</w> 88
pawn able 88
94 28 88
600 g</w> 88
pub g</w> 88
hydr ation</w> 88
radi ance</w> 88
brilli ance</w> 88
rot ary</w> 88
dash cam</w> 88
twin ning</w> 88
flip - 88
slo ts</w> 88
temper ature</w> 88
hex ag 88
phan tom</w> 88
nmd_ r1</w> 88
dow ny</w> 88
vamp ire</w> 88
lancome 兰蔻</w> 88
uku lele</w> 88
ardu ino</w> 88
川久保 玲</w> 88
e ss 87
d ge 87
[...]
