i n 217416
a n 173995
r e 171106
e r</w> 154414
a r 126190
c o 117658
e r 114425
a s 110333
o r 106056
l e 104678
i t 102656
a c 100675
o n 97298
s t 93784
a l 91559
a t 90684
s h 89161
l o 84027
e n 79329
o n</w> 74975
o r</w> 74441
c h 69756
l e</w> 66926
l i 66488
r o 65731
in g</w> 64815
s e 62530
2 0 61261
a l</w> 57943
d i 55558
s i 55179
f or</w> 55177
b a 54975
m e 54049
t o 53132
u n 52910
t i 51613
e s</w> 50709
a i 50016
a m 50001
r i 49528
b o 48068
l u 48053
e d</w> 47427
现 货</w> 47103
s s</w> 44749
t h 42617
1 0 42339
p o 42333
i r 42141
m a 42081
n e 41491
l a 40599
e l 38849
an d</w> 38594
u r 35879
m i 35591
r a 34385
a n</w> 34245
s p 33357
n i 33224
h i 32517
t e 32043
t s</w> 31544
c as 31443
新 款</w> 31153
o l 31076
a p 29766
20 1 29728
ac k</w> 29662
sh o 29382
e a 29188
k i 28985
u s 28748
休 闲</w> 28218
c k 28151
m o 28046
s u 28039
p h 27964
d e 27948
k e</w> 27803
on e</w> 27678
d re 27334
me n</w> 26965
u l 26900
a b 26414
m l</w> 26150
w it 25531
s o 25491
ba g</w> 25428
0 0 25396
e l</w> 24625
an d 23925
c h</w> 23562
dre ss</w> 23241
i n</w> 23236
wit h</w> 23088
t t 22867
全 新</w> 22787
时 尚</w> 22430
se t</w> 22394
c e</w> 22165
cas e</w> 22024
c k</w> 21752
p re 21257
p r 21230
i g 21003
w o 20954
q u 20863
e n</w> 20656
k o 20627
d a 20564
v e</w> 20488
b y</w> 20298
ir t</w> 19892
b r 19887
d s</w> 19536
d er</w> 19527
p lu 19505
' s</w> 19337
b l 19326
ni ke</w> 19031
e t</w> 18940
m e</w> 18657
p p 18630
g h 18566
g e</w> 18361
a u 18140
n o 17878
简 约</w> 17877
1 0</w> 17802
w h 17788
m p 17635
m in 17577
5 0 17548
f i 17548
a d 17357
l as 17093
c ar 16945
ab le</w> 16830
v er 16716
g u 16713
plu s</w> 16700
ne w</w> 16690
ai r</w> 16565
2 0</w> 16542
v i 16541
b i 16513
v er</w> 16510
sh irt</w> 16488
re d</w> 16424
co d</w> 16402
it e</w> 16349
h o 16306
ph one</w> 16245
日 本</w> 16150
收 纳</w> 15970
s t</w> 15650
c s</w> 15585
t y</w> 15574
to p</w> 15569
t er 15522
p i 15315
p ro 15306
s e</w> 15086
代 购</w> 15062
t e</w> 14907
si z 14866
1 2 14864
ti c</w> 14832
c u 14774
运 动</w> 14688
w at 14660
w i 14652
f as 14480
d o 14389
al l</w> 14321
短 袖</w> 14254
ac e</w> 14215
ko re 14169
t r 14088
wo men</w> 13971
d e</w> 13954
bl ack</w> 13948
a r</w> 13892
o f</w> 13808
t er</w> 13787
ac k 13652
b u 13499
c re 13432
in g 13426
5 0</w> 13406
上 衣</w> 13364
e ar 13331
siz e</w> 13210
背 包</w> 13207
儿 童</w> 13183
lo v 13071
正 品</w> 13056
a di 13021
3 0 12977
ol d</w> 12954
fas hi 12878
k e 12829
p a 12807
sh or 12685
p er 12465
b lu 12309
手 机</w> 12234
i c</w> 12232
kore an</w> 12171
w e 12166
da s</w> 12117
l o</w> 12055
f re 12054
or ig 12040
套 装</w> 12036
adi das</w> 11953
学 生</w> 11948
it y</w> 11877
orig in 11816
l y</w> 11806
b e 11784
m ar 11781
10 0</w> 11770
l ing</w> 11757
p cs</w> 11748
s un 11675
o o 11632
外 套</w> 11566
t 恤</w> 11442
fashi on</w> 11340
o u 11313
s s 11293
co n 11283
ar d</w> 11238
lov ed</w> 11221
pr o</w> 11214
g o</w> 11211
ba by</w> 11207
sho es</w> 11205
r y</w> 11198
th e</w> 11194
c c 11189
ch ar 11085
d y</w> 11012
u m</w> 11006
s k 10916
创 意</w> 10885
in e</w> 10838
wh ite</w> 10823
a m</w> 10795
al e</w> 10753
1 8 10708
男 士</w> 10661
r u 10660
经 典</w> 10656
p an 10646
复 古</w> 10620
e le 10519
m at 10495
un i 10453
er s</w> 10448
韩 国</w> 10437
s le 10394
ki ds</w> 10391
co l 10308
th en 10203
二 手</w> 10190
系 列</w> 10179
情 侣</w> 10141
1 1 10085
t ed</w> 10056
p l 10037
f e 10031
au then 10031
t a 10022
f l 9995
origin al</w> 9987
s am 9936
authen tic</w> 9933
sle e 9865
li gh 9816
t o</w> 9804
us e</w> 9773
台 湾</w> 9763
p e 9725
3 0</w> 9695
a p</w> 9598
bo o 9508
m as 9492
ti on</w> 9485
1 1</w> 9484
ai n</w> 9484
夏 季</w> 9450
min i</w> 9432
t h</w> 9428
1 2</w> 9400
pre loved</w> 9394
i on</w> 9386
c t 9355
10 0 9347
c ro 9334
黑 色</w> 9308
c i 9256
潮 流</w> 9245
l on 9241
m en 9205
p ack</w> 9200
ea r</w> 9078
i phone</w> 9025
c m</w> 8967
st i 8913
ma x</w> 8912
m m</w> 8906
n o</w> 8851
现 代</w> 8840
le d</w> 8789
4 0 8720
in k</w> 8714
l v</w> 8706
j u 8706
功 能</w> 8684
6 0 8588
可 爱</w> 8580
gu cc 8527
ur e</w> 8512
b lo 8500
s h</w> 8498
. . 8484
. 5</w> 8441
a v 8419
on e 8395
防 水</w> 8324
k it 8316
f or 8309
客 厅</w> 8283
m m 8253
le ss</w> 8248
at h 8219
si g 8195
ac h</w> 8163
s ale</w> 8157
tt on</w> 8152
特 价</w> 8145
手 表</w> 8136
sun g</w> 8077
co lo 8069
an t</w> 8042
sam sung</w> 7998
h u 7986
pr in 7962
fre e</w> 7863
p u 7855
g i 7852
运 动 7833
gucc i</w> 7826
g h</w> 7824
f o 7815
po w 7773
g old</w> 7740
f u 7731
an g 7730
宝 宝</w> 7644
d u 7618
1 6 7612
女 鞋</w> 7587
家 用</w> 7546
t - 7532
3 6 7509
u s</w> 7495
玩 具</w> 7487
f t</w> 7481
s li 7469
co r 7446
p le</w> 7441
b le</w> 7392
an i 7385
j e 7335
ch e 7314
卧 室</w> 7303
lo w</w> 7288
1 5 7274
al s</w> 7261
b at 7252
g las 7249
blu e</w> 7243
o f 7196
a t</w> 7176
h ea 7146
in s</w> 7113
1 9 7099
si l 7081
hi gh</w> 7061
c e 7060
p s</w> 7023
精 品</w> 7000
宽 松</w> 6987
al ity</w> 6976
北 欧</w> 6931
运动 鞋</w> 6917
201 8</w> 6914
m on 6912
g ir 6898
de sig 6885
wat ch</w> 6877
长 袖</w> 6862
le t</w> 6861
co tton</w> 6856
s a 6839
h el 6830
e x 6829
us b</w> 6807
s m 6804
2 5</w> 6771
qu ality</w> 6733
2 4 6705
di es</w> 6692
c le 6672
透 气</w> 6669
ligh t</w> 6667
i t</w> 6659
p er</w> 6646
l l 6643
t u 6633
牛 皮</w> 6625
s c 6610
201 9</w> 6601
8 0 6501
g re 6493
r ing</w> 6487
p ri 6463
- 4 6420
1 4 6413
美 国</w> 6379
shor ts</w> 6379
纯 棉</w> 6325
s ling</w> 6297
w a 6289
bo x</w> 6277
b b 6265
h e 6230
礼 物</w> 6218
la dies</w> 6200
un d 6199
m b 6189
x y</w> 6164
l ace</w> 6158
e y 6155
sho ul 6153
手 提 6149
包 包</w> 6141
20 20</w> 6128
p e</w> 6121
g r 6118
kit ty</w> 6117
w al 6113
7 0 6105
g er</w> 6097
m i</w> 6088
pan ts</w> 6088
加 厚</w> 6069
慢 跑</w> 6060
ing s</w> 6060
b al 6029
s and 6017
st e 6011
专 用</w> 5990
ter no</w> 5971
desig n</w> 5938
耳 环</w> 5931
不 锈 5919
e d 5916
shoul der</w> 5909
h and</w> 5887
shor t</w> 5874
st u 5866
汽 车</w> 5859
不锈 钢</w> 5857
n at 5853
bo dy</w> 5830
sp or 5815
ch an 5807
cre am</w> 5777
li p</w> 5756
mas k</w> 5755
glas s</w> 5752
at e</w> 5743
o i 5731
ch i 5727
洋 装</w> 5708
p ink</w> 5701
女 士</w> 5696
1 5</w> 5685
新 品</w> 5671
or s</w> 5650
201 7</w> 5635
1 3 5623
x l</w> 5622
sil ver</w> 5619
g ra 5614
lon g</w> 5611
男 女</w> 5602
co ach</w> 5594
t re 5590
u p</w> 5581
p ar 5580
造 型</w> 5574
真 皮</w> 5558
a k 5517
fl or 5513
b as 5508
y s</w> 5495
ma n</w> 5494
le n 5489
沙 发</w> 5487
en i 5487
个 性</w> 5443
短 裤</w> 5430
y o 5411
装 饰</w> 5411
1 . 5397
2 5 5395
玻 璃</w> 5386
b ack 5377
g o 5364
用 品</w> 5342
co ver</w> 5322
s er 5316
j o 5316
ki n</w> 5315
or i 5311
折 叠</w> 5310
印 花</w> 5295
pro of</w> 5295
h er 5291
拖 鞋</w> 5272
er ry</w> 5271
厨 房</w> 5264
o pp 5263
e red</w> 5259
ck s</w> 5257
t ra 5253
colo r</w> 5253
l s</w> 5237
flor al</w> 5216
so ap</w> 5205
m an 5183
d a</w> 5172
手提 包</w> 5162
钱 包</w> 5160
f f 5154
g en 5134
p en 5124
blo use</w> 5123
s on 5112
an s</w> 5107
to o 5103
正 版</w> 5095
ath er</w> 5074
迷 你</w> 5049
pi e 5049
p or 5046
卡 通</w> 5020
sh i 5005
b ea 5003
le s</w> 4990
- 3 4987
ma g 4982
lo go</w> 4978
9 0 4968
hel lo</w> 4965
b ro 4962
di s 4951
1 8</w> 4943
预 购</w> 4943
物 架</w> 4941
c lo 4939
d r 4938
te mp 4929
i s</w> 4907
h ard</w> 4891
st y 4891
w ear</w> 4885
20 0 4885
白 色</w> 4860
st a 4860
t en 4850
f lo 4835
女 生</w> 4825
slee v 4823
t ri 4822
m a</w> 4820
修 身</w> 4788
st ri 4777
se x</w> 4776
s - 4766
l a</w> 4754
t or 4752
l it 4748
圆 领</w> 4737
s wi 4724
背 心</w> 4723
衬 衫</w> 4715
a 3 4686
an ce</w> 4679
in 1</w> 4661
f ace</w> 4657
le ather</w> 4648
a ge</w> 4644
opp o</w> 4642
b ur 4624
a s</w> 4609
ai r 4599
热 卖</w> 4598
b el 4597
or d 4594
户 外</w> 4591
z er</w> 4581
c r 4572
b e</w> 4556
实 拍</w> 4550
at ion</w> 4543
限 定</w> 4541
as h 4532
2 1</w> 4531
g b</w> 4525
- 0 4517
娃 娃</w> 4511
性 感</w> 4509
or g 4508
ac h 4504
w n</w> 4498
c tion</w> 4488
2 . 4477
饰 品</w> 4456
充 电</w> 4456
h and 4455
h ol 4443
li ve</w> 4432
1 7 4428
ar e</w> 4426
电 脑</w> 4425
tr a</w> 4416
chan el</w> 4394
k er</w> 4384
男 生</w> 4369
c o</w> 4368
v o</w> 4357
热 销</w> 4355
uni sex</w> 4352
back pack</w> 4342
t able</w> 4338
se l 4333
k s</w> 4326
boo k</w> 4305
b ack</w> 4292
su it</w> 4283
m u 4276
生 活</w> 4271
men t</w> 4271
组 合</w> 4252
家 居</w> 4247
al i 4247
c y 4243
保 护</w> 4238
c las 4233
长 裤</w> 4225
气 质</w> 4225
v en 4216
透 明</w> 4212
temp ered</w> 4210
1 6</w> 4193
t a</w> 4190
公 司</w> 4186
f la 4180
s kin</w> 4179
拉 链</w> 4178
8 0</w> 4168
u al</w> 4166
g s</w> 4161
商 务</w> 4161
出 清</w> 4158
h air</w> 4151
v e 4150
po lo</w> 4148
w or 4142
婴 儿</w> 4141
针 织</w> 4136
li p 4136
牛 仔</w> 4135
简 易</w> 4131
i d</w> 4130
ou t</w> 4128
d eni 4123
c am 4103
自 动</w> 4098
l ar 4082
容 量</w> 4076
跑 步</w> 4071
hea d 4068
p ap 4055
t- shirt</w> 4055
a g 4046
a we 4037
gre en</w> 4035
oi l</w> 4034
t in 4033
st ra 4033
出 货</w> 4018
f r 4015
衣 服</w> 4002
deni m</w> 4000
t y 3998
手 工</w> 3998
1 7</w> 3992
m ul 3992
oo d</w> 3988
ne ck 3984
st ar</w> 3980
b an 3979
st er</w> 3977
3 5 3962
sm all</w> 3945
ch a 3940
ul l</w> 3936
us h</w> 3934
pie ce</w> 3920
6 0</w> 3915
皮 带</w> 3900
进 口</w> 3893
ph one 3893
201 6</w> 3888
pa d</w> 3883
神 器</w> 3868
f ro 3866
3 2 3850
la y</w> 3850
c a</w> 3835
c a 3811
awe i</w> 3808
通 用</w> 3807
懒 人</w> 3806
t on</w> 3793
w er</w> 3792
d i</w> 3784
c le</w> 3783
苹 果</w> 3777
ack et</w> 3776
di y</w> 3770
i phone 3750
v el</w> 3741
b ri 3741
黑 白</w> 3735
c an 3728
舒 适</w> 3726
cas ual</w> 3713
- 2 3706
neck lace</w> 3705
st o 3700
化 妆</w> 3694
u ch</w> 3679
3 d</w> 3654
o ver 3650
5 5 3643
贴 纸</w> 3642
成 人</w> 3635
ver s 3629
fi t</w> 3627
7 0</w> 3626
游 戏</w> 3615
c t</w> 3603
me di 3602
pro te 3598
bea u 3595
p s 3589
g ar 3578
ho o 3577
slee ve</w> 3572
g e 3564
迪 士 3556
blu e 3553
20 0</w> 3551
c ar</w> 3546
wal let</w> 3542
防 滑</w> 3537
香 水</w> 3524
g g 3521
金 属</w> 3521
公 仔</w> 3516
br and</w> 3516
9 9 3513
限 量</w> 3511
耳 机</w> 3509
am e</w> 3504
n y</w> 3502
sty le</w> 3500
an s 3495
sti ck</w> 3495
sta in 3486
设 计</w> 3484
k a 3479
v in 3478
编 织</w> 3478
sti ck 3474
专 柜</w> 3469
sp i 3469
gir l</w> 3464
篮 球</w> 3457
sand als</w> 3457
9 25</w> 3451
2 2 3449
j ord 3449
r ings</w> 3437
b all</w> 3435
眼 镜</w> 3431
b erry</w> 3429
无 线</w> 3424
电 动</w> 3423
小 型</w> 3419
stain less</w> 3413
so ft</w> 3411
m y</w> 3410
wat er 3407
mat te</w> 3406
b a</w> 3399
hu awei</w> 3399
la y 3398
迪 达</w> 3394
项 链</w> 3388
l l</w> 3386
sk irt</w> 3386
居 家</w> 3379
1 3</w> 3378
m l 3375
f ac 3372
3 . 3364
w ai 3363
配 件</w> 3363
50 0</w> 3358
保 护 3355
as s 3352
t w 3346
al a 3327
swi m 3327
玫 瑰</w> 3326
红 色</w> 3325
凉 鞋</w> 3321
per fu 3313
mi cha 3312
ul tra</w> 3289
h y 3288
必 备</w> 3287
保 暖</w> 3277
2 8 3274
ai l</w> 3267
lo ve</w> 3263
o p 3262
v a</w> 3255
ter y</w> 3253
i o</w> 3245
k in 3235
jord an</w> 3233
br ac 3231
men s</w> 3230
w el 3229
1 - 3224
水 晶</w> 3223
挎 包</w> 3223
迪士 尼</w> 3220
p ur 3214
me s</w> 3207
tt e</w> 3207
hol der</w> 3203
v it 3194
9 0</w> 3189
d ri 3189
st re 3186
蓝 色</w> 3182
too th</w> 3180
brac ele 3178
of f</w> 3177
sp e 3175
ck et</w> 3173
o l</w> 3172
micha el</w> 3169
50 ml</w> 3166
4 0</w> 3163
x i 3160
天 然</w> 3159
n e</w> 3151
l ite</w> 3151
mm er</w> 3148
d ol 3147
气 垫</w> 3146
co u 3146
l in 3145
si on</w> 3145
wat er</w> 3144
3 - 3143
商 品</w> 3142
c ap 3140
1 9</w> 3139
s n 3138
i on 3138
mi l 3137
j acket</w> 3134
p u</w> 3133
2 4</w> 3133
g el</w> 3129
5 00 3128
te e</w> 3121
bat tery</w> 3120
支 架</w> 3118
ne ck</w> 3112
en t</w> 3111
prin ted</w> 3110
m k</w> 3105
p c</w> 3101
po p</w> 3099
c al</w> 3082
as h</w> 3077
blue tooth</w> 3077
k ing</w> 3075
r un 3074
防 晒</w> 3072
d er 3070
下 标</w> 3068
un d</w> 3064
pl ain</w> 3060
现 货 3059
摆 件</w> 3058
t ro 3057
宠 物</w> 3054
n er</w> 3053
刺 绣</w> 3051
条 纹</w> 3038
m s</w> 3036
女 装</w> 3036
d v 3032
cu te</w> 3030
se xy</w> 3029
bracele t</w> 3024
su per</w> 3020
限 时</w> 3019
pre mi 3013
3 8 3012
ear rings</w> 3012
la r</w> 3009
茶 几</w> 3008
牛 仔 3005
ap ple</w> 3000
6 s</w> 2999
sh e 2997
pow er</w> 2997
7 5 2996
si c</w> 2995
少 女</w> 2994
so cks</w> 2994
lar ge</w> 2989
1 4</w> 2984
欧 式</w> 2982
lon g 2982
n u 2981
vi vo</w> 2980
女 童</w> 2975
st or 2973
k ors</w> 2972
衣 裙</w> 2972
p hi 2961
ch o 2960
on ly</w> 2959
wh it 2957
car d</w> 2955
i es</w> 2954
旅 行</w> 2950
gir ls</w> 2945
情 趣</w> 2944
z i 2942
bo tt 2941
sho p</w> 2941
gh t</w> 2941
f ull</w> 2937
ki t</w> 2933
perfu me</w> 2929
工 具</w> 2923
保护 套</w> 2913
连 衣裙</w> 2908
ru bb 2908
pp er</w> 2905
大 号</w> 2903
公 主</w> 2895
lo u 2895
mo bi 2887
ll er</w> 2886
立 体</w> 2884
欧 美</w> 2881
de n</w> 2881
d ing</w> 2877
c ur 2870
卖 场</w> 2856
s qu 2855
d y 2852
h ear 2851
k a</w> 2851
no te 2847
30 0</w> 2847
ju mp 2847
am p</w> 2846
香 奈 2836
ss en 2832
a 5 2830
ap e</w> 2830
or ted</w> 2828
牛仔 裤</w> 2828
char ger</w> 2825
t le</w> 2813
sk in 2812
pow der</w> 2808
ey e 2807
b re 2805
g a</w> 2803
清 新</w> 2803
en ing</w> 2800
c able</w> 2799
m - 2799
w ar 2799
手 链</w> 2795
se s</w> 2794
4 5 2792
da y</w> 2791
k o</w> 2789
下 单</w> 2789
香奈 儿</w> 2771
ma x 2766
br ush</w> 2765
premi um</w> 2764
n ing</w> 2757
连 身</w> 2745
g a 2744
9 9</w> 2741
pri me</w> 2741
cy cle</w> 2740
2 6 2736
at ed</w> 2731
皮 革</w> 2726
je ans</w> 2721
.. .. 2716
to y</w> 2713
ch es</w> 2712
br and 2712
办 公 2708
ct or</w> 2708
wa y</w> 2708
ma de</w> 2706
户 型</w> 2704
优 惠</w> 2700
内 衣</w> 2699
链 条</w> 2692
water proof</w> 2690
ch ain</w> 2689
g lu 2686
u r</w> 2685
g ala 2683
j ap 2677
纯 银</w> 2669
mobi le</w> 2669
模 型</w> 2666
s an 2665
z ed</w> 2661
宿 舍</w> 2656
a o 2655
d ar 2654
咖 啡</w> 2650
b en 2648
su mmer</w> 2648
gala xy</w> 2648
t i</w> 2641
ke y 2632
f un 2625
8 8 2623
li c</w> 2622
t al</w> 2618
m er 2618
f ig 2618
f e</w> 2613
w in 2613
s ch 2611
col le 2610
rubb er</w> 2609
c el 2606
字 母</w> 2604
d ed</w> 2601
se cre 2594
wai st</w> 2591
s we 2590
ste el</w> 2590
9 2 2587
beau ty</w> 2584
1 50</w> 2583
h ar 2583
re less</w> 2581
pap er</w> 2580
lo tion</w> 2579
ri c</w> 2573
c and 2572
an g</w> 2569
bi g</w> 2569
medi um</w> 2569
po uch</w> 2564
b ar 2562
mag ic</w> 2562
y a</w> 2558
t on 2554
7 - 2550
珍 珠</w> 2543
品 质</w> 2542
陶 瓷</w> 2542
su per 2539
re n 2532
mo tor 2526
j a 2522
spor ts</w> 2522
t ing</w> 2521
it ion</w> 2517
l ine</w> 2515
wo o 2513
por table</w> 2513
1 / 2512
v u 2512
sleev es</w> 2512
co mp 2511
er i 2508
p h</w> 2497
k ni 2494
t ur 2492
浴 室</w> 2492
f fe 2488
whit ening</w> 2484
e ssen 2483
wi reless</w> 2480
g - 2477
co m 2477
bo y</w> 2476
卫 生 2472
bott le</w> 2467
2 3 2465
跑 鞋</w> 2465
br a</w> 2463
sho ck</w> 2462
spor t</w> 2462
零 钱</w> 2458
mul ti 2458
r y 2450
粉 色</w> 2449
短 t</w> 2448
on g</w> 2446
do u 2444
as us</w> 2439
secre t</w> 2438
cas io</w> 2433
tre n 2433
室 内</w> 2431
o m</w> 2429
ser ies</w> 2429
d o</w> 2428
两 用</w> 2426
路 易 2424
6 4 2422
co n</w> 2422
tt er</w> 2419
prin t</w> 2419
家 具</w> 2411
拼 接</w> 2405
vu it 2401
sel ling</w> 2398
ne y</w> 2395
m al</w> 2391
ba gs</w> 2391
bo ard</w> 2390
cou ple</w> 2388
st ar 2385
a 7 2378
ou t 2376
路易 威 2376
2 - 2367
k g</w> 2365
i s 2359
皮 夹</w> 2348
er a</w> 2348
h al 2344
t shirt</w> 2343
6 - 2339
b und 2338
s cre 2337
org ani 2337
快 速</w> 2336
双 人</w> 2331
c al 2329
冬 季</w> 2329
in e 2328
适 用</w> 2323
che ck 2320
p en</w> 2314
nat ur 2310
di e</w> 2309
a h 2308
son y</w> 2308
m ir 2307
n a</w> 2306
ap p 2306
at ing</w> 2305
高 腰</w> 2304
l er</w> 2303
on s</w> 2303
fro m</w> 2301
flo wer</w> 2300
tra vel</w> 2299
p at 2298
to ps</w> 2298
ci al</w> 2290
路易威 登</w> 2290
clas sic</w> 2289
vuit ton</w> 2287
100 ml</w> 2281
l d</w> 2279
合 金</w> 2276
g ood</w> 2272
内 裤</w> 2272
x s</w> 2269
ad e</w> 2269
bur berry</w> 2267
联 名</w> 2263
ro se</w> 2253
sh ir 2252
m it 2251
定 制</w> 2251
lou is</w> 2251
l - 2250
落 地</w> 2249
品 牌</w> 2248
v al</w> 2247
蝴 蝶 2247
motor cycle</w> 2246
bat h</w> 2243
健 身</w> 2239
f it 2238
m or 2230
3 4 2229
am i 2227
y s 2226
c ti 2225
c ap</w> 2225
促 销</w> 2224
b ang 2222
an ti 2222
7 8 2219
电 池</w> 2218
stra p</w> 2218
clo th 2209
stick er</w> 2208
di g 2203
风 扇</w> 2202
l and</w> 2201
d ra 2201
ass orted</w> 2197
bund le</w> 2196
双 层</w> 2193
卫生 间</w> 2193
沙 滩</w> 2189
sp ea 2189
餐 厅</w> 2188
毛 衣</w> 2184
现货 )</w> 2184
h a 2182
专 业</w> 2182
精 华</w> 2181
智 能</w> 2181
帆 布</w> 2179
蝴蝶 结</w> 2179
w ash 2174
吊 带</w> 2174
ck e 2169
雪 纺</w> 2167
面 膜</w> 2167
周 边</w> 2167
car e</w> 2167
vi ct 2167
架 子</w> 2164
hear t</w> 2164
l an 2163
f in 2163
厚 底</w> 2159
1 20 2158
阳 台</w> 2158
s au 2157
d - 2154
ra y</w> 2154
k y 2153
at e 2147
pi l 2147
v in</w> 2143
c d</w> 2141
批 发</w> 2133
dis ney</w> 2127
桌 面</w> 2125
童 装</w> 2123
boo st</w> 2119
动 漫</w> 2116
椅 子</w> 2115
do or</w> 2115
纯 色</w> 2114
单 人</w> 2112
lu x 2111
z z 2109
00 0 2109
bel t</w> 2109
p ack 2107
b ir 2104
礼 盒</w> 2102
桌 子</w> 2100
ac t</w> 2090
v c</w> 2089
ver se</w> 2084
ho t</w> 2084
专 属</w> 2082
n s</w> 2079
钥 匙 2079
c m 2078
化 妆 2078
no te</w> 2078
fi l 2078
l y 2074
特 惠</w> 2071
v a 2069
打 底</w> 2067
3 3 2066
stri p 2064
s y 2061
ad ul 2061
tin t</w> 2061
ro und</w> 2058
vin ta 2058
si li 2057
m on</w> 2055
s mar 2053
e m</w> 2052
b la 2051
f f</w> 2050
b and</w> 2050
布 鞋</w> 2050
el s</w> 2049
jap an</w> 2048
nat ure</w> 2043
塑 料</w> 2041
st and</w> 2041
0 . 2040
ar a</w> 2040
f en 2039
ele ss</w> 2039
c lu 2035
te a</w> 2035
18 k</w> 2035
p as 2034
o z</w> 2033
char g 2033
p top</w> 2032
in spi 2031
mo use</w> 2026
p and 2025
i al</w> 2025
运 费</w> 2025
按 摩</w> 2024
inspi red</w> 2019
char ac 2018
ir e</w> 2016
t at 2015
尺 码</w> 2013
美 式</w> 2003
uni vers 2001
dou ble</w> 2001
3 2</w> 2000
li qu 1995
co s 1992
k n 1988
彩 色</w> 1986
ban k</w> 1984
ph o 1983
mp er</w> 1983
9 5</w> 1981
叶 草</w> 1981
m o</w> 1977
皮 套</w> 1973
办 公</w> 1972
圆 形</w> 1971
f ri 1970
j 7</w> 1969
电 视</w> 1969
石 英</w> 1968
v el 1965
b ts</w> 1965
方 形</w> 1962
办公 室</w> 1962
t pu</w> 1961
布 艺</w> 1961
of fi 1961
g en</w> 1960
bro wn</w> 1958
i ce</w> 1955
36 0</w> 1955
je wel 1953
色 )</w> 1950
ar y</w> 1949
in ches</w> 1947
hi gh 1947
f an</w> 1946
b ra 1946
腰 带</w> 1946
spea ker</w> 1945
z en 1944
秋 季</w> 1943
vict ori 1941
lo o 1939
to te</w> 1932
相 机</w> 1928
c at 1927
清 洁</w> 1926
su pp 1925
i a</w> 1924
ele ct 1923
弹 力</w> 1921
p - 1920
绑 带</w> 1919
le tte</w> 1919
f ol 1917
sleev eless</w> 1917
cle ar</w> 1912
p las 1911
p lay 1908
o s</w> 1907
h on 1906
ma h</w> 1906
5 - 1905
univers al</w> 1903
德 国</w> 1901
口 袋</w> 1897
2 7 1896
am s</w> 1896
百 货</w> 1893
ch ri 1893
手 环</w> 1892
00 0</w> 1890
s ne 1887
th er 1887
太 阳</w> 1886
车 载</w> 1885
s en 1885
ho me</w> 1885
lip stick</w> 1885
金 色</w> 1882
双 肩 1881
三 叶草</w> 1880
3 6</w> 1878
猫 咪</w> 1876
克 力</w> 1873
co o 1870
f i</w> 1865
9 8 1864
双 面</w> 1864
爱 心</w> 1863
a d</w> 1862
p vc</w> 1861
- - 1860
to ys</w> 1860
5 . 1857
m p</w> 1856
le go</w> 1856
fla t</w> 1856
格 子</w> 1855
随 身</w> 1854
am po 1854
小 米</w> 1852
s si 1851
质 感</w> 1850
vinta ge</w> 1850
日 式</w> 1845
材 料</w> 1844
pu ma</w> 1843
y 6 1841
电 源</w> 1841
n av 1839
3 7 1837
b y 1836
d s 1834
sne ak 1834
公 分</w> 1833
v o 1832
mi cro 1832
al o 1830
d ge</w> 1829
am a</w> 1829
. .</w> 1827
mil k</w> 1827
charac ter</w> 1827
书 桌</w> 1826
po cket</w> 1825
ed ition</w> 1825
3 5</w> 1824
( 现货)</w> 1824
y u 1820
静 音</w> 1820
动 物</w> 1819
cle ans 1818
fo re 1816
2 8</w> 1815
宝 贝</w> 1815
or a</w> 1815
al y</w> 1813
organi zer</w> 1812
2 2</w> 1811
dv d</w> 1811
shir ts</w> 1811
le y</w> 1809
双肩 包</w> 1808
c at</w> 1807
6 5 1806
机 械</w> 1806
plas tic</w> 1804
ba r</w> 1802
kni t</w> 1802
natur al</w> 1801
cand y</w> 1800
少 年</w> 1798
scre en</w> 1798
cam era</w> 1795
明 星</w> 1794
wit ch</w> 1793
k i</w> 1792
se d</w> 1789
ho use</w> 1789
女 孩</w> 1788
cu t</w> 1788
cro p</w> 1788
b b</w> 1787
钱 夹</w> 1787
an a</w> 1786
m s 1783
d mi</w> 1781
on hand</w> 1781
ty pe</w> 1780
swim suit</w> 1780
耐 克</w> 1778
p ure</w> 1776
学 院</w> 1776
colle ction</w> 1776
咖 啡 1775
be st</w> 1775
gu ard</w> 1774
p ra 1771
原 装</w> 1770
it aly</w> 1770
f - 1767
st r 1767
ru n</w> 1767
e e 1764
org an 1764
u re 1760
tw o</w> 1760
2 6</w> 1759
5 s</w> 1756
liqu id</w> 1755
灰 色</w> 1751
sh ad 1750
di or</w> 1750
4 4 1749
kore a</w> 1749
d d 1748
戒 指</w> 1748
f le 1747
jewel ry</w> 1747
z oo 1742
adul t</w> 1741
on es</w> 1740
生 日</w> 1736
矽 胶</w> 1734
victori a</w> 1734
n ba</w> 1733
pp ing</w> 1733
伸 缩</w> 1732
re mo 1732
2 in1</w> 1731
dar k</w> 1728
米 奇</w> 1727
bo ys</w> 1727
ne t</w> 1727
p c 1726
餐 桌</w> 1726
si de</w> 1726
100 0</w> 1726
d ant</w> 1725
帆 布鞋</w> 1725
th e 1725
12 5</w> 1725
y st 1722
g ri 1719
y 5 1719
超 薄</w> 1717
00 1</w> 1717
镂 空</w> 1715
mo i 1714
手 套</w> 1712
k u 1710
sp ray</w> 1709
und er 1709
o w</w> 1707
f ood</w> 1706
整 理</w> 1706
f oo 1702
co ffe 1702
b or 1701
y el 1700
at or</w> 1700
in t</w> 1699
5 7 1697
fre e 1695
推 荐</w> 1693
g ame</w> 1692
me tal</w> 1691
风 格</w> 1690
organ ic</w> 1689
ta ke</w> 1688
海 贼</w> 1687
co st 1687
ear s</w> 1687
" "</w> 1686
dol l</w> 1686
安 全</w> 1681
5 g</w> 1680
w all</w> 1678
c er 1676
m k 1674
g g</w> 1672
lo n</w> 1671
sli m</w> 1671
ey e</w> 1671
1 10 1669
防 尘</w> 1668
h app 1667
ar ri 1666
coffe e</w> 1664
con verse</w> 1663
pre - 1661
t or</w> 1659
男 童</w> 1659
轻 量</w> 1659
bal ance</w> 1658
g lo 1657
ro mper</w> 1656
stri pe</w> 1656
du al</w> 1655
i i</w> 1653
礼 品</w> 1653
ou r</w> 1653
4 - 1651
环 保</w> 1651
电 子</w> 1651
2 3</w> 1649
小 舖</w> 1649
行 车</w> 1646
n y 1645
睡 衣</w> 1644
cor n</w> 1643
s witch</w> 1641
4 . 1638
pow er 1638
t v</w> 1635
经 济 1635
mi st</w> 1635
oo l</w> 1635
man i</w> 1635
平 底</w> 1634
brand ed</w> 1634
201 5</w> 1628
kin i</w> 1628
ba n</w> 1627
s y</w> 1625
col ors</w> 1625
yel low</w> 1625
书 架</w> 1623
u t</w> 1622
6 6 1621
qu e 1621
v ans</w> 1620
sh ampo 1620
hea d</w> 1620
par ty</w> 1618
c - 1617
g am 1616
英 伦</w> 1611
ar mani</w> 1610
太 阳 1608
1 10</w> 1607
i l 1607
bo w</w> 1607
增 高</w> 1606
shampo o</w> 1606
2 9 1605
mat e</w> 1603
per son 1600
e p</w> 1598
w ash</w> 1595
do g</w> 1593
gra y</w> 1593
全 馆</w> 1591
at er</w> 1587
40 0</w> 1585
玄 关</w> 1584
her mes</w> 1584
elect ric</w> 1583
min i 1582
origin als</w> 1582
lit tle</w> 1582
m d</w> 1581
c an</w> 1580
ll a</w> 1580
tren dy</w> 1580
ch en</w> 1578
泳 衣</w> 1577
kn it 1575
bu y</w> 1573
i l</w> 1572
stor age</w> 1572
f las 1571
smar t</w> 1568
d ro 1567
世 界</w> 1567
head set</w> 1564
x r</w> 1563
essen ti 1563
ys l</w> 1563
p air</w> 1561
car to 1561
短 款</w> 1560
zen f 1558
t ain</w> 1557
50 g</w> 1557
机 车</w> 1556
帽 子</w> 1556
学 习</w> 1555
cloth es</w> 1555
衣 柜</w> 1554
s w 1553
a f 1553
zoo m</w> 1553
轻 便</w> 1552
全 自动</w> 1551
t as 1549
no va</w> 1549
唇 膏</w> 1548
加 大</w> 1548
- 1</w> 1547
抱 枕</w> 1547
衣 架</w> 1545
gr ams</w> 1545
z y</w> 1544
全 场</w> 1544
精 致</w> 1544
pra da</w> 1542
钥 匙</w> 1541
流 苏</w> 1540
fac ial</w> 1540
a 7</w> 1537
en g 1537
墨 镜</w> 1536
书 包</w> 1536
prote ctor</w> 1532
sch ool</w> 1532
制 造</w> 1530
裤 子</w> 1529
春 秋</w> 1529
anti - 1527
f ra 1526
z e</w> 1526
g low</w> 1525
s on</w> 1524
喷 雾</w> 1523
甜 美</w> 1523
hoo die</w> 1523
s ur 1522
展 示</w> 1520
col la 1518
nav y</w> 1518
fl y 1515
vit am 1515
skin ny</w> 1515
尺 寸</w> 1514
壁 挂</w> 1514
bro w</w> 1513
c ra 1512
顶 级</w> 1509
ter s</w> 1509
b er 1507
s ing 1506
in ch</w> 1506
qu e</w> 1506
r e</w> 1505
围 巾</w> 1504
厂 家</w> 1504
s a</w> 1503
j 7 1502
携 式</w> 1502
che ck</w> 1501
h t 1500
手 书</w> 1500
pen dant</w> 1500
蛋 糕</w> 1499
arri val</w> 1499
经济 型</w> 1498
8 5</w> 1496
b s</w> 1496
礼 服</w> 1496
cke y</w> 1496
pen ci 1492
st one</w> 1491
sho ck 1491
0 1</w> 1490
ac ce 1490
记 本</w> 1489
z e 1487
鞋 子</w> 1487
30 4</w> 1487
t an 1486
男 装</w> 1485
v 领</w> 1483
con e</w> 1483
防 风</w> 1480
香 港</w> 1479
carto on</w> 1479
c lip</w> 1478
stre t 1478
大 学</w> 1477
材 质</w> 1477
fashi on 1476
co stu 1475
sp a 1475
su pre 1475
b ear</w> 1474
ma ke 1473
8 5 1469
la ptop</w> 1466
mi ckey</w> 1466
sand o</w> 1466
y 9 1465
po lo 1465
on d</w> 1463
英 国</w> 1458
c c</w> 1457
check out</w> 1457
w el</w> 1456
mm y</w> 1456
绿 色</w> 1455
an ge</w> 1455
wor ks</w> 1455
t ab 1454
耐 磨</w> 1454
包 装</w> 1452
ke t 1451
a z 1450
b er</w> 1450
a i</w> 1448
pil low</w> 1448
i pad</w> 1447
水 壶</w> 1447
el l</w> 1446
bi kini</w> 1444
for ce</w> 1444
-4 4</w> 1442
x - 1441
gi ft</w> 1441
台 式</w> 1440
on al</w> 1439
m g</w> 1438
移 动</w> 1438
at s</w> 1438
max i</w> 1438
训 练</w> 1437
char m</w> 1436
cr yst 1436
xi ao 1435
j i 1434
喇 叭</w> 1434
si ve</w> 1434
ti e</w> 1433
in a</w> 1432
cu p</w> 1432
夏 天</w> 1431
fu l</w> 1431
春 季</w> 1430
w s</w> 1429
us t</w> 1429
幼 儿</w> 1428
one y</w> 1428
ar i 1426
s al 1424
m al 1424
风 衣</w> 1424
d ai 1421
happ y</w> 1420
海 外</w> 1418
chi l 1418
s l 1416
小 熊</w> 1413
b - 1412
笔 记本</w> 1411
an k 1411
m y 1409
v - 1407
ai d</w> 1406
羊 皮</w> 1404
玩 偶</w> 1404
ac ti 1404
西 装</w> 1403
bo dy 1403
ad ap 1403
con d 1402
so u 1401
pan ty</w> 1401
r s</w> 1400
3 9 1399
dig it 1399
钢 化</w> 1398
仿 真</w> 1398
夏 装</w> 1397
bu tt 1396
ori es</w> 1396
knit ted</w> 1396
shock proof</w> 1396
4 5</w> 1395
2 50</w> 1395
li sh</w> 1395
ck y</w> 1395
小 孩</w> 1394
p et</w> 1391
6 . 1391
2 7</w> 1389
no . 1388
打 孔</w> 1386
xiao mi</w> 1386
加 绒</w> 1385
8 3</w> 1384
t wi 1384
tor y</w> 1384
mir r 1383
8 - 1379
100 %</w> 1379
c y</w> 1378
she et</w> 1378
水 果</w> 1377
92 .5</w> 1377
sili cone</w> 1377
a - 1375
te es</w> 1375
tr o</w> 1374
ser um</w> 1374
直 销</w> 1368
便 宜</w> 1368
bal lo 1368
yo u</w> 1368
swim wear</w> 1368
车 用</w> 1367
fr on 1365
k en 1364
penci l</w> 1364
ren t</w> 1363
图 案</w> 1362
泰 国</w> 1362
ke y</w> 1362
uni corn</w> 1360
餐 具</w> 1359
di o</w> 1359
60 0</w> 1359
床 头</w> 1358
电 器</w> 1358
积 木</w> 1358
法 国</w> 1357
钥匙 圈</w> 1357
下 杀 1356
supre me</w> 1355
h an 1354
s no 1354
pa j 1353
购 物</w> 1352
po l 1352
av ai 1352
l amp</w> 1351
旋 转</w> 1351
lo ck</w> 1351
7 5</w> 1350
e - 1350
四 季</w> 1350
柜 子</w> 1349
反 光</w> 1348
c li 1347
in er</w> 1347
at i 1346
c es</w> 1344
粉 红</w> 1344
shad ow</w> 1343
m er</w> 1342
圣 诞</w> 1341
it h</w> 1341
b and 1339
sau di</w> 1339
ps 4</w> 1338
strip es</w> 1338
塑 胶</w> 1337
v ol 1333
to wel</w> 1333
w n 1332
植 物</w> 1332
costu me</w> 1332
cos me 1331
宝 莉</w> 1330
妈 妈</w> 1330
sp lay</w> 1330
g ol 1326
re al</w> 1326
acce ss 1325
棉 麻</w> 1324
情 人 1324
翻 盖</w> 1324
shi pping</w> 1324
cost e</w> 1324
水 钻</w> 1322
三 星</w> 1322
12 pcs</w> 1320
se y</w> 1318
el ly</w> 1318
gen u 1318
贝 壳</w> 1317
an ti</w> 1317
ele g 1316
hand bag</w> 1316
la coste</w> 1314
fre sh</w> 1314
sli p</w> 1313
l un 1311
cho col 1310
mirr or</w> 1309
3 00 1308
7 1</w> 1308
8 8</w> 1306
跟 鞋</w> 1305
fo am</w> 1305
小 号</w> 1303
情人 节</w> 1303
che e 1301
zenf one</w> 1300
3 3</w> 1299
ar t</w> 1298
st ring</w> 1296
ea u</w> 1295
can v 1295
ch erry</w> 1294
ni ght</w> 1294
s at 1293
fas t</w> 1293
ligh t 1293
ri bb 1292
阿 玛 1291
h p</w> 1290
购 物 1290
ma s</w> 1290
digit al</w> 1290
z en</w> 1289
妈 咪</w> 1289
su n</w> 1288
glas ses</w> 1288
on ic</w> 1286
qu i 1286
cu sto 1286
2. 0</w> 1286
n md</w> 1285
a j 1285
e mb 1285
ki d</w> 1285
弹 性</w> 1284
vitam in</w> 1283
pl an 1282
保 温</w> 1281
玻 璃 1281
cryst al</w> 1280
o em</w> 1279
无 袖</w> 1278
3 in1</w> 1277
青 年</w> 1277
se ller</w> 1277
空 气</w> 1275
保 证</w> 1273
k y</w> 1271
3 50</w> 1270
ar m 1270
a qu 1269
改 装</w> 1268
行 动</w> 1268
官 方</w> 1266
外 线</w> 1265
吊 灯</w> 1263
chri st 1263
sneak ers</w> 1263
木 质</w> 1261
e f</w> 1260
th er</w> 1259
len s</w> 1259
沐 浴</w> 1258
滑 板</w> 1258
pp ers</w> 1257
3 1</w> 1256
b le 1256
li fe</w> 1256
o m 1255
f an 1255
泡 泡</w> 1255
p li 1254
水 桶</w> 1254
d able</w> 1252
per fe 1252
in ten 1251
cro ss</w> 1251
or ange</w> 1250
col or 1249
f ab 1247
v en</w> 1247
bas ket 1246
b o</w> 1245
胶 带</w> 1245
squ are</w> 1245
a f</w> 1243
袜 子</w> 1242
ou s</w> 1242
1 .5</w> 1241
4 7 1241
or der</w> 1241
生 日 1240
ac e 1239
阿玛 尼</w> 1239
t al 1237
音 乐</w> 1237
it ion 1237
di am 1237
s po 1235
z ara</w> 1235
优 质</w> 1235
女 性</w> 1235
to yo 1235
a c</w> 1234
cr o</w> 1234
绝 版</w> 1233
basket ball</w> 1232
水 杯</w> 1231
colla gen</w> 1230
星 星</w> 1227
g ger</w> 1226
球 鞋</w> 1226
代 理</w> 1225
eleg ant</w> 1225
m t 1224
make up</w> 1224
hand le</w> 1223
c en 1222
2 20 1222
配 色</w> 1222
ar m</w> 1222
run s</w> 1222
s o</w> 1221
3 8</w> 1220
持 久</w> 1219
ig e</w> 1219
h d</w> 1218
mi x</w> 1217
k l</w> 1216
v et</w> 1215
无 痕</w> 1214
ra in 1214
d ry</w> 1213
one si 1213
m ac 1212
ni e</w> 1212
零 食</w> 1211
genu ine</w> 1211
vers ace</w> 1210
服 装</w> 1209
硅 胶</w> 1209
c ity</w> 1208
fig ure</w> 1207
u v</w> 1206
kit chen</w> 1205
toyo ta</w> 1205
迷 彩</w> 1204
ah a</w> 1204
p le 1203
p ear 1203
i mp 1202
f ly</w> 1202
fri en 1202
素 面</w> 1200
毛 巾</w> 1200
9 7</w> 1198
sing le</w> 1198
魔 法</w> 1197
英 文</w> 1197
肩 带</w> 1197
t ape</w> 1196
麂 皮</w> 1196
眼 影</w> 1195
糖 果</w> 1195
ton er</w> 1195
8 1</w> 1194
版 )</w> 1193
ne w 1192
p ad 1191
原 宿</w> 1191
3 m</w> 1190
r ac 1190
中 式</w> 1189
电 脑 1188
le gg 1187
over runs</w> 1187
特 卖</w> 1186
花 朵</w> 1186
re al 1186
hon da</w> 1185
mar i 1184
行 李 1183
p p</w> 1182
y o</w> 1182
un der</w> 1182
5 ml</w> 1181
活 动</w> 1181
床 头 1181
s / 1180
cap su 1180
孕 妇</w> 1178
fr ame</w> 1177
生日 礼物</w> 1176
实 用</w> 1175
精 油</w> 1175
ed ge</w> 1175
n ail</w> 1174
可 折叠</w> 1172
wh e 1170
ea ble</w> 1169
f a 1168
安 全 1168
bang ko 1168
chocol ate</w> 1168
co mb 1167
f er 1166
ma t</w> 1166
key chain</w> 1166
机 壳</w> 1165
an o</w> 1165
p on 1164
wi fi</w> 1163
合 一</w> 1162
cor e</w> 1162
新 )</w> 1161
国 际</w> 1161
铝 合金</w> 1160
g ap</w> 1159
素 色</w> 1159
re dmi</w> 1159
ch am 1159
b ul 1158
工 作</w> 1158
老 爹</w> 1158
it e 1157
sto ck</w> 1156
b on 1155
4 00 1154
mi o</w> 1154
自 行车</w> 1153
荔 枝</w> 1152
on - 1152
pre- loved</w> 1151
canv as</w> 1151
套 头</w> 1150
巴 黎</w> 1150
ka y</w> 1149
fore ver</w> 1149
3 4</w> 1148
软 壳</w> 1148
au to 1148
道 具</w> 1145
柔 软</w> 1144
遮 阳 1144
pand ora</w> 1144
g ro 1143
essenti al</w> 1143
j an 1142
装 饰 1142
mi cro</w> 1142
x x 1141
v ing</w> 1139
枕 头</w> 1139
腰 包</w> 1139
p lay</w> 1138
工 业</w> 1138
电脑 桌</w> 1138
r a</w> 1137
纤 维</w> 1137
ju st 1137
bangko k</w> 1137
s .</w> 1136
.. .</w> 1135
mon o 1135
po d</w> 1134
全 套</w> 1133
er ing</w> 1132
k le 1131
优 雅</w> 1131
m ale</w> 1129
g lit 1127
三 角</w> 1127
欧 洲</w> 1127
co at</w> 1127
for mal</w> 1126
jump suit</w> 1125
9 5 1124
ph ones</w> 1123
wo mens</w> 1121
paj ama</w> 1121
桌 椅</w> 1120
折 叠 1120
直 播</w> 1120
sh i</w> 1120
7 6 1119
夹 克</w> 1119
li mit 1119
te l</w> 1119
w ra 1118
o d 1117
平 板</w> 1117
access ories</w> 1117
re ju 1116
e ss</w> 1115
tu be</w> 1115
1 20</w> 1114
文 版</w> 1113
ca ke</w> 1113
fashion able</w> 1113
空 调</w> 1112
老 花</w> 1111
隐 形</w> 1111
mon th 1110
run ning</w> 1109
m bl 1108
a 5</w> 1108
l am 1108
装 饰品</w> 1108
lu cky</w> 1108
adap ter</w> 1108
diam ond</w> 1107
t 恤 1106
婚 礼</w> 1106
li n</w> 1105
\ n</w> 1104
fly knit</w> 1104
li e</w> 1102
y l</w> 1101
女 神</w> 1101
强 力</w> 1101
18 0 1101
6 / 1100
ne o 1099
con tro 1099
裙 子</w> 1098
长 裙</w> 1098
ch able</w> 1098
zi pper</w> 1098
s m</w> 1097
盒 装</w> 1096
龙 头</w> 1096
ti me</w> 1096
chil dre 1096
4 8 1095
cle an 1093
流 行</w> 1092
el d</w> 1092
j er 1091
k ate</w> 1090
wal l 1090
美 容</w> 1089
s mo 1088
bu tton</w> 1087
m c 1086
旅 行 1086
购物 袋</w> 1086
ba g 1085
ba by 1084
bu m</w> 1083
polo 衫</w> 1082
g un 1080
ar t 1079
圣 诞 1078
低 价</w> 1078
饼 干</w> 1077
20 20 1077
9 - 1076
凳 子</w> 1075
音 响</w> 1074
ro y 1074
vel vet</w> 1074
7 / 1073
萤 幕</w> 1072
fen di</w> 1072
遥 控</w> 1071
sli ppers</w> 1071
fron t</w> 1071
二 手 1069
靠 背</w> 1069
樱 花</w> 1068
酒 店</w> 1068
ap er</w> 1068
pur se</w> 1068
fun ko</w> 1067
漫 画</w> 1066
亲 子</w> 1066
5 6 1065
legg ings</w> 1065
l v 1063
in o</w> 1063
si mp 1063
保 温 1062
挂 件</w> 1062
p ul 1061
迪 达 1061
woo d</w> 1061
7 7 1060
w l</w> 1060
空 间</w> 1060
bl ack 1060
que en</w> 1060
m r 1057
b al</w> 1057
fra gr 1057
limit ed</w> 1057
b v 1056
la dy</w> 1054
power bank</w> 1053
4 8</w> 1052
工 作 1052
3. 0</w> 1052
y ears</w> 1051
短 裙</w> 1051
g- shock</w> 1050
3 9</w> 1049
mi c</w> 1049
1 s</w> 1048
文 具</w> 1048
坐 垫</w> 1048
sho e</w> 1048
彩 虹</w> 1047
8 g</w> 1045
毛 绒</w> 1045
平 底 1045
tr an 1045
co in</w> 1044
spe cial</w> 1044
p ing</w> 1043
sh a</w> 1043
bla zer</w> 1043
4 6 1042
ma ke</w> 1042
f ru 1041
深 蓝</w> 1041
磨 砂</w> 1040
巧 克力</w> 1039
超 级</w> 1038
w e</w> 1038
g y</w> 1037
w - 1036
s old</w> 1034
牙 刷</w> 1034
t ail</w> 1033
cond ition 1032
h ang 1030
c ri 1029
t t</w> 1029
le x</w> 1029
y am 1027
to uch</w> 1027
2 9</w> 1026
高 档</w> 1026
re tro</w> 1026
1 50 1025
l g</w> 1025
e s 1025
发 饰</w> 1025
bir th 1025
华 为</w> 1024
th ai 1024
at a</w> 1023
尼 龙</w> 1022
pear l</w> 1021
系 带</w> 1020
le gen 1020
st ate 1020
prin ce 1020
pu mp</w> 1020
boo ks</w> 1019
woo den</w> 1019
month s</w> 1019
钻 石</w> 1017
person ali 1017
商 用</w> 1015
sp ade</w> 1015
wh o 1015
j o</w> 1014
冰 箱</w> 1014
er o 1014
ma c</w> 1014
co d 1013
childre n</w> 1013
小 说</w> 1012
v y</w> 1011
4 g</w> 1010
ro id</w> 1009
be d 1009
dri ve</w> 1009
角 落</w> 1008
迪达 斯</w> 1007
ne ss</w> 1006
餐 椅</w> 1005
五 金</w> 1005
翻 领</w> 1005
充 气</w> 1005
charg ing</w> 1005
j elly</w> 1004
christ mas</w> 1004
ba vin</w> 1003
bo x 1003
pp ed</w> 1003
y a 1002
jo gger</w> 1002
m ol 1001
state ment</w> 1001
皮 鞋</w> 1000
y - 999
茶 具</w> 999
棒 球 999
co de</w> 999
te ster</w> 999
高 筒</w> 997
供 应</w> 997
sp f 996
w ire</w> 995
原 创</w> 994
ch amp</w> 994
wash able</w> 994
" ""</w> 993
pa lette</w> 993
bi e</w> 992
perfe ct</w> 992
colo ur 991
moi stu 990
d c</w> 989
洋 气</w> 989
no t</w> 989
er o</w> 988
2 1 987
3 7</w> 987
阿 迪达斯</w> 987
艺 术</w> 987
ear phone</w> 986
he els</w> 986
5 8 985
拉 杆</w> 985
长 方形</w> 985
多 色</w> 983
blu sh</w> 983
c er</w> 982
v ac 982
豆 豆</w> 982
70 0</w> 982
0 2</w> 981
f ir 981
th i 981
po s 981
m ach 980
大 理 980
卡 片</w> 980
b l</w> 979
键 盘</w> 979
j i</w> 978
紫 色</w> 977
mm ing</w> 977
moistu ri 977
ad just 976
y ee 975
b t 974
ro i 973
大理 石</w> 973
座 椅</w> 972
计 时</w> 972
e t 971
j 2</w> 971
fi er</w> 970
t w</w> 969
t ai 969
z ing</w> 968
台 灯</w> 967
pr e</w> 967
ru b</w> 967
offi ce</w> 967
l li 966
干 燥</w> 966
and roid</w> 966
t ure</w> 965
口 罩</w> 965
ur a</w> 965
co ol</w> 964
it i 964
行李 箱</w> 964
中 国</w> 963
派 对</w> 963
m bo 962
or t</w> 962
fil ter</w> 962
bor n</w> 962
la ble</w> 961
mar vel</w> 961
垃 圾 960
ar mo 960
to dd 960
ver y</w> 960
发 夹</w> 959
out door</w> 959
4 9 958
款 )</w> 958
街 头</w> 958
ju ice</w> 958
sc en 958
cleans ing</w> 958
g y 957
g oo 957
自 然</w> 957
10 pcs</w> 957
in st 956
ig h 956
bi ke</w> 956
ing er</w> 956
gre y</w> 956
fragr ance</w> 956
5 .5</w> 955
购 )</w> 955
手 提</w> 954
lu s</w> 954
clo th</w> 954
t ch</w> 953
w r 953
中 文版</w> 951
高 跟鞋</w> 951
sh a 951
紫 外线</w> 950
表 带</w> 950
棒球 帽</w> 950
入 )</w> 949
x xl</w> 948
pri ce</w> 948
10 1</w> 947
18 0</w> 946
ribb on</w> 945
condition er</w> 945
h er</w> 944
包 邮</w> 944
黄 色</w> 944
充 电器</w> 944
personali zed</w> 944
背 带</w> 943
ni s 943
fi la</w> 943
房 间</w> 942
y rs</w> 941
露 营</w> 941
蝴 蝶</w> 941
小 脚</w> 940
7 plus</w> 939
尖 头</w> 939
卫 衣</w> 939
c d 938
p in</w> 937
6 g</w> 937
j 5</w> 937
益 智</w> 937
am eri 937
书 房</w> 936
p in 935
组 装</w> 935
升 降</w> 935
沙 发 935
乔 丹</w> 935
jer sey</w> 935
6 plus</w> 934
prince ss</w> 934
adjust able</w> 934
k er 933
0 5 932
朋 友</w> 931
ar o 931
gu ess</w> 931
口 红</w> 930
镜 子</w> 930
e ds</w> 929
al bum</w> 929
女 包</w> 928
re ad 928
fo und 928
uni q 926
g ar</w> 925
n a 925
v an 925
童 鞋</w> 925
露 肩</w> 925
po ds</w> 925
too l</w> 925
wor ld</w> 925
浪 漫</w> 924
re charg 924
z o 923
mag ne 923
custo mi 923
s 8</w> 922
b on</w> 922
tr u 921
摩 托 920
夏 日</w> 920
al u 920
吧 台</w> 919
fab ric</w> 919
t b</w> 918
书 柜</w> 918
青 少年</w> 918
eye brow</w> 918
thai land</w> 918
bo t 917
ur y</w> 917
a 4</w> 916
收 藏</w> 916
co s</w> 916
bas ic</w> 916
wall paper</w> 916
授 权</w> 914
钓 鱼</w> 914
( 全 913
mat ic</w> 913
alo e</w> 913
tan k</w> 913
连 体</w> 912
银 色</w> 911
so f 911
t one</w> 910
手 包</w> 910
ad he 910
emb roi 909
面 包</w> 908
be ach</w> 907
mb er</w> 907
f 5</w> 906
b ed</w> 906
b len 906
结 婚</w> 905
birth day</w> 904
搭 配</w> 903
窗 帘</w> 903
car ds</w> 903
厕 所</w> 902
ro om</w> 902
ver sion</w> 902
pho to 902
ballo on</w> 902
周 年</w> 901
stret chable</w> 900
摩托 车</w> 900
r al 899
in nis 899
of f 899
颜 色</w> 898
盒 子</w> 897
pl ated</w> 897
blo ck</w> 897
hu man</w> 897
9 . 896
8 plus</w> 896
6 4</w> 896
基 本</w> 896
ti cs</w> 896
w are</w> 895
泳 装</w> 895
pie ces</w> 895
a3 7</w> 895
学 者</w> 894
使 用</w> 894
s d</w> 893
梳 妆 893
烘 焙</w> 893
us a</w> 893
wra p</w> 893
超 人</w> 892
罗 兰</w> 892
拼 图</w> 892
ir on</w> 892
ch u 891
clas s</w> 891
v 2</w> 890
he al 890
too th 890
found ation</w> 890
4 2</w> 889
air s</w> 889
uniq lo</w> 889
食 品</w> 888
初 学者</w> 888
洗 发 888
f 7</w> 886
米 妮</w> 886
kle in</w> 884
s co 883
e as 883
w a</w> 883
k - 882
化妆 品</w> 882
旅 游</w> 881
虾 皮</w> 881
cro ss 881
s 6</w> 880
a3 s</w> 880
armo ur</w> 880
便 当</w> 879
一 字</w> 878
la u 878
ss a</w> 878
avai lable</w> 878
5 5</w> 877
f 9</w> 877
7 9</w> 876
杯 子</w> 876
梳妆 台</w> 876
offi cial</w> 875
yee zy</w> 875
双 色</w> 873
mo un 873
da m</w> 873
com for 872
mach ine</w> 872
h k</w> 871
3 c</w> 870
挂 钩</w> 870
夜 光</w> 870
x s 869
灯 具</w> 869
飞 机</w> 869
arm or</w> 869
recharg eable</w> 869
登 山</w> 868
innis free</w> 868
x l 867
修 护</w> 867
te ch</w> 867
cur tain</w> 866
超 大</w> 865
连 线</w> 865
镜 头</w> 864
gam ing</w> 864
s 7</w> 863
le te</w> 863
w on 861
号 :</w> 861
la ure 861
a7 1</w> 861
f 1s</w> 860
粉 底</w> 860
pa wn 860
x e</w> 859
mo s</w> 859
00 2</w> 859
stick ers</w> 859
cti ve</w> 859
c lay</w> 858
colo red</w> 858
fo il</w> 857
sel f</w> 857
托 特</w> 856
it s</w> 856
ch ic</w> 856
butt er 856
chee k</w> 855
t s 854
to m</w> 854
lu tion</w> 854
mi x 854
dre am</w> 854
魔 术</w> 853
兔 子</w> 852
衬 衣</w> 852
ey el 852
long sleeve</w> 852
se i 851
te n</w> 851
p al 850
安全 帽</w> 850
key board</w> 849
swe et</w> 849
cleans er</w> 849
骑 士</w> 848
布 置</w> 848
杂 货</w> 848
pur ple</w> 848
ht c</w> 848
海 报</w> 847
健 康</w> 847
9 8</w> 846
真 品</w> 846
an na</w> 846
y 6</w> 845
手 镯</w> 845
小 学生</w> 845
we dge</w> 845
flas h</w> 845
大 衣</w> 844
航 海</w> 844
数 位</w> 844
订 制</w> 844
ma y 844
6 8 843
v 7</w> 843
太阳 镜</w> 843
外 出</w> 842
6 7 840
m 4 840
k ar 840
生 物</w> 839
bal m</w> 839
真 空</w> 838
head band</w> 838
lay er</w> 838
6 5</w> 837
li ps</w> 837
me ter</w> 837
马 桶</w> 836
wo man</w> 835
9 78 834
s ing</w> 833
u sed</w> 833
h at</w> 832
6 pcs</w> 832
e ts</w> 832
转 卖</w> 832
智 慧</w> 832
prote ction</w> 832
d h 831
w ri 830
点 点</w> 830
pl ate</w> 830
stu d</w> 830
adhe sive</w> 830
安 卓</w> 829
最 新</w> 829
tu mbl 829
衣 物</w> 828
九 分</w> 828
jump er</w> 827
拍 照</w> 826
30 ml</w> 826
we d 826
sc rub</w> 826
-4 5</w> 826
s or</w> 825
思 哲</w> 825
laure n</w> 825
马 仕</w> 824
y our</w> 823
生 儿</w> 823
保 鲜</w> 823
上 市</w> 823
完 美</w> 823
de l</w> 823
5 mm</w> 822
4 1</w> 822
x r 822
三 色</w> 822
over run</w> 822
in fin 821
平底 鞋</w> 821
al ph 820
pur po 820
dra g 820
圣诞 节</w> 820
6 00 819
范 思哲</w> 819
pro du 819
bur ch</w> 819
essen ce</w> 819
遮 阳</w> 818
an e 818
s . 817
彩 绘</w> 817
in f 817
co ol 816
鞋 架</w> 815
落 地 815
un g</w> 815
do wn</w> 815
2 pcs</w> 814
仙 女</w> 814
re o</w> 814
交 叉</w> 813
sh ar 813
me t</w> 813
d en 812
reju ven 812
( 附</w> 811
独 家</w> 811
披 肩</w> 811
fi ber</w> 810
3 / 809
6 3</w> 809
st on</w> 809
j 2 808
b m 808
针 织 808
ro ller</w> 808
000 mah</w> 808
高 端</w> 806
床头 柜</w> 806
发 货</w> 805
神 奇 805
ral ph</w> 805
a 83</w> 804
地 毯</w> 804
短 靴</w> 803
宝 石</w> 803
de co 803
av on</w> 803
p am 802
半 身</w> 801
ko be</w> 801
g t 800
u a</w> 800
海 绵</w> 800
f ai 799
克 风</w> 799
纸 巾</w> 799
变 频</w> 799
sp on 799
brand new</w> 799
w ing</w> 798
at ion 798
po ke 798
4 2 797
超 值</w> 797
se a 797
pa ds</w> 796
body con</w> 796
to mmy</w> 795
f lip</w> 794
几 何</w> 794
隔 断</w> 794
睫 毛</w> 794
bi o 794
for d</w> 794
0 0</w> 793
密 封</w> 793
货 )</w> 793
折 扣</w> 793
ear ring</w> 793
2 50ml</w> 792
g et</w> 792
文 艺</w> 792
草 莓</w> 792
it o</w> 792
ff on</w> 792
洗 衣 791
eye shadow</w> 791
s ses</w> 790
洗 澡</w> 790
foo t</w> 790
v 11</w> 789
松 紧</w> 789
- -</w> 788
n or 788
chi ffon</w> 788
x t</w> 786
ac tion</w> 786
mi s 786
rejuven ating</w> 786
家 庭</w> 785
铅 笔</w> 785
to i 785
普 拉 784
原 价</w> 784
神奇 宝贝</w> 784
z u 783
k et</w> 783
摄 影</w> 783
di aper</w> 783
ty pe 783
o t 782
水 器</w> 782
精 灵</w> 782
sh ion</w> 782
long champ</w> 782
奢 华</w> 781
as t</w> 781
tt i</w> 781
m am 780
麦 克风</w> 780
24 h</w> 780
装饰 画</w> 779
p t 778
e tu 778
立 式</w> 777
am ic</w> 777
y5 3</w> 777
r ack</w> 776
服 饰</w> 776
me sh</w> 776
fe ssi 776
colour pop</w> 776
4 3</w> 775
模 具</w> 775
6 6</w> 773
钢 带</w> 773
直 筒</w> 773
绒 毛</w> 773
5 d</w> 772
d on 772
si s</w> 772
yam aha</w> 772
吸 管</w> 771
g er 770
7 . 770
按 摩 770
-4 0</w> 770
swe ater</w> 770
multi - 770
4 6</w> 769
s so 769
感 应</w> 769
购 买</w> 769
re e 769
se mi</w> 769
th ing</w> 769
customi zed</w> 769
靠 垫</w> 768
so s</w> 768
fol dable</w> 768
c l 767
hal ter</w> 767
h d 766
黄 金</w> 766
推 车</w> 766
tre e</w> 766
pol ka</w> 766
抽 屉</w> 765
科 技</w> 765
f 3</w> 764
n b</w> 763
n ur 763
万 用</w> 763
力 士</w> 763
mar c</w> 763
shi eld</w> 763
7- 11</w> 763
v 9</w> 762
大 型</w> 761
80 0</w> 761
cham pi 761
todd ler</w> 761
se l</w> 760
t su 759
no vo</w> 759
h or 758
雨 伞</w> 758
de li 758
ani mal</w> 758
9 h</w> 757
sp ar 757
m all</w> 756
送 礼</w> 756
cu shion</w> 756
a e 755
glu ta</w> 755
cel l 755
多 肉</w> 754
pho to</w> 754
1 )</w> 753
d es</w> 753
w m 753
英 雄</w> 753
sa fe 753
4 4</w> 752
文 化</w> 752
酒 吧</w> 752
re si 751
gar i</w> 750
h o</w> 749
a 8</w> 748
双 肩</w> 748
种 子</w> 748
普拉 达</w> 748
0 3</w> 747
z a</w> 747
先 生</w> 747
羊 毛</w> 747
co splay</w> 747
de red</w> 747
l ink</w> 746
法 式</w> 746
梦 幻</w> 746
幼 儿 746
a o</w> 745
紧 身</w> 745
mas sa 745
gra phi 745
s k</w> 744
ne o</w> 744
to mi 743
ver a</w> 743
.... .... 743
poke mon</w> 743
门 口</w> 742
数 字</w> 742
设 计 742
re pl 742
bo ss</w> 742
60 ml</w> 742
二手 )</w> 742
etu de</w> 742
8 / 741
u kay</w> 741
k u</w> 741
中 性</w> 741
瑜 伽</w> 741
a h</w> 740
高 级</w> 740
sh ine</w> 740
1/ 2</w> 740
全 身</w> 739
新 娘</w> 739
乐 器</w> 739
fru it</w> 739
deco r</w> 739
v 5</w> 738
基 尼</w> 738
pro fessi 738
sm ith</w> 738
pos able</w> 738
n ar 737
欧 风</w> 737
mul ti</w> 737
pawn able</w> 737
幼儿 园</w> 737
1 a</w> 736
a a 736
器 材</w> 736
恐 龙</w> 736
spe ed</w> 736
立 领</w> 735
款 式</w> 735
st ed</w> 735
办公 桌</w> 735
ni c</w> 734
magne tic</w> 734
dis posable</w> 733
can on</w> 733
开 关</w> 732
ach e</w> 732
p 20</w> 731
tumbl er</w> 731
d on</w> 730
榻 米</w> 730
le ts</w> 730
supp ort</w> 730
under wear</w> 730
capsu les</w> 730
su gar</w> 729
par is</w> 729
2 70</w> 728
n on- 728
拉 拉</w> 728
海 洋</w> 728
ri e</w> 728
ex ten 728
p a</w> 727
榻 榻米</w> 727
co ach 727
tt y</w> 727
l cd</w> 726
发 光</w> 726
价 )</w> 726
隔 热</w> 726
lo t</w> 726
cor d</w> 726
fro zen</w> 726
fac e 726
glu tat 726
super star</w> 726
7 g</w> 725
后 背</w> 725
no v 725
air pods</w> 725
aqu a</w> 725
fl ats</w> 724
her o</w> 724
por t</w> 724
4 a</w> 723
6 8</w> 723
j 4</w> 723
男 子</w> 723
制 作</w> 723
台 北</w> 723
ch ro 723
de cor 723
i p 722
a 6</w> 722
d ata</w> 722
顶 灯</w> 722
第 一</w> 722
固 定</w> 722
el a</w> 722
ss y</w> 722
七 龙 721
er y</w> 721
pu b 721
gra m</w> 721
comp lete</w> 721
pack age</w> 721
fil m</w> 721
3 .5</w> 720
卡 西 720
ur ban</w> 720
100 g</w> 720
note book</w> 720
bv l 720
a 1</w> 719
r o</w> 719
co co</w> 719
hi one</w> 719
洗衣 机</w> 719
精 选</w> 718
东 京</w> 718
or e</w> 718
to ol 718
ag a</w> 718
a5 9</w> 718
s 9</w> 717
7 2</w> 717
工 厂</w> 717
日 常</w> 716
fir st</w> 716
0 - 715
r at 715
gun dam</w> 715
purpo se</w> 715
清 仓</w> 714
1. 5 714
p ull</w> 713
徽 章</w> 713
ac ry 713
sp en 713
strip ed</w> 713
2 i</w> 712
杂 货 712
ord in 712
椰 子</w> 711
no va 711
cu s</w> 711
hal f</w> 711
m us 710
f ami 710
re lla</w> 710
as e</w> 710
tr ans 710
n - 709
香 氛</w> 709
ac er</w> 709
har d 709
professi onal</w> 709
wi ld</w> 708
gi cal</w> 708
bra ke</w> 708
butter fly</w> 708
3 pcs</w> 707
j 6</w> 707
v ap 707
or y</w> 707
bed sheet</w> 707
卡西 欧</w> 707
照 片</w> 706
柠 檬</w> 706
ki e</w> 706
pp y</w> 706
洗发 精</w> 706
9 6</w> 705
h oney</w> 705
u p 705
乳 液</w> 705
武 士</w> 705
le x 705
ex o</w> 705
s 925</w> 704
/ /</w> 704
天 使</w> 704
col d</w> 704
500 g</w> 704
男 性</w> 703
min t</w> 703
pl at 703
t d</w> 702
(全 新)</w> 702
分 装</w> 701
1. 8 701
acry lic</w> 701
t u</w> 700
l ing 700
吸 顶灯</w> 700
ang le</w> 700
war s</w> 700
h a</w> 699
b ig 699
渔 夫</w> 699
500 ml</w> 699
glutat hione</w> 699
七龙 珠</w> 699
2 .5</w> 698
手 动</w> 698
比 基尼</w> 698
fi e</w> 698
sl ing 698
contro l</w> 698
in ter 697
s d 696
s ol 696
( 二手)</w> 696
优 惠 696
保 养</w> 696
涂 鸦</w> 696
ti n</w> 696
1 pc</w> 695
ta g</w> 695
wed ding</w> 695
t an</w> 694
嘻 哈</w> 694
cu tter</w> 694
g ear</w> 693
床 垫</w> 693
电 影</w> 693
ki d 693
( 现货</w> 692
帽 t</w> 692
安 装</w> 692
? ? 692
hy dr 692
o h</w> 691
6 1</w> 691
li d</w> 691
lux xe</w> 691
tomi ca</w> 691
5 9 690
c ed</w> 690
森 林</w> 690
棒 球</w> 690
家 居 690
as onic</w> 690
le mon</w> 690
ro u 690
pe sos</w> 690
手提 袋</w> 690
pon y</w> 690
s er</w> 689
三 角 689
雪 花</w> 689
好 )</w> 689
ang el</w> 689
cal vin</w> 689
tran spa 689
i cs</w> 688
印 章</w> 688
购 入</w> 688
ro se 688
de o</w> 688
12 v</w> 688
champi on</w> 688
f lu 687
墙 壁</w> 687
剪 刀</w> 687
al l 687
sho p 687
bas e 687
inf ant</w> 687
bvl gari</w> 687
simp le</w> 686
w hi 685
un k</w> 685
ati ve</w> 685
igh t</w> 685
针织 衫</w> 685
丽 鸥</w> 684
发 带</w> 684
公 文 684
百 货 684
p an</w> 683
a k</w> 683
帅 气</w> 683
ny lon</w> 683
设计 师</w> 683
包 装 682
指 甲 682
se eds</w> 682
el la</w> 682
ter n</w> 682
s sed</w> 681
震 动</w> 681
sk i</w> 681
螺 丝</w> 680
橡 胶</w> 680
an y</w> 680
5 / 679
min nie</w> 679
fe male</w> 679
transpa rent</w> 679
g / 678
果 冻</w> 678
圣 节</w> 678
携 带</w> 678
en s</w> 678
ri ce</w> 678
who le 678
p airs</w> 677
机 能</w> 677
规 则</w> 677
名 媛</w> 677
交 换</w> 677
写 字</w> 677
10 8</w> 677
gu lar</w> 677
e li 676
美 妆</w> 676
三 件</w> 676
开 发</w> 676
墙 面</w> 676
le novo</w> 676
mi t</w> 676
flo w 676
0 9 675
标 准</w> 675
沥 水</w> 675
se at</w> 675
car a</w> 675
bi t</w> 675
ru ff 675
g l 674
万 圣节</w> 674
良 好)</w> 674
re pli 674
mo del</w> 674
remo ver</w> 674
垃圾 桶</w> 674
1 40 673
耳 针</w> 673
史 努 673
ch et</w> 673
o v 672
e u 672
d or 672
旅行 包</w> 672
wa ve</w> 671
cosme tics</w> 671
ite ms</w> 671
新 生儿</w> 670
游 泳</w> 670
墙 上</w> 670
n on</w> 669
冷 气</w> 669
8 gb</w> 668
小 童</w> 668
田 园</w> 668
le e</w> 668
su e 668
len ci 668
graphi c</w> 668
史努 比</w> 668
( 良好)</w> 667
牛 奶</w> 667
cell phone</w> 667
鸭 舌 666
bo k</w> 666
a re 665
衣 橱</w> 665
高 跟</w> 665
澳 洲</w> 665
秋 装</w> 665
le br 665
kin a</w> 665
mal one</w> 665
rain bow</w> 665
sea led</w> 665
s car 664
b f</w> 664
滋 润</w> 664
10 00 664
de ep</w> 664
公文 包</w> 664
s mi 663
优 选</w> 663
低 筒</w> 663
4 in1</w> 662
7 8</w> 662
单 车</w> 662
st it 662
auto matic</w> 662
鸭舌 帽</w> 662
1 30 661
a ero 661
名 牌</w> 661
vin yl</w> 661
网 布</w> 660
茶 杯</w> 660
毛 孔</w> 660
str ai 660
repli ca</w> 660
t ar 659
吸 水</w> 659
si ble</w> 659
ex tra</w> 659
gri p</w> 659
手 袋</w> 658
劳 力士</w> 658
主 机</w> 658
磁 铁</w> 658
品 )</w> 658
pre st 658
fit s</w> 658
clu tch</w> 658
off shoulder</w> 658
8 . 657
怪 兽</w> 656
店 铺</w> 656
摆 饰</w> 656
car dig 656
-3 xl</w> 656
roy al</w> 656
b ath 655
防 护</w> 655
液 晶</w> 655
re e</w> 655
10 ml</w> 655
mor e</w> 655
clean er</w> 655
a 字</w> 654
高 尔 654
破 洞</w> 654
bi es</w> 654
sc o</w> 654
6 9 653
粉 饼</w> 653
加 长</w> 653
玫 瑰 653
亮 片</w> 653
奶 瓶</w> 653
ste reo</w> 653
micro phone</w> 653
罗 马</w> 652
老 人</w> 652
ja co 652
rac ing</w> 652
人 床</w> 651
时 钟</w> 651
洗 手 651
st er 651
bu cks</w> 651
y ing</w> 650
二 代</w> 650
ath ering</w> 650
16 gb</w> 650
sil k</w> 650
tool s</w> 650
y 71</w> 649
r and 649
大 气</w> 649
垫 子</w> 649
stu ff 649
cm )</w> 649
h air 648
v 11 648
家 家</w> 648
第 二</w> 648
战 士</w> 648
gra de</w> 648
c ab 647
8 00 647
背 景 647
中 文</w> 647
青 春</w> 647
pa int</w> 647
g le</w> 646
drag on</w> 646
t un 645
e va</w> 645
挂 钟</w> 645
降 价</w> 645
预 购)</w> 645
可 调</w> 645
ba lenci 645
( 2</w> 644
po t</w> 644
1 kg</w> 643
g s 643
h - 643
小 姐</w> 643
丝 绒</w> 643
纪 念</w> 643
工 具 643
sp a</w> 643
遮阳 帽</w> 642
ree bok</w> 642
背景 墙</w> 642
香 精</w> 641
in k 641
ch y</w> 641
mi ss</w> 641
car ter</w> 641
ligh ts</w> 641
man go</w> 641
黑 红</w> 640
床 单</w> 640
li ke</w> 640
- c</w> 639
sc ent</w> 639
mari kina</w> 639
r ash 638
小 巧</w> 638
op y</w> 638
220 v</w> 638
小 时</w> 637
婴 幼儿</w> 637
lo r</w> 637
long sleeves</w> 637
onesi e</w> 637
g athering</w> 636
f 11</w> 636
维 尼</w> 636
女 款</w> 635
ra di 635
te red</w> 635
p ly</w> 634
m ani 634
l ac 634
衣 着</w> 634
蜡 烛</w> 634
聊 聊</w> 634
me ga</w> 634
mu sic</w> 634
ky rie</w> 634
read y</w> 634
星 空</w> 633
羽 绒</w> 633
( 含</w> 632
背 景</w> 632
钢 圈</w> 632
花 园</w> 632
制 服</w> 632
简 单</w> 632
摆 设</w> 632
mi d</w> 632
plu sh</w> 632
钥匙 扣</w> 632
lebr on</w> 632
s 10</w> 631
防 弹</w> 631
巴 克</w> 631
as s</w> 631
c ir 630
c lin 630
r ai 630
运 )</w> 630
mu g</w> 630
n al</w> 628
a x 628
a 50</w> 628
st an</w> 628
ki a</w> 628
o g</w> 627
k ing 627
al lo 627
sp ring</w> 627
pe ach</w> 627
legen ds</w> 627
g la 626
欢 迎</w> 626
台 中</w> 626
卸 妆</w> 626
sn ail</w> 626
男 用</w> 625
民 族</w> 625
st and 625
mo on</w> 625
safe ty</w> 625
p o</w> 624
专 辑</w> 624
出 版</w> 624
sun glasses</w> 624
mas ter</w> 624
sue de</w> 624
1 70 623
d w</w> 623
ac id</w> 623
mo tor</w> 623
lux e</w> 623
fami ly</w> 623
4 3 622
版 百</w> 622
询 问</w> 622
mar o 622
sn ap 622
fol ding</w> 622
t ap 621
m oney</w> 621
z o</w> 621
罩 衫</w> 621
邮 差</w> 621
保温 杯</w> 621
moisturi zing</w> 621
8 9 620
蛋 白</w> 620
te en</w> 620
real me</w> 620
c am</w> 619
h dmi</w> 619
音 箱</w> 619
ch er</w> 619
ki es</w> 619
hea vy</w> 619
1 60 618
子 女</w> 618
鳄 鱼</w> 618
t it 617
( 可</w> 617
z ero</w> 617
or o</w> 617
cle an</w> 617
star bucks</w> 617
whole sale</w> 617
imp orted</w> 616
r 1</w> 615
纹 身</w> 615
太 空</w> 615
幸 福</w> 615
bo u 615
机 器 614
附 发</w> 614
零 件</w> 614
ga - 614
sling bag</w> 614
衣 帽 613
门 帘</w> 613
wm ns</w> 613
k ne 612
首 饰</w> 612
v eni 611
总 动 611
sh ell</w> 611
ko j 611
机器 人</w> 611
5. 0</w> 610
color ful</w> 610
指 甲</w> 609
an de 609
be st 609
cro chet</w> 609
fun ction</w> 609
loo se</w> 609
glit ter</w> 609
e q 608
x a</w> 608
拆 封</w> 608
ac le</w> 608
ea t</w> 608
so lar</w> 608
2020 年</w> 608
cross body</w> 608
总动 员</w> 608
in ner</w> 607
re s</w> 607
dre sses</w> 607
c g</w> 606
2 / 605
角 色</w> 605
car bon</w> 605
pas te</w> 605
包 )</w> 604
抽 屉 604
雨 衣</w> 604
屁 衣</w> 604
me tal 604
win do 604
bar bie</w> 604
hang ing</w> 604
sp ace</w> 603
mo ss</w> 603
check ered</w> 603
balenci aga</w> 603
底 座</w> 602
sh ing</w> 602
el le</w> 602
min um</w> 602
siz e 602
thi ck</w> 602
2 50 601
7 9 601
x per 601
sh ape</w> 601
to p 601
wa ys</w> 601
m b</w> 600
挂 式</w> 600
遮 光</w> 600
凝 胶</w> 600
co al</w> 600
bla de</w> 600
e tti</w> 599
in i</w> 599
in -1</w> 599
el ite</w> 599
hi l 599
ap y</w> 599
mas cara</w> 599
va len 599
new born</w> 599
m 6 598
果 汁</w> 598
星 巴克</w> 598
信 封</w> 598
荷 叶</w> 598
to o</w> 598
装 )</w> 597
随 机</w> 597
身 衣</w> 597
re ar</w> 597
al co 597
dr ink</w> 597
8 7</w> 596
n inten 596
维 修</w> 596
茶 壶</w> 596
- 5 595
日 历</w> 595
护 理</w> 595
付 款</w> 595
清 洁 595
镜 面</w> 595
抗 菌</w> 595
p la 594
g )</w> 594
f ur 594
boo ts</w> 594
ag ing</w> 594
pub lic</w> 594
cardig an</w> 594
r on 593
珠 宝</w> 593
可 以</w> 593
co un 593
pand a</w> 593
v11 i</w> 593
修 复</w> 592
gucc i 592
embroi dered</w> 592
抽屉 式</w> 592
4 9</w> 591
v i</w> 591
小 店</w> 591
to u 591
slee p 591
plan ner</w> 591
koj ic</w> 591
ninten do</w> 591
( 全新</w> 590
7 7</w> 590
风 机</w> 590
帐 篷</w> 590
gh ten 590
200 0</w> 590
qui ck</w> 590
alu minum</w> 590
a ya</w> 589
f 1</w> 589
v ir 589
偏 光</w> 589
high waist</w> 589
板 车</w> 588
电 子 588
诱 惑</w> 588
th in</w> 588
stor e</w> 588
e ach</w> 587
v al 587
毛 线</w> 587
壁 灯</w> 587
ion al</w> 587
nur sing</w> 587
吉 他</w> 586
人 鱼</w> 586
5 a</w> 585
杂 志</w> 585
vi o 585
bu il 585
bang le</w> 585
dai ly</w> 585
jan sport</w> 585
球 衣</w> 584
maro on</w> 584
p ig 583
6 2</w> 583
水 龙头</w> 583
st a</w> 583
sili con</w> 583
4 7</w> 582
h am 582
may bel 582
毛 呢</w> 581
功 率</w> 581
pan asonic</w> 581
dis k</w> 581
zi p</w> 581
light ning</w> 581
b i</w> 580
奶 油</w> 580
翡 翠</w> 580
lov e 580
ak i</w> 580
op en</w> 580
tur ban</w> 580
( 黑 579
b n 579
靠 枕</w> 579
for m</w> 579
hel met</w> 579
1. 8</w> 579
jo y</w> 579
ky lie</w> 579
zz le</w> 579
c in 578
t le 578
床 边</w> 578
吸 盘</w> 578
ro o 578
lov es</w> 578
a & 577
r x</w> 577
挂 衣</w> 577
高 领</w> 577
调 节</w> 577
尘 器</w> 577
世 家</w> 577
jo h 577
ml )</w> 577
bre ath 577
flas h 577
jaco bs</w> 577
rand om</w> 577
y i</w> 576
专 卖 576
re l</w> 576
re public</w> 576
el lo</w> 576
pa in 576
c ts</w> 575
头 饰</w> 575
服 装 575
麋 鹿</w> 575
di splay</w> 575
e x</w> 574
高 雄</w> 574
功 夫</w> 574
浴 巾</w> 574
00 3</w> 574
0 7</w> 573
u mb 573
m 号</w> 573
婚 纱</w> 573
se a</w> 573
me li 573
sp ir 573
fl are</w> 573
du ty</w> 573
v ari 572
专 区</w> 572
隔 离</w> 572
ar ache</w> 572
lo w 572
so le</w> 572
lux ury</w> 572
xs max</w> 572
5 30</w> 571
8 2</w> 571
香 风</w> 571
bas ed</w> 571
shi p</w> 571
j ust</w> 570
b v</w> 570
拍 摄</w> 570
c ac 569
胶 囊</w> 569
碳 纤维</w> 569
er e</w> 569
sho wer</w> 569
cosme tic</w> 569
9 2</w> 568
at es</w> 568
no w</w> 568
mar k</w> 568
clas sy</w> 568
lan e 568
sno opy</w> 568
spo on</w> 568
xper ia</w> 568
纪 念 567
微 波 567
prin ts</w> 567
gol den</w> 567
e ver 566
ane se</w> 566
bm w</w> 566
v es</w> 565
方 便</w> 565
精 美</w> 565
直 送</w> 565
离 子</w> 565
萤 光</w> 565
20 ml</w> 565
y9 1</w> 565
花 束</w> 564
牛 津</w> 564
电 镀</w> 564
躺 椅</w> 564
con ce 564
皮 质</w> 563
排 汗</w> 563
cer amic</w> 563
spa gh 563
chro me</w> 563
开 衫</w> 562
sli pper</w> 562
a q 561
双 g</w> 561
电 动 561
po st 561
微波 炉</w> 561
s b</w> 560
s war 560
a 9</w> 560
度 假</w> 560
bo y 560
1. 2</w> 560
旗 舰 559
se as 559
po lish</w> 559
sli mming</w> 559
咖啡 厅</w> 559
服装 店</w> 559
最 爱</w> 558
bo wl</w> 558
lu min 558
so o 558
pre ne</w> 558
ta y 558
por e</w> 558
frien ds</w> 558
打 底 557
次 性</w> 557
oo td</w> 557
午 睡</w> 556
樱 桃</w> 556
y 81</w> 555
j en 555
te e 555
bl an 555
jap anese</w> 555
a 9 554
f au 554
金 刚</w> 554
眼 睛</w> 554
su b 554
l t</w> 553
d le</w> 553
身 体</w> 553
资 料</w> 553
in o 553
201 9 553
a3 9</w> 553
32 gb</w> 553
p es</w> 552
瑞 士</w> 552
聚 拢</w> 552
br acket</w> 552
sn ap</w> 552
stit ch</w> 552
专卖 店</w> 552
m aid</w> 551
克 杯</w> 551
适 合</w> 551
hu arache</w> 551
go wn</w> 551
fla v 551
打底 衫</w> 551
j 1</w> 550
花 边</w> 550
实 体</w> 550
cro cs</w> 550
ll s</w> 550
swar ov 550
公 斤</w> 549
文 胸</w> 549
ma ong</w> 549
con t 549
stre et</w> 548
neo prene</w> 548
联 盟</w> 547
s ke 546
一 次性</w> 546
耳 饰</w> 546
被 套</w> 546
饮 料</w> 546
90 0</w> 546
e h 545
d ani 545
手 工 545
米 花</w> 545
fo cus</w> 545
hel lo 545
dr . 545
n i</w> 544
s 3</w> 544
新 年</w> 544
婴 儿 544
面 交</w> 544
休 闲 544
平 安</w> 544
si m</w> 544
0 4</w> 543
松 糕</w> 543
lo ver</w> 543
free size</w> 543
spagh etti</w> 543
c it 542
花 卉</w> 542
i co 541
a 30</w> 541
手 推车</w> 541
吸 尘器</w> 541
奶 茶</w> 541
平 衡</w> 541
原 版</w> 541
sh ap 541
remo te</w> 541
bag pack</w> 541
maybel line</w> 541
c b 540
ki ss</w> 540
car s</w> 540
pi g</w> 540
we st</w> 540
s ci 539
防 潮</w> 539
fi sh</w> 539
tu tu</w> 539
乡 村</w> 538
ch air</w> 538
ti es</w> 538
wh y</w> 538
cro ptop</w> 538
mag net</w> 538
d as 537
b ble</w> 537
泡 沫</w> 537
! !</w> 537
写 真</w> 537
sh e</w> 537
te c</w> 537
ani me</w> 537
sk y</w> 536
of f- 536
wa x</w> 536
1 30</w> 535
气 球</w> 535
en g</w> 535
ti er</w> 535
cap s</w> 535
自 由</w> 534
ro moss</w> 534
su l 534
pre ss</w> 534
vi s</w> 534
s r 533
s f</w> 533
蜜 蜂</w> 533
被 子</w> 533
爆 米花</w> 533
遥 控 532
ro ll</w> 532
12 - 532
15 ml</w> 532
colle cti 532
s or 531
口 味</w> 531
记 忆</w> 531
补 充</w> 531
乐 园</w> 531
洗 漱</w> 531
铆 钉</w> 531
re ad</w> 531
al er</w> 531
wor k</w> 531
pat tern</w> 531
5 1</w> 530
5 pcs</w> 530
u se 530
花 架</w> 530
大 利</w> 530
明 信 530
电动 车</w> 530
n c</w> 529
男 鞋</w> 529
钟 表</w> 529
in - 529
ac ne</w> 529
ro lex</w> 529
te x</w> 529
swarov ski</w> 529
y ou 528
l i</w> 528
女 用</w> 528
艺 品</w> 528
冠 军</w> 528
sa int</w> 528
旗舰 店</w> 528
e gg</w> 527
桌 上</w> 527
ar ti 527
le tter</w> 527
me d</w> 527
un o</w> 527
10 2</w> 527
bat man</w> 527
alo g</w> 527
8 6</w> 526
野 餐</w> 526
露 背</w> 526
char coal</w> 526
twi ce</w> 526
y er</w> 525
v ape</w> 525
盆 栽</w> 525
偶 像</w> 525
ti re</w> 525
th o 525
mi n</w> 525
5 2</w> 524
k at 524
li es</w> 524
mir acle</w> 524
bt 21</w> 524
2 99</w> 523
桌 布</w> 523
春 装</w> 523
压 花</w> 523
bl ank 523
mat e 523
umb rella</w> 523
m ing</w> 522
v ed</w> 522
用 )</w> 522
she ets</w> 522
dra w 522
明信 片</w> 522
5 4 521
奶 嘴</w> 521
so ck</w> 521
gr and</w> 521
200 ml</w> 521
prote ctive</w> 521
infin ity</w> 521
lane ige</w> 521
blank et</w> 521
o c 520
壁 画</w> 520
ri er</w> 520
tre at 520
y6 9</w> 520
mis sha</w> 520
g d</w> 519
g al 519
y 9</w> 519
7 6</w> 519
vi a</w> 519
bas e</w> 519
mit su 519
eas y</w> 519
g loves</w> 518
t ami 518
综 合</w> 518
pi o</w> 518
pap er 518
c f</w> 517
表 盘</w> 517
an ello</w> 517
ste m</w> 517
v 15</w> 516
黑 灰</w> 516
型 号:</w> 516
白 金</w> 516
一 个</w> 516
缅 甸</w> 516
siz es</w> 516
vit a</w> 516
cloth ing</w> 516
ank le</w> 516
按摩 器</w> 516
打 火 515
脚 架</w> 515
cle ar 515
eq t</w> 515
4 k</w> 514
g ne</w> 514
银 针</w> 514
cro wn</w> 514
fac tory</w> 514
a5 s</w> 514
whe els</w> 514
m -3xl</w> 513
pp er 513
cti onal</w> 513
v s</w> 512
客 订</w> 512
料 理</w> 512
qu art 512
vi sor</w> 512
char ge</w> 512
sk y 512
sleep wear</w> 512
cont act</w> 512
n er 511
空 运</w> 511
au to</w> 511
bea ds</w> 511
p ac 510
三 合一</w> 510
脚 踏 510
+ + 509
k t</w> 509
in ing</w> 509
ri o</w> 509
plu g</w> 509
be e</w> 509
vio let</w> 509
马 甲</w> 508
赛 车</w> 508
酵 素</w> 508
pe el 508
jo y 508
repl ace 508
a 3</w> 507
夹 子</w> 507
特 别</w> 507
天 堂</w> 507
忍 者</w> 507
轻 薄</w> 507
饲 料</w> 507
us er</w> 507
g in 506
装 备</w> 506
图 腾</w> 506
av ent</w> 506
dv d 506
phi lips</w> 506
sou veni 506
h i</w> 505
j 8</w> 505
女 式</w> 505
古 典</w> 505
皮 卡 505
treat ment</w> 505
6 7</w> 504
包 头</w> 504
ti ger</w> 504
spe e 504
a5 7</w> 504
cand le</w> 504
onesi es</w> 504
a 0 503
l d 503
e f 503
x i</w> 503
美 丽</w> 503
大 师</w> 503
灯 饰</w> 503
mon t</w> 503
sneak er</w> 503
ameri can</w> 503
r ain</w> 502
ba mbo 502
be ige</w> 502
sig nature</w> 502
ve st</w> 502
75 ml</w> 502
band ai</w> 502
metal lic</w> 502
quart z</w> 502
souveni r</w> 502
c tr 501
裤 裙</w> 501
c ru 500
s p</w> 500
t us</w> 500
7 3</w> 500
木 制</w> 500
旗 袍</w> 500
ba king</w> 500
wo ven</w> 500
mon ster</w> 500
sand al</w> 500
c ul 499
a . 499
a 10</w> 499
风 水</w> 499
证 件</w> 499
lo ck 499
li pp 499
hoo d</w> 499
化妆 台</w> 499
moi st 499
stuff ed</w> 499
windo w</w> 499
打火 机</w> 499
bambo o</w> 499
re pair</w> 498
du o</w> 498
bri lli 498
allo y</w> 498
4 50</w> 497
p k</w> 497
b ear 497
日 货</w> 497
大 门</w> 497
min e</w> 497
bel l</w> 497
咖啡 色</w> 497
p 30</w> 496
s 5</w> 496
s 1</w> 496
女 表</w> 496
发 箍</w> 496
传 输 496
10 - 496
po cke 496
ul tra 496
v- neck</w> 496
fai ry</w> 496
j ade</w> 495
出 售</w> 495
pat ch</w> 495
rash guard</w> 495
6 9</w> 494
r h 494
f um</w> 494
组 )</w> 494
波 浪</w> 494
10 5</w> 494
gu n</w> 494
type -c</w> 494
花 盆</w> 493
屏 风</w> 493
显 示 493
ta k 493
spi der 493
38 -44</w> 493
moun t</w> 493
kne e</w> 493
breath able</w> 493
replace ment</w> 493
o d</w> 492
工 装</w> 492
杀 价</w> 492
ho w</w> 492
ga mes</w> 492
pc s.</w> 492
tab let</w> 492
c p 491
车 贴</w> 491
e m 491
as t 491
ff y</w> 491
sat in</w> 491
4 / 490
p ush</w> 490
小 屋</w> 490
压 纹</w> 490
室 外</w> 490
tami ya</w> 490
l b 489
k ap 489
十 字</w> 489
bal l 489
8 9</w> 488
0 5</w> 488
s u</w> 488
u . 488
y ear</w> 488
a v</w> 488
温 泉</w> 488
毛 毛</w> 488
清 洗</w> 488
so cket</w> 488
ho l</w> 488
face mask</w> 488
3 50 487
t am 487
大 象</w> 487
脚 踏</w> 487
食 物</w> 487
sh u 487
11 pro</w> 487
blo sso 487
s 号</w> 486
m me</w> 486
d an 486
原 木</w> 486
mo ther</w> 486
smo o 486
978 98 486
g th</w> 485
庭 院</w> 485
an ne</w> 485
to ur</w> 485
ap pro 485
mo squ 485
nu de</w> 485
mer maid</w> 485
dro p</w> 485
c p</w> 484
te ens</w> 484
so lid</w> 484
ear phones</w> 484
ed t</w> 484
皮卡 丘</w> 484
5 3</w> 483
丽 丝</w> 483
bu tter</w> 483
cor te 483
mono gram</w> 483
x 2</w> 482
新 货</w> 482
vi e 482
swe at 482
衣帽 架</w> 482
传输 线</w> 482
o k</w> 481
士 顿</w> 481
签 名</w> 481
re gular</w> 481
par fum</w> 481
2 36 480
t m 480
任 选</w> 480
ans i</w> 480
whe el</w> 480
t g 479
f b</w> 479
f al 479
杂 物</w> 479
ch lo 479
ad a</w> 479
sel fie</w> 479
jump short</w> 479
spon ge</w> 479
家居 服</w> 479
挂 架</w> 478
se ed</w> 478
se ts</w> 478
el f</w> 478
stra w 478
化妆 水</w> 478
连 身衣</w> 477
指 环</w> 477
po ol</w> 477
col lar</w> 477
k ong</w> 476
点 心</w> 476
潜 水</w> 476
wi de</w> 476
out let</w> 476
cer ity</w> 476
base ball</w> 476
5 4</w> 475
y e 475
7 00 475
布 料</w> 475
价 格</w> 475
磁 性</w> 475
老 虎</w> 475
养 生</w> 475
串 珠</w> 475
di a</w> 475
desig ns</w> 475
3 i</w> 474
j ack</w> 474
卡 位</w> 474
转 接</w> 474
an alog</w> 474
ab i 474
fl at 474
fun ctional</w> 474
面 乳</w> 473
bi shi</w> 473
bri ef</w> 473
120 ml</w> 473
lun ch</w> 473
d dr 472
布 包</w> 472
高 脚</w> 472
快 乐</w> 472
荷 叶 472
十 字 472
扮 演</w> 472
消 毒</w> 472
毕 业</w> 472
pl ant</w> 472
9 1</w> 471
g an</w> 471
m d 471
管 理</w> 471
高 温</w> 471
ch i</w> 471
am az 471
no kia</w> 471
gu it 471
lin er</w> 471
ds n</w> 471
tsu m</w> 471
机 器</w> 470
水 保</w> 470
市 多</w> 470
in es</w> 470
te ch 470
荷叶 边</w> 470
( 预购)</w> 469
e mp 469
透 视</w> 469
al a</w> 469
ni ke 469
av eng 469
pas tel</w> 469
体 恤</w> 468
水 机</w> 468
有 线</w> 468
da ys</w> 468
gg age</w> 468
mosqu ito</w> 468
u ter</w> 467
浮 雕</w> 467
on a</w> 467
ro w</w> 467
ni ce</w> 467
fe ed 467
100 pcs</w> 467
stu dio</w> 467
ico nic</w> 467
# 爆 466
接 头</w> 466
午 休</w> 466
拆 洗</w> 466
气 垫 466
把 手</w> 466
da u 466
phi n</w> 466
corte z</w> 466
s ko 465
自 慰</w> 465
免 运</w> 465
24 k</w> 465
sno w</w> 465
hil fig 465
2 )</w> 464
f y</w> 464
灯 泡</w> 464
电 线</w> 464
we e 464
mar y</w> 464
.. ..</w> 464
有 机</w> 463
好 市多</w> 463
to e</w> 463
ki p 463
pp e</w> 463
fan tas 463
alco hol</w> 463
a& f</w> 463
d ea 462
黏 土</w> 462
面 料</w> 462
树 脂</w> 462
me i 462
ra m</w> 462
so lution</w> 462
clu b</w> 462
aveng ers</w> 462
g /</w> 461
f c</w> 461
f ine</w> 461
内 里</w> 461
酒 柜</w> 461
短 袜</w> 460
双 头</w> 460
头 盔</w> 460
托 盘</w> 460
牙 膏</w> 460
滑 鼠</w> 460
car rier</w> 460
pu zzle</w> 460
gar den</w> 460
s 4</w> 459
a me 459
静 电</w> 459
硬 壳</w> 459
烧 烤</w> 459
件 式</w> 459
睡 眠</w> 459
it a</w> 459
bo t</w> 459
cas h</w> 459
hu b</w> 459
pu ff</w> 459
pri vac 459
gen t</w> 459
pad ded</w> 459
draw string</w> 459
o x 458
c la 458
深 蓝色</w> 458
幸 运</w> 458
骷 髅</w> 458
ar i</w> 458
co ver 458
50 pcs</w> 458
pi c</w> 458
19 0 458
mt g</w> 458
vap or 458
hello kitty</w> 458
j et</w> 457
k pop</w> 457
b d 457
书 籍</w> 457
蚊 帐</w> 457
201 8 457
car tri 457
glo ssy</w> 457
p 9</w> 456
r are</w> 456
d ur 456
发 票</w> 456
di c 456
36 -44</w> 456
tri ple</w> 456
win ter</w> 456
won der</w> 456
prest o</w> 456
d ers</w> 455
w et</w> 455
丝 巾</w> 455
加 热</w> 455
豪 华</w> 455
st ation</w> 455
el y</w> 455
ig o</w> 455
yo ung</w> 455
64 g</w> 455
mitsu bishi</w> 455
冰 雪</w> 454
ro ck</w> 454
me mor 454
las er</w> 454
5 8</w> 453
1 50ml</w> 453
钢 笔</w> 453
国 风</w> 453
滑 板车</w> 453
se am 453
ni a</w> 453
pro je 453
hol li 453
meli ssa</w> 453
hilfig er</w> 453
女 友</w> 452
水 管</w> 452
保 险 452
花 花</w> 452
学 步</w> 452
调 料</w> 452
配 方</w> 452
ba ba</w> 452
her o 452
feed ing</w> 452
privac y</w> 452
i ke 451
a 20</w> 451
丝 袜</w> 451
表 演</w> 451
lu ggage</w> 451
ben e 451
foo t 451
5 6</w> 450
1 l</w> 450
施 华 450
64 gb</w> 450
fle x</w> 450
9 3</w> 449
n g</w> 449
e p 449
k on</w> 449
围 裙</w> 449
壁 挂式</w> 449
di spen 449
stor y</w> 449
sal t</w> 449
tay lor</w> 449
k h 448
\ ""</w> 448
ch ers</w> 448
ap pa 448
gu e</w> 448
sli t</w> 448
14 4</w> 448
bas ket</w> 448
太阳 能</w> 448
气垫 鞋</w> 448
2 n 447
g b 447
盒 )</w> 447
ti ff 447
ni ss 447
do m</w> 447
wash i</w> 447
straw berry</w> 447
保 留</w> 446
盘 格</w> 446
防 水 446
蛋 黄</w> 446
缓 震</w> 446
her bal</w> 446
玫瑰 花</w> 446
6 50</w> 445
车 内</w> 445
a g</w> 445
b are</w> 445
水 槽</w> 445
雨 鞋</w> 445
纸 盒</w> 445
棋 盘格</w> 445
li ving</w> 445
se ven 445
bu cket</w> 445
e ffe 444
香 皂</w> 444
耐 用</w> 444
in clu 444
a3 3</w> 444
ry x</w> 444
v ea 443
爱 丽丝</w> 443
外 贸</w> 443
平 角</w> 443
ph p</w> 443
we ight</w> 443
mon o</w> 443
r an 442
当 天</w> 442
薄 荷</w> 442
sp f</w> 442
ben z</w> 442
acti ve</w> 442
mac book</w> 442
t wo 441
f m</w> 441
d al</w> 441
人 气</w> 441
足 球</w> 441
开 口</w> 441
清 爽</w> 441
ho t 441
skin cerity</w> 441
ballo ons</w> 441
stand ard</w> 441
kip ling</w> 441
9 6 440
y u</w> 440
男 孩</w> 440
同 步</w> 440
奇 缘</w> 440
开 叉</w> 440
练 习</w> 440
16 0</w> 440
p m</w> 439
- 00 439
m . 439
me ters</w> 439
sa k 439
op ti 439
a 70</w> 438
j 3</w> 438
b un 438
茶 桌</w> 438
地 板</w> 438
烤 箱</w> 438
玩 具 438
in ci 438
ni es</w> 438
hand made</w> 438
沙发 床</w> 438
5 3 437
4 1 437
d el 437
生 堂</w> 437
头 套</w> 437
电 风扇</w> 437
橱 柜</w> 437
插 座</w> 437
蔬 菜</w> 437
en d</w> 437
hea t</w> 437
bri ght</w> 437
p au 436
d dy</w> 436
v ani 436
b k 436
香 薰</w> 436
ne l</w> 436
tt ing</w> 436
con ta 436
ps 3</w> 436
inst ant</w> 436
4 pcs</w> 435
y ar 435
r 9 435
e sp 435
大 人</w> 435
天 天</w> 435
公 事 435
变 色</w> 435
an e</w> 435
pre ss 435
mp 3</w> 435
ali baba</w> 435
dol phin</w> 435
moist ure</w> 435
dispen ser</w> 435
w an</w> 434
美 人鱼</w> 434
镜 片</w> 434
ch e</w> 434
99 9</w> 434
soo thing</w> 434
guit ar</w> 434
红 酒</w> 433
最 后</w> 433
筷 子</w> 433
am ing</w> 433
bo s 433
10 . 433
de c 433
tt a</w> 433
ori g</w> 433
deli very</w> 433
指甲 油</w> 433
n max</w> 432
入 门</w> 432
升 级</w> 432
古 风</w> 432
资 生堂</w> 432
悟 空</w> 432
le g</w> 432
po ster</w> 432
ck er</w> 432
18 - 432
capsu le</w> 432
pul lover</w> 432
niss an</w> 432
inci pio</w> 432
o ver</w> 431
9 4</w> 431
i 7</w> 431
赫 拉</w> 431
洛 世 431
战 靴</w> 431
el as 431
sp ande 431
ther apy</w> 431
ure s</w> 431
glo ss</w> 431
cartri dge</w> 431
公事 包</w> 431
吃 饭</w> 430
定 做</w> 430
颗 粒</w> 430
pre tty</w> 430
sa le 430
r - 429
绣 花</w> 429
园 艺</w> 429
壁 纸</w> 429
缤 纷</w> 429
at in</w> 429
am y</w> 429
10 6</w> 429
da y 429
fi ll</w> 429
gi t</w> 429
锁 骨</w> 428
re li 428
gh ter</w> 428
gi vea 428
blosso m</w> 428
施华 洛世 428
门 厅</w> 427
\ n 427
闺 蜜</w> 427
bo ho</w> 427
10 k</w> 427
la b</w> 427
14 0</w> 427
spar k 427
memor y</w> 427
粉 红色</w> 426
li on</w> 426
bu lar</w> 426
pe t 426
stu ff</w> 426
len t</w> 426
wash ing</w> 426
vo lu 426
real me 426
ike a</w> 426
spande x</w> 426
5 9</w> 425
1 -3 425
n ai 425
j as 425
黑 金</w> 425
蒂 猫</w> 425
文 字</w> 425
配 饰</w> 425
it em</w> 425
av e 425
tra y</w> 425
tat tered</w> 425
valen tin 425
o pen 424
5 2 424
h un 424
( 不</w> 424
( 已</w> 424
花 纹</w> 424
基 础</w> 424
过 敏</w> 424
议 价</w> 424
en er 424
mi z 424
ta b</w> 424
tu bular</w> 424
appa rel</w> 424
施华洛世 奇</w> 424
脸 盆</w> 423
两 件式</w> 423
认 证</w> 423
-4 6</w> 423
lit er</w> 423
c ent</w> 422
u n</w> 422
线 条</w> 422
晚 宴</w> 422
腮 红</w> 422
雕 花</w> 422
匡 威</w> 422
避 震</w> 422
an as</w> 422
ro she</w> 422
po ly 422
mi di</w> 422
glu e</w> 422
bul b</w> 422
j u</w> 421
b 0 421
棉 衣</w> 421
电 筒</w> 421
城 市</w> 421
lau rent</w> 421
p 10</w> 420
x z 420
k ers</w> 420
魔 鬼</w> 420
购 证</w> 420
洞 洞</w> 420
早 餐</w> 420
近 视</w> 420
故 事</w> 420
au dio</w> 420
mol y</w> 420
杂货 铺</w> 420
spee dy</w> 420
9 00 419
c ling</w> 419
手 柄</w> 419
润 滑</w> 419
转 角</w> 419
买 家</w> 419
怀 旧</w> 419
ti s</w> 419
sc ale</w> 419
ot g</w> 419
橘 色</w> 418
公 升</w> 418
利 浦</w> 418
中 号</w> 418
开 车</w> 418
围 栏</w> 418
in t 418
ar my</w> 418
200 g</w> 418
玻璃 杯</w> 418
vac u 418
h avai 417
棉 裤</w> 417
美 容 417
过 道</w> 417
玻 尿 417
瑜 珈</w> 417
14 k</w> 417
j7 pro</w> 417
tooth paste</w> 417
wri st 417
seam less</w> 417
s ab 416
能 量</w> 416
皇 冠</w> 416
乐 蒂</w> 416
ri es</w> 416
po li 416
bu bble</w> 416
char ms</w> 416
ele ctr 416
chri sti 416
德 玛</w> 415
一 般</w> 415
洗 手</w> 415
第 三</w> 415
泼 水</w> 415
re d 415
sh er</w> 415
and er</w> 415
pe e</w> 415
19 9</w> 415
hoo k</w> 415
tas sel</w> 415
g as</w> 414
( 3</w> 414
d ust</w> 414
机 芯</w> 414
钢 琴</w> 414
美 女</w> 414
飞 利浦</w> 414
co con 414
sty lus</w> 414
stret ch</w> 414
tab lets</w> 414
comb o</w> 414
g ab 413
( 一</w> 413
舒 缓</w> 413
极 致</w> 413
coach 蔻</w> 413
过 滤</w> 412
di e 412
ba bies</w> 412
frien d</w> 412
落地 式</w> 412
玻尿 酸</w> 412
f inger</w> 411
b t</w> 411
大 牌</w> 411
s ni 410
t es</w> 410
( 1</w> 410
f er</w> 410
re act</w> 410
10 g</w> 410
las ting</w> 410
ske chers</w> 410
vacu um</w> 410
7 2 409
d 2</w> 409
b ears</w> 409
自 己</w> 409
火 锅</w> 409
长 条</w> 409
ro t 409
ti l 409
la p</w> 409
ja mes</w> 409
a bo 408
j bl</w> 408
角 质</w> 408
饭 盒</w> 408
寝 室</w> 408
ho li 408
tr y</w> 408
sta y</w> 408
ve lo 408
box er</w> 408
o b 407
g el 407
y . 407
l t 407
福 袋</w> 407
靴 子</w> 407
长 t</w> 407
闹 钟</w> 407
宴 会</w> 407
men ts</w> 407
fu n</w> 407
run ner</w> 407
star ter</w> 407
af for 407
c q 406
c ing</w> 406
a b</w> 406
7 50</w> 406
j a</w> 406
双 耳</w> 406
ol a</w> 406
vi c</w> 406
bi cycle</w> 406
av es</w> 406
15 5</w> 406
24 0</w> 406
pap aya</w> 406
sou l</w> 406
1 st</w> 405
8 6 405
二 合一</w> 405
成 品</w> 405
亚 麻</w> 405
桃 红</w> 405
赠 品</w> 405
mu st 405
smar t 405
cra ft</w> 405
4 x</w> 404
n ity</w> 404
f ire</w> 404
z y 404
x a1</w> 404
龙 猫</w> 404
防 晒 404
pro mo</w> 404
boo k 404
comp uter</w> 404
acti v 404
cocon ut</w> 404
2 40 403
0 4 403
花 瓶</w> 403
宜 家</w> 403
四 件</w> 403
as ics</w> 403
hi - 403
plu s 403
cc a</w> 403
ation s</w> 403
clear ance</w> 403
holli ster</w> 403
i os</w> 402
r on</w> 402
油 画</w> 402
时 光</w> 402
卫 生</w> 402
汤 匙</w> 402
阅 读</w> 402
20 1</w> 402
mat ion</w> 402
clo ck</w> 402
cur ry</w> 402
gy m</w> 402
0 6</w> 401
贴 膜</w> 401
一 送 401
除 臭</w> 401
yo ga</w> 401
l . 400
w d</w> 400
b sco</w> 400
裤 袜</w> 400
茶 叶</w> 400
海 边</w> 400
赛 斯</w> 400
买 一送 400
商 店</w> 400
st ain</w> 400
ch a</w> 400
ti mate</w> 400
us b 400
siz ed</w> 400
30 g</w> 400
massa ge</w> 400
flav or</w> 400
r c</w> 399
卡 龙</w> 399
代 尔</w> 399
mo der 399
de luxe</w> 399
br u 399
ter i 399
cre ative</w> 399
ligh ter</w> 399
for mul 399
swi mming</w> 399
fla ge</w> 399
nov a3 399
1 : 398
t 1</w> 398
女 王</w> 398
plu m</w> 398
sti cks</w> 398
gi ven 398
ban ana</w> 398
sy stem</w> 398
toi lette</w> 398
6 .5</w> 397
y an</w> 397
导 航</w> 397
首 选</w> 397
cam ou 397
4 s</w> 396
c s 396
a a</w> 396
z b 396
超 长</w> 396
全 家</w> 396
彩 妆</w> 396
孩 子</w> 396
线 器</w> 396
空 军</w> 396
秘 密</w> 396
di or 396
min er 396
san disk</w> 396
conce aler</w> 396
2 20</w> 395
水 瓶</w> 395
影 机</w> 395
订 单</w> 395
le af</w> 395
20 cm</w> 395
to my</w> 395
lu x</w> 395
16 8</w> 395
tre me</w> 395
cho co</w> 395
cel ine</w> 395
s ar 394
i - 394
杯 垫</w> 394
薰 衣 394
货 到</w> 394
扶 手</w> 394
dre ss 394
cy cling</w> 394
tren d</w> 394
g 4</w> 393
n b 393
x 1</w> 393
湿 器</w> 393
卷 发</w> 393
雕 刻</w> 393
slee ping</w> 393
ex tr 393
oi ce</w> 393
stra w</w> 393
brilli ant</w> 393
8 4 392
y ard</w> 392
l le</w> 392
豹 纹</w> 392
魅 力</w> 392
围 兜</w> 392
减 震</w> 392
al l- 392
mar mont</w> 392
tri pod</w> 392
lip tint</w> 392
ker atin</w> 392
produ cts</w> 392
3 )</w> 391
f ul 391
棕 色</w> 391
分 体</w> 391
de od 391
4. 0</w> 391
vapor max</w> 391
j 4 390
工 艺</w> 390
电 话</w> 390
好 货</w> 390
锆 石</w> 390
ma z 390
san rio</w> 390
comp act</w> 390
dau ghter</w> 390
p un 389
a 10 389
f t 389
x 3</w> 389
手 电筒</w> 389
护 发</w> 389
汉 服</w> 389
con ne 389
gi o</w> 389
dis c</w> 389
electr onic</w> 389
1 m</w> 388
r 17</w> 388
贴 片</w> 388
过 滤 388
广 告</w> 388
饭 店</w> 388
to mat 388
us able</w> 388
exten sion</w> 388
havai anas</w> 388
formul a</w> 388
5 50</w> 387
万 向</w> 387
风 行</w> 387
密 码</w> 387
泡 茶</w> 387
mo m</w> 387
resi st 387
3 g</w> 386
m 1</w> 386
d r</w> 386
工 艺品</w> 386
雏 菊</w> 386
at o 386
su e</w> 386
12 3</w> 386
gen er 386
ine se</w> 386
ny x</w> 386
脚踏 车</w> 386
- g</w> 385
0 8 385
凉 席</w> 385
光 疗</w> 385
熊 猫</w> 385
clo u 385
cap tain</w> 385
com b</w> 385
bot tom</w> 385
e du 384
亲 节</w> 384
电 磁</w> 384
漆 皮</w> 384
梳 妆</w> 384
po p 384
con ver 384
bas s</w> 384
fr an 384
iphone x</w> 384
ml / 384
y5 5</w> 384
遥控 器</w> 384
h m</w> 383
7 4</w> 383
b el</w> 383
me lo 383
vi e</w> 383
do t</w> 383
shi sei 383
eng lish</w> 383
blen d</w> 383
高尔 夫</w> 383
peel ing</w> 383
眼 线</w> 382
耳 朵</w> 382
独 角 382
ab er 382
head phone</w> 382
der m</w> 382
eri e</w> 382
时 间</w> 381
方 巾</w> 381
仿 古</w> 381
re usable</w> 381
13 5</w> 381
head phones</w> 381
person al</w> 381
1 -2 380
c f 380
g m</w> 380
m t</w> 380
入 耳</w> 380
文 件</w> 380
蜂 蜜</w> 380
指 纹</w> 380
设 备</w> 380
bi ble</w> 380
a3 1</w> 380
薰衣 草</w> 380
s ai 379
达 菲</w> 379
速 发</w> 379
冬 天</w> 379
店 面</w> 379
se n</w> 379
la n</w> 379
pi pe</w> 379
sa w</w> 379
essenti als</w> 379
scar f</w> 379
背 椅</w> 378
b q 378
深 层</w> 378
自 取</w> 378
升 级 378
标 签</w> 378
潘 朵 378
睡 觉</w> 378
ni gh 378
ke ith</w> 378
go pro</w> 378
dri ll</w> 378
sei ko</w> 378
清洁 剂</w> 378
affor dable</w> 378
皇 家</w> 377
出 租</w> 377
in vit 377
le tt 377
le git</w> 377
ch el</w> 377
ri pped</w> 377
bo b</w> 377
mi d 377
cro m 377
j2 prime</w> 377
flow ers</w> 377
万 能</w> 376
淑 女</w> 376
loo k</w> 376
9 4 375
f old</w> 375
k ir 375
b w 375
b us 375
12 8</w> 375
do ve</w> 375
supp lies</w> 375
保温 瓶</w> 375
ameri ca</w> 375
eyel iner</w> 375
独角 兽</w> 375
w ol 374
袜 套</w> 374
香 炉</w> 374
趣 味</w> 374
轻 松</w> 374
ach ing</w> 374
ga me 374
tur tle</w> 374
shisei do</w> 374
n am 373
u 型</w> 373
y 95</w> 373
( 免</w> 373
d ent</w> 373
轻 巧</w> 373
li fe 373
ro pe</w> 373
las h</w> 373
pack aging</w> 373
1.8 m</w> 373
1 18 372
p ti 372
2 xl</w> 372
特 价 372
波 士顿</w> 372
对 称</w> 372
un a</w> 372
lon don</w> 372
hoo ded</w> 372
comfor table</w> 372
sak ura</w> 372
conta iner</w> 372
moder n</w> 372
0 6 371
g shock</w> 371
白 黑</w> 371
时 代</w> 371
平 价</w> 371
到 货</w> 371
pri mer</w> 371
mb o</w> 371
out fit</w> 371
camou flage</w> 371
aber crom 371
y or 370
a 8 370
d ang 370
笑 脸</w> 370
吹 风机</w> 370
买一送 一</w> 370
o live</w> 369
c . 369
a y 369
防 盗</w> 369
书 )</w> 369
拆 卸</w> 369
七 彩</w> 369
鲨 鱼</w> 369
ch inese</w> 369
ma kap 369
su zu 369
vi br 369
优惠 价</w> 369
christi an</w> 369
h g</w> 368
r s 368
l ' 368
j c</w> 368
j s</w> 368
b bit</w> 368
刀 剑</w> 368
温 馨</w> 368
提 单</w> 368
神 奇</w> 368
行 李</w> 368
调 整</w> 368
科 比</w> 368
拼 装</w> 368
墙 纸</w> 368
缎 带</w> 368
淇 淋</w> 368
in der</w> 368
ck le</w> 368
00 4</w> 368
vi sion</w> 368
iphone 7</w> 368
prote ct</w> 368
ken zo</w> 368
chu ck</w> 368
vani lla</w> 368
nova3 i</w> 368
7 4 367
b ac 367
全 球</w> 367
星 际</w> 367
数 据 367
弹 簧</w> 367
re fill</w> 367
car go</w> 367
wel l</w> 367
bott les</w> 367
sko ol</w> 367
5 7</w> 366
l te</w> 366
x und 366
j p 366
j uni 366
大 战</w> 366
净 化</w> 366
密 斯</w> 366
la ven 366
12 . 366
ce i 366
ed p</w> 366
cho ker</w> 366
win d 366
g i</w> 365
d am 365
版 本</w> 365
福 利</w> 365
公 路</w> 365
调 理</w> 365
10 80 365
pl aid</w> 365
dr .</w> 365
swi m</w> 365
工作 服</w> 365
xund d</w> 365
2 50g</w> 364
护 眼</w> 364
刷 卡</w> 364
耐 热</w> 364
商 城</w> 364
蔻 驰</w> 364
it or</w> 364
th ree</w> 364
10 4</w> 364
ul zz 364
t- shirts</w> 364
32 g</w> 364
beau ti 364
500 0</w> 364
fore ver 364
sw eat</w> 364
g t</w> 363
s coo 363
u ri 363
k an 363
风 口</w> 363
sho pee</w> 363
tri bal</w> 363
s- m</w> 363
ine ss</w> 363
produ ct</w> 363
chlo e</w> 363
数据 线</w> 363
m 5 362
m 2 362
m ai 362
z c 362
超 强</w> 362
小 马</w> 362
玛 瑙</w> 362
下 标 362
变 形</w> 362
营 养</w> 362
ra dio</w> 362
cas es</w> 362
man ual</w> 362
fer ra 362
pt cg</w> 362
makap al</w> 362
( 小 361
美 少女</w> 361
皮 面</w> 361
轮 胎</w> 361
colo gne</w> 361
sty lish</w> 361
-0 1</w> 361
nu t</w> 361
kni fe</w> 361
lo l</w> 360
lo gy</w> 360
se le 360
la s</w> 360
tooth brush</w> 360
flash light</w> 360
given chy</w> 360
laven der</w> 360
( 大 359
x / 359
卡 其</w> 359
铁 艺</w> 359
尺 寸 359
me l 359
pu re 359
ve ge 359
ha y</w> 359
hon or</w> 359
comb i</w> 359
. tw</w> 358
套 餐</w> 358
布 丁</w> 358
法 兰 358
? ?</w> 358
企 鹅</w> 358
别 墅</w> 358
le ar 358
ba y 358
cu p 358
flo or</w> 358
iphone 6</w> 358
pack s</w> 358
appro x</w> 358
c m- 357
j - 357
大 码</w> 357
系 统</w> 357
老 板</w> 357
ri p 357
11 / 357
dri ver</w> 357
美 人</w> 356
自 慰 356
加 湿器</w> 356
悠 游</w> 356
史 密斯</w> 356
an as 356
11 5</w> 356
pe an 356
sli de</w> 356
显示 器</w> 356
seven teen</w> 356
tomat o</w> 356
i r</w> 355
型 号</w> 355
老 鼠</w> 355
货 架</w> 355
可 乐</w> 355
绅 士</w> 355
摇 摇</w> 355
co ordin 355
ki eh 355
ju i 355
运动 服</w> 355
fu ji 355
over lap</w> 355
110 v</w> 355
j7 prime</w> 355
ble aching</w> 355
0 7 354
e g 354
男 友</w> 354
b . 354
肤 色</w> 354
海 滩</w> 354
箱 子</w> 354
羽 毛</w> 354
烫 金</w> 354
un ce</w> 354
spor ty</w> 354
har ry</w> 354
c 2</w> 353
s i</w> 353
e ps 353
唇 釉</w> 353
小 舖 353
人 物</w> 353
特 殊</w> 353
姆 斯</w> 353
起 子</w> 353
游 戏 353
尿 布</w> 353
战 斗</w> 353
co ur 353
co me</w> 353
da i</w> 353
blo cks</w> 353
sa fe</w> 353
nor th</w> 353
3 1 352
3 16</w> 352
s f 352
b new</w> 352
活 力</w> 352
耳 坠</w> 352
黄 铜</w> 352
隔 板</w> 352
in di 352
ra bbit</w> 352
do ts</w> 352
-3 9</w> 352
bre ak 352
vol . 352
2 a</w> 351
0 9</w> 351
s ach 351
m 2</w> 351
r gb</w> 351
d f 351
j un 351
凉 感</w> 351
闪 电</w> 351
淋 浴</w> 351
th y</w> 351
nu mber</w> 351
法兰 绒</w> 351
g * 350
枕 套</w> 350
飞 行 350
台 南</w> 350
wat ches</w> 350
ssi l</w> 350
comb in 350
strai ght</w> 350
spider man</w> 350
suzu ki</w> 350
n ak 349
y 17</w> 349
j ar</w> 349
二 手书</w> 349
貔 貅</w> 349
宫 廷</w> 349
st ic</w> 349
de sk 349
pe el</w> 349
sen se</w> 349
tru e</w> 349
i x</w> 348
k not</w> 348
盘 子</w> 348
播 放 348
名 片 348
ma gical</w> 348
80 g</w> 348
ash a</w> 348
8 7 347
t n 347
z ak 347
后 现代</w> 347
强 化</w> 347
双 人床</w> 347
网 路</w> 347
安 抚</w> 347
re ct 347
as p 347
ma y</w> 347
br on 347
ad ven 347
cro pped</w> 347
decor ation</w> 347
潘朵 拉</w> 347
c i</w> 346
k t 346
茶 店</w> 346
大 学生</w> 346
防 爆</w> 346
脚 垫</w> 346
产 品</w> 346
in et</w> 346
in flat 346
di sh</w> 346
vie w</w> 346
i que</w> 345
e th 345
k l 345
防 震</w> 345
会 议</w> 345
ap ri 345
so phi 345
fo ssil</w> 345
ht p</w> 345
h b 344
a 20 344
月 亮</w> 344
靠 背椅</w> 344
踏 板</w> 344
er as 344
me lon</w> 344
el li 344
pre ci 344
ing er 344
spf 50</w> 344
ling ton</w> 344
ster ling</w> 344
inflat able</w> 344
i e</w> 343
d unk</w> 343
茶 盘</w> 343
用 具</w> 343
卡 娜</w> 343
上 架</w> 343
意 大利</w> 343
真 丝</w> 343
仇 者</w> 343
so und</w> 343
15 . 343
iphone 11</w> 343
gg le</w> 343
美容 院</w> 343
9 7 342
p el 342
a j</w> 342
b u</w> 342
自 制</w> 342
乳 胶</w> 342
极 度</w> 342
鱼 尾</w> 342
雷 射</w> 342
窗 户</w> 342
st amp</w> 342
mi di 342
201 7 342
per i 342
cel l</w> 342
57 4</w> 342
n ano</w> 341
s sion</w> 341
j ack 341
眼 镜 341
马 达</w> 341
大 小</w> 341
春 秋季</w> 341
婚 庆</w> 341
洗 车</w> 341
游 泳衣</w> 341
sun nies</w> 341
dri fit</w> 341
ben ch</w> 341
dh c</w> 341
头 发</w> 340
耳 塞</w> 340
毛 毯</w> 340
as a</w> 340
le a 340
ul timate</w> 340
gu i 340
dic kies</w> 340
2 10</w> 339
g ig 339
y e</w> 339
a y</w> 339
r ush</w> 339
x 9</w> 339
d m 339
机 油</w> 339
k es</w> 339
复 仇者</w> 339
新 版</w> 339
精 品 339
\ \ 339
珊 瑚</w> 339
走 廊</w> 339
蚕 丝</w> 339
de sk</w> 339
ad v</w> 339
8 4</w> 338
z z</w> 338
e co 338
超 高</w> 338
电 玩</w> 338
纱 裙</w> 338
扳 手</w> 338
ar ts</w> 338
li a</w> 338
cas t</w> 338
de cal</w> 338
sat chel</w> 338
forever 21</w> 338
ferra gam 338
o mega</w> 337
c lar 337
3 20 337
中 古</w> 337
下 摆</w> 337
仓 库</w> 337
ad van 337
note 8</w> 337
m- xxl</w> 337
gri ll</w> 337
contro ller</w> 337
clean ing</w> 337
baby -g</w> 337
blen der</w> 337
本 田</w> 336
笔 记</w> 336
袋 子</w> 336
草 本</w> 336
微 型</w> 336
sh in 336
ulzz ang</w> 336
9 / 335
一 体 335
杀 菌</w> 335
可 穿</w> 335
最 低价</w> 335
爆 款</w> 335
di al</w> 335
ri ch</w> 335
wi red</w> 335
pu ri 335
gen tle</w> 335
sau ce</w> 335
y9 1 335
bath room</w> 335
n ed</w> 334
n ame</w> 334
小 汽车</w> 334
水 滴</w> 334
加 肥</w> 334
皮 包</w> 334
选 择</w> 334
低 音</w> 334
st ea 334
po tter</w> 334
hi m</w> 334
de vi 334
fre sh 334
gar teri 334
迪士 尼 334
mus cle</w> 334
rose gold</w> 334
deod or 334
s an</w> 333
e u</w> 333
k k 333
花 洒</w> 333
替 换</w> 333
si a</w> 333
10 3</w> 333
ma ker</w> 333
go d</w> 333
床头 灯</w> 333
massa ger</w> 333
cab inet</w> 333
valentin o</w> 333
o t</w> 332
m un 332
小 小 332
葡 萄 332
满 额</w> 332
分 类</w> 332
清 净</w> 332
mi cs</w> 332
us sy</w> 332
ab sor 332
for k</w> 332
tra vel 332
hy un 332
high - 332
loo p</w> 332
wri st</w> 332
melo dy</w> 332
0 8</w> 331
n an 331
s 2</w> 331
s ac 331
i sh 331
. 5 331
d b 331
w as 331
宝 蓝</w> 331
" " 331
老 师</w> 331
闪 亮</w> 331
甜 心</w> 331
en ce</w> 331
ch opp 331
da vi 331
au th</w> 331
12 8gb</w> 331
ey es</w> 331
ash ley</w> 331
ordin ary</w> 331
z el</w> 330
网 眼</w> 330
情 人</w> 330
板 鞋</w> 330
压 器</w> 330
钓 具</w> 330
负 离子</w> 330
me i</w> 330
lov ely</w> 330
mat er 330
par t</w> 330
micro fiber</w> 330
yor k</w> 330
a 6 329
e mer 329
元 素</w> 329
录 音</w> 329
陀 螺</w> 329
le aves</w> 329
po in 329
bu y 329
hy per 329
sur gical</w> 329
升级 版</w> 329
s in 328
r 11</w> 328
e co</w> 328
用 途</w> 328
护 栏</w> 328
@ 新品</w> 328
换 器</w> 328
未 来</w> 328
re f</w> 328
se qu 328
te le 328
tr ac 328
ag e 328
squ are 328
s w</w> 327
家 族</w> 327
毛 帽</w> 327
数 码</w> 327
整 套</w> 327
冷 热</w> 327
职 业</w> 327
ti que</w> 327
201 4</w> 327
sho ppe</w> 327
00 7</w> 327
hy bri 327
high lighter</w> 327
rh ine 327
236 ml</w> 327
5 20</w> 326
s cu 326
a 50 326
葡 萄</w> 326
调 味</w> 326
任 天堂</w> 326
兄 弟</w> 326
繁 体</w> 326
me ssen 326
no se</w> 326
fig h 326
smoo th</w> 326
tiff any</w> 326
sach et</w> 326
deodor ant</w> 326
g 21</w> 325
q 版</w> 325
宝 马</w> 325
灰 白</w> 325
外 壳</w> 325
内 饰</w> 325
ro bot</w> 325
cu be</w> 325
mon key</w> 325
yu an 325
ghten ing</w> 325
fantas y</w> 325
volu me</w> 325
i ri 324
好 看</w> 324
显 示</w> 324
hu midi 324
fu r</w> 324
elas tic</w> 324
9 .5</w> 323
0 3 323
e ver</w> 323
d d</w> 323
视 镜</w> 323
ligh ten</w> 323
her sch 323
rain coat</w> 323
w ren 322
筒 袜</w> 322
蓝 )</w> 322
亚 克力</w> 322
迷 妳</w> 322
吸 湿</w> 322
米 色</w> 322
原 子 322
刻 字</w> 322
co co 322
ne on</w> 322
ni kon</w> 322
car tier</w> 322
mat eri 322
mb er 322
eye glasses</w> 322
star s</w> 322
冰 淇淋</w> 321
脸 部</w> 321
型 )</w> 321
丝 光</w> 321
凤 梨</w> 321
熊 熊</w> 321
丰 田</w> 321
co m</w> 321
po int</w> 321
oi d</w> 321
cli ps</w> 321
custo m</w> 321
hang er</w> 321
scen ted</w> 321
g k</w> 320
h old</w> 320
a lex 320
马 克</w> 320
纸 袋</w> 320
桃 园</w> 320
便 利</w> 320
原 味</w> 320
压 缩</w> 320
慵 懒</w> 320
15 - 320
yo ur 320
ser t</w> 320
head light</w> 320
supp le 320
hersch el</w> 320
f ury</w> 319
d c 319
k no 319
爱 马仕</w> 319
布 袋</w> 319
圆 桌</w> 319
传 说</w> 319
编 号</w> 319
楼 梯</w> 319
fre n 319
sun flower</w> 319
36 5</w> 319
ca re 319
wel lington</w> 319
o . 318
g p</w> 318
e . 318
超 级 318
超 市</w> 318
w in</w> 318
封 口</w> 318
合 身</w> 318
鱼 缸</w> 318
琉 璃</w> 318
秋 冬季</w> 318
bo he 318
sig n</w> 318
pri me 318
a3 5</w> 318
ban ner</w> 318
c ali 317
8 .5</w> 317
0 2 317
n in 317
m )</w> 317
m 10</w> 317
l c</w> 317
l x</w> 317
l and 317
z 1</w> 317
无 限</w> 317
图 书</w> 317
火 爆</w> 317
专 卖</w> 317
教 学</w> 317
支 撑</w> 317
蜘 蛛 317
al mon 317
10 7</w> 317
ck en</w> 317
00 5</w> 317
00 6</w> 317
pre ssed</w> 317
az tec</w> 317
legen d</w> 317
heal th</w> 317
ever y 317
休闲 椅</w> 317
hyun dai</w> 317
messen ger</w> 317
原子 笔</w> 317
s ki 316
r ash</w> 316
马 丁</w> 316
微 笑</w> 316
早 春</w> 316
ap i 316
30 s</w> 316
-0 10</w> 316
super man</w> 316
lv 包包</w> 316
extr act</w> 316
j 5 315
k 10</w> 315
白 )</w> 315
胸 针</w> 315
高 中</w> 315
ba hay</w> 315
te x 315
ul tr 315
flo p</w> 315
play er</w> 315
under arm</w> 315
humidi fier</w> 315
c ele 314
g es</w> 314
n it 314
3 60 314
s 8 314
v r</w> 314
茶 道</w> 314
发 器</w> 314
满 天 314
阳 光</w> 314
on i 314
bo w 314
bi e 314
wi pes</w> 314
mas ks</w> 314
fit ch</w> 314
5 50 313
e k 313
素 t</w> 313
木 工</w> 313
奶 粉</w> 313
方 包</w> 313
lo we 313
ho se</w> 313
ct ure</w> 313
tu al</w> 313
jo ur 313
1- 2</w> 313
hybri d</w> 313
1 12 312
y 15</w> 312
t -</w> 312
l )</w> 312
w u</w> 312
红 茶</w> 312
水 果 312
特 大</w> 312
爱 情</w> 312
防 雨</w> 312
出 清 312
哺 乳</w> 312
se e</w> 312
th r 312
vi deo</w> 312
折叠 桌</w> 312
eyel ash</w> 312
aero x</w> 312
- up</w> 311
7 .5</w> 311
手 把</w> 311
绿 茶</w> 311
三 星 311
春 夏</w> 311
书 店</w> 311
联 系</w> 311
pan el</w> 311
pe pp 311
boo ster</w> 311
wal ker</w> 311
play station</w> 311
cool er</w> 311
bos ch</w> 311
desk top</w> 311
o ce 310
- fit</w> 310
0 .5</w> 310
k ai 310
女 子</w> 310
六 角</w> 310
无 毒</w> 310
护 肤 310
老 年</w> 310
学 园</w> 310
免 费</w> 310
插 头</w> 310
re fle 310
sh ade</w> 310
ch al 310
ch ron 310
li li 310
ti s 310
ri de</w> 310
ni s</w> 310
cu ps</w> 310
hel d</w> 310
bea t</w> 310
cup cake</w> 310
o - 309
1 50g</w> 309
0 1 309
i de 309
( 大</w> 309
d k 309
) ,</w> 309
辅 助</w> 309
ch ang 309
mi a</w> 309
sp lus</w> 309
bu ds</w> 309
phi lipp 309
vo lution</w> 309
wren ch</w> 309
t f 308
r x 308
棉 花 308
保 罗</w> 308
收 缩</w> 308
烤 盘</w> 308
便 器</w> 308
唯 美</w> 308
纱 布</w> 308
项 圈</w> 308
伴 娘</w> 308
adi das 308
16 g</w> 308
y ang</w> 307
螺 丝 307
杀 价 307
耐 高温</w> 307
批 发 307
st am 307
cor ner</w> 307
super dry</w> 307
multi functional</w> 307
cost co</w> 307
miz uno</w> 307
invit ation</w> 307
coordin ates</w> 307
mater nity</w> 307
满天 星</w> 307
5 in1</w> 306
z x 306
k en</w> 306
版 潮</w> 306
& m</w> 306
星 球</w> 306
代 购 306
制 化</w> 306
韩 妞</w> 306
面 板</w> 306
激 光</w> 306
可 可</w> 306
ba k 306
10 / 306
tas ia</w> 306
snap back</w> 306
pau l</w> 306
1 200</w> 305
- 100</w> 305
y 7 305
红 外线</w> 305
棉 t</w> 305
钢 铁</w> 305
主 播</w> 305
物 柜</w> 305
武 器</w> 305
宇 宙</w> 305
co p 305
co ck 305
at ure</w> 305
ro man 305
am ansi</w> 305
so fi 305
ing o</w> 305
ex treme</w> 305
wal k</w> 305
ton y</w> 305
pack ed</w> 305
bra lette</w> 305
ther mal</w> 305
2 30</w> 304
( 全</w> 304
d f</w> 304
香 蕉</w> 304
代 步</w> 304
单 人床</w> 304
滋 养</w> 304
der y</w> 304
alph a</w> 304
nova 2i</w> 304
n ine</w> 303
t c</w> 303
t f</w> 303
i 8</w> 303
男 式</w> 303
圆 盘</w> 303
前 后</w> 303
摄 像 303
do gs</w> 303
2. 4a</w> 303
ge or 303
cos rx</w> 303
yuan r 303
8 3 302
8 mm</w> 302
d ash 302
男 表</w> 302
克 斯</w> 302
茶 花</w> 302
温 和</w> 302
中 )</w> 302
蝙 蝠</w> 302
轨 道</w> 302
vi vi 302
cur ler</w> 302
洗手 间</w> 302
clin ique</w> 302
1 500</w> 301
s j 301
m h 301
a way</w> 301
l 号</w> 301
x 5</w> 301
实 战</w> 301
边 框</w> 301
面 霜</w> 301
绒 布</w> 301
稀 有</w> 301
舞 台</w> 301
ne xt</w> 301
mi an</w> 301
sk ater</w> 301
fit ness</w> 301
bir ken 301
ple ated</w> 301
pam bahay</w> 301
nai ls</w> 301
n ac</w> 300
i o 300
a w 300
l or 300
e z</w> 300
k as 300
景 观</w> 300
领 带</w> 300
电 压</w> 300
码 :</w> 300
请 勿</w> 300
co mics</w> 300
de si 300
12 8g</w> 300
sam ple</w> 300
op ard</w> 300
remo val</w> 300
百货 店</w> 300
c g 299
q q</w> 299
m j</w> 299
k k</w> 299
奇 迹</w> 299
摇 滚</w> 299
lo ft</w> 299
mi u</w> 299
wat ts</w> 299
ex p 299
len gth</w> 299
fin i 299
ms .</w> 299
gol f</w> 299
photo card</w> 299
l ate 298
z u</w> 298
# 爆</w> 298
小 小</w> 298
万 代</w> 298
毛 巾 298
毛 膏</w> 298
洽 谈</w> 298
ab s</w> 298
gu ar 298
sun screen</w> 298
char les</w> 298
1. 2 298
anas tasia</w> 298
g at 297
m me 297
a 4 297
拍 卖</w> 297
方 块</w> 297
肌 肤</w> 297
内 外</w> 297
卖 场 297
sp y</w> 297
ven e 297
120 g</w> 297
下标 )</w> 297
m n</w> 296
a x</w> 296
w anna</w> 296
女 人</w> 296
标 志</w> 296
牛 皮 296
st ru 296
201 6 296
ph y 296
50 1</w> 296
ho use 296
she er</w> 296
dy e</w> 296
pocke ts</w> 296
beauti ful</w> 296
h co</w> 295
m old</w> 295
f ying</w> 295
人 体</w> 295
co mm 295
le n</w> 295
sho t</w> 295
chi a</w> 295
tra ining</w> 295
1- 3</w> 295
bre ak</w> 295
san iti 295
miner al</w> 295
s 7 294
m n 294
m ang 294
k al 294
保 健</w> 294
儿 童 294
指 定</w> 294
散 热</w> 294
牙 音</w> 294
可 移动</w> 294
软 糖</w> 294
别 针</w> 294
aj 1</w> 294
hydr ating</w> 294
resist ant</w> 294
bus iness</w> 294
eps on</w> 294
n 1</w> 293
s )</w> 293
z 5</w> 293
d ash</w> 293
人 生</w> 293
三 丽鸥</w> 293
防 寒</w> 293
照 明</w> 293
las t</w> 293
gr an 293
two - 293
dang ling</w> 293
3 d 292
手 感</w> 292
贴 画</w> 292
大 灯</w> 292
防 臭</w> 292
传 统</w> 292
面 纸</w> 292
直 邮</w> 292
鼠 标</w> 292
fl am 292
保护 膜</w> 292
whit e 292
sy n 292
rat tan</w> 292
5 20 291
n p 291
鞋 套</w> 291
工 程</w> 291
话 筒</w> 291
方 向 291
win d</w> 291
bir d</w> 291
adul ts</w> 291
pre- order</w> 291
cen tr 291
cir cle</w> 291
pain ting</w> 291
edu cat 291
bohe mian</w> 291
o sh 290
鞋 垫</w> 290
黑 头</w> 290
加 强</w> 290
中 型</w> 290
书 本</w> 290
橡 皮 290
mo to 290
bu mper</w> 290
gar lic</w> 290
shad es</w> 290
婴儿 床</w> 290
yuanr oro</w> 290
s and</w> 289
r ing 289
台 制</w> 289
re - 289
ki lo</w> 289
40 g</w> 289
back less</w> 289
hear ts</w> 289
cli ck</w> 289
black pink</w> 289
goo d 289
trans for 289
pac i 289
sweat shirt</w> 289
amaz ing</w> 289
方向 盘</w> 289
- 2</w> 288
强 光</w> 288
海 军</w> 288
丸 子</w> 288
刺 激</w> 288
物 语</w> 288
羊 绒</w> 288
质 量</w> 288
鸡 肉</w> 288
场 景</w> 288
南 瓜</w> 288
写 字 288
li ly</w> 288
plu s/ 288
tr ack</w> 288
bal an 288
sleev ed</w> 288
2. 5 288
wor k 288
perfu mes</w> 288
2019 年</w> 288
#爆 品</w> 288
- 6 287
y 85</w> 287
m erry</w> 287
v 5s</w> 287
猫 头 287
胸 罩</w> 287
高 速</w> 287
织 带</w> 287
选 )</w> 287
校 园</w> 287
毫 安</w> 287
ho le</w> 287
che st</w> 287
shi ba</w> 287
tw in</w> 287
游戏 机</w> 287
nak ed</w> 287
supple ment</w> 287
o li 286
x x</w> 286
红 包</w> 286
水 族</w> 286
大 全</w> 286
节 能</w> 286
玉 石</w> 286
宾 士</w> 286
喷 头</w> 286
拿 大</w> 286
扫 地</w> 286
in sul 286
re ver 286
st ussy</w> 286
li zer</w> 286
ko sh</w> 286
br e</w> 286
mon itor</w> 286
cra y 286
300 ml</w> 286
cool ing</w> 286
joh n 286
a10 s</w> 286
名片 夹</w> 286
educat ional</w> 286
1 ml</w> 285
2 -3 285
3 w</w> 285
a 2</w> 285
f ar 285
后 视镜</w> 285
k d</w> 285
母 亲节</w> 285
木 头</w> 285
瘦 身</w> 285
as se 285
on y</w> 285
par ts</w> 285
ass i</w> 285
cap ac 285
bre ast</w> 285
bou tique</w> 285
e c 284
d ell</w> 284
马 车</w> 284
梵 希</w> 284
影 音</w> 284
舞 蹈</w> 284
lo tte</w> 284
hi l</w> 284
per s</w> 284
ss d</w> 284
chi cken</w> 284
flo ps</w> 284
buil ding</w> 284
bun ny</w> 284
bru sh 284
i ve</w> 283
z a 283
x 10</w> 283
* * 283
大 头</w> 283
加 拿大</w> 283
颈 椎</w> 283
蜡 笔 283
浓 缩</w> 283
循 环</w> 283
se al</w> 283
di ff 283
bi b</w> 283
12 5 283
sc rip 283
lun a</w> 283
沙发 套</w> 283
smi ggle</w> 283
6 50 282
y 7</w> 282
f l</w> 282
f our</w> 282
x 6</w> 282
日 记</w> 282
发 乳</w> 282
低 音 282
约 会</w> 282
sh er 282
pe g 282
bot te 282
sof a</w> 282
hero es</w> 282
juni or</w> 282
2 60 281
同 款</w> 281
特 级</w> 281
尼 尔</w> 281
过 膝</w> 281
华 丽</w> 281
厨 师</w> 281
re n</w> 281
le opard</w> 281
mar ble</w> 281
pu t</w> 281
hand held</w> 281
body suit</w> 281
fa ke</w> 281
comfor t</w> 281
洗手 盆</w> 281
reli ef</w> 281
givea ways</w> 281
ener gy</w> 281
fren ch</w> 281
o o</w> 280
q s</w> 280
t . 280
k tv</w> 280
k elly</w> 280
客 服</w> 280
潮 牌</w> 280
珠 光</w> 280
磁 吸</w> 280
典 雅</w> 280
拖 把</w> 280
di sh 280
mo u 280
su its</w> 280
ex clu 280
pas sport</w> 280
in- ear</w> 280
写字 台</w> 280
日 期</w> 279
小 新</w> 279
金 链</w> 279
出 口</w> 279
售 )</w> 279
le d 279
20 g</w> 279
pri se</w> 279
sof t 279
fau x</w> 279
1080 p</w> 279
lowe en</w> 279
蜡笔 小新</w> 279
低音 炮</w> 279
p t</w> 278
3 30</w> 278
钛 钢</w> 278
i pad 278
l at 278
x 4</w> 278
d x</w> 278
j in</w> 278
超 亮</w> 278
欢 乐</w> 278
公 克</w> 278
中 心</w> 278
饭 桌</w> 278
电 热</w> 278
绝 对</w> 278
st le</w> 278
10 9</w> 278
ne u 278
cc o</w> 278
cam i</w> 278
press ure</w> 278
车 身</w> 277
m als</w> 277
r . 277
野 营</w> 277
猫 窝</w> 277
春 夏季</w> 277
中 华</w> 277
实 木</w> 277
草 帽</w> 277
越 野</w> 277
10 000</w> 277
hi p</w> 277
ad o</w> 277
11 1</w> 277
organi cs</w> 277
mani la</w> 277
paper back</w> 277
播放 器</w> 277
4 .5</w> 276
m / 276
m and 276
7 50 276
雅 诗 276
餐 盒</w> 276
古 装</w> 276
头 皮</w> 276
兰 黛</w> 276
泡 面</w> 276
飞 行</w> 276
首 饰 276
in fe 276
an y 276
ab e 276
car ters</w> 276
chan el 276
stick y</w> 276
fit ted</w> 276
the ft</w> 276
y5 1</w> 276
tai wan</w> 276
o p</w> 275
2 80</w> 275
s c</w> 275
s av 275
i ma 275
7 p</w> 275
生 活 275
套 筒</w> 275
裤 带</w> 275
转 换器</w> 275
玉 米</w> 275
片 )</w> 275
20 000mah</w> 275
ri ght</w> 275
ce tap 275
supp ly</w> 275
play boy</w> 275
af 1</w> 275
joh n</w> 275
雅诗 兰黛</w> 275
首饰 盒</w> 275
o z 274
- 1 274
n es</w> 274
床 罩</w> 274
号 )</w> 274
闪 光</w> 274
辐 射</w> 274
si an</w> 274
mo sch 274
de to 274
de ter 274
de gre 274
and a</w> 274
tt le</w> 274
no od 274
fo li 274
tri mmer</w> 274
cam ping</w> 274
over sized</w> 274
45 cm</w> 274
spon ge 274
sub li 274
g in</w> 273
( 台湾</w> 273
恒 温</w> 273
实 物</w> 273
单 )</w> 273
惊 喜</w> 273
an i</w> 273
ki mono</w> 273
go t 273
dri -fit</w> 273
coo ker</w> 273
val ve</w> 273
猫头 鹰</w> 273
4 d</w> 272
g sm</w> 272
3 20</w> 272
a 货</w> 272
k d 272
v ga</w> 272
水 波</w> 272
海 鸥</w> 272
胶 水</w> 272
高 压</w> 272
科 学</w> 272
at h</w> 272
ri se</w> 272
201 2</w> 272
cra f 272
1.5 m</w> 272
(黑 )</w> 272
- o</w> 271
( 4</w> 271
m f 271
f av 271
冰 鞋</w> 271
花 茶</w> 271
大 方</w> 271
订 )</w> 271
平 光</w> 271
叮 当</w> 271
en velo 271
de t 271
gi e</w> 271
pen s</w> 271
gg ing</w> 271
ther mo 271
mix ed</w> 271
lear ning</w> 271
cetap hil</w> 271
- c 270
t l 270
r r 270
. 00</w> 270
) )</w> 270
妹 妹</w> 270
in sta 270
wo c</w> 270
sk ir 270
slee p</w> 270
colo ur</w> 270
shap ed</w> 270
pepp a</w> 270
4 gb</w> 269
s 10 269
( 有</w> 269
超 低价</w> 269
w ings</w> 269
雨 靴</w> 269
中 筒</w> 269
四 轮</w> 269
低 腰</w> 269
鹦 鹉</w> 269
in tel</w> 269
an th 269
re no</w> 269
se mi 269
ri ck</w> 269
dre am 269
be ach 269
av en 269
gi or 269
sli me</w> 269
ste p</w> 269
ben assi</w> 269
hal loween</w> 269
roo ts</w> 269
dec als</w> 269
rhine stone</w> 269
rever sible</w> 269
exclu sive</w> 269
m ur 268
m um</w> 268
d . 268
~ ~ 268
专 利</w> 268
co le</w> 268
as si 268
ch ing</w> 268
sp ro 268
fi c</w> 268
ben to</w> 268
高尔 夫 268
seas on</w> 268
ball pen</w> 268
n on 267
m sm 267
超 轻量</w> 267
奇 奇 267
下 杀</w> 267
西 米</w> 267
售 出</w> 267
虎 头</w> 267
to kong</w> 267
ti p</w> 267
00 8</w> 267
be at 267
sam e</w> 267
tra iner</w> 267
ten t</w> 267
ali ce</w> 267
multi color</w> 267
y6 7</w> 267
cen ter</w> 267
kid die</w> 267
o me 266
y un 266
m ala 266
r 9</w> 266
f ate</w> 266
袋 装</w> 266
鱼 竿</w> 266
蜜 桃</w> 266
蝙 蝠 266
店 )</w> 266
跳 跳</w> 266
to y 266
te am</w> 266
17 0</w> 266
sto ck 266
lin ing</w> 266
m- xx 266
coo kie</w> 266
h s- 265
q c 265
r inger</w> 265
b it 265
维 他 265
热 卖 265
分 离 265
收 腹</w> 265
航 空</w> 265
三 脚架</w> 265
干 湿</w> 265
视 频</w> 265
出 版 265
fe min 265
nat ional</w> 265
tri c</w> 265
com fy</w> 265
moisturi zer</w> 265
tak ara</w> 265
h an</w> 264
] ☆</w> 264
加 宽</w> 264
转 运</w> 264
冬 装</w> 264
麻 花</w> 264
冷 冻</w> 264
仓 鼠</w> 264
甜 品</w> 264
ti mber 264
po oh</w> 264
pe plum</w> 264
fo g</w> 264
stri p</w> 264
scre w</w> 264
太阳 帽</w> 264
color ing</w> 264
rac er</w> 264
nar u 264
adven ture</w> 264
a20 s</w> 264
tis sue</w> 264
osh kosh</w> 264
高尔夫 球</w> 264
c et</w> 263
p g</w> 263
h &m</w> 263
n lighten</w> 263
u e</w> 263
v neck</w> 263
迪 奥 263
炫 彩</w> 263
开 门</w> 263
提 包</w> 263
泰 迪 263
厂 商</w> 263
支 持</w> 263
li ve 263
me al</w> 263
to shiba</w> 263
ra y 263
tw s</w> 263
zz a</w> 263
the me</w> 263
ling erie</w> 263
ink le</w> 263
u. s</w> 263
r9 s</w> 263
oce an</w> 263
botte ga</w> 263
deter gent</w> 263
o k 262
5 t</w> 262
3 000</w> 262
k ins</w> 262
眼 罩</w> 262
高 潮</w> 262
健 身 262
草 编</w> 262
莲 花</w> 262
去 污</w> 262
不 锈</w> 262
霸 气</w> 262
ro s 262
am i</w> 262
ni pp 262
ig en</w> 262
ff le</w> 262
tat too</w> 262
best seller</w> 262
maz da</w> 262
garteri zed</w> 262
gior gio</w> 262
n m</w> 261
6 2 261
美 甲</w> 261
用 品 261
藤 原 261
代 言</w> 261
护 肤</w> 261
契 尔 261
老 式</w> 261
博 士</w> 261
隔 音</w> 261
橱 窗</w> 261
减 肥</w> 261
st roller</w> 261
al arm</w> 261
lo go 261
du ction</w> 261
wa s</w> 261
ban g</w> 261
note 5</w> 261
you th</w> 261
stea m</w> 261
护肤 品</w> 261
s l</w> 260
m 3</w> 260
f s</w> 260
d x 260
k 歌</w> 260
登 机</w> 260
上 型</w> 260
面 具</w> 260
冲 击</w> 260
睡 袋</w> 260
li t</w> 260
la und 260
ph y</w> 260
be cca</w> 260
ta ke 260
tin a</w> 260
mosch ino</w> 260
g ps</w> 259
u ses</w> 259
i m 259
v p</w> 259
筒 裤</w> 259
巾 纸</w> 259
圈 圈</w> 259
多 功能</w> 259
叶 子</w> 259
密 码 259
面 部</w> 259
尺 码:</w> 259
规 格</w> 259
软 皮</w> 259
en han 259
si ded</w> 259
ba t</w> 259
bo lt</w> 259
do ctor</w> 259
16 - 259
旅行 袋</w> 259
eli z 259
2n d</w> 259
diff user</w> 259
1 pcs</w> 258
- 6</w> 258
w ang</w> 258
b by</w> 258
水 泥</w> 258
雨 刷</w> 258
老 鸭</w> 258
随 行</w> 258
变 形 258
变 压器</w> 258
战 术</w> 258
坚 果</w> 258
队 长</w> 258
le vis</w> 258
mo ther 258
60 1</w> 258
kit a</w> 258
tu pper 258
mono pod</w> 258
rai der</w> 258
bac ter 258
femin ine</w> 258
p it 257
s 9 257
b k</w> 257
小 狗</w> 257
王 子</w> 257
景 品</w> 257
汤 锅</w> 257
剧 场</w> 257
完 整</w> 257
re r</w> 257
ea gle</w> 257
prin ter</w> 257
du st 257
gen eva</w> 257
tw in 257
ion s</w> 257
wr it 257
hor se</w> 257
must ard</w> 257
peg asus</w> 257
6 m</w> 256
f 11pro</w> 256
# 下</w> 256
双 向</w> 256
热 销 256
镭 射</w> 256
客 人</w> 256
防 霉</w> 256
灯 笼</w> 256
雷 霆</w> 256
激 情</w> 256
平 滑</w> 256
唐 老鸭</w> 256
st ones</w> 256
ch o</w> 256
20 pcs</w> 256
10 .5</w> 256
cc tv</w> 256
blo od</w> 256
36 -40</w> 256
sc ra 256
zenf one 256
shar k</w> 256
三角 裤</w> 256
cock tail</w> 256
n ap 255
y 3</w> 255
q q 255
t 5 255
x 5 255
女 中</w> 255
手 腕</w> 255
小 朋友</w> 255
保 守</w> 255
藤 编</w> 255
主 题</w> 255
分 期</w> 255
家 电</w> 255
亲 肤</w> 255
接 待</w> 255
童 车</w> 255
调 味 255
音 乐 255
周 岁</w> 255
卖 家</w> 255
恋 爱</w> 255
炸 锅</w> 255
in door</w> 255
sh ka</w> 255
sp igen</w> 255
so l</w> 255
-2 xl</w> 255
wrist let</w> 255
zak ka</w> 255
a50 s</w> 255
8 2 254
g d 254
. 3</w> 254
l u</w> 254
j . 254
k 金</w> 254
v an</w> 254
棉 被</w> 254
板 凳</w> 254
索 尼</w> 254
荣 耀</w> 254
侧 边</w> 254
对 折</w> 254
滚 筒</w> 254
le ver</w> 254
mo du 254
ani mals</w> 254
par k</w> 254
dr in 254
小小 兵</w> 254
sponge bob</w> 254
3 a</w> 253
e e</w> 253
日 文</w> 253
美 颜</w> 253
马 鞍</w> 253
采 用</w> 253
独 特</w> 253
缎 面</w> 253
bo l 253
201 3</w> 253
da r</w> 253
for tun 253
19 0</w> 253
chi ld</w> 253
dis infe 253
ml * 253
butt ons</w> 253
mix er</w> 253
xr m</w> 253
birken stock</w> 253
laund ry</w> 253
5 l</w> 252
- h 252
y y</w> 252
( 小</w> 252
l ers</w> 252
w ine</w> 252
古 奇</w> 252
以 上</w> 252
透 光</w> 252
洗 面乳</w> 252
早 期</w> 252
赠 送</w> 252
演 唱 252
詹 姆斯</w> 252
at o</w> 252
mo d</w> 252
so me</w> 252
cu tting</w> 252
11 100 252
70 s</w> 252
ml b</w> 252
ao ke</w> 252
fle xi 252
inten se</w> 252
fau cet</w> 252
尺寸 :</w> 252
藤原 浩</w> 252
tupper ware</w> 252
s 5 251
s ad 251
y 12</w> 251
美 术</w> 251
魔 力</w> 251
士 尼</w> 251
正 常</w> 251
围 脖</w> 251
\ "" 251
直 接</w> 251
翅 膀</w> 251
站 立</w> 251
渐 变</w> 251
lo s</w> 251
me ch 251
10 mm</w> 251
10 000mah</w> 251
ul t</w> 251
sle y</w> 251
he el</w> 251
bel la</w> 251
cal amansi</w> 251
aro und</w> 251
heal thy</w> 251
plat form</w> 251
pla ins</w> 251
lock ed</w> 251
维他 命</w> 251
c l</w> 250
h one 250
r am 250
v 8</w> 250
笼 子</w> 250
永 生</w> 250
花 瓣</w> 250
新 手</w> 250
杏 仁</w> 250
绒 面</w> 250
蓬 蓬</w> 250
旗 舰</w> 250
ac tual</w> 250
mar ker</w> 250
36 -45</w> 250
sa f 250
14 - 250
nat asha</w> 250
fla w 250
下杀 #</w> 250
演唱 会</w> 250
- 7 249
h it 249
s r</w> 249
t ela</w> 249
座 垫</w> 249
水 饺</w> 249
马 丁 249
狮 王</w> 249
洗 碗</w> 249
茉 莉</w> 249
铅 笔 249
mo on 249
so ap 249
gr 5</w> 249
tro l 249
sen sor</w> 249
kar aoke</w> 249
3 16 248
e i 248
x box</w> 248
d less</w> 248
克 力 248
红 )</w> 248
粉 刺</w> 248
中 年</w> 248
螺 纹</w> 248
恶 魔</w> 248
排 扣</w> 248
芳 香</w> 248
社 团</w> 248
la k 248
fo x</w> 248
bal let</w> 248
her e</w> 248
bri ghtening</w> 248
gar ter</w> 248
war m</w> 248
mor ning</w> 248
eng ine</w> 248
sci ss 248
off- shoulder</w> 248
kir k 248
棉花 糖</w> 248
flam ingo</w> 248
9 57 247
g as 247
s 6 247
v 15 247
日 立</w> 247
水 性</w> 247
鱼 子 247
文 学</w> 247
书 法</w> 247
鬼 毡</w> 247
出 货)</w> 247
录 器</w> 247
仪 器</w> 247
焦 糖</w> 247
st an 247
mat ting</w> 247
ex cel 247
bel le</w> 247
3- 6</w> 247
phi lip 247
pil low 247
heal ing</w> 247
won der 247
fai ries</w> 247
almon d</w> 247
subli mation</w> 247
3 c 246
r c 246
r d</w> 246
卡 其 246
文 件 246
单 件</w> 246
西 班 246
企 业</w> 246
20 2 246
ho mme</w> 246
12 / 246
con tour</w> 246
11 8</w> 246
cor al</w> 246
nat ive</w> 246
25 g</w> 246
fig ures</w> 246
工作 室</w> 246
dani el</w> 246
saniti zer</w> 246
5 m</w> 245
6 splus</w> 245
i ii</w> 245
m x 245
a 30s</w> 245
/ / 245
护 照</w> 245
木 纹</w> 245
硬 碟</w> 245
伦 敦</w> 245
碗 柜</w> 245
电 钻</w> 245
滑 鼠 245
so da</w> 245
be y 245
blo om</w> 245
go g 245
90 ml</w> 245
mu si 245
light weight</w> 245
spo t</w> 245
size :</w> 245
inclu ded</w> 245
i v 244
r 15</w> 244
b one</w> 244
打 包</w> 244
适 用 244
英 语</w> 244
长 夹</w> 244
轮 车</w> 244
可 拆卸</w> 244
阴 阳</w> 244
lo e 244
di re 244
ul a</w> 244
wi l 244
bu ckle</w> 244
chi ps</w> 244
.... .</w> 244
6 18</w> 243
s -</w> 243
i u</w> 243
e mbo 243
相 片</w> 243
改 良</w> 243
店 长</w> 243
cle s</w> 243
gra ph</w> 243
ass y</w> 243
ber shka</w> 243
dai sy</w> 243
ble ach</w> 243
plat in 243
strai ghten 243
g p 242
s mas 242
s wa 242
w k</w> 242
v 3</w> 242
永 久</w> 242
白 底</w> 242
收 纳 242
莱 士</w> 242
可 放</w> 242
个 人</w> 242
秋 千</w> 242
抢 购</w> 242
po lar 242
00 mah</w> 242
tin y</w> 242
swe e 242
ruff led</w> 242
spark le</w> 242
vene ta</w> 242
kirk land</w> 242
4 )</w> 241
2 way</w> 241
m c</w> 241
z 3</w> 241
d .</w> 241
纯 白</w> 241
单 层</w> 241
童 话</w> 241
隐 藏</w> 241
甜 甜</w> 241
睫 毛膏</w> 241
凭 证</w> 241
ch en 241
ba o</w> 241
pi ck</w> 241
pro max</w> 241
be an</w> 241
gi f 241
ani cal</w> 241
man o</w> 241
ach i</w> 241
spi cy</w> 241
3. 5mm</w> 241
coo king</w> 241
西班 牙</w> 241
8 p</w> 240
h en 240
s 0 240
t l</w> 240
t shirts</w> 240
m 20</w> 240
f lip 240
包 皮</w> 240
皮 肤</w> 240
百 褶 240
书 签</w> 240
铁 盒</w> 240
椅 垫</w> 240
煞 车</w> 240
re volution</w> 240
su s</w> 240
vi p</w> 240
25 6 240
bre ast 240
sy ru 240
ms i</w> 240
15. 6</w> 240
滑鼠 垫</w> 240
5 c</w> 239
4 t</w> 239
3 99</w> 239
t ine</w> 239
( 限</w> 239
a de 239
b c</w> 239
白 粉</w> 239
餐 巾纸</w> 239
法 拉 239
观 音</w> 239
泡 澡</w> 239
长 袜</w> 239
桃 花</w> 239
蒸 汽</w> 239
羽 绒 239
肚 子</w> 239
ri t</w> 239
12 m</w> 239
ang er</w> 239
bat ch</w> 239
wor d</w> 239
-- -</w> 239
sur prise</w> 239
photo cards</w> 239
rou gh</w> 239
off- white</w> 239
sofi a</w> 239
timber land</w> 239
c j 238
p m 238
a w</w> 238
7 20</w> 238
f w</w> 238
j j 238
复 古 238
重 复</w> 238
加 固</w> 238
橡 木</w> 238
库 存</w> 238
其 他</w> 238
le m</w> 238
ap h 238
per for 238
lit ers</w> 238
ali a</w> 238
clas si 238
chil i</w> 238
hor n</w> 238
all er 238
cac tus</w> 238
poin ted</w> 238
lili w</w> 238
skir ts</w> 238
g n 237
3 ds</w> 237
d g</w> 237
k w 237
k ri 237
造 景</w> 237
皮 衣</w> 237
内 置</w> 237
证 明</w> 237
qu il 237
do or 237
cre w</w> 237
fla p</w> 237
dol ls</w> 237
chee se</w> 237
qui ck 237
tou gh</w> 237
鱼子 酱</w> 237
c pu</w> 236
h p 236
x 7</w> 236
d w 236
色 系</w> 236
金 属 236
国 小</w> 236
斑 马</w> 236
音 器</w> 236
烤 肉</w> 236
瓷 砖</w> 236
钱 筒</w> 236
哆 啦 236
畅 销</w> 236
lo af 236
bo und</w> 236
th is</w> 236
ph ant</w> 236
00 9</w> 236
ack s</w> 236
be ver 236
11 2</w> 236
ct ors</w> 236
gi ant</w> 236
mon t 236
ms m</w> 236
ribb ed</w> 236
fer r 236
400 ml</w> 236
advan ced</w> 236
chopp er</w> 236
flexi ble</w> 236
platin um</w> 236
5 )</w> 235
3 s</w> 235
e k</w> 235
k or 235
生 肖</w> 235
棉 布</w> 235
竹 节</w> 235
特 价)</w> 235
花 色</w> 235
耳 环 235
传 奇</w> 235
精 梳</w> 235
太 空 235
逼 真</w> 235
警 示</w> 235
伙 伴</w> 235
ma xi 235
vi sible</w> 235
pa w</w> 235
ash i</w> 235
dol l 235
tro pi 235
natur als</w> 235
twi st</w> 235
collecti ons</w> 235
4 50 234
c nc</w> 234
2 g</w> 234
a ke</w> 234
f k</w> 234
心 机</w> 234
贴 身</w> 234
白 铁</w> 234
紫 水晶</w> 234
王 者</w> 234
美 食</w> 234
粉 嫩</w> 234
魔 鬼毡</w> 234
华 莱士</w> 234
防 身</w> 234
疯 狂</w> 234
葫 芦</w> 234
bl ing</w> 234
shor t 234
mar io</w> 234
pu ppy</w> 234
ka i</w> 234
lin en</w> 234
6- 12</w> 234
om ing</w> 234
mr . 234
工具 箱</w> 234
十字 绣</w> 234
p y 233
- on</w> 233
2 80 233
g . 233
g ur 233
3 80</w> 233
z ir 233
w ar</w> 233
b c 233
一 生</w> 233
古 董</w> 233
布 偶</w> 233
火 影 233
纳 米</w> 233
精 准</w> 233
随 手</w> 233
st ation 233
ro l</w> 233
ti me 233
ki ds 233
ig n 233
wo ol</w> 233
toi let</w> 233
1 + 232
3 ml</w> 232
车 门</w> 232
( 客</w> 232
j r</w> 232
渔 具</w> 232
取 货</w> 232
水 彩</w> 232
丝 绸</w> 232
附 赠</w> 232
碗 碟</w> 232
电 瓶 232
考 试</w> 232
弥 月</w> 232
as ure</w> 232
fi eld</w> 232
bu t</w> 232
coo kies</w> 232
resi n</w> 232
ferragam o</w> 232
2 t</w> 231
y n</w> 231
i fairies</w> 231
k yo 231
发 店</w> 231
发 热</w> 231
天 鹅</w> 231
上 班 231
食 品 231
西 瓜</w> 231
酒 杯</w> 231
as ter</w> 231
ac o</w> 231
to ms</w> 231
ho me 231
ci vic</w> 231
air max</w> 231
medi a</w> 231
ky o</w> 231
cat s</w> 231
ruff le</w> 231
combin ation</w> 231
syru p</w> 231
法拉 利</w> 231
电瓶 车</w> 231
8 80 230
n au 230
6 p</w> 230
i p</w> 230
e v 230
j on 230
小 吃</w> 230
运 费 230
刀 架</w> 230
系 列 230
欧 文</w> 230
方 向</w> 230
预 定</w> 230
馒 头</w> 230
砧 板</w> 230
de fen 230
pa ++ 230
wai sted</w> 230
lou is 230
roy ale</w> 230
蝙蝠 侠</w> 230
ferr ari</w> 230
火影 忍者</w> 230
3 t</w> 229
y y 229
( 共</w> 229
黑 板</w> 229
环 球</w> 229
护 具</w> 229
高 效</w> 229
开 始</w> 229
绘 画</w> 229
各 种</w> 229
滚 轮</w> 229
驾 车</w> 229
di ffe 229
10 m</w> 229
te st</w> 229
cas e 229
per a</w> 229
mat ch</w> 229
11 7</w> 229
hu go</w> 229
cur ity</w> 229
big -o</w> 229
bacter ial</w> 229
flaw less</w> 229
2 s</w> 228
g 530</w> 228
t bag</w> 228
f a</w> 228
水 巾</w> 228
一 盒</w> 228
头 巾</w> 228
国 旗</w> 228
灯 光</w> 228
时 髦</w> 228
镀 金</w> 228
胡 刀</w> 228
饺 子</w> 228
产 后</w> 228
la bel</w> 228
te ddy</w> 228
cre me</w> 228
30 1</w> 228
je ju</w> 228
loo t</w> 228
毛巾 架</w> 228
上班 族</w> 228
d ear</w> 227
鞋 带</w> 227
b es</w> 227
地 亚</w> 227
漂 亮</w> 227
袖 套</w> 227
三 菱</w> 227
防 漏</w> 227
眉 笔</w> 227
第 四</w> 227
试 用</w> 227
re g 227
th ri 227
he i 227
bur y</w> 227
ve hi 227
der ma</w> 227
dv r</w> 227
squ ish 227
4. 7</w> 227
asse mbl 227
deto x</w> 227
straighten er</w> 227
a 梦</w> 226
e st</w> 226
d un 226
保 存</w> 226
卡 地亚</w> 226
禅 意</w> 226
可 动</w> 226
拼 贴</w> 226
安 娜</w> 226
lo g 226
ll ers</w> 226
3. 1</w> 226
ja g</w> 226
the tic</w> 226
om ni</w> 226
hard cover</w> 226
j4 plus</w> 226
abercrom bie 226
eras er</w> 226
g lam 225
i an</w> 225
( 10</w> 225
f all</w> 225
z - 225
v ar 225
抽 象</w> 225
棒 棒 225
兰 蔻</w> 225
铃 铛</w> 225
调 式</w> 225
to tal</w> 225
po ur</w> 225
ir s</w> 225
la zy</w> 225
sho pping</w> 225
pan ini</w> 225
go d 225
son s</w> 225
shi mano</w> 225
under wire</w> 225
85 ml</w> 225
coun t</w> 225
clou d</w> 225
vege table</w> 225
abe th</w> 225
v15 pro</w> 225
1 tb</w> 224
( 无</w> 224
e ven 224
k ak 224
★ ★</w> 224
w w 224
特 产</w> 224
风 味</w> 224
价 :</w> 224
控 制</w> 224
散 装</w> 224
仙 人 224
史 迪 224
独 立</w> 224
冒 险</w> 224
er - 224
le g 224
di um</w> 224
gh z</w> 224
au x</w> 224
bi c</w> 224
ho ut</w> 224
24 pcs</w> 224
tin ted</w> 224
stre aming</w> 224
acti cal</w> 224
embroi dery</w> 224
包装 袋</w> 224
ham mer</w> 224
desi re</w> 224
fini sh</w> 224
eliz abeth</w> 224
马丁 靴</w> 224
p 20 223
f u</w> 223
本 舖</w> 223
罗 斯</w> 223
小 鸟</w> 223
打 磨</w> 223
美 好</w> 223
多 多</w> 223
沐 浴 223
促 销 223
甜 蜜</w> 223
幼 稚 223
鸳 鸯</w> 223
in sert</w> 223
re a 223
re max</w> 223
ro ck 223
ph e</w> 223
ear th</w> 223
11 - 223
dr e</w> 223
ten s</w> 223
a7 3</w> 223
zz o</w> 223
emb lem</w> 223
(黑 色)</w> 223
bene fit</w> 223
sophi e</w> 223
幼稚 园</w> 223
c ure</w> 222
p i</w> 222
p 30 222
6 s/ 222
s lot</w> 222
女 单</w> 222
笔 筒</w> 222
菲 利 222
长 线</w> 222
哈 娜</w> 222
电 扇</w> 222
比 赛</w> 222
气 动</w> 222
出 )</w> 222
泳 裤</w> 222
声 波</w> 222
世 纪</w> 222
走 光</w> 222
榨 汁 222
ba pti 222
un locked</w> 222
vi os</w> 222
bi o</w> 222
pi x 222
12 5ml</w> 222
blo uses</w> 222
stu dent</w> 222
pen shoppe</w> 222
ali st</w> 222
99 0</w> 222
wai i</w> 222
fit flop</w> 222
ly n</w> 222
lam in 222
iti ve</w> 222
cour t</w> 222
批发 价</w> 222
车 灯</w> 221
s b 221
r n</w> 221
w . 221
手 指</w> 221
茶 水</w> 221
香 草</w> 221
降 温</w> 221
高 低</w> 221
云 朵</w> 221
转 椅</w> 221
长 柄</w> 221
电 瓶</w> 221
扇 子</w> 221
纽 约</w> 221
第 五</w> 221
名 品</w> 221
摇 摆</w> 221
减 压</w> 221
蘑 菇</w> 221
co .</w> 221
ma kita</w> 221
pan ties</w> 221
15 g</w> 221
jo jo</w> 221
smi le</w> 221
自慰 器</w> 221
契尔 氏</w> 221
trol ley</w> 221
philip p</w> 221
3 xl</w> 220
m ama</w> 220
7 3 220
z i</w> 220
e ste 220
e vo</w> 220
全 能</w> 220
热 器</w> 220
护 颈</w> 220
按 压</w> 220
价 $ 220
多 种</w> 220
阿 曼</w> 220
丹 尼尔</w> 220
提 花</w> 220
印 度</w> 220
菜 盆</w> 220
抹 茶</w> 220
售 价</w> 220
售 完</w> 220
抛 光</w> 220
吐 司</w> 220
am ber</w> 220
mo to</w> 220
wit hout</w> 220
con sole</w> 220
prin ting</w> 220
tre tta</w> 220
spe ed 220
sou ven 220
ple in</w> 220
scen ts</w> 220
dor ae 220
pean ut</w> 220
g li 219
h at 219
v c 219
橘 子</w> 219
毛 料</w> 219
狐 狸</w> 219
富 士</w> 219
赤 足</w> 219
荧 光</w> 219
晾 衣</w> 219
er t</w> 219
do me</w> 219
gre at</w> 219
gr inder</w> 219
s- xl</w> 219
hy dro 219
杂货 店</w> 219
cac ao</w> 219
过滤 器</w> 219
abercrombie &</w> 219
p ine 218
n t 218
l 型</w> 218
e di 218
x y 218
男 裤</w> 218
桌 上型</w> 218
护 膝</w> 218
萝 卜</w> 218
奥 运</w> 218
精 度</w> 218
精 工</w> 218
西 服</w> 218
坠 子</w> 218
bo ar 218
bo bb 218
pre love</w> 218
ele phant</w> 218
du al 218
17 - 218
ban a</w> 218
beau te 218
eye glass</w> 218
multi function</w> 218
lan come</w> 218
dai so</w> 218
遮阳 伞</w> 218
手工 皂</w> 218
y91 c</w> 218
got 7</w> 218
envelo pe</w> 218
loe we</w> 218
assembl y</w> 218
h . 217
3 10</w> 217
i 7 217
( 二手</w> 217
e vi 217
w an 217
双 c</w> 217
美 发</w> 217
信 用 217
电 工</w> 217
切 割</w> 217
支 援</w> 217
跳 舞</w> 217
冲 浪</w> 217
re ser 217
re pel 217
sh elf</w> 217
fi re 217
ack er</w> 217
mar ine</w> 217
con centr 217
40 ml</w> 217
40 -46</w> 217
fu sion</w> 217
gre en 217
bb q</w> 217
man y</w> 217
fro sted</w> 217
ca fe</w> 217
over size</w> 217
glo be</w> 217
400 g</w> 217
zo o</w> 217
纪念 品</w> 217
fuji film</w> 217
r i</w> 216
l c 216
篮 子</w> 216
小 鸡</w> 216
体 验</w> 216
颜 料</w> 216
杏 色</w> 216
过 年</w> 216
圆 点</w> 216
面 盆</w> 216
前 台</w> 216
夜 视</w> 216
梳 子</w> 216
搅 拌 216
蔬 果</w> 216
am pli 216
su it 216
ke e 216
sil ver 216
tri al</w> 216
-0 2</w> 216
mil k 216
dy n 216
ry x 216
adap tor</w> 216
aqu ari 216
clin ic</w> 216
电子 表</w> 216
materi al</w> 216
分离 式</w> 216
6 )</w> 215
i se</w> 215
m yst 215
e on</w> 215
d den</w> 215
山 茶花</w> 215
w cf</w> 215
面 罩</w> 215
浴 缸</w> 215
寿 司</w> 215
演 出</w> 215
or o 215
ro ad</w> 215
se con 215
ur ing</w> 215
ta was</w> 215
ju ju 215
pri de</w> 215
bar ley</w> 215
com pre 215
卫生 纸</w> 215
lumin ous</w> 215
proje ct</w> 215
effe ct</w> 215
geor ge</w> 215
souven irs</w> 215
- 10 214
野 生</w> 214
发 财</w> 214
亚 瑟</w> 214
艾 米</w> 214
长 发</w> 214
年 人</w> 214
部 落</w> 214
刮 胡刀</w> 214
免 运 214
爸 爸</w> 214
摄 影机</w> 214
th ai</w> 214
fi ed</w> 214
12 8 214
sli p- 214
bro ther</w> 214
dra wer</w> 214
no. t1</w> 214
下杀 $</w> 214
菲利 普</w> 214
- b 213
g 1</w> 213
t 0 213
r b 213
r ace</w> 213
z one</w> 213
墨 水</w> 213
挂 脖</w> 213
香 槟</w> 213
成 长</w> 213
技 术</w> 213
房 子</w> 213
印 刷</w> 213
智 慧 213
直 条</w> 213
甜 点</w> 213
珊 瑚 213
犀 牛</w> 213
lu lu 213
la i</w> 213
de ck</w> 213
ad ri 213
40 mm</w> 213
cor re 213
sto ve</w> 213
a7 7</w> 213
frien d 213
?? ??</w> 213
wol f</w> 213
2017 年</w> 213
出版 社</w> 213
信用 卡</w> 213
6 in1</w> 212
s lo 212
y i 212
w ave 212
小 鱼</w> 212
建 筑</w> 212
香 香</w> 212
木 马</w> 212
胸 前</w> 212
芦 荟</w> 212
圆 圈</w> 212
曼 尼</w> 212
晚 礼服</w> 212
初 学</w> 212
名 片</w> 212
en a</w> 212
am our</w> 212
fi le</w> 212
bri ck</w> 212
.... ..</w> 212
97898 6 212
naru to</w> 212
squish y</w> 212
c .</w> 211
i 6</w> 211
( ( 211
e tte</w> 211
j k</w> 211
小 麦</w> 211
水 箱</w> 211
加 粗</w> 211
中 长</w> 211
光 碟</w> 211
月 光</w> 211
快 干</w> 211
直 径</w> 211
胖 子</w> 211
妖 怪</w> 211
漱 口</w> 211
an ni 211
to wer</w> 211
ti sso 211
car d 211
cre amy</w> 211
pu mp 211
25 6</w> 211
is bn 211
ze bra</w> 211
band s</w> 211
juju be</w> 211
g u</w> 210
f on 210
e ce</w> 210
v at 210
水 池</w> 210
保 固</w> 210
新 鲜</w> 210
中 海</w> 210
高 清</w> 210
巴 特</w> 210
固 定 210
co il</w> 210
20 5</w> 210
20 00 210
am er</w> 210
11 3</w> 210
mm a</w> 210
len a</w> 210
35 -40</w> 210
glu tam 210
elect ro 210
ku ma</w> 210
tru ck</w> 210
your self</w> 210
dish washing</w> 210
变形 金刚</w> 210
棒棒 糖</w> 210
h r 209
n 0 209
u v 209
t ell</w> 209
m 40 209
野 外</w> 209
福 特</w> 209
体 育</w> 209
花 草</w> 209
衣 裤</w> 209
式 )</w> 209
非 常</w> 209
莱 姆</w> 209
通 话</w> 209
理 学</w> 209
十 二</w> 209
斗 篷</w> 209
se curity</w> 209
fi x</w> 209
do zen</w> 209
sun block</w> 209
60 cm</w> 209
av a</w> 209
cy lin 209
stre n 209
war ri 209
alph ab 209
........ ........ 209
king dom</w> 209
c ad 208
g inger 208
h s</w> 208
h ai 208
3 80 208
车 牌</w> 208
l la 208
j v</w> 208
w l 208
手 摇</w> 208
小 卡</w> 208
体 重</w> 208
白 灰</w> 208
制 冷</w> 208
国 制</w> 208
火 车</w> 208
三 轮车</w> 208
即 期</w> 208
效 果</w> 208
铝 箔</w> 208
透 肤</w> 208
麻 将</w> 208
假 面</w> 208
遮 瑕</w> 208
mi st 208
ligh ting</w> 208
pe ts</w> 208
24 7</w> 208
ste ph 208
cat cher</w> 208
cli pper</w> 208
cri b</w> 208
conne ctor</w> 208
syn thetic</w> 208
scrip tion</w> 208
羽绒 服</w> 208
仙人 掌</w> 208
1 x</w> 207
g .</w> 207
3 mm</w> 207
y es</w> 207
( 单</w> 207
m r</w> 207
m u</w> 207
l p</w> 207
f arm</w> 207
地 中海</w> 207
上 班</w> 207
珐 瑯</w> 207
草 机</w> 207
城 堡</w> 207
丁 字</w> 207
肥 皂</w> 207
简 体</w> 207
延 长线</w> 207
缝 隙</w> 207
狗 窝</w> 207
渡 假</w> 207
参 考</w> 207
蛤 蟆 207
贸 易</w> 207
in d</w> 207
le s 207
ro be</w> 207
se wing</w> 207
ma m</w> 207
ad v 207
pi lot</w> 207
fe et</w> 207
19 9 207
13 5g</w> 207
jo gging</w> 207
war ran 207
san ta</w> 207
butt on 207
6. 1</w> 207
inten sive</w> 207
glit ters</w> 207
aero post 207
(大 )</w> 207
warran ty</w> 207
p ea 206
- x</w> 206
z 2</w> 206
套 )</w> 206
星 座</w> 206
英 寸</w> 206
灯 芯 206
通 勤</w> 206
便 携式</w> 206
定 位</w> 206
染 发 206
霹 雳</w> 206
熨 斗</w> 206
re st</w> 206
at en</w> 206
ba y</w> 206
ti cal</w> 206
包装 盒</w> 206
smart phone</w> 206
gui de</w> 206
摄像 头</w> 206
蛤蟆 镜</w> 206
c el</w> 205
p 1</w> 205
g 点</w> 205
i do 205
b in</w> 205
凉 拖</w> 205
表 情</w> 205
烟 灰 205
学 校</w> 205
肌 肉</w> 205
ar gan</w> 205
po st</w> 205
sho w</w> 205
ath er 205
nu tr 205
hear t 205
300 g</w> 205
ya o</w> 205
2018 年</w> 205
game pad</w> 205
preci ous</w> 205
灯芯 绒</w> 205
1 , 204
c iti 204
p 8</w> 204
2 30 204
h r</w> 204
t r</w> 204
f el 204
f 21</w> 204
j in 204
手 臂</w> 204
星 辰</w> 204
领 结</w> 204
鸡 蛋</w> 204
晚 安</w> 204
教 室</w> 204
平 面</w> 204
破 坏</w> 204
定 型</w> 204
定 版</w> 204
酒 精</w> 204
摇 椅</w> 204
监 控</w> 204
矫 正</w> 204
in visible</w> 204
al tis</w> 204
ch er 204
mo vie</w> 204
ph p 204
ke ds</w> 204
ex foli 204
24 v</w> 204
temp o</w> 204
note 4</w> 204
pat ches</w> 204
gol d 204
radi ation</w> 204
ame l</w> 204
capac ity</w> 204
disinfe ct 204
hone y 204
este e</w> 204
智慧 型</w> 204
o wl</w> 203
u - 203
u k</w> 203
( 送</w> 203
j m</w> 203
暖 手</w> 203
跑 车</w> 203
v ol</w> 203
b li 203
手 册</w> 203
素 材</w> 203
母 乳</w> 203
汉 堡</w> 203
毛 器</w> 203
毛 边</w> 203
广 角</w> 203
磁 力</w> 203
长 筒</w> 203
青 蛙</w> 203
雪 纺 203
挡 风</w> 203
台 面</w> 203
坡 跟</w> 203
in sp 203
di vi 203
ck ed</w> 203
au tu 203
car ter 203
ju mp</w> 203
pu s</w> 203
16 5</w> 203
par ker</w> 203
son ic</w> 203
por ter</w> 203
bro w 203
swi ft</w> 203
dar t</w> 203
yu gi 203
sni per</w> 203
奇奇 蒂 203
aeropost ale</w> 203
5 cm</w> 202
c 0 202
- 8 202
g 5</w> 202
i m</w> 202
7 a</w> 202
夹 缝</w> 202
紫 砂</w> 202
特 色</w> 202
舒 服</w> 202
温 柔</w> 202
分 钟</w> 202
光 灯</w> 202
接 线</w> 202
暗 黑</w> 202
典 藏</w> 202
羽 球</w> 202
尾 牙</w> 202
lo g</w> 202
ch ed</w> 202
el sa</w> 202
ap p</w> 202
mo ti 202
ab c</w> 202
no uri 202
18 m</w> 202
ju mbo</w> 202
back case</w> 202
ali an</w> 202
bul let</w> 202
simp ly</w> 202
comfor ter</w> 202
lea gue</w> 202
isbn :</w> 202
yugi oh</w> 202
- 3</w> 201
2 lite</w> 201
h w</w> 201
3 ce</w> 201
y x</w> 201
t z</w> 201
r us 201
7 ml</w> 201
存 钱</w> 201
狂 欢</w> 201
b s 201
b in 201
茶 色</w> 201
特 大号</w> 201
天 鹅 201
铺 子</w> 201
佛 教</w> 201
轻 盈</w> 201
出 服</w> 201
演 出服</w> 201
梯 子</w> 201
伴 手</w> 201
sh aper</w> 201
mi u 201
fi ve</w> 201
pi cture</w> 201
ke e</w> 201
gen ic</w> 201
tri angle</w> 201
ze 55 201
折叠 床</w> 201
lau der</w> 201
spar k</w> 201
cop y</w> 201
g x 200
6 mm</w> 200
j ac 200
j ol 200
b 5</w> 200
耳 罩</w> 200
高 手</w> 200
苹 果 200
清 凉</w> 200
露 趾</w> 200
私 密</w> 200
教 育</w> 200
搅 拌</w> 200
腋 下</w> 200
on line</w> 200
ro und 200
ve a</w> 200
iphone 6s</w> 200
dol ce</w> 200
下杀 # 200
imp act</w> 200
蜘蛛 人</w> 200
exp lo 200
beaute derm</w> 200
烟灰 缸</w> 200
5 吋</w> 199
h f</w> 199
s ity</w> 199
d ino 199
# #</w> 199
小 美人鱼</w> 199
美 肌</w> 199
满 月</w> 199
有 盖</w> 199
吊 饰</w> 199
爬 行</w> 199
外 接</w> 199
明 治</w> 199
浴 盆</w> 199
软 管</w> 199
研 磨 199
泼 墨</w> 199
引 擎</w> 199
靠 墙</w> 199
剪 裁</w> 199
re stock</w> 199
si e</w> 199
me d 199
un i</w> 199
am p 199
mi lit 199
ni sh</w> 199
be e 199
sun ny</w> 199
11 6</w> 199
mm )</w> 199
fu ture</w> 199
spor t 199
bea ded</w> 199
tri u 199
lay ered</w> 199
om bre</w> 199
bear ing</w> 199
insta x</w> 199
pillow case</w> 199
沐浴 乳</w> 199
1 g</w> 198
- 001</w> 198
m g 198
a ur 198
小 鹿</w> 198
动 画</w> 198
相 容</w> 198
护 发 198
豆 腐</w> 198
风 琴</w> 198
颈 链</w> 198
油 烟</w> 198
刷 子</w> 198
东 方</w> 198
博 柏 198
出 国</w> 198
巴 西</w> 198
战 马</w> 198
滚 边</w> 198
ver s</w> 198
ho bo</w> 198
ear ings</w> 198
gi es</w> 198
ten nis</w> 198
mil ky</w> 198
eye wear</w> 198
shar p</w> 198
multi- function</w> 198
hun ter</w> 198
p ment</w> 197
g inger</w> 197
u le</w> 197
( 二</w> 197
( 黑</w> 197
( 两</w> 197
拉 丝</w> 197
小 物</w> 197
竹 炭</w> 197
全 网</w> 197
水 手</w> 197
水 晶 197
' s 197
专 家</w> 197
帮 手</w> 197
镀 膜</w> 197
柴 犬</w> 197
社 会</w> 197
re x</w> 197
sh el 197
ch un 197
am as</w> 197
ol y 197
30 3</w> 197
30 cm</w> 197
-4 xl</w> 197
chan nel</w> 197
comp ati 197
cond ition</w> 197
sno w 197
9. 7</w> 197
十字 架</w> 197
防水 布</w> 197
break er</w> 197
insul ated</w> 197
铅笔 盒</w> 197
dorae mon</w> 197
4 80</w> 196
0 50 196
3 10 196
l / 196
j y 196
w t</w> 196
小 车</w> 196
无 敌</w> 196
美 美</w> 196
天 下</w> 196
绿 萝</w> 196
家 )</w> 196
提 供</w> 196
越 南</w> 196
抹 布</w> 196
石 头</w> 196
南 极</w> 196
软 毛</w> 196
者 :</w> 196
am g</w> 196
sp l</w> 196
te k 196
so lu 196
tt ed</w> 196
mp h</w> 196
pl ace</w> 196
sc rat 196
mb ers</w> 196
vinta ge 196
-- -- 196
vitam ins</w> 196
arm ani 196
gab bana</w> 196
防晒 霜</w> 196
asp ire</w> 196
卡其 色</w> 196
alphab et</w> 196
o y</w> 195
p tor</w> 195
6 a</w> 195
m 5</w> 195
包 # 195
作 品</w> 195
v oice</w> 195
b p 195
网 卡</w> 195
新 店</w> 195
风 潮</w> 195
净 水</w> 195
中 童</w> 195
刺 青</w> 195
节 日</w> 195
电 热 195
语 音</w> 195
货 号</w> 195
杀 手</w> 195
松 紧 195
教 师</w> 195
识 别</w> 195
坐 姿</w> 195
re cei 195
20 000</w> 195
ti ca</w> 195
60 g</w> 195
man ce</w> 195
s- xxl</w> 195
工作 鞋</w> 195
et c</w> 195
repl ac 195
plus size</w> 195
泰迪 熊</w> 195
ampli fier</w> 195
tisso t</w> 195
g 6</w> 194
t 1 194
r l</w> 194
. hk</w> 194
d l</w> 194
丽 婴</w> 194
手 帕</w> 194
海 军 194
星 光</w> 194
风 情</w> 194
风 景</w> 194
化 器</w> 194
加 高</w> 194
工 装 194
下 单)</w> 194
碗 盘</w> 194
柜 组</w> 194
米 茄</w> 194
元 )</w> 194
货 车</w> 194
放 大 194
炒 锅</w> 194
an gular</w> 194
al d</w> 194
lo lit 194
20 2</w> 194
to pper</w> 194
ne t 194
ur s</w> 194
ni vea</w> 194
min er</w> 194
cor dless</w> 194
bri ef 194
dra wing</w> 194
fle ece</w> 194
fron tro 194
pad lock</w> 194
安全 带</w> 194
mc queen</w> 194
tm x</w> 194
螺丝 刀</w> 194
aquari um</w> 194
autu mn</w> 194
o ven</w> 193
n en 193
m cm</w> 193
a .</w> 193
f at</w> 193
f light</w> 193
口 水巾</w> 193
花 器</w> 193
收 银 193
单 宁</w> 193
不 易</w> 193
褶 皱</w> 193
摇 篮</w> 193
in c</w> 193
ar c 193
to kyo</w> 193
ki ll</w> 193
ad di 193
12 7</w> 193
cu cu 193
gi a</w> 193
bri cks</w> 193
tur bo</w> 193
咖啡 豆</w> 193
open er</w> 193
生活 馆</w> 193
nipp le</w> 193
take 1</w> 193
珊瑚 绒</w> 193
c 3</w> 192
f s 192
f j 192
< <</w> 192
自 然 192
挂 布</w> 192
一 起</w> 192
成 功</w> 192
按 键</w> 192
如 意</w> 192
蜂 巢</w> 192
实 惠</w> 192
圆 脸</w> 192
月 子</w> 192
姑 娘</w> 192
猴 子</w> 192
压 力</w> 192
le t 192
ro m</w> 192
se ga</w> 192
th ings</w> 192
ni ll 192
tt o</w> 192
40 -44</w> 192
one - 192
gr ass</w> 192
mil d</w> 192
kn 95</w> 192
y- 3</w> 192
sha ke</w> 192
aro mat 192
落地 灯</w> 192
blan c</w> 192
nigh t 192
运费 )</w> 192
frontro w</w> 192
g r</w> 191
i so 191
a 2 191
w u 191
小 丑</w> 191
水 鬼</w> 191
王 国</w> 191
] #</w> 191
转 换</w> 191
数 学</w> 191
年 级</w> 191
织 布</w> 191
佩 佩 191
洗 菜盆</w> 191
玩 家</w> 191
溜 溜</w> 191
滚 珠</w> 191
an k</w> 191
it ed</w> 191
bo at</w> 191
su i</w> 191
de er</w> 191
mar t</w> 191
fe ather</w> 191
ta ins</w> 191
pe o 191
80 8</w> 191
tor o</w> 191
88 8</w> 191
peri pera</w> 191
msm .hk</w> 191
雪纺 衫</w> 191
cucu mber</w> 191
nill kin</w> 191
p ins</w> 190
g w 190
g round</w> 190
l s 190
d 0 190
k on 190
挂 包</w> 190
分 )</w> 190
客 制</w> 190
公 园</w> 190
利 亚</w> 190
拍 杆</w> 190
上 衣 190
雷 朋</w> 190
牛 角</w> 190
供 应 190
re la 190
er ci 190
gh o 190
no tes</w> 190
40 -45</w> 190
kit ty 190
-4 2</w> 190
temp er 190
medi c 190
sol o</w> 190
tee th</w> 190
tech ni 190
perfor mance</w> 190
cylin der</w> 190
q - 189
( 5</w> 189
打 造</w> 189
水 冷</w> 189
伞 架</w> 189
布 娃娃</w> 189
子 星</w> 189
球 拍</w> 189
毯 子</w> 189
长 效</w> 189
乐 乐</w> 189
电 机</w> 189
调 光</w> 189
羽 毛 189
翻 新</w> 189
俏 皮</w> 189
as cor 189
ri der</w> 189
po ly</w> 189
hi lls</w> 189
hi mala 189
pi e</w> 189
wat ch 189
mar ket</w> 189
ta ge</w> 189
40 1</w> 189
mb a</w> 189
chi cco</w> 189
sta ge</w> 189
sn ack</w> 189
ite ch</w> 189
9. 9</w> 189
activ ity</w> 189
jour nal</w> 189
出清 )</w> 189
vehi cle</w> 189
compati ble</w> 189
o cc 188
o val</w> 188
9 m</w> 188
c all</w> 188
c lamp</w> 188
6 x</w> 188
凯 蒂猫</w> 188
当 日</w> 188
计 划</w> 188
润 肤</w> 188
干 花</w> 188
螺 旋</w> 188
老 年人</w> 188
五 色</w> 188
蒸 气</w> 188
便 利 188
军 事</w> 188
挡 板</w> 188
菱 形</w> 188
烘 培</w> 188
搬 家</w> 188
ch oice</w> 188
todd lers</w> 188
gal lon</w> 188
gener ation</w> 188
louis vuitton</w> 188
slip- on</w> 188
milit ary</w> 188
p d</w> 187
2 l</w> 187
7 50ml</w> 187
作 战</w> 187
动 力</w> 187
餐 饮</w> 187
眼 部</w> 187
地 车</w> 187
粉 )</w> 187
天 空</w> 187
护 士</w> 187
重 磅</w> 187
开 业</w> 187
单 个</w> 187
横 条</w> 187
职 员</w> 187
re v 187
le vel</w> 187
20 - 187
si n</w> 187
mi mi</w> 187
201 0</w> 187
ko se</w> 187
wi g</w> 187
ani um</w> 187
90 cm</w> 187
fro g 187
cal cul 187
bang les</w> 187
dro ps</w> 187
box es</w> 187
ros ary</w> 187
mech anical</w> 187
tropi cal</w> 187
diffe rent</w> 187
海军 蓝</w> 187
工装 裤</w> 187
p . 186
8 pcs</w> 186
2 mm</w> 186
g au 186
u 盘</w> 186
d ate</w> 186
当 劳</w> 186
晴 雨</w> 186
灰 黑</w> 186
精 萃</w> 186
磨 砂 186
刮 皮</w> 186
麦 当劳</w> 186
ro l 186
ti ons</w> 186
las h 186
ex erci 186
dr yer</w> 186
air e</w> 186
ka y 186
multi purpose</w> 186
tab le 186
nar s</w> 186
精品 店</w> 186
bak una</w> 186
p les</w> 185
2 60</w> 185
g x</w> 185
m -2xl</w> 185
f b 185
f low</w> 185
背 后</w> 185
k ra 185
男 款</w> 185
深 灰</w> 185
记 事 185
火 焰</w> 185
广 场</w> 185
懒 懒</w> 185
磁 扣</w> 185
帽 衫</w> 185
牛 排</w> 185
气 囊</w> 185
洗 发</w> 185
one piece</w> 185
hand y</w> 185
pil aten</w> 185
prest ige</w> 185
rai der 185
vir gin</w> 185
bron ze</w> 185
apri l</w> 185
眼镜 框</w> 185
emer gen 185
every day</w> 185
o at 184
5 xl</w> 184
- s 184
y 5</w> 184
m ks</w> 184
f x</w> 184
j am</w> 184
流 沙</w> 184
热 门</w> 184
蓝 宝石</w> 184
海 苔</w> 184
记 忆 184
矮 凳</w> 184
时 装</w> 184
转 售</w> 184
桃 红色</w> 184
联 想</w> 184
核 心</w> 184
冲 锋</w> 184
st abi 184
di ap 184
th or</w> 184
ra z 184
50 - 184
pa zzo</w> 184
sa c</w> 184
13 - 184
ag nes</w> 184
-2 4</w> 184
sto cks</w> 184
hoo dies</w> 184
m- xl</w> 184
win nie</w> 184
pat rol</w> 184
play ed</w> 184
下杀 @</w> 184
tou ch 184
nood les</w> 184
o x</w> 183
5 30 183
7 11</w> 183
山 地车</w> 183
白 光</w> 183
风 车</w> 183
数 量</w> 183
内 胆</w> 183
码 表</w> 183
史 莱姆</w> 183
消 光</w> 183
铂 金</w> 183
in ver 183
in tex</w> 183
ne ver</w> 183
prin ce</w> 183
gr ain</w> 183
90 g</w> 183
cr v</w> 183
spi der</w> 183
glu ta 183
ssi mo</w> 183
gri d</w> 183
who le</w> 183
degre e</w> 183
bever ly</w> 183
1 pair</w> 182
2 25 182
s x 182
f w 182
k el 182
组 合 182
宝 可</w> 182
网 络</w> 182
刀 具</w> 182
发 圈</w> 182
袖 短</w> 182
液 体</w> 182
单 色</w> 182
团 体</w> 182
电 话 182
辣 椒</w> 182
闪 耀</w> 182
评 价</w> 182
没 有</w> 182
投 影</w> 182
供 佛</w> 182
an t 182
an n</w> 182
en o</w> 182
di ary</w> 182
th rough</w> 182
201 1</w> 182
mo o 182
wi sh</w> 182
1. 6</w> 182
ag ed</w> 182
ka waii</w> 182
note 3</w> 182
mer ic</w> 182
mor phe</w> 182
tat a</w> 182
sw ing</w> 182
ari el</w> 182
fan cy</w> 182
trans fer</w> 182
hydr o</w> 182
snap s</w> 182
mid night</w> 182
thr ones</w> 182
榨汁 机</w> 182
1 36 181
g ate</w> 181
( 6</w> 181
r m</w> 181
x z</w> 181
作 者:</w> 181
小 猫</w> 181
小 样</w> 181
衫 女</w> 181
马 拉 181
布 朗</w> 181
光 学</w> 181
纯 天然</w> 181
边 柜</w> 181
空 姐</w> 181
喜 欢</w> 181
喷 漆</w> 181
ar ch</w> 181
ki ller</w> 181
us ers</w> 181
br assi 181
ke vin</w> 181
19 70</w> 181
24 m</w> 181
gr 3</w> 181
wal king</w> 181
lay ers</w> 181
y6 6</w> 181
1000 ml</w> 181
dani el 181
gig ab 181
semi - 181
triu mph</w> 181
记事 本</w> 181
0 p</w> 180
d get</w> 180
机 架</w> 180
瓶 )</w> 180
深 v</w> 180
锅 盖</w> 180
重 机</w> 180
分 隔</w> 180
兰 特</w> 180
加 密</w> 180
胸 章</w> 180
文 具 180
华 硕</w> 180
芒 果</w> 180
幽 灵</w> 180
安 心</w> 180
邮 票</w> 180
原 液</w> 180
铸 铁</w> 180
te al</w> 180
pro 2019</w> 180
sli des</w> 180
ak o</w> 180
tri - 180
swi ss</w> 180
ca len 180
over all</w> 180
zi pp 180
sen s 180
str ong</w> 180
free bies</w> 180
my phone</w> 180
paj amas</w> 180
van ity</w> 180
inter national</w> 180
spro cket</w> 180
adv ance</w> 180
oly mp 180
replac eable</w> 180
o xi 179
2 12</w> 179
t b 179
t .</w> 179
a vi 179
z x</w> 179
e s- 179
d ance</w> 179
j d 179
鞋 面</w> 179
木 耳</w> 179
子 )</w> 179
梨 花</w> 179
库 里</w> 179
出 游</w> 179
添 加</w> 179
re new</w> 179
st ers</w> 179
li - 179
si ons</w> 179
de st 179
de tai 179
so up</w> 179
vi vo 179
pi ston</w> 179
sc ar</w> 179
mag az 179
2. 4</w> 179
stra ps</w> 179
gg les</w> 179
hy po 179
squ ee 179
ampo ule</w> 179
glo bal</w> 179
eu ro 179
dvd -</w> 179
cele br 179
compre ssion</w> 179
松紧 带</w> 179
lolit a</w> 179
emergen cy</w> 179
o real</w> 178
c w 178
3 30 178
s g 178
. 1</w> 178
* *</w> 178
b ani 178
小 妹</w> 178
自 用</w> 178
洁 净</w> 178
计 时 178
工 程 178
下 铺</w> 178
纽 扣</w> 178
燕 麦</w> 178
租 房</w> 178
尾 灯</w> 178
舞 会</w> 178
除 毛</w> 178
脱 毛</w> 178
互 动</w> 178
椭 圆</w> 178
姓 名</w> 178
le vi 178
li me</w> 178
ba d 178
qu a 178
ke to</w> 178
18 inches</w> 178
ven us</w> 178
ka was 178
dri ed</w> 178
is o</w> 178
fa b</w> 178
平底 锅</w> 178
m2 k</w> 178
一体 机</w> 178
3 -4 177
t p- 177
i d 177
m 9 177
a )</w> 177
. 2</w> 177
f 0 177
e mi 177
女 潮</w> 177
乳 器</w> 177
制 )</w> 177
立 体 177
子 弹</w> 177
正 方形</w> 177
义 大利</w> 177
哑 光</w> 177
门 后</w> 177
我 们</w> 177
油 漆</w> 177
飞 人</w> 177
出 差</w> 177
唱 歌</w> 177
理 发店</w> 177
巴 斯</w> 177
垫 片</w> 177
完 全</w> 177
淡 化</w> 177
室 内外</w> 177
at t 177
pe pper 177
17 5</w> 177
ag ate</w> 177
seas on 177
适用 于</w> 177
百褶 裙</w> 177
c 6</w> 176
- 12</w> 176
f 5 176
e qui 176
w d 176
全 新 176
花 生</w> 176
大 款</w> 176
│ 秒</w> 176
靴 女</w> 176
集 中</w> 176
锁 头</w> 176
上 海</w> 176
隔 层</w> 176
夜 灯</w> 176
姐 姐</w> 176
各 式</w> 176
as ted</w> 176
ri lak 176
po we 176
ele ment</w> 176
60 2</w> 176
70 1</w> 176
bro o 176
iphone 6/ 176
ge ome 176
lin e 176
cur tains</w> 176
2- in-1</w> 176
vol can 176
black head</w> 176
collecti ble</w> 176
jas mine</w> 176
飞行 器</w> 176
puri fier</w> 176
健身 房</w> 176
writ ing</w> 176
ryx skincerity</w> 176
citi zen</w> 176
1 set</w> 175
1 200 175
c av 175
t 8 175
i i 175
i g</w> 175
m po 175
k 1</w> 175
k b 175
k at</w> 175
小 凳子</w> 175
钢 管</w> 175
修 饰</w> 175
鲁 夫</w> 175
粘 贴</w> 175
定 时</w> 175
原 色</w> 175
镶 嵌</w> 175
披 风</w> 175
首 尔</w> 175
概 论</w> 175
an dre 175
re vit 175
10 8 175
po u 175
hi king</w> 175
12 6</w> 175
tr ain</w> 175
ear buds</w> 175
mar ks</w> 175
for e</w> 175
bur ner</w> 175
99 99</w> 175
ton y 175
kni ght</w> 175
moun tain</w> 175
gla m</w> 175
sac he 175
calcul ator</w> 175
oat meal</w> 175
o ther</w> 174
+ / 174
m s- 174
l bs</w> 174
男 人</w> 174
女 仆</w> 174
全 新)</w> 174
粉 扑</w> 174
降 噪</w> 174
长 型</w> 174
预 订</w> 174
碗 筷</w> 174
荷 兰</w> 174
经 济</w> 174
扩 充</w> 174
西 餐</w> 174
芝 麻</w> 174
声 光</w> 174
厨 具</w> 174
拇 指</w> 174
an n 174
st y</w> 174
se al 174
ir ving</w> 174
ra w</w> 174
be ans</w> 174
18 8</w> 174
ath le 174
ani e</w> 174
14 5</w> 174
chan ge</w> 174
iphone 8</w> 174
cou ture</w> 174
38 mm</w> 174
y6 2018</w> 174
pc .</w> 174
cra zy</w> 174
sat a</w> 174
ruff les</w> 174
tit anium</w> 174
kh aki</w> 174
pine apple</w> 174
carter 's</w> 174
aromat her 174
佩佩 猪</w> 174
diap ers</w> 174
5 80</w> 173
p ai 173
p ass 173
2 pc</w> 173
n u</w> 173
a 60</w> 173
e os</w> 173
克 兰</w> 173
女 郎</w> 173
b h</w> 173
小 米 173
卡 )</w> 173
天 梭</w> 173
新 竹</w> 173
北 极 173
达 人</w> 173
罩 杯</w> 173
托 架</w> 173
午 茶</w> 173
音 机</w> 173
个 子</w> 173
不 沾</w> 173
总 成</w> 173
除 湿</w> 173
齐 全</w> 173
勺 子</w> 173
an ch 173
re seller</w> 173
ac ade 173
se same</w> 173
20 4</w> 173
me l</w> 173
mo tion</w> 173
br ai 173
min a</w> 173
sk - 173
pe dal</w> 173
40 - 173
dis ru 173
tri o</w> 173
2. 1</w> 173
2. 1a</w> 173
3- 4</w> 173
charac ters</w> 173
read ing</w> 173
pal m</w> 173
nov a5 173
kid ston</w> 173
t1 ／</w> 173
daniel wellington</w> 173
kawas aki</w> 173
c 1</w> 172
h g 172
a 40</w> 172
金 证</w> 172
大 陆</w> 172
香 味</w> 172
润 泽</w> 172
风 火 172
风 铃</w> 172
木 板</w> 172
菲 拉 172
洛 克</w> 172
珍 藏</w> 172
狮 子</w> 172
箱 包</w> 172
烤 炉</w> 172
芝 麻 172
富 贵</w> 172
服 务</w> 172
冠 希</w> 172
藏 版</w> 172
杜 兰特</w> 172
re trac 172
co ck</w> 172
li f 172
12 v 172
chan ce</w> 172
jo e</w> 172
dr ying</w> 172
ban presto</w> 172
cen se</w> 172
cir cu 172
ultra boost</w> 172
die sel</w> 172
sache ts</w> 172
q 10</w> 171
i x 171
( b 171
d al 171
w ear 171
心 形</w> 171
小 伙伴</w> 171
金 银</w> 171
& g</w> 171
挂 表</w> 171
一 直</w> 171
胶 条</w> 171
正 宗</w> 171
奥 迪</w> 171
门 市</w> 171
控 制 171
松 饼</w> 171
气 泡</w> 171
泳 池</w> 171
财 神</w> 171
反 折</w> 171
进 化</w> 171
皆 可</w> 171
蜗 牛</w> 171
锻 炼</w> 171
re becca</w> 171
le ft</w> 171
en er</w> 171
li an</w> 171
ne ver 171
de scription</w> 171
br y 171
vi t</w> 171
ter nal</w> 171
11 4</w> 171
ci a</w> 171
60 8</w> 171
desig ner</w> 171
gr ace</w> 171
bal ly</w> 171
-3 5</w> 171
55 5</w> 171
tro users</w> 171
out put</w> 171
access ory</w> 171
non- slip</w> 171
spir al</w> 171
pocke t 171
esp adri 171
mun a 171
paci fier</w> 171
音乐 盒</w> 171
bobb i</w> 171
peo ple</w> 171
5 x</w> 170
p ain</w> 170
3 月</w> 170
k ur 170
v 4</w> 170
打 印 170
白 板</w> 170
发 廊</w> 170
大 众</w> 170
海 马</w> 170
公 分)</w> 170
法 兰</w> 170
速 度</w> 170
瓦 斯</w> 170
米 兰</w> 170
晒 衣架</w> 170
菜 板</w> 170
壁 饰</w> 170
霸 王</w> 170
未 使用</w> 170
璀 璨</w> 170
co tt 170
co mic</w> 170
er ina</w> 170
st ing</w> 170
st ate</w> 170
st eri 170
me mo</w> 170
char lotte</w> 170
18 650</w> 170
11 9</w> 170
sm - 170
90 2</w> 170
mu ji</w> 170
eri zed</w> 170
2- 3</w> 170
lan yard</w> 170
holi day</w> 170
gel - 170
牛皮 纸</w> 170
o w 169
9 3 169
1 100</w> 169
4 ml</w> 169
p b</w> 169
8 )</w> 169
2 70 169
车 架</w> 169
( 日本</w> 169
7 10 169
机 )</w> 169
j d</w> 169
k . 169
唇 彩</w> 169
人 缘</w> 169
实 心</w> 169
液 态</w> 169
呼 吸</w> 169
商 场</w> 169
冷 藏</w> 169
度 计</w> 169
投 影机</w> 169
副 食品</w> 169
re no 169
or i</w> 169
li ft</w> 169
po made</w> 169
wh at</w> 169
fu el</w> 169
ang e 169
clo set</w> 169
ka ws</w> 169
water melon</w> 169
nu mbers</w> 169
m- l</w> 169
is sey</w> 169
j7 10</w> 169
han na</w> 169
shin y</w> 169
o lay</w> 168
3 50ml</w> 168
t p</w> 168
m 44 168
a le 168
r as 168
d 3</w> 168
d ji</w> 168
克 罗 168
袋 )</w> 168
& 优</w> 168
大 眼</w> 168
屏 幕</w> 168
订 做</w> 168
名 &优</w> 168
穿 鞋</w> 168
幼 童</w> 168
勇 士</w> 168
20 3</w> 168
20 v</w> 168
sp inner</w> 168
uni que</w> 168
go ur 168
ml /</w> 168
500 mg</w> 168
yu n</w> 168
happ y 168
base us</w> 168
ga- 110</w> 168
davi d</w> 168
prime knit</w> 168
philipp ines</w> 168
y as 167
a e</w> 167
r in 167
小 兔</w> 167
奇 诺</w> 167
) .</w> 167
大 地</w> 167
记 录</w> 167
防 辐射</w> 167
艺 术 167
搭 扣</w> 167
五 斗 167
好 吃</w> 167
外 销</w> 167
私 人</w> 167
明 灯</w> 167
檀 香</w> 167
市 场</w> 167
ro ll 167
20 / 167
di o 167
si de 167
to ds</w> 167
el l 167
hi p 167
pro - 167
cu ff</w> 167
do min 167
ing co</w> 167
sm o</w> 167
24 - 167
par i 167
go ggles</w> 167
medi cal</w> 167
tren ding</w> 167
coo k 167
-- - 167
折叠 椅</w> 167
婴儿 车</w> 167
dur able</w> 167
(小 )</w> 167
station ery</w> 167
glutam ansi</w> 167
exerci se</w> 167
风火 轮</w> 167
8 19 166
h q</w> 166
n n 166
3 l</w> 166
3 ply</w> 166
s ack</w> 166
( 三</w> 166
r it 166
j ig 166
k 0 166
双 门</w> 166
小 鸭</w> 166
网 状</w> 166
茶 树</w> 166
花 苞</w> 166
毛 笔</w> 166
接 口</w> 166
扑 克 166
提 升</w> 166
散 热器</w> 166
五 角 166
精 装</w> 166
内 衬</w> 166
松 木</w> 166
媒 体</w> 166
台 风</w> 166
甜 甜 166
画 家</w> 166
走 路</w> 166
悬 挂</w> 166
供 奉</w> 166
mo mmy</w> 166
ho lic</w> 166
fo aming</w> 166
36 - 166
19 70s</w> 166
sm al</w> 166
25 pcs</w> 166
-3 6</w> 166
note 2</w> 166
note 9</w> 166
war dro 166
pon y 166
on- hand</w> 166
折叠 式</w> 166
圣诞 树</w> 166
boy leg</w> 166
thermo meter</w> 166
beach kin</w> 166
aller genic</w> 166
brief s</w> 166
qua ff</w> 166
aromather apy</w> 166
o s 165
5 v</w> 165
2 ml</w> 165
6 80 165
s kid</w> 165
t 4 165
m .</w> 165
m ers</w> 165
f 3 165
e mo 165
j p</w> 165
苏 打</w> 165
维 尼 165
网 格</w> 165
新 加 165
木 雕</w> 165
合 作</w> 165
光 泽</w> 165
工 学</w> 165
实 拍 165
蛋 器</w> 165
电 视 165
燃 气</w> 165
直 出</w> 165
拖 地</w> 165
交 通</w> 165
医 生</w> 165
课 本</w> 165
橄 榄 165
re le 165
ma p</w> 165
ne x 165
gh am</w> 165
ho u 165
pi c 165
gi ld 165
du ck</w> 165
1. 0</w> 165
dr um</w> 165
2. 0 165
op hi 165
stre chable</w> 165
3- in-1</w> 165
is ure</w> 165
is land</w> 165
ha wk</w> 165
cat h</w> 165
5. 2</w> 165
foo ds</w> 165
bon net</w> 165
boy friend</w> 165
fal se</w> 165
opti cal</w> 165
til ity</w> 165
哆啦 a</w> 165
volcan ic</w> 165
retrac table</w> 165
p r</w> 164
g eni 164
t actical</w> 164
m 0 164
l ati 164
x 9 164
裤 头</w> 164
红 绿</w> 164
人 机</w> 164
水 枪</w> 164
花 架子</w> 164
连 接</w> 164
光 镜</w> 164
提 琴</w> 164
板 房</w> 164
示 牌</w> 164
洗 面 164
会 议 164
冷 淡</w> 164
插 画</w> 164
需 要</w> 164
牡 丹</w> 164
待 机</w> 164
ar on</w> 164
co pper</w> 164
al li 164
lo real</w> 164
ma dre</w> 164
hi fi</w> 164
30 pcs</w> 164
sun shine</w> 164
sa ver</w> 164
sc ape</w> 164
ven t</w> 164
stre am</w> 164
twi sted</w> 164
christ ening</w> 164
dea d</w> 164
dk ny</w> 164
roman tic</w> 164
2016 年</w> 164
drin king</w> 164
hit achi</w> 164
anni vers 164
inver ter</w> 164
pepper mint</w> 164
新加 坡</w> 164
gild an</w> 164
4 28 163
p g 163
( 限定</w> 163
l b</w> 163
l ly</w> 163
f c 163
流 浪</w> 163
包 覆</w> 163
计 算 163
碳 素</w> 163
家 具 163
佛 珠</w> 163
三 联</w> 163
细 致</w> 163
柜 台</w> 163
整 装</w> 163
外 卖</w> 163
洗 澡 163
蓬 松</w> 163
莎 拉 163
遮 挡</w> 163
狗 头</w> 163
驼 色</w> 163
掉 色</w> 163
di va</w> 163
ba d</w> 163
ma am</w> 163
ap ad</w> 163
mo p</w> 163
su al</w> 163
so me 163
qu et</w> 163
12 2</w> 163
sel f- 163
she a</w> 163
nu ts</w> 163
scre w 163
ys l 163
tran scen 163
ame th 163
sele ct</w> 163
nap kin</w> 163
tek no</w> 163
4 mm</w> 162
c n 162
y 11</w> 162
i con</w> 162
m 4</w> 162
e po 162
e pic</w> 162
b ws</w> 162
红 豆</w> 162
小 站</w> 162
金 牌</w> 162
无 瑕</w> 162
大 功率</w> 162
衣 帽</w> 162
电 锅</w> 162
梦 想</w> 162
爆 裂</w> 162
扣 头</w> 162
回 馈</w> 162
台 上</w> 162
ac y</w> 162
al do</w> 162
ba c</w> 162
to wn</w> 162
de ca 162
pan t</w> 162
je ssi 162
sa y</w> 162
24 cm</w> 162
ps p</w> 162
mr .</w> 162
垃圾 袋</w> 162
rect angular</w> 162
age ment</w> 162
sciss ors</w> 162
dire ct</w> 162
256 gb</w> 162
raider 150</w> 162
muna fie</w> 162
c ation</w> 161
y n 161
7 )</w> 161
吉 祥</w> 161
金 箔</w> 161
钢 珠</w> 161
花 艺</w> 161
计 学</w> 161
正 生</w> 161
烟 器</w> 161
关 节</w> 161
空 白</w> 161
气 压</w> 161
什 么</w> 161
画 画</w> 161
样 板房</w> 161
睡 袍</w> 161
遇 见</w> 161
楠 竹</w> 161
st d</w> 161
ch as 161
ba re 161
cas h 161
vi ce</w> 161
bu ff 161
cc i</w> 161
15 8</w> 161
gra phy</w> 161
25 cm</w> 161
99 6</w> 161
sn ake</w> 161
va ult</w> 161
j2 pro</w> 161
holi ka</w> 161
mou th</w> 161
食品 级</w> 161
brassi ere</w> 161
甜甜 圈</w> 161
h ang</w> 160
机 电</w> 160
j 8 160
j y</w> 160
骑 车</w> 160
劳 保</w> 160
美 味</w> 160
大 耳</w> 160
盖 布</w> 160
袖 珍</w> 160
陈 列</w> 160
俱 乐 160
冷 暖</w> 160
扣 环</w> 160
低 胸</w> 160
绝 地</w> 160
刻 度</w> 160
滑 轮</w> 160
省 力</w> 160
ar s</w> 160
ac en 160
bo mb</w> 160
la d 160
el ine</w> 160
mo ssimo</w> 160
au str 160
50 mm</w> 160
do ctors</w> 160
uni t</w> 160
fe e</w> 160
fe el</w> 160
pe pper</w> 160
go t</w> 160
bra zi 160
fore st</w> 160
gucci /</w> 160
pain ted</w> 160
pet ite</w> 160
dior 迪奥 160
conver ter</w> 160
powe red</w> 160
tony moly</w> 160
o va</w> 159
8 1 159
g t- 159
h eng</w> 159
n ct</w> 159
n sw</w> 159
6 吋</w> 159
t ation</w> 159
r g</w> 159
l ace 159
k ad 159
v 17</w> 159
红 木</w> 159
海 道</w> 159
碳 纤</w> 159
托 特 159
老 花 159
长 靴</w> 159
司 机</w> 159
! )</w> 159
最 高</w> 159
假 花</w> 159
变 速</w> 159
曜 石</w> 159
台 桌</w> 159
只 要</w> 159
拳 击</w> 159
ar row</w> 159
th u 159
sp in</w> 159
ru by</w> 159
bea d</w> 159
lit ter</w> 159
mu sh 159
y9 2019</w> 159
dea d 159
chang ing</w> 159
house hold</w> 159
john son</w> 159
扑克 牌</w> 159
g gies</w> 158
u 11</w> 158
y an 158
t 5</w> 158
t g</w> 158
+ 1</w> 158
a / 158
a ff 158
r pm</w> 158
f 7 158
x b 158
w y</w> 158
v as 158
黑 曜石</w> 158
恤 衫</w> 158
巨 人</w> 158
钢 针</w> 158
古 铜</w> 158
极 限</w> 158
枕 芯</w> 158
毛 毡</w> 158
哑 铃</w> 158
钮 扣</w> 158
吊 床</w> 158
桃 木</w> 158
摩 登</w> 158
安 德 158
洗 头</w> 158
垫 脚</w> 158
酒 器</w> 158
消 毒 158
投 影 158
in it 158
le isure</w> 158
ac cent</w> 158
on o 158
sh ed</w> 158
lo ws</w> 158
lu ffy</w> 158
ea 7</w> 158
no vel</w> 158
che tte</w> 158
por ts</w> 158
nu tri 158
stor m</w> 158
ther mos</w> 158
gt x</w> 158
rou ge</w> 158
bapti smal</w> 158
ginger snaps</w> 158
wardro be</w> 158
俱乐 部</w> 158
o int 157
2 gb</w> 157
n 4 157
t 桖</w> 157
t ac 157
( c 157
m mi 157
l ala</w> 157
j 6plus</w> 157
乌 龟</w> 157
全 面</w> 157
地 图</w> 157
地 球</w> 157
北 海道</w> 157
重 型</w> 157
分 离</w> 157
防 汗</w> 157
珍 珠 157
智 力</w> 157
便 条 157
切 割 157
世 代</w> 157
模 拟</w> 157
薯 条</w> 157
an te 157
re ci 157
re ll</w> 157
it alian</w> 157
li er</w> 157
ro d</w> 157
ba pe</w> 157
ne eds</w> 157
bl k</w> 157
pi d</w> 157
12 1</w> 157
ke ttle</w> 157
be ats</w> 157
gir l 157
bal ls</w> 157
shi mmer</w> 157
spe ci 157
a7 9</w> 157
gro wer</w> 157
nova 2lite</w> 157
gin gham</w> 157
foot wear</w> 157
nin ja</w> 157
stren gth</w> 157
anch or</w> 157
transcen d</w> 157
5 x 156
3 90</w> 156
t x</w> 156
e y</w> 156
e ve</w> 156
吋 )</w> 156
v t</w> 156
手 持 156
孔 雀</w> 156
眼 膜</w> 156
发 售</w> 156
分 享</w> 156
叉 子</w> 156
球 员</w> 156
潮 t</w> 156
珍 品</w> 156
柜 门</w> 156
灵 顿</w> 156
电 容</w> 156
真 人</w> 156
回 收</w> 156
早 秋</w> 156
目 镜</w> 156
试 题</w> 156
ch oo 156
am o 156
ur o</w> 156
pi yao</w> 156
be ef</w> 156
be fore</w> 156
11 . 156
pl er</w> 156
200 8</w> 156
ag es</w> 156
3. 8</w> 156
ber ry 156
hard bound</w> 156
dor oid</w> 156
phy si 156
nouri shing</w> 156
nen doroid</w> 156
记忆 体</w> 156
2 x 155
l p 155
e z 155
j h 155
k 2 155
k 7</w> 155
野 兽</w> 155
黑 )</w> 155
夹 层</w> 155
无 缝</w> 155
娜 娜</w> 155
罐 头</w> 155
佛 像</w> 155
刺 猬</w> 155
羊 羔</w> 155
屁 股</w> 155
蜡 笔</w> 155
下 午茶</w> 155
方 桌</w> 155
梅 花</w> 155
道 教</w> 155
检 测</w> 155
医 疗</w> 155
摇 头</w> 155
期 限</w> 155
敏 感</w> 155
竞 技</w> 155
迎 宾</w> 155
on de</w> 155
20 8</w> 155
lu c 155
lu ck 155
la t</w> 155
sp lash</w> 155
wo w</w> 155
wi per</w> 155
sm all- 155
70 g</w> 155
-3 2</w> 155
fr ance</w> 155
long - 155
sch e</w> 155
mk 6 155
il lumin 155
玻璃 瓶</w> 155
pam pers</w> 155
king ston</w> 155
pig eon</w> 155
activ ated</w> 155
zir con</w> 155
secon d</w> 155
博柏 利</w> 155
equi pment</w> 155
annivers ary</w> 155
便条 纸</w> 155
o h 154
o per 154
2 x</w> 154
h ush</w> 154
i v</w> 154
i su 154
( 超</w> 154
f o</w> 154
e c</w> 154
x c</w> 154
d j</w> 154
v on</w> 154
管 道</w> 154
手 饰</w> 154
金 )</w> 154
钢 丝</w> 154
眼 圈</w> 154
大 大</w> 154
藤 椅</w> 154
木 色</w> 154
猫 眼</w> 154
三 洋</w> 154
补 丁</w> 154
高 贵</w> 154
玛 莎拉 154
莲 蓬 154
购 价</w> 154
夜 间</w> 154
喜 糖</w> 154
留 言</w> 154
墙 角</w> 154
姐 妹</w> 154
乔 治</w> 154
嫁 接</w> 154
co t</w> 154
le - 154
st ance</w> 154
cas tor</w> 154
mo mo</w> 154
de x</w> 154
30 5</w> 154
fe e 154
wal lets</w> 154
25 mm</w> 154
pen gu 154
hol low</w> 154
stra p 154
note 10</w> 154
anti bacterial</w> 154
moi st</w> 154
shar pen 154
vibr ator</w> 154
chron o 154
scrat ch</w> 154
disru ptor</w> 154
投影 仪</w> 154
init ial</w> 154
oint ment</w> 154
( 女 153
+ +</w> 153
r d 153
w h</w> 153
v able</w> 153
维 生 153
体 乳</w> 153
巨 无 153
满 意</w> 153
培 训</w> 153
干 果</w> 153
百 搭 153
单 眼</w> 153
拖 车</w> 153
su gar 153
gh ts</w> 153
car ol 153
12 mm</w> 153
per ry</w> 153
hea ds</w> 153
1. 0 153
ori o</w> 153
cr un 153
lip o</w> 153
iphone 7/ 153
tur meric</w> 153
sur face</w> 153
make -up</w> 153
sal on</w> 153
tar te</w> 153
hot wheels</w> 153
yar n</w> 153
水果 盘</w> 153
disinfect ant</w> 153
calen dar</w> 153
p d 152
p f</w> 152
g c 152
h in 152
h ur 152
t 6 152
t 7 152
i 5</w> 152
r 2</w> 152
l r</w> 152
美 学</w> 152
相 册</w> 152
光 阳</w> 152
防 虫</w> 152
奶 奶</w> 152
东 西</w> 152
兜 兜</w> 152
惠 灵顿</w> 152
望 远 152
研 磨</w> 152
柠 檬 152
溜 冰鞋</w> 152
檀 木</w> 152
都 市</w> 152
探 索</w> 152
俄 罗斯</w> 152
in se 152
st at 152
di p</w> 152
di n</w> 152
un ited</w> 152
ma r</w> 152
br o</w> 152
au di</w> 152
50 2</w> 152
pi ano</w> 152
bu g</w> 152
30 2</w> 152
ct ing</w> 152
sil ky</w> 152
ex press</w> 152
tu b</w> 152
70 - 152
25 - 152
her b</w> 152
rubb erized</w> 152
han abi 152
plan e</w> 152
inst a</w> 152
洗发 水</w> 152
rot ating</w> 152
scoo ter</w> 152
jui cy</w> 152
late st</w> 152
round neck</w> 152
手持 式</w> 152
望远 镜</w> 152
9 t</w> 151
c age</w> 151
8 x</w> 151
0 -3 151
n k</w> 151
i . 151
i mm 151
( m 151
f . 151
[ l</w> 151
x 12</w> 151
机 柜</w> 151
背 带 151
v 1</w> 151
冰 块</w> 151
b ong</w> 151
套 头 151
迪 奥</w> 151
彩 膜</w> 151
代 购)</w> 151
' t</w> 151
物 品</w> 151
圆 型</w> 151
奶 器</w> 151
铁 皮</w> 151
好 运</w> 151
去 除</w> 151
最 佳</w> 151
菜 刀</w> 151
: :</w> 151
路 由 151
除 尘</w> 151
练 习 151
增 压</w> 151
琥 珀</w> 151
lo tus</w> 151
si der</w> 151
bo ur 151
de ss 151
12 4</w> 151
pu pp 151
200 5</w> 151
bur st</w> 151
ach able</w> 151
sto p</w> 151
jord an 151
skin care</w> 151
tur tle 151
eng ine 151
mt b</w> 151
sof tg 151
up tempo</w> 151
top shop</w> 151
eth yl</w> 151
rea der</w> 151
steph en</w> 151
magaz ine</w> 151
莲蓬 头</w> 151
路由 器</w> 151
p ir 150
s max</w> 150
s ink</w> 150
u tility</w> 150
( 直</w> 150
m 60 150
[ x</w> 150
机 箱</w> 150
背 包 150
生 命</w> 150
用 款</w> 150
蓝 光</w> 150
旋 转 150
主 食</w> 150
护 套</w> 150
布 衣</w> 150
国 家</w> 150
国 外</w> 150
脖 子</w> 150
零 售</w> 150
处 理</w> 150
异 味</w> 150
便 捷</w> 150
唱 片</w> 150
聚 会</w> 150
结 单</w> 150
宫 崎 150
认 明</w> 150
li s</w> 150
li sa</w> 150
bo mb 150
lu ck</w> 150
lu re</w> 150
mi ya 150
ki m</w> 150
mar u 150
ju sti 150
bal i</w> 150
spor ts 150
yo yo</w> 150
ten g</w> 150
mu les</w> 150
28 cm</w> 150
fin al</w> 150
mini m 150
sal vat 150
gy mbo 150
aro ma</w> 150
bath ing</w> 150
tit an</w> 150
musi cal</w> 150
reser ved</w> 150
brai ded</w> 150
巨无 霸</w> 150
hanabi shi</w> 150
n md 149
t ing 149
r r</w> 149
d z 149
v s 149
冰 冰</w> 149
手 掌</w> 149
小 飞 149
水 光</w> 149
刀 片</w> 149
马 尾</w> 149
化 学</w> 149
过 家家</w> 149
锁 扣</w> 149
瑞 典</w> 149
时 尚 149
元 气</w> 149
麻 辣</w> 149
胖 胖</w> 149
种 植</w> 149
湖 水</w> 149
启 动</w> 149
in side</w> 149
re cor 149
re pri 149
le mon 149
po chette</w> 149
su ka</w> 149
ko ut</w> 149
pro / 149
sk ull</w> 149
ju n</w> 149
19 - 149
80 1</w> 149
gr and 149
chi ef</w> 149
13 3</w> 149
shi ft</w> 149
17 pro</w> 149
fac ed</w> 149
cand les</w> 149
sau r</w> 149
xl )</w> 149
don ut</w> 149
mang a</w> 149
dyn amic</w> 149
天鹅 绒</w> 149
frog suit</w> 149
revit ali 149
ophi dia</w> 149
洗面 奶</w> 149
托特 包</w> 149
softg els</w> 149
5 12</w> 148
c s- 148
6 3 148
s am</w> 148
t c 148
( 30</w> 148
m j 148
a &</w> 148
r t</w> 148
小 个子</w> 148
夹 心</w> 148
永 恒</w> 148
湿 机</w> 148
发 卡</w> 148
马 自 148
绿 )</w> 148
迷 你 148
迷 人</w> 148
百 搭</w> 148
八 五</w> 148
气 管</w> 148
贵 妃</w> 148
绷 带</w> 148
ar den</w> 148
co ated</w> 148
on ce</w> 148
lo west</w> 148
se c</w> 148
si sley</w> 148
ri ch 148
bo ston</w> 148
hi ll</w> 148
min ions</w> 148
fi x 148
36 -39</w> 148
15 6</w> 148
25 ml</w> 148
fla vo 148
ag a 148
hoo p</w> 148
fen g</w> 148
pin ky</w> 148
vap or</w> 148
shu i</w> 148
lati v</w> 148
5 12 147
9 50</w> 147
1 300</w> 147
c 5</w> 147
8 10</w> 147
8 50</w> 147
h as 147
u ts</w> 147
a 80</w> 147
r 3</w> 147
d an</w> 147
b .</w> 147
震 器</w> 147
美 睫</w> 147
浅 灰</w> 147
记 录器</w> 147
如 图</w> 147
立 牌</w> 147
' pie 147
领 劵</w> 147
土 耳 147
米 老鼠</w> 147
整 组</w> 147
瑕 疵</w> 147
不 可</w> 147
步 车</w> 147
猎 人</w> 147
今 日</w> 147
项 链 147
攻 略</w> 147
re packed</w> 147
st .</w> 147
al ur 147
at tire</w> 147
si x</w> 147
ma gi 147
gh ty</w> 147
ho p</w> 147
bu s</w> 147
blo oming</w> 147
1. 4</w> 147
90 1</w> 147
dr i</w> 147
air po 147
ash es</w> 147
2. 8</w> 147
prote in</w> 147
op po 147
fan tech</w> 147
absor b 147
gog oro</w> 147
log itech</w> 147
aur ora</w> 147
宫崎 骏</w> 147
o reo</w> 146
5 10</w> 146
1 -</w> 146
8 30</w> 146
g ap 146
s woo 146
t d 146
( 2 146
鞋 底</w> 146
b r</w> 146
手 推</w> 146
全 屏</w> 146
温 度</w> 146
衣 镜</w> 146
基 酸</w> 146
制 作 146
罐 装</w> 146
接 器</w> 146
细 节</w> 146
方 格</w> 146
乐 高 146
传 输</w> 146
精 英</w> 146
蛋 卷</w> 146
桃 色</w> 146
可 伸缩</w> 146
安 德玛</w> 146
卖 )</w> 146
原 矿</w> 146
钻 戒</w> 146
除 湿机</w> 146
穆 勒</w> 146
端 子</w> 146
插 花</w> 146
挑 战</w> 146
模 特</w> 146
di ent</w> 146
ki ki</w> 146
plu shi 146
we i 146
be dro 146
gra pe 146
tre ss</w> 146
ori a</w> 146
bre ad</w> 146
har ness</w> 146
y6 pro</w> 146
mini figure</w> 146
bio aqua</w> 146
emp ty</w> 146
proje ctor</w> 146
pun ch</w> 146
zc 55 146
even ing</w> 146
friend ly</w> 146
收银 台</w> 146
levi 's</w> 146
维生 素</w> 146
c j</w> 145
n . 145
s /</w> 145
s se</w> 145
t 2 145
. ph</w> 145
w / 145
b g 145
b d</w> 145
装 潢</w> 145
" \</w> 145
肤 宝 145
中 生</w> 145
枕 头套</w> 145
附 发票</w> 145
童 趣</w> 145
调 情</w> 145
盆 架</w> 145
菊 花</w> 145
麦 片</w> 145
尾 巴</w> 145
留 )</w> 145
穿 衣镜</w> 145
资 料 145
淡 斑</w> 145
杨 幂</w> 145
夸 张</w> 145
in du 145
co me 145
ba i 145
am u 145
th ro 145
th at</w> 145
ir on 145
sp read</w> 145
min d</w> 145
cu tie</w> 145
pa ul 145
we st 145
18 5</w> 145
uni form</w> 145
40 2</w> 145
60 3</w> 145
sig nal</w> 145
ang el 145
eni x</w> 145
beau ty 145
lex us</w> 145
abercrom bie</w> 145
alex ander</w> 145
oli via</w> 145
modu le</w> 145
染发 剂</w> 145
控制 器</w> 145
pengu in</w> 145
chrono graph</w> 145
salvat ore</w> 145
gymbo ree</w> 145
土耳 其</w> 145
- 10</w> 144
n p- 144
7 20 144
包 机</w> 144
v 7plus</w> 144
b inder</w> 144
瓶 器</w> 144
口 径</w> 144
双 排扣</w> 144
棉 外套</w> 144
保 时</w> 144
湿 巾</w> 144
自 动 144
花 花 144
大 叔</w> 144
彩 灯</w> 144
新 生</w> 144
鱼 骨</w> 144
多 彩</w> 144
中 大</w> 144
' m</w> 144
床 边柜</w> 144
提 袋</w> 144
清 水</w> 144
莱 卡</w> 144
会 员</w> 144
染 发</w> 144
跟 单</w> 144
le vi</w> 144
ro g</w> 144
di p 144
un ds</w> 144
ma d 144
15 cm</w> 144
ex per 144
-0 3</w> 144
cam o</w> 144
hy alur 144
pat ter 144
il lu 144
light stick</w> 144
emp orio</w> 144
sar ah</w> 144
过滤 网</w> 144
飞行 员</w> 144
api eu</w> 144
dino saur</w> 144
geome tric</w> 144
pari sian</w> 144
isu zu</w> 144
justi ce</w> 144
swoo sh</w> 144
5 w</w> 143
c cu 143
- 9 143
8 cm</w> 143
h l</w> 143
6 月</w> 143
( 白)</w> 143
7 s</w> 143
e a</w> 143
k ab 143
超 越</w> 143
b f 143
手 办</w> 143
心 率</w> 143
色 彩</w> 143
热 敷</w> 143
图 解</w> 143
晴 雨伞</w> 143
行 家</w> 143
纺 布</w> 143
松 鼠</w> 143
良 好</w> 143
商 品 143
随 意</w> 143
声 控</w> 143
le le</w> 143
sh f</w> 143
me as 143
th row</w> 143
mi k 143
mi zer</w> 143
sp lit</w> 143
201 6- 143
mo de</w> 143
da vis</w> 143
br ass</w> 143
12 9</w> 143
ru s</w> 143
ang ler</w> 143
tin ts</w> 143
multi media</w> 143
a7 2018</w> 143
mini ature</w> 143
goo gle</w> 143
rou ter</w> 143
lb c</w> 143
usb 3.0</w> 143
jack ets</w> 143
himala yan</w> 143
打印 机</w> 143
flavo red</w> 143
bedro om</w> 143
o u</w> 142
c / 142
h ul 142
h av 142
y ab 142
( 白 142
( 原</w> 142
r .</w> 142
f ted</w> 142
f air 142
x p 142
x u 142
性 爱</w> 142
无 纺布</w> 142
自 行</w> 142
马 来 142
海 豚</w> 142
成 年</w> 142
亚 曼尼</w> 142
多 拉</w> 142
接 收 142
食 用</w> 142
混 合</w> 142
铁 架</w> 142
比 亚</w> 142
音 频</w> 142
胡 子</w> 142
夏 威 142
简 洁</w> 142
闪 灯</w> 142
妃 包</w> 142
册 )</w> 142
an ten 142
re ne</w> 142
no ir</w> 142
fi sh 142
car pet</w> 142
gu m</w> 142
tu red</w> 142
14 . 142
fen ty</w> 142
sco pe</w> 142
3/ 4</w> 142
sci ence</w> 142
ultra - 142
late x</w> 142
热销 #</w> 142
strap less</w> 142
- 5</w> 141
f ad 141
d s- 141
女 帝</w> 141
金 边</w> 141
茶 器</w> 141
凉 被</w> 141
卷 边</w> 141
波 特</w> 141
半 透明</w> 141
春 天</w> 141
提 篮</w> 141
缇 花</w> 141
圆 珠</w> 141
食 堂</w> 141
沙 龙</w> 141
良 品</w> 141
售 出)</w> 141
画 板</w> 141
证 书</w> 141
锂 电池</w> 141
宣 传</w> 141
le e 141
it an</w> 141
di l 141
th read</w> 141
ma inten 141
hi n</w> 141
mo us 141
cre di 141
手提 式</w> 141
tra ding</w> 141
por sche</w> 141
fla kes</w> 141
sen se 141
que en 141
购物 车</w> 141
fa ith</w> 141
reju vin 141
eyel ashes</w> 141
flu id</w> 141
tech no 141
exfoli ating</w> 141
raz or</w> 141
bry ant</w> 141
9 g</w> 140
1 "</w> 140
h 0 140
t ang 140
( 100</w> 140
e 27</w> 140
x s/ 140
d l 140
d t</w> 140
d in 140
k s 140
v ity</w> 140
b n</w> 140
小 铺</w> 140
贴 花</w> 140
白 雪 140
墨 绿</w> 140
极 光</w> 140
基 本 140
活 性</w> 140
斜 纹</w> 140
号 码</w> 140
快 感</w> 140
学 t</w> 140
学 步车</w> 140
树 叶</w> 140
石 榴</w> 140
理 发</w> 140
战 神</w> 140
薄 纱</w> 140
沉 香</w> 140
蔷 薇</w> 140
仰 卧</w> 140
en ne</w> 140
di ac</w> 140
to l 140
ri n</w> 140
po tat 140
mi ss 140
sp ra 140
sho o 140
su ccu 140
min iso</w> 140
ho pe</w> 140
mon th</w> 140
wa y 140
13 1</w> 140
gra dient</w> 140
-3 8</w> 140
200 7</w> 140
lou t</w> 140
skin food</w> 140
lan tern</w> 140
bra d 140
fol ded</w> 140
sha wl</w> 140
alph abo 140
arti fi 140
保险 柜</w> 140
保险 箱</w> 140
sai lor</w> 140
kl airs</w> 140
figh ter</w> 140
fortun er</w> 140
五角 星</w> 140
小飞 象</w> 140
repri ced</w> 140
1 x 139
4 l</w> 139
c b</w> 139
2 k 139
2 b</w> 139
3 rd</w> 139
m x</w> 139
d z</w> 139
女 靴</w> 139
柚 子</w> 139
铺 ㊣</w> 139
护 目镜</w> 139
银 楼</w> 139
润 滑 139
物 理</w> 139
开 襟</w> 139
神 秘</w> 139
油 性</w> 139
方 框</w> 139
汤 碗</w> 139
电 源 139
个 )</w> 139
爆 款 139
烛 台</w> 139
喷 雾 139
区 )</w> 139
腕 带</w> 139
栅 栏</w> 139
讲 义</w> 139
in te 139
in nova</w> 139
re scu 139
on it 139
se ph 139
se ven</w> 139
su spen 139
ter o</w> 139
mar sh 139
hu da</w> 139
chan g</w> 139
200 9</w> 139
air con</w> 139
spi ce</w> 139
22 2</w> 139
comp lex</w> 139
mk 5 139
0- 3</w> 139
三角 形</w> 139
poli ce</w> 139
scoo p</w> 139
balan ce 139
brush es</w> 139
mother care</w> 139
史迪 奇</w> 139
screw driver</w> 139
mush room</w> 139
miya ke</w> 139
4 14 138
2 10 138
h e</w> 138
h b</w> 138
6 20</w> 138
s ket 138
t m</w> 138
t 短</w> 138
t ul 138
l 码</w> 138
f go</w> 138
j j</w> 138
v 5 138
应 用</w> 138
素 描</w> 138
筒 靴</w> 138
大 量</w> 138
蓝 黑</w> 138
主 持 138
重 工</w> 138
兰 芝</w> 138
木 床</w> 138
实 务</w> 138
石 英 138
刹 车</w> 138
钓 竿</w> 138
鼠 年</w> 138
穿 过</w> 138
求 婚</w> 138
历 史</w> 138
岁 月</w> 138
鲤 鱼</w> 138
at f</w> 138
ch an</w> 138
di et</w> 138
sp y 138
vi vi</w> 138
ru sh 138
che f</w> 138
24 9</w> 138
tre ats</w> 138
len e</w> 138
clo se</w> 138
-0 5</w> 138
max x</w> 138
san -x</w> 138
ren ce</w> 138
tur n</w> 138
sur f</w> 138
om nia</w> 138
mari e</w> 138
zo diac</w> 138
xr m 138
infin ite</w> 138
pig ment</w> 138
遥控 车</w> 138
密码 锁</w> 138
doll shoes</w> 138
水晶 球</w> 138
bani la</w> 138
deca y</w> 138
minim alist</w> 138
马自 达</w> 138
'pie u</w> 138
indu stri 138
alphabo unce</w> 138
p w 137
8 x 137
2 35 137
n t</w> 137
n ers</w> 137
t 3 137
t 2</w> 137
f m 137
d square 137
k ang 137
贴 纸 137
餐 垫</w> 137
极 品</w> 137
母 婴</w> 137
活 页</w> 137
沛 纳 137
文 乐</w> 137
普 通</w> 137
实 验</w> 137
线 香</w> 137
音 质</w> 137
微 波</w> 137
仙 子</w> 137
少 量</w> 137
许 愿</w> 137
喇 叭 137
避 震器</w> 137
la kers</w> 137
el bow</w> 137
201 5 137
min ers</w> 137
car b</w> 137
hu a 137
16 1</w> 137
oi ls</w> 137
ori z 137
tra p</w> 137
22 cm</w> 137
cur l</w> 137
high quality</w> 137
cei ling</w> 137
celebr ity</w> 137
rejuvin ating</w> 137
8 s</w> 136
g 7 136
g f 136
s se 136
i k 136
( 男 136
m ble</w> 136
f ty</w> 136
机 手</w> 136
j el 136
背 巾</w> 136
贝 儿</w> 136
维 多 136
链 带</w> 136
棉 鞋</w> 136
无 法</w> 136
亚 洲</w> 136
修 补</w> 136
净 化器</w> 136
阿 拉 136
' oreal</w> 136
韩 版</w> 136
开 花</w> 136
单 面</w> 136
板 桥</w> 136
精 密</w> 136
订 购</w> 136
吊 篮</w> 136
音 波</w> 136
限 定 136
塑 钢</w> 136
延 长</w> 136
等 级</w> 136
携 带 136
抛 弃</w> 136
ac i 136
on ly 136
me at</w> 136
ti de</w> 136
ne stle</w> 136
mo d 136
be tter</w> 136
be ast</w> 136
hu ggies</w> 136
ste amer</w> 136
13 8</w> 136
xi e</w> 136
ja zz</w> 136
ple ase</w> 136
jan e</w> 136
gt x 136
aa a</w> 136
givea way</w> 136
lett ers</w> 136
defen se</w> 136
p30 lite</w> 136
chun ky</w> 136
便利 店</w> 136
马拉 松</w> 136
hypo allergenic</w> 136
接收 器</w> 136
白雪 公主</w> 136
rescu e</w> 136
9 )</w> 135
p k 135
- 4</w> 135
u ce</w> 135
y 19</w> 135
q i 135
d ami 135
机 械 135
包 巾</w> 135
v alu 135
装 修</w> 135
皇 后</w> 135
) :</w> 135
大 马</w> 135
卡 龙 135
亚 马 135
底 裤</w> 135
开 幕</w> 135
长 度</w> 135
年 终</w> 135
雪 茄</w> 135
夫 妻</w> 135
电 饭 135
镜 框</w> 135
私 处</w> 135
潜 水 135
核 桃</w> 135
须 刀</w> 135
腰 部</w> 135
倒 流</w> 135
试 衣</w> 135
en e 135
ba dge</w> 135
ti ble</w> 135
wo men 135
qu es</w> 135
wi ll</w> 135
cc i 135
ex pand 135
80 5</w> 135
he m</w> 135
90 5</w> 135
water color</w> 135
zi p 135
max / 135
.... ...</w> 135
ah c</w> 135
wr angler</w> 135
ave eno</w> 135
kieh l' 135
det achable</w> 135
奇奇蒂 蒂</w> 135
pony tail</w> 135
计算 机</w> 135
artifi cial</w> 135
9 oz</w> 134
- l 134
n 9 134
3 15 134
3 70 134
3 pc</w> 134
t p 134
t s- 134
( 买</w> 134
a lex</w> 134
网 球</w> 134
美 杜 134
马 上</w> 134
乳 霜</w> 134
布 鲁 134
灰 )</w> 134
合 器</w> 134
百 年</w> 134
书 套</w> 134
圆 凳</w> 134
行 销</w> 134
五 月 134
柔 光</w> 134
通 讯</w> 134
瓷 杯</w> 134
平 民</w> 134
派 克</w> 134
恋 人</w> 134
总 代理</w> 134
曲 面</w> 134
刮 痧</w> 134
弹 跳</w> 134
宠 爱</w> 134
勇 者</w> 134
诚 信</w> 134
鉴 赏</w> 134
螃 蟹</w> 134
re fri 134
li m</w> 134
ro ber 134
di y 134
un sealed</w> 134
su p</w> 134
cre am 134
ta gs</w> 134
gi ord 134
ak er</w> 134
cam er 134
war mer</w> 134
ren a</w> 134
dou ble 134
tren ch</w> 134
lan cer</w> 134
flow y</w> 134
gif ts</w> 134
iso pro 134
onit suka</w> 134
6 000</w> 133
q i</w> 133
t 3</w> 133
t pad</w> 133
( 保留</w> 133
手 写</w> 133
同 学</w> 133
魔 方</w> 133
收 藏 133
影 片</w> 133
颈 枕</w> 133
轮 子</w> 133
兔 毛</w> 133
刷 色</w> 133
续 航</w> 133
件 )</w> 133
购 价)</w> 133
西 兰</w> 133
储 存</w> 133
财 务</w> 133
终 极</w> 133
农 场</w> 133
启 蒙</w> 133
矿 物</w> 133
远 程</w> 133
ar bu 133
to k</w> 133
am d</w> 133
po le</w> 133
la ura</w> 133
de ss</w> 133
car ry</w> 133
ex ternal</w> 133
sty ling</w> 133
fro g</w> 133
sw an</w> 133
polo shirt</w> 133
canv ass</w> 133
三角 架</w> 133
valen tine</w> 133
电子 秤</w> 133
oc to 133
\n \</w> 133
spark ling</w> 133
conver tible</w> 133
特价 $ 133
一体 式</w> 133
embo ssed</w> 133
smas h</w> 133
护发 素</w> 133
五斗 柜</w> 133
emo ji</w> 133
turtle neck</w> 133
hyalur onic</w> 133
mainten ance</w> 133
美杜 莎</w> 133
8 26 132
g ad 132
s ure</w> 132
u m 132
q 3</w> 132
( s 132
z ar 132
* 2</w> 132
k ki</w> 132
本 )</w> 132
本 子</w> 132
w en 132
生 存</w> 132
短 筒</w> 132
动 物 132
茶 叶 132
伞 状</w> 132
帆 船</w> 132
净 水器</w> 132
多 媒体</w> 132
中 学生</w> 132
底 片</w> 132
式 机</w> 132
角 度</w> 132
圆 筒</w> 132
雷 帽</w> 132
决 战</w> 132
直 排</w> 132
蒙 古 132
微 电脑</w> 132
浓 密</w> 132
及 膝</w> 132
煮 锅</w> 132
晶 片</w> 132
台 式机</w> 132
倒 车</w> 132
bo mber</w> 132
hi dden</w> 132
de rella</w> 132
car t</w> 132
per man 132
15 00 132
mb ps</w> 132
ha ve</w> 132
wash er</w> 132
0. 5mm</w> 132
the a</w> 132
指甲 剪</w> 132
工具 包</w> 132
best way</w> 132
tho mas</w> 132
stan ley</w> 132
reg ul 132
warri ors</w> 132
放大 镜</w> 132
芝麻 街</w> 132
mous se</w> 132
4 20</w> 131
2 m</w> 131
g 3</w> 131
h ak 131
h oriz 131
u l</w> 131
( 公司</w> 131
r 11 131
暖 暖</w> 131
拉 力</w> 131
金 钢</w> 131
人 体 131
无 味</w> 131
保 健 131
保 留)</w> 131
马 桶 131
海 盗</w> 131
天 线</w> 131
银 行</w> 131
合 成</w> 131
销 价</w> 131
转 印</w> 131
熊 本</w> 131
薄 型</w> 131
抑 菌</w> 131
台 布</w> 131
滑 雪</w> 131
程 式</w> 131
模 组</w> 131
椭 圆形</w> 131
st ack 131
al y 131
at i</w> 131
si on 131
mp ers</w> 131
ke ep</w> 131
blo wer</w> 131
hu a</w> 131
nat ion 131
man u 131
sty le 131
s- l</w> 131
mu d</w> 131
wai st 131
spe cs</w> 131
bar s</w> 131
j7 30</w> 131
no. 1</w> 131
gol d- 131
pli age</w> 131
radi ator</w> 131
bou quet</w> 131
ox ford</w> 131
abo ut</w> 131
iri s</w> 131
transfor mer</w> 131
克罗 心</w> 131
inse ct</w> 131
夏威 夷</w> 131
refri ger 131
4 99</w> 130
h ex 130
6 10</w> 130
t wee 130
m vp</w> 130
a cou 130
r j</w> 130
z el 130
d b</w> 130
j 1 130
尖 端</w> 130
男 t</w> 130
b ond</w> 130
日 版</w> 130
鸟 笼</w> 130
影 楼</w> 130
合 奏</w> 130
光 感</w> 130
' kitty</w> 130
防 疫</w> 130
五 件</w> 130
帘 子</w> 130
音 量</w> 130
触 摸</w> 130
悬 挂式</w> 130
停 车</w> 130
枸 杞</w> 130
侃 爷</w> 130
co w</w> 130
co phone</w> 130
st ap 130
al ma</w> 130
ch in 130
bo bo</w> 130
lu bri 130
ne ed 130
fi sher</w> 130
pi mp 130
pi zza</w> 130
tr ail</w> 130
tr unk</w> 130
be er</w> 130
be tty</w> 130
ou l</w> 130
ele d</w> 130
16 8 130
13 7</w> 130
-0 4</w> 130
2. 4g</w> 130
plan et</w> 130
smo ke</w> 130
pul lout</w> 130
cd )</w> 130
978 957 130
xr / 130
gt r</w> 130
plat es</w> 130
lett uce</w> 130
jp 0 130
jui cer</w> 130
sad dle</w> 130
ign ition</w> 130
携带 型</w> 130
giord ano</w> 130
perman ent</w> 130
1 box</w> 129
c x 129
p / 129
8 50 129
h h 129
m 6</w> 129
a ape</w> 129
事 业</w> 129
山 地</w> 129
b les</w> 129
b ha</w> 129
奇 异</w> 129
现 场</w> 129
水 乳</w> 129
妆 前 129
大 童</w> 129
卡 特</w> 129
粉 白</w> 129
盖 子</w> 129
影 城</w> 129
预 购 129
表 面</w> 129
铁 板</w> 129
快 递</w> 129
碧 玺</w> 129
奈 米</w> 129
绒 卫衣</w> 129
烈 鸟</w> 129
输 出</w> 129
甲 醛</w> 129
划 痕</w> 129
倒 翁</w> 129
co di 129
it i</w> 129
lo st</w> 129
ti k 129
ki sses</w> 129
mo st</w> 129
so und 129
wo of 129
we i</w> 129
we igh 129
mar s</w> 129
mar ia</w> 129
11 月</w> 129
hu ang</w> 129
pow dered</w> 129
je an</w> 129
je sus</w> 129
14 4 129
17 1</w> 129
ml -</w> 129
23 6</w> 129
is er</w> 129
cal ming</w> 129
咖啡 壶</w> 129
儿童 节</w> 129
enhan cer</w> 129
breast feeding</w> 129
电源 线</w> 129
1 b</w> 128
1 pack</w> 128
1 kl</w> 128
4 wd</w> 128
g ang</w> 128
h c 128
s g</w> 128
u pper</w> 128
i c 128
a 字 128
l r 128
7 pcs</w> 128
f x 128
f inger 128
包 膜</w> 128
k am 128
鞋 # 128
b 4 128
抽 取</w> 128
小 推车</w> 128
全 部</w> 128
人 份</w> 128
发 膜</w> 128
胶 鞋</w> 128
分 析</w> 128
收 音机</w> 128
公 文</w> 128
正 货</w> 128
皮 筋</w> 128
汽 油</w> 128
销 售</w> 128
蔓 越 128
五 代</w> 128
有 效</w> 128
标 签 128
好 好</w> 128
量 贩</w> 128
柯 南</w> 128
酒 神</w> 128
剃 须刀</w> 128
疲 劳</w> 128
段 式</w> 128
驾 驶</w> 128
ra men</w> 128
sho e 128
mo ul 128
car amel</w> 128
wat tpad</w> 128
bu bb 128
14 cm</w> 128
stu d 128
200 3</w> 128
22 8</w> 128
app li 128
multi- purpose</w> 128
玩具 店</w> 128
fresh ener</w> 128
fav or 128
loaf ers</w> 128
thri fted</w> 128
recei ver</w> 128
工程 车</w> 128
套头 衫</w> 128
乐高 积木</w> 128
anten na</w> 128
石英 钟</w> 128
kiehl' s 128
1 600</w> 127
1 liter</w> 127
4 10</w> 127
4 30</w> 127
- man</w> 127
h k 127
n \</w> 127
n ms</w> 127
6 80</w> 127
s wit 127
s ala 127
u ki</w> 127
y r 127
( 新</w> 127
( 1)</w> 127
a q</w> 127
r ina</w> 127
f ear</w> 127
d 3 127
流 水</w> 127
k r 127
丽 丽</w> 127
贝 雷帽</w> 127
w x 127
链 子</w> 127
深 海</w> 127
果 酱</w> 127
蓝 绿</w> 127
一 体</w> 127
凉 爽</w> 127
兰 花</w> 127
鱼 眼</w> 127
方 位</w> 127
梦 网</w> 127
莫 斯</w> 127
知 名</w> 127
初 中</w> 127
配 器</w> 127
回 弹</w> 127
等 身</w> 127
测 试</w> 127
营 养 127
励 志</w> 127
co se</w> 127
le i 127
en ts</w> 127
ch op 127
20 6</w> 127
ba i</w> 127
ba of 127
ma d</w> 127
so dium</w> 127
fi la 127
gu c</w> 127
bi a</w> 127
pi er 127
30 x 127
fe mme</w> 127
men ow</w> 127
16 9</w> 127
mon tero</w> 127
70 2</w> 127
17 8</w> 127
现货 #</w> 127
liqu e</w> 127
装饰 灯</w> 127
fru its</w> 127
refle ctive</w> 127
sj cam</w> 127
transfor mers</w> 127
yun teng</w> 127
var sity</w> 127
fon dant</w> 127
vintage "</w> 127
立体 声</w> 127
gour met</w> 127
沛纳 海</w> 127
arbu tin</w> 127
蒙古 包</w> 127
woof er</w> 127
baof eng</w> 127
p 0 126
6 x 126
i w 126
a z</w> 126
f / 126
z d 126
苏 菲</w> 126
v r 126
小 子</w> 126
黑 眼圈</w> 126
现 金</w> 126
蝶 古</w> 126
发 泡</w> 126
魔 女</w> 126
复 合</w> 126
主 机 126
家 用 126
高 雅</w> 126
硬 度</w> 126
开 瓶器</w> 126
神 域</w> 126
领 巾</w> 126
圆 球</w> 126
出 门</w> 126
洗 碗 126
随 身 126
十 足</w> 126
排 水</w> 126
框 架</w> 126
备 注</w> 126
芸 芸</w> 126
侦 探 126
硫 化</w> 126
on yx</w> 126
st he 126
sh u</w> 126
lo ss</w> 126
th ers</w> 126
ma de 126
de fin 126
ab ac 126
wh eat</w> 126
bi l 126
ter ra</w> 126
wi - 126
char les 126
col a</w> 126
sam son 126
ligh ten 126
sc ul 126
gr am 126
ori e</w> 126
ff el</w> 126
200 1</w> 126
stri ps</w> 126
sel l</w> 126
cam i 126
35 -39</w> 126
cal ci 126
sy nc</w> 126
elect ri 126
sw ad 126
lun ar</w> 126
wr inkle</w> 126
pin k 126
sco tch</w> 126
devi ce</w> 126
beat le</w> 126
kra ft</w> 126
rilak kuma</w> 126
sharpen er</w> 126
bomb shell</w> 126
维多 利亚</w> 126
人体 工学</w> 126
a ura</w> 125
7 mm</w> 125
7 60 125
e uro</w> 125
机 身</w> 125
拉 面</w> 125
手 链 125
棉 袄</w> 125
黑 黑</w> 125
果 蔬</w> 125
全 民</w> 125
大 王</w> 125
海 棉</w> 125
三 明治</w> 125
光 年</w> 125
灯 管</w> 125
糖 果 125
层 次</w> 125
牙 齿</w> 125
喵 喵</w> 125
镀 铬</w> 125
折 起</w> 125
章 鱼</w> 125
得 力</w> 125
出 品</w> 125
解 析</w> 125
十 一</w> 125
仪 表</w> 125
铜 色</w> 125
礼 券</w> 125
擦 拭</w> 125
狗 狗</w> 125
市 集</w> 125
宣 言</w> 125
啤 酒</w> 125
浣 熊</w> 125
徒 步</w> 125
in as</w> 125
ar 24 125
co in 125
al ly</w> 125
20 mm</w> 125
to m 125
po ts</w> 125
mi le</w> 125
br it 125
no ki 125
min e 125
ss o</w> 125
sam pler</w> 125
pe ti 125
gi l 125
19 v</w> 125
sc - 125
chi p</w> 125
fla g</w> 125
cam ry</w> 125
bri dge</w> 125
ml +</w> 125
hy per</w> 125
a5 1</w> 125
bar u</w> 125
1/ 144</w> 125
fol der</w> 125
sou th</w> 125
mt p- 125
ox y 125
kak ao</w> 125
evi l</w> 125
never full</w> 125
玛莎拉 蒂</w> 125
肤宝 水</w> 125
stud ded</w> 125
o wn</w> 124
1 -0 124
2 13 124
g on</w> 124
车 手</w> 124
y x 124
i 9 124
i ce 124
z 5 124
d u</w> 124
j k 124
k g 124
藻 土</w> 124
w ea 124
宝 盆</w> 124
全 集</w> 124
紫 罗兰</w> 124
挂 毯</w> 124
一 )</w> 124
制 造 124
制 品</w> 124
火 山</w> 124
公 仔 124
阿 尔 124
普 洱 124
干 洗</w> 124
下 )</w> 124
印 尼</w> 124
洗 面</w> 124
触 屏</w> 124
曲 线</w> 124
切 片</w> 124
名 字</w> 124
资 讯</w> 124
蚊 器</w> 124
垃 圾</w> 124
增 强</w> 124
st - 124
ro xy</w> 124
se t 124
de te 124
ko ko</w> 124
do om</w> 124
mar tin</w> 124
sk ort</w> 124
40 5</w> 124
mm / 124
sa ge</w> 124
tro user</w> 124
fen der</w> 124
gro w</w> 124
折叠 伞</w> 124
spf 30</w> 124
42 mm</w> 124
joy stick</w> 124
esp rit</w> 124
lt p- 124
防晒 乳</w> 124
indi an</w> 124
buy 1 124
coco a</w> 124
cali for 124
调味 料</w> 124
研磨 机</w> 124
rev lon</w> 124
codi le</w> 124
- a 123
g m 123
g ly 123
n as 123
3 m 123
3 n1</w> 123
t x 123
( 四</w> 123
( 男</w> 123
a u</w> 123
r j 123
r x- 123
l x 123
l m</w> 123
f p 123
e ma</w> 123
e ster</w> 123
超 声波</w> 123
手 作</w> 123
同 名</w> 123
果 干</w> 123
全 方位</w> 123
白 白</w> 123
花 布</w> 123
浅 色</w> 123
皂 盒</w> 123
开 学</w> 123
纯 净</w> 123
咖 哩</w> 123
长 方</w> 123
随 便</w> 123
配 送</w> 123
钓 鱼竿</w> 123
礼 品 123
雕 像</w> 123
摇 杆</w> 123
潘 多拉</w> 123
聪 明</w> 123
橄 榄</w> 123
st ella</w> 123
se tting</w> 123
ma - 123
la dy 123
el mo</w> 123
30 mm</w> 123
ke ima 123
be li 123
be be</w> 123
pe i</w> 123
cro codile</w> 123
ju li 123
che v 123
15 2</w> 123
15 1</w> 123
bat e</w> 123
-4 1</w> 123
ste ering</w> 123
nat ure 123
chi e</w> 123
35 5</w> 123
cha in 123
iphone 5</w> 123
lan e</w> 123
lun ar 123
180 0</w> 123
smo cked</w> 123
优惠 )</w> 123
8. 0</w> 123
tak al</w> 123
quil ted</w> 123
jon i</w> 123
spra yer</w> 123
o .</w> 122
c lip 122
h n 122
n x 122
6 l</w> 122
6 cm</w> 122
车 皮</w> 122
s q 122
s cho 122
( 蓝</w> 122
( 新款</w> 122
e ty</w> 122
包 子</w> 122
w yi</w> 122
# 新品</w> 122
水 族 122
动 能</w> 122
文 书</w> 122
涂 层</w> 122
即 食</w> 122
货 到 122
教 材</w> 122
麻 绳</w> 122
商 业</w> 122
编 号:</w> 122
聚 宝盆</w> 122
偏 光镜</w> 122
掌 柜</w> 122
奴 比</w> 122
离 合器</w> 122
世 界 122
船 型</w> 122
in fra 122
on g 122
ch ap 122
li l</w> 122
to go</w> 122
ai l 122
am ore</w> 122
10 a</w> 122
mo ck</w> 122
de co</w> 122
ab le 122
bi scu 122
uni verse</w> 122
je gg 122
sa em</w> 122
max 90</w> 122
sen sual</w> 122
af ter</w> 122
下杀 @ 122
auto light</w> 122
tai l 122
sol di 122
gs c</w> 122
2019 / 122
2n 1</w> 122
pean uts</w> 122
橡皮 擦</w> 122
door mat</w> 122
文具 盒</w> 122
sens itive</w> 122
电视 机</w> 122
absorb ent</w> 122
potat o</w> 122
喷雾 器</w> 122
茶叶 罐</w> 122
9 17 121
c di</w> 121
p l</w> 121
h u</w> 121
t 男</w> 121
m ain</w> 121
. 0</w> 121
l ang</w> 121
f d 121
j f</w> 121
k ed</w> 121
暖 器</w> 121
超 硬</w> 121
男 学生</w> 121
拉 链 121
拉 门</w> 121
女 网</w> 121
口 水</w> 121
装 扮</w> 121
金 盏 121
无 烟</w> 121
丝 带</w> 121
浪 琴</w> 121
布 贴</w> 121
活 性 121
加 压</w> 121
带 )</w> 121
毛 刷</w> 121
密 度</w> 121
下 巴</w> 121
涂 料</w> 121
印 象</w> 121
电 力</w> 121
电 吉他</w> 121
太 子</w> 121
巴 士</w> 121
照 镜</w> 121
牵 引</w> 121
稳 定</w> 121
al th</w> 121
la c</w> 121
su m</w> 121
mas er 121
ci ous</w> 121
13 .3</w> 121
par adi 121
flor a</w> 121
clo ver</w> 121
tri m</w> 121
stra ppy</w> 121
bracele ts</w> 121
dy son</w> 121
san it 121
comp art 121
zz y</w> 121
ful l 121
sport sac</w> 121
会议 桌</w> 121
airpo ds 121
industri al</w> 121
8 000</w> 120
2 11 120
2 kg</w> 120
h ab 120
6 26 120
t l- 120
i pa 120
( 9</w> 120
( 12</w> 120
( 简体</w> 120
l m 120
z inc</w> 120
冰 凉</w> 120
b g</w> 120
棉 花</w> 120
蓝 色)</w> 120
重 力</w> 120
蒂 芬 120
正 品)</w> 120
工 场</w> 120
噜 噜 120
草 坪</w> 120
午 餐</w> 120
纹 路</w> 120
哈 利 120
沙 包</w> 120
摩 洛 120
扭 扭</w> 120
! ! 120
纱 窗</w> 120
钻 头</w> 120
喷 枪</w> 120
名 器</w> 120
鲸 鱼</w> 120
研 究 120
完 成</w> 120
贵 妇</w> 120
晕 染</w> 120
le sportsac</w> 120
sh ine 120
ch - 120
ch u</w> 120
20 9</w> 120
di c</w> 120
me m 120
po pu 120
de light</w> 120
pre order</w> 120
fi lip 120
ad d</w> 120
car har 120
car ry 120
ver tical</w> 120
wi lli 120
mat t</w> 120
sam po</w> 120
je t 120
gra pe</w> 120
beau te</w> 120
hoo dy</w> 120
vin e 120
1- 4</w> 120
fun ny</w> 120
mer cci 120
pol i</w> 120
lv /</w> 120
mam ba</w> 120
big bang</w> 120
tee ther</w> 120
ner f</w> 120
boar d 120
plushi e</w> 120
亚马 逊</w> 120
5 1 119
p aid</w> 119
8 49 119
s ap 119
s gs</w> 119
u c</w> 119
t 9 119
z ero 119
d ora</w> 119
鞋 盒</w> 119
骑 士 119
b 2</w> 119
红 枣</w> 119
红 色)</w> 119
夹 板</w> 119
白 银</w> 119
无 糖</w> 119
刀 头</w> 119
眼 石</w> 119
海 盐</w> 119
星 期 119
民 谣</w> 119
布 面</w> 119
合 售</w> 119
中 小学生</w> 119
阿 赞 119
转 盘</w> 119
纸 尿 119
沙 拉 119
顶 上</w> 119
品 味</w> 119
窗 台</w> 119
视 器</w> 119
冷 风</w> 119
闪 光灯</w> 119
检 验</w> 119
汗 衫</w> 119
ar c</w> 119
co b</w> 119
co le 119
or ts</w> 119
it as</w> 119
lo u</w> 119
en tal</w> 119
la de 119
and er 119
pi a</w> 119
wi se</w> 119
sk et</w> 119
mat tress</w> 119
60 6</w> 119
her it 119
ach u</w> 119
tw inkle</w> 119
stre ss</w> 119
bir kin</w> 119
nav ar 119
sha ft</w> 119
sco tt</w> 119
7. 1</w> 119
oc cas 119
y. o</w> 119
edi fi 119
供应 器</w> 119
dess ert</w> 119
acou stic</w> 119
主机 板</w> 119
samson ite</w> 119
califor nia</w> 119
金盏 花</w> 119
摩洛 哥</w> 119
9 a</w> 118
c 9</w> 118
p yl</w> 118
y oo 118
t / 118
i 5- 118
( 近</w> 118
a ero</w> 118
7 吋</w> 118
e 0 118
d n 118
女 裤</w> 118
手 电</w> 118
全 省</w> 118
肤 水</w> 118
特 惠 118
骨 头</w> 118
北 京</w> 118
灰 姑娘</w> 118
| |</w> 118
附 录</w> 118
领 口</w> 118
标 示</w> 118
烟 盒</w> 118
整 箱</w> 118
异 形</w> 118
每 日</w> 118
问 题</w> 118
留 言 118
试 管</w> 118
祝 福</w> 118
厘 米</w> 118
呢 子</w> 118
监 视器</w> 118
re new 118
re tail</w> 118
se duction</w> 118
ti res</w> 118
10 28</w> 118
cas tle</w> 118
cas tle 118
us b- 118
su ction</w> 118
ph an 118
ko so</w> 118
bl in 118
bi ore</w> 118
ho les</w> 118
ho tel</w> 118
ter ran 118
bu 9 118
ing a</w> 118
con cer 118
18 9</w> 118
15 3</w> 118
wa ffle</w> 118
he li 118
chi bi</w> 118
bur n</w> 118
bel tbag</w> 118
iphone 7 118
wel ding</w> 118
23 5</w> 118
cm x 118
ms . 118
anti- theft</w> 118
art work</w> 118
工作 台</w> 118
spf 50 118
shop kins</w> 118
cin derella</w> 118
纪念 版</w> 118
bay max</w> 118
自慰 杯</w> 118
眼镜 架</w> 118
用品 .</w> 118
saf ari</w> 118
soap s</w> 118
refriger ator</w> 118
侦探 柯南</w> 118
o le</w> 117
o wn 117
c 4</w> 117
h x 117
3 75 117
3 45 117
u ten 117
i q 117
( 非</w> 117
r 7</w> 117
f d</w> 117
d angle</w> 117
包 围</w> 117
k 8</w> 117
k ate 117
v 10</w> 117
b en</w> 117
网 购</w> 117
金 丝绒</w> 117
酷 奇</w> 117
眼 皮</w> 117
地 靴</w> 117
卡 卡</w> 117
胶 底</w> 117
成 犬</w> 117
佳 能</w> 117
火 烈鸟</w> 117
袖 短t</w> 117
指 针</w> 117
神 仙</w> 117
印 字</w> 117
米 粒</w> 117
炖 锅</w> 117
越 野 117
面 )</w> 117
空 瓶</w> 117
直 升 117
视 觉</w> 117
身 体乳</w> 117
变 焦</w> 117
理 论</w> 117
定 妆</w> 117
排 气管</w> 117
原 料</w> 117
声 卡</w> 117
坎 肩</w> 117
li sh 117
10 月</w> 117
po sket</w> 117
ma king</w> 117
ne g 117
ko be 117
las er 117
pro ce 117
ke ys</w> 117
blu sher</w> 117
sk ate 117
pl acen 117
14 9</w> 117
bb w</w> 117
jo ker</w> 117
dr one</w> 117
lip cream</w> 117
bri dal</w> 117
ps 2</w> 117
.... ....</w> 117
the med</w> 117
pig gy</w> 117
ast ac 117
int elli 117
sav ing</w> 117
myst ery</w> 117
divi ded</w> 117
rele ase</w> 117
主持 人</w> 117
isopro pyl</w> 117
maser ati</w> 117
1 -4 116
c 万</w> 116
p j</w> 116
8 a</w> 116
y 79</w> 116
f at 116
z h</w> 116
e mul 116
j 0 116
包 包包</w> 116
k w</w> 116
w i</w> 116
抽 奖</w> 116
裤 腰带</w> 116
果 盘</w> 116
水 泵</w> 116
无 线 116
大 容量</w> 116
风 板</w> 116
火 星</w> 116
光 面</w> 116
颈 部</w> 116
老 爷</w> 116
飞 镖</w> 116
饭 碗</w> 116
太 极</w> 116
妞 妞</w> 116
承 重</w> 116
透 亮</w> 116
明 日</w> 116
止 痒</w> 116
测 量</w> 116
摇 铃</w> 116
娃 娃 116
练 字</w> 116
死 皮</w> 116
in fan 116
ro y</w> 116
ro asted</w> 116
to toro</w> 116
po mpo 116
da d</w> 116
pi k 116
adi an</w> 116
sam yang</w> 116
ex o 116
70 4</w> 116
25 6g</w> 116
200 6</w> 116
55 2</w> 116
har den</w> 116
multi ple</w> 116
star wars</w> 116
ken ne 116
玻璃 膜</w> 116
dh a</w> 116
drag on 116
decor ative</w> 116
百货 公司</w> 116
手工 艺</w> 116
arti st</w> 116
fal con</w> 116
ox o</w> 116
poly ester</w> 116
repel lent</w> 116
bee tle</w> 116
techni ques</w> 116
nova5 t</w> 116
ante ed</w> 116
seph ora</w> 116
jegg ings</w> 116
哈利 波特</w> 116
4 月</w> 115
c z 115
g ain</w> 115
3 pro</w> 115
y 75</w> 115
t 型</w> 115
i 6s</w> 115
i sta</w> 115
( 8</w> 115
( 中</w> 115
7 月</w> 115
f li 115
z 0 115
e qu 115
j 6 115
男 包</w> 115
克 拉</w> 115
w and</w> 115
w th</w> 115
w we</w> 115
v / 115
b 37 115
套 装 115
笔 芯</w> 115
埃 及</w> 115
金 丝</w> 115
发 露</w> 115
代 理 115
袖 口</w> 115
开 刃</w> 115
珠 子</w> 115
油 壶</w> 115
吊 椅</w> 115
仙 境</w> 115
西 点</w> 115
画 册</w> 115
阳 具</w> 115
监 测</w> 115
缓 冲</w> 115
蜘 蛛</w> 115
al len</w> 115
ro s</w> 115
bo unce</w> 115
ne st</w> 115
pre paid</w> 115
wo o</w> 115
50 5</w> 115
mas ter 115
gi ve</w> 115
sc a 115
sc ato</w> 115
90 - 115
35 ml</w> 115
ge m</w> 115
op p</w> 115
牛仔 布</w> 115
bar ako</w> 115
app le 115
ha zel</w> 115
play ing</w> 115
2020 / 115
pul ley</w> 115
cit rus</w> 115
u. s.</w> 115
poli s</w> 115
密码 箱</w> 115
excel lent</w> 115
文件 柜</w> 115
搅拌 机</w> 115
milk tea</w> 115
ascor bate</w> 115
olymp us</w> 115
动物 园</w> 115
infra red</w> 115
ipa ky</w> 115
vine gar</w> 115
terran ova</w> 115
placen ta</w> 115
5 28 114
n s 114
s us 114
i e 114
i k</w> 114
( 白</w> 114
x l- 114
b m</w> 114
手 机 114
双 子</w> 114
小 提琴</w> 114
打 气</w> 114
保 洁</w> 114
莉 玫</w> 114
发 行</w> 114
一 键</w> 114
改 善</w> 114
成 型</w> 114
瞬 间</w> 114
门 窗</w> 114
上 课</w> 114
神 话</w> 114
老 二</w> 114
轮 滑 114
快 手</w> 114
仙 气</w> 114
缝 线</w> 114
完 )</w> 114
抢 先</w> 114
浏 海</w> 114
煤 油</w> 114
as tro</w> 114
le ash</w> 114
it ane</w> 114
st ande 114
ch ase</w> 114
to s</w> 114
ti c 114
th ong</w> 114
th under</w> 114
la v 114
cas tell</w> 114
ph ar 114
fi e 114
tr i</w> 114
con tin 114
100 m</w> 114
du ffy</w> 114
15 mm</w> 114
80 2</w> 114
man n</w> 114
gg y</w> 114
der ma 114
san a</w> 114
fin d</w> 114
cm / 114
plan ts</w> 114
sha ver</w> 114
eas y 114
1.5 l</w> 114
clar i 114
devi l</w> 114
guar anteed</w> 114
god dess</w> 114
concentr ate</w> 114
mmi es</w> 114
nmd _ 114
valu e</w> 114
regul ator</w> 114
p al</w> 113
- free</w> 113
n ina</w> 113
s 20</w> 113
m to</w> 113
l .</w> 113
l tb</w> 113
7 28 113
f lo</w> 113
x 手机</w> 113
背 斜</w> 113
w av 113
b p</w> 113
味 )</w> 113
打 蜡</w> 113
水 袋</w> 113
钢 架</w> 113
封 面</w> 113
客 户</w> 113
工 业 113
恐 怖</w> 113
椅 背</w> 113
吊 扇</w> 113
耶 诞</w> 113
更 新</w> 113
气 机</w> 113
纽 西兰</w> 113
力 量</w> 113
会 场</w> 113
战 争</w> 113
测 器</w> 113
吹 风</w> 113
驱 车</w> 113
彼 得</w> 113
st ories</w> 113
sh in</w> 113
ti fied</w> 113
su baru</w> 113
tt es</w> 113
fi dget</w> 113
tr ash</w> 113
30 8</w> 113
one er</w> 113
15 / 113
14 6</w> 113
13 2</w> 113
kin e 113
33 3</w> 113
aj 4</w> 113
mol der</w> 113
mani cure</w> 113
cover s</w> 113
ful ly</w> 113
316 l</w> 113
bey blade</w> 113
choo se</w> 113
iron man</w> 113
hul k</w> 113
轮滑 鞋</w> 113
g 0 112
y ur 112
q 7</w> 112
i z</w> 112
( 3 112
a 1 112
r ust</w> 112
r anger</w> 112
j ul 112
作 业</w> 112
b w</w> 112
手 巾</w> 112
打 结</w> 112
黑 面</w> 112
兵 器</w> 112
水 母</w> 112
自 助</w> 112
大 摆</w> 112
河 马</w> 112
分 层</w> 112
中 空</w> 112
季 节</w> 112
硬 币</w> 112
脚 蹬</w> 112
单 鞋</w> 112
年 代</w> 112
功 夫 112
沙 漏</w> 112
教 具</w> 112
瓷 器</w> 112
居 家家</w> 112
麻 布</w> 112
初 版</w> 112
晶 晶</w> 112
贵 宾</w> 112
滑 滑</w> 112
齿 轮</w> 112
探 险</w> 112
烘 干 112
兼 容</w> 112
re ce 112
re ra</w> 112
li z</w> 112
ro mpers</w> 112
bo ws</w> 112
la bo</w> 112
mi ghty</w> 112
sp in 112
pr m</w> 112
qu in 112
50 cm</w> 112
wi d 112
cre pe</w> 112
30 - 112
con stru 112
60 - 112
t- in</w> 112
gir dle</w> 112
14 2</w> 112
13 9</w> 112
13 6</w> 112
1. 3</w> 112
go ku</w> 112
gen a</w> 112
mag s</w> 112
dr ain</w> 112
org e 112
dri ving</w> 112
000 0</w> 112
经济 学</w> 112
anti- aging</w> 112
who o</w> 112
customi ze</w> 112
den tal</w> 112
type c</w> 112
gla di 112
square pants</w> 112
mh z</w> 112
lash es</w> 112
rush guard</w> 112
popu lar</w> 112
carhar tt</w> 112
mercci 22</w> 112
herit age</w> 112
c l- 111
8 吋</w> 111
2 -</w> 111
2 k</w> 111
h z</w> 111
y ves</w> 111
t ella</w> 111
i ld</w> 111
( h 111
a ve</w> 111
l d- 111
f g</w> 111
* 1</w> 111
w b</w> 111
w en</w> 111
瓶 装</w> 111
生 态</w> 111
六 月</w> 111
小 人</w> 111
水 草</w> 111
白 熊</w> 111
保 险</w> 111
海 鲜</w> 111
古 龙</w> 111
衣 袋</w> 111
凤 凰</w> 111
银 河</w> 111
国 画</w> 111
亲 笔</w> 111
沙 袋</w> 111
元 宝</w> 111
更 换</w> 111
拆 卖</w> 111
军 装</w> 111
游 泳池</w> 111
排 球</w> 111
惠 普</w> 111
切 菜</w> 111
切 片 111
软 软</w> 111
瘦 脸</w> 111
员 工</w> 111
爵 士</w> 111
铲 子</w> 111
盥 洗</w> 111
in 1 111
ba - 111
ri hanna</w> 111
10 )</w> 111
10 w</w> 111
mi sh</w> 111
201 80 111
sho w 111
us ing</w> 111
mo cha</w> 111
vi al</w> 111
av an 111
pu ff 111
16 2</w> 111
16 oz</w> 111
sli cer</w> 111
cor set</w> 111
15 7</w> 111
ex cel</w> 111
can adian</w> 111
ml - 111
woo d 111
comp any</w> 111
化妆 盒</w> 111
y6 ii</w> 111
6. 0</w> 111
inst ru 111
spider -man</w> 111
stam ps</w> 111
kee per</w> 111
羽毛 球</w> 111
计时 器</w> 111
tp- link</w> 111
北极 熊</w> 111
reci pe</w> 111
(女 )</w> 111
tik tok</w> 111
charles &</w> 111
c ig 110
y r</w> 110
y st</w> 110
i or</w> 110
i pan 110
( 粉 110
m 8</w> 110
d v</w> 110
b ite</w> 110
心 灵</w> 110
日 制</w> 110
墨 绿色</w> 110
美 工</w> 110
浅 蓝</w> 110
重 量</w> 110
风 力</w> 110
射 灯</w> 110
艾 草</w> 110
鱼 子</w> 110
赛 斯 110
开 心</w> 110
玉 髓</w> 110
铁 塔</w> 110
兔 兔</w> 110
吊 柜</w> 110
柔 顺</w> 110
薰 香</w> 110
幻 想</w> 110
出 货 110
会 客</w> 110
不 同</w> 110
十 二 110
嘉 班 110
蚂 蚁</w> 110
瘦 长</w> 110
飘 逸</w> 110
煎 锅</w> 110
轴 承</w> 110
急 速</w> 110
re born</w> 110
ch box</w> 110
me xi 110
un lock</w> 110
10 5 110
ma j 110
mo use 110
wh o</w> 110
per spir 110
ta s</w> 110
40 -4 110
cor por 110
15 4</w> 110
15 w</w> 110
desig n 110
desig ned</w> 110
polo 衫 110
ji mmy</w> 110
band ana</w> 110
whi p</w> 110
blan k</w> 110
blan c万</w> 110
350 v2</w> 110
die cast</w> 110
neu tro 110
medic ine</w> 110
detai ls</w> 110
oper ated</w> 110
dsquare d2</w> 110
dami er</w> 110
lubri c 110
随身 听</w> 110
lade sh</w> 110
4 oz</w> 109
- p 109
2 25</w> 109
g 2</w> 109
g an 109
n d</w> 109
3 cm</w> 109
3 kg</w> 109
s dhc</w> 109
( 4 109
( 蓝)</w> 109
m v 109
a 's</w> 109
背 袋</w> 109
k m</w> 109
v ans 109
套 鞋</w> 109
日 杂</w> 109
" nike</w> 109
打 折</w> 109
人 像</w> 109
体 感</w> 109
餐 车</w> 109
药 材</w> 109
马 卡龙</w> 109
大 阪</w> 109
大 口</w> 109
温 度计</w> 109
魔 幻</w> 109
旋 风</w> 109
成 套</w> 109
衣 板</w> 109
爱 恋</w> 109
头 )</w> 109
母 子</w> 109
国 文</w> 109
加 工</w> 109
干 爽</w> 109
神 明</w> 109
灯 罩</w> 109
食 器</w> 109
纸 机</w> 109
米 亚</w> 109
米 桶</w> 109
牛 肉</w> 109
桃 子</w> 109
芭 蕾 109
最 低</w> 109
力 器</w> 109
浴 衣</w> 109
商 品)</w> 109
麦 克</w> 109
免 税</w> 109
低 调</w> 109
名 侦探柯南</w> 109
酒 瓶</w> 109
挑 逗</w> 109
概 念</w> 109
褪 色</w> 109
st o</w> 109
lo ad</w> 109
me et</w> 109
to ur 109
10 50</w> 109
po sh</w> 109
la gun 109
mi ll</w> 109
sp l 109
ol d 109
fi ller</w> 109
ver .</w> 109
cu tl 109
pe di 109
men t 109
blo o 109
fo un 109
sa ve</w> 109
70 3</w> 109
oi l- 109
13 5 109
gen tle 109
ten er</w> 109
flo ater</w> 109
stri ke</w> 109
35 mm</w> 109
can make</w> 109
gar nish</w> 109
99 7</w> 109
cap ri</w> 109
dar k 109
ha wai 109
pol kad 109
gro up</w> 109
180 ml</w> 109
cd g</w> 109
toi le 109
exten der</w> 109
jen na</w> 109
nike /</w> 109
tiff any 109
combin ed</w> 109
preci sion</w> 109
iv ory</w> 109
pm 2.5</w> 109
kids wear</w> 109
euro pe 109
蔓越 莓</w> 109
oxy gen</w> 109
keima v</w> 109
货到 付款</w> 109
soldi er</w> 109
纸尿 裤</w> 109
4 000</w> 108
h c</w> 108
3 年</w> 108
t 百</w> 108
( 满</w> 108
( 预购</w> 108
( 2)</w> 108
l ton</w> 108
e 5 108
j l 108
j ag 108
* 10</w> 108
山 居</w> 108
冰 机</w> 108
日 用</w> 108
竹 制</w> 108
人 类</w> 108
餐 桌布</w> 108
裸 色</w> 108
丝 器</w> 108
图 形</w> 108
适 用)</w> 108
大 堂</w> 108
卡 包</w> 108
半 圆</w> 108
格 斗</w> 108
高 街</w> 108
颈 鹿</w> 108
奥 利 108
狮 子 108
节 庆</w> 108
时 刻</w> 108
泰 迪</w> 108
铝 圈</w> 108
题 库</w> 108
扣 子</w> 108
薄 款</w> 108
软 垫</w> 108
首 发</w> 108
鲑 鱼</w> 108
认 知</w> 108
co very</w> 108
or al</w> 108
ba be</w> 108
me ss 108
un e</w> 108
ra t</w> 108
te en 108
so ul 108
18 4</w> 108
ta les</w> 108
36 mm</w> 108
19 5</w> 108
sc al 108
gra ded</w> 108
bro ws</w> 108
2. 2</w> 108
cha ins</w> 108
bri gh 108
gg ed</w> 108
star ry</w> 108
bang ladesh</w> 108
y5 ii</w> 108
fer n</w> 108
neo 7</w> 108
xr 1</w> 108
buil t-in</w> 108
sab er</w> 108
ato my</w> 108
wind proof</w> 108
rect angle</w> 108
hyper dunk</w> 108
toy castle 108
fire fly</w> 108
corre ction</w> 108
nutr ition</w> 108
miu miu</w> 108
net work</w> 108
电话 机</w> 108
li- ion</w> 108
espadri lle</w> 108
jig saw</w> 108
vas eline</w> 108
meas uring</w> 108
五月 天</w> 108
wi- fi</w> 108
calci um</w> 108
sanit ary</w> 108
concer t</w> 108
ipan ema</w> 108
neutro gena</w> 108
toycastle 3</w> 108
1 /</w> 107
c v 107
8 oz</w> 107
2 14 107
n v 107
3 14 107
s v 107
s as 107
u d</w> 107
i 8 107
( 中 107
m use</w> 107
d p</w> 107
包 组</w> 107
能 力</w> 107
v 领 107
冰 河</w> 107
果 果</w> 107
运 送</w> 107
地 区</w> 107
大 腿</w> 107
温 控</w> 107
温 暖</w> 107
娜 美</w> 107
字 体</w> 107
爱 上</w> 107
妮 妮</w> 107
豆 浆</w> 107
风 暴</w> 107
专 用)</w> 107
亮 度</w> 107
细 腻</w> 107
黄 蜂</w> 107
工 地</w> 107
脚 底</w> 107
散 打</w> 107
哈 雷</w> 107
码 )</w> 107
气 筒</w> 107
变 身</w> 107
氨 基酸</w> 107
喷 水</w> 107
焕 肤</w> 107
鼻 子</w> 107
施 工</w> 107
摆 台</w> 107
档 案</w> 107
远 射</w> 107
亏 本</w> 107
渲 染</w> 107
co re 107
le boy</w> 107
sh an 107
ro cker</w> 107
di an</w> 107
si l</w> 107
ai de 107
ri s</w> 107
sho pp 107
mo t 107
cre e 107
30 6</w> 107
be anie</w> 107
16 6</w> 107
19 2</w> 107
oi l 107
oi se</w> 107
dis count</w> 107
dr y 107
200 2</w> 107
bur berry 107
stra y</w> 107
bre e 107
fig u 107
hal o</w> 107
y6 pro2019</w> 107
4. 1</w> 107
colla p 107
sl acks</w> 107
band age</w> 107
gro wth</w> 107
flu ffy</w> 107
130 g</w> 107
lac es</w> 107
fur y 107
wee ken 107
\n \n</w> 107
gab ri 107
indi vi 107
杀价 @</w> 107
bol ts</w> 107
gho st</w> 107
season ing</w> 107
broo ch</w> 107
背带 裤</w> 107
cutl ery</w> 107
o b</w> 106
- s</w> 106
6 d</w> 106
t v 106
i 11</w> 106
i zed</w> 106
r u</w> 106
z ers</w> 106
黑 水</w> 106
人 造</w> 106
自 留</w> 106
马 戏 106
粉 彩</w> 106
一 样</w> 106
盒 装)</w> 106
民 国</w> 106
新 颖</w> 106
连 裤袜</w> 106
合 格</w> 106
公 牛</w> 106
带 线</w> 106
高 度</w> 106
高 阶</w> 106
潮 鞋</w> 106
云 南</w> 106
百 折</w> 106
年 会</w> 106
铁 灰</w> 106
刷 牙</w> 106
境 内</w> 106
票 )</w> 106
通 风</w> 106
前 灯</w> 106
摩 托</w> 106
扭 结</w> 106
西 亚</w> 106
四 轴</w> 106
曲 奇</w> 106
秘 书</w> 106
冲 洗</w> 106
re se 106
or chi 106
ac hi 106
ba gu 106
10 l</w> 106
ra v4</w> 106
ab str 106
fi shing</w> 106
vi lle</w> 106
ho lo 106
pi ck 106
pi oneer</w> 106
mar ch</w> 106
18 6</w> 106
ele s</w> 106
sti x</w> 106
chi ca 106
gra b</w> 106
90 6</w> 106
bel ly</w> 106
2. 4 106
can to</w> 106
-2 8</w> 106
pur itan</w> 106
she y</w> 106
mer ce 106
cke ts</w> 106
120 cm</w> 106
0. 3</w> 106
hon g 106
aj 11</w> 106
smo k</w> 106
gucci 包包</w> 106
a9 2020</w> 106
absor ber</w> 106
卖场 ;</w> 106
anth a</w> 106
qc 3.0</w> 106
dx f</w> 106
loaf er</w> 106
cook ware</w> 106
切割 机</w> 106
engine ering</w> 106
exper t</w> 106
基本 款</w> 106
buy1 take1</w> 106
kenne th</w> 106
5 月</w> 105
4 年</w> 105
c ani 105
- x 105
i f</w> 105
( 0 105
a 00 105
l ] 105
d t 105
贝 尔</w> 105
b h 105
b ale</w> 105
宝 盒</w> 105
乌 克 105
打 孔 105
人 形</w> 105
保 湿</w> 105
大 同</w> 105
一 番</w> 105
海 钓</w> 105
国 语</w> 105
公 鸡</w> 105
正 器</w> 105
球 球</w> 105
门 锁</w> 105
皮 裤</w> 105
瓜 子</w> 105
八 卦</w> 105
时 空</w> 105
长 颈鹿</w> 105
年 轻</w> 105
鲜 货</w> 105
雪 糕</w> 105
电 表</w> 105
橡 皮</w> 105
来 电</w> 105
来 自</w> 105
菩 萨</w> 105
说 话</w> 105
宽 袖</w> 105
婷 婷</w> 105
浴 袍</w> 105
爆 乳</w> 105
挡 风板</w> 105
塑 料 105
尾 翼</w> 105
统 一</w> 105
嫩 白</w> 105
农 用</w> 105
驼 背</w> 105
re tte</w> 105
co ro 105
st ent</w> 105
en chan 105
se ssion</w> 105
ti ck</w> 105
ti ps</w> 105
ri m</w> 105
ir a</w> 105
de tail</w> 105
qu al 105
bi lena</w> 105
do w 105
do re 105
ss - 105
pan er 105
pe ter</w> 105
boo t</w> 105
60 5</w> 105
fu ji</w> 105
bat tle</w> 105
70 cm</w> 105
opp or 105
2. 7</w> 105
hoo ks</w> 105
ge m 105
pat ent</w> 105
lan vin</w> 105
neo 9</w> 105
(全 )</w> 105
xl 码</w> 105
post card</w> 105
cit ron 105
lipp ie</w> 105
cray on</w> 105
wave 125</w> 105
andre a</w> 105
实拍 )</w> 105
austr alia</w> 105
dil do</w> 105
pimp le</w> 105
peti t</w> 105
普洱 茶</w> 105
compart ment</w> 105
芭蕾 舞</w> 105
europe an</w> 105
5 th</w> 104
4 xl</w> 104
8 20 104
8 in1</w> 104
2 cm</w> 104
g k 104
g l</w> 104
s word</w> 104
i mar 104
( f 104
m 3 104
m us</w> 104
r f</w> 104
r ca</w> 104
后 备 104
包 屁</w> 104
鞋 店</w> 104
山 水</w> 104
w s 104
色 料</w> 104
日 本 104
小 衫</w> 104
奇 妙</w> 104
赫 本</w> 104
人 力</w> 104
二 色</w> 104
图 片</w> 104
连 续</w> 104
佳 人</w> 104
酱 油</w> 104
上 色</w> 104
吸 乳器</w> 104
蜡 线</w> 104
单 冷</w> 104
单 排扣</w> 104
月 饼</w> 104
有 限</w> 104
纸 箱</w> 104
屋 顶</w> 104
烧 水壶</w> 104
折 )</w> 104
菜 瓜</w> 104
断 电</w> 104
礼 包</w> 104
雕 塑</w> 104
穿 )</w> 104
画 笔</w> 104
芥 末</w> 104
模 式</w> 104
锯 齿</w> 104
讲 机</w> 104
钞 票</w> 104
re i 104
st en 104
ch ina</w> 104
ti e 104
ri x</w> 104
bo o</w> 104
201 8/ 104
su cc 104
so cial</w> 104
00 7 104
ko lin</w> 104
min ion</w> 104
do ta</w> 104
sun set</w> 104
18 v</w> 104
pe ace</w> 104
80 - 104
ori zed</w> 104
her bs</w> 104
cr ush</w> 104
2. 5d</w> 104
hand ker 104
mu gs</w> 104
lip sticks</w> 104
sto re 104
cal y 104
bir th</w> 104
remo vable</w> 104
bor o</w> 104
bor ne</w> 104
free ship</w> 104
flas k</w> 104
mac aron</w> 104
遮阳 板</w> 104
reju v</w> 104
thi ck 104
67 8</w> 104
ae sthe 104
eu c</w> 104
mate 20 104
cover age</w> 104
dur ant</w> 104
ferragam o 104
chal len 104
系列 )</w> 104
button ed</w> 104
occ itane</w> 104
squee ze</w> 104
athle tic</w> 104
ameth yst</w> 104
luc as</w> 104
inte gr 104
emul sion</w> 104
功夫 茶</w> 104
perspir ant</w> 104
马戏 团</w> 104
后备 箱</w> 104
5 kg</w> 103
4 20 103
g f</w> 103
n h 103
n ine 103
6 1 103
6 40 103
s la 103
( 50</w> 103
a pol 103
r s- 103
f r</w> 103
f .</w> 103
f ter</w> 103
f fl 103
k 20</w> 103
v w</w> 103
心 情</w> 103
☆ ☆</w> 103
热 水器</w> 103
肉 机</w> 103
香 菇</w> 103
] # 103
拍 拍</w> 103
辅 助 103
羊 肉</w> 103
油 瓶</w> 103
长 桌</w> 103
童 袜</w> 103
芭 比 103
点 缀</w> 103
梦 游</w> 103
胡 椒</w> 103
奔 驰</w> 103
七 夕</w> 103
起 坐</w> 103
磨 刀 103
闪 闪</w> 103
任 意</w> 103
照 明灯</w> 103
贵 族</w> 103
救 援</w> 103
ar 5 103
as y 103
al - 103
ro ses</w> 103
di sco</w> 103
th ink 103
so ur 103
qu er</w> 103
fi ction</w> 103
ear ing</w> 103
pa ge</w> 103
pan ther</w> 103
fe li 103
ta p</w> 103
mas s</w> 103
60 4</w> 103
fo ur 103
16 4</w> 103
pri z 103
he al</w> 103
dis ne 103
secre ts</w> 103
1/ 2 103
app a</w> 103
0. 9</w> 103
cat or</w> 103
micro matic</w> 103
person a</w> 103
light ly</w> 103
pear ls</w> 103
bon bon</w> 103
7/ 8</w> 103
non- wire</w> 103
y91 i</w> 103
mang o 103
two- piece</w> 103
lulu lemon</w> 103
fel t</w> 103
老花 镜</w> 103
妆前 乳</w> 103
paradi se</w> 103
aide lai</w> 103
figu arts</w> 103
collap sible</w> 103
abstr act</w> 103
o dy 102
5 80 102
5 99</w> 102
p ine</w> 102
p unk</w> 102
2 , 102
2 13</w> 102
g w</w> 102
3 40 102
3 3- 102
t k 102
i pod</w> 102
i kon</w> 102
( 7 102
a -2 102
l 's</w> 102
e ter 102
后 跟</w> 102
男 朋友</w> 102
作 者</w> 102
入 / 102
双 重</w> 102
丝 质</w> 102
自 在</w> 102
自 带</w> 102
盒 带</w> 102
绳 子</w> 102
字 帖</w> 102
浅 蓝色</w> 102
新 春</w> 102
影 视</w> 102
椰 子 102
防 静电</w> 102
蜂 胶</w> 102
指 尖</w> 102
百 合</w> 102
吸 附</w> 102
汽 修</w> 102
长 卷</w> 102
长 短</w> 102
弯 头</w> 102
年 华</w> 102
荷 花</w> 102
夫 人</w> 102
休 息</w> 102
蒸 笼</w> 102
限 时 102
真 爱</w> 102
周 年 102
唯 一</w> 102
军 规</w> 102
巴 利</w> 102
玩 乐</w> 102
膝 盖</w> 102
抱 抱</w> 102
褥 子</w> 102
警 察</w> 102
in s 102
in al</w> 102
re ar 102
er l 102
lo cal</w> 102
ro t</w> 102
se awe 102
ba s</w> 102
ti le</w> 102
bo ss 102
10 7 102
ni er</w> 102
te s 102
201 2 102
201 8- 102
su ga</w> 102
pro polis</w> 102
cu xi</w> 102
18 1</w> 102
11 100</w> 102
ta i</w> 102
ci e</w> 102
19 8</w> 102
ce e</w> 102
he eled</w> 102
her shey</w> 102
pen tel</w> 102
flo ur</w> 102
can non</w> 102
1- 5</w> 102
super hero</w> 102
chri s</w> 102
a- line</w> 102
ot to 102
hd d</w> 102
dam age</w> 102
rela x 102
touch screen</w> 102
hip ster</w> 102
brazi lian</w> 102
直升 机</w> 102
烘干 机</w> 102
o logy</w> 101
4 80 101
p vc 101
2 16</w> 101
h s 101
y te</w> 101
t /</w> 101
( 内</w> 101
m 9</w> 101
m t- 101
z ard</w> 101
d k</w> 101
d 's</w> 101
机 场</w> 101
j t</w> 101
j di</w> 101
流 量</w> 101
b 1</w> 101
宝 剑</w> 101
六 色</w> 101
柑 橘</w> 101
橘 红</w> 101
主 义</w> 101
蒂 芙 101
风 云</w> 101
开 店</w> 101
灯 座</w> 101
书 坊</w> 101
玉 a</w> 101
汤 姆</w> 101
休 眠</w> 101
外 置</w> 101
戴 尔</w> 101
欣 欣</w> 101
盆 景</w> 101
洗 衣</w> 101
第 六</w> 101
番 茄</w> 101
束 缚</w> 101
服 务 101
进 击</w> 101
阴 蒂</w> 101
杂 粮</w> 101
菠 萝</w> 101
le an</w> 101
st ir 101
st ine</w> 101
su shi</w> 101
qu oise</w> 101
car i 101
kore an 101
pa y 101
pa gne</w> 101
shor t- 101
sun day</w> 101
pan ty 101
ele t</w> 101
11 5 101
slee k</w> 101
40 cm</w> 101
ce real</w> 101
can dies</w> 101
can ada</w> 101
wel l 101
45 x 101
pil lows</w> 101
sur vi 101
penci ls</w> 101
工具 车</w> 101
poly mer</w> 101
ide apad</w> 101
bey ond</w> 101
arc tic</w> 101
luck y 101
制作 人</w> 101
tul le</w> 101
(男 )</w> 101
double - 101
礼品 盒</w> 101
edifi ce</w> 101
own ed</w> 101
pik achu</w> 101
gladi ator</w> 101
lagun a</w> 101
citron ella</w> 101
4 cm</w> 100
8 44 100
2 15</w> 100
n asa</w> 100
3 40</w> 100
s it 100
q w 100
( 上 100
( m)</w> 100
m 8 100
m h</w> 100
7 47 100
f v 100
妳 ]☆</w> 100
d g 100
生 产</w> 100
无 双</w> 100
环 绕</w> 100
适 配器</w> 100
天 地</w> 100
风 大</w> 100
丹 麦</w> 100
皮 具</w> 100
广 告 100
油 箱</w> 100
舰 队</w> 100
椅 套</w> 100
雪 靴</w> 100
前 卫</w> 100
翻 斗</w> 100
气 灶</w> 100
推 荐 100
壹 湾</w> 100
束 带</w> 100
邮 寄</w> 100
形 状</w> 100
支 )</w> 100
绵 羊</w> 100
席 子</w> 100
or nam 100
st ro 100
lo w- 100
ch el 100
ch ea 100
am ar 100
po me 100
ma gen 100
ne ed</w> 100
ur ai</w> 100
hi s</w> 100
ph a</w> 100
br al 100
tr d</w> 100
cre ations</w> 100
30 / 100
30 m</w> 100
sig n 100
colo ure 100
hu i</w> 100
36 -4 100
bas ics</w> 100
son g</w> 100
90 9</w> 100
bur ger</w> 100
1- 1</w> 100
lin es</w> 100
run way</w> 100
long back</w> 100
cur ved</w> 100
tur quoise</w> 100
ine 100</w> 100
ank let</w> 100
cham pagne</w> 100
mis sion</w> 100
sd xc</w> 100
rash er</w> 100
电子 琴</w> 100
effe ctive</w> 100
materi als</w> 100
ide al</w> 100
craf ts</w> 100
lamin ating</w> 100
ido lish 100
sports wear</w> 100
ting i</w> 100
fad ed</w> 100
lighten ing</w> 100
coro lla</w> 100
apol lo</w> 100
c ate</w> 99
2 500</w> 99
g orge 99
6 99</w> 99
s sey</w> 99
u te</w> 99
u ag</w> 99
l j 99
7 49 99
[ a 99
x c 99
d m</w> 99
贝 亲</w> 99
鞋 内</w> 99
v oo 99
女 朋友</w> 99
# - 99
深 度</w> 99
裸 妆</w> 99
大 力</w> 99
大 圆</w> 99
器 )</w> 99
豆 子</w> 99
木 炭</w> 99
加 湿</w> 99
八 角</w> 99
单 字</w> 99
命 运</w> 99
曼 谷</w> 99
乐 家</w> 99
吊 挂</w> 99
品 の</w> 99
创 作</w> 99
前 置</w> 99
杰 克</w> 99
初 秋</w> 99
园 林</w> 99
四 月</w> 99
触 感</w> 99
坠 饰</w> 99
碎 机</w> 99
和 平</w> 99
测 验</w> 99
训 练 99
父 亲节</w> 99
奖 杯</w> 99
这 样</w> 99
严 选</w> 99
祈 福</w> 99
in d 99
an ts</w> 99
st e</w> 99
al kal 99
th rasher</w> 99
00 00 99
50 / 99
12 5g</w> 99
do ff</w> 99
bu ild</w> 99
18 w</w> 99
11 6 99
11 66 99
ta c</w> 99
sam urai</w> 99
boo ties</w> 99
je wel</w> 99
19 8 99
gre et 99
ste p 99
len ses</w> 99
25 3</w> 99
air 2</w> 99
ali ve</w> 99
wor th</w> 99
ca y 99
3- 6 99
premi ere</w> 99
mer a</w> 99
23 3</w> 99
2- way</w> 99
lan come 99
pas sion</w> 99
dd le</w> 99
fir ming</w> 99
purpo ses</w> 99
ation al</w> 99
fur nit 99
jen ny</w> 99
peel er</w> 99
figh t</w> 99
j5 prime</w> 99
kas oy</w> 99
卖场 )</w> 99
kyo wa</w> 99
gau ge</w> 99
zipp o</w> 99
carol ina</w> 99
recor der</w> 99
abac a</w> 99
越野 车</w> 99
coloure tte</w> 99
2 d</w> 98
3 x 98
3 25</w> 98
y .</w> 98
( s)</w> 98
l f 98
l ai 98
f ate 98
/ 6</w> 98
k ami 98
应 急</w> 98
b ull</w> 98
短 发</w> 98
小 鞋</w> 98
人 造 98
炫 酷</w> 98
发 声</w> 98
香 膏</w> 98
碳 粉 98
正 规</w> 98
黄 水晶</w> 98
上 下</w> 98
液 压</w> 98
汽 机</w> 98
纸 杯</w> 98
清 香</w> 98
裁 剪</w> 98
芭 蕾</w> 98
宾 馆</w> 98
可 口 98
浴 帘</w> 98
范 冰冰</w> 98
原 价$ 98
暴 龙</w> 98
招 财 98
研 究</w> 98
固 体</w> 98
言 情 98
跳 台</w> 98
读 卡 98
榨 汁</w> 98
in cense</w> 98
re :</w> 98
st rings</w> 98
at m</w> 98
di r 98
di ce</w> 98
si m 98
me tro 98
bo un 98
bo se</w> 98
lu lu</w> 98
su v</w> 98
dre ams</w> 98
qu ad</w> 98
pi cks</w> 98
cu e</w> 98
tr acker</w> 98
ss or</w> 98
sam antha</w> 98
100 - 98
40 4</w> 98
16 3</w> 98
he mat 98
dis on</w> 98
32 6</w> 98
iphone 7plus</w> 98
bri de</w> 98
gar min</w> 98
squ ad</w> 98
45 mm</w> 98
mir age</w> 98
y6 7 98
44 mm</w> 98
ition al</w> 98
glit tery</w> 98
41 -45</w> 98
10. 1</w> 98
davi doff</w> 98
蜘蛛 侠</w> 98
roman ce</w> 98
circu lar</w> 98
洗澡 盆</w> 98
foun tain</w> 98
handker chief</w> 98
周年 庆</w> 98
chea p</w> 98
greet ings</w> 98
5 26 97
0 10</w> 97
6 t</w> 97
车 模</w> 97
s 75 97
q c</w> 97
( 特价</w> 97
7 80</w> 97
背 心 97
k 5</w> 97
v amp 97
洋 装 97
小 心</w> 97
水 笔</w> 97
水 上</w> 97
情 趣 97
卡 钳</w> 97
魔 王</w> 97
登 山 97
香 料</w> 97
代 买</w> 97
新 型</w> 97
新 书</w> 97
新 疆</w> 97
系 小</w> 97
化 膜</w> 97
加 温</w> 97
春 节</w> 97
毛 毛 97
毛 领</w> 97
法 器</w> 97
专 用 97
屁 衣 97
单 孔</w> 97
植 物 97
五 月</w> 97
板 式</w> 97
敬 酒</w> 97
得 标</w> 97
翻 译</w> 97
耐 穿</w> 97
张 )</w> 97
起 来</w> 97
不 二</w> 97
步 机</w> 97
朋 克</w> 97
╭ ☆</w> 97
缝 纫 97
放 松</w> 97
滑 步</w> 97
避 光</w> 97
孙 悟空</w> 97
凋 花</w> 97
熨 烫</w> 97
逍 遥</w> 97
re fre 97
re cord</w> 97
as ia</w> 97
ac tor</w> 97
lo vers</w> 97
en gra 97
ai s</w> 97
ma u 97
ma g</w> 97
201 9- 97
de o 97
ul er</w> 97
so le 97
pp ee</w> 97
vi lla 97
ath y</w> 97
16 00 97
sa i</w> 97
1. 1</w> 97
back packs</w> 97
-3 4</w> 97
32 3</w> 97
ton ite</w> 97
23 cm</w> 97
5- 6</w> 97
que st</w> 97
cl aire</w> 97
whi stle</w> 97
ga- 100</w> 97
love live</w> 97
cin nam 97
mate 20</w> 97
dan cing</w> 97
book mark</w> 97
buy 1</w> 97
摄像 机</w> 97
modu lar</w> 97
gas ket</w> 97
swad dle</w> 97
留言 板</w> 97
magen ta</w> 97
碳粉 匣</w> 97
5 70</w> 96
1 400</w> 96
p ed</w> 96
n x</w> 96
n n</w> 96
3 25 96
u ku 96
u em 96
( 6 96
( 中)</w> 96
. 特价</w> 96
l 0 96
7 10</w> 96
7 cm</w> 96
e h</w> 96
e .</w> 96
e mma</w> 96
x 8</w> 96
x s- 96
d ' 96
j .</w> 96
背 面</w> 96
吋 / 96
v ary</w> 96
b 1 96
套 套</w> 96
套 组</w> 96
手 作 96
红 花</w> 96
日 语</w> 96
日 葵</w> 96
☆ nike</w> 96
罗 纹</w> 96
小 香</w> 96
打 印</w> 96
美 体</w> 96
卡 通 96
卡 车</w> 96
字 笔</w> 96
裙 裤</w> 96
爱 迪 96
头 带</w> 96
满 满</w> 96
风 镜</w> 96
格 丽</w> 96
婴 幼</w> 96
覆 盖</w> 96
泡 菜</w> 96
长 巾</w> 96
土 机</w> 96
飞 翔</w> 96
线 圈</w> 96
牙 签</w> 96
太 太</w> 96
西 裤</w> 96
会 社</w> 96
穿 戴</w> 96
画 质</w> 96
噪 音</w> 96
坐 椅</w> 96
蚊 香</w> 96
消 防</w> 96
签 字笔</w> 96
矫 正器</w> 96
驾 驶 96
in i 96
ar o</w> 96
le a</w> 96
al lure</w> 96
sh aker</w> 96
li st</w> 96
ti les</w> 96
po reless</w> 96
ap ron</w> 96
201 4- 96
mo del 96
50 4</w> 96
bu dd 96
pl s</w> 96
one x</w> 96
gi s</w> 96
19 95</w> 96
70 ml</w> 96
35 cm</w> 96
3. 0 96
500 0 96
san te</w> 96
88 1</w> 96
har dy</w> 96
bar be 96
23 4</w> 96
sy m</w> 96
pho enix</w> 96
66 8</w> 96
180 g</w> 96
sco t 96
non- stick</w> 96
decor ations</w> 96
windo ws</w> 96
top sider</w> 96
清洁 器</w> 96
coun ting</w> 96
kat erina</w> 96
chlo e 96
ddr 3</w> 96
bene tton</w> 96
dash board</w> 96
文件 夹</w> 96
smas h 96
pix el</w> 96
cad bury</w> 96
tri- color</w> 96
喇叭 裤</w> 96
intelli gent</w> 96
wid th</w> 96
alkal ine</w> 96
5 w 95
5 40 95
n am</w> 95
3 + 95
车 轮</w> 95
s z</w> 95
( 5 95
( 黑色</w> 95
7 000</w> 95
z s 95
e ve 95
包 保</w> 95
k an</w> 95
w ard</w> 95
心 理学</w> 95
竹 编</w> 95
桌 球</w> 95
大 厅</w> 95
天 蓝</w> 95
天 奴</w> 95
凉 垫</w> 95
] :</w> 95
胸 花</w> 95
春 日</w> 95
专 科</w> 95
造 形</w> 95
珠 珠</w> 95
土 豆</w> 95
戒 子</w> 95
电 池 95
希 尔 95
瑕 膏</w> 95
意 威</w> 95
坦 克</w> 95
战 国</w> 95
束 腰</w> 95
泳 帽</w> 95
名 款</w> 95
久 保 95
浆 机</w> 95
确 认</w> 95
in spir 95
re du 95
co lic</w> 95
on ion</w> 95
en lar 95
ro w 95
20 7</w> 95
20 21</w> 95
me la</w> 95
ur ine</w> 95
ra pid</w> 95
te k</w> 95
ki ki 95
de sert</w> 95
qu a</w> 95
fi fty</w> 95
gu mmy</w> 95
vi i</w> 95
ear ly</w> 95
运动 表</w> 95
24 mm</w> 95
ey elet</w> 95
13 4</w> 95
ak es</w> 95
eni s</w> 95
head bands</w> 95
32 mm</w> 95
ben tonite</w> 95
loo tbag</w> 95
str anger</w> 95
chocol ates</w> 95
沙发 巾</w> 95
7. 0</w> 95
lac ed</w> 95
yar is</w> 95
kieh l's</w> 95
advan tage</w> 95
emer ald</w> 95
1.2 m</w> 95
cray ola</w> 95
lamin ated</w> 95
jessi ca</w> 95
amu let</w> 95
hawai ian</w> 95
chica go</w> 95
可口 可乐</w> 95
缝纫 机</w> 95
o re 94
9 11</w> 94
p ond</w> 94
8 ml</w> 94
g 9 94
n c 94
s z 94
s lightly</w> 94
u ps</w> 94
i bo</w> 94
x 155</w> 94
d ining</w> 94
j l</w> 94
后 座</w> 94
克 星</w> 94
v ig 94
手 霜</w> 94
日 用品</w> 94
动 式</w> 94
无 人机</w> 94
地 漏</w> 94
卡 带</w> 94
波 希 94
士 奇</w> 94
罐 )</w> 94
公 寓</w> 94
玛 丽</w> 94
韩 流</w> 94
皮 箱</w> 94
开 拓 94
蛇 头</w> 94
百 分 94
行 者</w> 94
学 生 94
怪 物</w> 94
电 锯</w> 94
宾 士 94
揹 巾</w> 94
窗 纱</w> 94
洗 脚</w> 94
喜 庆</w> 94
磨 牙</w> 94
储 水</w> 94
帝 国</w> 94
摔 壳</w> 94
甲 虫</w> 94
刻 版</w> 94
缺 货</w> 94
进 阶</w> 94
消 防 94
锐 步</w> 94
投 资</w> 94
烘 干</w> 94
垂 钓</w> 94
鱿 鱼</w> 94
co sp 94
si um</w> 94
to e 94
un g 94
bo s</w> 94
th in 94
th re 94
la va</w> 94
ap ex</w> 94
su m 94
gu il 94
pro bio 94
bu t 94
pa vi 94
av ail</w> 94
36 6</w> 94
che w 94
sc allo 94
80 9</w> 94
70 8</w> 94
tor ch</w> 94
hand s</w> 94
ali en</w> 94
32 2</w> 94
75 g</w> 94
jump shorts</w> 94
mer ci 94
star t</w> 94
organi x</w> 94
cti on 94
4. 2</w> 94
66 6</w> 94
sha w</w> 94
600 ml</w> 94
flu x</w> 94
sky drive</w> 94
葡萄 酒</w> 94
超级 英雄</w> 94
j5 10</w> 94
ultr asonic</w> 94
pump s</w> 94
button down</w> 94
cher ry 94
fee der</w> 94
astac lat</w> 94
嘉班 纳</w> 94
corpor ate</w> 94
aesthe tic</w> 94
ffl er</w> 94
gorge ous</w> 94
y67 v5s</w> 94
毛毛 虫</w> 94
9 月</w> 93
2 90</w> 93
6 s 93
6 30</w> 93
u ka 93
u gg</w> 93
i 5 93
a 14 93
r g 93
r asp 93
r astaclat</w> 93
l g 93
x 18</w> 93
德 镇</w> 93
优 选 93
袋 鼠</w> 93
发 簪</w> 93
花 圈</w> 93
头 绳</w> 93
列 印</w> 93
制 冰</w> 93
火 辣</w> 93
底 盘</w> 93
防 护 93
黄 素</w> 93
工 坊</w> 93
工 房</w> 93
脚 趾</w> 93
脚 凳</w> 93
酸 奶</w> 93
景 德镇</w> 93
书 机</w> 93
老 鹰</w> 93
年 货</w> 93
乐 团</w> 93
烟 斗</w> 93
传 动</w> 93
伯 爵</w> 93
内 含</w> 93
扩 音器</w> 93
教 练</w> 93
直 立</w> 93
瓷 碗</w> 93
不 可 93
理 器</w> 93
理 疗</w> 93
潜 航</w> 93
路 易</w> 93
压 克力</w> 93
除 螨</w> 93
饰 品 93
猿 人</w> 93
医 用</w> 93
凹 凸</w> 93
费 雪</w> 93
放 置</w> 93
搞 笑</w> 93
涡 轮</w> 93
栏 杆</w> 93
乒 乓 93
or ing</w> 93
le tt</w> 93
ac c</w> 93
se tte</w> 93
20 吋</w> 93
di stri 93
un de 93
qu ad 93
da zz 93
au th 93
pro ph 93
pa ges</w> 93
mar tens</w> 93
18 2</w> 93
mat tel</w> 93
mat cha</w> 93
col gate</w> 93
for ce 93
mm x 93
mm * 93
fu bu</w> 93
he at 93
stu dy</w> 93
par a 93
ak a</w> 93
32 7</w> 93
99 8</w> 93
22 3</w> 93
26 5</w> 93
har io</w> 93
1/ 6</w> 93
spea kers</w> 93
5. 6</w> 93
mk 58 93
mini figures</w> 93
6. 6</w> 93
twi lly</w> 93
genu ine100</w> 93
tal k</w> 93
glit tered</w> 93
6/ 6s</w> 93
pal ace</w> 93
multi- functional</w> 93
spen cer</w> 93
nike air 93
ato mizer</w> 93
迪士尼 乐园</w> 93
cali per</w> 93
gog oro 93
gur t</w> 93
octo pus</w> 93
navar ro</w> 93
mess age</w> 93
bree ze</w> 93
furnit ure</w> 93
5 11</w> 92
4 90 92
p ear</w> 92
2 11</w> 92
2 -4 92
g gie</w> 92
h t</w> 92
s eni 92
t 短t</w> 92
( 粉</w> 92
( 约</w> 92
x p</w> 92
x dr</w> 92
k c 92
v als</w> 92
b t- 92
管 家</w> 92
人 工</w> 92
水 电</w> 92
水 道</w> 92
动 感</w> 92
无 声</w> 92
地 摊</w> 92
大 家</w> 92
古 巴</w> 92
新 鲜货</w> 92
卷 发器</w> 92
风 尚</w> 92
佳 丽</w> 92
正 式</w> 92
光 机</w> 92
实 验 92
植 萃</w> 92
脖 围</w> 92
表 皮</w> 92
飞 轮</w> 92
层 板</w> 92
汤 勺</w> 92
午 后</w> 92
乐 天</w> 92
电 焊</w> 92
品 汇</w> 92
杀 )</w> 92
码 数</w> 92
铝 框</w> 92
夏 新</w> 92
燕 窝</w> 92
饮 品</w> 92
校 服</w> 92
依 林</w> 92
毫 升</w> 92
照 灯</w> 92
照 相机</w> 92
演 奏</w> 92
摄 影 92
营 业</w> 92
故 事 92
搁 板</w> 92
in ty</w> 92
re sso</w> 92
ar du 92
ch in</w> 92
me tis</w> 92
to - 92
to wel 92
10 s</w> 92
cas ing</w> 92
ki sh</w> 92
so m</w> 92
so y</w> 92
00 6 92
da w 92
cu bic</w> 92
cre ed</w> 92
pe tal</w> 92
40 3</w> 92
16 mm</w> 92
sli der</w> 92
tu ff</w> 92
14 1</w> 92
he x</w> 92
shoul ders</w> 92
cr ack 92
ps v</w> 92
multi vitamins</w> 92
pat rick</w> 92
vel ve 92
y6 2</w> 92
cer ami 92
ze us</w> 92
acti ve 92
tal kie</w> 92
na h</w> 92
infin ix</w> 92
落地 镜</w> 92
a9 2018</w> 92
sub woofer</w> 92
appro ved</w> 92
til bury</w> 92
puri fying</w> 92
quick sand</w> 92
hei st</w> 92
suit case</w> 92
acade mia</w> 92
kab uki</w> 92
credi t</w> 92
weigh ing</w> 92
stande e</w> 92
乌克 丽丽</w> 92
辅助 器</w> 92
ody ssey</w> 92
广告 牌</w> 92
波希 米亚</w> 92
开拓 者</w> 92
p 3 91
- f 91
- 12 91
h ats</w> 91
6 30 91
u m- 91
t les</w> 91
i da</w> 91
i zer</w> 91
i vy</w> 91
( l)</w> 91
. 7</w> 91
口 腔</w> 91
思 思</w> 91
小 金</w> 91
小 品</w> 91
黑 暗</w> 91
浮 标</w> 91
水 蜜桃</w> 91
自 黏</w> 91
卡 拉</w> 91
挂 帘</w> 91
粉 碎机</w> 91
器 具</w> 91
尼 斯</w> 91
魅 惑</w> 91
火 箭</w> 91
袖 子</w> 91
普 普</w> 91
开 岔</w> 91
屁 屁</w> 91
油 污</w> 91
书 局</w> 91
食 指</w> 91
帽 檐</w> 91
预 售</w> 91
部 分</w> 91
露 脐</w> 91
饭 团</w> 91
点 烟器</w> 91
厚 实</w> 91
肥 皂盒</w> 91
胜 利</w> 91
疏 通</w> 91
俏 丽</w> 91
圣 经</w> 91
焦 点</w> 91
桂 花</w> 91
轧 糖</w> 91
固 态</w> 91
画 框</w> 91
声 音</w> 91
缘 子</w> 91
⋯ ⋯ 91
耗 材</w> 91
值 得</w> 91
告 白</w> 91
灶 台</w> 91
in y</w> 91
in do 91
in voice</w> 91
en e</w> 91
me tro</w> 91
ri ding</w> 91
10 x</w> 91
la p 91
sp r 91
hi lux</w> 91
ki ck</w> 91
su t 91
so il</w> 91
ter ry</w> 91
tr on</w> 91
mar y 91
11 12</w> 91
pe e 91
boo m</w> 91
100 1</w> 91
60 w</w> 91
kit chen 91
du bai</w> 91
16 cm</w> 91
tu res</w> 91
ser vice</w> 91
ff in</w> 91
mu ffler</w> 91
wor kout</w> 91
3. 4</w> 91
28 5</w> 91
1- 6</w> 91
cur ling</w> 91
26 8</w> 91
fen di 91
coo per</w> 91
咖啡 店</w> 91
colla red</w> 91
bul ls</w> 91
600 g</w> 91
gla n</w> 91
bear d</w> 91
bk k</w> 91
jas on</w> 91
bron zer</w> 91
adidas /</w> 91
m-xx l码</w> 91
bli ss</w> 91
t3 ／</w> 91
2015 年</w> 91
a字 裙</w> 91
mouse pad</w> 91
lubric ant</w> 91
言情 小说</w> 91
5 pro</w> 90
1 .</w> 90
- d 90
8 5g</w> 90
0 18</w> 90
n \n</w> 90
s ent</w> 90
y z 90
( )</w> 90
a 梦 90
l al 90
e b</w> 90
机 动</w> 90
j am 90
背 光</w> 90
v -</w> 90
宝 缇</w> 90
双 排</w> 90
小 学</w> 90
奇 幻</w> 90
竹 子</w> 90
水 平 90
发 油</w> 90
花 样</w> 90
卡 夹</w> 90
主 管</w> 90
分 子</w> 90
基 地</w> 90
国 产</w> 90
泉 水</w> 90
中 秋</w> 90
高 山</w> 90
光 盘</w> 90
伦 天奴</w> 90
雷 神</w> 90
雪 人</w> 90
买 卖</w> 90
拆 装</w> 90
琪 琪</w> 90
宽 裤</w> 90
痘 印</w> 90
凡 赛斯</w> 90
焊 接</w> 90
漏 水</w> 90
做 工</w> 90
丛 林</w> 90
汪 汪</w> 90
嘟 嘟</w> 90
娱 乐</w> 90
se agate</w> 90
se oul</w> 90
si des</w> 90
to day</w> 90
th ank</w> 90
ck ing</w> 90
00 5 90
da inty</w> 90
no ise</w> 90
min is</w> 90
vi et 90
ter no 90
pi lo 90
do wn 90
con s</w> 90
uni on</w> 90
运动 型</w> 90
ang els</w> 90
ce ci 90
tu mmy</w> 90
chi ll</w> 90
200 4</w> 90
gg ay</w> 90
3. 5 90
28 - 90
spe c 90
3- 5</w> 90
cho o</w> 90
bre mod</w> 90
brand ing</w> 90
33 1</w> 90
0. 7</w> 90
fri dge</w> 90
supp lier</w> 90
anti- spy</w> 90
玻璃 门</w> 90
neo 5</w> 90
mr l 90
birth stone</w> 90
goo ds</w> 90
hair pin</w> 90
ax le</w> 90
ax is</w> 90
pac o</w> 90
amaz on</w> 90
#爆 款 90
cla t</w> 90
realme 3</w> 90
dress ing</w> 90
94 28 90
re- ment</w> 90
stabi lizer</w> 90
gigab yte</w> 90
lif ting</w> 90
lace y</w> 90
clari fying</w> 90
ferragamo 菲拉 90
uem ura</w> 90
rasp berry</w> 90
o c</w> 89
4 th</w> 89
3 500</w> 89
s 4 89
钛 合金</w> 89
t au 89
( k 89
m se</w> 89
r l 89
e lu 89
# 4 89
贴 耳</w> 89
热 售</w> 89
无 损</w> 89
素 食</w> 89
海 蓝</w> 89
海 尔</w> 89
盘 香</w> 89
复 活 89
足 部</w> 89
达 尔 89
英 文版</w> 89
波 兰</w> 89
国 王</w> 89
航 拍</w> 89
如 约</w> 89
半 截</w> 89
防 腐</w> 89
黄 )</w> 89
油 灯</w> 89
单 手</w> 89
鲁 夫 89
鲜 花</w> 89
镜 架</w> 89
内 衣裤</w> 89
川 久保 89
通 道</w> 89
被 单</w> 89
效 能</w> 89
可 选)</w> 89
拆 )</w> 89
幻 影</w> 89
淘 宝</w> 89
蔡 依林</w> 89
不 倒翁</w> 89
结 构</w> 89
喜 帖</w> 89
喜 宴</w> 89
鼠 标 89
为 止</w> 89
幼 犬</w> 89
颗 )</w> 89
和 风</w> 89
淡 水</w> 89
棘 轮</w> 89
炒 菜</w> 89
绞 肉机</w> 89
显 白</w> 89
渗 透</w> 89
呵 护</w> 89
in ed</w> 89
in duction</w> 89
ro lls</w> 89
20 w</w> 89
ir o</w> 89
la w</w> 89
hi d</w> 89
de mon</w> 89
pi ping</w> 89
wi ld 89
30 7</w> 89
sun rise</w> 89
pan g</w> 89
ci der</w> 89
19 1</w> 89
24 5</w> 89
24 6</w> 89
stu ds</w> 89
par t 89
25 2</w> 89
jo int</w> 89
her rera</w> 89
tri logy</w> 89
cr - 89
17 6</w> 89
55 mm</w> 89
dol ly</w> 89
cou ples</w> 89
note 7</w> 89
ja y 89
23 2</w> 89
23 .5</w> 89
is sue</w> 89
bund les</w> 89
000 1</w> 89
bla ze</w> 89
4- 6</w> 89
eng agement</w> 89
tab s</w> 89
lac quer</w> 89
160 g</w> 89
bn wt</w> 89
cin ia</w> 89
brilli ance</w> 89
ddr 4</w> 89
sequ ins</w> 89
philipp ine</w> 89
io pe</w> 89
work book</w> 89
dust bag</w> 89
aph ro 89
mont blanc万</w> 89
gli de</w> 89
one- piece</w> 89
k2 g 89
sala d</w> 89
scho ol 89
yoo bao</w> 89
kate spade</w> 89
nmd_ r1</w> 89
toile try</w> 89
蒂芙 尼</w> 89
#- no.t1</w> 89
lancome 兰蔻</w> 89
_ _ 88
4 15 88
c ler</w> 88
p b 88
p enis</w> 88
2 18</w> 88
g 家</w> 88
h n</w> 88
h co 88
h am</w> 88
车 业</w> 88
s cou 88
( 深 88
( 60</w> 88
a 款</w> 88
a 01</w> 88
r b</w> 88
. 9</w> 88
7 v</w> 88
j z 88
j b 88
背 部</w> 88
包 / 88
k .</w> 88
k ang</w> 88
超 重</w> 88
w 0 88
v or 88
心 动</w> 88
红 猪</w> 88
色 :</w> 88
& no.t1</w> 88
墨 水 88
自 来 88
地 垫</w> 88
[...]
