i n 216211
a n 172998
r e 170268
e r</w> 153578
a r 125183
c o 116924
e r 113517
a s 109611
l o 105213
l e 104165
i t 102085
a c 99854
h o 98077
t o 93395
a l 87630
a t 87057
s t 83362
f o 79689
e n 78709
r o 74417
l e</w> 66510
r i 66381
h i 66052
l i 65973
in g</w> 64523
s e 62205
2 0 60309
o n</w> 58423
a l</w> 57611
p o 57342
c h 56887
fo r</w> 55136
d i 55100
s i 54858
b a 54515
m e 53788
n e 52567
u n 52226
b o 51526
t i 51332
a m 49506
a i 49440
e s</w> 48096
l u 47372
现 货</w> 46989
e d</w> 46572
s s</w> 44604
m a 42549
o n 42003
s ho 41743
1 0 41533
l a 40885
t h 39053
an d</w> 38504
e l 38284
r a 37719
m i 37493
u r 34565
n i 33954
a n</w> 33920
m o 33145
s o 32900
k i 32870
u s 32119
t e 31469
c as 31274
t s</w> 31175
新 款</w> 31079
r t</w> 30396
e a 29566
ac k</w> 29433
20 1 29415
a p 28280
c k 28042
休 闲</w> 27901
d e 27631
s u 27587
k e</w> 27456
d re 27305
me n</w> 26915
o r 26405
s p 26293
u l 26163
a b 25799
n e</w> 25774
w it 25493
m l</w> 25442
ba g</w> 25377
0 0 24787
e l</w> 24459
an d 23844
s hi 23795
c h</w> 23412
dre ss</w> 23225
p ho 23114
wit h</w> 23064
全 新</w> 22777
se t</w> 22330
i n</w> 22284
时 尚</w> 22148
c e</w> 21956
cas e</w> 21945
c k</w> 21669
f i 21395
w o 21288
p re 21111
s h 20894
p r 20843
k o 20774
q u 20734
e n</w> 20491
d a 20377
v e</w> 20327
d o 20135
b y</w> 19879
u t 19715
g h 19545
d s</w> 19477
d er</w> 19456
g e</w> 19385
' s</w> 19285
b l 19118
p lu 19099
b i 18942
e t</w> 18738
ni ke</w> 18723
b r 18584
m e</w> 18465
g o 18391
n o 17937
g i 17828
简 约</w> 17728
p p 17699
m in 17459
1 0</w> 17296
g u 17250
v i 17121
a u 17027
5 0 16998
l as 16979
c ar 16827
v er 16662
w h 16613
ne w</w> 16562
ab le</w> 16558
t er 16525
m p 16478
shi rt</w> 16455
v er</w> 16453
ai r</w> 16449
co d</w> 16401
re d</w> 16372
plu s</w> 16316
2 0</w> 16307
p i 16292
it e</w> 16237
d e</w> 16108
l d</w> 16093
pho ne</w> 16014
日 本</w> 15852
w i 15841
收 纳</w> 15805
to p</w> 15696
s t</w> 15551
c s</w> 15501
t er</w> 15435
p ro 15301
代 购</w> 15053
s e</w> 14938
si z 14854
ti c</w> 14813
g in 14805
1 2 14602
w at 14589
t e</w> 14575
运 动</w> 14465
f as 14445
r y</w> 14273
短 袖</w> 14188
al l</w> 14181
ko re 14140
p a 14125
ac e</w> 14105
wo men</w> 13949
bl ack</w> 13885
o f</w> 13746
a r</w> 13683
ac k 13552
c re 13360
e ar 13289
上 衣</w> 13229
siz e</w> 13199
儿 童</w> 13076
5 0</w> 13068
lo v 13053
正 品</w> 13047
t y</w> 12991
o ri 12884
fas hi 12854
背 包</w> 12842
a di 12782
to n</w> 12765
k e 12704
3 0 12617
p er 12336
t r 12324
l y</w> 12280
l o</w> 12267
b lu 12211
kore an</w> 12150
l ing</w> 12033
w e 12021
u m</w> 11998
f re 11986
套 装</w> 11984
学 生</w> 11919
da s</w> 11914
a d 11881
it y</w> 11797
ori gin 11775
g o</w> 11761
adi das</w> 11749
b e 11710
p cs</w> 11706
m ar 11604
10 0</w> 11560
s un 11498
t 恤</w> 11415
手 机</w> 11404
外 套</w> 11383
fashi on</w> 11316
in g 11295
c c 11281
lov ed</w> 11220
ar d</w> 11207
sho es</w> 11107
th e</w> 11077
ch ar 11069
d y</w> 10961
pr o</w> 10951
co lo 10924
r ts</w> 10917
创 意</w> 10843
ba by</w> 10823
wh ite</w> 10776
al e</w> 10722
a m</w> 10720
男 士</w> 10633
p an 10608
f lo 10503
un i 10495
e le 10480
复 古</w> 10474
r u 10466
in e</w> 10464
1 8 10461
ki ds</w> 10372
s le 10371
经 典</w> 10369
m at 10350
gh t</w> 10325
韩 国</w> 10275
t ed</w> 10218
th en 10202
er s</w> 10194
二 手</w> 10190
情 侣</w> 10115
c i 10076
au then 10030
t a 10014
origin al</w> 9963
authen tic</w> 9932
f e 9929
p l 9913
1 1 9852
sle e 9840
s am 9832
us e</w> 9759
co n 9742
p e 9705
st i 9635
系 列</w> 9627
u s</w> 9537
a p</w> 9531
bo o 9519
lo n 9515
台 湾</w> 9464
m as 9461
ai n</w> 9452
ti on</w> 9440
夏 季</w> 9423
pre loved</w> 9394
3 0</w> 9390
min i</w> 9367
s s 9356
c ro 9331
an i 9327
1 1</w> 9250
潮 流</w> 9186
10 0 9186
m en 9179
1 2</w> 9171
t o</w> 9166
黑 色</w> 9146
p ack</w> 9094
ea r</w> 9057
n o</w> 8902
i phone</w> 8851
b u 8844
现 代</w> 8825
c m</w> 8811
m m</w> 8777
ma x</w> 8773
le d</w> 8722
l v</w> 8709
j u 8687
in k</w> 8665
s c 8636
功 能</w> 8596
gu cc 8512
b lo 8492
. . 8484
可 爱</w> 8472
4 0 8468
ur e</w> 8465
u t</w> 8453
t h</w> 8447
s h</w> 8423
s ki 8361
. 5</w> 8348
a v 8328
i on</w> 8323
6 0 8290
客 厅</w> 8282
s po 8262
k it 8242
le ss</w> 8240
防 水</w> 8211
si g 8169
s ale</w> 8156
特 价</w> 8130
手 表</w> 8125
at h 8122
o r</w> 8117
m m 8108
ac h</w> 8067
an t</w> 7990
pr in 7949
sun g</w> 7947
fo r 7913
sam sung</w> 7869
h u 7856
g h</w> 7844
fre e</w> 7835
gucc i</w> 7811
go ld</w> 7732
运 动 7706
po w 7704
b le</w> 7588
宝 宝</w> 7557
s li 7535
家 用</w> 7533
t - 7514
女 鞋</w> 7473
co t 7458
玩 具</w> 7456
an g 7450
l l 7439
f t</w> 7437
s to 7414
3 6 7383
1 6 7377
f u 7328
co r 7306
卧 室</w> 7299
j e 7276
g las 7229
al s</w> 7222
y o 7199
p le</w> 7195
ch e 7190
blu e</w> 7181
b at 7155
h ea 7131
o f 7130
1 5 7082
a t</w> 7079
hi gh</w> 7066
lo w</w> 7065
p u 7037
d u 7035
in s</w> 7032
si l 7031
s a 7004
p s</w> 6998
s k 6986
1 9 6978
c e 6976
al ity</w> 6965
u p</w> 6963
精 品</w> 6963
宽 松</w> 6941
北 欧</w> 6923
b ro 6906
m on 6876
de sig 6873
201 8</w> 6867
wat ch</w> 6866
r ing</w> 6853
le t</w> 6838
gi r 6832
cot ton</w> 6830
运动 鞋</w> 6804
长 袖</w> 6802
h el 6777
e x 6768
s m 6740
us b</w> 6737
g er</w> 6731
qu ality</w> 6731
di es</w> 6685
9 2 6673
c hi 6661
p er</w> 6648
c le 6641
li ght</w> 6612
201 9</w> 6601
i t</w> 6595
透 气</w> 6575
牛 皮</w> 6575
co l 6533
2 4 6456
g re 6437
p ri 6404
sho rts</w> 6361
- 4 6352
t ri 6305
8 0 6303
s ling</w> 6297
纯 棉</w> 6288
w a 6283
美 国</w> 6273
h e 6271
on e</w> 6238
to r</w> 6235
bo x</w> 6234
1 4 6227
礼 物</w> 6208
la dies</w> 6198
un d 6182
l ace</w> 6147
sho ul 6134
包 包</w> 6130
20 20</w> 6125
b b 6121
手 提 6108
r e</w> 6104
p e</w> 6079
x y</w> 6078
w al 6070
pan ts</w> 6068
m i</w> 6056
g r 6054
kit ty</w> 6045
加 厚</w> 6043
e y 6035
o d</w> 6032
s and 5996
st e 5995
ter no</w> 5976
t u 5972
desig n</w> 5929
慢 跑</w> 5927
en i 5922
b al 5909
7 0 5896
shoul der</w> 5890
专 用</w> 5886
不 锈 5883
h and</w> 5870
sho rt</w> 5848
汽 车</w> 5844
st u 5831
耳 环</w> 5823
n at 5821
不锈 钢</w> 5821
bo dy</w> 5819
to o 5798
ch an 5797
e d 5787
lon g</w> 5759
cre am</w> 5755
mas k</w> 5742
glas s</w> 5737
li p</w> 5725
j o 5702
女 士</w> 5689
l s</w> 5677
p ink</w> 5675
at e</w> 5668
新 品</w> 5665
i l</w> 5624
洋 装</w> 5609
sil ver</w> 5600
x l</w> 5597
g ra 5592
男 女</w> 5583
1 5</w> 5559
201 7</w> 5544
t re 5542
er i 5538
r al</w> 5531
真 皮</w> 5528
t le</w> 5517
g s</w> 5512
co ach</w> 5506
1 3 5484
y s</w> 5482
造 型</w> 5466
b as 5450
ma n</w> 5446
沙 发</w> 5434
p ar 5420
个 性</w> 5390
a k 5389
装 饰</w> 5369
1 . 5359
h er 5329
b ack 5328
用 品</w> 5327
短 裤</w> 5313
le n 5307
co ver</w> 5296
pro of</w> 5277
折 叠</w> 5275
e red</w> 5255
b er 5243
厨 房</w> 5241
ck s</w> 5240
印 花</w> 5236
玻 璃</w> 5232
l l</w> 5230
m an 5225
f ro 5225
t ra 5217
flo ral</w> 5210
colo r</w> 5207
so ap</w> 5196
p en 5189
钱 包</w> 5140
d a</w> 5137
手提 包</w> 5132
blo use</w> 5121
拖 鞋</w> 5113
2 5 5094
an s</w> 5094
l a</w> 5081
i c</w> 5051
pi e 5033
ath er</w> 5031
c lo 4996
b ea 4990
le s</w> 4982
迷 你</w> 4981
正 版</w> 4961
物 架</w> 4933
预 购</w> 4923
卡 通</w> 4917
hel lo</w> 4912
h ard</w> 4909
g en 4906
- 3 4900
ho o 4886
w ear</w> 4881
po r 4871
st a 4869
s on 4854
m b 4853
1 8</w> 4849
lo go</w> 4845
ing s</w> 4843
te mp 4839
slee v 4820
女 生</w> 4817
pho ne 4810
9 0 4809
st y 4800
r s</w> 4795
v a 4790
r y 4781
20 0 4781
l ar 4780
se x</w> 4773
l it 4772
s wi 4771
白 色</w> 4764
st ri 4758
m a</w> 4748
修 身</w> 4745
g a 4726
圆 领</w> 4714
t en 4708
pp o</w> 4705
s - 4671
i s</w> 4670
in 1</w> 4658
n y</w> 4652
f ace</w> 4647
衬 衫</w> 4646
背 心</w> 4631
le ather</w> 4610
热 卖</w> 4593
b el 4578
z er</w> 4570
an ce</w> 4568
t a</w> 4561
o ppo</w> 4554
实 拍</w> 4549
户 外</w> 4542
b ur 4532
b e</w> 4530
at ion</w> 4519
限 定</w> 4517
or d 4510
as h 4498
ac h 4485
w n</w> 4475
g b</w> 4466
c tion</w> 4465
性 感</w> 4464
c a 4459
h and 4435
i d</w> 4435
娃 娃</w> 4434
sp i 4421
2 1</w> 4416
f f 4415
2 . 4414
li ve</w> 4412
充 电</w> 4400
chan el</w> 4391
- 0 4382
饰 品</w> 4375
u r</w> 4370
男 生</w> 4367
or g 4363
电 脑</w> 4358
al i 4357
t able</w> 4350
热 销</w> 4350
uni sex</w> 4349
v o</w> 4330
k s</w> 4313
c o</w> 4308
back pack</w> 4297
boo k</w> 4280
k er</w> 4278
su it</w> 4273
1 7 4270
men t</w> 4258
c ut 4256
b ack</w> 4256
生 活</w> 4243
家 居</w> 4239
n er</w> 4236
组 合</w> 4230
c y 4227
ho l 4226
f la 4218
temp ered</w> 4206
a 3 4198
长 裤</w> 4184
c las 4179
气 质</w> 4166
tr a</w> 4161
ski n</w> 4159
公 司</w> 4158
di s 4153
出 清</w> 4150
g e 4141
商 务</w> 4140
se l 4135
li p 4134
u al</w> 4126
简 易</w> 4122
h air</w> 4120
c u 4119
透 明</w> 4118
w or 4114
po lo</w> 4113
v e 4112
d eni 4111
1 6</w> 4104
拉 链</w> 4094
婴 儿</w> 4094
o ut</w> 4085
c am 4074
针 织</w> 4072
8 0</w> 4069
hea d 4065
牛 仔</w> 4064
跑 步</w> 4060
st ra 4047
t- shirt</w> 4047
容 量</w> 4044
自 动</w> 4035
p ap 4031
p h 4027
d r 4025
o il</w> 4013
org ani 4013
出 货</w> 4012
gre en</w> 4011
a we 3999
衣 服</w> 3998
t in 3996
deni m</w> 3990
ne ck 3980
m u 3974
b an 3964
手 工</w> 3959
v en 3952
pa d</w> 3948
1 7</w> 3934
ul l</w> 3925
m ul 3921
st er</w> 3919
保 护</w> 3916
sm all</w> 3916
pie ce</w> 3916
us h</w> 3909
ch a 3900
bo t 3897
st ar</w> 3892
皮 带</w> 3887
3 2 3873
神 器</w> 3864
t y 3860
c ho 3859
3 5 3855
o m</w> 3841
进 口</w> 3825
c a</w> 3820
6 0</w> 3802
通 用</w> 3794
awe i</w> 3787
la y</w> 3785
201 6</w> 3785
t ro 3784
v o 3779
ne y</w> 3773
c le</w> 3771
w er</w> 3768
k a 3766
d i</w> 3764
懒 人</w> 3763
ack et</w> 3754
- 2 3753
di y</w> 3751
l y 3738
苹 果</w> 3738
co o 3731
v el</w> 3727
黑 白</w> 3722
b ri 3717
ar e</w> 3703
neck lace</w> 3702
u ch</w> 3691
舒 适</w> 3686
cas ual</w> 3672
化 妆</w> 3670
o ver 3642
3 d</w> 3626
ver s 3620
贴 纸</w> 3611
g ar 3609
fi t</w> 3607
g a</w> 3605
成 人</w> 3604
i phone 3595
me di 3591
pro te 3584
c t</w> 3576
游 戏</w> 3571
slee ve</w> 3558
7 0</w> 3554
blu e 3540
wal let</w> 3536
p s 3532
c ar</w> 3532
c an 3522
防 滑</w> 3517
公 仔</w> 3506
br and</w> 3506
am e</w> 3490
迪 士 3489
sti ck</w> 3486
sta in 3482
限 量</w> 3479
gir l</w> 3469
v in 3465
an s 3465
耳 机</w> 3464
l d 3461
专 柜</w> 3461
sti ck 3460
香 水</w> 3457
金 属</w> 3447
sand als</w> 3447
编 织</w> 3442
20 0</w> 3442
r ings</w> 3437
sty le</w> 3434
92 5</w> 3426
j ord 3425
设 计</w> 3422
ai r 3420
ber ry</w> 3417
眼 镜</w> 3409
stain less</w> 3409
mat te</w> 3406
篮 球</w> 3402
电 动</w> 3397
小 型</w> 3392
2 2 3387
m y</w> 3385
b a</w> 3384
wat er 3384
ski rt</w> 3384
so ft</w> 3381
d d 3380
hu awei</w> 3378
无 线</w> 3373
5 5 3369
f ac 3365
b all</w> 3361
t i</w> 3356
w ai 3352
9 0</w> 3342
al a 3342
配 件</w> 3338
居 家</w> 3336
l in 3333
or s</w> 3329
la y 3326
swi m 3323
项 链</w> 3319
3 . 3313
per fu 3313
t w 3301
e m 3299
迪 达</w> 3293
le t 3293
保 护 3268
必 备</w> 3267
mi cha 3264
b ut 3256
to r 3256
ter y</w> 3256
ai l</w> 3254
50 0</w> 3250
h y 3249
红 色</w> 3249
z i 3242
lo ve</w> 3239
v a</w> 3237
1 3</w> 3234
k in 3231
men s</w> 3225
凉 鞋</w> 3224
挎 包</w> 3223
br ac 3223
w el 3212
保 暖</w> 3212
玫 瑰</w> 3211
jord an</w> 3209
pp er</w> 3208
r un 3203
hol der</w> 3201
m l 3190
ut y</w> 3187
p ur 3184
v it 3183
me s</w> 3181
水 晶</w> 3177
st re 3177
p hi 3176
d ri 3175
too th</w> 3172
brac ele 3170
j a 3166
迪士 尼</w> 3160
ck et</w> 3155
l ite</w> 3153
x i 3153
t ing</w> 3149
of f</w> 3147
sp e 3140
1 - 3139
mm er</w> 3138
si on</w> 3129
wat er</w> 3129
c ap 3128
50 ml</w> 3127
o ld</w> 3125
9 9</w> 3124
g el</w> 3121
气 垫</w> 3121
micha el</w> 3121
3 - 3119
商 品</w> 3118
bat tery</w> 3118
s n 3112
j acket</w> 3112
ne ck</w> 3111
i on 3107
prin ted</w> 3106
4 0</w> 3105
m k</w> 3101
p u</w> 3095
5 00 3093
蓝 色</w> 3092
天 然</w> 3092
po p</w> 3089
i o</w> 3088
1 9</w> 3085
en t</w> 3075
te e</w> 3072
支 架</w> 3071
blue tooth</w> 3071
as h</w> 3070
p c</w> 3066
k ing</w> 3062
ul tra</w> 3062
c al</w> 3060
摆 件</w> 3057
现 货 3054
下 标</w> 3052
pl ain</w> 3050
un d</w> 3049
女 装</w> 3031
2 4</w> 3028
ma gi 3025
cut e</w> 3020
li gh 3019
限 时</w> 3018
防 晒</w> 3016
se xy</w> 3016
bracele t</w> 3016
茶 几</w> 3006
su per</w> 3004
ear rings</w> 3003
牛 仔 2995
la r</w> 2991
宠 物</w> 2988
刺 绣</w> 2983
2 8 2980
欧 式</w> 2979
so cks</w> 2979
lar ge</w> 2979
vi vo</w> 2978
条 纹</w> 2967
少 女</w> 2967
衣 裙</w> 2957
wh it 2953
on ly</w> 2951
pow er</w> 2947
3 8 2946
gir ls</w> 2945
sh e 2941
car d</w> 2938
女 童</w> 2933
d er 2932
perfu me</w> 2930
f ull</w> 2926
k ors</w> 2924
si c</w> 2922
pre mi 2922
1 4</w> 2921
工 具</w> 2907
ru bb 2906
ll er</w> 2903
情 趣</w> 2902
6 s</w> 2900
ki t</w> 2900
7 5 2897
co u 2894
lon g 2894
连 衣裙</w> 2893
o p 2892
大 号</w> 2892
mi l 2892
旅 行</w> 2881
mo bi 2878
欧 美</w> 2875
de n</w> 2860
sho p</w> 2857
c ur 2855
2 5</w> 2854
立 体</w> 2854
公 主</w> 2852
卖 场</w> 2850
保护 套</w> 2845
c r 2844
h ear 2840
ju mp 2839
s qu 2838
香 奈 2833
k a</w> 2828
am p</w> 2828
z o 2824
char ger</w> 2823
牛仔 裤</w> 2818
so r 2817
ap e</w> 2817
sk in 2812
ey e 2802
ss en 2801
pow der</w> 2800
en ing</w> 2798
d y 2795
c able</w> 2794
b re 2790
下 单</w> 2788
se s</w> 2787
da y</w> 2781
手 链</w> 2777
n ing</w> 2772
ap ple</w> 2768
香奈 儿</w> 2768
ma x 2759
k o</w> 2757
30 0</w> 2757
w ar 2754
br ush</w> 2752
sh a 2749
s er 2741
cy cle</w> 2735
lo u 2732
清 新</w> 2720
je ans</w> 2717
.. .. 2716
to y</w> 2713
br and 2712
ch es</w> 2710
m - 2705
户 型</w> 2704
at ed</w> 2704
wa y</w> 2697
办 公 2696
c tor</w> 2695
pri me</w> 2695
优 惠</w> 2693
ma de</w> 2693
premi um</w> 2690
l er</w> 2689
g lu 2685
连 身</w> 2685
ch ain</w> 2685
链 条</w> 2684
n t</w> 2679
water proof</w> 2677
4 5 2674
内 衣</w> 2671
a o 2668
模 型</w> 2663
mobi le</w> 2661
宿 舍</w> 2656
a s</w> 2655
z ed</w> 2651
s an 2647
纯 银</w> 2643
d ar 2638
su mmer</w> 2638
j ap 2636
d v 2633
b en 2632
ke y 2624
li c</w> 2618
g ala 2616
皮 革</w> 2612
rubb er</w> 2607
f un 2603
咖 啡</w> 2592
col le 2592
se cre 2589
ste el</w> 2586
t al</w> 2584
f e</w> 2582
字 母</w> 2581
wai st</w> 2580
w in 2579
gala xy</w> 2579
re less</w> 2578
8 8 2575
lo tion</w> 2574
c el 2571
bea uty</w> 2570
pap er</w> 2569
a 5 2566
c and 2566
medi um</w> 2566
l ine</w> 2562
po uch</w> 2562
s we 2561
an g</w> 2558
b ar 2550
o ut 2546
no te 2543
bi g</w> 2541
品 质</w> 2538
h ar 2537
y a</w> 2537
g - 2536
2 6 2532
magi c</w> 2530
s so 2523
su per 2520
9 9 2518
co m 2517
por table</w> 2516
c to 2513
sleev es</w> 2513
sp a 2511
s eri 2508
n s</w> 2508
陶 瓷</w> 2505
v u 2503
7 - 2501
1 50</w> 2495
1 / 2494
p h</w> 2486
n a</w> 2486
it ion</w> 2486
whit ening</w> 2481
k ni 2478
wi reless</w> 2477
f fe 2476
浴 室</w> 2476
珍 珠</w> 2474
卫 生 2465
bo y</w> 2465
t ur 2460
mo tor 2458
e ssen 2456
sho ck</w> 2455
bot tle</w> 2454
f r 2447
mul ti 2442
secre t</w> 2434
零 钱</w> 2433
er a</w> 2432
cas io</w> 2427
路 易 2423
tre n 2422
spo rt</w> 2421
室 内</w> 2417
粉 色</w> 2416
短 t</w> 2414
br a</w> 2413
跑 鞋</w> 2412
prin t</w> 2412
co n</w> 2410
家 具</w> 2407
do u 2406
vu it 2399
sel ling</w> 2398
两 用</w> 2393
co mp 2389
ba gs</w> 2386
bo ard</w> 2385
cou ple</w> 2385
seri es</w> 2383
m al</w> 2382
h a 2381
路易 威 2376
st ar 2373
6 4 2372
ele c 2369
am i 2357
2 3 2356
拼 接</w> 2354
as us</w> 2351
t shirt</w> 2345
皮 夹</w> 2339
b und 2338
2 - 2334
i ce</w> 2331
d o</w> 2328
s cre 2328
快 速</w> 2327
6 - 2322
l - 2317
冬 季</w> 2317
che ck 2316
k g</w> 2311
双 人</w> 2304
di e</w> 2303
适 用</w> 2300
e t 2298
to ps</w> 2297
fro m</w> 2296
l an 2295
7 1</w> 2293
ap p 2292
at ing</w> 2290
tra vel</w> 2290
路易威 登</w> 2290
m s</w> 2288
flo wer</w> 2285
vuit ton</w> 2285
高 腰</w> 2281
in f 2281
ci al</w> 2277
100 ml</w> 2275
p at 2268
p en</w> 2268
h al 2267
go od</w> 2267
g en</w> 2262
in spi 2261
bur berry</w> 2257
nat ur 2256
spo rts</w> 2252
lou is</w> 2251
x s</w> 2250
定 制</w> 2250
clas sic</w> 2250
c al 2248
l and</w> 2247
落 地</w> 2247
motor cycle</w> 2245
l at 2241
合 金</w> 2240
m it 2237
v al</w> 2237
联 名</w> 2235
bat h</w> 2234
健 身</w> 2230
as sor 2226
o t 2223
ro se</w> 2223
b ang 2221
i s 2217
内 裤</w> 2215
stra p</w> 2214
促 销</w> 2212
蝴 蝶 2207
p as 2206
clo th 2206
stick er</w> 2204
c ti 2203
7 8 2202
c ap</w> 2201
assor ted</w> 2197
bund le</w> 2196
卫生 间</w> 2193
d ra 2190
m er 2190
an ti 2189
sp ea 2188
f it 2187
餐 厅</w> 2187
风 扇</w> 2186
现货 )</w> 2184
品 牌</w> 2181
y s 2177
沙 滩</w> 2174
智 能</w> 2173
o ne 2170
w ash 2169
双 层</w> 2169
周 边</w> 2166
架 子</w> 2163
b ra 2160
3 4 2157
阳 台</w> 2157
毛 衣</w> 2156
电 池</w> 2155
hear t</w> 2155
a ge</w> 2154
di g 2153
s au 2152
吊 带</w> 2150
car e</w> 2150
a g 2145
c us 2144
mi r 2143
son y</w> 2143
v in</w> 2141
帆 布</w> 2141
厚 底</w> 2139
蝴蝶 结</w> 2139
k y 2137
a h 2135
雪 纺</w> 2133
批 发</w> 2133
桌 面</w> 2118
专 业</w> 2115
动 漫</w> 2113
椅 子</w> 2112
boo st</w> 2112
do or</w> 2108
bel t</w> 2105
单 人</w> 2103
精 华</w> 2101
桌 子</w> 2100
ra y</w> 2096
p ack 2094
纯 色</w> 2093
s y 2091
dis ney</w> 2091
c d</w> 2088
面 膜</w> 2087
童 装</w> 2085
礼 盒</w> 2084
ho t</w> 2083
专 属</w> 2079
bi r 2074
00 0 2073
lu x 2072
z z 2067
1 20 2065
ver se</w> 2065
e m</w> 2063
打 底</w> 2063
stri p 2063
特 惠</w> 2062
钥 匙 2062
v c</w> 2061
ad ul 2057
f f</w> 2055
vin ta 2055
fi l 2052
tin t</w> 2049
b la 2047
ro und</w> 2047
el s</w> 2047
化 妆 2046
si li 2045
s mar 2041
b and</w> 2039
n u 2038
no te</w> 2037
nat ure</w> 2037
st and</w> 2034
塑 料</w> 2033
ar a</w> 2032
p top</w> 2030
f en 2029
ele ss</w> 2028
c lu 2027
ac t</w> 2026
char g 2026
运 费</w> 2024
p and 2023
mo use</w> 2023
te a</w> 2023
18 k</w> 2023
inspi red</w> 2019
char ac 2017
jap an</w> 2017
o z</w> 2015
cto ri 2011
按 摩</w> 2005
n y 2004
n it 2003
uni vers 1996
美 式</w> 1994
ma g 1993
尺 码</w> 1988
布 鞋</w> 1986
co s 1986
ban k</w> 1984
dou ble</w> 1983
mp er</w> 1982
t at 1981
li qu 1981
3 3 1979
c m 1977
o l</w> 1976
叶 草</w> 1975
i al</w> 1973
b ts</w> 1965
电 视</w> 1964
石 英</w> 1963
ck e 1963
d s 1960
f ri 1958
布 艺</w> 1958
9 5</w> 1956
办 公</w> 1956
of fi 1956
bro wn</w> 1955
u re 1954
0 . 1953
彩 色</w> 1953
办公 室</w> 1952
hi gh 1950
in ches</w> 1948
圆 形</w> 1946
v el 1945
je wel 1945
f an</w> 1944
spea ker</w> 1944
vi ctori 1941
方 形</w> 1939
ar y</w> 1936
36 0</w> 1936
s en 1935
t pu</w> 1934
腰 带</w> 1934
秋 季</w> 1933
in e 1926
j 7</w> 1920
to te</w> 1919
m o</w> 1917
let te</w> 1915
3 2</w> 1914
sleev eless</w> 1914
p las 1909
cle ar</w> 1905
univers al</w> 1899
清 洁</w> 1897
ma h</w> 1896
am s</w> 1895
相 机</w> 1892
pi l 1892
百 货</w> 1890
绑 带</w> 1890
t hi 1888
s ne 1887
弹 力</w> 1887
ch ri 1884
do w</w> 1884
mi cro 1883
p - 1882
to ys</w> 1882
5 - 1880
lip stick</w> 1880
车 载</w> 1879
lo n</w> 1879
s y</w> 1878
p lay 1877
th er 1876
ho me</w> 1875
三 叶草</w> 1874
双 肩 1873
太 阳</w> 1869
皮 套</w> 1867
- - 1864
am po 1863
手 环</w> 1854
金 色</w> 1853
00 0</w> 1851
fla t</w> 1851
g g 1850
le go</w> 1850
双 面</w> 1849
on s</w> 1849
f i</w> 1847
vinta ge</w> 1847
m p</w> 1846
lo o 1846
tri c</w> 1846
s si 1844
格 子</w> 1844
色 )</w> 1842
m on</w> 1841
p vc</w> 1839
爱 心</w> 1839
猫 咪</w> 1839
r a</w> 1837
y 6 1837
ar mo 1837
材 料</w> 1835
5 . 1834
at e 1834
3 6</w> 1832
口 袋</w> 1832
ho use</w> 1830
d ge</w> 1829
am a</w> 1829
克 力</w> 1828
sne ak 1828
. .</w> 1827
电 源</w> 1827
charac ter</w> 1826
日 式</w> 1825
( 现货)</w> 1824
ed ition</w> 1823
书 桌</w> 1822
mil k</w> 1822
9 8 1820
小 米</w> 1820
fo re 1820
cle ans 1820
随 身</w> 1818
公 分</w> 1817
质 感</w> 1817
pu ma</w> 1815
al y</w> 1812
po cket</w> 1812
to mi 1811
shi rts</w> 1811
n av 1808
organi zer</w> 1808
b y 1806
pp ing</w> 1806
德 国</w> 1805
静 音</w> 1805
plas tic</w> 1802
g lo 1800
le y</w> 1800
双肩 包</w> 1800
机 械</w> 1797
少 年</w> 1796
ba r</w> 1796
cand y</w> 1796
z en 1795
y u 1792
c at 1792
cam era</w> 1792
scre en</w> 1791
d - 1789
d ed</w> 1789
cro p</w> 1788
i a</w> 1787
ne t</w> 1787
明 星</w> 1786
钱 夹</w> 1786
wit ch</w> 1786
kni t</w> 1785
2 2</w> 1782
se d</w> 1782
动 物</w> 1781
宝 贝</w> 1780
on hand</w> 1780
c ut</w> 1779
natur al</w> 1779
耐 克</w> 1778
swim suit</w> 1778
女 孩</w> 1776
an a</w> 1776
k i</w> 1774
be st</w> 1772
2 7 1769
b b</w> 1769
it aly</w> 1769
c at</w> 1767
gu ard</w> 1767
colle ction</w> 1767
p ra 1765
d mi</w> 1764
3 5</w> 1764
mo i 1764
p ure</w> 1763
学 院</w> 1759
ty pe</w> 1759
ru n</w> 1756
ho n 1754
6 5 1753
a lo 1752
tw o</w> 1751
liqu id</w> 1750
咖 啡 1749
e e 1744
di or</w> 1744
kore a</w> 1742
4 - 1741
jewel ry</w> 1739
f - 1738
adul t</w> 1737
re mo 1735
victori a</w> 1734
生 日</w> 1733
3 7 1732
n ba</w> 1732
2 in1</w> 1730
o s</w> 1728
2 8</w> 1726
原 装</w> 1724
dar k</w> 1724
g ri 1723
p c 1721
y 5 1721
灰 色</w> 1721
bo ys</w> 1720
餐 桌</w> 1719
si de</w> 1719
ra ge</w> 1719
d ant</w> 1718
2 6</w> 1716
ll a</w> 1716
m s 1712
f le 1712
伸 缩</w> 1712
a d</w> 1710
戒 指</w> 1706
超 薄</w> 1705
sp ray</w> 1705
und er 1705
fo od</w> 1703
米 奇</w> 1700
整 理</w> 1699
y el 1698
12 5</w> 1697
co ffe 1695
5 s</w> 1694
镂 空</w> 1694
d ro 1693
th e 1692
g ame</w> 1690
推 荐</w> 1690
in t</w> 1688
ta ke</w> 1688
海 贼</w> 1687
co st 1687
矽 胶</w> 1686
fre e 1684
帆 布鞋</w> 1681
ear s</w> 1681
organi c</w> 1680
w all</w> 1677
手 套</w> 1677
do ll</w> 1675
me tal</w> 1674
风 格</w> 1673
100 0</w> 1673
g g</w> 1671
m k 1669
j i 1668
00 1</w> 1667
ar ri 1665
c er 1664
ter s</w> 1664
防 尘</w> 1661
pre - 1661
h app 1658
g am 1657
coffe e</w> 1657
安 全</w> 1656
ro mper</w> 1656
" "</w> 1653
sli m</w> 1651
5 g</w> 1648
小 舖</w> 1647
stri pe</w> 1647
du al</w> 1645
ey e</w> 1645
con verse</w> 1644
礼 品</w> 1640
1 10 1639
cor n</w> 1638
s witch</w> 1635
睡 衣</w> 1634
mi st</w> 1634
brand ed</w> 1634
m y 1633
行 车</w> 1633
经 济 1632
man i</w> 1631
pow er 1627
c t 1626
电 子</w> 1624
yel low</w> 1624
kin i</w> 1620
书 架</w> 1619
colo rs</w> 1618
男 童</w> 1617
ke t 1617
hea d</w> 1617
v ans</w> 1616
环 保</w> 1615
sh ampo 1615
sc hoo 1613
t v</w> 1612
201 5</w> 1612
4 . 1609
i i</w> 1608
ba n</w> 1608
par ty</w> 1607
ar mani</w> 1606
bo r 1606
2 3</w> 1603
增 高</w> 1602
太 阳 1601
shampo o</w> 1601
平 底</w> 1599
bo w</w> 1596
英 伦</w> 1593
w ash</w> 1592
轻 量</w> 1591
gra y</w> 1590
per son 1588
1 10</w> 1586
6 6 1586
mat e</w> 1586
e p</w> 1585
qu e 1585
do g</w> 1585
4 4 1584
t as 1584
玄 关</w> 1584
c - 1582
5 7 1581
elec tric</w> 1581
ri es</w> 1579
tren dy</w> 1579
ch en</w> 1577
m d</w> 1575
k u 1574
k nit 1573
her mes</w> 1573
min i 1571
bu y</w> 1570
re p 1569
bal ance</w> 1568
c an</w> 1567
origin als</w> 1567
lit tle</w> 1567
fo ld 1566
全 馆</w> 1565
泳 衣</w> 1564
f las 1563
head set</w> 1561
ys l</w> 1559
sto rage</w> 1558
smar t</w> 1557
on g</w> 1555
cloth es</w> 1555
ch er 1554
短 款</w> 1553
2 9 1551
car to 1551
essen ti 1551
at er</w> 1547
x r</w> 1546
qu i 1546
学 习</w> 1545
no va</w> 1545
gr ams</w> 1545
全 场</w> 1544
t ain</w> 1543
全 自动</w> 1543
世 界</w> 1540
fac ial</w> 1540
精 致</w> 1539
40 0</w> 1538
加 大</w> 1537
衣 架</w> 1536
pra da</w> 1536
a f 1535
衣 柜</w> 1535
墨 镜</w> 1535
帽 子</w> 1534
s a</w> 1532
z y</w> 1532
钥 匙</w> 1530
g low</w> 1529
春 秋</w> 1529
轻 便</w> 1528
prote ctor</w> 1528
制 造</w> 1527
书 包</w> 1526
anti - 1523
schoo l</w> 1523
裤 子</w> 1521
hoo die</w> 1519
展 示</w> 1518
s on</w> 1517
z e</w> 1517
机 车</w> 1516
skin ny</w> 1515
壁 挂</w> 1514
a 7</w> 1513
col la 1512
vit am 1512
bro w</w> 1511
nav y</w> 1511
s ur 1510
- 1</w> 1509
in ch</w> 1509
po rt</w> 1509
厂 家</w> 1504
50 g</w> 1504
f ly 1501
c ra 1501
che ck</w> 1501
手 书</w> 1500
尺 寸</w> 1499
携 式</w> 1499
arri val</w> 1499
抱 枕</w> 1497
pen dant</w> 1495
经济 型</w> 1495
唇 膏</w> 1494
s ing 1492
n a 1492
qu e</w> 1492
zo om</w> 1492
礼 服</w> 1490
甜 美</w> 1489
sho ck 1489
cke y</w> 1488
流 苏</w> 1487
ar i 1486
蛋 糕</w> 1485
8 5</w> 1484
喷 雾</w> 1482
ac ce 1482
男 装</w> 1481
围 巾</w> 1481
sto ne</w> 1481
pen ci 1480
stre t 1478
香 港</w> 1476
s w 1475
顶 级</w> 1475
co ne</w> 1475
30 4</w> 1475
鞋 子</w> 1474
co stu 1474
wo o 1473
ma ke 1471
v 领</w> 1470
b ear</w> 1470
c ry 1468
大 学</w> 1467
c lip</w> 1466
sand o</w> 1466
carto on</w> 1466
记 本</w> 1464
la ptop</w> 1464
b s</w> 1463
防 风</w> 1463
0 1</w> 1461
材 质</w> 1461
mi ckey</w> 1459
fashi on 1457
check out</w> 1457
an k 1456
wor ks</w> 1455
mm y</w> 1452
to ry</w> 1451
w el</w> 1450
耐 磨</w> 1450
su pre 1449
-4 4</w> 1442
b er</w> 1441
8 5 1440
for ce</w> 1439
dv d</w> 1439
gi ft</w> 1438
t ab 1437
包 装</w> 1437
台 式</w> 1437
max i</w> 1437
bi kini</w> 1436
m g</w> 1435
y 9 1435
移 动</w> 1435
char m</w> 1433
xi ao 1432
i pad</w> 1430
水 壶</w> 1430
ti e</w> 1430
pil low</w> 1430
夏 天</w> 1429
绿 色</w> 1429
st r 1429
si ve</w> 1428
春 季</w> 1427
x - 1426
on al</w> 1426
d ai 1424
w s</w> 1422
训 练</w> 1422
j 7 1420
c c</w> 1419
us t</w> 1419
zen fo 1419
c up</w> 1418
海 外</w> 1418
喇 叭</w> 1418
fu l</w> 1418
l ing 1417
英 国</w> 1417
an ge</w> 1416
风 衣</w> 1414
or a</w> 1409
happ y</w> 1407
fi g 1406
ai d</w> 1403
pan ty</w> 1401
t wi 1399
v - 1399
ad ap 1399
bo dy 1398
mir ro 1398
夏 装</w> 1397
dig it 1396
f ra 1395
knit ted</w> 1394
shock proof</w> 1394
小 孩</w> 1393
玩 偶</w> 1393
小 熊</w> 1391
ac ti 1391
ck y</w> 1391
西 装</w> 1390
li sh</w> 1390
笔 记本</w> 1386
羊 皮</w> 1386
仿 真</w> 1386
el l</w> 1385
打 孔</w> 1384
幼 儿</w> 1384
in er</w> 1383
加 绒</w> 1382
ro n</w> 1382
po lo 1382
xiao mi</w> 1382
cry st 1381
7 5</w> 1379
she et</w> 1378
6 . 1377
92 .5</w> 1377
8 - 1375
te es</w> 1375
con d 1374
chi l 1374
c y</w> 1373
ser um</w> 1372
b - 1371
sili cone</w> 1370
4 5</w> 1369
p et</w> 1369
直 销</w> 1368
便 宜</w> 1368
bal lo 1367
8 3</w> 1366
h an 1366
swim wear</w> 1366
no . 1363
100 %</w> 1363
yo u</w> 1363
k en 1362
uni corn</w> 1359
t an 1358
水 果</w> 1357
床 头</w> 1357
下 杀 1356
tr o</w> 1356
penci l</w> 1355
2 50</w> 1354
积 木</w> 1354
pa j 1352
购 物</w> 1351
le g 1351
di o</w> 1351
ke y</w> 1351
2 7</w> 1350
泰 国</w> 1350
av ai 1349
ni c</w> 1348
图 案</w> 1347
柜 子</w> 1347
l amp</w> 1346
3 9 1343
s no 1343
c li 1342
c es</w> 1342
l am 1341
sha dow</w> 1340
钥匙 圈</w> 1340
lo ck</w> 1339
sau di</w> 1339
电 器</w> 1338
餐 具</w> 1338
反 光</w> 1338
钢 化</w> 1338
la ure 1337
strip es</w> 1337
ps 4</w> 1336
m er</w> 1335
b and 1335
车 用</w> 1335
旋 转</w> 1335
o d 1333
it h</w> 1331
costu me</w> 1331
宝 莉</w> 1330
cos me 1330
塑 胶</w> 1329
supre me</w> 1329
to wel</w> 1328
g ger</w> 1327
h t 1326
sp lay</w> 1325
a i</w> 1324
cost e</w> 1324
四 季</w> 1323
妈 妈</w> 1323
情 人 1323
shi pping</w> 1323
植 物</w> 1321
圣 诞</w> 1319
re al</w> 1319
12 pcs</w> 1319
acce sso 1318
po l 1316
60 0</w> 1316
e - 1315
la coste</w> 1314
f a 1313
翻 盖</w> 1313
hand bag</w> 1312
l un 1310
el ly</w> 1309
an ti</w> 1308
ele g 1308
sli p</w> 1308
gen u 1308
粉 红</w> 1306
se y</w> 1304
mirro r</w> 1304
棉 麻</w> 1302
情人 节</w> 1302
贝 壳</w> 1301
in a</w> 1300
che e 1299
小 号</w> 1298
法 国</w> 1298
ar t</w> 1298
a 7 1295
跟 鞋</w> 1295
fre sh</w> 1294
fo am</w> 1293
no va 1293
cho col 1293
ni ght</w> 1292
so u 1292
ea u</w> 1292
阿 玛 1291
3 00 1290
fas t</w> 1289
妈 咪</w> 1288
st ring</w> 1288
8 8</w> 1287
digit al</w> 1287
cher ry</w> 1284
glas ses</w> 1283
h p</w> 1282
购 物 1281
ma s</w> 1281
n md</w> 1280
z en</w> 1280
vitam in</w> 1280
am on 1279
pl an 1279
o em</w> 1278
保 温</w> 1278
水 钻</w> 1278
se ller</w> 1277
3 in1</w> 1275
su n</w> 1275
保 证</w> 1270
青 年</w> 1270
s at 1269
改 装</w> 1266
玻 璃 1265
2. 0</w> 1265
k y</w> 1263
吊 灯</w> 1263
空 气</w> 1262
弹 性</w> 1261
外 线</w> 1259
len s</w> 1258
sneak ers</w> 1258
滑 板</w> 1257
pp ers</w> 1255
3 50</w> 1254
b le 1254
th er</w> 1254
chri st 1253
木 质</w> 1252
行 动</w> 1252
无 袖</w> 1251
3 3</w> 1249
in ten 1247
m t 1246
v en</w> 1242
or ange</w> 1242
s al 1241
水 桶</w> 1241
z e 1240
生 日 1239
阿玛 尼</w> 1239
官 方</w> 1238
or der</w> 1238
bas ket 1238
b o</w> 1237
per fe 1237
z ara</w> 1235
li fe</w> 1235
squ are</w> 1235
e f</w> 1233
z ing</w> 1233
绝 版</w> 1233
a qu 1231
3 1</w> 1231
cro ss</w> 1231
优 质</w> 1230
a j 1229
at i 1229
l li 1227
it ion 1227
to yo 1227
1 .5</w> 1225
colla gen</w> 1225
cryst al</w> 1225
basket ball</w> 1225
球 鞋</w> 1224
袜 子</w> 1224
r o</w> 1223
音 乐</w> 1223
hand le</w> 1222
run s</w> 1222
make up</w> 1222
r ac 1221
m ac 1220
s o</w> 1220
cr o</w> 1219
a f</w> 1218
ar m</w> 1217
eleg ant</w> 1217
r t 1216
泡 泡</w> 1216
代 理</w> 1216
配 色</w> 1215
水 杯</w> 1214
沐 浴</w> 1213
f ab 1212
mar i 1212
vers ace</w> 1210
bo n 1209
zenfo ne</w> 1209
h d</w> 1208
vo l 1208
ni e</w> 1207
fig ure</w> 1207
c en 1206
w n 1205
2 20 1205
v et</w> 1205
女 性</w> 1205
服 装</w> 1205
硅 胶</w> 1205
ra in 1204
星 星</w> 1203
p ear 1202
kit chen</w> 1202
genu ine</w> 1202
4 7 1201
f in 1201
a - 1200
持 久</w> 1200
三 星</w> 1200
to m</w> 1198
ne w 1198
fo o 1197
ri bb 1197
toyo ta</w> 1197
f ly</w> 1196
to ner</w> 1195
u v</w> 1194
fri en 1193
3 8</w> 1192
零 食</w> 1191
gin gs</w> 1191
t ape</w> 1190
sing le</w> 1190
mi x</w> 1189
d ry</w> 1188
中 式</w> 1188
电 脑 1187
over runs</w> 1187
特 卖</w> 1186
re al 1184
ligh t 1184
hon da</w> 1184
毛 巾</w> 1182
8 1</w> 1181
无 痕</w> 1181
床 头 1180
9 7</w> 1179
肩 带</w> 1179
版 )</w> 1178
麂 皮</w> 1177
cap su 1177
p p</w> 1175
原 宿</w> 1175
fr ame</w> 1175
生日 礼物</w> 1175
眼 影</w> 1174
er ing</w> 1174
o us</w> 1172
迷 彩</w> 1172
糖 果</w> 1172
us h 1172
va s</w> 1172
活 动</w> 1171
n ail</w> 1170
英 文</w> 1169
孕 妇</w> 1169
un der</w> 1169
ea ble</w> 1168
bang ko 1168
p le 1167
胶 带</w> 1167
5 ml</w> 1166
wh e 1166
安 全 1165
key chain</w> 1165
chocol ate</w> 1164
可 折叠</w> 1163
行 李 1163
co mb 1163
ah a</w> 1163
ma t</w> 1162
c ity</w> 1161
新 )</w> 1161
wi fi</w> 1161
mon o 1161
3 m</w> 1159
b ul 1158
老 爹</w> 1158
花 朵</w> 1157
re dmi</w> 1157
t al 1156
o m 1155
ch am 1155
sto ck</w> 1154
合 一</w> 1153
mi o</w> 1152
one si 1152
pre- loved</w> 1151
y o</w> 1149
ka y</w> 1149
fore ver</w> 1149
j er 1147
套 头</w> 1147
工 作</w> 1147
au to 1147
cor e</w> 1147
f an 1145
道 具</w> 1145
国 际</w> 1144
pand ora</w> 1144
自 行车</w> 1143
素 面</w> 1143
装 饰 1142
di amon 1142
s .</w> 1141
g ap</w> 1139
su pp 1139
x x 1138
精 油</w> 1138
电脑 桌</w> 1138
ac e 1137
bangko k</w> 1137
v ing</w> 1136
can vas</w> 1136
an o</w> 1135
.. .</w> 1135
essenti al</w> 1135
工 业</w> 1134
枕 头</w> 1134
全 套</w> 1132
荔 枝</w> 1132
4 00 1131
g ro 1131
s / 1131
k le 1131
腰 包</w> 1131
po d</w> 1131
铝 合金</w> 1130
柔 软</w> 1130
ro id</w> 1130
a ut 1128
ju st 1128
mi cro</w> 1127
遮 阳 1126
g lit 1125
for mal</w> 1125
欧 洲</w> 1124
素 色</w> 1124
jump suit</w> 1122
paj ama</w> 1121
桌 椅</w> 1120
3 4</w> 1119
j an 1119
实 用</w> 1119
wo mens</w> 1119
直 播</w> 1116
re ju 1116
f er 1115
li mit 1115
fashion able</w> 1113
夹 克</w> 1112
折 叠 1112
老 花</w> 1111
ca ke</w> 1111
accesso ries</w> 1111
co at</w> 1110
mon th 1110
l v 1109
纤 维</w> 1109
m bl 1108
m ale</w> 1108
ki n</w> 1108
优 雅</w> 1106
平 板</w> 1106
adap ter</w> 1106
w ra 1105
装 饰品</w> 1105
空 调</w> 1104
\ n</w> 1104
lu cky</w> 1104
y l</w> 1101
ki d</w> 1101
e ss</w> 1099
li n</w> 1099
p in 1098
ch able</w> 1098
t 恤 1096
三 角</w> 1096
裙 子</w> 1096
con tro 1096
fly knit</w> 1096
i m 1095
龙 头</w> 1093
婚 礼</w> 1093
巴 黎</w> 1093
zi pper</w> 1092
1 20</w> 1091
s m</w> 1091
女 神</w> 1091
ed ge</w> 1091
ne o 1090
wal l 1090
run ning</w> 1090
s mo 1089
ti me</w> 1089
d ing</w> 1088
9 5 1088
te l</w> 1088
长 裙</w> 1087
chil dre 1087
7 6 1085
el d</w> 1084
b um</w> 1083
ba g 1082
cle an 1082
美 容</w> 1081
盒 装</w> 1081
tu be</w> 1081
but ton</w> 1081
ba by 1080
隐 形</w> 1078
购物 袋</w> 1078
a 5</w> 1076
流 行</w> 1076
低 价</w> 1076
g un 1075
y a 1074
强 力</w> 1074
ar t 1074
20 20 1074
凳 子</w> 1073
phone s</w> 1071
diamon d</w> 1071
k ate</w> 1070
音 响</w> 1070
遥 控</w> 1070
p lay</w> 1069
机 壳</w> 1069
二 手 1069
fro nt</w> 1069
9 - 1068
旅 行 1068
靠 背</w> 1067
pur se</w> 1067
fun ko</w> 1067
4 8 1066
fen di</w> 1066
亲 子</w> 1065
饼 干</w> 1065
酒 店</w> 1065
leg gings</w> 1065
18 0 1064
vel vet</w> 1064
圣 诞 1063
sli ppers</w> 1063
p air</w> 1062
6 / 1061
挂 件</w> 1061
w l</w> 1059
m c 1059
漫 画</w> 1059
er o 1059
al u 1059
b v 1057
que en</w> 1057
p ul 1056
tr an 1055
空 间</w> 1054
limit ed</w> 1054
樱 花</w> 1053
b al</w> 1052
文 版</w> 1052
bl ack 1052
power bank</w> 1052
保 温 1050
g- shock</w> 1050
fra gr 1050
工 作 1049
ro y 1049
y ears</w> 1048
迪 达 1048
软 壳</w> 1048
sho e</w> 1046
wo od</w> 1046
on - 1045
si mp 1044
ap er</w> 1044
7 / 1042
bla zer</w> 1041
坐 垫</w> 1040
ch ro 1039
p ing</w> 1038
短 裙</w> 1038
co in</w> 1037
3. 0</w> 1036
毛 绒</w> 1035
w e</w> 1034
so ld</w> 1034
spe cial</w> 1034
i l 1033
文 具</w> 1032
ma ke</w> 1032
la dy</w> 1032
8 g</w> 1031
t ail</w> 1031
5 6 1030
cond ition 1030
平 底 1029
mi c</w> 1029
le x</w> 1027
超 级</w> 1026
to uch</w> 1026
y am 1025
高 档</w> 1025
bir th 1025
7 7 1024
c ri 1024
深 蓝</w> 1023
th ai 1021
4 8</w> 1020
in o</w> 1020
st ate 1020
pear l</w> 1020
i ge</w> 1019
woo den</w> 1019
month s</w> 1019
w ho 1017
4 6 1017
it i 1017
le gen 1016
person ali 1016
f ru 1015
boo ks</w> 1015
prin ce 1015
3 9</w> 1014
系 带</w> 1014
en g 1014
pu mp</w> 1014
彩 虹</w> 1013
商 用</w> 1013
小 说</w> 1012
re tro</w> 1012
h ang 1011
冰 箱</w> 1011
ma c</w> 1010
w - 1008
mo r 1008
巧 克力</w> 1006
磨 砂</w> 1006
萤 幕</w> 1006
pp ed</w> 1006
1 s</w> 1005
牙 刷</w> 1005
五 金</w> 1005
t te</w> 1004
dri ve</w> 1004
charg ing</w> 1004
childre n</w> 1004
j o</w> 1003
ba vin</w> 1003
角 落</w> 1002
餐 椅</w> 1002
华 为</w> 1001
ne ss</w> 1001
jo gger</w> 1001
polo 衫</w> 1001
state ment</w> 1001
bo x 999
v y</w> 998
4 g</w> 997
翻 领</w> 997
co de</w> 997
spa de</w> 997
christ mas</w> 997
茶 具</w> 996
充 气</w> 996
j elly</w> 995
迪达 斯</w> 995
e s 994
供 应</w> 994
wash able</w> 994
at a</w> 993
wi re</w> 993
bi e</w> 992
" ""</w> 991
colo ur 991
皮 鞋</w> 990
高 筒</w> 990
ri c</w> 990
pa lette</w> 990
g er 989
洋 气</w> 989
co d 989
发 饰</w> 987
钻 石</w> 987
ur a</w> 986
he els</w> 986
l g</w> 985
长 方形</w> 985
原 创</w> 985
te ster</w> 984
ear phone</w> 984
d c</w> 983
s ch 982
ch amp</w> 982
blu sh</w> 982
no t</w> 981
v ac 979
棒 球 979
拉 杆</w> 979
moi stu 978
2 1 977
艺 术</w> 977
li e</w> 977
perfe ct</w> 977
m ach 976
2 9</w> 976
mm ing</w> 976
卡 片</w> 975
阿 迪达斯</w> 975
m r 974
t ho 974
j i</w> 974
c er</w> 974
b t 974
尼 龙</w> 974
y ee 973
计 时</w> 972
ru b</w> 972
豆 豆</w> 971
座 椅</w> 970
ne s</w> 970
ad just 970
b l</w> 969
键 盘</w> 968
y - 967
fi er</w> 967
pr e</w> 967
er o</w> 966
and roid</w> 966
offi ce</w> 966
台 灯</w> 965
bor n</w> 965
moistu ri 965
多 色</w> 964
sh a</w> 964
1 50 962
紫 色</w> 962
70 0</w> 962
la ble</w> 961
sp f 960
干 燥</w> 959
口 罩</w> 959
mar vel</w> 959
t ai 957
to dd 957
10 pcs</w> 957
fil ter</w> 957
3 7</w> 956
bi ke</w> 956
ver y</w> 956
ju ice</w> 956
k l</w> 955
fi r 955
cleans ing</w> 955
j 2</w> 954
5 8 953
coo l</w> 953
购 )</w> 952
发 夹</w> 952
out door</w> 952
派 对</w> 951
街 头</w> 951
so f 951
fragr ance</w> 951
大 理 950
sc en 950
clo th</w> 950
0 2</w> 949
垃 圾 949
lu s</w> 949
紫 外线</w> 948
colo r 947
gre y</w> 947
行李 箱</w> 947
x xl</w> 946
pri ce</w> 945
condition er</w> 945
包 邮</w> 944
高 跟鞋</w> 944
h er</w> 943
表 带</w> 943
fi la</w> 943
personali zed</w> 943
大理 石</w> 943
房 间</w> 942
y rs</w> 941
中 国</w> 940
em bro 940
ribb on</w> 940
款 )</w> 939
卫 衣</w> 938
g y 937
手 提</w> 937
go l 937
书 房</w> 936
组 装</w> 935
乔 丹</w> 935
小 脚</w> 934
升 降</w> 934
6 plus</w> 933
s free</w> 933
黄 色</w> 933
am eri 933
7 plus</w> 932
p in</w> 932
5 .5</w> 932
re nt</w> 932
ar o 932
jer sey</w> 931
棒球 帽</w> 931
4 9 930
益 智</w> 930
do l 930
gu ess</w> 930
r al 929
背 带</w> 929
蝴 蝶</w> 929
al bum</w> 929
prince ss</w> 929
adjust able</w> 929
c d 928
尖 头</w> 928
in st 928
女 包</w> 927
fo und 927
充 电器</w> 926
to ne</w> 926
uni q 926
j 5</w> 925
po ds</w> 925
镜 子</w> 924
露 营</w> 923
in ni 923
re charg 923
cus tomi 923
re ad 922
be d 922
6 g</w> 921
mb er</w> 920
朋 友</w> 919
吧 台</w> 919
mag ne 919
e ds</w> 918
书 柜</w> 918
wor ld</w> 918
fab ric</w> 918
露 肩</w> 917
青 少年</w> 917
v an 916
eye brow</w> 916
wall paper</w> 916
sh i</w> 915
thai land</w> 915
g ar</w> 914
u ti 914
10 1</w> 914
18 0</w> 914
自 然</w> 913
ur y</w> 913
alo e</w> 913
( 全 912
g t 912
摩 托 912
口 红</w> 912
w r 910
连 体</w> 910
re s</w> 910
too l</w> 910
mat ic</w> 909
手 包</w> 908
ad he 908
收 藏</w> 907
钓 鱼</w> 907
b ed</w> 906
re n 906
be ach</w> 906
bas ic</w> 906
5 5</w> 905
k er 905
f 5</w> 905
沙 发 904
birth day</w> 904
窗 帘</w> 903
co s</w> 903
pho to 903
搭 配</w> 902
ballo on</w> 901
embro i 901
b on</w> 900
面 包</w> 900
厕 所</w> 900
ro om</w> 900
ver sion</w> 900
stret chable</w> 900
结 婚</w> 899
a c</w> 898
b len 898
car ds</w> 898
of f 897
tan k</w> 897
周 年</w> 896
盒 子</w> 896
a 4</w> 895
pl ated</w> 895
pie ces</w> 895
a3 7</w> 895
8 plus</w> 894
浪 漫</w> 894
学 者</w> 894
t b</w> 893
夏 日</w> 893
梳 妆 893
blo ck</w> 893
摩托 车</w> 892
使 用</w> 891
9 . 890
中 文版</w> 890
found ation</w> 890
uniq lo</w> 889
拼 图</w> 888
初 学者</w> 888
罗 兰</w> 888
银 色</w> 888
ti cs</w> 888
ai rs</w> 888
g y</w> 887
入 )</w> 887
clas s</w> 887
f 7</w> 886
v 2</w> 886
us a</w> 886
too th 886
食 品</w> 885
s d</w> 884
hu man</w> 884
he al 884
kle in</w> 884
w are</w> 883
虾 皮</w> 881
wra p</w> 881
w a</w> 880
烘 焙</w> 880
ch u 880
a3 s</w> 880
超 人</w> 879
泳 装</w> 879
化妆 品</w> 879
avai lable</w> 878
f 9</w> 877
tr u 877
cro ss 877
梳妆 台</w> 876
e as 875
一 字</w> 875
da m</w> 873
offi cial</w> 873
yee zy</w> 873
杯 子</w> 872
旅 游</w> 872
魔 法</w> 871
ss a</w> 871
mach ine</w> 871
mo un 870
0 5 869
4 2</w> 869
h k</w> 869
基 本</w> 869
便 当</w> 869
灯 具</w> 869
颜 色</w> 868
recharg eable</w> 868
cur tain</w> 866
armo r</w> 866
armo ur</w> 866
7 9</w> 865
inni sfree</w> 865
6 4</w> 864
连 线</w> 864
米 妮</w> 864
飞 机</w> 864
挂 钩</w> 864
x s 862
夜 光</w> 862
as on 862
le te</w> 862
a 71</w> 861
号 :</w> 861
te ch</w> 860
w on 859
pa wn 859
gam ing</w> 859
k - 858
x e</w> 858
超 大</w> 858
dd ing</w> 858
双 色</w> 857
colo red</w> 856
登 山</w> 855
su p 855
chee k</w> 855
sel f</w> 854
stick ers</w> 854
c lay</w> 853
镜 头</w> 853
洗 发 853
dre am</w> 853
chi c</w> 853
童 鞋</w> 852
long sleeve</w> 852
a z 851
f lat 851
授 权</w> 851
fo il</w> 851
but ter 851
h a</w> 850
粉 底</w> 850
mo s</w> 850
s 8</w> 849
x l 849
mi x 849
cti ve</w> 849
安全 帽</w> 849
布 置</w> 848
key board</w> 848
cleans er</w> 848
魔 术</w> 847
lu tion</w> 847
te n</w> 847
ey el 847
杂 货</w> 845
it s</w> 845
we dge</w> 845
海 报</w> 844
真 品</w> 844
航 海</w> 844
se i 844
手 镯</w> 843
小 学生</w> 843
太阳 镜</w> 843
m ani 842
y 6</w> 842
ma y 842
pur ple</w> 842
s . 841
flas h</w> 841
3 c</w> 840
3 i</w> 840
s ing</w> 840
骑 士</w> 840
v 7</w> 839
兔 子</w> 839
订 制</w> 839
00 2</w> 838
head band</w> 838
p t 837
bal m</w> 837
m 4 836
me ter</w> 836
swe et</w> 836
健 康</w> 835
wo man</w> 835
外 出</w> 834
u sed</w> 833
衬 衣</w> 833
lay er</w> 833
数 位</w> 832
转 卖</w> 832
li ps</w> 832
pl ate</w> 832
6 pcs</w> 831
9 78 831
p al 830
prote ction</w> 830
w ri 829
生 物</w> 829
so r</w> 829
tu mbl 829
6 5</w> 828
v eni 828
马 桶</w> 828
安 卓</w> 828
最 新</w> 828
adhe sive</w> 828
n g</w> 827
jump er</w> 827
stu d</w> 826
拍 照</w> 825
思 哲</w> 825
sc rub</w> 825
-4 5</w> 825
大 衣</w> 824
智 慧</w> 824
真 空</w> 824
30 ml</w> 824
9 8</w> 822
r at 821
s 6</w> 821
生 儿</w> 821
over run</w> 821
e ts</w> 820
修 护</w> 820
yo ur</w> 820
5 mm</w> 819
范 思哲</w> 819
pur po 819
上 市</w> 818
inf in 818
6 7 817
h at</w> 817
f 1s</w> 817
马 仕</w> 817
九 分</w> 817
pro du 816
t w</w> 815
点 点</w> 815
托 特</w> 815
laure n</w> 815
6 8 813
衣 物</w> 813
三 色</w> 813
落 地 813
me t</w> 813
de l</w> 813
平底 鞋</w> 813
n - 812
x r 812
鞋 架</w> 812
se a 812
reju ven 812
仙 女</w> 811
遮 阳</w> 811
bur ch</w> 811
2 pcs</w> 810
4 1</w> 810
k ar 810
fo n</w> 810
dra g 810
re o</w> 808
do wn</w> 808
000 mah</w> 808
ro ller</w> 807
圣诞 节</w> 807
高 端</w> 806
sh ar 806
n or 805
保 鲜</w> 805
发 货</w> 805
de co 805
essen ce</w> 805
床头 柜</w> 805
a 83</w> 804
d on 803
地 毯</w> 803
独 家</w> 803
an e 803
fi ber</w> 803
d en 802
av on</w> 801
chi f 800
6 00 799
神 奇 799
we i 799
brand new</w> 799
3 / 798
b m 798
针 织 798
变 频</w> 798
ko be</w> 798
spo n 798
( 附</w> 797
6 3</w> 797
i ron</w> 797
w ing</w> 796
披 肩</w> 796
pa ds</w> 796
交 叉</w> 795
ri e</w> 795
body con</w> 795
隔 断</w> 794
po ke 794
ral ph</w> 794
纸 巾</w> 793
半 身</w> 793
ear ring</w> 793
to mmy</w> 792
ll s</w> 792
s 7</w> 791
s ses</w> 791
o u 791
折 扣</w> 791
an na</w> 790
eye shadow</w> 790
2 50ml</w> 789
f lip</w> 789
v 11</w> 789
短 靴</w> 789
un g</w> 789
for d</w> 789
foo t</w> 789
g et</w> 788
j 2 788
海 绵</w> 788
hi on</w> 788
洗 衣 787
bi o 787
rejuven ating</w> 786
洗 澡</w> 785
to i 785
al ph 785
chif fon</w> 785
x t</w> 784
普 拉 784
0 0</w> 783
原 价</w> 783
ac tion</w> 783
di aper</w> 783
克 风</w> 782
h d 781
彩 绘</w> 781
k et</w> 780
宝 石</w> 780
摄 影</w> 780
p am 779
装饰 画</w> 779
松 紧</w> 778
草 莓</w> 778
密 封</w> 778
24 h</w> 778
神奇 宝贝</w> 778
货 )</w> 777
y5 3</w> 777
4 2 776
水 器</w> 776
colour pop</w> 776
家 庭</w> 775
睫 毛</w> 775
as t</w> 775
精 灵</w> 774
文 艺</w> 774
模 具</w> 774
- -</w> 773
奢 华</w> 773
am ic</w> 773
e tu 772
服 饰</w> 772
钢 带</w> 772
几 何</w> 772
r ack</w> 771
fe ssi 771
long champ</w> 771
5 d</w> 770
si s</w> 770
ty pe 770
yam aha</w> 770
z u 769
立 式</w> 769
se mi</w> 769
so s</w> 769
customi zed</w> 769
s able</w> 768
u a</w> 768
multi - 768
fold able</w> 768
th ing</w> 767
购 买</w> 766
直 筒</w> 766
绒 毛</w> 766
swe ater</w> 766
st er 765
hal ter</w> 765
pol ka</w> 765
麦 克风</w> 764
吸 管</w> 764
it o</w> 764
cham pi 764
推 车</w> 763
力 士</w> 763
bo ss</w> 763
-4 0</w> 763
7 . 762
v 9</w> 762
感 应</w> 762
超 值</w> 762
me sh</w> 762
7- 11</w> 762
n b</w> 761
n ur 760
li ca</w> 759
shi eld</w> 759
w hi 758
f 3</w> 758
完 美</w> 758
mi s 758
todd ler</w> 758
4 3</w> 757
mar c</w> 757
送 礼</w> 756
科 技</w> 756
按 摩 755
sp ar 755
ci a 755
glu ta</w> 755
黄 金</w> 754
no vo</w> 754
ani mal</w> 754
m all</w> 753
6 6</w> 753
s d 753
多 肉</w> 753
ho r 753
pho to</w> 753
l ink</w> 752
酒 吧</w> 752
se l</w> 752
cel l 752
抽 屉</w> 751
t su 750
sa fe 750
gar i</w> 750
ing er</w> 749
tre e</w> 749
普拉 达</w> 748
雨 伞</w> 747
大 型</w> 746
种 子</w> 746
幼 儿 746
re e 746
re si 745
de red</w> 745
ver a</w> 745
d es</w> 744
4 6</w> 744
z a</w> 744
de li 744
80 0</w> 744
h o</w> 743
双 肩</w> 743
万 用</w> 743
.... .... 743
a tor</w> 742
门 口</w> 742
co splay</w> 742
mas sa 742
gra phi 742
cus hion</w> 742
二手 )</w> 742
u kay</w> 741
re pl 741
紧 身</w> 740
ne o</w> 740
em s</w> 740
全 身</w> 739
瑜 伽</w> 739
1/ 2</w> 739
poke mon</w> 739
乐 器</w> 738
sh ine</w> 738
etu de</w> 738
0 3</w> 737
新 娘</w> 737
di spo 737
pawn able</w> 737
幼儿 园</w> 737
4 4</w> 736
文 化</w> 736
靠 垫</w> 736
v 5</w> 735
款 式</w> 735
fru it</w> 735
英 雄</w> 734
st ed</w> 734
pro fessi 734
sm ith</w> 734
deco r</w> 734
器 材</w> 733
先 生</w> 733
60 ml</w> 733
办公 桌</w> 733
1 )</w> 732
数 字</w> 732
mul ti</w> 732
dispo sable</w> 732
a a 731
设 计 731
恐 龙</w> 731
1. 8 731
can on</w> 731
tumbl er</w> 731
n ar 730
欧 风</w> 730
法 式</w> 730
榻 米</w> 730
spe ed</w> 730
capsu les</w> 730
magne tic</w> 730
under wear</w> 729
s k</w> 728
立 领</w> 728
ex ten 728
n on- 727
榻 榻米</w> 727
lo ne</w> 727
d on</w> 725
1 a</w> 725
l cd</w> 725
co ach 725
le ts</w> 725
air pods</w> 725
glu tat 725
sou veni 725
p 20</w> 724
梦 幻</w> 724
隔 热</w> 724
价 )</w> 724
羊 毛</w> 724
th ro 724
cor d</w> 724
fac e 724
super star</w> 724
2 70</w> 723
p a</w> 723
k u</w> 723
制 作</w> 723
flat s</w> 723
顶 灯</w> 722
发 光</w> 722
铅 笔</w> 722
gra m</w> 722
fro zen</w> 722
a h</w> 721
开 关</w> 721
七 龙 721
ss y</w> 721
d ata</w> 720
comp lete</w> 720
bv l 720
a 6</w> 719
hi one</w> 719
el a</w> 719
pu b 719
pack age</w> 719
sup port</w> 719
男 子</w> 718
高 级</w> 718
第 一</w> 718
fil m</w> 718
洗衣 机</w> 718
7 g</w> 717
t ch</w> 717
工 厂</w> 717
co co</w> 717
note book</w> 717
4 a</w> 716
6 8</w> 716
j 4</w> 716
卡 西 716
固 定</w> 716
lo t</w> 716
su gar</w> 716
a5 9</w> 716
a 8</w> 715
3 .5</w> 715
基 尼</w> 715
拉 拉</w> 715
bo s 715
gun dam</w> 715
u p 714
清 仓</w> 714
fir st</w> 714
purpo se</w> 714
m bo 713
9 h</w> 713
东 京</w> 713
strip ed</w> 713
p ull</w> 712
杂 货 712
ac ry 712
de cor 712
1. 5 712
her o</w> 712
m us 711
海 洋</w> 711
中 性</w> 710
ord in 710
2 i</w> 709
al l 708
hal f</w> 708
3 pcs</w> 707
日 常</w> 707
徽 章</w> 707
精 选</w> 707
re lla</w> 707
har d 707
bra ke</w> 707
bed sheet</w> 707
ach e</w> 706
9 6</w> 705
椰 子</w> 705
pp y</w> 705
professi onal</w> 705
w m 704
0 - 704
/ /</w> 704
武 士</w> 704
照 片</w> 704
ex o</w> 704
butter fly</w> 704
e x</w> 703
s 925</w> 703
j 6</w> 703
le x 703
ac er</w> 703
min t</w> 703
aqu a</w> 703
卡西 欧</w> 703
s er</w> 702
as e</w> 702
at s</w> 702
ur ban</w> 702
(全 新)</w> 702
co ld</w> 701
100 g</w> 701
吸 顶灯</w> 700
at ion 700
par is</w> 700
500 g</w> 700
acry lic</w> 700
分 装</w> 699
后 背</w> 699
ki e</w> 699
glutat hione</w> 699
七龙 珠</w> 699
8 / 698
s ling 698
ht c</w> 698
ho ney</w> 697
wi ld</w> 697
war s</w> 697
( 二手)</w> 696
f ami 696
lar e</w> 696
500 ml</w> 696
contro l</w> 695
1 pc</w> 694
优 惠 694
ta g</w> 694
2 .5</w> 693
台 北</w> 693
渔 夫</w> 693
in ter 693
? ? 692
嘻 哈</w> 692
we dding</w> 692
( 现货</w> 691
手 动</w> 691
ang le</w> 691
lux xe</w> 691
家 居 690
pe sos</w> 690
tomi ca</w> 690
好 )</w> 689
柠 檬</w> 689
le mon</w> 689
ro se 689
cal vin</w> 689
ason ic</w> 689
m am 688
购 入</w> 688
安 装</w> 688
po ny</w> 688
pl at 688
7 2</w> 687
墙 壁</w> 687
champi on</w> 687
bvl gari</w> 687
i p 686
天 使</w> 686
帽 t</w> 686
tr ans 686
ang el</w> 686
cut ter</w> 686
o h</w> 685
保 养</w> 685
de o</w> 685
12 v</w> 685
inf ant</w> 685
s i</w> 684
f lu 684
c ed</w> 684
香 氛</w> 684
百 货 684
涂 鸦</w> 684
男 性</w> 683
hy dr 683
tran spa 683
p an</w> 682
电 影</w> 682
6 1</w> 681
棒 球</w> 681
公 文 681
an y</w> 681
se eds</w> 681
手提 袋</w> 681
g ear</w> 680
n on</w> 680
雪 花</w> 680
三 角 680
印 章</w> 680
震 动</w> 680
帅 气</w> 680
li d</w> 680
al lo 679
who le 678
l ac 677
写 字</w> 677
en s</w> 677
ri ce</w> 677
un k</w> 677
针织 衫</w> 677
s 9</w> 676
螺 丝</w> 676
交 换</w> 676
ati ve</w> 676
比 基尼</w> 675
开 发</w> 675
森 林</w> 675
墙 面</w> 675
le novo</w> 675
min nie</w> 675
ter n</w> 675
ru ff 675
p airs</w> 674
良 好)</w> 674
se at</w> 674
sho p 674
gu lar</w> 674
remo ver</w> 674
洗发 精</w> 674
bi t</w> 673
car a</w> 673
ny lon</w> 673
transpa rent</w> 673
a k</w> 672
剪 刀</w> 672
ch et</w> 672
设计 师</w> 672
沥 水</w> 671
床 垫</w> 671
橡 胶</w> 671
it ems</w> 671
flo w 671
cosme tics</w> 671
美 妆</w> 670
名 媛</w> 670
墙 上</w> 670
simp le</w> 670
5 / 669
新 生儿</w> 669
冷 气</w> 669
标 准</w> 669
mo del</w> 669
史 努 668
le e</w> 668
( 良好)</w> 667
t an</w> 667
指 甲 667
包 装 667
圣 节</w> 667
携 带</w> 667
8 gb</w> 666
ti n</w> 666
fe male</w> 666
sk i</w> 666
垃圾 桶</w> 666
cell phone</w> 666
e u 665
a ero 665
9 2</w> 665
三 件</w> 665
规 则</w> 665
su e 665
旅行 包</w> 665
graphi c</w> 665
t ty</w> 664
乳 液</w> 664
田 园</w> 664
秋 装</w> 664
kin a</w> 664
s car 663
耳 针</w> 663
优 选</w> 663
游 泳</w> 663
万 圣节</w> 663
ne d</w> 663
10 8</w> 663
de ep</w> 663
sea led</w> 663
史努 比</w> 663
4 in1</w> 662
衣 橱</w> 662
l i</w> 661
丽 鸥</w> 661
vin yl</w> 661
gri p</w> 661
rain bow</w> 661
公文 包</w> 661
s mi 660
高 跟</w> 660
bas e 660
rep lica</w> 660
h - 659
b f</w> 659
ma lone</w> 659
10 00 659
手 袋</w> 658
机 能</w> 658
名 牌</w> 658
劳 力士</w> 658
fit s</w> 658
auto matic</w> 658
主 机</w> 657
低 筒</w> 657
st it 657
ba len 657
ex tra</w> 657
str ai 657
off shoulder</w> 657
单 车</w> 656
店 铺</w> 656
吸 水</w> 656
si ble</w> 656
-3 xl</w> 656
品 )</w> 655
鸭 舌 655
茶 杯</w> 655
摆 饰</w> 655
10 ml</w> 655
clu tch</w> 655
o v 654
c us</w> 654
果 冻</w> 654
car dig 654
sc o</w> 654
clean er</w> 654
牛 奶</w> 653
mi t</w> 653
bi es</w> 653
老 人</w> 651
高 尔 651
磁 铁</w> 651
怪 兽</w> 651
bu cks</w> 651
wa ve</w> 651
鸭舌 帽</w> 651
小 童</w> 650
b ath 650
加 长</w> 650
液 晶</w> 650
ri o</w> 650
ath ering</w> 650
8 . 649
y 71</w> 649
发 带</w> 649
滋 润</w> 649
垫 子</w> 649
bo k</w> 649
16 gb</w> 649
ja co 649
micro phone</w> 649
v 11 648
大 气</w> 648
毛 孔</w> 648
ste reo</w> 648
too ls</w> 648
rac ing</w> 648
r and 647
家 家</w> 647
背 景 647
二 代</w> 647
人 床</w> 647
a 字</w> 646
7 8</w> 646
le bro 646
sil k</w> 646
stu ff 646
g / 645
网 布</w> 645
预 购)</w> 645
降 价</w> 645
gra de</w> 645
h air 644
破 洞</w> 644
洗 手 644
罗 马</w> 644
玫 瑰 644
ion al</w> 644
小 姐</w> 643
中 文</w> 643
奶 瓶</w> 643
pre s 643
防 护</w> 642
pa int</w> 642
背景 墙</w> 642
c ab 641
工 具 641
亮 片</w> 641
澳 洲</w> 641
re e</w> 641
lo r</w> 641
to n 641
car ter</w> 641
im por 641
drag on</w> 641
e va</w> 640
床 单</w> 640
挂 钟</w> 640
ch y</w> 640
roy al</w> 640
a o</w> 639
时 钟</w> 639
纪 念</w> 639
li ke</w> 639
man go</w> 639
ligh ts</w> 639
mari kina</w> 639
8 00 638
o me 638
黑 红</w> 638
可 调</w> 638
mi ss</w> 638
220 v</w> 638
1 kg</w> 637
粉 饼</w> 637
po t</w> 637
sc ent</w> 637
long sleeves</w> 637
g athering</w> 636
5 9 636
青 春</w> 636
第 二</w> 636
onesi e</w> 636
1 30 635
f 11</w> 635
小 巧</w> 635
te red</w> 635
r ash 634
衣 着</w> 634
聊 聊</w> 634
fi e</w> 634
t le 633
g le</w> 633
p ly</w> 633
小 时</w> 633
ra di 633
mo re</w> 633
mar o 633
ky rie</w> 633
e li 632
t ar 632
制 服</w> 632
香 精</w> 632
plu sh</w> 632
钥匙 扣</w> 632
read y</w> 632
背 景</w> 631
巴 克</w> 631
g la 630
s 10</w> 630
防 弹</w> 630
摆 设</w> 630
balen cia 630
1 40 629
c lin 629
蜡 烛</w> 629
运 )</w> 629
维 尼</w> 629
战 士</w> 629
a 50</w> 628
r ai 628
o g</w> 628
n al</w> 628
钢 圈</w> 628
遮阳 帽</w> 628
丝 绒</w> 627
mu g</w> 627
( 含</w> 626
女 款</w> 626
花 园</w> 626
台 中</w> 626
st an</w> 626
legen ds</w> 626
简 单</w> 625
mi d</w> 625
fold ing</w> 625
- c</w> 624
s l 624
星 空</w> 624
出 版</w> 624
专 辑</w> 624
欢 迎</w> 624
mo on</w> 624
sn ail</w> 624
elec tro 624
ree bok</w> 624
d w</w> 623
f ai 623
st and 623
sp ring</w> 623
lebro n</w> 623
询 问</w> 622
as s</w> 622
mo tor</w> 622
ki a</w> 622
safe ty</w> 622
fami ly</w> 622
l t</w> 620
z o</w> 620
po re</w> 620
mo ney</w> 620
ut er</w> 620
pe ach</w> 620
real me</w> 620
sue de</w> 620
男 用</w> 619
in k 619
ac id</w> 619
sun glasses</w> 619
mas ter</w> 619
a x 617
p o</w> 617
子 女</w> 617
民 族</w> 617
te en</w> 617
star bucks</w> 617
whole sale</w> 617
( 可</w> 616
c am</w> 616
z ero</w> 616
版 百</w> 616
ch er</w> 616
羽 绒</w> 615
to u 615
e q 614
音 箱</w> 614
sling bag</w> 614
罩 衫</w> 613
附 发</w> 613
邮 差</w> 613
ci r 613
ga - 613
保温 杯</w> 613
衣 帽 612
门 帘</w> 612
零 件</w> 612
sp a</w> 612
hea vy</w> 612
va len 612
a 1</w> 611
鳄 鱼</w> 611
首 饰</w> 611
k ing 610
ko j 610
moisturi zing</w> 610
a re 609
t it 609
be st 609
cle an</w> 609
5. 0</w> 609
( 2</w> 608
4 3 608
t ap 608
k ne 608
拆 封</w> 608
an de 608
go o 608
cro chet</w> 608
2020 年</w> 608
impor ted</w> 608
r 1</w> 607
机 器 607
婴 幼儿</w> 607
卸 妆</w> 607
so lar</w> 607
dre sses</w> 607
dd ed</w> 607
glit ter</w> 607
s ko 606
总 动 606
to o</w> 606
vi o 606
op y</w> 606
6 9 605
o ot 605
c l 605
指 甲</w> 605
ki es</w> 605
ea t</w> 605
ut h</w> 605
gucc i 605
fun ction</w> 605
cross body</w> 605
h dmi</w> 604
bar bie</w> 604
pas te</w> 604
机器 人</w> 604
c g</w> 603
mo ss</w> 603
check ered</w> 603
总动 员</w> 603
蛋 白</w> 602
siz e 602
lov e 602
loo se</w> 602
me tal 601
wa ys</w> 601
sn ap 601
幸 福</w> 600
遮 光</w> 600
挂 式</w> 600
min um</w> 600
mu sic</w> 600
hang ing</w> 600
color ful</w> 600
t ut 599
太 空</w> 599
ac le</w> 599
bla de</w> 599
0 9 598
星 巴克</w> 598
抽 屉 598
in -1</w> 598
new born</w> 598
屁 衣</w> 597
re ar</w> 597
hi l 597
ap y</w> 597
sh ape</w> 597
mas cara</w> 597
m 6 596
2 / 596
p la 596
n inten 596
co al</w> 596
el ite</w> 596
balencia ga</w> 596
g ab 595
日 历</w> 595
纹 身</w> 595
底 座</w> 595
付 款</w> 595
dr ink</w> 595
角 色</w> 594
维 修</w> 594
slee p 594
as i 593
cm )</w> 593
v11 i</w> 593
m al 592
可 以</w> 592
sh ell</w> 592
gh ten 592
car bon</w> 592
pand a</w> 592
pub lic</w> 592
cardig an</w> 592
1 60 591
小 店</w> 591
al co 591
boo ts</w> 591
ag ing</w> 591
plan ner</w> 591
embroi dered</w> 591
koj ic</w> 591
ninten do</w> 591
( 全新</w> 590
s ci 590
雨 衣</w> 590
茶 壶</w> 590
珠 宝</w> 590
信 封</w> 589
co un 589
high waist</w> 589
e ach</w> 588
g s 588
板 车</w> 588
thi ck</w> 588
alu minum</w> 588
抽屉 式</w> 588
1 70 587
壁 灯</w> 587
lux e</w> 587
nur sing</w> 587
5 a</w> 586
果 汁</w> 586
偏 光</w> 585
荷 叶</w> 585
帐 篷</w> 585
el le</w> 585
bang le</w> 585
qui ck</w> 585
jan sport</w> 585
球 衣</w> 584
修 复</w> 584
in i</w> 584
maro on</w> 584
8 7</w> 583
吉 他</w> 583
电 子 583
诱 惑</w> 583
sili con</w> 583
d ea 582
r x</w> 582
水 龙头</w> 582
护 理</w> 582
to p 582
com for 582
t t</w> 581
v i</w> 581
may bel 581
2 50 580
风 机</w> 580
人 鱼</w> 580
功 率</w> 580
pan asonic</w> 580
tur ban</w> 580
dai ly</w> 580
7 7</w> 579
t ter</w> 579
杂 志</w> 579
st a</w> 579
hel met</w> 579
ky lie</w> 579
pul lo 579
a ya</w> 578
毛 线</w> 578
床 边</w> 578
翡 翠</w> 578
ro o 578
200 0</w> 578
h am 577
c in 577
挂 衣</w> 577
尘 器</w> 577
jo y</w> 577
thi n</w> 577
m b</w> 576
b i</w> 576
专 卖 576
lov es</w> 576
1. 8</w> 576
zi p</w> 576
rand om</w> 576
f ur 575
清 洁 575
身 衣</w> 575
服 装 575
re public</w> 575
di splay</w> 575
zz le</w> 575
头 饰</w> 574
pa d 574
pa in 574
op en</w> 574
jaco bs</w> 574
4 9</w> 573
v ari 573
毛 呢</w> 573
me li 573
el la</w> 573
f lare</w> 572
高 领</w> 572
in ner</w> 572
so le</w> 572
sp en 572
ak i</w> 572
flas h 572
xs max</w> 572
wm ns</w> 572
c ts</w> 571
x per 571
b n 571
奶 油</w> 571
功 夫</w> 571
世 家</w> 571
吸 盘</w> 571
re l</w> 571
er y</w> 571
bas ed</w> 571
d uty</w> 570
m 号</w> 570
4 7</w> 570
拍 摄</w> 570
专 区</w> 570
ar ache</w> 570
shi p</w> 570
sto re</w> 570
lux ury</w> 570
g ga 569
5 30</w> 569
包 )</w> 569
香 风</w> 569
抗 菌</w> 569
lo w 569
gh ter</w> 569
6 2</w> 568
jo h 568
clas sy</w> 568
dis k</w> 568
bre ath 568
cosme tic</w> 568
婚 纱</w> 567
浴 巾</w> 567
no w</w> 567
0 7</w> 566
s b</w> 566
u mb 566
隔 离</w> 566
随 机</w> 566
st o</w> 566
mar k</w> 566
prin ts</w> 566
lan e 566
e ver 565
g )</w> 565
c ac 565
直 送</w> 565
微 波 565
凝 胶</w> 565
sho wer</w> 565
spo on</w> 565
light ning</w> 565
8 9 564
n ut 564
精 美</w> 564
躺 椅</w> 564
con ce 564
gol den</w> 564
j ust</w> 563
v al 563
纪 念 563
for m</w> 563
el lo</w> 562
gh et 562
sli pper</w> 562
y9 1</w> 562
chro me</w> 562
双 g</w> 561
bo y 561
装 )</w> 560
调 节</w> 560
花 束</w> 560
方 便</w> 560
碳 纤维</w> 560
麋 鹿</w> 560
cer amic</w> 560
s u</w> 559
n i</w> 559
b v</w> 559
旗 舰 559
po lish</w> 559
sli mming</w> 559
咖啡 厅</w> 559
ane se</w> 559
服装 店</w> 559
微波 炉</w> 559
a & 558
bo wl</w> 558
离 子</w> 557
lu min 557
1. 2</w> 557
sno opy</w> 557
bm w</w> 557
oot d</w> 557
打 底 556
ro ll</w> 556
sp ace</w> 556
00 3</w> 556
pre ne</w> 556
spa ghet 556
y 81</w> 555
电 动 555
开 衫</w> 555
最 爱</w> 555
次 性</w> 555
po st 555
t t 554
度 假</w> 554
se a</w> 554
con t 554
胶 囊</w> 552
牛 津</w> 552
排 汗</w> 552
萤 光</w> 552
su b 552
br acket</w> 552
32 gb</w> 552
专卖 店</w> 552
m aid</w> 551
f au 551
聚 拢</w> 551
午 睡</w> 551
201 9 551
go wn</w> 551
sn ap</w> 551
frien ds</w> 551
stit ch</w> 551
p es</w> 550
适 合</w> 550
打底 衫</w> 550
j en 549
镜 面</w> 549
实 体</w> 549
ma ong</w> 549
hu arache</w> 549
f 1</w> 548
金 刚</w> 548
文 胸</w> 548
眼 睛</w> 548
cro cs</w> 548
jap anese</w> 548
( 黑 547
j 1</w> 547
电 镀</w> 547
stre et</w> 547
8 2</w> 546
7 9 546
20 ml</w> 546
ml )</w> 546
neo prene</w> 546
d ani 545
s war 545
皮 质</w> 545
耳 饰</w> 545
公 斤</w> 545
hel lo 545
a q 544
面 交</w> 544
一 次性</w> 544
资 料</w> 544
sh ing</w> 544
bl an 544
v es</w> 543
被 套</w> 543
新 年</w> 543
me mo 543
ta y 543
free size</w> 543
5 2</w> 542
o i 542
y i</w> 542
联 盟</w> 542
米 花</w> 542
平 安</w> 542
spaghet ti</w> 542
d as 541
g n 541
p li 541
松 糕</w> 541
克 杯</w> 541
奶 茶</w> 541
原 版</w> 541
吸 尘器</w> 541
靠 枕</w> 541
bag pack</w> 541
a 30</w> 540
i co 540
婴 儿 540
si m</w> 540
te e 540
sh ap 540
car s</w> 540
we st</w> 540
remo te</w> 540
maybel line</w> 540
花 边</w> 539
身 体</w> 539
饮 料</w> 539
休 闲 539
手 推车</w> 538
wh y</w> 538
pi g</w> 538
cro ptop</w> 538
tut u</w> 538
! !</w> 537
写 真</w> 537
ani me</w> 537
e h 536
平 衡</w> 536
乡 村</w> 536
of f- 536
mag net</w> 536
花 卉</w> 535
in o 535
swar ov 535
r - 534
u se 534
ro moss</w> 534
so o 534
fi sh</w> 534
12 - 534
90 0</w> 534
cap s</w> 534
c b 533
ki ss</w> 533
xper ia</w> 533
5 pcs</w> 532
en g</w> 532
ch air</w> 532
vi s</w> 532
wa x</w> 532
t ure</w> 531
al er</w> 531
花 架</w> 530
被 子</w> 530
爆 米花</w> 530
蜜 蜂</w> 530
pre ss</w> 530
colle cti 530
s f</w> 529
防 潮</w> 529
男 鞋</w> 529
气 球</w> 529
泡 沫</w> 529
遥 控 529
re ad</w> 529
ac ne</w> 529
ro lex</w> 529
te c</w> 529
b ble</w> 528
艺 品</w> 528
钟 表</w> 528
wor k</w> 528
旗舰 店</w> 528
e gg</w> 527
5 1</w> 527
自 由</w> 527
明 信 527
洗 漱</w> 527
冠 军</w> 527
sh e</w> 527
g ne</w> 526
ti es</w> 526
bat man</w> 526
sa int</w> 526
v ape</w> 525
c it 525
盆 栽</w> 525
ti re</w> 525
电动 车</w> 525
露 背</w> 524
乐 园</w> 524
偶 像</w> 524
bl ank 524
twi ce</w> 524
bt 21</w> 524
m ing</w> 523
女 用</w> 523
in - 523
ar ti 523
pat tern</w> 523
mir acle</w> 523
5 4 522
i r 522
瑞 士</w> 522
压 花</w> 522
char coal</w> 522
g an</w> 521
x a</w> 521
春 装</w> 521
ch lo 521
tre at 521
let ter</w> 521
blank et</w> 521
2 99</w> 520
野 餐</w> 520
桌 布</w> 520
壁 画</w> 520
ri er</w> 520
15 ml</w> 520
y6 9</w> 520
umb rella</w> 520
手 工 519
y 9</w> 519
sk y</w> 519
dr . 519
she ets</w> 519
lane ige</w> 519
明信 片</w> 519
l t 518
me d</w> 518
mi n</w> 518
so ck</w> 518
pap er 518
infin ity</w> 518
t ami 517
g d</w> 517
大 利</w> 517
pp er 517
pi o</w> 517
gr and</w> 517
dra w 517
eas y</w> 517
g loves</w> 516
v 15</w> 516
型 号:</w> 516
缅 甸</w> 516
an ello</w> 516
siz es</w> 516
cle ar 516
bas e</w> 516
1 30</w> 515
打 火 515
prote ctive</w> 515
cloth ing</w> 515
0 4</w> 514
v ed</w> 514
fo cus</w> 514
a3 9</w> 514
vit a</w> 514
whe els</w> 514
swarov ski</w> 514
m -3xl</w> 513
用 )</w> 513
黑 灰</w> 513
一 个</w> 513
表 盘</w> 513
at es</w> 513
li es</w> 513
ti er</w> 513
ste m</w> 513
200 ml</w> 513
a5 s</w> 513
客 订</w> 512
脚 架</w> 512
铆 钉</w> 512
vi sor</w> 512
mis sha</w> 512
eq t</w> 512
sleep wear</w> 512
cont act</w> 512
4 k</w> 511
s 3</w> 511
奶 嘴</w> 511
10 2</w> 511
bea ds</w> 511
fac tory</w> 511
8 6</w> 510
qu art 510
ank le</w> 510
s co 509
空 运</w> 509
te x</w> 509
be e</w> 509
char ge</w> 509
pe el 508
jo y 508
cti onal</w> 508
v s</w> 507
三 合一</w> 507
桌 上</w> 507
口 味</w> 507
sk y 507
fla v 507
vio let</w> 507
补 充</w> 506
银 针</w> 506
us er</w> 506
plu g</w> 506
vi a</w> 506
mat e 506
av ent</w> 506
repl ace 506
treat ment</w> 506
h i</w> 505
料 理</w> 505
女 式</w> 505
aut o</w> 505
a 9</w> 504
s p</w> 504
p ac 504
k at 504
天 堂</w> 504
in ing</w> 504
un o</w> 504
su l 504
cro wn</w> 504
spe e 504
r ain</w> 503
k t</w> 503
马 甲</w> 503
灯 饰</w> 503
轻 薄</w> 503
phi lips</w> 503
onesi es</w> 503
j 8</w> 502
c f</w> 502
特 别</w> 502
赛 车</w> 502
忍 者</w> 502
cand le</w> 502
sneak er</w> 502
按摩 器</w> 502
souveni r</w> 502
古 典</w> 501
包 头</w> 501
夹 子</w> 501
白 金</w> 501
to my</w> 501
mon t</w> 501
band ai</w> 501
metal lic</w> 501
r h 500
9 1</w> 500
c la 500
装 备</w> 500
x i</w> 500
皮 卡 500
大 师</w> 500
记 忆</w> 500
ho od</w> 500
gu e</w> 500
sig nature</w> 500
sand al</w> 500
quart z</w> 500
e f 499
a 10</w> 499
l b 499
脚 踏 499
综 合</w> 499
ba king</w> 499
win dow</w> 499
化妆 台</w> 499
stuff ed</w> 499
打火 机</w> 499
ti ger</w> 498
10 - 498
wo ven</w> 498
mit su 498
n d</w> 497
风 水</w> 497
大 门</w> 497
木 制</w> 497
证 件</w> 497
旗 袍</w> 497
er e</w> 497
ki d 497
be ige</w> 497
moi st 497
allo y</w> 497
s 1</w> 496
p 30</w> 496
美 丽</w> 496
lo ck 496
ba mbo 496
min e</w> 496
mon ster</w> 496
bri lli 496
v- neck</w> 496
裤 裙</w> 495
出 售</w> 495
li pp 495
ja de</w> 495
rep air</w> 495
ameri can</w> 495
rash guard</w> 495
b ear 494
ul tra 494
du o</w> 494
7 3</w> 493
f um</w> 493
u . 493
女 表</w> 493
花 盆</w> 493
屏 风</w> 493
酵 素</w> 493
as t 493
38 -44</w> 493
moun t</w> 493
fai ry</w> 493
bambo o</w> 493
a e 492
工 装</w> 492
显 示 492
ho w</w> 492
gu n</w> 492
ga mes</w> 492
spi der 492
ve st</w> 492
pat ch</w> 492
pc s.</w> 492
replace ment</w> 492
t un 491
杀 价</w> 491
车 贴</w> 491
高 雄</w> 491
d h 490
a 3</w> 490
s ke 490
p k</w> 490
日 货</w> 490
室 外</w> 490
tab let</w> 490
kne e</w> 490
tami ya</w> 490
a . 489
p ush</w> 489
小 屋</w> 489
樱 桃</w> 489
bel l</w> 489
m me</w> 488
k ap 488
y ear</w> 488
温 泉</w> 488
ho l</w> 488
so cket</w> 488
ff y</w> 488
dv d 488
face mask</w> 488
6 7</w> 487
o k</w> 487
am o 487
11 pro</w> 487
咖啡 色</w> 487
0 5</w> 486
a v</w> 486
g th</w> 486
清 洗</w> 486
an alo 486
mo ther</w> 486
978 98 486
6 9</w> 485
7 6</w> 485
5 3</w> 485
毛 毛</w> 485
庭 院</w> 485
ap pro 485
blo sso 485
mer maid</w> 485
type -c</w> 485
breath able</w> 485
d an 484
4 50</w> 484
s 号</w> 484
5 4</w> 484
c p</w> 484
脚 踏</w> 484
ra m</w> 484
te ens</w> 484
ear phones</w> 484
ta k 484
gh t 483
cor te 483
bal l 483
but ter</w> 483
dro p</w> 483
mono gram</w> 483
4 / 482
n c</w> 482
大 象</w> 482
饲 料</w> 482
新 货</w> 482
an ne</w> 482
to ur</w> 482
nu de</w> 482
8 9</w> 481
al a</w> 481
mo squ 481
swe at 481
衣帽 架</w> 481
c p 480
十 字</w> 480
签 名</w> 480
par fum</w> 480
ans i</w> 480
t m 479
n er 479
食 物</w> 479
re gular</w> 479
vi e 479
75 ml</w> 479
jump short</w> 479
lam in 479
spon ge</w> 479
家居 服</w> 479
皮卡 丘</w> 479
图 腾</w> 478
压 纹</w> 478
se ts</w> 478
ed t</w> 478
whe el</w> 478
f b</w> 477
杂 物</w> 477
se ed</w> 477
el f</w> 477
sat in</w> 477
d ry 476
a 0 476
3 50 476
t us</w> 476
s 5</w> 476
传 输 476
po ol</w> 476
10 5</w> 476
stra w 476
cer ity</w> 476
2 36 475
k ong</w> 475
丽 丝</w> 475
价 格</w> 475
原 木</w> 475
desig ns</w> 475
t am 474
卡 位</w> 474
+ + 474
so lid</w> 474
ab i 474
gu it 474
col lar</w> 474
out let</w> 474
base ball</w> 474
analo g</w> 474
潜 水</w> 473
ni a</w> 473
bri ef</w> 473
磁 性</w> 472
毕 业</w> 472
lin er</w> 472
d le</w> 471
x 2</w> 471
布 料</w> 471
高 脚</w> 471
挂 架</w> 471
bi shi</w> 471
wi de</w> 471
ds n</w> 471
lun ch</w> 471
d able</w> 470
高 温</w> 470
市 多</w> 470
di a</w> 470
pl ant</w> 470
( 预购)</w> 469
布 包</w> 469
水 保</w> 469
消 毒</w> 469
ni ke 469
av eng 469
fun ctional</w> 469
水 机</w> 468
体 恤</w> 468
串 珠</w> 468
ni ce</w> 468
da ys</w> 468
a5 7</w> 468
pas tel</w> 468
j ack</w> 467
老 虎</w> 467
荷 叶 467
养 生</w> 467
管 理</w> 467
ad a</w> 467
fe ed 467
100 pcs</w> 467
ico nic</w> 467
g al 466
# 爆 466
机 器</w> 466
面 乳</w> 466
拆 洗</w> 466
气 垫 466
me i 466
no kia</w> 466
corte z</w> 466
d dr 465
7 00 465
f ar 465
自 慰</w> 465
有 线</w> 465
午 休</w> 465
da u 465
pp e</w> 465
24 k</w> 465
荷叶 边</w> 465
点 心</w> 464
十 字 464
ch i</w> 464
te ch 464
.. ..</w> 464
phi n</w> 464
mosqu ito</w> 464
e p 463
m d 463
好 市多</w> 463
波 浪</w> 463
免 运</w> 463
任 选</w> 463
转 接</w> 463
to e</w> 463
mar y</w> 463
bu i 463
spo r 463
fan tas 463
alco hol</w> 463
传输 线</w> 463
f ine</w> 462
clu b</w> 462
sno w</w> 462
aveng ers</w> 462
r an 461
s coo 461
o x 461
面 料</w> 461
士 顿</w> 461
组 )</w> 461
接 头</w> 461
酒 柜</w> 461
扮 演</w> 461
f c</w> 460
f al 460
指 环</w> 460
电 线</w> 460
灯 泡</w> 460
把 手</w> 460
car rier</w> 460
stu dio</w> 460
gar den</w> 460
化妆 水</w> 460
tsu m</w> 460
f y</w> 459
快 乐</w> 459
树 脂</w> 459
di c 459
we e 459
120 ml</w> 459
- 5 458
头 盔</w> 458
内 里</w> 458
so lution</w> 458
cas h</w> 458
50 pcs</w> 458
pri vac 458
gen t</w> 458
mt g</w> 458
hello kitty</w> 458
t les</w> 457
k pop</w> 457
书 籍</w> 457
透 视</w> 457
烧 烤</w> 457
co ver 457
car tri 457
pa dded</w> 457
pu zzle</w> 457
黏 土</w> 456
蚊 帐</w> 456
fo ot 456
ro ck</w> 456
me l</w> 456
36 -44</w> 456
pu ff</w> 456
glo ssy</w> 456
won der</w> 456
w et</w> 455
a 9 455
r are</w> 455
y e 455
连 身衣</w> 455
发 票</w> 455
st ation</w> 455
lu gga 455
fi ger</w> 455
g i</w> 454
p ling</w> 454
有 机</w> 454
托 盘</w> 454
双 头</w> 454
骷 髅</w> 454
静 电</w> 454
睡 眠</w> 454
201 8 454
pi c</w> 454
hu b</w> 454
tri ple</w> 454
draw string</w> 454
1 50ml</w> 453
滑 板车</w> 453
pre sto</w> 453
ter i 453
meli ssa</w> 453
mitsu bishi</w> 453
u n</w> 452
调 料</w> 452
女 友</w> 452
ba ba</w> 452
win ter</w> 452
feed ing</w> 452
a 20</w> 451
g b 451
se am 451
bo t</w> 451
pe t 451
hil figer</w> 451
privac y</w> 451
花 花</w> 450
加 热</w> 450
发 箍</w> 450
国 风</w> 450
豪 华</w> 450
an e</w> 450
yo ung</w> 450
件 式</w> 449
幸 运</w> 449
浮 雕</w> 449
壁 挂式</w> 449
sal t</w> 449
lugga ge</w> 449
k on</w> 448
i ke 448
\ ""</w> 448
di spen 448
ap pa 448
pro je 448
64 g</w> 448
气垫 鞋</w> 448
表 演</w> 447
sli t</w> 447
64 gb</w> 447
p 9</w> 446
保 留</w> 446
冰 雪</w> 446
ti ff 446
14 4</w> 446
bas ket</w> 446
fle x</w> 446
a& f</w> 446
j et</w> 445
5 8</w> 445
b are</w> 445
车 内</w> 445
se ven 445
do m</w> 445
sto ry</w> 445
her o 445
wash i</w> 445
straw berry</w> 445
e ffe 444
1 l</w> 444
s 4</w> 444
盘 格</w> 444
丝 巾</w> 444
丝 袜</w> 444
围 裙</w> 444
li ving</w> 444
ni ss 444
ry x</w> 444
太阳 能</w> 444
深 蓝色</w> 443
v ea 443
外 贸</w> 443
b d 443
水 管</w> 443
水 槽</w> 443
平 角</w> 443
棋 盘格</w> 443
me ters</w> 443
a3 3</w> 443
smo o 443
9 3</w> 442
纸 盒</w> 442
牙 膏</w> 442
耐 用</w> 442
当 天</w> 442
in clu 442
ho t 442
mon o</w> 442
va por 442
ph p</w> 442
玫瑰 花</w> 442
v ani 441
sp f</w> 441
her bal</w> 441
skin cerity</w> 441
ballo ons</w> 441
男 孩</w> 440
ne l</w> 440
bu cket</w> 440
19 0 440
ga s</w> 440
l le</w> 439
y u</w> 439
防 水 439
a 70</w> 438
5 6</w> 438
y ar 438
蛋 黄</w> 438
学 步</w> 438
茶 桌</w> 438
滑 鼠</w> 438
in ci 438
ben z</w> 438
acti ve</w> 438
stand ard</w> 438
p m</w> 437
雨 鞋</w> 437
玩 具 437
同 步</w> 437
en d</w> 437
16 0</w> 437
mac book</w> 437
沙发 床</w> 437
guit ar</w> 437
d dy</w> 436
d ers</w> 436
6 50</w> 436
b un 436
爱 丽丝</w> 436
烤 箱</w> 436
电 风扇</w> 436
香 薰</w> 436
短 袜</w> 436
人 气</w> 436
练 习</w> 436
con ta 436
hea t</w> 436
ve lo 436
ps 3</w> 436
tay lor</w> 436
2 )</w> 435
4 1 435
4 pcs</w> 435
g /</w> 435
f m</w> 435
l . 435
开 叉</w> 435
橱 柜</w> 435
足 球</w> 435
缓 震</w> 435
mp 3</w> 435
ali baba</w> 435
bri ght</w> 435
dol phin</w> 435
e sp 434
m . 434
镜 片</w> 434
大 人</w> 434
ch e</w> 434
el y</w> 434
inst ant</w> 434
dispen ser</w> 434
天 天</w> 433
地 板</w> 433
mo to 433
ki pling</w> 433
wei ght</w> 433
deli very</w> 433
moist ure</w> 433
s r 432
n max</w> 432
生 堂</w> 432
硬 壳</w> 432
升 级</w> 432
插 座</w> 432
悟 空</w> 432
ni es</w> 432
ck er</w> 432
gi t</w> 432
but to 432
glo ss</w> 432
pullo ver</w> 432
soo thing</w> 432
inci pio</w> 432
最 后</w> 431
入 门</w> 431
变 色</w> 431
战 靴</w> 431
筷 子</w> 431
蔬 菜</w> 431
le g</w> 431
sp ande 431
18 - 431
hand made</w> 431
ther apy</w> 431
cartri dge</w> 431
头 套</w> 430
古 风</w> 430
定 做</w> 430
配 方</w> 430
po ster</w> 430
pre tty</w> 430
ori g</w> 430
hol li 430
sof t 430
指甲 油</w> 430
niss an</w> 430
a g</w> 429
9 6 429
吃 饭</w> 429
颗 粒</w> 429
am y</w> 429
sa le 429
op ti 429
capsu le</w> 429
5 3 428
k h 428
美 人鱼</w> 428
园 艺</w> 428
赫 拉</w> 428
10 . 428
gi vea 428
保 险 427
\ n 427
门 厅</w> 427
壁 纸</w> 427
资 生堂</w> 427
bo ho</w> 427
fi ll</w> 427
d al</w> 426
红 酒</w> 426
公 事 426
闺 蜜</w> 426
锁 骨</w> 426
am ing</w> 426
10 k</w> 426
ul ti 426
wash ing</w> 426
real me 426
spar k 426
blosso m</w> 426
spande x</w> 426
9 4</w> 425
n ai 425
香 皂</w> 425
or e</w> 425
stu ff</w> 425
tra y</w> 425
tat tered</w> 425
ike a</w> 425
( 已</w> 424
清 爽</w> 424
配 饰</w> 424
薄 荷</w> 424
议 价</w> 424
re li 424
it em</w> 424
valen tin 424
appa rel</w> 424
1 -3 423
j u</w> 423
o ver</w> 423
o pen 423
基 础</w> 423
脸 盆</w> 423
绣 花</w> 423
奇 缘</w> 423
ti s</w> 423
la b</w> 423
00 4</w> 423
av e 423
lit er</w> 423
vo lu 423
t es</w> 422
p au 422
c ent</w> 422
匡 威</w> 422
an as</w> 422
at in</w> 422
po ly 422
el as 422
bu lar</w> 422
-4 6</w> 422
bul b</w> 422
公事 包</w> 422
i mp 421
棉 衣</w> 421
ra y 421
tu bular</w> 421
glu e</w> 421
memo ry</w> 421
d el 420
t wo 420
h un 420
j as 420
购 证</w> 420
近 视</w> 420
in t 420
it a</w> 420
en er 420
mi di</w> 420
au dio</w> 420
sa k 420
杂货 铺</w> 420
spee dy</w> 420
5 9</w> 419
k ers</w> 419
f t 419
过 敏</w> 419
早 餐</w> 419
怀 旧</w> 419
do ts</w> 419
laure nt</w> 419
手 柄</w> 418
买 家</w> 418
开 车</w> 418
粉 红色</w> 418
晚 宴</w> 418
转 角</w> 418
故 事</w> 418
mo ly</w> 418
ta b</w> 418
w an</w> 417
过 道</w> 417
润 滑</w> 417
围 栏</w> 417
施 华 417
da y 417
c ling</w> 416
美 容 416
b 0 416
开 口</w> 416
char ms</w> 416
sc ale</w> 416
len t</w> 416
tooth paste</w> 416
wri st 416
s ton</w> 415
l ly</w> 415
黑 金</w> 415
中 号</w> 415
线 条</w> 415
德 玛</w> 415
利 浦</w> 415
ro n 415
de c 415
sti c</w> 415
sel fie</w> 415
vac u 415
seam less</w> 415
h avai 414
j 3</w> 414
机 芯</w> 414
蒂 猫</w> 414
避 震</w> 414
ar my</w> 414
ro she</w> 414
po li 414
10 6</w> 414
pe e</w> 414
14 0</w> 414
chri sti 414
d ust</w> 413
a bo 413
o b 413
n 1</w> 413
花 纹</w> 413
两 件式</w> 413
第 三</w> 413
公 升</w> 413
雕 花</w> 413
and er</w> 413
19 9</w> 413
sty lus</w> 413
stret ch</w> 413
comb o</w> 413
coach 蔻</w> 413
美 女</w> 412
洗 手</w> 412
li on</w> 412
ba bies</w> 412
hoo k</w> 412
ot g</w> 412
s ni 411
p 10</w> 411
一 般</w> 411
棉 裤</w> 411
飞 利浦</w> 411
认 证</w> 411
co con 411
en gin 411
14 k</w> 411
( 一</w> 410
k an 410
电 筒</w> 410
缤 纷</w> 410
re act</w> 410
di e 410
go ld 410
tab lets</w> 410
frien d</w> 410
落地 式</w> 410
f er</w> 409
f inger</w> 409
n t 409
乐 蒂</w> 409
自 己</w> 409
盒 )</w> 409
能 量</w> 409
泼 水</w> 409
ro t 409
la p</w> 409
las er</w> 409
las ting</w> 409
bu bble</w> 409
ja mes</w> 409
玻璃 杯</w> 409
vacu um</w> 409
r d</w> 408
饭 盒</w> 408
橘 色</w> 408
火 锅</w> 408
sta y</w> 408
box er</w> 408
d 2</w> 407
b ears</w> 407
长 条</w> 407
福 袋</w> 407
钢 琴</w> 407
寝 室</w> 407
ho li 407
200 g</w> 407
run ner</w> 407
tas sel</w> 407
魔 鬼</w> 406
过 滤</w> 406
宴 会</w> 406
fi re</w> 406
men ts</w> 406
pap aya</w> 406
af for 406
1 st</w> 405
j a</w> 405
腮 红</w> 405
成 品</w> 405
赠 品</w> 405
star ter</w> 405
smar t 405
j7 pro</w> 405
y . 404
n ity</w> 404
城 市</w> 404
闹 钟</w> 404
瑜 珈</w> 404
la tor</w> 404
vi c</w> 404
pro mo</w> 404
mu st 404
cra ft</w> 404
sou l</w> 404
7 50</w> 403
j bl</w> 403
c q 403
c ing</w> 403
花 瓶</w> 403
二 合一</w> 403
ki ds 403
pp le</w> 403
boo k 403
clear ance</w> 403
cocon ut</w> 403
( 不</w> 402
5 2 402
皇 冠</w> 402
阅 读</w> 402
se as 402
fi gu 402
bi cycle</w> 402
mat ion</w> 402
av es</w> 402
cur ry</w> 402
cke ts</w> 402
( 3</w> 401
油 画</w> 401
靴 子</w> 401
b sco</w> 400
大 牌</w> 400
龙 猫</w> 400
买 一 400
双 耳</w> 400
贴 膜</w> 400
赛 斯</w> 400
st ain</w> 400
ch a</w> 400
clo ck</w> 400
w d</w> 399
i os</w> 399
亚 麻</w> 399
b us 399
桃 红</w> 399
商 店</w> 399
四 件</w> 399
洞 洞</w> 399
re d 399
hi - 399
10 g</w> 399
siz ed</w> 399
yo ga</w> 399
15 5</w> 399
ligh ter</w> 399
买一 送 399
( 1</w> 398
r c</w> 398
极 致</w> 398
z y 398
洛 世 398
plu m</w> 398
gi ven 398
swi mming</w> 398
fla ge</w> 398
comp uter</w> 398
toi lette</w> 398
massa ge</w> 398
b k 397
长 t</w> 397
宜 家</w> 397
dre ss 397
cre ative</w> 397
sti cks</w> 397
a a</w> 396
卫 生</w> 396
空 军</w> 396
全 家</w> 396
孩 子</w> 396
导 航</w> 396
ban ana</w> 396
conce aler</w> 396
1 : 395
u ri 395
海 边</w> 395
b t</w> 395
防 晒 395
订 单</w> 395
代 尔</w> 395
茶 叶</w> 395
首 选</w> 395
ch ers</w> 395
min er 395
cam ou 395
cel ine</w> 395
sy stem</w> 395
gy m</w> 395
施华 洛世 395
8 4 394
6 .5</w> 394
s ai 394
9 00 394
货 到</w> 394
超 长</w> 394
除 臭</w> 394
po p 394
on a</w> 394
mi d 394
cho co</w> 394
flav or</w> 394
e i 393
0 6</w> 393
g eni 393
s ab 393
杯 垫</w> 393
秘 密</w> 393
20 1</w> 393
mo der 393
plu s 393
for mul 393
ex tr 393
女 王</w> 392
文 字</w> 392
舒 缓</w> 392
扶 手</w> 392
影 机</w> 392
do t</w> 392
24 0</w> 392
tri pod</w> 392
lip tint</w> 392
ker atin</w> 392
brilli ant</w> 392
f ul 391
彩 妆</w> 391
时 光</w> 391
雕 刻</w> 391
减 震</w> 391
no r</w> 391
mar mont</w> 391
cc a</w> 391
slee ping</w> 391
tre me</w> 391
cy cling</w> 391
施华洛世 奇</w> 391
8 6 390
y ard</w> 390
玻 尿 390
好 货</w> 390
分 体</w> 390
al l- 390
mi z 390
gi o</w> 390
der m</w> 390
dau ghter</w> 390
vapor max</w> 390
角 质</w> 389
水 瓶</w> 389
汉 服</w> 389
湿 器</w> 389
le af</w> 389
20 cm</w> 389
lu x</w> 389
ma z 389
con ne 389
dis c</w> 389
stra w</w> 389
4. 0</w> 389
produ cts</w> 389
1 m</w> 388
a b</w> 388
7 2 388
t 1</w> 388
y an</w> 388
u m 388
卷 发</w> 388
电 话</w> 388
饭 店</w> 388
汤 匙</w> 388
us able</w> 388
tren d</w> 388
exten sion</w> 388
electro nic</w> 388
havai anas</w> 388
4 x</w> 387
风 行</w> 387
线 器</w> 387
工 艺</w> 387
万 向</w> 387
围 兜</w> 387
豹 纹</w> 387
mo m</w> 387
30 g</w> 387
4 s</w> 386
g m</w> 386
p un 386
j 4 386
卡 龙</w> 386
工 艺品</w> 386
us b 386
su e</w> 386
ny x</w> 386
a 10 385
魅 力</w> 385
广 告</w> 385
eri e</w> 385
cap tain</w> 385
玻尿 酸</w> 385
1 -2 384
2 20</w> 384
r 17</w> 384
c s 384
贴 片</w> 384
亲 节</w> 384
凉 席</w> 384
棕 色</w> 384
di or 384
con ver 384
bas s</w> 384
san rio</w> 384
com b</w> 384
ine se</w> 384
y5 5</w> 384
acti v 384
- g</w> 383
2 40 383
h m</w> 383
f l 383
b el</w> 383
电 磁</w> 383
梳 妆</w> 383
sh in 383
san disk</w> 383
遥控 器</w> 383
peel ing</w> 383
d r</w> 382
g l 382
泡 茶</w> 382
锆 石</w> 382
fu n</w> 382
head phone</w> 382
ation s</w> 382
asi cs</w> 382
formul a</w> 382
m 1</w> 381
f y 381
x 3</w> 381
仿 古</w> 381
re usable</w> 381
head phones</w> 381
高尔 夫</w> 381
sko ol</w> 381
g el 380
b ac 380
护 发</w> 380
裤 袜</w> 380
设 备</w> 380
me lo 380
bi ble</w> 380
person al</w> 380
blen d</w> 380
holli ster</w> 380
e du 379
9 99</w> 379
o c 379
光 疗</w> 379
达 菲</w> 379
速 发</w> 379
店 面</w> 379
雏 菊</w> 379
si a</w> 379
am a 379
shi sei 379
vi e</w> 379
sa w</w> 379
clo u 379
脚踏 车</w> 379
s ar 378
手 电筒</w> 378
b w 378
冬 天</w> 378
自 取</w> 378
密 码</w> 378
潘 朵 378
la n</w> 378
a3 1</w> 378
dri ll</w> 378
fr an 378
eng lish</w> 378
scar f</w> 378
affor dable</w> 378
3 )</w> 377
5 t</w> 377
背 椅</w> 377
耳 朵</w> 377
熊 猫</w> 377
时 间</w> 377
出 租</w> 377
文 件</w> 377
方 巾</w> 377
漆 皮</w> 377
薰 衣 377
in vit 377
le git</w> 377
ri pped</w> 377
ma d 377
pi pe</w> 377
12 3</w> 377
bot tom</w> 377
sei ko</w> 377
入 耳</w> 376
睡 觉</w> 376
essenti als</w> 376
n b 375
c ru 375
过 滤 375
万 能</w> 375
升 级 375
fo ld</w> 375
ra b 375
do ve</w> 375
supp lies</w> 375
g 4</w> 374
o o 374
独 角 374
ch el</w> 374
bo b</w> 374
ke ith</w> 374
13 5</w> 374
mb o</w> 374
ach ing</w> 374
tur tle</w> 374
flow ers</w> 374
8 7 373
y 95</w> 373
b q 373
香 炉</w> 373
ga me 373
loo k</w> 373
保温 瓶</w> 373
ameri ca</w> 373
eyel iner</w> 373
1.8 m</w> 373
3 g</w> 372
conta iner</w> 372
2 xl</w> 371
g t</w> 371
g shock</w> 371
特 价 371
平 价</w> 371
轻 松</w> 371
到 货</w> 371
ro pe</w> 371
un a</w> 371
pri mer</w> 371
out fit</w> 371
pack aging</w> 371
j2 prime</w> 371
resi st 371
sak ura</w> 371
( 免</w> 370
d ang 370
g in</w> 370
i r</w> 370
指 纹</w> 370
时 代</w> 370
蜂 蜜</w> 370
淑 女</w> 370
ut ure</w> 370
win d 370
camou flage</w> 370
shisei do</w> 370
书 )</w> 369
ma kap 369
lon don</w> 369
优惠 价</w> 369
买一送 一</w> 369
d ent</w> 368
j c</w> 368
9 4 368
趣 味</w> 368
防 盗</w> 368
科 比</w> 368
拼 装</w> 368
提 单</w> 368
刀 剑</w> 368
眼 线</w> 368
墙 纸</w> 368
in der</w> 368
vi r 368
bea uti 368
prote ct</w> 368
ken zo</w> 368
comfor table</w> 368
vani lla</w> 368
h g</w> 367
x 1</w> 367
白 黑</w> 367
拆 卸</w> 367
标 签</w> 367
se t 367
ch inese</w> 367
nova 3i</w> 367
christi an</w> 367
独角 兽</w> 367
x und 366
全 球</w> 366
对 称</w> 366
笑 脸</w> 366
car go</w> 366
ed p</w> 366
moder n</w> 366
0 6 365
r s 365
j uni 365
o live</w> 365
l te</w> 365
u 型</w> 365
数 据 365
袜 套</w> 365
波 士顿</w> 365
密 斯</w> 365
温 馨</w> 365
淇 淋</w> 365
re fill</w> 365
lo gy</w> 365
it e 365
la ven 365
de luxe</w> 365
su zu 365
vi sion</w> 365
las h</w> 365
dr .</w> 365
bot tles</w> 365
cho ker</w> 365
wel l</w> 365
工作 服</w> 365
xund d</w> 365
0 8 364
j p 364
. 5 364
调 整</w> 364
刷 卡</w> 364
版 本</w> 364
护 眼</w> 364
七 彩</w> 364
蔻 驰</w> 364
皇 家</w> 364
弹 簧</w> 364
鲨 鱼</w> 364
go pro</w> 364
t- shirts</w> 364
tri bal</w> 364
hoo ded</w> 364
fore ver 364
t ta</w> 363
j s</w> 363
行 李</w> 363
it or</w> 363
se le 363
sho pee</w> 363
ra dio</w> 363
ul zz 363
pl aid</w> 363
swi m</w> 363
produ ct</w> 363
薰衣 草</w> 363
i - 362
y or 362
深 层</w> 362
c f 362
c . 362
下 标 362
耐 热</w> 362
缎 带</w> 362
12 8</w> 362
man ual</w> 362
32 g</w> 362
sw eat</w> 362
pt cg</w> 362
makap al</w> 362
风 口</w> 361
公 路</w> 361
轮 胎</w> 361
吹 风机</w> 361
cas es</w> 361
colo gne</w> 361
sty lish</w> 361
数据 线</w> 361
m 2 360
l ' 360
z 1</w> 360
大 战</w> 360
玛 瑙</w> 360
星 际</w> 360
变 形</w> 360
ri s</w> 360
10 80 360
la s</w> 360
ck le</w> 360
gi cal</w> 360
bu y 360
ine ss</w> 360
gg le</w> 360
given chy</w> 360
1 18 359
0 7 359
5 7</w> 359
皮 面</w> 359
商 城</w> 359
pre ss 359
bea u 359
s- m</w> 359
kni fe</w> 359
ha y</w> 359
清洁 剂</w> 359
laven der</w> 359
套 餐</w> 358
铁 艺</w> 358
? ?</w> 358
轻 巧</w> 358
别 墅</w> 358
ho nor</w> 358
gu i 358
16 8</w> 358
ve ge 358
500 0</w> 358
comb i</w> 358
flash light</w> 358
appro x</w> 358
m ai 357
n ut</w> 357
神 奇</w> 357
大 码</w> 357
超 强</w> 357
lo l</w> 357
ba y 357
mat o</w> 357
pack s</w> 357
tooth brush</w> 357
chu ck</w> 357
chlo e</w> 357
ske chers</w> 357
bui ld 357
. tw</w> 356
自 慰 356
福 利</w> 356
le ar 356
fre sh 356
pe an 356
iphone x</w> 356
od or 356
显示 器</w> 356
seven teen</w> 356
j - 355
卡 其</w> 355
货 架</w> 355
老 板</w> 355
悠 游</w> 355
史 密斯</w> 355
co ordin 355
se n</w> 355
flo or</w> 355
over lap</w> 355
ble aching</w> 355
2 50g</w> 354
r m</w> 354
s in 354
5 50</w> 354
c i</w> 354
系 统</w> 354
调 理</w> 354
to mato</w> 354
00 7</w> 354
11 / 354
ju i 354
运动 服</w> 354
pu re 354
dri ver</w> 354
har ry</w> 354
110 v</w> 354
fer ra 354
spor ty</w> 354
小 舖 353
x / 353
男 友</w> 353
尺 寸 353
箱 子</w> 353
an as 353
th ree</w> 353
blo cks</w> 353
r 9 352
9 7 352
c 2</w> 352
b . 352
b new</w> 352
老 鼠</w> 352
加 湿器</w> 352
姆 斯</w> 352
净 化</w> 352
起 子</w> 352
10 4</w> 352
da i</w> 352
fu ji 352
cu p 352
s ach 351
c m- 351
海 滩</w> 351
耳 坠</w> 351
肤 色</w> 351
人 物</w> 351
sa fe</w> 351
-0 1</w> 351
ml / 351
nu mber</w> 351
comb in 351
o w</w> 350
美 少女</w> 350
特 殊</w> 350
可 乐</w> 350
隔 板</w> 350
飞 行 350
台 南</w> 350
黄 铜</w> 350
烫 金</w> 350
营 养</w> 350
th y</w> 350
ab er 350
wat ches</w> 350
ssi l</w> 350
vol . 350
nor th</w> 350
0 9</w> 349
p ti 349
i 7</w> 349
y 17</w> 349
布 丁</w> 349
二 手书</w> 349
游 戏 349
尿 布</w> 349
战 斗</w> 349
淋 浴</w> 349
in di 349
to ny</w> 349
11 5</w> 349
pe el</w> 349
sli de</w> 349
iphone 6</w> 349
bre ak 349
tru e</w> 349
spider man</w> 349
rab bit</w> 349
2 a</w> 348
j ar</w> 348
盘 子</w> 348
貔 貅</w> 348
枕 套</w> 348
播 放 348
ash a</w> 348
magi cal</w> 348
e ps 347
s f 347
u e</w> 347
双 人床</w> 347
后 现代</w> 347
宫 廷</w> 347
li fe 347
un ce</w> 347
ma y</w> 347
ki eh 347
00 6</w> 347
cro pped</w> 347
ce i 347
-3 9</w> 347
strai ght</w> 347
潘朵 拉</w> 347
r gb</w> 346
美 人</w> 346
大 学生</w> 346
脚 垫</w> 346
茶 店</w> 346
摇 摇</w> 346
00 5</w> 346
cro m 346
ben e 346
decor ation</w> 346
suzu ki</w> 346
d am 345
k not</w> 345
网 路</w> 345
防 爆</w> 345
会 议</w> 345
fo ssil</w> 345
di sh</w> 345
so phi 345
de sk 345
fi sh 345
bro n 345
inf lat 345
ht p</w> 345
vie w</w> 345
3 1 344
n ak 344
闪 电</w> 344
产 品</w> 344
靠 背椅</w> 344
pre ci 344
ling ton</w> 344
d m 343
d unk</w> 343
a 20 343
上 架</w> 343
真 丝</w> 343
名 片 343
茶 盘</w> 343
企 鹅</w> 343
仇 者</w> 343
so l 343
ap ri 343
iphone 11</w> 343
美容 院</w> 343
a j</w> 342
3 16</w> 342
h b 342
用 具</w> 342
z b 342
自 制</w> 342
唇 釉</w> 342
踏 板</w> 342
co me</w> 342
el li 342
mi di 342
ad es</w> 342
ad ven 342
inflat able</w> 342
卡 娜</w> 341
z ak 341
安 抚</w> 341
窗 户</w> 341
游 泳衣</w> 341
法 兰 341
春 秋季</w> 341
st ro 341
st amp</w> 341
me lon</w> 341
so und</w> 341
sun nies</w> 341
dri fit</w> 341
ben ch</w> 341
j7 prime</w> 341
clin i 341
( 大 340
e g 340
j ack 340
i e</w> 340
小 马</w> 340
z z</w> 340
羽 毛</w> 340
意 大利</w> 340
月 亮</w> 340
洗 车</w> 340
凉 感</w> 340
le a 340
li a</w> 340
wo l 340
dic kies</w> 340
aber crom 340
k t 339
y e</w> 339
b u</w> 339
复 仇者</w> 339
\ \ 339
乳 胶</w> 339
精 品 339
婚 庆</w> 339
活 力</w> 339
眼 镜 339
走 廊</w> 339
er as 339
ur t</w> 339
gen er 339
cel l</w> 339
r ush</w> 338
s cot 338
k es</w> 338
电 玩</w> 338
超 高</w> 338
cas t</w> 338
de cal</w> 338
ut e</w> 338
gg ing</w> 338
ster ling</w> 338
forever 21</w> 338
e co 337
j un 337
头 发</w> 337
中 古</w> 337
耳 塞</w> 337
纱 裙</w> 337
仓 库</w> 337
强 化</w> 337
ar ts</w> 337
ri ch</w> 337
12 . 337
ad v</w> 337
iphone 7</w> 337
loo p</w> 337
gri ll</w> 337
contro ller</w> 337
baby -g</w> 337
blen der</w> 337
ome ga</w> 337
7 4 336
极 度</w> 336
大 小</w> 336
微 型</w> 336
本 田</w> 336
袋 子</w> 336
as a</w> 336
m- xxl</w> 336
sen se</w> 336
sat chel</w> 336
ulzz ang</w> 336
s an</w> 335
c lar 335
鱼 尾</w> 335
一 体 335
可 穿</w> 335
爆 款</w> 335
wi red</w> 335
per i 335
pu ri 335
gen tle</w> 335
sau ce</w> 335
bath room</w> 335
8 4</w> 334
0 4 334
7 4</w> 334
g * 334
小 汽车</w> 334
皮 包</w> 334
新 版</w> 334
最 低价</w> 334
蚕 丝</w> 334
st ea 334
ro ro</w> 334
hi m</w> 334
po tter</w> 334
di al</w> 334
gar teri 334
y9 1 334
rose gold</w> 334
法兰 绒</w> 334
s ac 333
n ano</w> 333
防 震</w> 333
杀 菌</w> 333
花 洒</w> 333
选 择</w> 333
in et</w> 333
de vi 333
go d</w> 333
80 g</w> 333
comp act</w> 333
high - 333
床头 灯</w> 333
clean ing</w> 333
spf 50</w> 333
ulti mate</w> 333
( 小 332
l and 332
n ame</w> 332
加 肥</w> 332
满 额</w> 332
co co 332
201 7 332
de odor 332
wri st</w> 332
massa ger</w> 332
valentin o</w> 332
l )</w> 331
笔 记</w> 331
低 音</w> 331
mi cs</w> 331
ash ley</w> 331
hy un 331
fin i 331
mus cle</w> 331
0 8</w> 330
g es</w> 330
s 2</w> 330
n am 330
分 类</w> 330
压 器</w> 330
钓 具</w> 330
绅 士</w> 330
ma ker</w> 330
us sy</w> 330
ab sor 330
12 8gb</w> 330
tr ac 330
mat er 330
for k</w> 330
yo ur 330
par t</w> 330
tra vel 330
aut h</w> 330
melo dy</w> 330
ferra gam 330
w as 329
下 摆</w> 329
宝 蓝</w> 329
水 滴</w> 329
板 鞋</w> 329
录 音</w> 329
扳 手</w> 329
la u 329
da vi 329
ad van 329
micro fiber</w> 329
sur gical</w> 329
ordin ary</w> 329
cab inet</w> 329
m un 328
网 眼</w> 328
机 油</w> 328
老 师</w> 328
@ 新品</w> 328
护 栏</w> 328
re f</w> 328
po in 328
me i</w> 328
lov ely</w> 328
15 - 328
9 / 327
型 号</w> 327
清 净</w> 327
冷 热</w> 327
毛 毯</w> 327
闪 亮</w> 327
陀 螺</w> 327
整 套</w> 327
re - 327
sho ppe</w> 327
te le 327
spo rt 327
迪士 尼 327
high lighter</w> 327
ghten ing</w> 327
236 ml</w> 327
升级 版</w> 327
e co</w> 326
m ber 326
3 20 326
z el</w> 326
调 味</w> 326
数 码</w> 326
情 人</w> 326
珊 瑚</w> 326
le aves</w> 326
se qu 326
no se</w> 326
15 . 326
tiff any</w> 326
volu me</w> 326
yor k</w> 326
sach et</w> 326
g 21</w> 325
马 达</w> 325
内 饰</w> 325
任 天堂</w> 325
钢 笔</w> 325
ne y 325
de sk</w> 325
mon key</w> 325
yu an 325
fantas y</w> 325
smoo th</w> 325
e th 324
a y 324
p t</w> 324
k en</w> 324
小 小 324
外 壳</w> 324
好 看</w> 324
灰 白</w> 324
职 业</w> 324
负 离子</w> 324
ro bot</w> 324
me ssen 324
hu midi 324
rh ine 324
deodor ant</w> 324
a 8 323
a 50 323
r k 323
g k</w> 323
q 版</w> 323
9 .5</w> 323
" " 323
兄 弟</w> 323
en ce</w> 323
me l 323
201 4</w> 323
cu be</w> 323
ligh ten</w> 323
rain coat</w> 323
elas tic</w> 323
d b 322
n in 322
亚 克力</w> 322
ne on</w> 322
ni kon</w> 322
car tier</w> 322
eye glasses</w> 322
e ver</w> 321
w ren 321
2 10</w> 321
i ma 321
换 器</w> 321
迷 妳</w> 321
丰 田</w> 321
替 换</w> 321
显 示</w> 321
10 3</w> 321
fu r</w> 321
he i 321
hy per 321
star s</w> 321
57 4</w> 321
cli ps</w> 321
a lex 320
雷 射</w> 320
葡 萄 320
慵 懒</w> 320
co m</w> 320
ro w</w> 320
bi g 320
head light</w> 320
hang er</w> 320
scen ted</w> 320
m 2</w> 319
k no 319
c ali 319
家 族</w> 319
元 素</w> 319
爱 马仕</w> 319
圆 桌</w> 319
bo uti 319
her e</w> 319
hy bri 319
wel lington</w> 319
supp le 319
e . 318
e st</w> 318
d d</w> 318
5 50 318
k n 318
f ury</w> 318
l x</w> 318
布 袋</w> 318
宝 马</w> 318
丝 光</w> 318
脸 部</w> 318
桃 园</w> 318
冰 淇淋</w> 318
楼 梯</w> 318
秋 冬季</w> 318
未 来</w> 318
ar i</w> 318
ho ld</w> 318
sun flower</w> 318
mat eri 318
a3 5</w> 318
w in</w> 317
- up</w> 317
l c</w> 317
纸 袋</w> 317
编 号</w> 317
超 市</w> 317
火 爆</w> 317
刻 字</w> 317
琉 璃</w> 317
ca re 317
ge or 317
ban ner</w> 317
ser t</w> 317
az tec</w> 317
pres sed</w> 317
e u</w> 316
- fit</w> 316
8 .5</w> 316
t s 316
r ash</w> 316
合 身</w> 316
筒 袜</w> 316
马 丁</w> 316
米 色</w> 316
封 口</w> 316
超 级 316
葡 萄</w> 316
毛 帽</w> 316
早 春</w> 316
甜 心</w> 316
专 卖</w> 316
lo we 316
flo p</w> 316
tu al</w> 316
her sch 316
lv 包包</w> 316
ever y 316
休闲 椅</w> 316
extr act</w> 316
hyun dai</w> 316
o . 315
教 学</w> 315
无 限</w> 315
便 利</w> 315
支 撑</w> 315
ho se</w> 315
al mon 315
po int</w> 315
ba hay</w> 315
bo he 315
sig n</w> 315
36 5</w> 315
super man</w> 315
under arm</w> 315
legen d</w> 315
messen ger</w> 315
humidi fier</w> 315
d c 314
c ele 314
鱼 缸</w> 314
高 中</w> 314
视 镜</w> 314
茶 道</w> 314
吸 湿</w> 314
in es</w> 314
ri de</w> 314
30 s</w> 314
mas ks</w> 314
pri me 314
-0 10</w> 314
play er</w> 314
e mp 313
d k 313
用 途</w> 313
胸 针</w> 313
发 器</w> 313
奶 粉</w> 313
压 缩</w> 313
蜘 蛛 313
bo w 313
ck en</w> 313
pp a</w> 313
wi pes</w> 313
1- 2</w> 313
heal th</w> 313
hersch el</w> 313
y 15</w> 312
防 雨</w> 312
图 书</w> 312
木 工</w> 312
素 t</w> 312
原 味</w> 312
方 包</w> 312
凤 梨</w> 312
折叠 桌</w> 312
aero x</w> 312
r x 311
联 系</w> 311
书 店</w> 311
熊 熊</w> 311
春 夏</w> 311
ti s 311
fre n 311
boo ster</w> 311
ey es</w> 311
cus tom</w> 311
play station</w> 311
eyel ash</w> 311
bos ch</w> 311
a 6 310
满 天 310
co p 310
ch al 310
te x 310
vi deo</w> 310
bea t</w> 310
cu ps</w> 310
coo ler</w> 310
ct ure</w> 310
cup cake</w> 310
1 12 309
s w</w> 309
手 把</w> 309
特 大</w> 309
老 年</w> 309
爱 情</w> 309
护 肤 309
无 毒</w> 309
传 说</w> 309
阳 光</w> 309
插 头</w> 309
bu ds</w> 309
hel d</w> 309
phi lipp 309
sha de</w> 309
m 5 308
7 .5</w> 308
g p</w> 308
红 茶</w> 308
保 罗</w> 308
收 缩</w> 308
便 器</w> 308
辅 助</w> 308
伴 娘</w> 308
哺 乳</w> 308
fo rt</w> 308
li li 308
ni s</w> 308
go od 308
adi das 308
wal ker</w> 308
wren ch</w> 308
v r</w> 307
) ,</w> 307
女 子</w> 307
杀 价 307
水 果 307
批 发 307
st am 307
pan el</w> 307
cor ner</w> 307
cost co</w> 307
invit ation</w> 307
coordin ates</w> 307
desk top</w> 307
mater nity</w> 307
r i</w> 306
5 in1</w> 306
y ang</w> 306
z x 306
马 克</w> 306
版 潮</w> 306
面 板</w> 306
微 笑</w> 306
耐 高温</w> 306
代 购 306
re fle 306
ro man 306
ba k 306
mi a</w> 306
vo lution</w> 306
x a1</w> 305
韩 妞</w> 305
棉 花 305
草 本</w> 305
星 球</w> 305
主 播</w> 305
螺 丝 305
co ck 305
ch ang 305
am ansi</w> 305
so fi 305
sp lus</w> 305
bra lette</w> 305
pack ed</w> 305
hybri d</w> 305
( 大</w> 304
e k 304
e mb 304
武 器</w> 304
物 柜</w> 304
激 光</w> 304
唯 美</w> 304
出 清 304
纱 布</w> 304
代 步</w> 304
六 角</w> 304
at ure</w> 304
do ra 304
squ are 304
w u</w> 303
h & 303
前 后</w> 303
可 可</w> 303
免 费</w> 303
摄 像 303
re ct 303
cos rx</w> 303
ther mal</w> 303
tas ia</w> 303
满天 星</w> 303
k k</w> 302
男 式</w> 302
白 )</w> 302
学 园</w> 302
宇 宙</w> 302
钢 铁</w> 302
10 7</w> 302
ap i 302
do gs</w> 302
sc ri 302
em er 302
cur ler</w> 302
multi functional</w> 302
nova 2i</w> 302
clini que</w> 302
m )</w> 301
1 200</w> 301
n ine</w> 301
红 外线</w> 301
z u</w> 301
男 表</w> 301
棉 t</w> 301
稀 有</w> 301
lo ft</w> 301
ne xt</w> 301
mi an</w> 301
16 g</w> 301
sk ater</w> 301
ex treme</w> 301
bir ken 301
pam bahay</w> 301
e z</w> 300
8 3 300
8 mm</w> 300
0 3 300
p lo 300
o ce 300
i x</w> 300
码 :</w> 300
单 人床</w> 300
舞 台</w> 300
蝙 蝠</w> 300
as o 300
se e</w> 300
vi vi 300
sam ple</w> 300
2. 4a</w> 300
remo val</w> 300
alph a</w> 300
百货 店</w> 300
nai ls</w> 300
a way</w> 299
j 5 299
i v</w> 299
y 7 299
z a 299
实 战</w> 299
克 斯</w> 299
景 观</w> 299
项 圈</w> 299
请 勿</w> 299
co mics</w> 299
fo l 299
mi u</w> 299
wat ts</w> 299
len gth</w> 299
fit ness</w> 299
ple ated</w> 299
photo card</w> 299
洗手 间</w> 299
1 50g</w> 298
0 1 298
s c</w> 298
l 号</w> 298
# 爆</w> 298
烤 盘</w> 298
万 代</w> 298
领 带</w> 298
温 和</w> 298
洽 谈</w> 298
char les</w> 298
anas tasia</w> 298
m j</w> 297
蓝 )</w> 297
香 蕉</w> 297
卖 场 297
轨 道</w> 297
in vi 297
10 / 297
sp y</w> 297
1. 2 297
na c</w> 297
gol f</w> 297
下标 )</w> 297
w anna</w> 296
0 2 296
2 30</w> 296
i o 296
x 5</w> 296
制 化</w> 296
面 霜</w> 296
电 压</w> 296
圆 盘</w> 296
po ckets</w> 296
ab s</w> 296
sun screen</w> 296
she er</w> 296
der y</w> 296
dy e</w> 296
1 500</w> 295
t f 295
q q</w> 295
中 )</w> 295
内 外</w> 295
肌 肤</w> 295
绒 布</w> 295
绿 茶</w> 295
gu ar 295
12 8g</w> 295
chi a</w> 295
1- 3</w> 295
squ i 295
bre ak</w> 295
san iti 295
super dry</w> 295
ms .</w> 295
miner al</w> 295
fy ing</w> 295
d f 294
d ash 294
m h 294
k ai 294
n an 294
牙 音</w> 294
可 移动</w> 294
毛 巾 294
le n</w> 294
ho use 294
sho t</w> 294
mo ld</w> 294
00 8</w> 294
eri c</w> 294
hydr ating</w> 294
beauti ful</w> 294
d f</w> 293
d ash</w> 293
t ry</w> 293
k 10</w> 293
小 小</w> 293
儿 童 293
摇 滚</w> 293
me ga</w> 293
gr an 293
tra ining</w> 293
aj 1</w> 293
pau l</w> 293
bus iness</w> 293
dang ling</w> 293
t f</w> 292
5 20</w> 292
防 寒</w> 292
女 人</w> 292
直 邮</w> 292
贴 画</w> 292
照 明</w> 292
rat tan</w> 292
two - 292
m 10</w> 291
0 .5</w> 291
h co</w> 291
人 体</w> 291
散 热</w> 291
话 筒</w> 291
别 针</w> 291
co mm 291
sp ro 291
las t</w> 291
whit e 291
adul ts</w> 291
pre- order</w> 291
bohe mian</w> 291
m and 290
s j 290
手 感</w> 290
书 本</w> 290
防 臭</w> 290
三 星 290
保 健</w> 290
鞋 套</w> 290
鞋 垫</w> 290
指 定</w> 290
牛 皮 290
软 糖</w> 290
方 向 290
sh ades</w> 290
gar lic</w> 290
pain ting</w> 290
婴儿 床</w> 290
resist ant</w> 290
yuan roro</w> 290
加 强</w> 289
传 统</w> 289
标 志</w> 289
茶 花</w> 289
鼠 标</w> 289
ki lo</w> 289
ut o</w> 289
50 1</w> 289
pi re</w> 289
bu mper</w> 289
back less</w> 289
hear ts</w> 289
sy n 289
cli ck</w> 289
trans for 289
m t</w> 288
a w 288
3 60 288
o sh 288
c g 288
型 )</w> 288
刺 激</w> 288
羊 绒</w> 288
滋 养</w> 288
质 量</w> 288
写 字 288
br ush 288
perfu mes</w> 288
black pink</w> 288
cir cle</w> 288
2019 年</w> 288
sweat shirt</w> 288
#爆 品</w> 288
edu cat 288
eps on</w> 288
方向 盘</w> 288
y 85</w> 287
v 5s</w> 287
x 9</w> 287
面 纸</w> 287
场 景</w> 287
台 制</w> 287
毫 安</w> 287
st ru 287
ul tr 287
sleev ed</w> 287
tw in</w> 287
snap back</w> 287
pac i 287
nak ed</w> 287
supple ment</w> 287
s and</w> 286
z c 286
黑 头</w> 286
三 丽鸥</w> 286
玉 石</w> 286
强 光</w> 286
to x</w> 286
at o</w> 286
201 6 286
br e</w> 286
tr ack</w> 286
2. 5 286
wor k 286
a10 s</w> 286
k d</w> 285
o - 285
大 灯</w> 285
大 全</w> 285
母 亲节</w> 285
宾 士</w> 285
丸 子</w> 285
校 园</w> 285
re n</w> 285
re ver 285
li ly</w> 285
li zer</w> 285
po n 285
mon itor</w> 285
bal an 285
par ts</w> 285
coo ling</w> 285
bre ast</w> 285
mer ry</w> 285
miz uno</w> 285
( 全</w> 284
3 d 284
人 生</w> 284
喷 头</w> 284
舞 蹈</w> 284
方 块</w> 284
瘦 身</w> 284
梵 希</w> 284
as se 284
lo tte</w> 284
st ussy</w> 284
di ff 284
ko sh</w> 284
flo ps</w> 284
che st</w> 284
fit ch</w> 284
120 g</w> 284
300 ml</w> 284
cen tr 284
bun ny</w> 284
游戏 机</w> 284
名片 夹</w> 284
educat ional</w> 284
m ala 283
p tion</w> 283
蜡 笔 283
毛 膏</w> 283
影 音</w> 283
节 能</w> 283
扫 地</w> 283
ho le</w> 283
per s</w> 283
cap ac 283
smi ggle</w> 283
2 -3 282
3 w</w> 282
s 7 282
红 包</w> 282
x x</w> 282
海 军</w> 282
工 程</w> 282
颈 椎</w> 282
低 音 282
边 框</w> 282
12 5 282
win d</w> 282
juni or</w> 282
bouti que</w> 282
lowe en</w> 282
r ing 281
s )</w> 281
o k 281
* * 281
过 膝</w> 281
高 速</w> 281
木 头</w> 281
选 )</w> 281
同 款</w> 281
约 会</w> 281
厨 师</w> 281
循 环</w> 281
as si</w> 281
shi ba</w> 281
bi b</w> 281
wal k</w> 281
body suit</w> 281
fa ke</w> 281
lun a</w> 281
洗手 盆</w> 281
hero es</w> 281
givea ways</w> 281
a 4 280
k tv</w> 280
k elly</w> 280
客 服</w> 280
潮 牌</w> 280
中 型</w> 280
尼 尔</w> 280
南 瓜</w> 280
le op 280
fo ur</w> 280
si an</w> 280
su its</w> 280
bi e 280
chi cken</w> 280
hand held</w> 280
com fort</w> 280
pas sport</w> 280
build ing</w> 280
写字 台</w> 280
s av 279
n p 279
小 新</w> 279
大 头</w> 279
织 带</w> 279
拖 把</w> 279
hi l</w> 279
bo u 279
mar ble</w> 279
40 g</w> 279
pri se</w> 279
in- ear</w> 279
1080 p</w> 279
蜡笔 小新</w> 279
低音 炮</w> 279
leop ard</w> 279
r . 278
g gi 278
j in</w> 278
q s</w> 278
物 语</w> 278
电 热</w> 278
奇 迹</w> 278
出 口</w> 278
st le</w> 278
do r</w> 278
plu s/ 278
ex clu 278
cam i</w> 278
joh n 278
reli ef</w> 278
fren ch</w> 278
o p</w> 277
y 7</w> 277
日 期</w> 277
中 心</w> 277
金 链</w> 277
饭 桌</w> 277
售 )</w> 277
春 夏季</w> 277
猫 头 277
le d 277
go t 277
organi cs</w> 277
ion s</w> 277
bir d</w> 277
sof a</w> 277
fau x</w> 277
paper back</w> 277
ener gy</w> 277
ama zing</w> 277
press ure</w> 277
播放 器</w> 277
- 6 276
p ut</w> 276
c ul 276
古 装</w> 276
中 华</w> 276
超 亮</w> 276
钛 钢</w> 276
泡 面</w> 276
后 视镜</w> 276
猫 窝</w> 276
se al</w> 276
di sh 276
car ters</w> 276
chan el 276
保护 膜</w> 276
fit ted</w> 276
y5 1</w> 276
mani la</w> 276
- 100</w> 275
m als</w> 275
k d 275
实 木</w> 275
野 营</w> 275
飞 行</w> 275
in sul 275
an i</w> 275
ri ght</w> 275
20 000mah</w> 275
10 000</w> 275
ss d</w> 275
jo ur 275
ph y 275
ther mo 275
the ft</w> 275
af 1</w> 275
d ell</w> 274
7 p</w> 274
s us 274
5 20 274
o li 274
i pad 274
套 筒</w> 274
车 身</w> 274
胸 罩</w> 274
床 罩</w> 274
辐 射</w> 274
in fe 274
an y 274
hi p</w> 274
sho rt 274
no od 274
16 - 274
tri mmer</w> 274
supp ly</w> 274
joh n</w> 274
sub li 274
( 台湾</w> 273
e c 273
4 .5</w> 273
3 30</w> 273
r as 273
f l</w> 273
c ani 273
实 物</w> 273
典 雅</w> 273
裤 带</w> 273
磁 吸</w> 273
草 帽</w> 273
华 丽</w> 273
餐 盒</w> 273
惊 喜</w> 273
单 )</w> 273
闪 光</w> 273
恒 温</w> 273
ro u 273
ri se</w> 273
ki mono</w> 273
de t 273
de ter 273
over sized</w> 273
stick y</w> 273
45 cm</w> 273
spon ge 273
val ve</w> 273
a 货</w> 272
g sm</w> 272
s 10 272
水 族</w> 272
胶 水</w> 272
发 乳</w> 272
号 )</w> 272
绝 对</w> 272
珠 光</w> 272
首 饰 272
201 2</w> 272
cc o</w> 272
cam ping</w> 272
coo ker</w> 272
1.5 m</w> 272
d x</w> 271
1 ml</w> 271
s as 271
f av 271
v ga</w> 271
日 记</w> 271
科 学</w> 271
水 波</w> 271
平 光</w> 271
浓 缩</w> 271
订 )</w> 271
冰 鞋</w> 271
转 换器</w> 271
橡 皮 271
on i 271
de gre 271
ce tap 271
pen s</w> 271
mix ed</w> 271
首饰 盒</w> 271
l ity</w> 270
生 活 270
高 压</w> 270
越 野</w> 270
妹 妹</w> 270
欢 乐</w> 270
at h</w> 270
fo li 270
wo c</w> 270
colo ur</w> 270
11 1</w> 270
4 d</w> 269
7 50 269
h an</w> 269
. 00</w> 269
头 皮</w> 269
特 级</w> 269
in tel</w> 269
re no</w> 269
en velo 269
ri ck</w> 269
10 9</w> 269
mo on 269
or y</w> 269
sh u 269
gi or 269
be ach 269
sli me</w> 269
dri -fit</w> 269
hal loween</w> 269
play boy</w> 269
roo ts</w> 269
shap ed</w> 269
dec als</w> 269
lear ning</w> 269
( 有</w> 268
2 60 268
4 gb</w> 268
o w 268
) )</w> 268
~ ~ 268
四 轮</w> 268
超 低价</w> 268
鸡 肉</w> 268
se mi 268
ab e 268
pe g 268
pe ppa</w> 268
ste p</w> 268
tra iner</w> 268
ben to</w> 268
沙发 套</w> 268
ball pen</w> 268
rever sible</w> 268
exclu sive</w> 268
m sm 267
2 80</w> 267
l ers</w> 267
z i</w> 267
下 杀</w> 267
中 筒</w> 267
奇 奇 267
售 出</w> 267
拿 大</w> 267
虎 头</w> 267
繁 体</w> 267
co le</w> 267
to kong</w> 267
20 g</w> 267
and a</w> 267
be at 267
sam e</w> 267
y6 7</w> 267
cen ter</w> 267
高尔 夫 267
kid die</w> 267
seas on</w> 267
cetap hil</w> 267
- 2</w> 266
k l 266
f ate</w> 266
花 茶</w> 266
鱼 竿</w> 266
公 克</w> 266
店 )</w> 266
鹦 鹉</w> 266
in sta 266
to y 266
ti p</w> 266
dre am 266
ten t</w> 266
tin a</w> 266
lin ing</w> 266
m- xx 266
multi color</w> 266
rhine stone</w> 266
w ings</w> 265
r inger</w> 265
n on 265
大 方</w> 265
诗 兰 265
收 腹</w> 265
雅 诗兰 265
热 卖 265
mo sch 265
fe min 265
slee p</w> 265
ven e 265
ben assi</w> 265
com fy</w> 265
hor se</w> 265
m f 264
m n 264
x 4</w> 264
b it 264
雨 靴</w> 264
] ☆</w> 264
加 拿大</w> 264
出 版 264
冷 冻</w> 264
干 湿</w> 264
甜 品</w> 264
跳 跳</w> 264
转 运</w> 264
fo g</w> 264
ro s 264
ti mber 264
fi c</w> 264
pe plum</w> 264
sto ck 264
stri p</w> 264
coo kie</w> 264
scre w</w> 264
cra f 264
moisturi zer</w> 264
a20 s</w> 264
adven ture</w> 264
tis sue</w> 264
猫头 鹰</w> 264
雅诗兰 黛</w> 264
q c 263
y un 263
n lighten</w> 263
v neck</w> 263
c et</w> 263
三 脚架</w> 263
冬 装</w> 263
厂 商</w> 263
视 频</w> 263
片 )</w> 263
仓 鼠</w> 263
分 离 263
ch ing</w> 263
me al</w> 263
colo ring</w> 263
tw s</w> 263
太阳 帽</w> 263
ling erie</w> 263
ink le</w> 263
(黑 )</w> 263
u. s</w> 263
tak ara</w> 263
h& m</w> 263
高尔夫 球</w> 263
k ins</w> 262
i ve</w> 262
高 潮</w> 262
袋 装</w> 262
支 持</w> 262
li ve 262
po oh</w> 262
te am</w> 262
de si 262
ali ce</w> 262
17 0</w> 262
bot te 262
zz a</w> 262
the me</w> 262
best seller</w> 262
garteri zed</w> 262
osh kosh</w> 262
deter gent</w> 262
1 pcs</w> 261
r l</w> 261
海 鸥</w> 261
用 品 261
美 甲</w> 261
老 式</w> 261
加 宽</w> 261
藤 原 261
提 包</w> 261
隔 音</w> 261
橱 窗</w> 261
超 轻量</w> 261
不 锈</w> 261
代 言</w> 261
低 腰</w> 261
专 利</w> 261
航 空</w> 261
减 肥</w> 261
st roller</w> 261
av en 261
wa s</w> 261
tat too</w> 261
stea m</w> 261
护肤 品</w> 261
gior gio</w> 261
d . 260
3 000</w> 260
k 歌</w> 260
i es</w> 260
n m</w> 260
莲 花</w> 260
去 污</w> 260
护 肤</w> 260
炫 彩</w> 260
西 米</w> 260
开 门</w> 260
健 身 260
登 机</w> 260
迪 奥 260
眼 罩</w> 260
霸 气</w> 260
al arm</w> 260
pro p 260
ff le</w> 260
sso r</w> 260
maz da</w> 260
w ang</w> 259
d x 259
m 3</w> 259
6 50 259
f s</w> 259
o z 259
v p</w> 259
面 部</w> 259
拍 卖</w> 259
尺 码:</w> 259
泰 迪 259
巾 纸</w> 259
to shiba</w> 259
or o</w> 259
yo uth</w> 259
du ction</w> 259
rac er</w> 259
tai wan</w> 259
diff user</w> 259
e e</w> 258
2 nd</w> 258
水 泥</w> 258
草 编</w> 258
变 压器</w> 258
le vis</w> 258
en han 258
li t</w> 258
bo lt</w> 258
mo du 258
00 9</w> 258
do ctor</w> 258
tu pper 258
nat ional</w> 258
ban g</w> 258
mono pod</w> 258
rai der</w> 258
femin ine</w> 258
- 1 257
- c 257
g ps</w> 257
k al 257
筒 裤</w> 257
雨 刷</w> 257
马 车</w> 257
博 士</w> 257
麻 花</w> 257
ch o</w> 257
si ded</w> 257
ba t</w> 257
sh y</w> 257
ta ke 257
kit a</w> 257
prin ter</w> 257
sto nes</w> 257
gen eva</w> 257
must ard</w> 257
6 2 256
p it 256
f 11pro</w> 256
f lamin 256
# 下</w> 256
客 人</w> 256
老 鸭</w> 256
面 具</w> 256
激 情</w> 256
双 向</w> 256
景 品</w> 256
软 皮</w> 256
蜜 桃</w> 256
20 pcs</w> 256
mo ther 256
ea gle</w> 256
do ll 256
cc tv</w> 256
sc ra 256
blo od</w> 256
36 -40</w> 256
ph y</w> 256
wr it 256
eli z 256
cock tail</w> 256
g d 255
s -</w> 255
q q 255
o t</w> 255
l u</w> 255
n ap 255
n au 255
v an</w> 255
童 车</w> 255
防 霉</w> 255
保 守</w> 255
多 功能</w> 255
热 销 255
周 岁</w> 255
卖 家</w> 255
随 行</w> 255
接 待</w> 255
分 期</w> 255
王 子</w> 255
规 格</w> 255
完 整</w> 255
队 长</w> 255
蝙 蝠 255
镭 射</w> 255
炸 锅</w> 255
re r</w> 255
-2 xl</w> 255
shar k</w> 255
wrist let</w> 255
a50 s</w> 255
8 2 254
s l</w> 254
j . 254
. 3</w> 254
家 电</w> 254
b by</w> 254
荣 耀</w> 254
唐 老鸭</w> 254
主 题</w> 254
密 码 254
睡 袋</w> 254
in door</w> 254
lo s</w> 254
le ver</w> 254
di re 254
10 .5</w> 254
la und 254
du st 254
gg y</w> 254
bac ter 254
oce an</w> 254
u ses</w> 253
女 中</w> 253
藤 编</w> 253
采 用</w> 253
板 凳</w> 253
亲 肤</w> 253
变 形 253
战 术</w> 253
契 尔 253
ki rk 253
sh ka</w> 253
da r</w> 253
ru s</w> 253
19 0</w> 253
14 - 253
bel le</w> 253
bel la</w> 253
dis infe 253
dr in 253
fle xi 253
mix er</w> 253
xr m</w> 253
butto ns</w> 253
birken stock</w> 253
sponge bob</w> 253
mosch ino</w> 253
( 4</w> 252
m x 252
m um</w> 252
a 2</w> 252
a x</w> 252
6 m</w> 252
h s- 252
p g</w> 252
手 腕</w> 252
5 m</w> 252
小 狗</w> 252
美 颜</w> 252
古 奇</w> 252
马 鞍</w> 252
平 滑</w> 252
维 他 252
雷 霆</w> 252
早 期</w> 252
赠 送</w> 252
詹 姆斯</w> 252
me ch 252
so l</w> 252
ani mals</w> 252
60 1</w> 252
par k</w> 252
cut ting</w> 252
ml b</w> 252
note 8</w> 252
inten se</w> 252
三角 裤</w> 252
fau cet</w> 252
尺寸 :</w> 252
藤原 浩</w> 252
tupper ware</w> 252
w ine</w> 251
y 3</w> 251
y 12</w> 251
日 文</w> 251
调 味 251
\ "" 251
直 接</w> 251
棉 被</w> 251
叶 子</w> 251
剧 场</w> 251
灯 笼</w> 251
独 特</w> 251
冲 击</w> 251
缎 面</w> 251
10 000mah</w> 251
so me</w> 251
201 3</w> 251
ul t</w> 251
sle y</w> 251
ao ke</w> 251
cal amansi</w> 251
aro und</w> 251
heal thy</w> 251
pla ins</w> 251
i v 250
美 术</w> 250
正 常</w> 250
士 尼</w> 250
以 上</w> 250
音 乐 250
透 光</w> 250
圈 圈</w> 250
站 立</w> 250
坚 果</w> 250
永 生</w> 250
围 脖</w> 250
演 唱 250
滚 筒</w> 250
ac tual</w> 250
10 mm</w> 250
mo d</w> 250
be cca</w> 250
36 -45</w> 250
he el</w> 250
70 s</w> 250
nat asha</w> 250
fla w 250
下杀 #</w> 250
lock ed</w> 250
zak ka</w> 250
m / 249
r c 249
r 11</w> 249
h it 249
k 金</w> 249
i g 249
y y</w> 249
小 朋友</w> 249
b k</w> 249
新 手</w> 249
lo go 249
11 100 249
gr 5</w> 249
旅行 袋</w> 249
plat form</w> 249
peg asus</w> 249
laund ry</w> 249
( 小</w> 248
d less</w> 248
t ela</w> 248
v 8</w> 248
x box</w> 248
索 尼</w> 248
马 丁 248
中 年</w> 248
克 力 248
翅 膀</w> 248
洗 面乳</w> 248
蓬 蓬</w> 248
社 团</w> 248
bo l 248
so ap 248
mar ker</w> 248
chi ld</w> 248
fro n 248
bri ghtening</w> 248
gar ter</w> 248
sen sor</w> 248
mor ning</w> 248
kar aoke</w> 248
off- shoulder</w> 248
演唱 会</w> 248
r r 247
x 10</w> 247
日 立</w> 247
鱼 子 247
上 型</w> 247
文 学</w> 247
恋 爱</w> 247
恶 魔</w> 247
笼 子</w> 247
渐 变</w> 247
pi g 247
mat ting</w> 247
spo t</w> 247
phi lip 247
3- 6</w> 247
pil low 247
heal ing</w> 247
won der 247
engin e</w> 247
小小 兵</w> 247
subli mation</w> 247
- 7 246
8 p</w> 246
5 l</w> 246
v 15 246
魔 力</w> 246
洗 碗</w> 246
单 件</w> 246
螺 纹</w> 246
玉 米</w> 246
对 折</w> 246
企 业</w> 246
旗 舰</w> 246
ho mme</w> 246
fo x</w> 246
12 / 246
be y 246
con tour</w> 246
cor al</w> 246
dani el</w> 246
figu res</w> 246
棉花 糖</w> 246
saniti zer</w> 246
flamin go</w> 246
a 30s</w> 245
6 18</w> 245
6 splus</w> 245
3 a</w> 245
3 20</w> 245
/ / 245
k k 245
9 57 245
x 6</w> 245
书 法</w> 245
花 瓣</w> 245
水 饺</w> 245
电 钻</w> 245
录 器</w> 245
碗 柜</w> 245
仪 器</w> 245
汤 锅</w> 245
lo g</w> 245
st an 245
so da</w> 245
ad o</w> 245
blo om</w> 245
bal let</w> 245
spi gen</w> 245
工作 室</w> 245
size :</w> 245
inclu ded</w> 245
almon d</w> 245
卡 其 244
z - 244
座 垫</w> 244
可 拆卸</w> 244
绒 面</w> 244
排 扣</w> 244
打 包</w> 244
茉 莉</w> 244
mu si 244
.... .</w> 244
a me 243
t n 243
s 0 243
s r</w> 243
i 8</w> 243
i go</w> 243
水 性</w> 243
护 照</w> 243
粉 刺</w> 243
改 良</w> 243
英 语</w> 243
店 长</w> 243
cor re 243
chi ps</w> 243
gra ph</w> 243
ber shka</w> 243
ga z 243
dai sy</w> 243
ble ach</w> 243
strai ghten 243
botte ga</w> 243
e k</w> 242
d ur 242
s 8 242
s mas 242
o l 242
i u</w> 242
v c 242
c l</w> 242
可 放</w> 242
伦 敦</w> 242
莱 士</w> 242
文 件 242
轮 车</w> 242
焦 糖</w> 242
芳 香</w> 242
秋 千</w> 242
抢 购</w> 242
ul a</w> 242
00 mah</w> 242
tin y</w> 242
ruff led</w> 242
kirk land</w> 242
2 way</w> 241
t c</w> 241
s wa 241
i ii</w> 241
相 片</w> 241
适 用 241
白 底</w> 241
西 班 241
个 人</w> 241
侧 边</w> 241
永 久</w> 241
阴 阳</w> 241
滑 鼠 241
凭 证</w> 241
lo e 241
20 2 241
pro max</w> 241
90 ml</w> 241
ach i</w> 241
spi cy</w> 241
coo king</w> 241
3. 5mm</w> 241
tw in 241
spark le</w> 241
mech ani 241
- 6</w> 240
m c</w> 240
m 20</w> 240
t shirts</w> 240
g p 240
s 5 240
s 9 240
k yo 240
f lip 240
v 3</w> 240
隐 藏</w> 240
椅 垫</w> 240
杏 仁</w> 240
硬 碟</w> 240
甜 甜</w> 240
纯 白</w> 240
re volution</w> 240
to ms</w> 240
ri t</w> 240
bo ne</w> 240
gh ts</w> 240
ex plo 240
cle s</w> 240
bre ast 240
cto rs</w> 240
sy ru 240
-- -</w> 240
hor n</w> 240
o ur</w> 239
皮 肤</w> 239
书 签</w> 239
蒸 汽</w> 239
包 皮</w> 239
羽 绒 239
餐 巾纸</w> 239
肚 子</w> 239
观 音</w> 239
煞 车</w> 239
er - 239
ch en 239
ba o</w> 239
la k 239
su s</w> 239
vi p</w> 239
pi ck</w> 239
be an</w> 239
11 8</w> 239
for tun 239
ang er</w> 239
bat ch</w> 239
swe e 239
sur prise</w> 239
photo cards</w> 239
off- white</w> 239
sofi a</w> 239
timber land</w> 239
a de 238
h en 238
g . 238
白 粉</w> 238
加 固</w> 238
桃 花</w> 238
其 他</w> 238
泡 澡</w> 238
ski rts</w> 238
ex cel 238
lit ers</w> 238
chil i</w> 238
light weight</w> 238
all er 238
poin ted</w> 238
lili w</w> 238
维他 命</w> 238
( 限</w> 237
d g</w> 237
3 ds</w> 237
h p 237
库 存</w> 237
收 纳 237
百 褶 237
重 复</w> 237
证 明</w> 237
le m</w> 237
do lls</w> 237
11 - 237
bu ckle</w> 237
25 6 237
spi r 237
fla p</w> 237
ly n</w> 237
qui ck 237
chee se</w> 237
tou gh</w> 237
cac tus</w> 237
鱼子 酱</w> 237
w k</w> 236
4 t</w> 236
r am 236
j j 236
j on 236
f w</w> 236
c j 236
皮 衣</w> 236
b c</w> 236
长 袜</w> 236
瓷 砖</w> 236
单 层</w> 236
钱 筒</w> 236
哆 啦 236
an t 236
po rts</w> 236
bo und</w> 236
cho pper</w> 236
ms m</w> 236
ribb ed</w> 236
flexi ble</w> 236
西班 牙</w> 236
滑鼠 垫</w> 236
3 16 235
3 99</w> 235
7 20</w> 235
p m 235
x 5 235
童 话</w> 235
特 价)</w> 235
烤 肉</w> 235
木 纹</w> 235
出 货)</w> 235
国 小</w> 235
狮 王</w> 235
逼 真</w> 235
橡 木</w> 235
畅 销</w> 235
铅 笔 235
su cc 235
ali a</w> 235
clas si 235
wor d</w> 235
ml * 235
war m</w> 235
twi st</w> 235
collecti ons</w> 235
- on</w> 234
a ke</w> 234
k w 234
y i 234
生 肖</w> 234
紫 水晶</w> 234
华 莱士</w> 234
鬼 毡</w> 234
gi ant</w> 234
ack s</w> 234
mar io</w> 234
man o</w> 234
ash i</w> 234
6- 12</w> 234
om ing</w> 234
plat in 234
工具 箱</w> 234
十字 绣</w> 234
f k</w> 233
c pu</w> 233
z 3</w> 233
复 古 233
古 董</w> 233
内 置</w> 233
白 铁</w> 233
棉 布</w> 233
铁 盒</w> 233
音 器</w> 233
纳 米</w> 233
造 景</w> 233
伙 伴</w> 233
叮 当</w> 233
st ation 233
ma xi 233
bl ing</w> 233
pa w</w> 233
be ver 233
pu ppy</w> 233
25 g</w> 233
tro pi 233
lin en</w> 233
thi s</w> 233
toi let</w> 233
4 )</w> 232
3 ml</w> 232
g as 232
s 6 232
j r</w> 232
c nc</w> 232
防 身</w> 232
丝 绸</w> 232
耳 环 232
色 系</w> 232
车 门</w> 232
电 瓶 232
王 者</w> 232
碗 碟</w> 232
疯 狂</w> 232
葫 芦</w> 232
弥 月</w> 232
gi f 232
per for 232
bu t</w> 232
ph ant</w> 232
coo kies</w> 232
400 ml</w> 232
resi n</w> 232
advan ced</w> 232
15. 6</w> 232
( 客</w> 231
3 80</w> 231
布 偶</w> 231
花 色</w> 231
精 梳</w> 231
附 赠</w> 231
上 班 231
心 机</w> 231
发 店</w> 231
火 影 231
考 试</w> 231
as ter</w> 231
lo af 231
ho me 231
ro l</w> 231
fi eld</w> 231
do or 231
air max</w> 231
ruff le</w> 231
combin ation</w> 231
syru p</w> 231
电瓶 车</w> 231
r n</w> 230
小 吃</w> 230
太 空 230
精 准</w> 230
食 品 230
发 热</w> 230
刀 架</w> 230
竹 节</w> 230
取 货</w> 230
法 拉 230
馒 头</w> 230
ro ck 230
wo ol</w> 230
ci vic</w> 230
medi a</w> 230
wai sted</w> 230
lou is 230
et te</w> 230
ky o</w> 230
cat s</w> 230
dh c</w> 230
w ar</w> 229
2 t</w> 229
6 p</w> 229
t . 229
c ting</w> 229
金 属 229
环 球</w> 229
欧 文</w> 229
各 种</w> 229
警 示</w> 229
驾 车</w> 229
砧 板</w> 229
as ure</w> 229
10 m</w> 229
de fen 229
cre w</w> 229
hu go</w> 229
cur ity</w> 229
natur als</w> 229
loo t</w> 229
flaw less</w> 229
g 530</w> 228
p 20 228
红 )</w> 228
美 食</w> 228
b c 228
黑 板</w> 228
运 费 228
西 瓜</w> 228
开 始</w> 228
贴 身</w> 228
灯 光</w> 228
绘 画</w> 228
ac o</w> 228
di ffe 228
ti me 228
te ddy</w> 228
de tox</w> 228
mat ch</w> 228
je ju</w> 228
fer r 228
coun t</w> 228
上班 族</w> 228
火影 忍者</w> 228
2 g</w> 227
2 80 227
g at 227
s sed</w> 227
5 )</w> 227
卡 地 227
i p</w> 227
y y 227
x 7</w> 227
b es</w> 227
防 漏</w> 227
胡 刀</w> 227
护 具</w> 227
饺 子</w> 227
时 髦</w> 227
酒 杯</w> 227
产 后</w> 227
漂 亮</w> 227
试 用</w> 227
12 m</w> 227
nat ive</w> 227
ve hi 227
zi r 227
dv r</w> 227
roy ale</w> 227
asse mbl 227
straighten er</w> 227
platin um</w> 227
d ear</w> 226
a 梦</w> 226
l c 226
l ley</w> 226
鞋 带</w> 226
水 巾</w> 226
可 动</w> 226
拼 贴</w> 226
镀 金</w> 226
睫 毛膏</w> 226
禅 意</w> 226
th ri 226
te st</w> 226
cas e 226
cre me</w> 226
11 2</w> 226
ka i</w> 226
ja g</w> 226
zo o</w> 226
om ni</w> 226
hard cover</w> 226
j4 plus</w> 226
毛巾 架</w> 226
卡地 亚</w> 226
( 共</w> 225
d w 225
2 s</w> 225
3 t</w> 225
一 生</w> 225
天 鹅</w> 225
安 娜</w> 225
抽 象</w> 225
第 四</w> 225
斑 马</w> 225
as si 225
po ur</w> 225
la bel</w> 225
go d 225
pan ini</w> 225
ll ers</w> 225
mon t 225
bur y</w> 225
17 - 225
under wire</w> 225
vege table</w> 225
bacter ial</w> 225
1 tb</w> 224
a w</w> 224
r 15</w> 224
g lam 224
特 产</w> 224
一 盒</w> 224
水 彩</w> 224
棒 棒 224
★ ★</w> 224
价 :</w> 224
传 奇</w> 224
国 旗</w> 224
ho ut</w> 224
to tal</w> 224
di um</w> 224
gh z</w> 224
ad dle</w> 224
24 pcs</w> 224
tin ted</w> 224
stre aming</w> 224
the tic</w> 224
85 ml</w> 224
mr . 224
ham mer</w> 224
fini sh</w> 224
ferragam o</w> 224
v15 pro</w> 224
ferr ari</w> 224
e ven 223
p 30 223
5 c</w> 223
f a</w> 223
b in 223
长 夹</w> 223
眉 笔</w> 223
保 存</w> 223
预 定</w> 223
粉 嫩</w> 223
兰 蔻</w> 223
铃 铛</w> 223
促 销 223
打 磨</w> 223
幼 稚 223
滚 轮</w> 223
in sert</w> 223
re a 223
po s 223
un locked</w> 223
au x</w> 223
ear th</w> 223
per a</w> 223
zz o</w> 223
ms i</w> 223
clou d</w> 223
bene fit</w> 223
sophi e</w> 223
eras er</w> 223
emb lem</w> 223
abe th</w> 223
马丁 靴</w> 223
幼稚 园</w> 223
m ama</w> 222
1 + 222
3 c 222
s lot</w> 222
f all</w> 222
v ar 222
u - 222
头 巾</w> 222
美 好</w> 222
菲 利 222
电 扇</w> 222
多 多</w> 222
出 )</w> 222
哈 娜</w> 222
史 迪 222
随 手</w> 222
散 装</w> 222
独 立</w> 222
罗 斯</w> 222
方 向</w> 222
鸳 鸯</w> 222
ba pti 222
mo l 222
fi re 222
bi c</w> 222
bu il 222
blo uses</w> 222
pen shoppe</w> 222
ten s</w> 222
wai i</w> 222
fit flop</w> 222
批发 价</w> 222
eliz abeth</w> 222
法拉 利</w> 222
( 无</w> 221
w . 221
4 50 221
魔 鬼毡</w> 221
比 赛</w> 221
车 灯</w> 221
扇 子</w> 221
高 低</w> 221
袖 套</w> 221
泳 裤</w> 221
名 品</w> 221
控 制</w> 221
声 波</w> 221
走 光</w> 221
榨 汁 221
降 温</w> 221
si n</w> 221
ma kita</w> 221
sh er 221
bi o</w> 221
30 1</w> 221
tro lley</w> 221
包装 袋</w> 221
自慰 器</w> 221
vene ta</w> 221
蝙蝠 侠</w> 221
philip p</w> 221
8 80 220
3 xl</w> 220
g .</w> 220
f u</w> 220
c ure</w> 220
c iti 220
调 式</w> 220
女 单</w> 220
丹 尼尔</w> 220
电 瓶</w> 220
多 种</w> 220
提 花</w> 220
价 $ 220
菜 盆</w> 220
阿 曼</w> 220
售 价</w> 220
全 能</w> 220
茶 水</w> 220
转 椅</w> 220
抛 光</w> 220
按 压</w> 220
co .</w> 220
to m 220
la zy</w> 220
wit hout</w> 220
vi os</w> 220
pi x 220
12 5ml</w> 220
ke e 220
11 7</w> 220
con sole</w> 220
jo jo</w> 220
tre tta</w> 220
por ter</w> 220
ple in</w> 220
scen ts</w> 220
pean ut</w> 220
your self</w> 220
3 s</w> 219
r t- 219
手 指</w> 219
风 味</w> 219
笔 筒</w> 219
售 完</w> 219
原 子 219
摇 摆</w> 219
渔 具</w> 219
赤 足</w> 219
晾 衣</w> 219
prin ting</w> 219
gr inder</w> 219
der ma</w> 219
杂货 店</w> 219
cac ao</w> 219
e vi 218
t g 218
t l</w> 218
p y 218
k ak 218
l la 218
小 鸟</w> 218
长 线</w> 218
精 工</w> 218
精 度</w> 218
毛 料</w> 218
奥 运</w> 218
减 压</w> 218
冒 险</w> 218
荧 光</w> 218
co urt</w> 218
to s</w> 218
en a</w> 218
ne t 218
bo ar 218
bo bb 218
am ber</w> 218
mo to</w> 218
pre love</w> 218
do me</w> 218
gre at</w> 218
ali st</w> 218
hy dro 218
eye glass</w> 218
dy n 218
cal cu 218
dai so</w> 218
smi le</w> 218
beau te 218
y91 c</w> 218
assembl y</w> 218
( 二手</w> 217
e di 217
h . 217
h at 217
萝 卜</w> 217
系 列 217
美 发</w> 217
长 柄</w> 217
男 裤</w> 217
气 动</w> 217
双 c</w> 217
橘 子</w> 217
狐 狸</w> 217
坠 子</w> 217
sho pping</w> 217
shi mano</w> 217
mar ine</w> 217
pan ties</w> 217
ele phant</w> 217
40 -46</w> 217
du al 217
stu dent</w> 217
ban a</w> 217
glo be</w> 217
acti cal</w> 217
纪念 品</w> 217
envelo pe</w> 217
e ste 216
g li 216
s b 216
过 年</w> 216
篮 子</w> 216
面 盆</w> 216
前 台</w> 216
护 颈</w> 216
高 效</w> 216
西 服</w> 216
跳 舞</w> 216
er t</w> 216
am pli 216
sh elf</w> 216
car d 216
ack er</w> 216
sil ver 216
tri al</w> 216
fro sted</w> 216
ry x 216
over size</w> 216
3. 1</w> 216
mil k 216
adap tor</w> 216
aqu ari 216
遮阳 伞</w> 216
embroi dery</w> 216
clin ic</w> 216
effe ct</w> 216
w cf</w> 215
5 80</w> 215
护 膝</w> 215
印 度</w> 215
信 用 215
浴 缸</w> 215
抹 茶</w> 215
杏 色</w> 215
夜 视</w> 215
第 五</w> 215
演 出</w> 215
梳 子</w> 215
蔬 果</w> 215
蘑 菇</w> 215
re ser 215
su it 215
ta was</w> 215
pri de</w> 215
s- xl</w> 215
bar ley</w> 215
4. 7</w> 215
rep el 215
iti ve</w> 215
souveni rs</w> 215
电子 表</w> 215
fuji film</w> 215
geor ge</w> 215
got 7</w> 215
分离 式</w> 215
契尔 氏</w> 215
( 10</w> 214
d un 214
t -</w> 214
s lo 214
p i</w> 214
小 鸡</w> 214
面 罩</w> 214
艾 米</w> 214
年 人</w> 214
香 草</w> 214
部 落</w> 214
免 运 214
云 朵</w> 214
冲 浪</w> 214
吐 司</w> 214
爸 爸</w> 214
re max</w> 214
se con 214
ju ju 214
ca fe</w> 214
multi function</w> 214
no. t1</w> 214
下杀 $</w> 214
lumin ous</w> 214
proje ct</w> 214
loe we</w> 214
菲利 普</w> 214
原子 笔</w> 214
6 s/ 213
3 10</w> 213
g 1</w> 213
g u</w> 213
l p</w> 213
y x</w> 213
长 发</w> 213
技 术</w> 213
仙 人 213
野 生</w> 213
刮 胡刀</w> 213
支 援</w> 213
房 子</w> 213
th ai</w> 213
ur ing</w> 213
de ck</w> 213
fi ed</w> 213
ad ri 213
40 mm</w> 213
sli p- 213
sto ve</w> 213
15 g</w> 213
bro ther</w> 213
bb q</w> 213
frien d 213
?? ??</w> 213
97898 6 213
6 in1</w> 212
r b 212
l 型</w> 212
电 工</w> 212
热 器</w> 212
发 财</w> 212
初 学</w> 212
晚 礼服</w> 212
曼 尼</w> 212
体 验</w> 212
切 割</w> 212
搅 拌 212
ro ad</w> 212
po lar 212
am i</w> 212
la i</w> 212
te k 212
fi le</w> 212
pa ++ 212
spe ed 212
.... ..</w> 212
nar uto</w> 212
amo ur</w> 212
2017 年</w> 212
materi al</w> 212
出版 社</w> 212
( ( 211
7 3 211
h ai 211
k or 211
i do 211
y n</w> 211
小 鱼</w> 211
z one</w> 211
中 长</w> 211
加 粗</w> 211
胸 前</w> 211
圆 点</w> 211
沐 浴 211
摄 影机</w> 211
to wer</w> 211
di o 211
ti sso 211
lu lu 211
cre amy</w> 211
is bn 211
dra wer</w> 211
band s</w> 211
400 g</w> 211
wol f</w> 211
squi shy</w> 211
信用 卡</w> 211
w ave 210
- 8 210
- 10 210
r ace</w> 210
h s</w> 210
颜 料</w> 210
光 碟</w> 210
高 清</w> 210
纽 约</w> 210
胖 子</w> 210
建 筑</w> 210
成 长</w> 210
巴 特</w> 210
寿 司</w> 210
挂 脖</w> 210
an ni 210
ne ut 210
con centr 210
40 ml</w> 210
gre en 210
bri ck</w> 210
glu tam 210
tru ck</w> 210
dish washing</w> 210
juju be</w> 210
e v 209
w an 209
j k</w> 209
i se</w> 209
非 常</w> 209
水 箱</w> 209
水 池</w> 209
直 径</w> 209
新 鲜</w> 209
理 学</w> 209
体 育</w> 209
富 士</w> 209
co il</w> 209
se curity</w> 209
fi x</w> 209
12 8 209
sun block</w> 209
fu sion</w> 209
pu mp 209
cy lin 209
35 -40</w> 209
stre n 209
war ri 209
........ ........ 209
过滤 器</w> 209
棒棒 糖</w> 209
r 9</w> 208
j v</w> 208
y es</w> 208
c .</w> 208
小 卡</w> 208
小 麦</w> 208
制 冷</w> 208
保 固</w> 208
车 牌</w> 208
野 外</w> 208
铝 箔</w> 208
月 光</w> 208
木 马</w> 208
假 面</w> 208
即 期</w> 208
福 特</w> 208
珊 瑚 208
20 5</w> 208
20 00 208
am er</w> 208
do zen</w> 208
gin ger 208
pe ts</w> 208
bro w 208
-0 2</w> 208
卫生 纸</w> 208
zenfo ne 208
cli pper</w> 208
a7 3</w> 208
cri b</w> 208
alph ab 208
pres sion</w> 208
king dom</w> 208
conne ctor</w> 208
scri ption</w> 208
羽绒 服</w> 208
e ce</w> 207
d .</w> 207
1 x</w> 207
r us 207
三 轮车</w> 207
白 灰</w> 207
印 刷</w> 207
草 机</w> 207
麻 将</w> 207
莱 姆</w> 207
圆 圈</w> 207
遮 瑕</w> 207
缝 隙</w> 207
狗 窝</w> 207
参 考</w> 207
蛤 蟆 207
贸 易</w> 207
le s 207
ma m</w> 207
mi st 207
vi br 207
60 cm</w> 207
ste ph 207
len a</w> 207
man y</w> 207
son s</w> 207
san ta</w> 207
lan come</w> 207
cat cher</w> 207
glit ters</w> 207
aero post 207
p . 206
手 摇</w> 206
j in 206
u gh</w> 206
衣 裤</w> 206
城 堡</w> 206
中 海</w> 206
三 菱</w> 206
通 话</w> 206
直 条</w> 206
上 班</w> 206
香 槟</w> 206
便 携式</w> 206
简 体</w> 206
妖 怪</w> 206
式 )</w> 206
体 重</w> 206
名 片</w> 206
甜 点</w> 206
染 发 206
霹 雳</w> 206
熨 斗</w> 206
se wing</w> 206
be e 206
11 3</w> 206
em on</w> 206
ligh ting</w> 206
ku ma</w> 206
inten sive</w> 206
smart phone</w> 206
摄像 头</w> 206
syn thetic</w> 206
蛤蟆 镜</w> 206
m u</w> 205
m 40 205
6 )</w> 205
g 点</w> 205
f arm</w> 205
b in</w> 205
烟 灰 205
通 勤</w> 205
香 香</w> 205
星 座</w> 205
肥 皂</w> 205
火 车</w> 205
凉 拖</w> 205
十 二</w> 205
定 位</w> 205
桌 上型</w> 205
灯 芯 205
英 寸</w> 205
固 定 205
渡 假</w> 205
芦 荟</w> 205
ar gan</w> 205
ad v 205
ta ge</w> 205
av a</w> 205
du ra 205
13 5g</w> 205
war ran 205
ya o</w> 205
包装 盒</w> 205
gui de</w> 205
preci ous</w> 205
变形 金刚</w> 205
warran ty</w> 205
1 , 204
p tor</w> 204
f 21</w> 204
n 0 204
z 2</w> 204
山 茶花</w> 204
智 慧 204
教 室</w> 204
效 果</w> 204
平 面</w> 204
鸡 蛋</w> 204
摇 椅</w> 204
监 控</w> 204
re st</w> 204
ath er 204
mm a</w> 204
24 v</w> 204
pat ches</w> 204
6. 1</w> 204
radi ation</w> 204
2018 年</w> 204
game pad</w> 204
灯芯 绒</w> 204
( 单</w> 203
( 送</w> 203
e mo 203
- x</w> 203
3 mm</w> 203
3 80 203
h w</w> 203
手 册</w> 203
花 草</w> 203
肌 肉</w> 203
毛 器</w> 203
挡 风</w> 203
地 中海</w> 203
台 面</w> 203
延 长线</w> 203
坡 跟</w> 203
矫 正</w> 203
po st</w> 203
di vi 203
ti l 203
ni sh</w> 203
ap h 203
ck ed</w> 203
wi l 203
fe et</w> 203
ju mp</w> 203
19 9 203
hear t 203
dar t</w> 203
yu gi 203
(黑 色)</w> 203
sni per</w> 203
奇奇 蒂 203
aeropost ale</w> 203
e vo</w> 202
- b 202
m r</w> 202
a ge 202
a mel</w> 202
7 a</w> 202
p ea 202
o wl</w> 202
c el</w> 202
长 筒</w> 202
母 乳</w> 202
套 )</w> 202
夹 缝</w> 202
丁 字</w> 202
星 辰</w> 202
国 制</w> 202
定 型</w> 202
酒 精</w> 202
跑 车</w> 202
漱 口</w> 202
犀 牛</w> 202
ch ed</w> 202
mo vie</w> 202
bl in 202
30 cm</w> 202
16 5</w> 202
jo gging</w> 202
back case</w> 202
va po 202
ph e</w> 202
ze bra</w> 202
bul let</w> 202
simp ly</w> 202
comfor ter</w> 202
invi sible</w> 202
capac ity</w> 202
isbn :</w> 202
yugi oh</w> 202
w w 201
d ino 201
2 lite</w> 201
j m</w> 201
u v 201
雪 纺 201
特 色</w> 201
铺 子</w> 201
存 钱</w> 201
狂 欢</w> 201
表 情</w> 201
出 服</w> 201
破 坏</w> 201
素 材</w> 201
尾 牙</w> 201
茶 色</w> 201
甜 蜜</w> 201
演 出服</w> 201
广 角</w> 201
斗 篷</w> 201
梯 子</w> 201
伴 手</w> 201
al tis</w> 201
ro und 201
sh aper</w> 201
no uri 201
pi lat 201
pi cture</w> 201
ke e</w> 201
ju mbo</w> 201
ali an</w> 201
aut um 201
spar k</w> 201
geni c</w> 201
lea gue</w> 201
desi re</w> 201
h f</w> 200
h r</w> 200
j ac 200
c ad 200
u k</w> 200
露 趾</w> 200
紫 砂</w> 200
学 校</w> 200
舒 服</w> 200
佛 教</w> 200
汉 堡</w> 200
世 纪</w> 200
re x</w> 200
si e</w> 200
th y 200
el ine</w> 200
ap p</w> 200
ab c</w> 200
car ter 200
ex foli 200
temp o</w> 200
下杀 # 200
300 g</w> 200
r9 s</w> 200
cop y</w> 200
beaute derm</w> 200
este e</w> 200
烟灰 缸</w> 200
6 mm</w> 199
t 0 199
p 1</w> 199
手 臂</w> 199
u le</w> 199
# #</w> 199
爬 行</w> 199
快 干</w> 199
私 密</w> 199
青 蛙</w> 199
典 藏</w> 199
教 育</w> 199
有 盖</w> 199
透 肤</w> 199
浴 盆</w> 199
分 钟</w> 199
毛 边</w> 199
满 月</w> 199
领 结</w> 199
暗 黑</w> 199
温 柔</w> 199
泼 墨</w> 199
靠 墙</w> 199
腋 下</w> 199
re stock</w> 199
ch ea 199
ear ings</w> 199
ke ds</w> 199
30 3</w> 199
sun ny</w> 199
swi ft</w> 199
lay ered</w> 199
om bre</w> 199
折叠 床</w> 199
pillow case</w> 199
h e</w> 198
h c</w> 198
珐 瑯</w> 198
亚 瑟</w> 198
外 接</w> 198
特 大号</w> 198
b li 198
相 容</w> 198
刷 子</w> 198
光 灯</w> 198
油 烟</w> 198
耳 罩</w> 198
吊 饰</w> 198
磁 力</w> 198
博 柏 198
出 国</w> 198
明 治</w> 198
战 马</w> 198
研 磨 198
ho ney 198
25 6</w> 198
bea ded</w> 198
son ic</w> 198
ve a</w> 198
eye wear</w> 198
hon g</w> 198
multi- function</w> 198
bear ing</w> 198
hun ter</w> 198
3 ce</w> 197
t 5 197
s ity</w> 197
p 8</w> 197
k on 197
小 物</w> 197
x y 197
美 肌</w> 197
暖 手</w> 197
豆 腐</w> 197
水 晶 197
高 手</w> 197
晚 安</w> 197
接 线</w> 197
社 会</w> 197
引 擎</w> 197
搅 拌</w> 197
ho bo</w> 197
mi lit 197
ur s</w> 197
gi a</w> 197
ver s</w> 197
ang e 197
24 7</w> 197
tri u 197
chan nel</w> 197
lit a</w> 197
mil ky</w> 197
comp ati 197
-- -- 197
cond ition</w> 197
sno w 197
dol ce</w> 197
imp act</w> 197
dora emon</w> 197
insul ated</w> 197
仙人 掌</w> 197
( 二</w> 196
7 ml</w> 196
g w 196
f uture</w> 196
小 车</w> 196
小 美人鱼</w> 196
美 美</w> 196
家 )</w> 196
b 5</w> 196
本 舖</w> 196
羽 球</w> 196
天 下</w> 196
绿 萝</w> 196
巴 西</w> 196
软 管</w> 196
动 画</w> 196
帮 手</w> 196
滚 边</w> 196
ar mani 196
as pire</w> 196
ch un 196
am as</w> 196
sho w</w> 196
sp l</w> 196
sh el 196
gin ger</w> 196
pl ace</w> 196
sc u 196
mb ers</w> 196
ten nis</w> 196
vinta ge 196
vitam ins</w> 196
repl ac 196
lau der</w> 196
蜘蛛 人</w> 196
alphab et</w> 196
( 两</w> 195
g els</w> 195
作 品</w> 195
j y 195
5 cm</w> 195
i de 195
风 琴</w> 195
货 号</w> 195
松 紧 195
包 # 195
语 音</w> 195
教 师</w> 195
新 店</w> 195
提 供</w> 195
南 极</w> 195
颈 链</w> 195
者 :</w> 195
re cei 195
am g</w> 195
mi u 195
pre sti 195
50 - 195
mp h</w> 195
pi lot</w> 195
ci a</w> 195
-4 xl</w> 195
s- xxl</w> 195
vo ice</w> 195
et c</w> 195
gab bana</w> 195
plus size</w> 195
break er</w> 195
(大 )</w> 195
abercrom bie 195
insta x</w> 195
ampli fier</w> 195
tisso t</w> 195
智慧 型</w> 195
- 3</w> 194
手 帕</w> 194
n d 194
. hk</w> 194
货 车</w> 194
下 单)</w> 194
杀 手</w> 194
丽 婴</w> 194
米 茄</w> 194
水 手</w> 194
拉 丝</w> 194
工 装 194
无 敌</w> 194
星 光</w> 194
越 南</w> 194
定 版</w> 194
全 网</w> 194
柜 组</w> 194
柴 犬</w> 194
软 毛</w> 194
节 日</w> 194
to pper</w> 194
st eri 194
20 000</w> 194
me d 194
ne ver</w> 194
ni ght 194
min er</w> 194
18 m</w> 194
11 6</w> 194
cor dless</w> 194
tri angle</w> 194
ph p 194
mc queen</w> 194
工作 鞋</w> 194
9. 7</w> 194
shar p</w> 194
pad lock</w> 194
防水 布</w> 194
螺丝 刀</w> 194
fron tro 194
卡其 色</w> 194
aquari um</w> 194
autum n</w> 194
m cm</w> 193
6 a</w> 193
t ine</w> 193
r in 193
p ment</w> 193
n en 193
小 鹿</w> 193
元 )</w> 193
花 器</w> 193
收 银 193
加 高</w> 193
电 热 193
抹 布</w> 193
不 易</w> 193
石 头</w> 193
褶 皱</w> 193
碗 盘</w> 193
轻 盈</w> 193
镀 膜</w> 193
专 家</w> 193
苹 果 193
in c</w> 193
an gular</w> 193
ri lak 193
ti ca</w> 193
ti cal</w> 193
th a</w> 193
ni pple</w> 193
so lu 193
fi ve</w> 193
qu a 193
sc rat 193
cu cu 193
bri cks</w> 193
bri ef 193
iphone 6s</w> 193
tur bo</w> 193
dra wing</w> 193
thro ugh</w> 193
tm x</w> 193
open er</w> 193
生活 馆</w> 193
泰迪 熊</w> 193
take 1</w> 193
4 80</w> 192
t ted</w> 192
g r</w> 192
i so 192
c 0 192
z 5</w> 192
风 潮</w> 192
网 卡</w> 192
< <</w> 192
实 惠</w> 192
护 发 192
月 子</w> 192
圆 脸</w> 192
蜂 巢</w> 192
口 水巾</w> 192
挂 布</w> 192
坐 姿</w> 192
an k</w> 192
to kyo</w> 192
se ga</w> 192
ba y</w> 192
th ings</w> 192
mi ld</w> 192
ni vea</w> 192
vi vo 192
pi c 192
40 -44</w> 192
coo l 192
安全 带</w> 192
落地 灯</w> 192
手工 皂</w> 192
防晒 霜</w> 192
kn 95</w> 192
frontro w</w> 192
w l 191
h r 191
g ho 191
o ven</w> 191
i dea 191
海 军 191
风 景</w> 191
如 意</w> 191
数 学</w> 191
化 器</w> 191
] #</w> 191
水 鬼</w> 191
识 别</w> 191
洗 菜盆</w> 191
竹 炭</w> 191
王 国</w> 191
猴 子</w> 191
玩 家</w> 191
转 换</w> 191
摇 篮</w> 191
按 键</w> 191
an ts</w> 191
al d</w> 191
20 - 191
bo at</w> 191
ti ons</w> 191
mm )</w> 191
13 - 191
fle ece</w> 191
y- 3</w> 191
tit ani 191
msm .hk</w> 191
cucu mber</w> 191
3 10 190
p ins</w> 190
k ra 190
f s 190
o ly 190
客 制</w> 190
b s 190
佩 佩 190
雷 朋</w> 190
挂 包</w> 190
er ci 190
it ed</w> 190
ri der</w> 190
el sa</w> 190
so lo</w> 190
ki ll</w> 190
de er</w> 190
su i</w> 190
no tes</w> 190
12 7</w> 190
ta ins</w> 190
fe ather</w> 190
pe o 190
40 -45</w> 190
gr ass</w> 190
medi c 190
sha ke</w> 190
咖啡 豆</w> 190
cra y 190
tee th</w> 190
十字 架</w> 190
运费 )</w> 190
cylin der</w> 190
a .</w> 189
t 1 189
f j 189
乐 乐</w> 189
调 光</w> 189
一 起</w> 189
电 机</w> 189
翻 新</w> 189
净 水</w> 189
牛 角</w> 189
姑 娘</w> 189
压 力</w> 189
打 造</w> 189
放 大 189
as cor 189
hi mala 189
li f 189
vo l</w> 189
aro mat 189
9. 9</w> 189
activ ity</w> 189
出清 )</w> 189
jour nal</w> 189
vehi cle</w> 189
雪纺 衫</w> 189
compati ble</w> 189
1 g</w> 188
g round</w> 188
f at</w> 188
c lamp</w> 188
布 娃娃</w> 188
老 年人</w> 188
清 凉</w> 188
水 冷</w> 188
羽 毛 188
便 利 188
拍 杆</w> 188
军 事</w> 188
挡 板</w> 188
当 日</w> 188
毯 子</w> 188
干 花</w> 188
溜 溜</w> 188
伞 架</w> 188
搬 家</w> 188
pi e</w> 188
mar ket</w> 188
kit ty 188
-4 2</w> 188
man ce</w> 188
mb a</w> 188
sn ack</w> 188
88 8</w> 188
note 5</w> 188
todd lers</w> 188
gal lon</w> 188
tech ni 188
铅笔 盒</w> 188
louis vuitton</w> 188
珊瑚 绒</w> 188
abercrombie &</w> 188
6 x</w> 187
g au 187
p d</w> 187
i cs</w> 187
c all</w> 187
蒸 气</w> 187
织 布</w> 187
上 衣 187
凯 蒂猫</w> 187
开 业</w> 187
地 车</w> 187
螺 旋</w> 187
动 力</w> 187
职 员</w> 187
重 磅</w> 187
re la 187
po ly</w> 187
ra z 187
mi mi</w> 187
mo o 187
shi rt 187
wi g</w> 187
temp er 187
bang les</w> 187
dro ps</w> 187
bon g</w> 187
ush i</w> 187
gener ation</w> 187
ros ary</w> 187
slip- on</w> 187
沐浴 乳</w> 187
工装 裤</w> 187
8 pcs</w> 186
2 mm</w> 186
g x</w> 186
作 战</w> 186
o val</w> 186
l s 186
c w 186
u 盘</w> 186
小 丑</w> 186
球 拍</w> 186
天 鹅 186
餐 饮</w> 186
单 宁</w> 186
当 劳</w> 186
麦 当劳</w> 186
烘 培</w> 186
供 应 186
re tte</w> 186
le vel</w> 186
hi lls</w> 186
po ck 186
di n</w> 186
wat ch 186
flo w</w> 186
ex erci 186
fro g 186
multi purpose</w> 186
box es</w> 186
nar s</w> 186
blan c</w> 186
dry er</w> 186
精品 店</w> 186
bak una</w> 186
tropi cal</w> 186
diffe rent</w> 186
milit ary</w> 186
d ate</w> 185
m ur 185
m -2xl</w> 185
r it 185
p les</w> 185
j d 185
q - 185
f b 185
深 灰</w> 185
东 方</w> 185
年 级</w> 185
精 萃</w> 185
男 款</w> 185
利 亚</w> 185
灰 黑</w> 185
磨 砂 185
计 划</w> 185
fo n 185
ro m</w> 185
ne x</w> 185
las h 185
fla vo 185
gg les</w> 185
gri d</w> 185
rai der 185
bron ze</w> 185
apri l</w> 185
peri pera</w> 185
every day</w> 185
emer gen 185
pilat en</w> 185
presti ge</w> 185
( 5</w> 184
m ang 184
m ks</w> 184
2 l</w> 184
2 30 184
7 11</w> 184
t z</w> 184
5 xl</w> 184
晴 雨</w> 184
五 色</w> 184
自 然 184
热 门</w> 184
单 个</w> 184
帽 衫</w> 184
俏 皮</w> 184
转 售</w> 184
广 场</w> 184
st abi 184
ri a</w> 184
pa zzo</w> 184
sto cks</w> 184
chi cco</w> 184
hoo dies</w> 184
hand y</w> 184
cho ice</w> 184
m- xl</w> 184
glu ta 184
play ed</w> 184
tab le 184
下杀 @</w> 184
vir gin</w> 184
眼镜 框</w> 184
nood les</w> 184
perfor mance</w> 184
海军 蓝</w> 184
( 黑</w> 183
e mi 183
2 12</w> 183
p us</w> 183
o at 183
i 7 183
y 5</w> 183
联 想</w> 183
山 地车</w> 183
背 后</w> 183
长 效</w> 183
数 量</w> 183
内 胆</w> 183
码 表</w> 183
磁 扣</w> 183
时 装</w> 183
史 莱姆</w> 183
分 )</w> 183
牛 排</w> 183
墨 水</w> 183
横 条</w> 183
核 心</w> 183
滚 珠</w> 183
矮 凳</w> 183
in ver 183
in tex</w> 183
re v 183
le i 183
201 0</w> 183
sh er</w> 183
60 g</w> 183
yo u 183
90 cm</w> 183
spi der</w> 183
win nie</w> 183
one piece</w> 183
ag nes</w> 183
tat a</w> 183
ssi mo</w> 183
who le</w> 183
ite ch</w> 183
semi - 183
d 0 182
1 pair</w> 182
2 25 182
2 60</w> 182
a y</w> 182
f x</w> 182
i ri 182
海 苔</w> 182
风 情</w> 182
网 络</w> 182
宝 可</w> 182
辣 椒</w> 182
袖 短</w> 182
团 体</w> 182
液 体</w> 182
评 价</w> 182
冲 锋</w> 182
消 光</w> 182
懒 懒</w> 182
供 佛</w> 182
to ny 182
20 2</w> 182
di ap 182
prin ce</w> 182
70 - 182
90 g</w> 182
ka y 182
ka waii</w> 182
cr v</w> 182
pat rol</w> 182
mor phe</w> 182
thro nes</w> 182
trans fer</w> 182
snap s</w> 182
mid night</w> 182
榨汁 机</w> 182
作 者:</w> 181
5 吋</w> 181
小 样</w> 181
' o 181
b p 181
空 姐</w> 181
衫 女</w> 181
护 士</w> 181
电 话 181
粉 )</w> 181
发 圈</w> 181
火 焰</w> 181
眼 部</w> 181
喷 漆</w> 181
边 柜</w> 181
没 有</w> 181
菱 形</w> 181
投 影</w> 181
an n</w> 181
en o</w> 181
ri z 181
ki ller</w> 181
201 1</w> 181
de ca 181
br assi 181
gi gab 181
ke vin</w> 181
40 1</w> 181
gr 3</w> 181
gr ain</w> 181
1. 6</w> 181
y6 6</w> 181
glo bal</w> 181
ari el</w> 181
sw ing</w> 181
fan cy</w> 181
dani el 181
mechani cal</w> 181
bever ly</w> 181
d get</w> 180
g ate</w> 180
9 m</w> 180
蓝 宝石</w> 180
白 光</w> 180
加 密</w> 180
天 空</w> 180
胸 章</w> 180
记 事 180
子 星</w> 180
刀 具</w> 180
分 隔</w> 180
喜 欢</w> 180
原 液</w> 180
铂 金</w> 180
ar ch</w> 180
di ary</w> 180
te al</w> 180
ko se</w> 180
pro 2019</w> 180
40 - 180
ak o</w> 180
ca len 180
over all</w> 180
free bies</w> 180
my phone</w> 180
van ity</w> 180
hydr o</w> 180
spro cket</w> 180
degre e</w> 180
triu mph</w> 180
replac eable</w> 180
e s- 179
0 p</w> 179
0 50 179
7 50ml</w> 179
g 5</w> 179
k as 179
深 v</w> 179
机 架</w> 179
马 拉 179
鞋 面</w> 179
库 里</w> 179
安 心</w> 179
气 囊</w> 179
组 合 179
兰 特</w> 179
记 忆 179
an cho 179
re new</w> 179
lo lita</w> 179
st ers</w> 179
si ons</w> 179
am az 179
us ers</w> 179
de tai 179
go t</w> 179
pi ston</w> 179
19 70</w> 179
wal king</w> 179
swi ss</w> 179
-2 4</w> 179
lay ers</w> 179
hy po 179
squ ee 179
com pression</w> 179
ampo ule</w> 179
ct ant</w> 179
paj amas</w> 179
tou ch 179
cele br 179
adv ance</w> 179
松紧 带</w> 179
oly mp 179
emergen cy</w> 179
1 36 178
j am</w> 178
f 5 178
f light</w> 178
. 1</w> 178
小 猫</w> 178
布 朗</w> 178
风 车</w> 178
下 铺</w> 178
* *</w> 178
自 用</w> 178
子 )</w> 178
文 具 178
租 房</w> 178
邮 票</w> 178
闪 耀</w> 178
除 毛</w> 178
脱 毛</w> 178
幽 灵</w> 178
姓 名</w> 178
le vi 178
li - 178
so up</w> 178
ke to</w> 178
18 inches</w> 178
sc ar</w> 178
sli des</w> 178
2. 4</w> 178
dri ed</w> 178
fa b</w> 178
inter national</w> 178
eu ro 178
1000 ml</w> 178
m2 k</w> 178
一体 机</w> 178
d ance</w> 177
m po 177
3 -4 177
t ell</w> 177
g x 177
. 2</w> 177
b ani 177
女 潮</w> 177
乳 器</w> 177
流 沙</w> 177
纽 扣</w> 177
木 耳</w> 177
出 游</w> 177
飞 人</w> 177
子 弹</w> 177
理 发店</w> 177
巴 斯</w> 177
垫 片</w> 177
尾 灯</w> 177
锅 盖</w> 177
淡 化</w> 177
炒 锅</w> 177
互 动</w> 177
st y</w> 177
gi ld 177
pe pper 177
ka was 177
is o</w> 177
ag ate</w> 177
dvd -</w> 177
pock et 177
记事 本</w> 177
w d 176
w t</w> 176
t p- 176
h in 176
k b 176
y as 176
正 方形</w> 176
花 生</w> 176
│ 秒</w> 176
工 程 176
门 后</w> 176
靴 女</w> 176
出 差</w> 176
洗 发</w> 176
唱 歌</w> 176
添 加</w> 176
全 新 176
姐 姐</w> 176
哑 光</w> 176
各 式</w> 176
an dre 176
po we 176
ra w</w> 176
gh ty</w> 176
wi sh</w> 176
bro o 176
stra ps</w> 176
ven us</w> 176
cur tains</w> 176
black head</w> 176
gla m</w> 176
cir cu 176
collecti ble</w> 176
飞行 器</w> 176
puri fier</w> 176
ryx skincerity</w> 176
w ea 175
- s 175
m s- 175
1 set</w> 175
s g 175
k 1</w> 175
k el 175
i i 175
i gn 175
小 凳子</w> 175
z x</w> 175
制 )</w> 175
油 漆</w> 175
上 海</w> 175
鲁 夫</w> 175
粘 贴</w> 175
隔 层</w> 175
燕 麦</w> 175
芒 果</w> 175
定 时</w> 175
我 们</w> 175
计 时 175
重 机</w> 175
室 内外</w> 175
首 尔</w> 175
概 论</w> 175
as ted</w> 175
li me</w> 175
on line</w> 175
mo ti 175
ear buds</w> 175
mar ks</w> 175
24 m</w> 175
dd le</w> 175
99 99</w> 175
kni ght</w> 175
2- in-1</w> 175
a7 7</w> 175
jas mine</w> 175
sac he 175
writ ing</w> 175
适用 于</w> 175
百褶 裙</w> 175
calcu lator</w> 175
oat meal</w> 175
a vi 174
a de</w> 174
l bs</w> 174
刺 青</w> 174
西 餐</w> 174
预 订</w> 174
单 色</w> 174
全 新)</w> 174
碗 筷</w> 174
集 中</w> 174
完 全</w> 174
镶 嵌</w> 174
纯 天然</w> 174
降 噪</w> 174
椭 圆</w> 174
re vit 174
se al 174
be ans</w> 174
ele ment</w> 174
for e</w> 174
36 - 174
19 - 174
sta ge</w> 174
bur ner</w> 174
lin e 174
pc .</w> 174
sat a</w> 174
pin ea 174
ruff les</w> 174
kh aki</w> 174
stro ng</w> 174
健身 房</w> 174
e os</w> 173
- t 173
2 pc</w> 173
a 60</w> 173
k at</w> 173
f ing 173
o xi 173
o ther</w> 173
l / 173
i g</w> 173
大 款</w> 173
女 仆</w> 173
经 济</w> 173
新 竹</w> 173
托 架</w> 173
天 梭</w> 173
个 子</w> 173
总 成</w> 173
成 功</w> 173
原 色</w> 173
声 光</w> 173
披 风</w> 173
厨 具</w> 173
齐 全</w> 173
锁 头</w> 173
勺 子</w> 173
拇 指</w> 173
re no 173
re seller</w> 173
lo ot 173
ac ade 173
hi king</w> 173
li ft</w> 173
se same</w> 173
sh ut 173
br ai 173
2. 1</w> 173
2. 1a</w> 173
17 5</w> 173
dis ru 173
ge ome 173
3- 4</w> 173
charac ters</w> 173
moun tain</w> 173
pal m</w> 173
citi zen</w> 173
carter 's</w> 173
佩佩 猪</w> 173
t1 ／</w> 173
daniel wellington</w> 173
( 6</w> 172
a 40</w> 172
卡 )</w> 172
c 3</w> 172
c av 172
风 铃</w> 172
大 陆</w> 172
金 证</w> 172
扩 充</w> 172
男 人</w> 172
菲 拉 172
洁 净</w> 172
音 机</w> 172
箱 包</w> 172
不 沾</w> 172
立 体 172
富 贵</w> 172
服 务</w> 172
冠 希</w> 172
钢 管</w> 172
杜 兰特</w> 172
re trac 172
po u 172
bo ss 172
vi t</w> 172
12 v 172
pe dal</w> 172
chan ce</w> 172
ban presto</w> 172
iphone 6/ 172
one - 172
y6 2018</w> 172
ir ving</w> 172
ultra boost</w> 172
die sel</w> 172
titani um</w> 172
aromat her 172
diap ers</w> 172
kawas aki</w> 172
sache ts</w> 172
pinea pple</w> 172
e qui 171
w ear 171
g 6</w> 171
s x 171
i x 171
i an</w> 171
n u</w> 171
小 米 171
小 妹</w> 171
小 伙伴</w> 171
' s 171
风 火 171
b h</w> 171
正 宗</w> 171
松 饼</w> 171
光 学</w> 171
修 饰</w> 171
木 板</w> 171
奥 迪</w> 171
泳 池</w> 171
挂 表</w> 171
藏 版</w> 171
皆 可</w> 171
co uture</w> 171
le ft</w> 171
at t 171
ro be</w> 171
po ny 171
ne ver 171
un i</w> 171
de scription</w> 171
ter nal</w> 171
12 6</w> 171
tr ain</w> 171
18 8</w> 171
60 2</w> 171
bal ly</w> 171
chan ge</w> 171
jo e</w> 171
eri zed</w> 171
spi ral</w> 171
ge on</w> 171
out put</w> 171
accesso ry</w> 171
cen se</w> 171
平底 锅</w> 171
non- slip</w> 171
dry ing</w> 171
esp adri 171
kids ton</w> 171
mun a 171
音乐 盒</w> 171
bobb i</w> 171
3 月</w> 170
r d 170
p ain</w> 170
& g</w> 170
大 众</w> 170
烤 炉</w> 170
一 直</w> 170
心 形</w> 170
达 人</w> 170
门 市</w> 170
发 廊</w> 170
菜 板</w> 170
芝 麻</w> 170
夜 灯</w> 170
荷 兰</w> 170
打 印 170
壁 饰</w> 170
霸 王</w> 170
午 茶</w> 170
未 使用</w> 170
锻 炼</w> 170
co ck</w> 170
co mic</w> 170
er ina</w> 170
lo g 170
st ing</w> 170
st ate</w> 170
en er</w> 170
ba d 170
br y 170
min a</w> 170
char lotte</w> 170
ath le 170
70 1</w> 170
mu ji</w> 170
55 5</w> 170
chro no 170
ga- 110</w> 170
holi day</w> 170
paci fier</w> 170
peo ple</w> 170
( 日本</w> 169
m 9 169
m eric</w> 169
1 100</w> 169
1 200 169
3 30 169
t r</w> 169
j d</w> 169
k . 169
k ri 169
f w 169
i d 169
c 1</w> 169
c 6</w> 169
u l</w> 169
晒 衣架</w> 169
长 型</w> 169
女 郎</w> 169
中 童</w> 169
实 心</w> 169
克 兰</w> 169
胶 条</w> 169
香 味</w> 169
商 场</w> 169
冷 藏</w> 169
珍 藏</w> 169
人 缘</w> 169
控 制 169
投 影机</w> 169
副 食品</w> 169
ni ll 169
wh at</w> 169
desig ner</w> 169
tri - 169
80 8</w> 169
gr ace</w> 169
clo set</w> 169
tro users</w> 169
ka ws</w> 169
38 mm</w> 169
nu mbers</w> 169
cra zy</w> 169
han na</w> 169
read ing</w> 169
cl ai 169
a 2 168
p b</w> 168
& 优</w> 168
海 马</w> 168
金 银</w> 168
瓦 斯</w> 168
义 大利</w> 168
润 肤</w> 168
瓶 )</w> 168
法 兰</w> 168
名 &优</w> 168
舞 会</w> 168
除 湿</w> 168
梨 花</w> 168
进 化</w> 168
幼 童</w> 168
an n 168
20 4</w> 168
20 v</w> 168
me e</w> 168
me mo</w> 168
ur o</w> 168
sp inner</w> 168
pro - 168
18 650</w> 168
fu el</w> 168
du ck</w> 168
sk - 168
tri o</w> 168
-3 5</w> 168
water melon</w> 168
500 mg</w> 168
2- 3</w> 168
lan yard</w> 168
happ y 168
prime knit</w> 168
philipp ines</w> 168
牛皮 纸</w> 168
cani c</w> 168
nill kin</w> 168
m 44 167
4 ml</w> 167
t 8 167
h g 167
v 4</w> 167
外 销</w> 167
防 辐射</w> 167
私 人</w> 167
) .</w> 167
五 斗 167
米 兰</w> 167
克 罗 167
呼 吸</w> 167
+ / 167
华 硕</w> 167
芝 麻 167
刮 皮</w> 167
狮 子</w> 167
屏 幕</w> 167
穿 鞋</w> 167
勇 士</w> 167
to ds</w> 167
po made</w> 167
si de 167
ne x 167
vi bra 167
cc i</w> 167
uni que</w> 167
ani e</w> 167
par i 167
cu ff</w> 167
m- l</w> 167
is land</w> 167
-- - 167
yu n</w> 167
折叠 椅</w> 167
davi d</w> 167
station ery</w> 167
glutam ansi</w> 167
dura ble</w> 167
exerci se</w> 167
d ji</w> 166
3 ply</w> 166
h q</w> 166
q 10</w> 166
u ts</w> 166
内 衬</w> 166
五 角 166
洛 克</w> 166
艺 术 166
气 泡</w> 166
双 门</w> 166
记 录</w> 166
订 做</w> 166
接 口</w> 166
财 神</w> 166
液 态</w> 166
台 风</w> 166
檀 香</w> 166
蜗 牛</w> 166
供 奉</w> 166
璀 璨</w> 166
re le 166
ar s</w> 166
ho lic</w> 166
fo aming</w> 166
hi p 166
mo mmy</w> 166
de st 166
or i</w> 166
go ggles</w> 166
ing co</w> 166
60 8</w> 166
19 70s</w> 166
sm al</w> 166
14 5</w> 166
90 2</w> 166
coo k 166
medi cal</w> 166
tren ding</w> 166
j7 10</w> 166
foo ds</w> 166
on- hand</w> 166
boy leg</w> 166
婴儿 车</w> 166
beach kin</w> 166
aller genic</w> 166
qua ff</w> 166
brief s</w> 166
风火 轮</w> 166
( 三</w> 165
m ers</w> 165
3 50ml</w> 165
s ack</w> 165
j p</w> 165
5 v</w> 165
o lay</w> 165
i m</w> 165
小 鸭</w> 165
合 作</w> 165
燃 气</w> 165
机 )</w> 165
实 拍 165
松 木</w> 165
精 装</w> 165
直 出</w> 165
电 视 165
蛋 器</w> 165
好 吃</w> 165
拖 地</w> 165
提 升</w> 165
木 雕</w> 165
桃 红色</w> 165
明 灯</w> 165
搭 扣</w> 165
课 本</w> 165
悬 挂</w> 165
ro l 165
do min 165
gh am</w> 165
go ur 165
gi e</w> 165
30 pcs</w> 165
ski d</w> 165
sm o</w> 165
70 g</w> 165
25 pcs</w> 165
-3 6</w> 165
2. 0 165
stre chable</w> 165
3- in-1</w> 165
5. 2</w> 165
bon net</w> 165
vol canic</w> 165
opti cal</w> 165
thermo meter</w> 165
hit achi</w> 165
哆啦 a</w> 165
retrac table</w> 165
6 80 164
t actical</w> 164
s se</w> 164
5 x</w> 164
f 3 164
红 绿</w> 164
大 地</w> 164
花 苞</w> 164
花 架子</w> 164
光 镜</w> 164
水 枪</w> 164
奇 诺</w> 164
裤 头</w> 164
板 房</w> 164
洗 面 164
会 议 164
冷 淡</w> 164
人 机</w> 164
公 分)</w> 164
媒 体</w> 164
扑 克 164
画 家</w> 164
需 要</w> 164
示 牌</w> 164
co pper</w> 164
lo real</w> 164
ma gaz 164
10 8 164
sa ver</w> 164
war dro 164
sso rs</w> 164
twi sted</w> 164
christ ening</w> 164
圣诞 树</w> 164
boy friend</w> 164
shin y</w> 164
mad re</w> 164
dk ny</w> 164
roman tic</w> 164
2016 年</w> 164
drin king</w> 164
inver ter</w> 164
pepper mint</w> 164
aromather apy</w> 164
( 限定</w> 163
t b 163
9 3 163
小 兔</w> 163
家 具 163
网 格</w> 163
外 卖</w> 163
大 眼</w> 163
洗 澡 163
蓬 松</w> 163
柜 台</w> 163
佛 珠</w> 163
莎 拉 163
遮 挡</w> 163
狗 头</w> 163
医 生</w> 163
市 场</w> 163
驼 色</w> 163
整 装</w> 163
掉 色</w> 163
牡 丹</w> 163
待 机</w> 163
ac en 163
al li 163
ba d</w> 163
ma am</w> 163
mo p</w> 163
su al</w> 163
qu et</w> 163
sun shine</w> 163
sel f- 163
dr um</w> 163
ven t</w> 163
scre w 163
折叠 式</w> 163
dea d</w> 163
fal se</w> 163
nap kin</w> 163
tek no</w> 163
gild an</w> 163
e po 162
d 3</w> 162
m g 162
m ush 162
4 mm</w> 162
f c 162
y 11</w> 162
v as 162
小 站</w> 162
红 豆</w> 162
衣 帽</w> 162
罩 杯</w> 162
大 功率</w> 162
三 联</w> 162
流 浪</w> 162
车 架</w> 162
电 锅</w> 162
爆 裂</w> 162
扣 头</w> 162
唇 彩</w> 162
反 折</w> 162
台 上</w> 162
交 通</w> 162
碳 素</w> 162
铸 铁</w> 162
ar c 162
al do</w> 162
ro ll 162
hi fi</w> 162
li an</w> 162
20 / 162
20 3</w> 162
so me 162
je ssi 162
gra phy</w> 162
ps p</w> 162
is sey</w> 162
cat h</w> 162
mr .</w> 162
tho r</w> 162
nut r 162
rect angular</w> 162
dire ct</w> 162
ame thy 162
anni vers 162
raider 150</w> 162
muna fie</w> 162
4 28 161
c ation</w> 161
正 生</w> 161
光 泽</w> 161
梦 想</w> 161
新 加 161
回 馈</w> 161
茶 树</w> 161
甜 甜 161
画 画</w> 161
计 学</w> 161
样 板房</w> 161
细 致</w> 161
楠 竹</w> 161
re becca</w> 161
ar on</w> 161
st d</w> 161
ba c</w> 161
mo tion</w> 161
vi ce</w> 161
11 4</w> 161
bu ff 161
va ult</w> 161
tor o</w> 161
ml /</w> 161
sn ake</w> 161
she a</w> 161
is ure</w> 161
nu ts</w> 161
sen s 161
qui l 161
sci ssors</w> 161
nen do 161
brassi ere</w> 161
e pic</w> 160
w u 160
2 ml</w> 160
j 8 160
o va</w> 160
l b</w> 160
n n 160
机 电</w> 160
连 接</w> 160
吉 祥</w> 160
烟 器</w> 160
陈 列</w> 160
工 学</w> 160
气 压</w> 160
粉 扑</w> 160
袋 )</w> 160
冷 暖</w> 160
维 尼 160
毛 笔</w> 160
低 胸</w> 160
绝 地</w> 160
劳 保</w> 160
什 么</w> 160
滑 轮</w> 160
遇 见</w> 160
bo mb</w> 160
ma p</w> 160
mo ssimo</w> 160
do ctors</w> 160
mar t</w> 160
fe e</w> 160
fe el</w> 160
11 9</w> 160
pe pper</w> 160
sc ape</w> 160
1. 0</w> 160
25 cm</w> 160
stre am</w> 160
ys l 160
gucci /</w> 160
pet ite</w> 160
conver ter</w> 160
ggi es</w> 160
256 gb</w> 160
食品 级</w> 160
powe red</w> 160
新加 坡</w> 160
- 001</w> 159
3 l</w> 159
t ac 159
r g</w> 159
h eng</w> 159
g ap 159
o phi 159
l ace 159
n ct</w> 159
v 17</w> 159
司 机</w> 159
红 木</w> 159
x 9 159
海 道</w> 159
关 节</w> 159
老 花 159
北 极 159
白 板</w> 159
无 瑕</w> 159
最 高</w> 159
苏 打</w> 159
假 花</w> 159
润 泽</w> 159
曜 石</w> 159
骑 车</w> 159
台 桌</w> 159
碳 纤</w> 159
只 要</w> 159
插 画</w> 159
走 路</w> 159
省 力</w> 159
拳 击</w> 159
mo uth</w> 159
50 mm</w> 159
uni t</w> 159
ru by</w> 159
gir l 159
bea d</w> 159
ha wk</w> 159
y9 2019</w> 159
tran scen 159
垃圾 袋</w> 159
j2 pro</w> 159
pain ted</w> 159
nut ri 159
sele ct</w> 159
nin ja</w> 159
chang ing</w> 159
rou ge</w> 159
tony moly</w> 159
( c 158
e y</w> 158
w y</w> 158
d al 158
m .</w> 158
7 10 158
t 4 158
p r</w> 158
j y</w> 158
i con</w> 158
n 4 158
b ws</w> 158
大 耳</w> 158
黑 曜石</w> 158
恤 衫</w> 158
! )</w> 158
枕 芯</w> 158
桃 木</w> 158
袖 珍</w> 158
俱 乐 158
洗 头</w> 158
散 热器</w> 158
垫 脚</w> 158
刻 度</w> 158
钢 针</w> 158
睡 袍</w> 158
消 毒 158
投 影 158
橄 榄 158
an te 158
ar row</w> 158
ac cent</w> 158
li er</w> 158
di va</w> 158
lu ffy</w> 158
cas h 158
ea 7</w> 158
sp in</w> 158
no vel</w> 158
au str 158
car o 158
sto rm</w> 158
che tte</w> 158
24 cm</w> 158
bal ls</w> 158
note 9</w> 158
99 6</w> 158
ther mos</w> 158
dea d 158
holi ka</w> 158
john son</w> 158
bapti smal</w> 158
ginger snaps</w> 158
( b 157
6 吋</w> 157
t 桖</w> 157
r l 157
j 6plus</w> 157
k 0 157
f el 157
o x</w> 157
美 味</w> 157
防 汗</w> 157
长 靴</w> 157
智 力</w> 157
北 海道</w> 157
吊 床</w> 157
安 德 157
变 速</w> 157
分 离</w> 157
巨 人</w> 157
酒 器</w> 157
乌 龟</w> 157
度 计</w> 157
模 拟</w> 157
剪 裁</w> 157
ba re 157
ba pe</w> 157
th u 157
shi mmer</w> 157
pi d</w> 157
gin gham</w> 157
be ats</w> 157
pan t</w> 157
sa y</w> 157
nat ure 157
lit ter</w> 157
fore st</w> 157
nova 2lite</w> 157
gro wer</w> 157
foot wear</w> 157
dior 迪奥 157
gel - 157
(小 )</w> 157
house hold</w> 157
stren gth</w> 157
扑克 牌</w> 157
m mi 156
2 gb</w> 156
a )</w> 156
a le 156
r pm</w> 156
g t- 156
j t 156
o int 156
l ala</w> 156
y an 156
潮 t</w> 156
花 艺</w> 156
盖 布</w> 156
灵 顿</w> 156
真 人</w> 156
发 售</w> 156
眼 膜</w> 156
切 割 156
柜 门</w> 156
回 收</w> 156
早 秋</w> 156
目 镜</w> 156
试 题</w> 156
in it 156
it alian</w> 156
st e</w> 156
ch as 156
pi yao</w> 156
12 2</w> 156
pl er</w> 156
15 8</w> 156
sa c</w> 156
3. 8</w> 156
ket tle</w> 156
sal va 156
hard bound</w> 156
ancho r</w> 156
wardro be</w> 156
甜甜 圈</w> 156
nendo roid</w> 156
俱乐 部</w> 156
d l</w> 155
2 x 155
r ate</w> 155
h as 155
h ang</w> 155
p g 155
手 持 155
f 0 155
v t</w> 155
x b 155
古 铜</w> 155
屁 股</w> 155
+ 1</w> 155
便 条 155
道 教</w> 155
扣 环</w> 155
分 享</w> 155
珍 品</w> 155
珍 珠 155
梅 花</w> 155
全 面</w> 155
佛 像</w> 155
方 桌</w> 155
检 测</w> 155
计 算 155
世 代</w> 155
摇 头</w> 155
薯 条</w> 155
钮 扣</w> 155
迎 宾</w> 155
lu ck 155
la t</w> 155
de o 155
sp lash</w> 155
wi per</w> 155
be ef</w> 155
be fore</w> 155
11 . 155
sm all- 155
ca ge</w> 155
lin a</w> 155
em po 155
long - 155
a7 9</w> 155
il lumin 155
activ ated</w> 155
nouri shing</w> 155
博柏 利</w> 155
( m 154
e c</w> 154
e ve</w> 154
d in 154
3 90</w> 154
r u</w> 154
s am</w> 154
手 饰</w> 154
k 7</w> 154
o per 154
c hoo 154
c run 154
娜 娜</w> 154
极 限</w> 154
购 价</w> 154
大 大</w> 154
下 午茶</w> 154
三 洋</w> 154
球 员</w> 154
玛 莎拉 154
无 缝</w> 154
电 容</w> 154
藤 椅</w> 154
提 琴</w> 154
补 丁</w> 154
羊 羔</w> 154
喜 糖</w> 154
眼 圈</w> 154
留 言</w> 154
墙 角</w> 154
猫 眼</w> 154
孔 雀</w> 154
嫁 接</w> 154
re ci 154
co t</w> 154
co ro 154
le isure</w> 154
to re</w> 154
cas tor</w> 154
de x</w> 154
bl k</w> 154
br o</w> 154
12 1</w> 154
30 5</w> 154
wal lets</w> 154
ber ry 154
bea ut 154
-3 2</w> 154
spe ci 154
note 10</w> 154
moi st</w> 154
mk 6 154
gt x</w> 154
shar pen 154
pam pers</w> 154
phy si 154
secon d</w> 154
disru ptor</w> 154
vibra tor</w> 154
annivers ary</w> 154
投影 仪</w> 154
w h</w> 153
d ut 153
d den</w> 153
m 5</w> 153
8 1 153
2 x</w> 153
r r</w> 153
k 2 153
f o</w> 153
l ery</w> 153
x z 153
网 状</w> 153
刺 猬</w> 153
摩 登</w> 153
叉 子</w> 153
高 贵</w> 153
+ +</w> 153
拖 车</w> 153
百 搭 153
单 眼</w> 153
毛 毡</w> 153
地 球</w> 153
干 果</w> 153
巨 无 153
培 训</w> 153
st ance</w> 153
mo mo</w> 153
su gar 153
go go 153
au ro 153
pi geon</w> 153
per ry</w> 153
fe e 153
hea ds</w> 153
sa lon</w> 153
pen gu 153
25 mm</w> 153
200 8</w> 153
lip o</w> 153
tur meric</w> 153
make -up</w> 153
玻璃 瓶</w> 153
tar te</w> 153
hot wheels</w> 153
yar n</w> 153
disinfe ctant</w> 153
zir con</w> 153
calen dar</w> 153
transcen d</w> 153
oint ment</w> 153
init ial</w> 153
便条 纸</w> 153
( 超</w> 152
d j</w> 152
8 19 152
7 )</w> 152
r 2</w> 152
s se 152
f 7 152
l r</w> 152
v able</w> 152
莲 蓬 152
防 虫</w> 152
相 册</w> 152
金 )</w> 152
光 阳</w> 152
夹 层</w> 152
兜 兜</w> 152
惠 灵顿</w> 152
满 意</w> 152
姐 妹</w> 152
研 磨</w> 152
哑 铃</w> 152
管 道</w> 152
溜 冰鞋</w> 152
医 疗</w> 152
期 限</w> 152
ro d</w> 152
ma r</w> 152
24 - 152
tu b</w> 152
tu red</w> 152
1. 0 152
her b</w> 152
hol low</w> 152
stra p 152
rubb erized</w> 152
lat est</w> 152
han abi 152
plan e</w> 152
inst a</w> 152
洗发 水</w> 152
king ston</w> 152
scoo ter</w> 152
jui cy</w> 152
round neck</w> 152
equi pment</w> 152
8 x</w> 151
f . 151
f ry 151
i . 151
' t</w> 151
吋 )</w> 151
物 品</w> 151
机 柜</w> 151
背 带 151
东 西</w> 151
去 除</w> 151
包 覆</w> 151
铁 皮</w> 151
木 色</w> 151
菜 刀</w> 151
[ l</w> 151
: :</w> 151
夜 间</w> 151
迪 奥</w> 151
奶 器</w> 151
代 购)</w> 151
冰 块</w> 151
敏 感</w> 151
都 市</w> 151
竞 技</w> 151
增 压</w> 151
俄 罗斯</w> 151
in se 151
si der</w> 151
un ited</w> 151
wo w</w> 151
12 mm</w> 151
ad di 151
ju sti 151
25 - 151
ach able</w> 151
jord an 151
skin care</w> 151
tur tle 151
fr ance</w> 151
sch e</w> 151
uti lity</w> 151
up tempo</w> 151
top shop</w> 151
engin e 151
rot ating</w> 151
eth yl</w> 151
rea der</w> 151
steph en</w> 151
scrat ch</w> 151
记忆 体</w> 151
magaz ine</w> 151
手持 式</w> 151
( 直</w> 150
e z 150
m 60 150
s ink</w> 150
j h 150
9 t</w> 150
l p 150
v 1</w> 150
布 衣</w> 150
美 学</w> 150
机 箱</w> 150
空 白</w> 150
金 箔</w> 150
蓝 光</w> 150
套 头 150
彩 膜</w> 150
好 运</w> 150
罐 头</w> 150
便 捷</w> 150
[ x</w> 150
国 外</w> 150
唱 片</w> 150
奶 奶</w> 150
零 售</w> 150
结 单</w> 150
除 尘</w> 150
乔 治</w> 150
柠 檬 150
练 习 150
认 明</w> 150
re ll</w> 150
st at 150
bo ur 150
lu ck</w> 150
lu re</w> 150
la d 150
ki m</w> 150
sp ray 150
au di</w> 150
30 2</w> 150
yo yo</w> 150
sil ky</w> 150
ex press</w> 150
hoo p</w> 150
mu les</w> 150
spe c 150
anti bacterial</w> 150
sur face</w> 150
mt b</w> 150
fin al</w> 150
musi cal</w> 150
reser ved</w> 150
brai ded</w> 150
巨无 霸</w> 150
hanabi shi</w> 150
0 -3 149
t 7 149
t g</w> 149
h ush</w> 149
g oro</w> 149
p d 149
x 12</w> 149
用 款</w> 149
马 尾</w> 149
过 家家</w> 149
处 理</w> 149
异 味</w> 149
时 尚 149
最 佳</w> 149
聚 会</w> 149
种 植</w> 149
公 园</w> 149
冰 冰</w> 149
望 远 149
钢 丝</w> 149
檀 木</w> 149
探 索</w> 149
re pri 149
as sy</w> 149
lo t 149
le - 149
le mon 149
li s</w> 149
po chette</w> 149
ne eds</w> 149
shi ft</w> 149
bu g</w> 149
sk ull</w> 149
bal i</w> 149
200 5</w> 149
17 pro</w> 149
fac ed</w> 149
cand les</w> 149
don ut</w> 149
bath ing</w> 149
tit an</w> 149
soft gels</w> 149
水果 盘</w> 149
dyn amic</w> 149
frog suit</w> 149
mang a</w> 149
revit ali 149
洗面 奶</w> 149
ophi dia</w> 149
莲蓬 头</w> 149
望远 镜</w> 149
6 3 148
7 20 148
手 掌</w> 148
j el 148
5 x 148
i su 148
v on</w> 148
小 飞 148
小 个子</w> 148
马 自 148
化 学</w> 148
护 套</w> 148
气 管</w> 148
百 搭</w> 148
发 卡</w> 148
麻 辣</w> 148
刀 片</w> 148
瑞 典</w> 148
主 食</w> 148
八 五</w> 148
路 由 148
宫 崎 148
湿 机</w> 148
旋 转 148
锁 扣</w> 148
启 动</w> 148
lo west</w> 148
lo tus</w> 148
ri n</w> 148
hi ll</w> 148
li sa</w> 148
se c</w> 148
bo mb 148
on ce</w> 148
de ss 148
ko ut</w> 148
min ions</w> 148
50 2</w> 148
12 4</w> 148
36 -39</w> 148
gr and 148
25 ml</w> 148
iphone 7/ 148
lat iv</w> 148
fen g</w> 148
mini m 148
pin ky</w> 148
shu i</w> 148
vapo r</w> 148
路由 器</w> 148
d or 147
p f</w> 147
5 12</w> 147
n . 147
美 睫</w> 147
如 图</w> 147
瑕 疵</w> 147
国 家</w> 147
不 可</w> 147
震 器</w> 147
立 牌</w> 147
猎 人</w> 147
领 劵</w> 147
贵 妃</w> 147
整 组</w> 147
绷 带</w> 147
琥 珀</w> 147
re cor 147
re packed</w> 147
co ated</w> 147
ho p</w> 147
at tire</w> 147
hi n</w> 147
si sley</w> 147
go goro</w> 147
men t 147
ju n</w> 147
blo oming</w> 147
80 1</w> 147
13 3</w> 147
ten g</w> 147
2. 8</w> 147
dr i</w> 147
mu ff 147
op po 147
note 2</w> 147
sau r</w> 147
fan tech</w> 147
bos ton</w> 147
- h 146
8 50</w> 146
1 300</w> 146
a / 146
a &</w> 146
a 80</w> 146
r 3</w> 146
h ur 146
n md 146
. ph</w> 146
v s 146
u ra 146
衣 镜</w> 146
制 作 146
b .</w> 146
迷 人</w> 146
迷 你 146
可 伸缩</w> 146
安 德玛</w> 146
蛋 卷</w> 146
圆 型</w> 146
卖 )</w> 146
步 车</w> 146
全 屏</w> 146
除 湿机</w> 146
永 恒</w> 146
脖 子</w> 146
重 型</w> 146
温 度</w> 146
今 日</w> 146
项 链 146
攻 略</w> 146
细 节</w> 146
端 子</w> 146
插 花</w> 146
模 特</w> 146
in do 146
in side</w> 146
st .</w> 146
si x</w> 146
mi ya 146
fi x 146
plu shi 146
be dro 146
air po 146
bre ad</w> 146
y6 pro</w> 146
mini figure</w> 146
gy mbo 146
bio aqua</w> 146
proje ctor</w> 146
absor b 146
even ing</w> 146
friend ly</w> 146
收银 台</w> 146
rilak kuma</w> 146
天鹅 绒</w> 146
levi 's</w> 146
m j 145
g c 145
s max</w> 145
手 推</w> 145
5 12 145
9 90</w> 145
" \</w> 145
o reo</w> 145
y n 145
c j</w> 145
装 潢</w> 145
b r</w> 145
调 情</w> 145
黑 )</w> 145
基 酸</w> 145
中 生</w> 145
生 命</w> 145
蜡 笔</w> 145
鞋 底</w> 145
米 老鼠</w> 145
附 发票</w> 145
罐 装</w> 145
桃 色</w> 145
记 录器</w> 145
盆 架</w> 145
菊 花</w> 145
湖 水</w> 145
原 矿</w> 145
留 )</w> 145
穆 勒</w> 145
穿 衣镜</w> 145
挑 战</w> 145
夸 张</w> 145
ar den</w> 145
it su 145
ri ch 145
di p</w> 145
th at</w> 145
ki ki</w> 145
sp read</w> 145
sh ed</w> 145
pa ul 145
uni form</w> 145
sig nal</w> 145
ang el 145
tre ss</w> 145
1. 4</w> 145
ash es</w> 145
cu tie</w> 145
prote in</w> 145
28 cm</w> 145
har ness</w> 145
lex us</w> 145
base us</w> 145
abercrom bie</w> 145
sport s 145
alex ander</w> 145
modu le</w> 145
染发 剂</w> 145
chrono graph</w> 145
auro ra</w> 145
宫崎 骏</w> 145
e a</w> 144
1 -</w> 144
g ed</w> 144
i 6</w> 144
v 7plus</w> 144
乐 高 144
b inder</w> 144
中 大</w> 144
花 花 144
保 时</w> 144
鱼 骨</w> 144
夹 心</w> 144
水 光</w> 144
提 袋</w> 144
会 员</w> 144
维 生 144
体 乳</w> 144
口 径</w> 144
床 边柜</w> 144
跟 单</w> 144
in du 144
le vi</w> 144
to wn</w> 144
di ent</w> 144
un ds</w> 144
min d</w> 144
we st 144
15 6</w> 144
sm - 144
gra pe 144
bur st</w> 144
pat ter 144
light stick</w> 144
aro ma</w> 144
xl )</w> 144
pun ch</w> 144
sar ah</w> 144
过滤 网</w> 144
飞行 员</w> 144
emp ty</w> 144
oli via</w> 144
pari sian</w> 144
pengu in</w> 144
justi ce</w> 144
isu zu</w> 144
d z 143
d an</w> 143
m 0 143
2 70 143
6 月</w> 143
t ing 143
r .</w> 143
h l</w> 143
s woo 143
手 办</w> 143
o s 143
n sw</w> 143
x u 143
图 解</w> 143
包 机</w> 143
精 英</w> 143
彩 灯</w> 143
热 敷</w> 143
双 排扣</w> 143
莱 卡</w> 143
良 好</w> 143
商 品 143
瓶 器</w> 143
麦 片</w> 143
浅 灰</w> 143
行 家</w> 143
声 控</w> 143
杨 幂</w> 143
ro uter</w> 143
se ason 143
me as 143
mo de</w> 143
201 6- 143
sh f</w> 143
da vis</w> 143
pro / 143
ang ler</w> 143
15 cm</w> 143
pu pp 143
tin ts</w> 143
lat ex</w> 143
mini ature</w> 143
il lu 143
thro w</w> 143
lb c</w> 143
jack ets</w> 143
himala yan</w> 143
flavo red</w> 143
打印 机</w> 143
控制 器</w> 143
empo rio</w> 143
bedro om</w> 143
h ul 142
g ur 142
5 w</w> 142
5 10</w> 142
9 50</w> 142
f ted</w> 142
纺 布</w> 142
y ab 142
' m</w> 142
亚 曼尼</w> 142
马 来 142
女 帝</w> 142
松 鼠</w> 142
自 行</w> 142
食 用</w> 142
棉 外套</w> 142
托 特 142
多 拉</w> 142
心 率</w> 142
音 频</w> 142
土 耳 142
接 收 142
成 年</w> 142
尾 巴</w> 142
妃 包</w> 142
方 格</w> 142
册 )</w> 142
性 爱</w> 142
an ten 142
re ne</w> 142
co me 142
le le</w> 142
ro g</w> 142
am u 142
car pet</w> 142
14 . 142
multi media</w> 142
ag es</w> 142
fen ty</w> 142
a7 2018</w> 142
goo gle</w> 142
sco pe</w> 142
ultra - 142
热销 #</w> 142
dino saur</w> 142
k ab 141
海 豚</w> 141
童 趣</w> 141
大 叔</w> 141
背 包 141
自 动 141
新 生</w> 141
胡 子</w> 141
无 纺布</w> 141
野 兽</w> 141
波 特</w> 141
圆 珠</w> 141
良 品</w> 141
肤 宝 141
超 越</w> 141
售 出)</w> 141
茶 器</w> 141
资 料 141
画 板</w> 141
淡 斑</w> 141
宣 传</w> 141
le e 141
sp lit</w> 141
do w 141
no ir</w> 141
vi c 141
cre di 141
tra ding</w> 141
por sche</w> 141
fla kes</w> 141
note 4</w> 141
sen se 141
mk 5 141
reju vin 141
flu id</w> 141
tech no 141
raz or</w> 141
geome tric</w> 141
log itech</w> 141
strap less</w> 141
gymbo ree</w> 141
swoo sh</w> 141
( 白 140
d z</w> 140
t ang 140
i ce 140
c n 140
c s- 140
小 铺</w> 140
b g 140
b n</w> 140
金 边</w> 140
提 篮</w> 140
枕 头套</w> 140
绿 )</w> 140
贴 花</w> 140
随 意</w> 140
接 器</w> 140
理 发</w> 140
战 神</w> 140
春 天</w> 140
证 书</w> 140
锂 电池</w> 140
混 合</w> 140
仰 卧</w> 140
it an</w> 140
at f</w> 140
di ac</w> 140
mo us 140
br ass</w> 140
min iso</w> 140
gu m</w> 140
be gin 140
18 5</w> 140
60 3</w> 140
mon th</w> 140
wa y 140
90 1</w> 140
cam o</w> 140
skin food</w> 140
sha wl</w> 140
lan tern</w> 140
hon g 140
fold ed</w> 140
fa ith</w> 140
购物 车</w> 140
3/ 4</w> 140
sci ence</w> 140
kl airs</w> 140
fortun er</w> 140
succ u 140
bry ant</w> 140
五角 星</w> 140
repri ced</w> 140
土耳 其</w> 140
( 原</w> 139
d l 139
2 35 139
3 rd</w> 139
o h 139
快 感</w> 139
b f 139
物 理</w> 139
女 靴</w> 139
铺 ㊣</w> 139
晴 雨伞</w> 139
白 雪 139
护 目镜</w> 139
个 )</w> 139
学 步车</w> 139
简 洁</w> 139
爆 款 139
号 码</w> 139
墨 绿</w> 139
烛 台</w> 139
银 楼</w> 139
薄 纱</w> 139
沉 香</w> 139
染 发</w> 139
区 )</w> 139
腕 带</w> 139
柚 子</w> 139
讲 义</w> 139
in nova</w> 139
re sc 139
lo u</w> 139
ho pe</w> 139
to l 139
ma inten 139
sho o 139
th read</w> 139
mi k 139
fi ghter</w> 139
do ws</w> 139
12 9</w> 139
mar sh 139
hu da</w> 139
手提 式</w> 139
eni x</w> 139
chan g</w> 139
tre ats</w> 139
cho p 139
air con</w> 139
comp lex</w> 139
bon d</w> 139
eyel ashes</w> 139
0- 3</w> 139
cit ro 139
arti fi 139
scoo p</w> 139
sai lor</w> 139
sus pen 139
mother care</w> 139
screw driver</w> 139
mush room</w> 139
小飞 象</w> 139
e 27</w> 138
d t</w> 138
1 "</w> 138
1 x 138
t 短</w> 138
h 0 138
s /</w> 138
s top</w> 138
p ai 138
f ty</w> 138
f go</w> 138
l 码</w> 138
v 5 138
v ity</w> 138
x c</w> 138
x s/ 138
比 亚</w> 138
大 量</w> 138
实 务</w> 138
卷 边</w> 138
沙 龙</w> 138
木 床</w> 138
兰 芝</w> 138
胖 胖</w> 138
传 输</w> 138
主 持 138
石 英 138
闪 灯</w> 138
喷 雾 138
钓 竿</w> 138
汤 碗</w> 138
鼠 年</w> 138
应 用</w> 138
穿 过</w> 138
重 工</w> 138
栅 栏</w> 138
en ne</w> 138
se ven</w> 138
ch an</w> 138
di et</w> 138
ter o</w> 138
pi ano</w> 138
che f</w> 138
gra dient</w> 138
clo se</w> 138
-3 8</w> 138
200 7</w> 138
spi ce</w> 138
ph ar 138
hy alu 138
zo diac</w> 138
max x</w> 138
mari e</w> 138
om nia</w> 138
xr m 138
poli ce</w> 138
brush es</w> 138
doll shoes</w> 138
pig ment</w> 138
水晶 球</w> 138
deca y</w> 138
马自 达</w> 138
( 白)</w> 137
d s- 137
d square 137
1 -0 137
t ul 137
h av 137
j j</w> 137
k ur 137
f m 137
f ad 137
n ers</w> 137
极 品</w> 137
实 验</w> 137
电 源 137
普 通</w> 137
多 彩</w> 137
少 量</w> 137
学 t</w> 137
文 乐</w> 137
凉 被</w> 137
缇 花</w> 137
钻 戒</w> 137
方 框</w> 137
刹 车</w> 137
沛 纳 137
喇 叭 137
蔷 薇</w> 137
鲤 鱼</w> 137
避 震器</w> 137
at i</w> 137
201 5 137
sp y 137
min ers</w> 137
vi vi</w> 137
car b</w> 137
40 2</w> 137
hu a 137
ex per 137
tra p</w> 137
200 9</w> 137
cur l</w> 137
san -x</w> 137
high quality</w> 137
sur f</w> 137
ren ce</w> 137
infin ite</w> 137
alph abo 137
三角 形</w> 137
oi ls</w> 137
cei ling</w> 137
史迪 奇</w> 137
exfoli ating</w> 137
celebr ity</w> 137
bani la</w> 137
salva tore</w> 137
维生 素</w> 137
indu stri 137
rejuvin ating</w> 137
e ster</w> 136
m ain</w> 136
8 x 136
8 cm</w> 136
h b</w> 136
g 7 136
q i 136
o c</w> 136
i 5</w> 136
筒 靴</w> 136
机 手</w> 136
背 巾</w> 136
基 本 136
线 香</w> 136
母 婴</w> 136
清 水</w> 136
修 补</w> 136
色 彩</w> 136
棉 鞋</w> 136
半 透明</w> 136
活 页</w> 136
仙 子</w> 136
开 花</w> 136
夏 威 136
音 质</w> 136
链 带</w> 136
贴 纸 136
订 购</w> 136
板 桥</w> 136
树 叶</w> 136
贝 儿</w> 136
石 榴</w> 136
延 长</w> 136
湿 巾</w> 136
求 婚</w> 136
岁 月</w> 136
to k</w> 136
en e 136
20 8</w> 136
ch in 136
ne stle</w> 136
on ly 136
la kers</w> 136
el bow</w> 136
be tter</w> 136
hu ggies</w> 136
ste amer</w> 136
13 1</w> 136
ja zz</w> 136
jan e</w> 136
遥控 车</w> 136
givea way</w> 136
usb 3.0</w> 136
balan ce 136
p30 lite</w> 136
便利 店</w> 136
'o real</w> 136
hypo allergenic</w> 136
beaut y 136
minim alist</w> 136
接收 器</w> 136
( 2 135
d b</w> 135
d ami 135
m x</w> 135
m ble</w> 135
t ti</w> 135
h c 135
s ket 135
9 g</w> 135
y 19</w> 135
装 修</w> 135
极 光</w> 135
' pie 135
神 秘</w> 135
镜 框</w> 135
亚 马 135
亚 洲</w> 135
私 处</w> 135
) :</w> 135
长 度</w> 135
韩 版</w> 135
年 终</w> 135
电 饭 135
活 性</w> 135
吊 篮</w> 135
限 定 135
开 幕</w> 135
净 化器</w> 135
阿 拉 135
底 裤</w> 135
夫 妻</w> 135
等 级</w> 135
须 刀</w> 135
倒 流</w> 135
试 衣</w> 135
in te 135
ba i 135
me at</w> 135
ti ble</w> 135
on itsu 135
ra ff 135
wi ll</w> 135
ex pand 135
chi ef</w> 135
tri cal</w> 135
he m</w> 135
let ters</w> 135
xi e</w> 135
.... ...</w> 135
bra zi 135
ple ase</w> 135
gt x 135
wr angler</w> 135
det achable</w> 135
defen se</w> 135
奇奇蒂 蒂</w> 135
chun ky</w> 135
马拉 松</w> 135
pony tail</w> 135
白雪 公主</w> 135
resc ue</w> 135
alphabo unce</w> 135
4 l</w> 134
3 pc</w> 134
t pad</w> 134
r ush 134
s word</w> 134
9 oz</w> 134
n p- 134
v ass</w> 134
c x 134
c b</w> 134
布 鲁 134
书 套</w> 134
美 杜 134
雪 茄</w> 134
马 上</w> 134
通 讯</w> 134
五 月 134
精 密</w> 134
微 波</w> 134
音 波</w> 134
圆 凳</w> 134
单 面</w> 134
刮 痧</w> 134
塑 钢</w> 134
行 销</w> 134
勇 者</w> 134
诚 信</w> 134
鉴 赏</w> 134
re fri 134
li m</w> 134
di p 134
ba dge</w> 134
ne ed 134
un sealed</w> 134
su p</w> 134
gi ord 134
ta gs</w> 134
ak er</w> 134
cam er 134
water color</w> 134
zo o 134
max / 134
tur n</w> 134
tren ch</w> 134
dou ble 134
lan cer</w> 134
flow y</w> 134
ave eno</w> 134
gif ts</w> 134
artifi cial</w> 134
hyalu ro 134
( 30</w> 133
( 保留</w> 133
- 10</w> 133
2 k 133
2 b</w> 133
t 6 133
g on</w> 133
g ang</w> 133
s ure</w> 133
q i</w> 133
k ki</w> 133
f x 133
o cto 133
n k</w> 133
件 )</w> 133
魔 方</w> 133
网 球</w> 133
b ush 133
元 气</w> 133
购 价)</w> 133
大 马</w> 133
蓝 黑</w> 133
无 法</w> 133
瓷 杯</w> 133
平 民</w> 133
餐 垫</w> 133
润 滑 133
潜 水 133
储 存</w> 133
影 片</w> 133
轮 子</w> 133
财 务</w> 133
柔 光</w> 133
历 史</w> 133
启 蒙</w> 133
远 程</w> 133
螃 蟹</w> 133
续 航</w> 133
an za</w> 133
ro ber 133
po le</w> 133
di y 133
am d</w> 133
la ura</w> 133
de ss</w> 133
car ry</w> 133
cre am 133
be ast</w> 133
cc i 133
sa f 133
ex ternal</w> 133
13 8</w> 133
fro g</w> 133
90 5</w> 133
can vass</w> 133
22 cm</w> 133
war mer</w> 133
note 3</w> 133
polo shirt</w> 133
bos sed</w> 133
三角 架</w> 133
valen tine</w> 133
\n \</w> 133
spark ling</w> 133
conver tible</w> 133
一体 式</w> 133
密码 锁</w> 133
smas h</w> 133
五斗 柜</w> 133
turtle neck</w> 133
美杜 莎</w> 133
2 10 132
4 14 132
6 20</w> 132
t 3 132
s sion</w> 132
p / 132
手 写</w> 132
卡 龙 132
i ron 132
v am 132
c / 132
合 器</w> 132
机 械 132
直 排</w> 132
兔 毛</w> 132
食 堂</w> 132
蒙 古 132
本 )</w> 132
百 年</w> 132
净 水器</w> 132
恋 人</w> 132
及 膝</w> 132
维 多 132
式 机</w> 132
煮 锅</w> 132
曲 面</w> 132
台 式机</w> 132
同 学</w> 132
许 愿</w> 132
倒 车</w> 132
lo r 132
hi dden</w> 132
bo mber</w> 132
mo mo 132
de rella</w> 132
wo men 132
qu es</w> 132
mb ps</w> 132
bel t 132
-0 3</w> 132
let tu 132
der ma 132
bra d 132
0. 5mm</w> 132
que en 132
ster y</w> 132
aa a</w> 132
best way</w> 132
保险 柜</w> 132
特价 $ 132
warri ors</w> 132
miya ke</w> 132
托特 包</w> 132
( 买</w> 131
( 公司</w> 131
- out</w> 131
a tomi 131
t m</w> 131
s g</w> 131
i ris</w> 131
z ar 131
b 4 131
马 桶 131
生 存</w> 131
刷 色</w> 131
保 健 131
保 留)</w> 131
包 巾</w> 131
无 味</w> 131
本 子</w> 131
地 图</w> 131
银 行</w> 131
销 价</w> 131
弹 跳</w> 131
晶 片</w> 131
茶 叶 131
台 布</w> 131
核 桃</w> 131
腰 部</w> 131
抛 弃</w> 131
程 式</w> 131
模 组</w> 131
ho us 131
ho riz 131
mi ss 131
car t</w> 131
per man 131
blo wer</w> 131
hu a</w> 131
80 5</w> 131
sty le 131
spe cs</w> 131
bar s</w> 131
wash er</w> 131
j7 30</w> 131
tho mas</w> 131
工具 包</w> 131
保险 箱</w> 131
abo ut</w> 131
transfor mer</w> 131
bou quet</w> 131
stan ley</w> 131
emo ji</w> 131
克罗 心</w> 131
inse ct</w> 131
mous se</w> 131
mainten ance</w> 131
onitsu ka</w> 131
refri ger 131
m vp</w> 130
a e</w> 130
a lex</w> 130
t u</w> 130
r j</w> 130
h h 130
' kitty</w> 130
日 版</w> 130
合 奏</w> 130
防 疫</w> 130
中 学生</w> 130
角 度</w> 130
男 t</w> 130
多 媒体</w> 130
音 量</w> 130
素 描</w> 130
鸟 笼</w> 130
影 楼</w> 130
帘 子</w> 130
皇 后</w> 130
转 印</w> 130
伞 状</w> 130
悬 挂式</w> 130
决 战</w> 130
停 车</w> 130
侃 爷</w> 130
co w</w> 130
co phone</w> 130
al y 130
al ma</w> 130
st ack 130
si on 130
bo bo</w> 130
mo d 130
pi mp 130
tr unk</w> 130
24 9</w> 130
nat ion 130
sty ling</w> 130
wai st 130
ha ve</w> 130
no. 1</w> 130
gt r</w> 130
978 957 130
plat es</w> 130
电子 秤</w> 130
pullo ut</w> 130
ox ford</w> 130
jp 0 130
jui cer</w> 130
kieh l' 130
giord ano</w> 130
lettu ce</w> 130
( 100</w> 129
w en 129
- 5</w> 129
1 box</w> 129
2 m</w> 129
a cou 129
a ape</w> 129
6 000</w> 129
t p 129
t wee 129
5 30 129
卡 特</w> 129
海 盗</w> 129
山 地</w> 129
快 递</w> 129
b ha</w> 129
大 童</w> 129
现 场</w> 129
* 2</w> 129
乳 霜</w> 129
五 件</w> 129
事 业</w> 129
油 性</w> 129
水 乳</w> 129
西 兰</w> 129
预 购 129
绒 卫衣</w> 129
短 筒</w> 129
尖 端</w> 129
触 摸</w> 129
雷 帽</w> 129
影 城</w> 129
输 出</w> 129
速 度</w> 129
宠 爱</w> 129
动 物 129
划 痕</w> 129
终 极</w> 129
滑 雪</w> 129
枸 杞</w> 129
co in 129
ro mp 129
ti k 129
lu bri 129
sho e 129
mo st</w> 129
so und 129
ki sses</w> 129
wo of 129
pi zza</w> 129
we i</w> 129
be er</w> 129
be tty</w> 129
mar s</w> 129
mar ia</w> 129
ele d</w> 129
11 月</w> 129
hu ang</w> 129
pow dered</w> 129
16 1</w> 129
je an</w> 129
70 2</w> 129
90 - 129
ca s</w> 129
-0 5</w> 129
mu d</w> 129
32 5</w> 129
22 5</w> 129
em bossed</w> 129
23 6</w> 129
sw an</w> 129
plan et</w> 129
smo ke</w> 129
radi ator</w> 129
gold - 129
fish er</w> 129
儿童 节</w> 129
enhan cer</w> 129
breast feeding</w> 129
护发 素</w> 129
ign ition</w> 129
perman ent</w> 129
- 9 128
- l 128
- man</w> 128
d g 128
m 6</w> 128
1 pack</w> 128
4 20</w> 128
4 99</w> 128
4 wd</w> 128
7 pcs</w> 128
r ina</w> 128
h ex 128
h ak 128
p w 128
p k 128
小 推车</w> 128
皮 筋</w> 128
b les</w> 128
正 货</w> 128
鞋 # 128
光 感</w> 128
收 音机</w> 128
胶 鞋</w> 128
有 效</w> 128
表 面</w> 128
拉 力</w> 128
碧 玺</w> 128
熊 本</w> 128
天 线</w> 128
盖 子</w> 128
浓 密</w> 128
圆 筒</w> 128
分 析</w> 128
人 体 128
全 部</w> 128
汽 油</w> 128
颈 枕</w> 128
妆 前 128
倒 翁</w> 128
斜 纹</w> 128
剃 须刀</w> 128
椭 圆形</w> 128
驾 驶</w> 128
co di 128
lo st</w> 128
lo ws</w> 128
st ap 128
ti de</w> 128
ra men</w> 128
car amel</w> 128
wat tpad</w> 128
ke ep</w> 128
mar u 128
bu bb 128
bu tin</w> 128
je sus</w> 128
15 00 128
man u 128
ff el</w> 128
22 2</w> 128
lan e</w> 128
app li 128
cal ming</w> 128
the a</w> 128
xr / 128
玩具 店</w> 128
fresh ener</w> 128
api eu</w> 128
fav or 128
thri fted</w> 128
recei ver</w> 128
工程 车</w> 128
anten na</w> 128
石英 钟</w> 128
hyaluro nic</w> 128
( 1)</w> 127
w x 127
1 liter</w> 127
a 字 127
a q</w> 127
g 3</w> 127
9 )</w> 127
f ear</w> 127
i w 127
i ro 127
n \</w> 127
n ms</w> 127
v alu 127
u pper</w> 127
金 钢</w> 127
暖 暖</w> 127
五 代</w> 127
一 体</w> 127
流 水</w> 127
微 电脑</w> 127
奇 异</w> 127
柯 南</w> 127
开 襟</w> 127
好 好</w> 127
铁 架</w> 127
铁 板</w> 127
粉 白</w> 127
莫 斯</w> 127
链 子</w> 127
初 中</w> 127
帆 船</w> 127
总 代理</w> 127
公 文</w> 127
薄 型</w> 127
销 售</w> 127
回 弹</w> 127
量 贩</w> 127
甲 醛</w> 127
酒 神</w> 127
等 身</w> 127
励 志</w> 127
ar butin</w> 127
co se</w> 127
it i</w> 127
ba of 127
ne st</w> 127
ma d</w> 127
mo ul 127
so dium</w> 127
fi la 127
gu c</w> 127
fe mme</w> 127
pe st</w> 127
ss o</w> 127
men ow</w> 127
mon tero</w> 127
cam i 127
zi p 127
现货 #</w> 127
is er</w> 127
装饰 灯</w> 127
fru its</w> 127
cd )</w> 127
multi- purpose</w> 127
l' o 127
transfor mers</w> 127
yun teng</w> 127
var sity</w> 127
vintage "</w> 127
放大 镜</w> 127
fon dant</w> 127
fing er 127
芝麻 街</w> 127
gour met</w> 127
计算 机</w> 127
套头 衫</w> 127
电源 线</w> 127
沛纳 海</w> 127
'pie u</w> 127
蒙古 包</w> 127
woof er</w> 127
baof eng</w> 127
w / 126
m ut 126
8 )</w> 126
3 15 126
7 60 126
t 2 126
s ala 126
s addle</w> 126
k s 126
l r 126
i k 126
u ki</w> 126
神 域</w> 126
家 用 126
黑 眼圈</w> 126
包 膜</w> 126
知 名</w> 126
圆 球</w> 126
出 门</w> 126
灰 )</w> 126
随 身 126
抽 取</w> 126
十 足</w> 126
排 水</w> 126
配 器</w> 126
抑 菌</w> 126
烈 鸟</w> 126
框 架</w> 126
备 注</w> 126
蝶 古</w> 126
芸 芸</w> 126
疲 劳</w> 126
硫 化</w> 126
营 养 126
ro s</w> 126
on o 126
on yx</w> 126
ab ac 126
wo o</w> 126
br it 126
wh eat</w> 126
ter ra</w> 126
tr ail</w> 126
char les 126
sam son 126
sc ul 126
ll y 126
gr am 126
stri ps</w> 126
17 1</w> 126
iphone 8</w> 126
55 2</w> 126
ligh ten 126
cal ci 126
sy nc</w> 126
wr inkle</w> 126
beat le</w> 126
kra ft</w> 126
sharpen er</w> 126
bomb shell</w> 126
乐高 积木</w> 126
( 女 125
( 新</w> 125
- 4</w> 125
8 50 125
t ation</w> 125
s wit 125
y r 125
深 海</w> 125
x p 125
复 合</w> 125
机 身</w> 125
黑 黑</w> 125
牙 齿</w> 125
光 年</w> 125
折 起</w> 125
棉 袄</w> 125
得 力</w> 125
开 瓶器</w> 125
洗 碗 125
果 蔬</w> 125
十 一</w> 125
仪 表</w> 125
铜 色</w> 125
礼 券</w> 125
侦 探 125
矿 物</w> 125
段 式</w> 125
浣 熊</w> 125
徒 步</w> 125
ar 24 125
er ry</w> 125
ac y</w> 125
al ly</w> 125
st he 125
en ts</w> 125
20 mm</w> 125
po ts</w> 125
pi er 125
wi - 125
sam pler</w> 125
19 v</w> 125
chi p</w> 125
14 4 125
13 7</w> 125
s- l</w> 125
2. 4g</w> 125
17 8</w> 125
fla g</w> 125
bri dge</w> 125
hy per</w> 125
ml +</w> 125
a5 1</w> 125
bar u</w> 125
1/ 144</w> 125
mt p- 125
lt p- 125
ox y 125
devi ce</w> 125
refle ctive</w> 125
sj cam</w> 125
never full</w> 125
玛莎拉 蒂</w> 125
夏威 夷</w> 125
e uro</w> 124
d u</w> 124
1 600</w> 124
a ura</w> 124
4 10</w> 124
t .</w> 124
o wn</w> 124
l x 124
i pa 124
制 品</w> 124
制 造 124
大 王</w> 124
现 金</w> 124
下 )</w> 124
三 明治</w> 124
宝 盆</w> 124
丽 丽</w> 124
一 )</w> 124
章 鱼</w> 124
拉 面</w> 124
普 洱 124
奈 米</w> 124
出 品</w> 124
解 析</w> 124
糖 果 124
贝 雷帽</w> 124
触 屏</w> 124
主 机 124
人 份</w> 124
喵 喵</w> 124
公 仔 124
切 片</w> 124
领 巾</w> 124
底 片</w> 124
镀 铬</w> 124
擦 拭</w> 124
资 讯</w> 124
挂 毯</w> 124
增 强</w> 124
lo ss</w> 124
ro xy</w> 124
th ers</w> 124
te s 124
de te 124
ko ko</w> 124
do om</w> 124
bi lli 124
min e 124
30 x 124
mar tin</w> 124
pe ti 124
16 9</w> 124
sa ge</w> 124
col a</w> 124
stu dded</w> 124
tro user</w> 124
ah c</w> 124
tat o</w> 124
gg ed</w> 124
咖啡 壶</w> 124
lun ar</w> 124
指甲 剪</w> 124
sko rt</w> 124
pli age</w> 124
joy stick</w> 124
esp rit</w> 124
buy 1 124
coco a</w> 124
fol der</w> 124
evi l</w> 124
rev lon</w> 124
人体 工学</w> 124
e ma</w> 123
d 3 123
1 b</w> 123
a u</w> 123
3 n1</w> 123
r j 123
s q 123
p n 123
j k 123
o bao</w> 123
i c 123
长 方</w> 123
收 藏 123
果 酱</w> 123
随 便</w> 123
阿 尔 123
全 集</w> 123
全 民</w> 123
干 洗</w> 123
钓 鱼竿</w> 123
礼 品 123
雕 像</w> 123
潘 多拉</w> 123
蚊 器</w> 123
垃 圾</w> 123
in as</w> 123
mi le</w> 123
wi lli 123
ke ima 123
30 mm</w> 123
be be</w> 123
je g 123
che v 123
bat e</w> 123
chi e</w> 123
ste ering</w> 123
200 3</w> 123
cam ry</w> 123
fen der</w> 123
gro w</w> 123
smo cked</w> 123
180 0</w> 123
tak al</w> 123
set ting</w> 123
indi an</w> 123
cali for 123
调味 料</w> 123
jon i</w> 123
loaf ers</w> 123
研磨 机</w> 123
立体 声</w> 123
quil ted</w> 123
kiehl' s 123
codi le</w> 123
( s 122
( 男</w> 122
( 四</w> 122
( 蓝</w> 122
( 新款</w> 122
w yi</w> 122
6 10</w> 122
r x- 122
g m 122
g ad 122
手 作</w> 122
f / 122
f p 122
f d</w> 122
l m 122
l m</w> 122
# 新品</w> 122
海 棉</w> 122
z el 122
货 到 122
金 牌</w> 122
蓝 绿</w> 122
包 子</w> 122
教 材</w> 122
白 白</w> 122
车 手</w> 122
发 膜</w> 122
麻 绳</w> 122
兰 花</w> 122
链 式</w> 122
苏 菲</w> 122
文 书</w> 122
商 业</w> 122
编 号:</w> 122
超 声波</w> 122
聚 宝盆</w> 122
皂 盒</w> 122
火 山</w> 122
偏 光镜</w> 122
凉 爽</w> 122
咖 哩</w> 122
配 送</w> 122
浅 色</w> 122
掌 柜</w> 122
硬 度</w> 122
狗 狗</w> 122
测 试</w> 122
摇 杆</w> 122
携 带 122
涂 层</w> 122
藻 土</w> 122
to go</w> 122
st ella</w> 122
li l</w> 122
po tato</w> 122
ch el 122
ch ap 122
ma de 122
mo ck</w> 122
so uth</w> 122
su t 122
bi scu 122
uni verse</w> 122
ci ous</w> 122
cro codile</w> 122
ju li 122
14 cm</w> 122
cha in 122
35 -39</w> 122
ml -</w> 122
max 90</w> 122
inf ra 122
sen sual</w> 122
af ter</w> 122
下杀 @ 122
auto light</w> 122
折叠 伞</w> 122
spf 30</w> 122
gs c</w> 122
pean uts</w> 122
door mat</w> 122
电视 机</w> 122
spray er</w> 122
喷雾 器</w> 122
维多 利亚</w> 122
e ty</w> 121
- 00 121
2 n1</w> 121
a ero</w> 121
4 30</w> 121
3 70 121
7 mm</w> 121
t p</w> 121
n 9 121
c lip 121
装 扮</w> 121
太 子</w> 121
布 贴</w> 121
浪 琴</w> 121
下 巴</w> 121
花 布</w> 121
梦 网</w> 121
加 压</w> 121
印 尼</w> 121
电 吉他</w> 121
紫 罗兰</w> 121
蔓 越 121
毛 刷</w> 121
动 能</w> 121
照 镜</w> 121
农 场</w> 121
涂 料</w> 121
牵 引</w> 121
20 6</w> 121
am ore</w> 121
10 a</w> 121
la c</w> 121
la dy 121
ra n</w> 121
no ki 121
flo ra</w> 121
pe i</w> 121
15 2</w> 121
-4 1</w> 121
tri m</w> 121
13 .3</w> 121
stra ppy</w> 121
iphone 5</w> 121
bracele ts</w> 121
comp art 121
tai l 121
42 mm</w> 121
优惠 )</w> 121
2019 / 121
ful l 121
kak ao</w> 121
会议 桌</w> 121
sens itive</w> 121
absorb ent</w> 121
肤宝 水</w> 121
茶叶 罐</w> 121
( 简体</w> 120
d ora</w> 120
m me 120
8 s</w> 120
8 10</w> 120
6 cm</w> 120
t l- 120
h u</w> 120
j f</w> 120
l ang</w> 120
i q 120
n x 120
c di</w> 120
z inc</w> 120
合 成</w> 120
正 品)</w> 120
女 网</w> 120
男 学生</w> 120
水 族 120
印 象</w> 120
拉 门</w> 120
车 皮</w> 120
无 烟</w> 120
电 力</w> 120
扭 扭</w> 120
开 学</w> 120
! ! 120
草 坪</w> 120
哈 利 120
超 硬</w> 120
灯 管</w> 120
即 食</w> 120
钻 头</w> 120
名 器</w> 120
名 字</w> 120
方 位</w> 120
口 水</w> 120
研 究 120
离 合器</w> 120
同 名</w> 120
完 成</w> 120
贵 妇</w> 120
al th</w> 120
se pho 120
se ll</w> 120
ch u</w> 120
ai l 120
ra tor</w> 120
de light</w> 120
ab le 120
fi lip 120
pre order</w> 120
sh ine 120
car ry 120
car har 120
ver tical</w> 120
ad d</w> 120
mas er 120
he li 120
clo ver</w> 120
bea ute</w> 120
vin e 120
22 8</w> 120
1- 4</w> 120
dy son</w> 120
san it 120
mer cci 120
lv /</w> 120
mam ba</w> 120
8. 0</w> 120
tee ther</w> 120
ner f</w> 120
sol di 120
boar d 120
文具 盒</w> 120
plushi e</w> 120
airpo ds 120
industri al</w> 120
亚马 逊</w> 120
( 9</w> 119
1 kl</w> 119
6 x 119
6 80</w> 119
7 s</w> 119
t 9 119
t 男</w> 119
p aid</w> 119
k ed</w> 119
o .</w> 119
顶 上</w> 119
z ero 119
合 售</w> 119
b d</w> 119
暖 器</w> 119
鞋 盒</w> 119
夹 板</w> 119
白 银</w> 119
工 场</w> 119
活 性 119
窗 台</w> 119
沙 包</w> 119
视 器</w> 119
洗 面</w> 119
刀 头</w> 119
冷 风</w> 119
果 干</w> 119
纱 窗</w> 119
阿 赞 119
层 次</w> 119
巴 士</w> 119
民 谣</w> 119
眼 石</w> 119
骑 士 119
奴 比</w> 119
检 验</w> 119
世 界 119
汗 衫</w> 119
午 餐</w> 119
宣 言</w> 119
聪 明</w> 119
ar c</w> 119
co b</w> 119
di c</w> 119
la de 119
sh u</w> 119
gh ing</w> 119
bi a</w> 119
pi a</w> 119
wi se</w> 119
cc it 119
sa em</w> 119
sk et</w> 119
par adi 119
tro n</w> 119
tw inkle</w> 119
sha ft</w> 119
bir kin</w> 119
nav ar 119
dro ne</w> 119
pol ka 119
ast ac 119
y. o</w> 119
防晒 乳</w> 119
oc cas 119
edi fi 119
samson ite</w> 119
( 近</w> 118
8 000</w> 118
t 2</w> 118
r 11 118
h k 118
g an 118
g ly 118
手 链 118
5 1 118
i 5- 118
海 盐</w> 118
特 惠 118
女 裤</w> 118
中 小学生</w> 118
| |</w> 118
金 盏 118
烟 盒</w> 118
丝 带</w> 118
北 京</w> 118
附 录</w> 118
异 形</w> 118
高 雅</w> 118
发 泡</w> 118
问 题</w> 118
全 省</w> 118
闪 光灯</w> 118
喷 枪</w> 118
重 力</w> 118
转 盘</w> 118
试 管</w> 118
啤 酒</w> 118
监 视器</w> 118
晕 染</w> 118
稳 定</w> 118
re new 118
re tail</w> 118
ho tel</w> 118
li sh 118
se duction</w> 118
ti res</w> 118
el mo</w> 118
cas tle 118
de co</w> 118
su m</w> 118
go ku</w> 118
ter ran 118
chi bi</w> 118
par a 118
par ker</w> 118
hoo dy</w> 118
ach u</w> 118
ge ment</w> 118
35 5</w> 118
wel ding</w> 118
stre ss</w> 118
fun ny</w> 118
liqu e</w> 118
ms . 118
lun ar 118
art work</w> 118
工作 台</w> 118
7. 1</w> 118
shop kins</w> 118
cin derella</w> 118
bay max</w> 118
自慰 杯</w> 118
眼镜 架</w> 118
scot t</w> 118
scot ch</w> 118
用品 .</w> 118
soap s</w> 118
acen ta</w> 118
belt bag</w> 118
refriger ator</w> 118
acou stic</w> 118
califor nia</w> 118
d t 117
3 m 117
3 75 117
h ab 117
s ap 117
s gs</w> 117
手 电</w> 117
k ate 117
卡 卡</w> 117
. 0</w> 117
红 枣</w> 117
网 购</w> 117
b en</w> 117
金 丝绒</w> 117
蓝 色)</w> 117
包 围</w> 117
直 升 117
酷 奇</w> 117
无 糖</w> 117
越 野 117
理 论</w> 117
排 气管</w> 117
标 签 117
地 靴</w> 117
纹 路</w> 117
原 料</w> 117
冰 凉</w> 117
留 言 117
领 口</w> 117
骨 头</w> 117
声 卡</w> 117
祝 福</w> 117
厘 米</w> 117
呢 子</w> 117
坎 肩</w> 117
ho les</w> 117
st - 117
po pu 117
po mpo 117
po sket</w> 117
ma - 117
ma king</w> 117
10 月</w> 117
su ction</w> 117
ko be 117
las er 117
pi ggy</w> 117
pro ce 117
ke ys</w> 117
30 - 117
sam yang</w> 117
con cer 117
bu 9 117
sc a 117
15 1</w> 117
sk ate 117
bb w</w> 117
jo ker</w> 117
gra pe</w> 117
bur n</w> 117
lip cream</w> 117
bri dal</w> 117
cr ush 117
.... ....</w> 117
cm x 117
the med</w> 117
ji g 117
my stery</w> 117
anti- theft</w> 117
bon bon</w> 117
cham o 117
纪念 版</w> 117
int elli 117
big bang</w> 117
prop yl</w> 117
divi ded</w> 117
iso propyl</w> 117
rele ase</w> 117
dess ert</w> 117
主持 人</w> 117
侦探 柯南</w> 117
主机 板</w> 117
maser ati</w> 117
e 0 116
d angle</w> 116
8 a</w> 116
2 11 116
2 13 116
2 kg</w> 116
t c 116
r ust</w> 116
g ain</w> 116
s ushi</w> 116
p on</w> 116
j 1 116
k g 116
k ami 116
y 79</w> 116
u c</w> 116
魔 女</w> 116
带 )</w> 116
风 板</w> 116
b 2</w> 116
大 容量</w> 116
妞 妞</w> 116
老 爷</w> 116
指 针</w> 116
包 包包</w> 116
米 粒</w> 116
水 泵</w> 116
胶 底</w> 116
佳 能</w> 116
棉 花</w> 116
无 线 116
裤 腰带</w> 116
承 重</w> 116
星 期 116
袖 短t</w> 116
飞 镖</w> 116
灰 姑娘</w> 116
肤 水</w> 116
果 盘</w> 116
抽 奖</w> 116
火 星</w> 116
全 方位</w> 116
曲 线</w> 116
止 痒</w> 116
练 字</w> 116
死 皮</w> 116
re gu 116
to toro</w> 116
ro asted</w> 116
ch - 116
ti le</w> 116
ko so</w> 116
adi an</w> 116
tr i</w> 116
blu sher</w> 116
mat tress</w> 116
sam po</w> 116
40 5</w> 116
wa ffle</w> 116
her it 116
-2 5</w> 116
ps 2</w> 116
zz y</w> 116
nova 5t</w> 116
decor ative</w> 116
百货 公司</w> 116
手工 艺</w> 116
poly ester</w> 116
bee tle</w> 116
ante ed</w> 116
jeg gings</w> 116
携带 型</w> 116
哈利 波特</w> 116
sepho ra</w> 116
金盏 花</w> 116
( 非</w> 115
w and</w> 115
w th</w> 115
w we</w> 115
8 49 115
1 -4 115
4 月</w> 115
6 l</w> 115
7 月</w> 115
h n 115
p l</w> 115
p j</w> 115
j 0 115
9 a</w> 115
9 17 115
o o</w> 115
y 75</w> 115
太 极</w> 115
z h</w> 115
品 味</w> 115
空 瓶</w> 115
光 面</w> 115
男 包</w> 115
印 字</w> 115
摩 洛 115
西 点</w> 115
吊 椅</w> 115
开 刃</w> 115
沙 拉 115
埃 及</w> 115
明 日</w> 115
蒂 芬 115
变 焦</w> 115
眼 皮</w> 115
密 度</w> 115
珠 子</w> 115
画 册</w> 115
纯 净</w> 115
测 量</w> 115
摇 铃</w> 115
阳 具</w> 115
市 集</w> 115
整 箱</w> 115
蜘 蛛</w> 115
ac i 115
al len</w> 115
en tal</w> 115
ba i</w> 115
us b- 115
cas tle</w> 115
pre paid</w> 115
da d</w> 115
no v 115
pi k 115
mat t</w> 115
pl acenta</w> 115
sc ato</w> 115
60 6</w> 115
je t 115
tu res</w> 115
ge m</w> 115
牛仔 布</w> 115
bar ako</w> 115
ha zel</w> 115
star wars</w> 115
23 5</w> 115
play ing</w> 115
ken ne 115
玻璃 膜</w> 115
2020 / 115
pul ley</w> 115
arti st</w> 115
u. s.</w> 115
ox o</w> 115
fal con</w> 115
sav ing</w> 115
密码 箱</w> 115
milk tea</w> 115
ascor bate</w> 115
供应 器</w> 115
ipa ky</w> 115
infra red</w> 115
vine gar</w> 115
terran ova</w> 115
e mul 114
w i</w> 114
t hong</w> 114
f lan 114
x l- 114
布 面</w> 114
神 话</w> 114
快 手</w> 114
金 丝</w> 114
一 键</w> 114
油 壶</w> 114
上 课</w> 114
饭 碗</w> 114
仙 境</w> 114
仙 气</w> 114
双 子</w> 114
视 觉</w> 114
发 行</w> 114
火 烈鸟</w> 114
改 善</w> 114
轮 滑 114
颈 部</w> 114
莉 玫</w> 114
鲸 鱼</w> 114
完 )</w> 114
抢 先</w> 114
娃 娃 114
煤 油</w> 114
co le 114
le ne</w> 114
le ash</w> 114
st ande 114
th under</w> 114
shi n</w> 114
do o 114
bi ore</w> 114
ing a</w> 114
sc - 114
du ffy</w> 114
80 - 114
25 6g</w> 114
200 1</w> 114
-0 4</w> 114
sha ver</w> 114
multi ple</w> 114
app le 114
ure s</w> 114
plan ts</w> 114
drag on 114
cit rus</w> 114
poli s</w> 114
clar i 114
guar anteed</w> 114
god dess</w> 114
repel lent</w> 114
concentr ate</w> 114
techni ques</w> 114
olymp us</w> 114
mmi es</w> 114
regu lator</w> 114
摩洛 哥</w> 114
e qu 113
w av 113
d v</w> 113
m 4</w> 113
m to</w> 113
t 3</w> 113
s 20</w> 113
p al</w> 113
手 机 113
f g</w> 113
f li 113
o il 113
l tb</w> 113
n as 113
n ina</w> 113
c z 113
c 万</w> 113
红 色)</w> 113
x 手机</w> 113
客 户</w> 113
b m</w> 113
背 斜</w> 113
水 袋</w> 113
工 业 113
吊 扇</w> 113
每 日</w> 113
力 量</w> 113
袖 口</w> 113
身 体乳</w> 113
定 妆</w> 113
打 蜡</w> 113
钢 架</w> 113
测 器</w> 113
船 型</w> 113
吹 风</w> 113
浏 海</w> 113
驱 车</w> 113
橄 榄</w> 113
监 测</w> 113
缓 冲</w> 113
su baru</w> 113
and er 113
fi dget</w> 113
do re 113
gi ve</w> 113
mas ter 113
sto ries</w> 113
15 mm</w> 113
sa far 113
desig n 113
200 6</w> 113
aj 4</w> 113
mani cure</w> 113
1.5 l</w> 113
ful ly</w> 113
devi l</w> 113
bey blade</w> 113
316 l</w> 113
mol der</w> 113
搅拌 机</w> 113
nmd _ 113
hul k</w> 113
iron man</w> 113
ccit ane</w> 113
轮滑 鞋</w> 113
safar i</w> 113
- free</w> 112
t s- 112
t ali 112
r anger</w> 112
作 业</w> 112
j 6 112
v r 112
v / 112
神 仙</w> 112
耶 诞</w> 112
b 37 112
大 摆</w> 112
更 新</w> 112
纸 尿 112
套 装 112
教 具</w> 112
自 助</w> 112
水 母</w> 112
瓷 器</w> 112
气 机</w> 112
沙 漏</w> 112
发 露</w> 112
麻 布</w> 112
脚 蹬</w> 112
初 版</w> 112
封 面</w> 112
会 场</w> 112
成 型</w> 112
战 争</w> 112
季 节</w> 112
晶 晶</w> 112
功 夫 112
滑 滑</w> 112
探 险</w> 112
恐 怖</w> 112
兼 容</w> 112
an tho 112
re ce 112
ar 5 112
it as</w> 112
ho u 112
li z</w> 112
ba - 112
ti fied</w> 112
ma gs</w> 112
10 28</w> 112
la bo</w> 112
mi ghty</w> 112
50 cm</w> 112
wi d 112
cre pe</w> 112
tr ash</w> 112
con tin 112
con stru 112
100 m</w> 112
60 - 112
16 8 112
15 3</w> 112
gir dle</w> 112
14 9</w> 112
70 4</w> 112
man n</w> 112
dr ain</w> 112
kin e 112
san a</w> 112
har den</w> 112
经济 学</w> 112
anti- aging</w> 112
who o</w> 112
customi ze</w> 112
den tal</w> 112
type c</w> 112
cover s</w> 112
square pants</w> 112
mh z</w> 112
文件 柜</w> 112
lash es</w> 112
choo se</w> 112
rush guard</w> 112
动物 园</w> 112
carhar tt</w> 112
mercci 22</w> 112
( 8</w> 111
a z</w> 111
3 45 111
t 型</w> 111
h x 111
h z</w> 111
手 巾</w> 111
q 7</w> 111
k w</w> 111
f d 111
o re 111
i z</w> 111
y er</w> 111
y ves</w> 111
c l- 111
小 人</w> 111
z 0 111
更 换</w> 111
* 1</w> 111
保 险</w> 111
白 熊</w> 111
拆 卖</w> 111
门 窗</w> 111
居 家家</w> 111
沙 袋</w> 111
透 亮</w> 111
国 画</w> 111
亲 笔</w> 111
游 泳池</w> 111
味 )</w> 111
单 鞋</w> 111
分 层</w> 111
标 示</w> 111
惠 普</w> 111
切 片 111
软 软</w> 111
瘦 脸</w> 111
六 月</w> 111
贵 宾</w> 111
员 工</w> 111
烘 干 111
爵 士</w> 111
in 1 111
re ra</w> 111
ri hanna</w> 111
bo ws</w> 111
bo unce</w> 111
10 w</w> 111
mo cha</w> 111
fi e 111
qu in 111
ut en 111
vi al</w> 111
be li 111
18 9</w> 111
mm / 111
sli cer</w> 111
t- in</w> 111
cor set</w> 111
15 / 111
pu ff 111
13 2</w> 111
1. 3</w> 111
org e 111
35 ml</w> 111
can adian</w> 111
dri ving</w> 111
comp any</w> 111
000 0</w> 111
y6 ii</w> 111
6. 0</w> 111
fin d</w> 111
inst ru 111
gla di 111
spider -man</w> 111
stam ps</w> 111
kee per</w> 111
tp- link</w> 111
romp ers</w> 111
tik tok</w> 111
charles &</w> 111
( 白</w> 110
( 12</w> 110
w en</w> 110
- a 110
2 -</w> 110
4 80 110
7 吋</w> 110
g 0 110
k r 110
l .</w> 110
i pan 110
i or</w> 110
n 6 110
u d</w> 110
小 子</w> 110
x c 110
海 鲜</w> 110
z ers</w> 110
风 力</w> 110
b p</w> 110
元 宝</w> 110
黑 面</w> 110
中 空</w> 110
老 二</w> 110
面 )</w> 110
椅 背</w> 110
吊 柜</w> 110
出 货 110
会 客</w> 110
不 同</w> 110
兵 器</w> 110
切 菜</w> 110
嘉 班 110
玉 髓</w> 110
打 气</w> 110
瘦 长</w> 110
缝 线</w> 110
射 灯</w> 110
齿 轮</w> 110
轴 承</w> 110
急 速</w> 110
铲 子</w> 110
re born</w> 110
to rs</w> 110
20 9</w> 110
ch box</w> 110
un lock</w> 110
sho w 110
la v 110
ra t</w> 110
ur i</w> 110
mo use 110
201 80 110
sp in 110
pr m</w> 110
50 5</w> 110
pi one 110
sam an 110
40 -4 110
16 oz</w> 110
cor por 110
15 w</w> 110
desig ned</w> 110
ex cel</w> 110
14 2</w> 110
13 9</w> 110
化妆 盒</w> 110
ji mmy</w> 110
woo d 110
band ana</w> 110
eas y 110
whi p</w> 110
350 v2</w> 110
die cast</w> 110
medic ine</w> 110
羽毛 球</w> 110
detai ls</w> 110
oper ated</w> 110
dsquare d2</w> 110
lubri c 110
随身 听</w> 110
lade sh</w> 110
( 中</w> 109
d n 109
8 吋</w> 109
2 k</w> 109
a ve</w> 109
g 2</w> 109
5 28 109
l ton</w> 109
y r</w> 109
小 提琴</w> 109
衣 板</w> 109
日 制</w> 109
b w</w> 109
b g</w> 109
b ite</w> 109
大 阪</w> 109
保 洁</w> 109
母 子</w> 109
鱼 眼</w> 109
套 鞋</w> 109
米 亚</w> 109
兔 兔</w> 109
加 工</w> 109
纽 西兰</w> 109
最 低</w> 109
桃 子</w> 109
餐 车</w> 109
国 文</w> 109
赛 斯 109
人 像</w> 109
成 犬</w> 109
体 感</w> 109
排 球</w> 109
灯 罩</w> 109
打 结</w> 109
打 折</w> 109
蚂 蚁</w> 109
硬 币</w> 109
凤 凰</w> 109
酒 瓶</w> 109
飘 逸</w> 109
药 材</w> 109
盥 洗</w> 109
mi sh</w> 109
mi ll</w> 109
fi ller</w> 109
50 / 109
ver .</w> 109
wh o</w> 109
flo ater</w> 109
pe di 109
sa ve</w> 109
gen a</w> 109
ten er</w> 109
gar nish</w> 109
cap ri</w> 109
99 7</w> 109
ha wai 109
sau di 109
gro up</w> 109
cd g</w> 109
exten der</w> 109
jen na</w> 109
blan k</w> 109
nike /</w> 109
kids wear</w> 109
combin ed</w> 109
preci sion</w> 109
reci pe</w> 109
dami er</w> 109
oxy gen</w> 109
keima v</w> 109
货到 付款</w> 109
popu lar</w> 109
herit age</w> 109
( 满</w> 108
( 预购</w> 108
- p 108
d k</w> 108
m v 108
4 oz</w> 108
3 年</w> 108
t x</w> 108
k m</w> 108
f lo</w> 108
" nike</w> 108
卡 包</w> 108
i sta</w> 108
v ans 108
格 斗</w> 108
衣 袋</w> 108
头 )</w> 108
神 明</w> 108
美 工</w> 108
山 居</w> 108
生 态</w> 108
适 用)</w> 108
艾 草</w> 108
丝 器</w> 108
米 桶</w> 108
克 拉</w> 108
食 器</w> 108
高 街</w> 108
心 灵</w> 108
铝 圈</w> 108
芭 蕾 108
浴 衣</w> 108
题 库</w> 108
扣 子</w> 108
竹 制</w> 108
成 套</w> 108
薄 款</w> 108
低 调</w> 108
名 侦探柯南</w> 108
软 垫</w> 108
狮 子 108
浅 蓝</w> 108
裸 色</w> 108
柔 顺</w> 108
节 庆</w> 108
旋 风</w> 108
薰 香</w> 108
彼 得</w> 108
首 发</w> 108
as tro</w> 108
lo gi 108
lo ver</w> 108
fo un 108
ch ase</w> 108
ba be</w> 108
me ga 108
me xi 108
ne lla</w> 108
so ul 108
br u 108
ta les</w> 108
16 2</w> 108
15 4</w> 108
bro ws</w> 108
gra ded</w> 108
13 6</w> 108
man go 108
stri ke</w> 108
cha ins</w> 108
35 mm</w> 108
dar k 108
star ry</w> 108
bang ladesh</w> 108
y5 ii</w> 108
polo 衫 108
neo 7</w> 108
180 ml</w> 108
lac es</w> 108
oi l- 108
tiff any 108
sab er</w> 108
indi vi 108
hyper dunk</w> 108
rect angle</w> 108
toy castle 108
iv ory</w> 108
corre ction</w> 108
pm 2.5</w> 108
fire fly</w> 108
miu miu</w> 108
电话 机</w> 108
li- ion</w> 108
euro pe 108
计时 器</w> 108
espadri lle</w> 108
五月 天</w> 108
concer t</w> 108
jig saw</w> 108
ipan ema</w> 108
toycastle 3</w> 108
( 2)</w> 107
d p</w> 107
8 oz</w> 107
a 's</w> 107
a tomy</w> 107
4 000</w> 107
3 cm</w> 107
j l 107
i f</w> 107
娜 美</w> 107
风 暴</w> 107
日 杂</w> 107
大 堂</w> 107
背 袋</w> 107
长 颈 107
图 形</w> 107
码 )</w> 107
豆 浆</w> 107
运 送</w> 107
工 地</w> 107
半 圆</w> 107
开 心</w> 107
铁 塔</w> 107
哈 雷</w> 107
力 器</w> 107
军 装</w> 107
果 果</w> 107
氨 基酸</w> 107
奥 利 107
十 二 107
散 打</w> 107
瓶 装</w> 107
泰 迪</w> 107
地 区</w> 107
麦 克</w> 107
干 爽</w> 107
噜 噜 107
冰 机</w> 107
喷 水</w> 107
瞬 间</w> 107
能 力</w> 107
重 量</w> 107
温 控</w> 107
鼻 子</w> 107
施 工</w> 107
挑 逗</w> 107
摆 台</w> 107
概 念</w> 107
亏 本</w> 107
褪 色</w> 107
渲 染</w> 107
re i 107
lo ad</w> 107
le boy</w> 107
ac hi 107
ro y</w> 107
ro cker</w> 107
po sh</w> 107
si l</w> 107
me ss 107
ai de 107
10 5 107
la gun 107
cre e 107
per spir 107
bu dd 107
36 mm</w> 107
15 7</w> 107
bur berry 107
dis count</w> 107
ge m 107
stra y</w> 107
bot ani 107
bre e 107
hal o</w> 107
y6 pro2019</w> 107
4. 1</w> 107
colla p 107
gro wth</w> 107
fer n</w> 107
flu ffy</w> 107
sl acks</w> 107
blan c万</w> 107
oi se</w> 107
\n \n</w> 107
杀价 @</w> 107
橡皮 擦</w> 107
bol ts</w> 107
excel lent</w> 107
buil t-in</w> 107
net work</w> 107
neut ro 107
broo ch</w> 107
nutr ition</w> 107
背带 裤</w> 107
season ing</w> 107
meas uring</w> 107
calci um</w> 107
wi- fi</w> 107
sanit ary</w> 107
soldi er</w> 107
m use</w> 106
s n</w> 106
o le</w> 106
票 )</w> 106
i 9 106
i 11</w> 106
魔 幻</w> 106
带 线</w> 106
日 用</w> 106
合 格</w> 106
b h 106
古 龙</w> 106
大 口</w> 106
马 卡龙</w> 106
潮 鞋</w> 106
黑 水</w> 106
刷 牙</w> 106
连 裤袜</w> 106
通 风</w> 106
一 样</w> 106
年 会</w> 106
妮 妮</w> 106
自 留</w> 106
前 灯</w> 106
新 颖</w> 106
摩 托</w> 106
炖 锅</w> 106
高 度</w> 106
时 刻</w> 106
餐 桌布</w> 106
商 品)</w> 106
四 轴</w> 106
变 身</w> 106
人 类</w> 106
人 造</w> 106
代 理 106
民 国</w> 106
公 牛</w> 106
曲 奇</w> 106
免 税</w> 106
秘 书</w> 106
煎 锅</w> 106
细 腻</w> 106
远 射</w> 106
认 知</w> 106
co very</w> 106
as y 106
ho lo 106
ba gu 106
ma j 106
10 50</w> 106
te en 106
ab str 106
sti x</w> 106
gra b</w> 106
13 5 106
200 2</w> 106
cut lery</w> 106
-2 8</w> 106
can to</w> 106
ml - 106
pur itan</w> 106
she y</w> 106
mer ce 106
band age</w> 106
smo k</w> 106
xr 1</w> 106
gucci 包包</w> 106
gab ri 106
wee ken 106
a9 2020</w> 106
wind proof</w> 106
absor ber</w> 106
卖场 ;</w> 106
qc 3.0</w> 106
dx f</w> 106
loaf er</w> 106
cook ware</w> 106
vas eline</w> 106
切割 机</w> 106
engine ering</w> 106
valu e</w> 106
buy1 take1</w> 106
kenne th</w> 106
pione er</w> 106
( 3 105
( 蓝)</w> 105
w b</w> 105
- x 105
m era</w> 105
1 /</w> 105
2 14 105
4 年</w> 105
r m 105
5 月</w> 105
海 钓</w> 105
皮 裤</w> 105
菩 萨</w> 105
雪 糕</w> 105
b ale</w> 105
b us</w> 105
大 同</w> 105
正 器</w> 105
爱 上</w> 105
* 10</w> 105
球 球</w> 105
宝 盒</w> 105
一 番</w> 105
水 草</w> 105
说 话</w> 105
电 表</w> 105
亮 度</w> 105
字 体</w> 105
婷 婷</w> 105
八 卦</w> 105
挡 风板</w> 105
墨 绿色</w> 105
塑 料 105
尾 翼</w> 105
统 一</w> 105
黄 蜂</w> 105
农 用</w> 105
驼 背</w> 105
来 自</w> 105
来 电</w> 105
境 内</w> 105
re se 105
st ent</w> 105
en chan 105
di ld 105
ne ed</w> 105
un e</w> 105
ti ck</w> 105
ti ps</w> 105
10 l</w> 105
ni gh 105
mo u 105
de tail</w> 105
or chi 105
fi shing</w> 105
qu al 105
bi lena</w> 105
pp ee</w> 105
gu er 105
vi lle</w> 105
30 8</w> 105
pan er 105
blo o 105
16 6</w> 105
bat tle</w> 105
19 5</w> 105
chi ca 105
14 6</w> 105
70 cm</w> 105
gen tle 105
hoo ks</w> 105
bel ly</w> 105
2. 4 105
2. 2</w> 105
op p</w> 105
op por 105
33 3</w> 105
aj 11</w> 105
neo 9</w> 105
xl 码</w> 105
67 8</w> 105
post card</w> 105
tt es</w> 105
lipp ie</w> 105
ggi e</w> 105
wave 125</w> 105
gho st</w> 105
andre a</w> 105
实拍 )</w> 105
pimp le</w> 105
普洱 茶</w> 105
compart ment</w> 105
neutro gena</w> 105
dild o</w> 105
- s</w> 104
8 in1</w> 104
2 cm</w> 104
4 xl</w> 104
6 d</w> 104
t l 104
r ca</w> 104
p ed</w> 104
5 th</w> 104
5 80 104
f r</w> 104
o b</w> 104
l ] 104
i k</w> 104
v w</w> 104
v 领 104
小 衫</w> 104
z d 104
日 本 104
图 片</w> 104
纸 箱</w> 104
蜡 线</w> 104
连 续</w> 104
鞋 店</w> 104
包 组</w> 104
包 屁</w> 104
年 轻</w> 104
有 限</w> 104
佳 人</w> 104
色 料</w> 104
上 色</w> 104
幻 想</w> 104
扭 结</w> 104
奇 妙</w> 104
月 饼</w> 104
门 锁</w> 104
百 折</w> 104
爆 乳</w> 104
河 马</w> 104
单 冷</w> 104
人 力</w> 104
后 备 104
断 电</w> 104
冰 河</w> 104
鲜 货</w> 104
礼 包</w> 104
云 南</w> 104
雕 塑</w> 104
穿 )</w> 104
温 暖</w> 104
吸 乳器</w> 104
模 式</w> 104
讲 机</w> 104
钞 票</w> 104
co re 104
st en 104
ri m</w> 104
ri x</w> 104
se ssion</w> 104
ch ina</w> 104
me et</w> 104
ti e 104
on d</w> 104
ra v4</w> 104
so cial</w> 104
or al</w> 104
sp l 104
00 7 104
do ta</w> 104
min ion</w> 104
pi ck 104
mar ch</w> 104
ele s</w> 104
18 6</w> 104
18 v</w> 104
boo t</w> 104
lon gin 104
sc al 104
sto re 104
fu ji</w> 104
19 2</w> 104
pri z 104
70 3</w> 104
her bs</w> 104
hand ker 104
lip sticks</w> 104
mu gs</w> 104
can make</w> 104
cr ush</w> 104
ben et 104
com pre 104
120 cm</w> 104
thi ck 104
free ship</w> 104
bor ne</w> 104
flas k</w> 104
reju v</w> 104
(全 )</w> 104
eu c</w> 104
mate 20 104
cover age</w> 104
butto ned</w> 104
ferragam o 104
chal len 104
dur ant</w> 104
cray on</w> 104
squee ze</w> 104
amethy st</w> 104
emul sion</w> 104
功夫 茶</w> 104
芭蕾 舞</w> 104
europe an</w> 104
长颈 鹿</w> 104
perspir ant</w> 104
后备 箱</w> 104
( 4 103
2 , 103
a 1 103
3 pro</w> 103
7 49 103
t 5</w> 103
g l</w> 103
p unk</w> 103
k 20</w> 103
f .</w> 103
f ter</w> 103
l 's</w> 103
i z 103
n s 103
u 11</w> 103
☆ ☆</w> 103
山 水</w> 103
大 腿</w> 103
长 桌</w> 103
保 湿</w> 103
] # 103
油 瓶</w> 103
折 )</w> 103
奔 驰</w> 103
肉 机</w> 103
宽 袖</w> 103
西 亚</w> 103
热 水器</w> 103
芭 比 103
七 夕</w> 103
烧 水壶</w> 103
贝 尔</w> 103
起 坐</w> 103
磨 刀 103
打 孔 103
赫 本</w> 103
屋 顶</w> 103
专 用)</w> 103
乌 克 103
冲 洗</w> 103
锯 齿</w> 103
档 案</w> 103
橡 皮</w> 103
in i 103
fo ur 103
ro ses</w> 103
di an</w> 103
di sco</w> 103
ne g 103
10 )</w> 103
th ink 103
fi ction</w> 103
qu er</w> 103
gi s</w> 103
ear ing</w> 103
we d 103
sun set</w> 103
18 4</w> 103
fe li 103
mas s</w> 103
ll i</w> 103
he al</w> 103
90 6</w> 103
ca tor</w> 103
2. 7</w> 103
2. 5d</w> 103
ph an 103
but ton 103
secre ts</w> 103
lan vin</w> 103
pat ent</w> 103
bir th</w> 103
micro matic</w> 103
remo vable</w> 103
bor o</w> 103
person a</w> 103
pear ls</w> 103
cham pa 103
non- wire</w> 103
ae sthe 103
figu arts</w> 103
y91 i</w> 103
lulu lemon</w> 103
athle tic</w> 103
老花 镜</w> 103
austr alia</w> 103
peti t</w> 103
aide lai</w> 103
collap sible</w> 103
abstr act</w> 103
e 5 102
a -2 102
6 1 102
3 40</w> 102
t k 102
r f</w> 102
g k 102
g f</w> 102
g w</w> 102
作 者</w> 102
5 99</w> 102
5 kg</w> 102
k am 102
o logy</w> 102
i kon</w> 102
y te</w> 102
n v 102
长 卷</w> 102
长 短</w> 102
爱 恋</w> 102
指 尖</w> 102
蒸 笼</w> 102
年 华</w> 102
点 缀</w> 102
男 朋友</w> 102
自 带</w> 102
梦 游</w> 102
新 春</w> 102
酱 油</w> 102
限 时 102
铁 灰</w> 102
字 帖</w> 102
时 空</w> 102
周 年 102
瓜 子</w> 102
唯 一</w> 102
脚 底</w> 102
盒 带</w> 102
菜 瓜</w> 102
浴 袍</w> 102
国 语</w> 102
巴 利</w> 102
后 跟</w> 102
影 视</w> 102
任 意</w> 102
焕 肤</w> 102
抱 抱</w> 102
休 息</w> 102
吸 附</w> 102
弯 头</w> 102
褥 子</w> 102
警 察</w> 102
辅 助 102
lo cal</w> 102
st ine</w> 102
ni er</w> 102
so ur 102
201 8- 102
201 8/ 102
su ga</w> 102
sh an 102
car bu 102
pan ther</w> 102
flo ur</w> 102
11 100</w> 102
pe ter</w> 102
ss - 102
he eled</w> 102
her shey</w> 102
can non</w> 102
1- 5</w> 102
super hero</w> 102
1/ 2 102
cal y 102
ot to 102
chri s</w> 102
a- line</w> 102
遮阳 板</w> 102
hd d</w> 102
fur y 102
dam age</w> 102
two- piece</w> 102
touch screen</w> 102
hip ster</w> 102
基本 款</w> 102
brazi lian</w> 102
妆前 乳</w> 102
蔓越 莓</w> 102
直升 机</w> 102
纸尿 裤</w> 102
e ter 101
3 25 101
3 3- 101
t v 101
r v 101
r ine</w> 101
s v 101
s la 101
p ut 101
p ala 101
p vc 101
j t</w> 101
q w 101
5 pro</w> 101
l ai 101
i mar 101
n ine 101
c v 101
书 坊</w> 101
风 云</w> 101
宝 剑</w> 101
自 在</w> 101
胡 椒</w> 101
绳 子</w> 101
二 色</w> 101
开 店</w> 101
真 爱</w> 101
百 合</w> 101
欣 欣</w> 101
盆 景</w> 101
拍 拍</w> 101
军 规</w> 101
蒂 芙 101
单 排扣</w> 101
第 六</w> 101
牛 肉</w> 101
公 鸡</w> 101
汽 修</w> 101
束 缚</w> 101
荷 花</w> 101
玉 a</w> 101
服 务 101
进 击</w> 101
画 笔</w> 101
阴 蒂</w> 101
照 明灯</w> 101
膝 盖</w> 101
贵 族</w> 101
芥 末</w> 101
杂 粮</w> 101
le an</w> 101
en ga 101
si m 101
ba s</w> 101
so ld 101
de fin 101
qu oise</w> 101
pro polis</w> 101
kore an 101
sun day</w> 101
pan ty 101
ele t</w> 101
ci e</w> 101
ta p</w> 101
40 cm</w> 101
16 4</w> 101
19 8</w> 101
ce real</w> 101
pil lows</w> 101
mac aron</w> 101
pin k 101
poly mer</w> 101
ow ned</w> 101
bey ond</w> 101
idea pad</w> 101
arc tic</w> 101
fel t</w> 101
luck y 101
制作 人</w> 101
citro nella</w> 101
tul le</w> 101
double - 101
礼品 盒</w> 101
paradi se</w> 101
edifi ce</w> 101
烘干 机</w> 101
gladi ator</w> 101
( 7 100
( 上 100
( 粉 100
- 12</w> 100
3 kg</w> 100
t us 100
s it 100
p ine</w> 100
k aso 100
f v 100
i e 100
皮 具</w> 100
风 大</w> 100
生 产</w> 100
椅 套</w> 100
前 卫</w> 100
无 双</w> 100
戴 尔</w> 100
心 情</w> 100
香 菇</w> 100
翻 斗</w> 100
气 筒</w> 100
推 荐 100
橘 红</w> 100
壹 湾</w> 100
主 义</w> 100
灯 座</w> 100
邮 寄</w> 100
闪 闪</w> 100
浅 蓝色</w> 100
汤 姆</w> 100
形 状</w> 100
夫 人</w> 100
六 色</w> 100
妳 ]☆</w> 100
休 眠</w> 100
广 告 100
椰 子 100
席 子</w> 100
菠 萝</w> 100
as ia</w> 100
lo w- 100
ro t</w> 100
po me 100
bo o</w> 100
bo se</w> 100
am ar 100
ma u 100
sho rt- 100
201 2 100
pa y 100
pa ge</w> 100
cre ations</w> 100
30 / 100
30 m</w> 100
tr d</w> 100
be anie</w> 100
colo ure 100
slee k</w> 100
hu i</w> 100
36 -4 100
bas ics</w> 100
cu xi</w> 100
lin es</w> 100
run way</w> 100
long back</w> 100
tur quoise</w> 100
cm / 100
ine 100</w> 100
ank let</w> 100
sd hc</w> 100
工具 车</w> 100
130 g</w> 100
goo ds</w> 100
电子 琴</w> 100
ght ly</w> 100
lamin ating</w> 100
materi als</w> 100
zc 55 100
craf ts</w> 100
ido lish 100
coro lla</w> 100
sports wear</w> 100
ting i</w> 100
fad ed</w> 100
exper t</w> 100
lighten ing</w> 100
pik achu</w> 100
champa gne</w> 100
( 内</w> 99
d m</w> 99
2 15</w> 99
a ga 99
6 t</w> 99
3 x 99
t / 99
j e</w> 99
f ut 99
o dy 99
i mm 99
i pod</w> 99
c 5</w> 99
u k 99
# - 99
乐 家</w> 99
童 袜</w> 99
品 の</w> 99
女 朋友</w> 99
命 运</w> 99
鞋 内</w> 99
适 配器</w> 99
鱼 子</w> 99
豆 子</w> 99
创 作</w> 99
流 量</w> 99
油 箱</w> 99
加 湿</w> 99
天 地</w> 99
气 灶</w> 99
双 重</w> 99
木 炭</w> 99
杰 克</w> 99
初 秋</w> 99
园 林</w> 99
四 月</w> 99
贝 亲</w> 99
单 字</w> 99
番 茄</w> 99
银 河</w> 99
嫩 白</w> 99
钢 珠</w> 99
测 验</w> 99
父 亲节</w> 99
奖 杯</w> 99
鲑 鱼</w> 99
祈 福</w> 99
in s 99
to ni 99
al kal 99
ri m 99
hi s</w> 99
se awe 99
me t 99
me tro 99
ma gen 99
so le 99
fi ght</w> 99
do ff</w> 99
br al 99
ta c</w> 99
11 5 99
11 66 99
sam ura 99
boo ties</w> 99
40 4</w> 99
60 5</w> 99
sig n 99
yo la</w> 99
19 8 99
gre et 99
ste p 99
len ses</w> 99
son g</w> 99
bur ger</w> 99
ca y 99
ali ve</w> 99
wor th</w> 99
ph a</w> 99
air 2</w> 99
zi ppo</w> 99
premi ere</w> 99
cur ved</w> 99
2- way</w> 99
pas sion</w> 99
fir ming</w> 99
purpo ses</w> 99
mis sion</w> 99
fur nit 99
jen ny</w> 99
peel er</w> 99
bui ld</w> 99
effe ctive</w> 99
roman ce</w> 99
卖场 )</w> 99
kyo wa</w> 99
系列 )</w> 99
gau ge</w> 99
rela x 99
inte gr 99
abac a</w> 99
越野 车</w> 99
lagun a</w> 99
kaso y</w> 99
coloure tte</w> 99
samura i</w> 99
w s 98
m t- 98
2 13</w> 98
4 cm</w> 98
3 14 98
7 10</w> 98
h s 98
g f 98
g orge 98
f ate 98
o la</w> 98
n asa</w> 98
c ate</w> 98
小 鞋</w> 98
外 置</w> 98
b 1</w> 98
防 静电</w> 98
正 规</w> 98
机 场</w> 98
马 戏 98
纸 杯</w> 98
丝 质</w> 98
环 绕</w> 98
前 置</w> 98
宾 馆</w> 98
上 下</w> 98
炫 酷</w> 98
短 发</w> 98
笔 芯</w> 98
坠 饰</w> 98
人 形</w> 98
人 造 98
羊 肉</w> 98
八 角</w> 98
范 冰冰</w> 98
原 价$ 98
蜂 胶</w> 98
液 压</w> 98
暴 龙</w> 98
招 财 98
碎 机</w> 98
裸 妆</w> 98
固 体</w> 98
言 情 98
和 平</w> 98
黄 水晶</w> 98
榨 汁</w> 98
裁 剪</w> 98
严 选</w> 98
in d</w> 98
re :</w> 98
at m</w> 98
20 7</w> 98
un g 98
bo un 98
ti les</w> 98
mi rage</w> 98
su v</w> 98
dre ams</w> 98
or nam 98
00 00 98
shi r 98
qu ad</w> 98
tr acker</w> 98
sti r 98
60 4</w> 98
je wel</w> 98
90 9</w> 98
cu e</w> 98
can dies</w> 98
1- 1</w> 98
squ ad</w> 98
45 mm</w> 98
26 - 98
lan come 98
app a</w> 98
0. 3</w> 98
0. 9</w> 98
y6 7 98
44 mm</w> 98
sur vi 98
penci ls</w> 98
pol i</w> 98
glit tery</w> 98
41 -45</w> 98
davi doff</w> 98
蜘蛛 侠</w> 98
j5 prime</w> 98
chea p</w> 98
circu lar</w> 98
洗澡 盆</w> 98
caro lina</w> 98
recor der</w> 98
saman tha</w> 98
handker chief</w> 98
周年 庆</w> 98
greet ings</w> 98
( 0 97
e h</w> 97
2 500</w> 97
a 14 97
s z 97
j di</w> 97
i 8 97
深 度</w> 97
小 心</w> 97
x z</w> 97
魔 王</w> 97
雪 靴</w> 97
b ull</w> 97
大 圆</w> 97
五 月</w> 97
水 上</w> 97
新 书</w> 97
新 疆</w> 97
加 温</w> 97
可 口 97
车 模</w> 97
得 标</w> 97
香 料</w> 97
翻 译</w> 97
耐 穿</w> 97
发 声</w> 97
登 山 97
板 式</w> 97
洗 衣</w> 97
起 来</w> 97
触 感</w> 97
曼 谷</w> 97
不 二</w> 97
毛 领</w> 97
代 买</w> 97
汽 机</w> 97
束 带</w> 97
法 器</w> 97
春 节</w> 97
╭ ☆</w> 97
研 究</w> 97
应 急</w> 97
跳 台</w> 97
读 卡 97
温 度计</w> 97
碳 粉 97
训 练 97
绵 羊</w> 97
这 样</w> 97
避 光</w> 97
救 援</w> 97
孙 悟空</w> 97
凋 花</w> 97
敬 酒</w> 97
熨 烫</w> 97
逍 遥</w> 97
in cense</w> 97
re ar 97
re cord</w> 97
st rings</w> 97
en gra 97
ne i 97
lu lu</w> 97
ma g</w> 97
el l 97
mo ro 97
201 9- 97
ko lin</w> 97
pi cks</w> 97
18 1</w> 97
18 w</w> 97
ath y</w> 97
sa i</w> 97
ce e</w> 97
chi n</w> 97
80 2</w> 97
back packs</w> 97
bri de</w> 97
let t</w> 97
3- 6 97
5- 6</w> 97
sw addle</w> 97
ition al</w> 97
ton ite</w> 97
ga- 100</w> 97
love live</w> 97
mate 20</w> 97
scoo p 97
book mark</w> 97
buy 1</w> 97
摄像 机</w> 97
modu lar</w> 97
gas ket</w> 97
ide al</w> 97
clai re</w> 97
北极 熊</w> 97
马戏 团</w> 97
( 特价</w> 96
w ard</w> 96
d 2 96
m h</w> 96
2 16</w> 96
a 00 96
6 99</w> 96
7 cm</w> 96
7 47 96
r ul 96
r ty</w> 96
r s- 96
g al</w> 96
s 75 96
s sey</w> 96
p 0 96
手 作 96
j .</w> 96
q 3</w> 96
q c</w> 96
f am 96
l 0 96
n h 96
n n</w> 96
. 特价</w> 96
v ary</w> 96
u ag</w> 96
小 香</w> 96
格 丽</w> 96
红 花</w> 96
x s- 96
☆ nike</w> 96
系 小</w> 96
美 体</w> 96
风 镜</w> 96
日 语</w> 96
大 力</w> 96
长 巾</w> 96
爱 迪 96
屁 衣 96
牙 签</w> 96
清 香</w> 96
套 组</w> 96
套 套</w> 96
香 膏</w> 96
土 机</w> 96
张 )</w> 96
浴 帘</w> 96
会 社</w> 96
单 孔</w> 96
步 机</w> 96
裙 裤</w> 96
朋 克</w> 96
打 印</w> 96
穿 戴</w> 96
支 )</w> 96
情 趣 96
缝 纫 96
专 用 96
放 松</w> 96
滑 步</w> 96
坐 椅</w> 96
覆 盖</w> 96
舰 队</w> 96
矫 正器</w> 96
驾 驶 96
le a</w> 96
ac tor</w> 96
to d 96
al lure</w> 96
li st</w> 96
po reless</w> 96
di ce</w> 96
ni cs</w> 96
mo del 96
201 4- 96
sh aker</w> 96
qu a</w> 96
pl s</w> 96
pe e 96
19 95</w> 96
92 3</w> 96
he mat 96
-3 4</w> 96
iphone 7plus</w> 96
can ada</w> 96
500 0 96
san te</w> 96
win dows</w> 96
88 1</w> 96
bar be 96
har dy</w> 96
23 3</w> 96
spf 50 96
whi stle</w> 96
non- stick</w> 96
decor ations</w> 96
rash er</w> 96
coun ting</w> 96
top sider</w> 96
清洁 器</w> 96
kat erina</w> 96
dan cing</w> 96
lamin ated</w> 96
ddr 3</w> 96
10. 1</w> 96
dash board</w> 96
smas h 96
cad bury</w> 96
tri- color</w> 96
gogo ro 96
喇叭 裤</w> 96
留言 板</w> 96
intelli gent</w> 96
wid th</w> 96
foun tain</w> 96
benet ton</w> 96
alkal ine</w> 96
magen ta</w> 96
碳粉 匣</w> 96
( 5 95
( f 95
( 中 95
( 男 95
( m)</w> 95
( s)</w> 95
e mma</w> 95
2 d</w> 95
a pol 95
4 20 95
6 s 95
3 40 95
7 80</w> 95
5 i</w> 95
f us 95
o u</w> 95
o ro 95
卡 车</w> 95
i bo</w> 95
u ka 95
u ku 95
太 太</w> 95
z ard</w> 95
大 厅</w> 95
化 膜</w> 95
] :</w> 95
天 奴</w> 95
高 阶</w> 95
心 理学</w> 95
意 威</w> 95
胸 花</w> 95
土 豆</w> 95
盒 装)</w> 95
竹 编</w> 95
泡 菜</w> 95
凉 垫</w> 95
婴 幼</w> 95
战 国</w> 95
束 腰</w> 95
满 满</w> 95
名 款</w> 95
植 物 95
戒 子</w> 95
久 保 95
噪 音</w> 95
浆 机</w> 95
消 防</w> 95
柑 橘</w> 95
确 认</w> 95
re du 95
co lic</w> 95
en lar 95
me la</w> 95
on ion</w> 95
th in 95
th rasher</w> 95
ra pid</w> 95
ur ine</w> 95
ap ron</w> 95
pho enix</w> 95
fi fty</w> 95
gu mmy</w> 95
ear ly</w> 95
30 6</w> 95
ad d 95
11 6 95
sli ghtly</w> 95
24 mm</w> 95
ey elet</w> 95
eni s</w> 95
70 ml</w> 95
ak es</w> 95
1. 1</w> 95
head bands</w> 95
32 3</w> 95
iphone 7 95
3. 0 95
tor ch</w> 95
ben tonite</w> 95
26 5</w> 95
23 cm</w> 95
sy m</w> 95
66 8</w> 95
que st</w> 95
str anger</w> 95
chocol ates</w> 95
lac ed</w> 95
chlo e 95
yar is</w> 95
kieh l's</w> 95
1.2 m</w> 95
文件 夹</w> 95
pix el</w> 95
polar i 95
loot bag</w> 95
jessi ca</w> 95
amu let</w> 95
hawai ian</w> 95
( 黑色</w> 94
e ve 94
8 ml</w> 94
8 30</w> 94
1 400</w> 94
2 90</w> 94
7 000</w> 94
s z</w> 94
j l</w> 94
k 5</w> 94
卡 带</w> 94
i re</w> 94
i 6s</w> 94
n am</w> 94
x 18</w> 94
x 155</w> 94
头 带</w> 94
皮 箱</w> 94
日 葵</w> 94
日 用品</w> 94
韩 流</w> 94
玛 丽</w> 94
克 星</w> 94
水 笔</w> 94
宾 士 94
士 奇</w> 94
揹 巾</w> 94
车 轮</w> 94
无 人机</w> 94
电 池 94
电 锯</w> 94
天 蓝</w> 94
西 裤</w> 94
吊 挂</w> 94
窗 纱</w> 94
开 拓 94
波 希 94
字 笔</w> 94
百 分 94
学 生 94
飞 翔</w> 94
洗 脚</w> 94
毛 虫</w> 94
桌 球</w> 94
后 座</w> 94
储 水</w> 94
公 寓</w> 94
地 漏</w> 94
罗 纹</w> 94
泳 帽</w> 94
行 者</w> 94
蛇 头</w> 94
珠 珠</w> 94
甲 虫</w> 94
刻 版</w> 94
蚊 香</w> 94
消 防 94
锐 步</w> 94
投 资</w> 94
烘 干</w> 94
签 字笔</w> 94
垂 钓</w> 94
co sp 94
le sport 94
to - 94
20 吋</w> 94
20 21</w> 94
po nd</w> 94
bo s</w> 94
la va</w> 94
te k</w> 94
ap ex</w> 94
su m 94
00 5 94
pro bio 94
ci ga 94
100 - 94
sc allo 94
av ail</w> 94
16 00 94
che w 94
80 9</w> 94
70 8</w> 94
13 4</w> 94
hand s</w> 94
ali en</w> 94
organi x</w> 94
35 cm</w> 94
gar min</w> 94
jump shorts</w> 94
sha w</w> 94
mer ci 94
4. 2</w> 94
cher ry 94
cra yola</w> 94
ou l</w> 94
sky drive</w> 94
葡萄 酒</w> 94
超级 英雄</w> 94
emer ald</w> 94
ultr asonic</w> 94
pump s</w> 94
fee der</w> 94
astac lat</w> 94
嘉班 纳</w> 94
corpor ate</w> 94
chica go</w> 94
button down</w> 94
y67 v5s</w> 94
可口 可乐</w> 94
缝纫 机</w> 94
( t 93
( h 93
( 50</w> 93
e .</w> 93
d ining</w> 93
r g 93
r astaclat</w> 93
手 霜</w> 93
j ar 93
j am 93
9 月</w> 93
9 11</w> 93
卡 通 93
u gg</w> 93
x 8</w> 93
头 绳</w> 93
吋 / 93
背 面</w> 93
线 圈</w> 93
扩 音器</w> 93
烟 斗</w> 93
年 货</w> 93
德 镇</w> 93
直 立</w> 93
新 型</w> 93
工 坊</w> 93
优 选 93
粉 彩</w> 93
坦 克</w> 93
景 德镇</w> 93
发 簪</w> 93
脚 趾</w> 93
脚 凳</w> 93
芭 蕾</w> 93
袋 鼠</w> 93
不 可 93
火 辣</w> 93
理 疗</w> 93
喜 庆</w> 93
潜 航</w> 93
磨 牙</w> 93
造 形</w> 93
底 盘</w> 93
饰 品 93
进 阶</w> 93
猿 人</w> 93
医 用</w> 93
凹 凸</w> 93
费 雪</w> 93
酸 奶</w> 93
搞 笑</w> 93
涡 轮</w> 93
栏 杆</w> 93
鱿 鱼</w> 93
co ur 93
to e 93
ri b 93
se tte</w> 93
si um</w> 93
ai s</w> 93
10 7 93
th re 93
qu ad 93
pa ges</w> 93
mar tens</w> 93
mat tel</w> 93
mat cha</w> 93
40 3</w> 93
for ce 93
运动 表</w> 93
16 3</w> 93
fu bu</w> 93
he x</w> 93
stu dy</w> 93
28 5</w> 93
99 8</w> 93
1/ 6</w> 93
cti on 93
spea kers</w> 93
mk 58 93
mini figures</w> 93
na h</w> 93
6. 6</w> 93
genu ine100</w> 93
glit tered</w> 93
600 ml</w> 93
multi- functional</w> 93
7. 0</w> 93
spen cer</w> 93
nike air 93
hei st</w> 93
cali per</w> 93
j5 10</w> 93
atomi zer</w> 93
navar ro</w> 93
bree ze</w> 93
aesthe tic</w> 93
furnit ure</w> 93
gorge ous</w> 93
lesport sac</w> 93
( 6 92
( 粉</w> 92
m n</w> 92
0 10</w> 92
g urt</w> 92
s eni 92
p ear</w> 92
5 70</w> 92
9 50 92
i 5 92
n x</w> 92
v als</w> 92
u ps</w> 92
x dr</w> 92
古 巴</w> 92
大 家</w> 92
伯 爵</w> 92
正 式</w> 92
品 汇</w> 92
杀 )</w> 92
希 尔 92
实 验 92
码 数</w> 92
光 机</w> 92
包 保</w> 92
教 练</w> 92
水 道</w> 92
水 电</w> 92
瑕 膏</w> 92
工 房</w> 92
卷 发器</w> 92
无 声</w> 92
电 焊</w> 92
夏 新</w> 92
传 动</w> 92
燕 窝</w> 92
怪 物</w> 92
层 板</w> 92
理 器</w> 92
饮 品</w> 92
路 易</w> 92
校 服</w> 92
地 摊</w> 92
除 螨</w> 92
动 式</w> 92
摔 壳</w> 92
依 林</w> 92
缺 货</w> 92
脖 围</w> 92
照 灯</w> 92
照 相机</w> 92
放 置</w> 92
演 奏</w> 92
午 后</w> 92
摄 影 92
故 事 92
搁 板</w> 92
in ty</w> 92
re sso</w> 92
ar du 92
to wel 92
ro w 92
ri ous</w> 92
me tis</w> 92
un de 92
la p 92
so m</w> 92
so y</w> 92
cas ing</w> 92
de sert</w> 92
da w 92
da zz 92
go l</w> 92
cre ed</w> 92
18 2</w> 92
pe ace</w> 92
pe tal</w> 92
sli der</w> 92
16 mm</w> 92
he at 92
shoul ders</w> 92
tu ff</w> 92
dis on</w> 92
32 mm</w> 92
multi vitamins</w> 92
pat rick</w> 92
vel ve 92
y6 2</w> 92
cer ami 92
ze us</w> 92
ze 55 92
7/ 8</w> 92
infin ix</w> 92
落地 镜</w> 92
wei ghing</w> 92
toi let 92
sub woofer</w> 92
appro ved</w> 92
a9 2018</w> 92
puri fying</w> 92
quick sand</w> 92
suit case</w> 92
til bury</w> 92
acade mia</w> 92
credi t</w> 92
octo pus</w> 92
stande e</w> 92
mess age</w> 92
辅助 器</w> 92
广告 牌</w> 92
apol lo</w> 92
开拓 者</w> 92
波希 米亚</w> 92
3 12</w> 91
3 500</w> 91
h ats</w> 91
/ 6</w> 91
o ld 91
l f 91
i vy</w> 91
u f</w> 91
u em 91
小 品</w> 91
乐 团</w> 91
书 局</w> 91
风 尚</w> 91
b 1 91
防 护 91
黑 暗</w> 91
老 鹰</w> 91
器 具</w> 91
花 圈</w> 91
屁 屁</w> 91
内 含</w> 91
年 代</w> 91
丹 麦</w> 91
食 指</w> 91
新 鲜货</w> 91
佳 丽</w> 91
预 售</w> 91
人 工</w> 91
毛 毛虫</w> 91
浮 标</w> 91
部 分</w> 91
焦 点</w> 91
压 克力</w> 91
思 思</w> 91
玩 乐</w> 91
挂 帘</w> 91
专 科</w> 91
缘 子</w> 91
⋯ ⋯ 91
耗 材</w> 91
值 得</w> 91
灶 台</w> 91
乒 乓 91
in voice</w> 91
en e</w> 91
ri e 91
hi lux</w> 91
lu cas</w> 91
10 x</w> 91
th an</w> 91
ki ck</w> 91
ki sh</w> 91
00 6 91
do ri 91
vi lla 91
ter ry</w> 91
mar y 91
ta i</w> 91
mm * 91
36 6</w> 91
du bai</w> 91
col gate</w> 91
cu bic</w> 91
wor kout</w> 91
35 - 91
ps v</w> 91
3. 5 91
3. 4</w> 91
cr ack 91
ser vice</w> 91
star t</w> 91
23 4</w> 91
ag ed</w> 91
fen di 91
咖啡 店</w> 91
4- 6</w> 91
colla red</w> 91
twi lly</w> 91
acti ve 91
bul ls</w> 91
tal k</w> 91
gla n</w> 91
bear d</w> 91
jas on</w> 91
clou d 91
bron zer</w> 91
advan tage</w> 91
adidas /</w> 91
ras p 91
m-xx l码</w> 91
lif ting</w> 91
muff ler</w> 91
2015 年</w> 91
t3 ／</w> 91
a字 裙</w> 91
mouse pad</w> 91
lubric ant</w> 91
乌克 丽丽</w> 91
言情 小说</w> 91
( )</w> 90
( 约</w> 90
e b</w> 90
e pi 90
- d 90
m us</w> 90
a 梦 90
/ 3</w> 90
5 11</w> 90
5 40 90
k c 90
卡 钳</w> 90
l g 90
n \n</w> 90
c ler</w> 90
u m- 90
小 学</w> 90
小 金</w> 90
露 脐</w> 90
b 5 90
机 动</w> 90
基 地</w> 90
中 秋</w> 90
器 )</w> 90
宝 缇</w> 90
买 卖</w> 90
光 盘</w> 90
点 烟器</w> 90
油 污</w> 90
水 平 90
拆 装</w> 90
伦 天奴</w> 90
琪 琪</w> 90
宽 裤</w> 90
铝 框</w> 90
粉 碎机</w> 90
肥 皂盒</w> 90
袖 子</w> 90
痘 印</w> 90
疏 通</w> 90
凡 赛斯</w> 90
焊 接</w> 90
春 日</w> 90
轧 糖</w> 90
汤 勺</w> 90
漏 水</w> 90
画 框</w> 90
毫 升</w> 90
做 工</w> 90
告 白</w> 90
嘟 嘟</w> 90
营 业</w> 90
娱 乐</w> 90
in y</w> 90
to day</w> 90
se agate</w> 90
se oul</w> 90
di stri 90
si des</w> 90
me tro</w> 90
ti c 90
10 s</w> 90
th ank</w> 90
so il</w> 90
da inty</w> 90
min is</w> 90
50 4</w> 90
ter no 90
pa vi 90
uni on</w> 90
con s</w> 90
boo m</w> 90
60 w</w> 90
kit chen 90
ang els</w> 90
ce ci 90
chi ll</w> 90
tu mmy</w> 90
ak a</w> 90
200 4</w> 90
cho o</w> 90
1- 6</w> 90
bre mod</w> 90
brand ing</w> 90
26 8</w> 90
fri dge</w> 90
5. 6</w> 90
anti- spy</w> 90
玻璃 门</w> 90
supp lier</w> 90
neo 5</w> 90
birth stone</w> 90
600 g</w> 90
flu x</w> 90
hair pin</w> 90
ax le</w> 90
ax is</w> 90
pac o</w> 90
cla t</w> 90
#爆 款 90
realme 3</w> 90
dress ing</w> 90
re- ment</w> 90
stabi lizer</w> 90
gigab yte</w> 90
amaz on</w> 90
lace y</w> 90
kab uki</w> 90
clari fying</w> 90
ferragamo 菲拉 90
( 中)</w> 89
m se</w> 89
8 5g</w> 89
8 44 89
1 .</w> 89
0 18</w> 89
2 11</w> 89
a 01</w> 89
t 短t</w> 89
h n</w> 89
j z 89
5 w 89
k 8</w> 89
k an</w> 89
u de</w> 89
# 4 89
海 尔</w> 89
盘 香</w> 89
镜 架</w> 89
防 腐</w> 89
如 约</w> 89
背 光</w> 89
川 久保 89
通 道</w> 89
油 灯</w> 89
被 单</w> 89
厚 实</w> 89
尼 斯</w> 89
拆 )</w> 89
无 损</w> 89
半 截</w> 89
鲁 夫 89
饭 团</w> 89
普 普</w> 89
淘 宝</w> 89
热 售</w> 89
蔡 依林</w> 89
贴 耳</w> 89
国 产</w> 89
单 手</w> 89
分 子</w> 89
火 箭</w> 89
雷 神</w> 89
结 构</w> 89
喜 帖</w> 89
喜 宴</w> 89
素 食</w> 89
圣 经</w> 89
鲜 花</w> 89
英 文版</w> 89
口 腔</w> 89
动 感</w> 89
为 止</w> 89
和 风</w> 89
声 音</w> 89
航 拍</w> 89
棘 轮</w> 89
炒 菜</w> 89
绞 肉机</w> 89
显 白</w> 89
汪 汪</w> 89
渗 透</w> 89
ri ding</w> 89
on y</w> 89
la w</w> 89
ra h</w> 89
ki ki 89
ck ing</w> 89
de mon</w> 89
no ise</w> 89
vi et 89
pi ping</w> 89
wi ld 89
30 8 89
30 7</w> 89
30 9</w> 89
be t 89
sun rise</w> 89
pan g</w> 89
ci der</w> 89
yo obao</w> 89
tri logy</w> 89
32 2</w> 89
32 7</w> 89
55 mm</w> 89
ja y 89
3- 5</w> 89
cou ples</w> 89
cur ling</w> 89
99 - 89
23 .5</w> 89
bund les</w> 89
is sue</w> 89
78 9</w> 89
66 6</w> 89
tab s</w> 89
tal kie</w> 89
lac quer</w> 89
cin ia</w> 89
bn wt</w> 89
gga y</w> 89
迪士尼 乐园</w> 89
sequ ins</w> 89
philipp ine</w> 89
io pe</w> 89
work book</w> 89
dust bag</w> 89
aph ro 89
one- piece</w> 89
k2 g 89
kate spade</w> 89
蒂芙 尼</w> 89
enga gement</w> 89
ody ssey</w> 89
#- no.t1</w> 89
uem ura</w> 89
( l)</w> 88
e lu 88
a 款</w> 88
4 th</w> 88
6 30</w> 88
t au 88
r v</w> 88
r 7</w> 88
h t</w> 88
h am</w> 88
g 家</w> 88
g on 88
s 4 88
/ 2</w> 88
p enis</w> 88
j b 88
k ang</w> 88
& no.t1</w> 88
卡 夹</w> 88
卡 拉</w> 88
l ain</w> 88
n c 88
. 9</w> 88
雪 人</w> 88
复 活 88
大 礼包</w> 88
背 心 88
背 部</w> 88
下 床</w> 88
器 .</w> 88
_ _ 88
内 衣裤</w> 88
经 络</w> 88
色 :</w> 88
表 皮</w> 88
效 能</w> 88
揹 包</w> 88
车 业</w> 88
幻 影</w> 88
吊 顶</w> 88
心 动</w> 88
开 岔</w> 88
香 吉 88
磁 石</w> 88
双 排</w> 88
波 兰</w> 88
百 科</w> 88
钳 子</w> 88
国 王</w> 88
竹 子</w> 88
超 重</w> 88
不 倒翁</w> 88
改 造</w> 88
魅 惑</w> 88
钛 合金</w> 88
地 垫</w> 88
干 燥 88
鼠 标 88
泉 水</w> 88
画 架</w> 88
画 质</w> 88
列 印</w> 88
样 式</w> 88
秋 衣</w> 88
黄 )</w> 88
施 华</w> 88
蜥 蜴</w> 88
晾 晒</w> 88
in ti 88
hi d</w> 88
se p 88
20 5 88
mi che 88
te m 88
sp r 88
sp ell</w> 88
do wn 88
go ri 88
gu det 88
12 .5</w> 88
12 5g</w> 88
sun glass</w> 88
ru bi 88
11 12</w> 88
100 1</w> 88
40 x 88
sa g 88
mon arch</w> 88
stu ds</w> 88
par t 88
her rera</w> 88
lit hi 88
spi rit</w> 88
17 6</w> 88
lip balm</w> 88
32 6</w> 88
ka o</w> 88
air plane</w> 88
but t</w> 88
wel l 88
note 7</w> 88
bla ze</w> 88
ct 100</w> 88
sur plus</w> 88
perfe cting</w> 88
xx xl</w> 88
jan o 88
180 g</w> 88
chro ni 88
dol ly</w> 88
pawn able 88
pub g</w> 88
hydr ation</w> 88
radi ance</w> 88
brilli ance</w> 88
effe cts</w> 88
flip - 88
dow ny</w> 88
tol sen</w> 88
sala d</w> 88
nmd_ r1</w> 88
budd ha</w> 88
phan tom</w> 88
lancome 兰蔻</w> 88
toilet ry</w> 88
rasp berry</w> 88
水平 仪</w> 88
gudet ama</w> 88
2 -4 87
r ange</w> 87
h co 87
s ss</w> 87
/ 1</w> 87
手 幅</w> 87
k ut 87
o id</w> 87
i ps</w> 87
i md</w> 87
小 桌</w> 87
小 百货</w> 87
# 免</w> 87
海 蓝</w> 87
用 带</w> 87
皮 靴</w> 87
乐 天</w> 87
调 教</w> 87
关 键</w> 87
关 公</w> 87
黑 色 87
三 轮</w> 87
豆 沙</w> 87
年 历</w> 87
语 言</w> 87
点 烟</w> 87
效 期</w> 87
可 调整</w> 87
可 选)</w> 87
车 )</w> 87
瓷 碗</w> 87
利 时</w> 87
奇 幻</w> 87
高 山</w> 87
铁 制</w> 87
飞 轮</w> 87
文 版)</w> 87
主 管</w> 87
身 高</w> 87
胜 利</w> 87
俏 丽</w> 87
影 像</w> 87
取 )</w> 87
输 入</w> 87
[...]
