[ 92609
] 92269
包 56340
鞋 48159
/ 47410
现货 46117
款 44488
小 41244
女 33172
男 32919
新款 30903
, 28497
版 28191
休闲 27886
韩 25332
- 25296
" 23715
大 23045
~ 22188
全新 22187
时尚 22122
(@@ 19798
手 18133
免 18066
简约 17728
可 17425
搭 16068
收纳 15805
日本 15632
的 15351
单 15241
用 15215
多 15064
代购 14991
百 14624
一 14470
运动 14421
短袖 14107
裤 14006
nike 13984
肩 13790
夹 13685
上衣 13119
家 13097
儿童 13036
正品 13008
背包 12824
美 12817
运 12773
式 12468
套装 11984
套 11918
盒 11687
防 11563
长 11431
三 11308
* 11298
斜 11223
手机 11202
t恤 11157
+ 11032
外套 10980
超 10898
全 10768
创意 10763
架 10634
男士 10633
白 10632
红 10524
学生 10480
复古 10474
风 10463
新 10436
潮 10388
色 10351
经典 10303
网 10266
韩国 10177
情侣 10089
机 10058
高 10032
黑 10028
) 9991
柜 9920
蓝 9835
二手 9812
系列 9627
带 9568
adidas 9391
组 9192
潮流 9186
台湾 9115
夏季 9107
! 9072
黑色 8986
2 8960
品 8922
件 8916
中 8876
贴 8732
袋 8688
帽 8588
表 8540
现代 8478
可爱 8472
壳 8407
卡 8399
功能 8318
客厅 8282
短 8269
防水 8211
灯 8135
手表 8091
日 7859
特价 7856
不 7806
爱 7747
. 7631
裙 7540
宝宝 7506
家用 7492
女鞋 7473
玩具 7431
衣 7419
纹 7343
1 7341
卧室 7299
水 7216
lv 7176
air 7150
/@@ 7126
"@@ 7104
车 7083
垫 7080
丝 7057
双 7021
ml 6992
头 6945
精品 6924
宽松 6914
北欧 6906
人 6901
3 6870
运动鞋 6803
装 6788
花 6765
长袖 6765
原 6748
椅 6680
棉 6620
牛皮 6575
透气 6575
gucci 6550
木 6542
置 6494
金 6494
#@@ 6463
挂 6451
牌 6406
两 6398
床 6363
纯棉 6270
正 6249
美国 6216
扣 6190
杯 6134
型 6104
板 6102
加厚 6043
慢跑 5927
物 5910
专用 5886
侧 5858
耳环 5823
不锈钢 5821
送 5784
码 5703
层 5694
女士 5689
古 5631
猫 5625
洋装 5609
代 5562
宝 5554
男女 5545
真皮 5528
桌 5515
汽车 5510
同 5505
货 5493
造型 5466
沙发 5434
显 5416
个性 5390
装饰 5369
秋 5348
有 5343
系 5343
包包 5329
后 5300
短裤 5296
4 5283
实 5277
无 5267
粉 5247
厨房 5241
印花 5236
爆 5207
线 5205
箱 5192
.@@ 5170
玻璃 5165
用品 5155
钱包 5140
饰 5133
手提包 5132
四 5128
下 5119
瘦 5110
元 5105
新品 5077
t 5074
拖鞋 5067
格 5060
-@@ 5048
乐 5035
礼物 5033
吊 4993
蕾 4972
片 4969
迷你 4966
书 4958
折 4958
洗 4944
物架 4933
正版 4919
5 4879
冬 4877
王 4862
袖 4850
ins 4842
卡通 4832
女生 4817
预购 4815
保 4808
夏 4801
10 4794
上 4774
修身 4745
号 4722
x 4720
米 4703
圆领 4687
二 4656
背心 4631
衬衫 4619
白色 4617
热卖 4573
便 4568
服 4556
户外 4542
入 4536
台 4535
店 4531
实拍 4520
发 4501
2020 4497
100 4482
性感 4432
皮 4412
布 4405
充电 4362
限定 4354
男生 4349
厂 4344
热销 4332
之 4315
制 4312
面 4281
# 4261
家居 4239
分 4230
组合 4230
好 4213
6 4202
笔 4201
长裤 4184
生活 4170
2019 4169
气质 4166
拿 4142
商务 4140
连 4138
简易 4122
杀 4120
电 4116
电脑 4115
折叠 4112
出清 4108
钻 4103
拉链 4094
娃娃 4082
logo 4067
牛仔 4064
跑步 4060
针织 4044
婴儿 4012
衣服 3979
透明 3966
出货 3959
手工 3959
内 3934
刷 3933
保护 3916
容量 3890
狗 3890
背 3890
欧 3888
香 3886
神器 3864
皮带 3845
公司 3841
附 3840
进口 3825
口 3824
盘 3801
耳 3801
薄 3796
通用 3794
满 3765
懒人 3763
』 3746
腰 3737
『 3735
苹果 3722
黑白 3722
胶 3714
2017 3697
馆 3690
舒适 3686
化妆 3670
绿 3627
油 3620
贴纸 3611
成人 3604
耐 3602
max 3599
盖 3599
子 3596
马 3580
光 3562
游戏 3544
coach 3523
防滑 3517
脚 3512
棒 3508
led 3506
储 3498
提 3489
耳机 3464
香水 3457
2018 3451
chanel 3450
湿 3447
编织 3442
毛 3441
8 3432
专柜 3432
字 3430
限量 3429
设计 3422
金属 3422
公仔 3418
篮球 3402
12 3401
电动 3397
软 3387
买 3386
边 3385
无线 3373
眼镜 3367
袜 3349
球 3346
五 3332
小@@ 3321
项链 3319
居家 3311
镜 3311
小型 3304
30 3299
配件 3286
熊 3285
霜 3285
必备 3267
迪达 3235
饰品 3231
: 3229
凉鞋 3224
挎包 3223
保暖 3212
银 3184
驰 3182
玫瑰 3175
携 3174
茶 3157
吉 3156
条 3154
穿 3151
优 3143
轻 3143
购 3134
你 3105
气垫 3105
迪士尼 3105
商品 3101
个 3080
挎 3077
> 3072
支架 3071
摆件 3057
女装 3031
? 3029
7 3025
卫 3021
9 3020
t@@ 3017
防晒 3016
茶几 3006
春 3005
下标 2990
腕 2984
刺绣 2983
欧式 2979
宠物 2963
液 2935
客 2934
女童 2933
黄 2932
条纹 2926
迪 2906
天然 2902
铁 2899
连衣裙 2893
限时 2888
情趣 2884
旅行 2881
欧美 2875
半 2870
工具 2867
最 2863
diy 2858
立体 2854
保护套 2845
水晶 2845
龙 2845
卖场 2827
绳 2824
cm 2819
成 2818
牛仔裤 2818
蛋 2798
瓶 2796
护 2785
牙 2785
底 2783
手链 2777
直 2776
摔 2775
开 2770
拉 2767
眼 2765
奇 2762
心 2750
含 2745
香奈儿 2743
下单 2739
本 2732
寸 2726
与 2723
冰 2721
清新 2720
墙 2713
户型 2704
11 2703
20 2699
选 2697
公主 2692
纸 2688
连身 2685
链条 2684
大@@ 2678
内衣 2671
优惠 2668
iphone 2666
模型 2663
宿舍 2656
年 2655
☆@@ 2651
纯 2646
纯银 2643
大号 2642
跟 2630
宽 2620
少女 2617
皮革 2612
咖啡 2592
s 2589
字母 2581
方 2576
压 2540
pro 2538
品质 2538
红色 2531
框 2519
］ 2517
标 2515
陶瓷 2505
前 2504
_ 2502
假 2496
x@@ 2486
帮 2482
usb 2466
屋 2459
珍珠 2457
钉 2457
浴室 2455
亮 2447
圈 2446
零钱 2433
桶 2430
门 2428
蓝色 2427
自动 2421
室内 2417
跑鞋 2412
50 2409
家具 2407
罩 2402
s@@ 2400
凳 2398
两用 2393
轮 2388
枕 2386
粉色 2384
艺 2378
自 2369
a 2367
领 2363
兔 2356
拼接 2354
童 2354
速 2354
_@@ 2345
细 2343
天 2339
皮夹 2339
甲 2337
［ 2337
外 2336
梦 2336
地 2327
快速 2327
胸 2326
c@@ 2319
特 2315
和 2306
低 2304
双人 2304
巴 2298
刀 2296
路易威登 2290
a@@ 2287
器 2283
高腰 2281
15 2278
我 2272
露 2266
画 2253
适用 2253
定制 2250
落地 2247
灰 2240
罐 2237
联名 2235
kitty 2234
m@@ 2231
圆 2218
健身 2215
配 2211
回 2202
岁 2197
卫生间 2193
内裤 2183
锅 2183
碗 2182
品牌 2180
坠 2174
沙滩 2174
智能 2173
出 2169
双层 2169
周边 2166
plus 2159
阳台 2157
区 2156
毛衣 2156
珠 2153
g@@ 2150
吊带 2150
帆布 2141
厚底 2139
蝴蝶结 2139
夜 2138
18 2137
感 2137
作 2135
批发 2133
拆 2133
雪纺 2133
5@@ 2131
对 2130
干 2129
未 2127
餐厅 2120
桌面 2118
专业 2115
短t 2104
jordan 2103
精华 2101
桌子 2100
拼 2098
m 2096
促销 2096
拍 2096
动漫 2094
纯色 2093
单人 2087
e@@ 2086
童装 2085
礼盒 2084
钢 2079
铺 2077
面膜 2071
迷 2069
质 2066
只 2065
打底 2063
角 2060
b@@ 2058
椅子 2058
淡 2056
张 2051
专属 2050
特惠 2047
f@@ 2040
d@@ 2036
塑料 2033
音 2033
星 2032
空 2028
七 2027
k@@ 2014
运费 2009
弹 2008
＊ 2006
冬季 1999
美式 1994
真 1991
new 1990
按摩 1989
7@@ 1988
尺码 1988
着 1985
补 1980
架子 1979
电池 1973
3@@ 1970
跨 1968
电视 1964
石英 1963
座 1960
布艺 1958
办公 1956
彩色 1953
办公室 1952
8@@ 1948
g 1947
2016 1935
6@@ 1927
卷 1926
售 1924
尺 1910
清洁 1897
点 1892
加 1891
绑带 1890
弹力 1887
c 1885
车载 1879
4@@ 1877
burberry 1876
三叶草 1874
2@@ 1872
200 1871
太阳 1869
抽 1869
皮套 1867
插 1865
纱 1856
手环 1854
< 1852
双面 1849
价 1848
mk 1847
格子 1844
篮 1843
猫咪 1839
链 1839
金色 1838
撞 1837
杆 1837
材料 1835
鱼 1835
口袋 1832
极 1830
电源 1827
日式 1825
(现货) 1824
书桌 1822
快 1822
小米 1820
公分 1817
质感 1817
生 1816
★@@ 1814
月 1814
克 1813
六 1810
michael 1809
16 1806
德国 1805
爱心 1805
静音 1805
the 1803
礼 1803
i@@ 1800
双肩包 1800
圆形 1800
随身 1799
机械 1797
19 1794
百货 1788
明星 1786
钱夹 1786
锁 1786
体 1785
动物 1781
束 1781
耐克 1778
腿 1778
非 1773
腰带 1772
&@@ 1771
吸 1769
9@@ 1768
相机 1764
彩 1762
h@@ 1761
500 1760
mm 1760
学院 1759
☆ 1756
女孩 1751
飞 1751
v@@ 1743
斯 1738
l@@ 1735
达 1735
卖 1731
石 1725
原装 1724
餐桌 1719
生日 1716
戒指 1706
风扇 1706
超薄 1705
去 1701
米奇 1700
整理 1699
紫 1697
镂空 1694
24 1691
推荐 1690
0@@ 1688
勾 1687
海贼 1687
矽胶 1686
n@@ 1684
kors 1683
种 1683
清 1682
帆布鞋 1681
风格 1673
% 1672
平 1666
l 1663
w@@ 1663
防尘 1661
10@@ 1658
925 1657
安全 1656
充 1646
安 1644
3d 1642
抗 1642
礼品 1640
转 1637
300 1635
睡衣 1634
boost 1633
小舖 1629
盆 1629
电子 1624
奢 1621
书架 1619
男童 1617
环保 1615
金@@ 1614
17 1613
手套 1603
增高 1602
平底 1599
英伦 1593
秋季 1592
力 1591
60 1586
雾 1585
玄关 1584
推 1580
p@@ 1579
w 1579
绣 1578
12@@ 1576
厚 1572
雅 1571
秒 1570
伸缩 1566
到 1558
来 1558
短款 1553
ck 1551
控 1550
零 1547
学习 1545
灰色 1545
全自动 1543
滤 1543
q@@ 1539
精致 1539
加大 1537
文 1536
墨镜 1535
帽子 1534
z@@ 1533
钥匙 1530
春秋 1529
轻便 1528
制造 1527
90 1526
书包 1526
*@@ 1525
精 1525
万 1521
裤子 1521
餐 1521
展示 1518
80 1516
机车 1516
衣柜 1516
壁挂 1514
puma 1510
立 1510
订 1507
13 1503
玩 1503
mini 1502
抱枕 1497
经济型 1495
唇膏 1494
b 1491
甜美 1489
流苏 1487
拖 1485
抓 1483
+@@ 1482
louis 1482
伞 1482
喷雾 1482
围巾 1481
排 1481
男装 1481
海 1478
全馆 1476
卡@@ 1475
雪 1475
顶级 1475
慢 1474
鞋子 1474
千 1472
厂家 1472
hello 1471
请 1471
v领 1470
originals 1469
林 1464
防风 1463
阿 1463
是 1462
材质 1461
香港 1459
尺寸 1457
蛋糕 1456
战 1455
★ 1454
dior 1453
蜜 1452
耐磨 1450
1@@ 1446
14 1443
被 1442
u@@ 1440
财 1439
ysl 1438
华 1438
大学 1438
票 1438
台式 1437
管 1437
芽 1437
固 1436
收 1436
行 1434
20@@ 1433
合 1433
限 1433
40 1432
i 1432
世界 1431
夏天 1429
脸 1428
春季 1427
针 1426
y@@ 1425
招 1424
微 1423
训练 1422
猪 1414
& 1413
包装 1413
森 1413
水@@ 1410
在 1409
支 1407
英国 1401
利 1400
@@@ 1399
armani 1398
25 1397
r@@ 1397
夏装 1397
环 1397
n 1396
小孩 1393
小熊 1391
花@@ 1391
奶 1390
西装 1390
炉 1387
仿真 1386
碎 1386
笔记本 1386
打孔 1384
房 1381
北 1379
哥 1379
玩偶 1377
vuitton 1375
孔 1375
粗 1371
直销 1368
喇叭 1367
衣架 1367
黑@@ 1365
丽 1364
tee 1363
漆 1363
团 1362
具 1360
印 1360
床头 1357
水果 1357
海外 1356
剂 1353
晶 1352
风衣 1352
购物 1351
次 1350
泰国 1350
打 1349
图案 1347
柜子 1347
16@@ 1343
度 1342
图 1341
钥匙圈 1340
^ 1339
都 1339
反光 1338
钢化 1338
餐具 1338
旋转 1335
车用 1335
抖 1331
宝莉 1330
轻量 1330
塑胶 1329
器@@ 1327
四季 1323
妈妈 1323
100% 1321
植物 1321
圣诞 1319
神 1319
几 1318
镶 1317
绘 1314
d 1313
叶 1313
翻盖 1313
坐 1311
素 1307
热 1305
魔 1304
菱 1303
情人节 1302
棉麻 1302
贝壳 1301
v 1300
仪 1300
小号 1298
13@@ 1297
福 1297
佛 1293
携式 1293
304 1292
吋@@ 1292
铜 1290
妈咪 1288
羊皮 1288
包@@ 1286
粉红 1286
气 1285
法国 1283
陈 1283
15@@ 1280
保温 1278
水钻 1278
礼服 1278
白@@ 1277
洁 1276
便宜 1275
火 1275
浴 1274
钱 1274
九 1273
改装 1266
臀 1266
鬼 1266
亚 1264
全场 1264
吊灯 1263
空气 1262
老 1259
滑板 1257
刮 1255
扭 1254
14@@ 1253
木质 1252
行动 1252
无袖 1251
11@@ 1250
o@@ 1248
仿 1247
莉 1247
30@@ 1245
活 1243
起 1242
阿玛尼 1239
佳 1234
酒 1233
透 1231
优质 1230
积木 1228
加绒 1225
袜子 1224
保证 1223
泳衣 1223
音乐 1223
东 1222
水桶 1221
官方 1220
润 1219
集 1218
balance 1217
圣 1217
泡泡 1216
配色 1215
宅 1214
水杯 1214
沐浴 1213
f 1212
性 1212
萌 1212
会 1210
模 1210
绝版 1210
hermes 1206
女性 1205
服装 1205
硅胶 1205
八 1203
美@@ 1202
罗 1201
三星 1200
持久 1200
孩 1199
19@@ 1196
粘 1195
1000 1191
u 1191
零食 1191
颜 1191
40@@ 1190
浅 1189
中式 1188
特卖 1186
星星 1182
无痕 1181
肩带 1179
50@@ 1177
麂皮 1177
芯 1176
青年 1176
原宿 1175
生日礼物 1175
眼影 1174
遮 1174
一@@ 1173
糖果 1172
艾 1172
迷彩 1172
活动 1171
prada 1170
ultra 1170
李 1170
波 1170
孕妇 1169
英文 1169
e 1168
水壶 1168
玉 1168
游 1167
胶带 1167
$@@ 1166
18@@ 1165
烤 1164
可折叠 1163
赠 1163
60@@ 1161
绿色 1161
学 1160
办 1159
球鞋 1158
老爹 1158
花朵 1157
baby 1156
one 1156
手书 1151
奥 1150
弹性 1150
泡 1150
套头 1147
工作 1147
国际 1144
pvc 1143
素面 1143
自行车 1143
移动 1141
25@@ 1139
36@@ 1139
j@@ 1139
毛巾 1138
电脑桌 1138
90@@ 1136
工业 1134
枕头 1134
烫 1134
荔枝 1132
腰包 1131
柔软 1130
道具 1130
铝合金 1130
等 1128
红@@ 1128
36 1127
欧洲 1124
素色 1124
nmd 1123
中@@ 1121
共 1121
精油 1120
儿 1119
实用 1119
150 1117
直播 1116
全套 1112
净 1111
老花 1111
shop 1110
优雅 1106
平板 1106
糖 1105
装饰品 1105
空调 1104
00@@ 1102
味 1100
子@@ 1099
伦 1098
尾 1098
裙子 1096
尼 1095
威 1094
德 1094
巴黎 1093
比 1092
女神 1091
证 1091
k 1090
代理 1089
取 1087
长裙 1087
颗 1087
舒 1086
青 1084
sony 1082
= 1081
盒装 1081
美容 1081
窗 1080
路 1079
购物袋 1078
隐形 1078
牛 1077
品@@ 1076
坊 1076
尚 1076
桌椅 1076
流行 1076
70@@ 1074
强力 1074
港 1074
zoom 1072
遥控 1070
音响 1070
机壳 1069
婚礼 1068
靠背 1067
蚊 1066
重 1066
亲子 1065
酒店 1065
夹克 1063
级 1062
挂件 1061
街 1060
24@@ 1059
star 1059
漫画 1058
草 1058
麦 1058
修 1056
化 1056
空间 1054
樱花 1053
lego 1049
睡 1048
软壳 1048
80@@ 1046
17@@ 1045
滑 1042
坐垫 1040
磨 1040
鸟 1039
风@@ 1038
碟 1036
站 1036
毛绒 1035
除 1035
dvd 1032
文具 1032
山 1031
凯 1028
法 1028
vans 1027
史 1027
高档 1025
饼干 1021
apple 1020
短裙 1020
田 1019
21 1017
果 1016
三角 1015
系带 1014
商用 1013
彩虹 1013
oppo 1012
r 1011
converse 1008
深蓝 1008
高@@ 1008
超级 1007
磨砂 1006
萤幕 1006
五金 1005
国 1005
牙刷 1005
角落 1002
餐椅 1002
polo衫 1001
十 1001
华为 1001
翻领 997
充气 996
换 996
茶具 996
35@@ 995
约 995
for 994
皮鞋 990
者 990
高筒 990
料 989
洋气 989
flyknit 988
粒 988
膜 988
发饰 987
怪 987
钻石 987
阿@@ 986
｜ 986
原创 985
宝贝 985
长方形 985
变 979
拉杆 979
做 978
asus 977
艺术 977
旧 976
就 975
阿迪达斯 975
鸡 975
供应 974
尼龙 974
秀 972
豆豆 971
座椅 970
放 970
炼 970
versace 968
食 967
@ 963
casio 961
32@@ 959
口罩 959
干燥 959
布@@ 957
计时 956
兰 955
扇 954
易 954
树 954
卡片 953
闪 953
38@@ 952
发夹 952
能 952
force 951
派对 951
街头 951
紫外线 948
戴 947
机@@ 947
行李箱 947
32 946
已 945
省 945
包邮 944
吃 944
效 944
高跟鞋 944
大理石 943
房间 942
菜 942
饼 942
胖 941
香@@ 941
中国 940
p 938
多色 938
手提 937
无@@ 937
书房 936
版) 936
乔丹 935
剪 935
组装 935
升降 934
壁 934
小脚 934
键盘 934
""" 933
1.5 932
350 932
z 932
冰箱 932
／ 932
棒球帽 931
益智 930
天@@ 929
背带 929
蝴蝶 929
尖头 928
冷 927
泰 927
-2@@ 926
充电器 926
枪 925
巧克力 924
镜子 924
哈 923
露营 923
h 922
紫色 919
书柜 918
露肩 917
青少年 917
贝 913
口红 912
舞 912
-0@@ 911
跑 911
fendi 910
连体 910
台灯 909
手包 908
26 907
手@@ 907
收藏 907
钓鱼 907
表带 906
豆 906
supreme 905
景 904
洋 903
窗帘 903
另 902
搭配 902
柔 902
│@@ 901
厕所 900
小说 900
结婚 899
55@@ 898
凳子 898
周年 896
新@@ 895
浪漫 894
夏日 893
摩托车 892
中文版 890
进 890
3m 888
初学者 888
商 888
拉@@ 888
拼图 888
档 888
银色 888
samsung 887
女包 887
gg 886
斯@@ 886
芬 883
面包 882
把 881
烘焙 880
化妆品 879
少年 879
泳装 879
登 879
人@@ 876
梳妆台 876
简 876
通 876
70 875
一字 875
西 875
款) 873
盒子 873
动 872
思 872
旅游 872
杯子 872
饮 872
串 871
托 871
魔法 871
22@@ 870
o 869
便当 869
合金 869
吧台 869
基本 869
灯具 869
长@@ 868
黄色 868
钩 867
| 866
宝@@ 865
挂钩 864
米妮 864
连线 864
飞机 864
超人 863
35 862
75@@ 862
\n 862
夜光 862
超大 858
入) 857
双色 857
持 857
]@@ 856
致 856
400 855
bb 855
登山 855
了 853
赏 853
镜头 853
童鞋 852
授权 851
范 851
发@@ 850
木@@ 850
粉底 850
安全帽 849
布置 848
自然 847
魔术 847
减 846
季 846
母 846
85 845
杂货 845
虎 845
ps4 844
海报 844
真品 844
航海 844
97 843
太阳镜 843
手镯 843
明 843
朵 843
0 842
乔 840
特@@ 840
骑士 840
订制 839
23 838
28 837
健康 835
国@@ 835
外出 834
车@@ 834
喷 833
康 833
衬衣 833
深 832
转卖 832
身 831
disney 830
生物 829
安卓 828
最新 828
相 828
马桶 828
初 827
劲 827
凉 825
拍照 825
三@@ 824
智慧 824
虾皮 823
22 822
修护 820
得 820
间 820
范思哲 819
上市 818
九分 817
复 817
切 816
堂 816
妹 816
时 816
丹 815
托特 815
平底鞋 813
心@@ 813
衣物 813
polo 812
款@@ 812
鞋架 812
仙女 811
遮阳 811
骑 811
可@@ 810
塑 810
xs 808
圣诞节 807
cd 806
道 806
里 806
高端 806
pp 805
保鲜 805
发货 805
床头柜 805
斗 805
28@@ 804
颜色 804
地毯 803
强 803
独家 803
go 800
吧 800
数位 799
紧 799
600 798
变频 798
形 798
(附 797
嘴 797
点点 796
交叉 795
翻 795
走 795
隔断 794
26@@ 793
半身 793
纸巾 793
乐@@ 792
海@@ 792
版@@ 792
折扣 791
电@@ 790
cos 789
不@@ 789
短靴 789
单@@ 788
海绵 788
洗澡 785
360 784
大衣 783
段 783
彩绘 781
色) 781
摄影 780
95 779
装饰画 779
's 778
密封 778
方形 778
松紧 778
神奇宝贝 778
草莓 778
幼儿 777
戒 777
志 776
la 775
家庭 775
88@@ 774
三色 774
严 774
义 774
文艺 774
模具 774
㊣@@ 773
军 773
卫衣 773
奢华 773
阔 773
几何 772
擦 772
服饰 772
钢带 772
兔子 770
近 770
yeezy 769
摆 768
switch 767
罗兰 767
love 766
披肩 766
直筒 766
绒毛 766
│ 765
胡 765
吸管 764
看 764
窄 764
麦克风 764
low 762
感应 762
破 762
刘 761
抱 761
24h 760
-3@@ 758
完美 758
冲 757
流 756
科技 756
米@@ 756
送礼 756
女@@ 754
雨 754
多肉 753
真空 753
足 753
光@@ 752
克@@ 752
精灵 752
酒吧 752
99 751
抽屉 751
立式 751
伊 750
竹 750
飘 750
购买 749
工 748
普拉达 748
超值 745
娃 744
万用 743
双肩 743
爱@@ 743
创 741
紧身 740
7-11 739
全身 739
瑜伽 739
3c 738
乐器 738
睫毛 738
幼儿园 737
掌 737
新娘 737
笼 737
文化 736
靠垫 736
乳 735
漫 734
先生 733
办公桌 733
250 731
处 731
恐龙 731
34@@ 730
} 730
欧风 730
法式 730
45 728
乳@@ 728
剑 728
立领 728
65@@ 727
af 727
ar@@ 727
榻榻米 727
部 727
大型 726
要 726
黄金 726
and 725
{ 725
塔 725
小学生 725
泥 725
官 724
梦幻 724
皮@@ 724
羊毛 724
隔热 724
37@@ 723
制作 723
y 722
发光 722
彪 722
铅笔 722
使用 721
凡 721
开关 721
陶 721
沙 720
cc 719
衫@@ 719
门口 719
队 719
慕 718
洗衣机 718
男子 718
种子 718
高级 718
册 716
固定 716
马@@ 716
竞 715
东京 713
偶 712
海洋 711
中性 710
良 710
倍 709
叠 708
徽章 707
日常 707
精选 707
漾 706
椰子 705
照片 704
45@@ 703
卡西欧 703
(全新) 702
23@@ 702
原价 700
吸顶灯 700
器材 700
围 700
衣@@ 700
七龙珠 699
分装 699
后背 699
番 699
run 698
头@@ 698
烧 698
(二手) 696
位 696
第一 696
刻 695
家@@ 695
掀 694
渔夫 693
嘻哈 692
(现货 691
手动 691
款式 691
现 691
虾 691
仙 690
完 690
bts 689
柠檬 689
92@@ 688
公 688
安装 688
购入 688
吋 687
墙壁 687
多@@ 687
神@@ 687
膏 687
柱 686
食品 686
保养 685
垂 685
刺 684
涂鸦 684
香氛 684
于 683
工厂 683
男性 683
制@@ 682
电影 682
手提袋 681
期 681
棒球 681
印章 680
城 680
帅气 680
灭 680
雪花 680
震动 680
竿 678
缩 678
写字 677
针织衫 677
交换 676
清仓 676
螺丝 676
re@@ 675
墙面 675
开发 675
森林 675
比基尼 675
数 674
洗发精 674
量 673
章 672
设计师 672
剪刀 671
床垫 671
橡胶 671
沥水 671
骨 671
27@@ 670
名媛 670
墙上 670
冷气 669
新生儿 669
标准 669
武士 668
(良好) 667
垃圾桶 666
指 666
羊 666
莎 666
mo@@ 665
三件 665
宁 665
旅行包 665
ipad 664
乳液 664
德@@ 664
田园 664
秋装 664
38 663
万圣节 663
也 663
优选 663
史努比 663
油@@ 663
游泳 663
耳针 663
all 661
公文包 661
台北 661
居 661
松 661
48 660
太 660
梳 660
衫 660
高跟 660
谷 659
-4@@ 658
// 658
劳力士 658
名牌 658
必 658
手袋 658
机能 658
主机 657
低筒 657
-- 656
单车 656
名 656
吸水 656
店铺 656
拉拉 656
暖 656
阁 656
摆饰 655
顶 655
in 654
q 654
定 654
数字 654
果冻 654
美妆 654
牛奶 653
$ 652
怪兽 651
磁铁 651
鸭舌帽 651
加长 650
安@@ 650
小童 650
山@@ 650
液晶 650
垫子 649
滋润 649
xl 648
大气 648
毛孔 648
窝 648
ml@@ 647
二代 647
a字 646
by 645
再 645
网布 645
过 645
2.0 644
s-@@ 644
南 644
天使 644
破洞 644
罗马 644
htc 643
奶瓶 643
小姐 643
携带 643
文@@ 643
背景墙 642
防护 642
亮片 641
澳洲 641
色@@ 641
1/2 640
师 640
床单 640
挂钟 640
英雄 640
88 639
云 639
先 639
及 639
时钟 639
纪念 639
34 638
可调 638
茶杯 638
黑红 638
kg 637
粉饼 637
智 636
桃 636
青春 636
小巧 635
33 634
硕 634
聊聊 634
衣着 634
小时 633
110 632
制服 632
规则 632
钥匙扣 632
香精 632
white 631
吹 631
背景 631
｜@@ 631
mi@@ 630
s925 630
超@@ 630
防弹 630
※@@ 629
战士 629
植 629
蒸 629
蜡烛 629
运) 629
内@@ 628
遮阳帽 628
钢圈 628
全@@ 627
敏 627
(含 626
上@@ 626
女款 626
花园 626
gb 625
简单 625
专辑 624
出版 624
星空 624
渐 624
很 623
硬 623
蛇 623
101 622
帆 622
询问 622
降价 622
[@@ 621
周 621
给 621
nb 620
艾@@ 620
莫 620
亚@@ 619
老@@ 619
早 618
琳 618
31 617
of 617
子女 617
民族 617
(可 616
中文 616
版百 616
1-@@ 615
700 615
羽绒 615
音箱 614
nba 613
to@@ 613
保温杯 613
罩衫 613
邮差 613
附发 613
雅@@ 613
33@@ 612
门帘 612
零件 612
英 611
衣橱 611
首饰 611
鳄鱼 611
双@@ 610
歌 609
(2 608
2020年 608
6s 608
chic 608
拆封 608
格@@ 608
雨伞 608
black 607
卸妆 607
婴幼儿 607
运@@ 607
xr 606
帐 606
联 606
健 605
机器人 604
男用 604
1/@@ 603
发带 603
总动员 603
柄 603
64@@ 602
79 602
ac@@ 602
调 602
摆设 601
薇 601
幸福 600
遮光 600
27 599
园 599
太空 599
科 599
tomica 598
当 598
星巴克 598
野 598
雷 598
欢迎 597
生@@ 597
第二 596
an@@ 595
co@@ 595
house 595
底座 595
日历 595
纹身 595
29@@ 594
维修 594
肉 594
角色 594
槽 593
步 593
清@@ 593
踢 593
可以 592
帽t 592
本@@ 592
小店 591
绑 591
趴 591
(全新 590
妈 590
珠宝 590
维尼 590
茶壶 590
装@@ 590
信封 589
老人 589
ua 588
抽屉式 588
t-@@ 587
壁灯 587
黄@@ 587
果汁 586
鹿 586
之@@ 585
偏光 585
帐篷 585
荷叶 585
专 584
修复 584
尔@@ 584
球衣 584
税 584
室 583
诱惑 583
护理 582
水龙头 582
理 582
皱 582
se 581
台中 581
37 580
under 580
利@@ 580
宫 579
杂志 579
cm) 578
uv 578
床边 578
毛线 578
翡翠 578
● 577
挂衣 577
01 575
头饰 574
指甲 574
洛 574
classic 573
屁衣 573
毛呢 573
记 573
on 572
superstar 572
高领 572
99@@ 571
me@@ 571
世家 571
功夫 571
吸盘 571
奶油 571
教 571
125 570
m号 570
专区 570
二@@ 570
拍摄 570
bag 569
t恤@@ 569
抗菌 569
香风 569
岛 568
鼠 568
as@@ 567
og 567
婚纱 567
浴巾 567
108 566
主 566
隔离 566
直送 565
雨衣 565
1) 564
gap 564
汗 564
精美 564
躺椅 564
li@@ 563
66@@ 562
喜 562
柏 562
cm@@ 561
缘 561
ma@@ 560
no.@@ 560
华@@ 560
方便 560
碳纤维 560
花束 560
调节 560
麋鹿 560
咖啡厅 559
微波炉 559
服装店 559
塞 557
瑞 557
j 556
の@@ 556
止 556
甘 556
wmns 555
最爱 555
船 555
120 554
度假 554
班 554
ba@@ 553
de@@ 553
|@@ 553
汤 553
专卖店 552
排汗 552
染 552
牛津 552
胶囊 552
萤光 552
饭 552
29 551
午睡 551
聚拢 551
面@@ 551
39@@ 550
42 550
打底衫 550
男@@ 550
肚 550
47@@ 549
wifi 549
凝胶 549
实体 549
镜面 549
39 548
文胸 548
跳 548
酷@@ 548
电镀 547
bv 546
ml) 546
温 546
西@@ 546
75 545
bf 545
公斤 545
加@@ 545
皮质 545
耳饰 545
\@@ 544
armour 544
pro@@ 544
一次性 544
向 544
资料 544
面交 544
宝石 543
新年 543
材 543
益 543
组@@ 543
膜@@ 543
cosplay 542
平安 542
联盟 542
le@@ 541
升 541
原版 541
吸尘器 541
松糕 541
靠枕 541
ss 540
筒@@ 540
粉@@ 540
吴 539
奇@@ 539
改 539
花边 539
身体 539
饮料 539
手推车 538
犬@@ 538
3.5 537
写真 537
声 537
开衫 537
肌@@ 537
bb@@ 536
乡村 536
平衡 536
类 536
魂 536
in@@ 535
pu 535
reebok 535
余 535
花卉 535
斤 534
根 534
罗@@ 534
赛 534
书@@ 533
毯 533
free 532
丝@@ 532
蓝@@ 532
菲 531
76@@ 530
基 530
惠 530
滴 530
爆米花 530
花架 530
蜜蜂 530
被子 530
尔 529
挡 529
泡沫 529
男鞋 529
防潮 529
9h 528
巧 528
旗舰店 528
钟表 528
丽@@ 527
冠军 527
凝 527
洗漱 527
派 527
玉@@ 527
自由 527
calvin 526
寄 526
林@@ 526
被套 526
to 525
电动车 525
盆栽 525
airpods 524
享 524
偶像 524
纤维 524
露背 524
女用 523
5/@@ 522
压花 522
彩@@ 522
瑞士 522
富 521
接 521
春装 521
靠 521
220v 520
为 520
壁画 520
野餐 520
dw 519
明信片 519
85@@ 518
bmw 518
士 518
麻 518
分@@ 517
奶茶 517
疗 517
<@@ 516
型号: 516
皂 516
缅甸 516
煮 515
黛 515
44@@ 514
city 514
双g 514
民 514
一个 513
娜 513
恋 513
梅 513
茶@@ 513
表盘 513
黑灰 513
la@@ 512
客订 512
适合 512
铁@@ 512
铆钉 512
包) 511
反 511
奶嘴 511
比@@ 511
诺 511
龙头 511
3-@@ 510
丝绒 510
啦 510
情 510
躺 510
龙@@ 510
al@@ 509
ii 509
砂 509
空运 509
65 508
tory 508
五@@ 508
肤@@ 508
驱 508
57@@ 507
smith 507
三合一 507
口味 507
桌上 507
!! 506
us@@ 506
节 506
银针 506
典 505
吉@@ 505
女式 505
料理 505
180 504
随机 504
1.2 503
灯饰 503
诗 503
轻薄 503
马甲 503
· 502
巾@@ 502
按摩器 502
特别 502
赛车 502
kl 501
包头 501
古典 501
夹子 501
巴@@ 501
白金 501
大师 500
装备 500
记忆 500
酥 500
mit 499
化妆台 499
打火机 499
综合 499
贝@@ 499
鞋@@ 499
村 498
气球 498
马仕 498
大门 497
川 497
旗袍 497
普@@ 497
有@@ 497
木制 497
证件 497
风水 497
me 496
美丽 496
g-shock 495
galaxy 495
ns 495
出售 495
裤裙 495
锂 495
照 494
眼睛 494
女表 493
屏风 493
花盆 493
酵素 493
友 492
工装 492
--@@ 491
64 491
er@@ 491
兴 491
司 491
搞 491
杀价 491
车贴 491
38-44 490
retro 490
se@@ 490
勿 490
室外 490
用@@ 490
线@@ 490
eqt 489
si@@ 489
小屋 489
旗 489
樱桃 489
补充 489
55 488
line 488
下@@ 488
众 488
温泉 488
缝 488
锭 488
mm@@ 487
pandora 487
咖啡色 487
嘉 487
莱 487
赞 487
付款 486
妆@@ 486
清洗 486
绿@@ 486
klein 485
rolex 485
庭院 485
打@@ 485
毛毛 485
源 485
阳 485
balenciaga 484
s号 484
场 484
脚踏 484
趣 484
开@@ 483
权 483
7-@@ 482
ro@@ 482
大象 482
日@@ 482
梯 482
青@@ 482
饲料 482
衣帽架 481
の 480
十字 480
家居服 479
晒 479
皮卡丘 479
食物 479
120@@ 478
压纹 478
图腾 478
琪 478
\ 477
杂物 477
杰 477
狼 477
a4 476
供 476
价格 475
原木 475
展 475
270 474
卡位 474
君 474
容 474
御 474
行车 474
299 473
4-@@ 473
}@@ 473
潜水 473
burch 472
st@@ 472
v2 472
毕业 472
磁性 472
纳 472
002 471
信 471
布料 471
挂架 471
旅 471
池 471
绒@@ 471
高脚 471
克杯 470
更 470
这 470
(预购) 469
63 469
why 469
仅 469
布包 469
挑 469
日货 469
朋友 469
水保 469
消毒 469
g) 468
ko@@ 468
串珠 468
体恤 468
高雄 468
go@@ 467
养生 467
外@@ 467
毛@@ 467
砖 467
管理 467
老虎 467
3/@@ 466
kobe 466
拆洗 466
机器 466
胎 466
－ 466
001 465
午休 465
有线 465
自慰 465
荷叶边 465
ch@@ 464
pc 464
super 464
玛@@ 464
琴 464
传输线 463
好市多 463
波浪 463
舖@@ 463
苏 463
转接 463
靴@@ 463
48@@ 461
so@@ 461
扮演 461
接头 461
洞 461
酒柜 461
面料 461
78@@ 460
stan 460
勺 460
化妆水 460
指环 460
电线 460
经 460
98@@ 459
快乐 459
落 459
44 458
panasonic 458
内里 458
头盔 458
妮 458
71 457
世 457
书籍 457
整 457
烧烤 457
透视 457
亲 456
蚊帐 456
蛋白 456
黏土 456
at@@ 455
vintage 455
捷 455
连身衣 455
从 454
双头 454
托盘 454
有机 454
睡眠 454
骷髅 454
ki@@ 453
vi@@ 453
滑板车 453
腹 453
蹬 453
36-44 452
98 452
lo@@ 452
土 452
女友 452
恶 452
调料 452
2015 451
巾 451
混 451
'@@ 450
huarache 450
加热 450
发箍 450
国风 450
图@@ 450
气@@ 450
花花 450
豪华 450
po@@ 449
壁挂式 449
幸运 449
浮雕 449
霸 449
41 448
^@@ 448
低价 448
气垫鞋 448
02 447
my 447
{@@ 447
古@@ 447
灵 447
王@@ 447
表演 447
46 446
61 446
gd 446
丰 446
仕@@ 446
冰雪 446
点心 446
筐 446
签名 446
触 446
49@@ 445
a-@@ 445
篇 445
车内 445
56@@ 444
ol 444
丝巾 444
丝袜 444
各 444
围裙 444
太阳能 444
意 444
浓 444
钟 444
兽 443
外贸 443
平角 443
棋盘格 443
水槽 443
深蓝色 443
货@@ 443
200@@ 442
66 442
ss@@ 442
又 442
尼@@ 442
玫瑰花 442
纸盒 442
耐用 442
6-@@ 441
vivo 441
吉他 441
计 441
6/@@ 440
养 440
墨 440
瑞@@ 440
男孩 440
脏 440
防@@ 440
鸭 440
2/@@ 439
old 439
助 439
ce@@ 438
le 438
t-shirt 438
任选 438
学步 438
横 438
滑鼠 438
潮@@ 438
茶桌 438
蛋黄 438
50ml 437
刃 437
同步 437
沙发床 437
灯泡 437
雨鞋 437
产 436
人气 436
壶 436
爱丽丝 436
电风扇 436
短袜 436
练习 436
87 435
life 435
开叉 435
杨 435
棉@@ 435
橱柜 435
缓震 435
足球 435
mk@@ 434
出@@ 434
即 434
大人 434
表@@ 434
锯 434
镜片 434
龄 434
58@@ 433
am@@ 433
uniqlo 433
天天 433
升级 432
插座 432
硬壳 432
95@@ 431
te@@ 431
入门 431
变色 431
树脂 431
橘@@ 431
筷子 431
蔬菜 431
好@@ 430
定做 430
指甲油 430
灯@@ 430
语 430
配方 430
en@@ 429
吃饭 429
婚 429
皆 429
采 429
颗粒 429
首 429
2-@@ 428
ai@@ 428
ep 428
园艺 428
纪 428
维 428
胜 428
迪@@ 428
雪@@ 428
壁纸 427
户 427
福@@ 427
资生堂 427
门厅 427
免运 426
块 426
姿 426
红酒 426
锁骨 426
闺蜜 426
影 425
想 425
织 425
香皂 425
(已 424
be@@ 424
g-@@ 424
清爽 424
火@@ 424
议价 424
配饰 424
a&f 423
基础 423
奇缘 423
星@@ 423
正@@ 423
绣花 423
脸盆 423
鱼@@ 423
1.8 422
公事包 422
匡威 422
异 422
当天 422
抹 422
波@@ 422
喔 421
封 421
库 421
棉衣 421
热@@ 421
物@@ 421
纸@@ 421
结 421
象 421
‧@@ 420
杂货铺 420
豹 420
购证 420
近视 420
100@@ 419
43 419
怀旧 419
怡 419
早餐 419
瓷 419
过敏 419
银@@ 419
5-@@ 418
72 418
77@@ 418
sp@@ 418
✿@@ 418
买家 418
开车 418
手柄 418
晚宴 418
粉红色 418
肌 418
菌 418
转角 418
香薰 418
后@@ 417
围栏 417
婷 417
润滑 417
过道 417
snoopy 416
开口 416
晾 416
爬 416
虫 416
中号 415
四@@ 415
庭 415
线条 415
黑金 415
64g 414
机芯 414
桌布 414
达@@ 414
避震 414
coach蔻 413
ne@@ 413
× 413
两件式 413
公升 413
妍 413
烟 413
爽 413
花纹 413
门@@ 413
雕花 413
78 412
champion 412
传 412
战靴 412
挖 412
洗手 412
浮 412
盾 412
美女 412
踏 412
lin 411
剧 411
平@@ 411
棉裤 411
牙膏 411
认证 411
飞利浦 411
(一 410
-1 410
4g 410
7/@@ 410
缤纷 410
落地式 410
铃 410
da@@ 409
de 409
kt 409
克力 409
压@@ 409
泼水 409
玻璃杯 409
能量 409
自己 409
68@@ 408
ralph 408
橘色 408
火锅 408
饭盒 408
ci@@ 407
夫 407
寝室 407
最后 407
测 407
福袋 407
钢琴 407
长条 407
42@@ 406
g/ 406
su@@ 406
如 406
宴会 406
磁 406
羽 406
过滤 406
魔鬼 406
龟 406
05@@ 405
di@@ 405
saint 405
力@@ 405
古风 405
石@@ 405
社 405
组) 405
腮红 405
贴@@ 405
赠品 405
fb 404
城市 404
瑜珈 404
闹钟 404
靴 404
49 403
cd@@ 403
二合一 403
故事 403
(不 402
aj@@ 402
付 402
凉@@ 402
皇冠 402
阅读 402
(3 401
ri@@ 401
八@@ 401
娘 401
晴 401
油画 401
靴子 401
do@@ 400
功率 400
双耳 400
大牌 400
贴膜 400
龙猫 400
亚麻 399
代@@ 399
四件 399
把手 399
桃红 399
洞洞 399
(1 398
77 398
g/@@ 398
x-@@ 398
极致 398
泉 398
honda 397
·@@ 397
宜家 397
弯 397
法@@ 397
sb 396
全家 396
卫生 396
导航 396
带@@ 396
空军 396
蜡 396
bo@@ 395
zara 395
海边 395
膏@@ 395
茶叶 395
辣 395
酱 395
首选 395
lg 394
以 394
妙 394
货到 394
超长 394
除臭 394
频 394
◎@@ 393
地@@ 393
型@@ 393
杯垫 393
汉 393
盐 393
秘密 393
自@@ 393
原@@ 392
女王 392
扶手 392
提@@ 392
文字 392
水机 392
目 392
舒缓 392
鼓 392
46@@ 391
减震 391
合@@ 391
彩妆 391
施华洛世奇 391
时光 391
雕刻 391
an 390
co 390
伊@@ 390
分体 390
甜 390
c-@@ 389
事 389
台@@ 389
汉服 389
角质 389
' 388
左 388
汤匙 388
饭店 388
800 387
m-@@ 387
toyota 387
万向 387
围兜 387
家家 387
工艺 387
月@@ 387
翘 387
豹纹 387
革 387
风行 387
\"" 386
sa@@ 386
工艺品 386
明@@ 386
百@@ 386
唐 385
广告 385
摩 385
玻尿酸 385
魅力 385
4/@@ 384
8-@@ 384
ao@@ 384
仔@@ 384
冰@@ 384
凉席 384
说 384
贴片 384
梳妆 383
电磁 383
第三 383
遥控器 383
0.@@ 382
d-@@ 382
ho@@ 382
ni@@ 382
伤 382
恩 382
批 382
货) 382
锆石 382
长t 382
benz 381
tubular 381
仿古 381
宠 381
水管 381
薄荷 381
高尔夫 381
lauren 380
m4@@ 380
学@@ 380
护发 380
犬 380
设备 380
no@@ 379
一般 379
依 379
光疗 379
店面 379
成品 379
脚踏车 379
达菲 379
速发 379
钛 379
隔 379
雏菊 379
ta@@ 378
冬天 378
口@@ 378
密码 378
手电筒 378
自取 378
乐园 377
出租 377
掉 377
文件 377
方巾 377
时间 377
枚 377
漆皮 377
熊猫 377
盒) 377
5.0 376
入耳 376
喂 376
宇 376
睡觉 376
酸 376
2.5 375
2.@@ 375
coco 375
sh@@ 375
万能 375
丽鸥 375
诚 375
81 374
b-@@ 374
ck@@ 374
夏@@ 374
存 374
飞@@ 374
cortez 373
保温瓶 373
真@@ 373
筷 373
订单 373
降 373
香炉 373
lv@@ 372
代尔 372
厨 372
商店 372
姬 372
远 372
201@@ 371
ad@@ 371
jo 371
korea 371
r1 371
到货 371
平价 371
电话 371
疯 371
轻松 371
雕 371
(免 370
pk 370
指纹 370
时代 370
淑女 370
蜂蜜 370
转@@ 370
box 369
优惠价 369
博@@ 369
好货 369
扩 369
漏 369
磅 369
fila 368
roshe 368
买一送一 368
刀剑 368
地板 368
拼装 368
提单 368
眼线 368
科比 368
秤 368
维@@ 368
趣味 368
适 368
防盗 368
m-3xl 367
off 367
保@@ 367
摇 367
标签 367
水器 367
独角兽 367
白黑 367
紫@@ 367
藏 367
让 367
全球 366
卷发 366
笑脸 366
花瓶 366
u型 365
卧 365
工作服 365
波士顿 365
温馨 365
烤箱 365
煞 365
袜套 365
~@@ 364
•@@ 364
七彩 364
刷卡 364
弹簧 364
护眼 364
泵 364
版本 364
皇家 364
蔻驰 364
顺 364
鲨鱼 364
jo@@ 363
laurent 363
或 363
考 363
薰衣草 363
行李 363
邮@@ 363
ptcg 362
us 362
儿@@ 362
深层 362
缎带 362
网@@ 362
耐热 362
68 361
marmont 361
公路 361
密 361
数据线 361
田@@ 361
轮胎 361
风口 361
89@@ 360
96 360
东@@ 360
变形 360
星际 360
欣 360
玛瑙 360
现货) 360
79@@ 359
商城 359
清洁剂 359
皮面 359
草@@ 359
别墅 358
套餐 358
橙 358
耳朵 358
轻巧 358
铁艺 358
‧ 357
士@@ 357
宏 357
神奇 357
超强 357
102 356
47 356
显示器 356
棕色 356
空@@ 356
静电 356
卡其 355
史密斯 355
录 355
悠游 355
老板 355
货架 355
酷 355
ap@@ 354
pe@@ 354
写 354
泡茶 354
系统 354
调理 354
运动服 354
副 353
哈@@ 353
握 353
男友 353
箱子 353
ti@@ 352
价@@ 352
净化 352
加湿器 352
宜 352
行@@ 352
03 351
a3@@ 351
ex@@ 351
vapormax 351
人物 351
海滩 351
耳坠 351
肤色 351
蔡 351
ma 350
tb 350
乐蒂 350
台南 350
烫金 350
特殊 350
营养 350
隔板 350
顿 350
黄铜 350
21@@ 349
43@@ 349
二手书 349
前@@ 349
娜@@ 349
布丁 349
战斗 349
方@@ 349
曲 349
板@@ 349
淋浴 349
皂@@ 349
篓 349
贩 349
110@@ 348
110v 348
500g 348
boy 348
值 348
墙纸 348
枕套 348
盘子 348
筒 348
貔貅 348
铝@@ 348
ab@@ 347
st 347
双人床 347
后现代 347
宫廷 347
潘朵拉 347
舖 347
大学生 346
摇摇 346
私 346
脚垫 346
茶店 346
67@@ 345
会议 345
妮@@ 345
网路 345
防爆 345
馨 345
产品 344
公@@ 344
希 344
精@@ 344
职 344
闪电 344
靠背椅 344
bi@@ 343
pop 343
上架 343
企鹅 343
兰@@ 343
孩子 343
美容院 343
茶盘 343
金刚 343
hp 342
outlet 342
名@@ 342
唇釉 342
大码 342
希@@ 342
用具 342
留 342
自制 342
踏板 342
镀 342
卡娜 341
安抚 341
春秋季 341
游泳衣 341
片@@ 341
窗户 341
9-@@ 340
tommy 340
凉感 340
壹@@ 340
小马 340
意大利 340
月亮 340
柯 340
洗车 340
羽毛 340
73 339
f-@@ 339
react 339
乳胶 339
圆@@ 339
复仇者 339
夹@@ 339
婚庆 339
活力 339
纳@@ 339
走廊 339
ms@@ 338
久 338
电玩 338
超高 338
blue 337
中古 337
仓库 337
头发 337
套@@ 337
少 337
强化 337
电器 337
纱裙 337
耳塞 337
sc@@ 336
大小 336
夯 336
微型 336
本田 336
极度 336
玛 336
袋子 336
跟鞋 336
鲜 336
... 335
09@@ 335
130 335
54@@ 335
gs 335
v-@@ 335
可穿 335
悟空 335
爆款 335
缸 335
音@@ 335
鱼尾 335
3.0 334
900 334
pink 334
小汽车 334
新版 334
族 334
最低价 334
法兰绒 334
皮包 334
福利 334
蚕丝 334
52 333
exo 333
mah 333
屏 333
床头灯 333
杀菌 333
杜 333
欧@@ 333
花洒 333
选择 333
里@@ 333
防震 333
86 332
mid 332
加肥 332
对称 332
悦 332
断 332
泰@@ 332
流@@ 332
蒂@@ 332
199 331
2000 331
69@@ 331
ca@@ 331
低音 331
削 331
变@@ 331
笔记 331
003 330
5.5 330
kenzo 330
分类 330
吹风机 330
大战 330
护@@ 330
松@@ 330
橘 330
灰@@ 330
绅士 330
美少女 330
至 330
赫拉 330
重@@ 330
钓具 330
镇 330
; 329
man 329
下摆 329
兵 329
宝蓝 329
录音 329
扳手 329
水滴 329
@新品 328
canon 328
♡ 328
♡@@ 328
令 328
圣@@ 328
姜 328
应 328
机油 328
澎 328
网眼 328
老师 328
high 327
ku@@ 327
冠 327
冷热 327
升级版 327
品) 327
型号 327
宿 327
整套 327
清净 327
脱 327
郎 327
闪亮 327
陀螺 327
号@@ 326
尿布 326
情人 326
数码 326
珊瑚 326
禾 326
签 326
诺@@ 326
调味 326
通@@ 326
野@@ 326
隆 326
页 326
cc@@ 325
任天堂 325
内饰 325
盒@@ 325
祛 325
臂 325
钢笔 325
马达 325
8/@@ 324
bl 324
外壳 324
好看 324
帘@@ 324
幻 324
灰白 324
职业 324
负离子 324
dc 323
marc 323
q版 323
兄弟 323
嫩 323
鹰 323
it@@ 322
云@@ 322
亚克力 322
曼@@ 322
科@@ 322
＋ 322
180@@ 321
a0@@ 321
asics 321
gi@@ 321
tw 321
丰田 321
体@@ 321
显示 321
替换 321
球@@ 321
迷妳 321
500@@ 320
67 320
慵懒 320
矮 320
雷射 320
韩@@ 320
3.@@ 319
adv 319
圆桌 319
家族 319
捕 319
爱马仕 319
艺@@ 319
读 319
150@@ 318
丝光 318
兜 318
冰淇淋 318
宝马 318
未来 318
桃园 318
楼梯 318
真丝 318
秋冬季 318
脸部 318
解 318
1.@@ 317
82 317
83 317
丁 317
刻字 317
每 317
津 317
满额 317
火爆 317
琉璃 317
纸袋 317
超市 317
face 316
lv包包 316
mp@@ 316
pi@@ 316
专卖 316
休闲椅 316
合身 316
威@@ 316
封口 316
成@@ 316
早春 316
毛帽 316
点@@ 316
甜心 316
筒袜 316
米色 316
葡萄 316
血 316
马丁 316
450 315
便利 315
境 315
支撑 315
教学 315
无限 315
洛@@ 315
深@@ 315
眼@@ 315
脚@@ 315
62 314
lu@@ 314
mar@@ 314
ra@@ 314
吸湿 314
相@@ 314
绒 314
茶道 314
2) 313
59@@ 313
zenfone 313
使 313
保留 313
压缩 313
奶粉 313
工@@ 313
第@@ 313
肉@@ 313
胸针 313
裤@@ 313
105 312
92 312
celine 312
凤梨 312
图书 312
奥@@ 312
折叠桌 312
木工 312
毛毯 312
符 312
防雨 312
iphone@@ 311
书店 311
妆 311
幅 311
春夏 311
熊熊 311
联系 311
规 311
邦 311
51 310
home 310
ka@@ 310
果@@ 310
赛斯 310
＊@@ 310
份 309
传说 309
手把 309
插头 309
无毒 309
爱情 309
特大 309
狮 309
视 309
阳光 309
附@@ 309
齐 309
aq@@ 308
max@@ 308
优@@ 308
伴娘 308
哺乳 308
收缩 308
新货 308
红茶 308
而 308
辅助 308
), 307
32g 307
58 307
76 307
93 307
runner 307
sm@@ 307
咬 307
女子 307
姐 307
战@@ 307
costco 306
§@@ 306
° 306
壶@@ 306
微笑 306
撕 306
版潮 306
盖@@ 306
盘@@ 306
耐高温 306
面板 306
马克 306
160 305
69 305
96@@ 305
un@@ 305
主播 305
布鞋 305
思@@ 305
星球 305
草本 305
韩妞 305
(大 304
my@@ 304
ulzzang 304
zero 304
代步 304
六角 304
唯美 304
武器 304
激光 304
物柜 304
糖@@ 304
纱布 304
5ml 303
bvlgari 303
tomy 303
yamaha 303
前后 303
将 303
尘 303
朗 303
板鞋 303
满天星 303
细@@ 303
食@@ 303
鲁 303
000@@ 302
学园 302
宇宙 302
梨 302
男式 302
菊 302
钢@@ 302
钢铁 302
miss 301
ps@@ 301
布袋 301
男表 301
稀有 301
红外线 301
臻 301
56 300
iphone11 300
pokemon 300
元素 300
刚 300
单人床 300
百货店 300
舞台 300
蝙蝠 300
ga@@ 299
style 299
实战 299
散 299
景观 299
洗手间 299
索 299
请勿 299
项圈 299
#爆 298
l号 298
娇 298
洽谈 298
温和 298
烤盘 298
藤@@ 298
起子 298
领带 298
鱼缸 298
10/@@ 297
201 297
el@@ 297
ge@@ 297
is 297
✿ 297
下标) 297
嘉@@ 297
竹@@ 297
轨道 297
香蕉 297
高中 297
car@@ 296
圆盘 296
电压 296
面霜 296
入@@ 295
博 295
原味 295
孙 295
暗 295
素@@ 295
绒布 295
绿茶 295
肌肤 295
装) 295
130@@ 294
bq@@ 294
tt 294
可移动 294
杀@@ 294
牌@@ 294
牙音 294
还 294
1.8m 293
53 293
89 293
m6@@ 293
小小 293
摇滚 293
随 293
fi@@ 292
kyrie 292
l-@@ 292
on@@ 292
像 292
坑 292
基@@ 292
女人 292
照明 292
直邮 292
贴画 292
防寒 292
ds 291
hco 291
人体 291
便器 291
别针 291
干@@ 291
散热 291
话筒 291
a3 290
aa@@ 290
chen 290
yuanroro 290
书本 290
保健 290
头套 290
婴儿床 290
幼 290
手感 290
旺 290
编号 290
胶@@ 290
讯 290
软@@ 290
软糖 290
防臭 290
鞋垫 290
鞋套 290
11/@@ 289
59 289
86@@ 289
cu@@ 289
malone 289
传统 289
加强 289
标志 289
汇 289
没 289
短@@ 289
见 289
鼠标 289
#爆品 288
hi@@ 288
lebron 288
mi 288
yu@@ 288
刺激 288
戏 288
方向盘 288
滋养 288
炸 288
羊绒 288
质量 288
身@@ 288
91 287
chi@@ 287
lin@@ 287
rose 287
sm 287
台制 287
场景 287
毫安 287
面纸 287
97@@ 286
mini@@ 286
play 286
强光 286
玉石 286
黑头 286
316 285
丸子 285
大全 285
大灯 285
宾士 285
新) 285
校园 285
母亲节 285
煎 285
阀 285
(全 284
250@@ 284
hd@@ 284
monogram 284
sp 284
人生 284
倒 284
名片夹 284
喷头 284
方块 284
游戏机 284
瘦身 284
眉@@ 284
舞蹈 284
铲 284
94 283
免费 283
影音 283
扫地 283
梦@@ 283
用途 283
节能 283
蒙 283
skool 282
工程 282
帕@@ 282
海军 282
红包 282
臭 282
边框 282
铜@@ 282
颈椎 282
12v 281
六@@ 281
厨师 281
同款 281
导 281
循环 281
木头 281
洗手盆 281
约会 281
过膝 281
4k 280
er 280
lite 280
m-xxl 280
red 280
中型 280
写字台 280
南瓜 280
卡龙 280
卷@@ 280
客服 280
屏@@ 280
排@@ 280
直@@ 280
营 280
静 280
999 279
bu@@ 279
mp3 279
低音炮 279
大头 279
拖把 279
按 279
管@@ 279
织带 279
蜡笔小新 279
衩 279
106 278
74@@ 278
air@@ 278
xperia 278
ya 278
万@@ 278
两@@ 278
书) 278
出口 278
唇@@ 278
奇迹 278
棉t 278
物语 278
电热 278
秘 278
07 277
aj1 277
s/@@ 277
㊣ 277
中心 277
乱 277
吸@@ 277
均 277
塔@@ 277
播放器 277
日期 277
春夏季 277
普 277
氧 277
美人 277
调整 277
金链 277
饭桌 277
170@@ 276
bandai 276
boss 276
cp@@ 276
leather 276
中华 276
保护膜 276
冷@@ 276
古装 276
后视镜 276
摩@@ 276
条@@ 276
泡面 276
猫窝 276
玲 276
超亮 276
路@@ 276
钛钢 276
400@@ 275
52@@ 275
54 275
南@@ 275
哦 275
定@@ 275
式@@ 275
曼 275
标@@ 275
治 275
童@@ 275
董 275
野营 275
飞行 275
-5@@ 274
140 274
3) 274
87@@ 274
superdry 274
套筒 274
床罩 274
忍者 274
指定 274
浦 274
激 274
胸罩 274
裤袜 274
车身 274
(台湾 273
4.0 273
ford 273
loft 273
na@@ 273
store 273
典雅 273
华丽 273
实物 273
底@@ 273
微@@ 273
恒温 273
惊喜 273
磁吸 273
草帽 273
萱 273
裤带 273
轻@@ 273
闪光 273
餐盒 273
a货 272
i7 272
pa@@ 272
up 272
发乳 272
猫@@ 272
珠光 272
立@@ 272
绝对 272
胶水 272
袋@@ 272
雷@@ 272
04 271
a5@@ 271
ar 271
cat 271
givenchy 271
ny 271
印@@ 271
平光 271
日记 271
来@@ 271
样 271
水波 271
浓缩 271
湖 271
科学 271
绵 271
编 271
转换器 271
速@@ 271
首饰盒 271
004 270
es@@ 270
三丽鸥 270
妹妹 270
欢乐 270
求 270
泳 270
蜡@@ 270
越野 270
高压 270
160@@ 269
190@@ 269
头皮 269
德玛 269
才 269
武 269
毡@@ 269
沾 269
特级 269
许 269
越 269
(有 268
.. 268
9/@@ 268
专@@ 268
可可 268
四轮 268
奈@@ 268
接@@ 268
沙发套 268
洗@@ 268
界 268
超低价 268
需 268
／@@ 268
104 267
600@@ 267
sha 267
sk@@ 267
中筒 267
佳@@ 267
售出 267
回@@ 267
繁体 267
虎头 267
雨@@ 267
123 266
a7@@ 266
sn@@ 266
stussy 266
业 266
公克 266
珠@@ 266
痕 266
耳@@ 266
赋 266
须 266
鹦鹉 266
2019年 265
king 265
pp@@ 265
tsum 265
woc 265
万代 265
大方 265
愈 265
收腹 265
.5 264
84@@ 264
aj 264
support 264
丸 264
冷冻 264
加拿大 264
帅 264
干湿 264
摊 264
猫头鹰 264
甜品 264
翔 264
芳 264
赖 264
跳跳 264
转运 264
雅诗兰黛 264
雨靴 264
(黑) 263
a5 263
h&m 263
hollister 263
yo@@ 263
三脚架 263
仓鼠 263
冬装 263
厂商 263
太阳帽 263
蛋@@ 263
视频 263
高尔夫球 263
e-@@ 262
fit 262
帽@@ 262
支持 262
施 262
春@@ 262
沙@@ 262
翼 262
购@@ 262
韵 262
高潮 262
240 261
75ml 261
ct@@ 261
da 261
不锈 261
专利 261
仁 261
代言 261
低腰 261
减肥 261
加宽 261
发票 261
护肤品 261
提包 261
橱窗 261
海鸥 261
老式 261
航空 261
莲 261
藤 261
超轻量 261
隔音 261
高速 261
72@@ 260
k歌 260
ml/@@ 260
pu@@ 260
去污 260
护肤 260
炫彩 260
登机 260
眼罩 260
线器 260
肤 260
荣 260
莱@@ 260
莲花 260
霸气 260
128 259
53@@ 259
friends 259
※ 259
半@@ 259
尺码: 259
弹@@ 259
慧 259
拍卖 259
潮牌 259
画@@ 259
笔@@ 259
药 259
面部 259
m5@@ 258
mizuno 258
变压器 258
土@@ 258
梵希 258
水泥 258
聚 258
草编 258
贤 258
-010 257
05 257
fe@@ 257
ke@@ 257
博士 257
夜@@ 257
市 257
筒裤 257
腾 257
雨刷 257
马车 257
麻花 257
#下 256
bd@@ 256
dr.@@ 256
sd@@ 256
xl@@ 256
化@@ 256
双向 256
右 256
客人 256
折@@ 256
激情 256
软皮 256
选@@ 256
逸 256
面具 256
av 255
do 255
iphone7 255
power 255
tr@@ 255
保守 255
分期 255
卖家 255
周岁 255
多功能 255
完整 255
接待 255
朴 255
永 255
童车 255
规格 255
锤 255
镭射 255
队长 255
防霉 255
随行 255
08@@ 254
chuck 254
主题 254
促 254
唐老鸭 254
备 254
帘 254
楼 254
江 254
睡袋 254
荣耀 254
郑 254
07@@ 253
day 253
◎ 253
亲肤 253
仓 253
女中 253
性@@ 253
战术 253
智@@ 253
板凳 253
琦 253
素t 253
藤编 253
采用 253
(4 252
220 252
84 252
br@@ 252
du@@ 252
fo@@ 252
ga 252
he@@ 252
三角裤 252
参 252
古奇 252
小狗 252
尺寸: 252
平滑 252
手腕 252
早期 252
水族 252
熏 252
美颜 252
藤原浩 252
詹姆斯 252
雷霆 252
马鞍 252
鸡肉 252
04@@ 251
06 251
300@@ 251
ah@@ 251
k-@@ 251
philips 251
premium 251
冲击 251
剧场 251
叶子 251
日文 251
棉被 251
灯笼 251
独特 251
直接 251
缎面 251
麦@@ 251
av@@ 250
ha@@ 250
mac 250
亮@@ 250
仔 250
以上 250
保罗 250
同@@ 250
围脖 250
圈圈 250
坚果 250
士尼 250
扎 250
收@@ 250
正常 250
永生 250
滚筒 250
猴 250
站立 250
美术 250
透光 250
预 250
鸡@@ 250
af1 249
bl@@ 249
chloe 249
ktv 249
zakka 249
世@@ 249
凯@@ 249
动@@ 249
卸 249
售) 249
小朋友 249
技 249
新手 249
旅行袋 249
杯@@ 249
梅@@ 249
牧 249
脚架 249
血@@ 249
(小 248
20cm 248
50g 248
ak@@ 248
p-@@ 248
roots 248
tpu 248
◆@@ 248
中年 248
岩 248
护栏 248
洗面乳 248
演唱会 248
片) 248
社团 248
索尼 248
练 248
群 248
翅膀 248
蓬蓬 248
逛 248
nac 247
井 247
亿 247
叶@@ 247
商@@ 247
小小兵 247
恶魔 247
日立 247
樱@@ 247
渐变 247
非@@ 247
cp 246
d2 246
more 246
ve@@ 246
单件 246
对折 246
旗舰 246
棉花糖 246
洗碗 246
玉米 246
螺纹 246
袋装 246
雯 246
魔力 246
57 245
fu@@ 245
gu@@ 245
pc@@ 245
qs 245
丹@@ 245
书法 245
仪器 245
工作室 245
水饺 245
汤锅 245
电钻 245
碗柜 245
称 245
花瓣 245
萨 245
黏@@ 245
9.5 244
love@@ 244
可拆卸 244
座垫 244
打包 244
笑 244
绒面 244
美甲 244
肥 244
茉莉 244
辉 244
颈@@ 244
b0@@ 243
hdmi 243
w-@@ 243
ㄧ@@ 243
店长 243
护照 243
挺 243
改良 243
水性 243
粉刺 243
英语 243
06@@ 242
128g 242
cr@@ 242
ed 242
传@@ 242
伦敦 242
创@@ 242
可放 242
抢购 242
焦糖 242
芳香 242
tw@@ 241
ⓠ@@ 241
个人 241
侧边 241
凭证 241
千@@ 241
年@@ 241
康@@ 241
方包 241
景品 241
枝 241
永久 241
白底 241
盛 241
相片 241
西米 241
阴阳 241
jacobs 240
note 240
presto 240
sport 240
北@@ 240
可乐 240
尖 240
杏仁 240
椅垫 240
毯@@ 240
硬碟 240
纯白 240
隐藏 240
350@@ 239
hm 239
top 239
七@@ 239
书签 239
包皮 239
员 239
屋@@ 239
恩@@ 239
煞车 239
皮肤 239
蒸汽 239
那 239
钓@@ 239
餐巾纸 239
cf 238
igo 238
mu@@ 238
original 238
shop@@ 238
其他 238
加固 238
叉@@ 238
桃花 238
泡澡 238
白粉 238
竖 238
维他命 238
老年 238
(限 237
.tw 237
10000 237
7.5 237
74 237
750 237
丸@@ 237
元@@ 237
制化 237
坪 237
库存 237
惠@@ 237
树@@ 237
菜@@ 237
裸 237
解@@ 237
证明 237
话 237
重复 237
鱼子酱 237
-100 236
1500 236
iphone6 236
man@@ 236
no 236
sd 236
sock 236
yu 236
单层 236
庆 236
建 236
抢 236
桃@@ 236
滑鼠垫 236
瓶@@ 236
瓷砖 236
皮衣 236
纽 236
西班牙 236
轴 236
钱筒 236
长袜 236
gt 235
出货) 235
国小 235
广 235
庄 235
所 235
木纹 235
橡木 235
滑@@ 235
烤肉 235
狮王 235
现货@@ 235
童话 235
荷 235
补@@ 235
谢 235
逼真 235
配@@ 235
鼻 235
16g 234
九@@ 234
修@@ 234
刷@@ 234
十字绣 234
华莱士 234
历 234
工具箱 234
席 234
液@@ 234
紫水晶 234
纤 234
豆@@ 234
as 233
speedy 233
you 233
内置 233
古董 233
叮当 233
字@@ 233
支@@ 233
牙@@ 233
白铁 233
离子 233
纳米 233
调@@ 233
辅 233
辑 233
送@@ 233
造景 233
铁盒 233
键 233
陈@@ 233
集@@ 233
fitch 232
kids 232
丝绸 232
净@@ 232
弥月 232
意@@ 232
王者 232
甲@@ 232
疯狂 232
碗碟 232
美人鱼 232
色系 232
葫芦 232
车门 232
防身 232
(客 231
140@@ 231
baby@@ 231
r11 231
ty@@ 231
下杀 231
代购@@ 231
布偶 231
心机 231
恋爱 231
森@@ 231
此 231
电瓶车 231
秀@@ 231
精梳 231
考试 231
花色 231
蝶@@ 231
cf@@ 230
en 230
i8 230
wa@@ 230
〔 230
〕 230
二手@@ 230
刀架 230
发热 230
取货 230
唇 230
小吃 230
情@@ 230
竹节 230
精准 230
艳 230
馒头 230
-01 229
220@@ 229
mon@@ 229
th@@ 229
企业 229
冻 229
各种 229
实@@ 229
实木 229
枫 229
柜@@ 229
欧文 229
灿 229
环球 229
砧板 229
警示 229
边@@ 229
驾车 229
0.5 228
168 228
ai 228
ds@@ 228
ex 228
lady 228
li 228
north 228
size: 228
上班族 228
休 228
号) 228
峰 228
开始 228
您 228
氏 228
火影忍者 228
灯光 228
碳@@ 228
粮 228
绘画 228
美食 228
西瓜 228
贴身 228
黑板 228
12/@@ 227
7plus 227
ka 227
suede 227
产后 227
垫@@ 227
强@@ 227
护具 227
时髦 227
服@@ 227
柳 227
漂亮 227
苗 227
蒂猫 227
试用 227
防漏 227
饺子 227
5.@@ 226
618 226
83@@ 226
by@@ 226
ikea 226
卡地亚 226
可动 226
岚 226
拼贴 226
毛巾架 226
睫毛膏 226
禅意 226
镀金 226
鞋带 226
(共 225
fury 225
girl 225
neo 225
swarovski 225
一生 225
伯@@ 225
安娜 225
抽象 225
斑马 225
泥@@ 225
甩 225
秋千 225
第四 225
背@@ 225
道@@ 225
除@@ 225
curry 224
lx 224
★★ 224
主@@ 224
传奇 224
国旗 224
水彩 224
特产 224
王子 224
礼@@ 224
笼子 224
麻@@ 224
007 223
6.@@ 223
iphonex 223
mlb 223
响 223
幼稚园 223
店@@ 223
径 223
打磨 223
指@@ 223
滚轮 223
珊 223
眉笔 223
粉嫩 223
诗@@ 223
退 223
铃铛 223
长夹 223
马丁靴 223
320@@ 222
bottega 222
qq 222
保存 222
哈娜 222
多多 222
头巾 222
批发价 222
散装 222
方向 222
时@@ 222
法拉利 222
洁@@ 222
独立 222
电扇 222
经@@ 222
美好 222
载 222
随手 222
预定 222
饰@@ 222
鸳鸯 222
(无 221
36-45 221
fk 221
pump 221
rx@@ 221
刀@@ 221
包装袋 221
厅 221
名品 221
咖@@ 221
扇子 221
控制 221
比赛 221
牛@@ 221
自慰器 221
蝙蝠侠 221
袖套 221
赠送 221
走光 221
车灯 221
钛@@ 221
降温 221
高低 221
魔鬼毡 221
golf 220
huawei 220
innisfree 220
little 220
ro 220
ya@@ 220
丹尼尔 220
佛@@ 220
作@@ 220
全能 220
售价 220
型) 220
多种 220
女单 220
抛光 220
按压 220
提花 220
攻 220
爪 220
理@@ 220
电瓶 220
茶水 220
调式 220
转椅 220
阿曼 220
8plus 219
bk@@ 219
rs 219
sun@@ 219
售完 219
增 219
家电 219
总@@ 219
手指 219
摇摆 219
晾衣 219
杂货店 219
毒 219
水瓶 219
消 219
渔具 219
笔筒 219
肚子 219
赤足 219
风味 219
餐@@ 219
＞ 219
ed@@ 218
gt@@ 218
type-c 218
×@@ 218
偏 218
冒险 218
减压 218
别 218
奥运 218
小鸟 218
毛料 218
精工 218
精度 218
荧光 218
课 218
钳 218
(二手 217
103 217
gk 217
gucci@@ 217
s.@@ 217
vo@@ 217
信@@ 217
双c 217
坠子 217
张@@ 217
文学 217
晨 217
橘子 217
气动 217
狐狸 217
男裤 217
畅销 217
纪念品 217
英@@ 217
赛@@ 217
长柄 217
//@@ 216
min@@ 216
off-white 216
前台 216
感@@ 216
懒 216
护颈 216
撑 216
西服 216
跳舞 216
过年 216
遮阳伞 216
面盆 216
高效 216
ca 215
ps 215
伟 215
分离式 215
割 215
夜视 215
护膝 215
抹茶 215
斑@@ 215
杏色 215
梳子 215
棉布 215
浴缸 215
演出 215
瑕@@ 215
电子表 215
第五 215
蔬果 215
蘑菇 215
裸@@ 215
"" 214
(10 214
ee@@ 214
mg 214
space 214
◆ 214
下杀$ 214
云朵 214
冲浪 214
原子笔 214
吐司 214
小鸡 214
抗@@ 214
挂@@ 214
爸爸 214
艾米 214
菲利普 214
面罩 214
香草 214
700@@ 213
三星@@ 213
刮胡刀 213
技术 213
支援 213
珍@@ 213
磁@@ 213
透@@ 213
野生 213
长发 213
震 213
魔@@ 213
)) 212
2017年 212
loewe 212
l型 212
pr@@ 212
shadow 212
体验 212
出版社 212
切割 212
初学 212
墨@@ 212
尿 212
晚礼服 212
汉@@ 212
电工 212
茜 212
起@@ 212
3d@@ 211
net 211
next 211
x1 211
中长 211
信用卡 211
加粗 211
圆点 211
小鱼 211
摄影机 211
晓 211
胸前 211
鸿 211
115 210
550 210
cb@@ 210
光碟 210
关 210
喵@@ 210
寿司 210
建筑 210
成长 210
挂脖 210
熟 210
狂 210
纽约 210
胖子 210
试 210
败 210
颜料 210
高清 210
520 209
62@@ 209
coach@@ 209
dc@@ 209
or@@ 209
pegasus 209
下杀# 209
乌@@ 209
体育 209
富士 209
巨 209
抛 209
新鲜 209
棒棒糖 209
水池 209
水箱 209
泽 209
游@@ 209
潜 209
花茶 209
过滤器 209
连@@ 209
非常 209
40-46 208
ko 208
philipp 208
tech 208
保固 208
假面 208
制冷 208
卫生纸 208
小卡 208
小麦 208
月光 208
然 208
率 208
现@@ 208
移 208
羽绒服 208
野外 208
铝箔 208
800@@ 207
dx 207
ef@@ 207
plein 207
size 207
we@@ 207
三轮车 207
印刷 207
参考 207
哥@@ 207
圆圈 207
扁@@ 207
死 207
潘 207
狗窝 207
瓦@@ 207
白灰 207
缝隙 207
老鼠 207
订) 207
贸易 207
遮瑕 207
麻将 207
8g 206
94@@ 206
light 206
m) 206
taylor 206
三菱 206
上班 206
中) 206
体重 206
便携式 206
名片 206
城堡 206
妖怪 206
手摇 206
摄像头 206
甜点 206
皇@@ 206
直条 206
肠 206
蒂 206
蛤蟆镜 206
通话 206
酱@@ 206
霹雳 206
香槟 206
﹞ 206
g点 205
h-@@ 205
ms 205
seiko 205
sy@@ 205
ts 205
❀@@ 205
关@@ 205
凉拖 205
切@@ 205
包装盒 205
十二 205
变形金刚 205
如@@ 205
定位 205
托@@ 205
扬 205
投 205
星座 205
桌上型 205
润@@ 205
渡假 205
火车 205
炸锅 205
肥皂 205
芦荟 205
英寸 205
观音 205
通勤 205
香香 205
2018年 204
watch 204
xx@@ 204
交@@ 204
山茶花 204
平面 204
开门 204
摇椅 204
效果 204
教室 204
曜 204
灯芯绒 204
状 204
珍 204
监控 204
蜜@@ 204
订@@ 204
鸡蛋 204
(单 203
(送 203
(黑色) 203
107 203
a.@@ 203
bv@@ 203
hot 203
i-@@ 203
pure 203
th 203
券 203
台面 203
地中海 203
坡跟 203
帝@@ 203
延长线 203
弓 203
手册 203
挡风 203
炫 203
环@@ 203
矫正 203
肌肉 203
花草 203
莉@@ 203
闺 203
000 202
18k 202
210 202
5000 202
ji@@ 202
kate 202
micro 202
pe 202
tretta 202
veneta 202
zo@@ 202
丁字 202
京 202
况 202
味@@ 202
夹缝 202
定型 202
快@@ 202
星辰 202
母乳 202
漱口 202
犀牛 202
蝶 202
费 202
跑车 202
酒精 202
长筒 202
006 201
109 201
gl@@ 201
live 201
sanrio 201
伴手 201
低@@ 201
和@@ 201
售@@ 201
存钱 201
尾牙 201
广角 201
斗篷 201
晶@@ 201
梯子 201
永@@ 201
浪 201
演出服 201
特色 201
狂欢 201
甜蜜 201
破坏 201
素材 201
肯 201
茶色 201
表情 201
豪 201
铺子 201
陆 201
for@@ 200
sw@@ 200
wcf 200
〗 200
下杀#@@ 200
佛教 200
兔@@ 200
印度 200
学校 200
汉堡 200
烟灰缸 200
猪@@ 200
紫砂 200
舒服 200
露趾 200
03@@ 199
anna 199
ph@@ 199
y3 199
典藏 199
媚 199
快干 199
手臂 199
折叠床 199
教育 199
暗黑 199
有盖 199
毛边 199
泼墨 199
浴盆 199
温柔 199
满@@ 199
满月 199
爬行 199
私密 199
腋下 199
芙@@ 199
透肤 199
青蛙 199
靠墙 199
领结 199
5) 198
benassi 198
亚瑟 198
出国 198
刷子 198
含@@ 198
外接 198
宋 198
战马 198
放@@ 198
油烟 198
特大号 198
珐瑯 198
相容 198
硬@@ 198
磁力 198
秋@@ 198
耳罩 198
部落 198
齿 198
1a 197
ab 197
etude 197
shiseido 197
spa 197
交 197
仙人掌 197
刹 197
引擎 197
搅拌 197
晚安 197
暖手 197
棕 197
滚 197
社会 197
第 197
联@@ 197
豆腐 197
(二 196
af@@ 196
dickies 196
mt@@ 196
star@@ 196
yy 196
一盒 196
任 196
动画 196
听 196
天下 196
小美人鱼 196
小车 196
巴西 196
府 196
本舖 196
滚边 196
绿萝 196
羊@@ 196
美美 196
美肌 196
羽球 196
翻@@ 196
薄@@ 196
蜘蛛人 196
贵 196
软管 196
鲁@@ 196
(两 195
(大) 195
02@@ 195
112@@ 195
cq@@ 195
macbook 195
made 195
n-@@ 195
skechers 195
作品 195
其 195
南极 195
喷@@ 195
巨@@ 195
提供 195
教师 195
新店 195
智慧型 195
母@@ 195
烈 195
蔻 195
语音 195
货号 195
逆 195
露@@ 195
颈链 195
abs 194
cs 194
l) 194
nike@@ 194
sr@@ 194
ver@@ 194
下单) 194
丽婴 194
全网 194
卡其色 194
太@@ 194
定版 194
工作鞋 194
手帕 194
拉丝 194
无敌 194
星光 194
杀手 194
柜组 194
柴犬 194
水手 194
直径 194
米茄 194
节日 194
螺丝刀 194
货车 194
越南 194
软毛 194
辰 194
过@@ 194
镜@@ 194
防水布 194
005 193
acer 193
elite 193
不易 193
专家 193
元) 193
加高 193
医 193
叉 193
小鹿 193
忆 193
抹布 193
整@@ 193
泰迪熊 193
生活馆 193
石头 193
碗盘 193
菲@@ 193
褶皱 193
轻盈 193
镀膜 193
41@@ 192
<< 192
cartier 192
fa@@ 192
mr.@@ 192
nissan 192
zx@@ 192
仕 192
剩 192
口水巾 192
圆脸 192
坐姿 192
安全带 192
实惠 192
手工皂 192
挂布 192
淑@@ 192
瓦 192
耀 192
落地灯 192
葵 192
蜂巢 192
防晒霜 192
风潮 192
--- 191
-6@@ 191
978986@@ 191
]# 191
k金 191
mm) 191
skin 191
增@@ 191
尤 191
按键 191
摇篮 191
数学 191
水鬼 191
洗菜盆 191
猴子 191
王国 191
玩家 191
竹炭 191
蓬 191
识别 191
转换 191
风景 191
399 190
4.5 190
574 190
is@@ 190
omega 190
pl@@ 190
porter 190
starbucks 190
timberland 190
依@@ 190
十字架 190
咖啡豆 190
客制 190
帖 190
急 190
挂包 190
柴 190
用) 190
运费) 190
钻@@ 190
1200 189
eg@@ 189
hu@@ 189
r15 189
一起 189
冲@@ 189
压力 189
发财 189
志@@ 189
打造 189
昌 189
牛角 189
碧 189
穴 189
翻新 189
调光 189
酒@@ 189
雪纺衫 189
题 189
－@@ 189
abercrombie& 188
mo 188
他 188
伞架 188
军事 188
刨 188
即期 188
壹 188
尊 188
布娃娃 188
干花 188
当日 188
拍杆 188
挡板 188
援 188
搬家 188
术 188
毯子 188
水冷 188
洋@@ 188
清凉 188
溜溜 188
独 188
珊瑚绒 188
磨@@ 188
粥 188
萨@@ 188
铅笔盒 188
骨@@ 188
31@@ 187
amg 187
dg 187
es 187
louisvuitton 187
m.@@ 187
moschino 187
way 187
动力 187
套) 187
工装裤 187
开业 187
斑 187
沐浴乳 187
织布 187
职员 187
节@@ 187
蒸气 187
螺旋 187
谱 187
重磅 187
颈 187
09 186
6.5 186
body 186
hi 186
u盘 186
作战 186
单宁 186
咖 186
小丑 186
扫 186
教@@ 186
极@@ 186
核 186
炒 186
烘培 186
精品店 186
零@@ 186
餐饮 186
麦当劳 186
2020@@ 185
b.@@ 185
baby-g 185
ch 185
ly@@ 185
sf@@ 185
zi@@ 185
东方 185
史@@ 185
妞@@ 185
宽@@ 185
年级 185
拖@@ 185
深灰 185
灰黑 185
男款 185
精萃 185
计划 185
项 185
(5 184
12-@@ 184
601 184
beauty 184
cat@@ 184
m/@@ 184
nb@@ 184
san@@ 184
slip 184
yi 184
下杀@ 184
乡 184
五色 184
佐@@ 184
俏皮 184
单个 184
反@@ 184
客@@ 184
对@@ 184
广场 184
晴雨 184
海军蓝 184
炫@@ 184
烂 184
热门 184
玩@@ 184
眼镜框 184
纹@@ 184
莫@@ 184
训 184
转售 184
## 183
(黑 183
era 183
eva 183
hd 183
lee 183
longchamp 183
pazzo 183
y-3 183
俊 183
内胆 183
史莱姆 183
命 183
墨水 183
天鹅 183
山地车 183
店) 183
扮 183
数量 183
时装 183
核心 183
横条 183
歌@@ 183
滚珠 183
焦 183
牛排 183
矮凳 183
码表 183
磁扣 183
穿@@ 183
联想 183
背后 183
长效 183
111 182
blazer 182
fw 182
gg@@ 182
mb@@ 182
queen 182
te 182
产@@ 182
佩@@ 182
供佛 182
冲锋 182
善 182
团体 182
宝可 182
总 182
懒懒 182
榨汁机 182
海苔 182
消光 182
液体 182
温@@ 182
程 182
纺 182
网络 182
萃@@ 182
袖短 182
评价 182
轩 182
辣椒 182
风情 182
240@@ 181
750@@ 181
ag@@ 181
fly 181
it 181
ll 181
nikon 181
ny@@ 181
sa 181
sl@@ 181
tissot 181
world 181
xsmax 181
作者: 181
分钟 181
发圈 181
喷漆 181
复@@ 181
小样 181
投影 181
护士 181
泳裤 181
火焰 181
玻璃@@ 181
眼部 181
空姐 181
箱@@ 181
统 181
美发 181
菱形 181
衫女 181
迪士尼@@ 181
08 180
15-@@ 180
???? 180
cs@@ 180
cy@@ 180
mr@@ 180
x/@@ 180
刀具 180
分隔 180
加密 180
原液 180
喜欢 180
天空 180
子星 180
式) 180
烟@@ 180
白光 180
破@@ 180
胸章 180
蓝宝石 180
角@@ 180
铂金 180
铝 180
4) 179
4.7 179
5g 179
ad 179
color 179
ze@@ 179
合一 179
复古@@ 179
天堂 179
安心 179
机架 179
松紧带 179
桌@@ 179
气囊 179
深v 179
炎 179
甜甜 179
舍 179
苏@@ 179
造 179
鞋面 179
0p 178
ac 178
ball 178
kd 178
ke 178
logo@@ 178
mb 178
monster 178
r17 178
一体机 178
仙@@ 178
吊饰 178
咪@@ 178
姓名 178
小猫 178
幽灵 178
研 178
租房 178
脱毛 178
自用 178
豪@@ 178
轮@@ 178
邮票 178
闪耀 178
除毛 178
风车 178
501 177
book 177
dr@@ 177
dvd- 177
happy 177
mc@@ 177
wanna 177
wi@@ 177
互动 177
出游 177
初@@ 177
去@@ 177
垫片 177
女潮 177
子弹 177
小物 177
尾灯 177
巴斯 177
木耳 177
流沙 177
淡化 177
炒锅 177
理发店 177
简@@ 177
糕 177
纽扣 177
记事本 177
酒杯 177
锅盖 177
飞人 177
40-44 176
adidas@@ 176
bt 176
dream 176
dunk 176
magic 176
studio 176
wang 176
│秒 176
们 176
出差 176
各式 176
哑光 176
唱歌 176
姐姐 176
尾@@ 176
杰@@ 176
架@@ 176
棍 176
正方形 176
洗发 176
添加 176
花生 176
钓 176
铺@@ 176
门后 176
靴女 176
预购) 176
飞行器 176
01@@ 175
ing@@ 175
lo 175
ng 175
r-@@ 175
s-xxl 175
win@@ 175
上海 175
击 175
制) 175
十@@ 175
塞@@ 175
定时 175
室内外 175
小凳子 175
床@@ 175
我们 175
房子 175
概论 175
油漆 175
涵 175
燕麦 175
爆@@ 175
独@@ 175
百褶裙 175
禅 175
粘贴 175
绝 175
脆 175
芒果 175
适用于 175
重机 175
附赠 175
隔层 175
1-3@@ 174
8.5 174
\""@@ 174
bear 174
club 174
cool 174
ff@@ 174
fr@@ 174
set 174
tiffany 174
ve 174
健身房 174
全新) 174
刺青 174
单色 174
如意 174
守 174
完全 174
密@@ 174
扣@@ 174
检 174
椭圆 174
碗筷 174
系@@ 174
纯天然 174
耳环@@ 174
西餐 174
财@@ 174
镶嵌 174
集中 174
预订 174
领@@ 174
风琴 174
carter's 173
danielwellington 173
dd@@ 173
focus 173
t1／ 173
tu@@ 173
x2 173
y-@@ 173
❀ 173
佩佩猪 173
俏 173
凌 173
勺子 173
原色 173
厨具 173
声光 173
大款 173
天梭 173
奈 173
女仆 173
座@@ 173
总成 173
恒 173
成功 173
托架 173
报 173
披风 173
拇指 173
新竹 173
炮 173
特价) 173
百货@@ 173
经济 173
药@@ 173
锁头 173
齐全 173
(6 172
10-@@ 172
cl@@ 172
fate 172
mks 172
pet 172
不沾 172
冠希 172
凯蒂猫 172
喝 172
大陆 172
富贵 172
扩充 172
服务 172
杜兰特 172
栏 172
棋 172
洁净 172
烧@@ 172
瑜 172
男人 172
花器 172
若 172
采@@ 172
金证 172
额 172
风铃 172
00 171
1-3 171
280 171
365 171
4.@@ 171
550@@ 171
care 171
ru@@ 171
super@@ 171
toy 171
twice 171
乐乐 171
修饰 171
光学 171
剪@@ 171
匠 171
奥迪 171
小伙伴 171
小妹 171
巴特 171
平底锅 171
当@@ 171
拨 171
挂表 171
松饼 171
正宗 171
活@@ 171
爪@@ 171
皆可 171
知 171
矿 171
轴@@ 171
锐 171
音乐盒 171
鸟@@ 171
360@@ 170
3月 170
9.9 170
ce 170
design 170
kelly 170
m2k 170
melody 170
ps3 170
一直 170
发廊 170
壁饰 170
夜灯 170
大众 170
心形 170
未使用 170
棕@@ 170
烤炉 170
荷兰 170
蜜桃 170
锻炼 170
门市 170
霸王 170
齿@@ 170
(日本 169
5s 169
720 169
ea@@ 169
中童 169
人缘 169
冷藏 169
副食品 169
商场 169
女郎 169
实心 169
帽衫 169
投影机 169
晒衣架 169
月子 169
桑 169
珍藏 169
甜@@ 169
纯@@ 169
胶条 169
香味 169
鼎 169
190 168
angel 168
han@@ 168
义大利 168
名&优 168
富@@ 168
幼童 168
梨花 168
法兰 168
海马 168
润肤 168
牛皮纸 168
瓦斯 168
瓶) 168
蜂@@ 168
诱 168
进化 168
金银 168
除湿 168
馆@@ 168
鹿@@ 168
). 167
35-40 167
40-45 167
ap 167
giorgio 167
party 167
takara 167
type 167
买@@ 167
刮皮 167
勇士 167
华硕 167
吻 167
周@@ 167
呼吸 167
外销 167
屏幕 167
师@@ 167
得@@ 167
折叠椅 167
杏@@ 167
武@@ 167
沉 167
私人 167
穿鞋 167
米兰 167
钙 167
防辐射 167
顶@@ 167
6plus 166
bt@@ 166
m44@@ 166
世纪 166
供奉 166
内衬 166
匙 166
双门 166
台风 166
奶@@ 166
婴儿车 166
拍@@ 166
接口 166
梁 166
檀香 166
气泡 166
液态 166
璀璨 166
蜗牛 166
裙@@ 166
订做 166
记录 166
谷@@ 166
财神 166
赤 166
风火轮 166
(三 165
73@@ 165
al 165
ax@@ 165
dart 165
essential 165
ge 165
primeknit 165
shi@@ 165
ys@@ 165
合作 165
哆啦a 165
好吃 165
小鸭 165
悬挂 165
拖地 165
提升 165
搭扣 165
效@@ 165
木雕 165
松木 165
桃红色 165
河 165
燃气 165
福特 165
精装 165
课本 165
质@@ 165
车牌 165
问 165
20000 164
2016年 164
230 164
650 164
]☆ 164
agnes 164
a梦 164
db@@ 164
re 164
so 164
tt@@ 164
va@@ 164
wd 164
公分) 164
冷淡 164
圣诞树 164
培@@ 164
大地 164
容@@ 164
币 164
暖@@ 164
水枪 164
汤@@ 164
玫@@ 164
画家 164
皇 164
红绿 164
花架子 164
花苞 164
裤头 164
需要 164
高温 164
(限定 163
530 163
5d 163
a6@@ 163
au@@ 163
gs@@ 163
jacket 163
ki 163
佛珠 163
医生 163
场@@ 163
外卖 163
大眼 163
小兔 163
市场 163
帝 163
待机 163
折叠式 163
掉色 163
整装 163
柜台 163
牡丹 163
狗头 163
病 163
网格 163
蓬松 163
遮挡 163
郭 163
驼色 163
1.5m 162
10.5 162
256 162
et 162
note@@ 162
ta 162
tods 162
三联 162
交通 162
何 162
侧@@ 162
包#@@ 162
反折 162
叫 162
台上 162
唇彩 162
大功率 162
封@@ 162
小站 162
幸 162
扣头 162
易@@ 162
沐@@ 162
没有 162
流浪 162
爆裂 162
电锅 162
碳素 162
红豆 162
纤@@ 162
结@@ 162
罩杯 162
衣帽 162
观 162
车架 162
铸铁 162
﹝@@ 162
15.6 161
3000 161
711 161
9.@@ 161
a4@@ 161
backpack 161
led@@ 161
ml/ 161
na 161
ok 161
tiger 161
ー@@ 161
光泽 161
回馈 161
奖 161
样板房 161
梦想 161
楠竹 161
正生 161
画画 161
细致 161
茶树 161
针@@ 161
1:@@ 160
gucci/ 160
ja@@ 160
事@@ 160
会@@ 160
低胸 160
农 160
冷暖 160
劳保 160
卖@@ 160
吉祥 160
哆 160
唷 160
堡 160
庞 160
拆@@ 160
搓 160
新加坡 160
机电 160
棒@@ 160
毛笔 160
气压 160
滑轮 160
碳 160
粉扑 160
绝地 160
袋) 160
连接 160
遇见 160
陈列 160
食品级 160
首尔 160
118@@ 159
\n@@ 159
big 159
gb@@ 159
gold 159
or 159
toys 159
vr 159
假花 159
关节 159
只要 159
台桌 159
司机 159
喜@@ 159
坤 159
垃圾袋 159
夕 159
徐 159
悟 159
拳击 159
插画 159
最高 159
润泽 159
瓜 159
白板 159
省力 159
碳纤 159
红木 159
翠 159
舒@@ 159
芝@@ 159
蕊 159
裹 159
走路 159
销 159
骑车 159
鹤 159
170 158
2014 158
301 158
bws 158
ea7 158
ff 158
green 158
hilfiger 158
mazda 158
ray 158
spf50 158
刻度 158
垫脚 158
大耳 158
寻 158
彭 158
损 158
散热器 158
枕芯 158
桃木 158
洗头 158
爸 158
痛 158
睡袍 158
私@@ 158
脱@@ 158
舞@@ 158
蓝) 158
袖珍 158
钢针 158
锋 158
黑曜石 158
(小) 157
0-@@ 157
120ml 157
1970s 157
6吋 157
cw@@ 157
el 157
gm 157
marvel 157
pt@@ 157
t桖 157
乌龟 157
亲@@ 157
分离 157
剪裁 157
北海道 157
变速 157
吊床 157
子) 157
巨人 157
扑克牌 157
智力 157
模拟 157
浆 157
碧@@ 157
篮子 157
美味 157
议 157
酒器 157
钳@@ 157
长靴 157
防汗 157
9999 156
j-@@ 156
je@@ 156
s) 156
shirt 156
tekno 156
〖 156
俱乐部 156
剥 156
发售 156
回收 156
局 156
早秋 156
柜门 156
甜甜圈 156
盖布 156
真人 156
眼膜 156
祥 156
花艺 156
试题 156
语@@ 156
购) 156
踩 156
途 156
｛ 156
(小@@ 155
+1 155
-1@@ 155
-7@@ 155
6) 155
dhc 155
et@@ 155
gps 155
hy@@ 155
japan 155
lightning 155
oversize 155
sega 155
vip 155
世代 155
佛像 155
全面 155
具@@ 155
分享 155
博柏利 155
古铜 155
唯 155
喵 155
射 155
屁股 155
扣环 155
拔 155
换@@ 155
摇头 155
方桌 155
梅花 155
检测 155
泽@@ 155
浩 155
珍品 155
眉 155
脑 155
舰 155
资 155
迎宾 155
进@@ 155
道教 155
钮扣 155
009 154
11100@@ 154
1970 154
a9@@ 154
gopro 154
hitachi 154
iphone6s 154
ju@@ 154
levis 154
mt 154
三洋 154
下午茶 154
丰@@ 154
喜糖 154
墙角 154
大大 154
妃 154
嫁接 154
孔雀 154
手饰 154
找 154
投影仪 154
无缝 154
极限 154
模@@ 154
猫眼 154
球员 154
电容 154
留言 154
羊羔 154
考@@ 154
胡@@ 154
荣@@ 154
藤椅 154
补丁 154
衬@@ 154
购价 154
＆@@ 154
330 153
7.@@ 153
b5 153
ba 153
bally 153
brown 153
chrome 153
mas@@ 153
rc 153
rn 153
s10 153
smart 153
steam 153
x5 153
便条纸 153
军@@ 153
决 153
刺猬 153
单眼 153
叉子 153
吊@@ 153
地球 153
培训 153
干果 153
拖车 153
挤 153
摩登 153
旋 153
毛毡 153
灵@@ 153
玻璃瓶 153
箱包 153
绕 153
网状 153
育 153
赔 153
轩@@ 153
高贵 153
(超 152
be 152
ben@@ 152
chi 152
jp@@ 152
son@@ 152
uni@@ 152
wu 152
人鱼 152
充@@ 152
光阳 152
兜兜 152
医疗 152
哑铃 152
团@@ 152
夹层 152
姐妹 152
宏@@ 152
惠灵顿 152
期限 152
朱 152
洗发水 152
溜冰鞋 152
满意 152
生儿 152
相册 152
研磨 152
管道 152
胸@@ 152
蔻@@ 152
设 152
贺 152
防虫 152
阴 152
雄 152
-b@@ 151
008 151
20ml 151
[l 151
altis 151
combi 151
fashion 151
ly 151
one@@ 151
two 151
俄罗斯 151
兹 151
冰块 151
包覆 151
厚@@ 151
去除 151
增压 151
夜间 151
手持式 151
敏感 151
敷 151
木色 151
机柜 151
民@@ 151
物品 151
生肖 151
眠 151
竞技 151
菜刀 151
虎@@ 151
记忆体 151
都市 151
铁皮 151
面乳 151
(直 150
[x 150
case 150
con@@ 150
em@@ 150
gh@@ 150
ht@@ 150
ip@@ 150
kose 150
phone 150
ur@@ 150
wave 150
zx 150
上衣@@ 150
乔治 150
伯 150
便捷 150
农@@ 150
剃 150
唱片 150
国外 150
奶奶 150
好运 150
姆@@ 150
巨无霸 150
布衣 150
彩膜 150
斗@@ 150
曾 150
机箱 150
桧 150
空白 150
结单 150
绳@@ 150
罐头 150
美学 150
蓝光 150
认明 150
金箔 150
钞 150
钢管 150
除尘 150
零售 150
风机 150
高手 150
鲜@@ 150
100g 149
125@@ 149
bo 149
collection 149
g*@@ 149
m-2xl 149
rs@@ 149
s-xl 149
• 149
公园 149
养@@ 149
司@@ 149
处理 149
姆 149
异味 149
探索 149
推@@ 149
插@@ 149
最佳 149
望远镜 149
木板 149
水果盘 149
洗面奶 149
狮子 149
用款 149
直出 149
种植 149
绮 149
聚会 149
脸@@ 149
腰@@ 149
莲蓬头 149
裂 149
过家家 149
钢丝 149
马尾 149
112 148
82@@ 148
996 148
cg@@ 148
cho@@ 148
cj@@ 148
dv@@ 148
her@@ 148
mj 148
note8 148
主食 148
健@@ 148
八五 148
刀片 148
化学 148
发卡 148
启动 148
因 148
壳@@ 148
小个子 148
手掌 148
护套 148
樱 148
注@@ 148
瑞典 148
白) 148
百搭 148
罐@@ 148
路由器 148
选) 148
酸@@ 148
锁扣 148
麻辣 148
260@@ 147
580 147
a8 147
gogoro 147
guess 147
kt@@ 147
lativ 147
promax 147
shoes 147
vs 147
x3 147
xx 147
不可 147
伦@@ 147
净水 147
吗 147
咪 147
哇 147
国家 147
如图 147
整组 147
浮@@ 147
猎人 147
猛 147
琥珀 147
瑕疵 147
绷带 147
美睫 147
脖@@ 147
萃 147
贵妃 147
锡 147
领劵 147
118 146
36-39 146
401 146
a/@@ 146
chu@@ 146
fm 146
funko 146
gp 146
iu 146
kin@@ 146
levi's 146
s8 146
ssd 146
z-@@ 146
ト@@ 146
ン 146
全屏 146
可伸缩 146
圆型 146
天鹅绒 146
安德玛 146
常 146
慧@@ 146
插花 146
收银台 146
攻略 146
数@@ 146
木马 146
模特 146
永恒 146
温度 146
漫@@ 146
玄@@ 146
端子 146
细节 146
脖子 146
蛋卷 146
迷人 146
邱 146
重型 146
除湿机 146
"\ 145
(大@@ 145
** 145
3c@@ 145
978@@ 145
?? 145
aa 145
alice 145
app 145
bape 145
court 145
dh@@ 145
gel 145
heart 145
navy 145
op@@ 145
royal 145
sky 145
smax 145
sun 145
准 145
劳@@ 145
原矿 145
夸张 145
宫崎骏 145
宴 145
手推 145
挑战 145
染发剂 145
桃色 145
湖水 145
生命 145
穆勒 145
穿衣镜 145
米老鼠 145
绝@@ 145
罐装 145
莎@@ 145
莓@@ 145
菊花 145
蜡笔 145
装潢 145
记录器 145
调情 145
迷@@ 145
附发票 145
鞋底 145
鸣 145
黑) 145
((@@ 144
14-@@ 144
480 144
art 144
gd@@ 144
gr@@ 144
ing 144
ipad@@ 144
pony 144
ン@@ 144
中大 144
会员 144
保时 144
列 144
口径 144
夹心 144
属 144
床边柜 144
报@@ 144
水光 144
睡@@ 144
跟单 144
过滤网 144
飞行员 144
鱼骨 144
3.8 143
380 143
4d 143
6月 143
bw@@ 143
citizen 143
dvd@@ 143
jk 143
nu@@ 143
racer 143
son 143
tom 143
ღ@@ 143
倒@@ 143
双排扣 143
商品@@ 143
图解 143
声控 143
妳@@ 143
彩灯 143
房@@ 143
手办 143
打印机 143
控制器 143
改@@ 143
杨幂 143
枣 143
步@@ 143
浅灰 143
热敷 143
祖 143
精英 143
维尼@@ 143
缇 143
良好 143
莱卡 143
行家 143
试@@ 143
锦 143
院 143
鱼竿 143
-001 142
3ce 142
70-@@ 142
8mm 142
90cm 142
am 142
ddr@@ 142
fc 142
m-xl 142
spf@@ 142
tri@@ 142
册) 142
女帝 142
尾巴 142
心率 142
性爱 142
成年 142
方格 142
柔@@ 142
棉外套 142
溢 142
热销# 142
自行 142
萝 142
走@@ 142
量@@ 142
锅@@ 142
音频 142
预@@ 142
(c@@ 141
-02 141
135 141
320 141
5a 141
ana 141
bar@@ 141
dior迪奥@@ 141
ferragamo 141
gu 141
kiss 141
les 141
lolita 141
ophidia 141
s0@@ 141
secret 141
ti 141
uptempo 141
ut@@ 141
◇@@ 141
伏 141
功 141
圆珠 141
圈@@ 141
大叔 141
宣传 141
库里 141
搭@@ 141
新生 141
无瑕 141
无纺布 141
最@@ 141
未@@ 141
毛器 141
海豚 141
淡斑 141
漂 141
画板 141
童趣 141
超越 141
野兽 141
1-2@@ 140
10.@@ 140
36-40 140
cnc 140
hg 140
miu 140
valentino 140
五角星 140
仰卧 140
升@@ 140
土耳其 140
战神 140
抓@@ 140
提篮 140
春天 140
枕头套 140
桥 140
楠 140
混合 140
理发 140
电机 140
码@@ 140
索@@ 140
脂 140
菁 140
购物车 140
贴花 140
迈 140
金边 140
锂电池 140
随意 140
(原 139
---@@ 139
128@@ 139
18-@@ 139
650@@ 139
ace 139
aw@@ 139
ft@@ 139
ga-110 139
ig 139
ll@@ 139
r9s 139
tv 139
xi 139
√@@ 139
乌 139
侠@@ 139
先@@ 139
号码 139
墨绿 139
学步车 139
小舖@@ 139
小飞象 139
帮@@ 139
快感 139
手提式 139
护目镜 139
披 139
晴雨伞 139
染发 139
氛@@ 139
沉香 139
淘 139
澳 139
烛台 139
物理 139
痘@@ 139
着@@ 139
简洁 139
腕带 139
薄纱 139
讲义 139
论 139
银楼 139
铺㊣ 139
降噪 139
魅@@ 139
117 138
16-@@ 138
bk 138
qc@@ 138
si 138
sui 138
t短 138
ul@@ 138
va 138
wa 138
传输 138
兰芝 138
卷边 138
大量 138
实务 138
应用 138
影@@ 138
旭 138
木床 138
柏@@ 138
栅栏 138
水晶球 138
汤碗 138
汽@@ 138
沙龙 138
瑶 138
由 138
胖胖 138
莓 138
重工 138
钓竿 138
闪灯 138
马自达 138
鼠年 138
(白) 137
a7 137
cap 137
desire 137
mei@@ 137
msi 137
nokia 137
rgb 137
ton 137
x5@@ 137
三角形 137
凉被 137
刹车 137
吕 137
多彩 137
妃@@ 137
实验 137
少量 137
帮手 137
建@@ 137
文乐 137
方框 137
普通 137
极品 137
狗@@ 137
窑 137
箭 137
红) 137
维生素 137
缇花 137
萝卜 137
蔷薇 137
薯条 137
言 137
赞@@ 137
避震器 137
钻戒 137
顺@@ 137
鲤鱼 137
-10@@ 136
900@@ 136
atf 136
core 136
epson 136
gx 136
s9 136
zz@@ 136
便利店 136
修补 136
半透明 136
射@@ 136
岁月 136
川@@ 136
延长 136
开花 136
拎 136
接收器 136
摆@@ 136
机手 136
树叶 136
棉鞋 136
棚 136
母婴 136
求婚 136
河@@ 136
活页 136
清水 136
湿巾 136
碗@@ 136
籽 136
线香 136
航 136
色彩 136
萝@@ 136
袖@@ 136
订购 136
贝儿 136
足@@ 136
轨 136
达人 136
遥控车 136
链带 136
静@@ 136
音质 136
(2@@ 135
40mm 135
hp@@ 135
just 135
nintendo 135
pa 135
ス@@ 135
个@@ 135
亚洲 135
倒流 135
兰蔻 135
净化器 135
吊篮 135
固@@ 135
国制 135
填 135
夫妻 135
奇奇蒂蒂 135
布朗 135
年终 135
底裤 135
开幕 135
极光 135
活性 135
白雪公主 135
神秘 135
禁 135
私处 135
等级 135
装修 135
试衣 135
铭 135
镜框 135
长度 135
韩版 135
马拉松 135
鼻@@ 135
﹝ 135
260 134
2a 134
520@@ 134
7) 134
93@@ 134
990 134
a9 134
fgo 134
keith 134
oo@@ 134
ow 134
书套 134
刮痧 134
刻@@ 134
勇者 134
单面 134
圆凳 134
塑@@ 134
塑钢 134
娜娜 134
微波 134
框@@ 134
檀 134
玩具@@ 134
盛@@ 134
祭 134
离@@ 134
精密 134
藏@@ 134
行销 134
诚信 134
通讯 134
鉴赏 134
雪茄 134
马上 134
(30 133
(m@@ 133
(保留 133
1-2 133
120g 133
\n\ 133
cpu 133
ks 133
nano 133
paul 133
ten@@ 133
tf 133
x6 133
一体式 133
三角架 133
五斗柜 133
储存 133
元气 133
冬@@ 133
助@@ 133
历史 133
启蒙 133
大马 133
密码锁 133
平民 133
形@@ 133
影片 133
愿 133
无法 133
朝 133
柔光 133
梵@@ 133
檐 133
洪 133
消@@ 133
瓷杯 133
续航 133
网球 133
美杜莎 133
蓝黑 133
螃蟹 133
袜@@ 133
财务 133
购价) 133
轮子 133
远程 133
锦@@ 133
餐垫 133
魔方 133
-8@@ 132
116 132
280@@ 132
30g 132
3g 132
a8@@ 132
c.@@ 132
c/@@ 132
jeans 132
mk6@@ 132
san-x 132
small 132
ty 132
佩 132
保险柜 132
倒车 132
兔毛 132
净水器 132
及膝 132
台式机 132
同学 132
围@@ 132
奇诺 132
幼@@ 132
恋人 132
手写 132
托特包 132
搜 132
曲面 132
檀木 132
沛@@ 132
浅@@ 132
煮锅 132
熨斗 132
燕 132
特价$@@ 132
百年 132
直排 132
被@@ 132
许愿 132
跑@@ 132
跳@@ 132
鑫@@ 132
食堂 132
黎 132
(买 131
(公司 131
a1 131
ber@@ 131
game 131
oz 131
plus/@@ 131
sho@@ 131
◇ 131
丘 131
保险箱 131
刷色 131
包巾 131
台布 131
地图 131
妞 131
妻 131
工具包 131
弹跳 131
恤衫 131
抛弃 131
无味 131
晶片 131
暗@@ 131
本子 131
核桃 131
模组 131
横@@ 131
熊@@ 131
生存 131
百搭@@ 131
缪 131
腰部 131
落@@ 131
银行 131
销价 131
鞭 131
｝ 131
!) 130
978957@@ 130
a) 130
dy 130
jojo 130
l/@@ 130
usa 130
→ 130
中学生 130
乃 130
乔@@ 130
代购) 130
伞状 130
侃爷 130
侠 130
停车 130
决战 130
合奏 130
唱 130
多媒体 130
妖@@ 130
常@@ 130
影楼 130
忍 130
悬挂式 130
承@@ 130
接线 130
日版 130
景@@ 130
柑 130
根@@ 130
电子秤 130
皇后 130
素描 130
网卡 130
良@@ 130
证@@ 130
那@@ 130
防水@@ 130
防疫 130
阴@@ 130
隐@@ 130
音量 130
鸟笼 130
!@@ 129
(100 129
*2 129
..@@ 129
1100 129
11月 129
1l 129
20/@@ 129
200g 129
80g 129
gp@@ 129
jp0@@ 129
life@@ 129
m40@@ 129
mat@@ 129
time 129
▲ 129
乳霜 129
事业 129
五件 129
儿童节 129
出清) 129
划痕 129
卡特 129
厂@@ 129
大童 129
宠爱 129
尖端 129
山地 129
影城 129
快递 129
护发素 129
提袋 129
枸杞 129
水乳 129
油性 129
海盗 129
滑雪 129
现场 129
短筒 129
终极 129
蛙@@ 129
触摸 129
输出 129
速度 129
靓@@ 129
's@@ 128
+/@@ 128
250g 128
ct 128
i6 128
jc 128
knit 128
lip 128
m60@@ 128
nsw 128
tamiya 128
tote 128
ts@@ 128
ven@@ 128
vivo@@ 128
wars 128
光感 128
全部 128
分析 128
剃须刀 128
圆筒 128
天线 128
小推车 128
工程车 128
巧@@ 128
弦 128
拉力 128
收音机 128
斜纹 128
昆 128
有效 128
椭圆形 128
正货 128
汽油 128
浓密 128
熊本 128
玩具店 128
皮筋 128
盖子 128
石英钟 128
碧玺 128
胶鞋 128
表面 128
运动@@ 128
钮 128
雷朋 128
颈枕 128
首@@ 128
驾驶 128
(1) 127
1ml 127
2013 127
2018@@ 127
3a 127
710@@ 127
9) 127
audi 127
ay@@ 127
bobo 127
crv 127
hoodie 127
kk 127
n\ 127
nms 127
rebecca 127
vintage" 127
yi@@ 127
一体 127
五代 127
公文 127
凤 127
初中 127
励志 127
回弹 127
奇异 127
套头衫 127
好好 127
帆船 127
廖 127
开襟 127
微电脑 127
总代理 127
放大镜 127
晚 127
暖暖 127
流水 127
渡 127
现货# 127
甲醛 127
电源线 127
社@@ 127
等身 127
粉白 127
芝麻 127
芝麻街 127
莫斯 127
菜板 127
蒙古包 127
蛙 127
装饰灯 127
计算机 127
酒神 127
量贩 127
铁板 127
铁架 127
链子 127
销售 127
闪@@ 127
2.4 126
8) 126
buy 126
edition 126
emporio 126
fun 126
lexus 126
w/@@ 126
乐高积木 126
价) 126
出门 126
包膜 126
十足 126
圆球 126
备注 126
寿 126
异@@ 126
忧 126
念 126
抑菌 126
抽取 126
排水 126
松鼠 126
框架 126
椅@@ 126
猎@@ 126
疲劳 126
的@@ 126
盆@@ 126
目@@ 126
知名 126
硫化 126
神域 126
芸芸 126
蝶古 126
黑眼圈 126
(新 125
1/144 125
60ml 125
alexander 125
chang 125
day@@ 125
di 125
missha 125
ml+ 125
oshkosh 125
pack 125
qu@@ 125
triple 125
xs@@ 125
丁@@ 125
仪表 125
伴 125
光年 125
十一 125
哄 125
唐@@ 125
坂 125
声@@ 125
复合 125
夏威夷 125
差 125
开瓶器 125
徒步 125
得力 125
折起 125
机身 125
杏 125
果蔬 125
桂 125
棉袄 125
汽 125
浣熊 125
深海 125
炭@@ 125
牙齿 125
玛莎拉蒂 125
矿物 125
礼券 125
粗@@ 125
鑫 125
黏 125
黑黑 125
126 124
beats 124
lucky 124
men 124
s5@@ 124
・@@ 124
三明治 124
人份 124
人体工学 124
克兰 124
公仔@@ 124
出品 124
切片 124
刮@@ 124
制品 124
咖啡壶 124
喵喵 124
囊 124
增强 124
大王 124
奈米 124
幕 124
底片 124
拉面 124
挂毯 124
指甲剪 124
捧 124
擦拭 124
朗@@ 124
望 124
柚子 124
现金 124
章鱼 124
胡子 124
脂@@ 124
解析 124
触屏 124
贝雷帽 124
账 124
资讯 124
赤@@ 124
追@@ 124
铅 124
镀铬 124
领巾 124
＜ 124
-c@@ 123
13-@@ 123
236@@ 123
2g 123
pg 123
reno 123
t.@@ 123
♛@@ 123
全集 123
垃圾 123
崎@@ 123
左@@ 123
干洗 123
拆卸 123
果酱 123
潘多拉 123
畅 123
研磨机 123
窗@@ 123
立体声 123
良品 123
蚊器 123
调味料 123
邮 123
钓鱼竿 123
长方 123
限@@ 123
随便 123
雕像 123
#新品 122
(四 122
(新款 122
(男 122
(蓝 122
247 122
24k 122
701 122
ape 122
f/@@ 122
god 122
id 122
iii 122
m9@@ 122
plus@@ 122
t0@@ 122
下杀@@@ 122
丢 122
个) 122
偏光镜 122
兰花 122
凉爽 122
到@@ 122
包子 122
发膜 122
咖哩 122
商业 122
喷雾器 122
手作 122
折叠伞 122
掌柜 122
摇杆 122
教材 122
文书 122
晓@@ 122
曲@@ 122
李@@ 122
浅色 122
测试 122
海棉 122
涂层 122
火山 122
牛皮@@ 122
狐 122
电视机 122
登@@ 122
白白 122
硬度 122
维多利亚 122
编号: 122
聚宝盆 122
育@@ 122
苏菲 122
蓝绿 122
证书 122
谈 122
超声波 122
趾@@ 122
车手 122
配送 122
金牌 122
阳@@ 122
鲁夫 122
麻绳 122
1" 121
11-@@ 121
2019/@@ 121
bon@@ 121
ha 121
ice 121
kit 121
ls 121
mix 121
piece 121
pre@@ 121
usb@@ 121
§ 121
下巴 121
优惠) 121
会议桌 121
农场 121
加压 121
动能 121
印尼 121
发器 121
号: 121
吾 121
太子 121
导@@ 121
市@@ 121
布贴 121
录@@ 121
梦网 121
毛刷 121
浪琴 121
涂料 121
激@@ 121
照镜 121
牵引 121
电吉他 121
砸 121
紫罗兰 121
耐@@ 121
肤宝水 121
茶叶罐 121
虾@@ 121
装扮 121
警@@ 121
阵 121
魏 121
(简体 120
.1 120
1.6 120
158 120
512 120
bra 120
estee 120
g6 120
gsc 120
gx@@ 120
insta 120
isbn: 120
james 120
kitty@@ 120
ku 120
lt@@ 120
lv/ 120
pd 120
rb@@ 120
rd@@ 120
s1 120
s7 120
swoosh 120
tab 120
wh 120
义@@ 120
亚马逊 120
克斯 120
内外 120
减@@ 120
勋 120
印象 120
即食 120
口水 120
合成 120
同名 120
名器 120
名字 120
呢 120
夫@@ 120
女网 120
女靴 120
妃包 120
完成 120
尖@@ 120
开学 120
扭扭 120
捞 120
文具盒 120
无烟 120
杜@@ 120
浴@@ 120
潮t 120
灯管 120
焕 120
电力 120
男学生 120
示 120
离合器 120
草坪 120
贵妇 120
超硬 120
车皮 120
追 120
钻头 120
(9 119
): 119
150g 119
202 119
3/4 119
390 119
450@@ 119
diamond 119
epic 119
mac@@ 119
nice 119
sx@@ 119
t男 119
○ 119
以@@ 119
共@@ 119
冷风 119
刀头 119
合售 119
城@@ 119
夹板 119
奴比 119
宜@@ 119
宣言 119
层次 119
工场 119
巴士 119
投@@ 119
拓 119
果干 119
染@@ 119
检验 119
民谣 119
汗衫 119
沙包 119
注 119
洗面 119
烘@@ 119
白银 119
知@@ 119
窗台 119
纱窗 119
聪明 119
舞会 119
辛 119
长型 119
防晒乳 119
阿赞@@ 119
鞋盒 119
顶上 119
(近 118
136@@ 118
15ml 118
bobbi 118
d.@@ 118
e.@@ 118
lab 118
lauder 118
os 118
ter@@ 118
wh@@ 118
wo@@ 118
ys 118
|| 118
丝带 118
中小学生 118
全省 118
其@@ 118
凸 118
劳 118
区) 118
卓 118
发泡 118
啤酒 118
喷枪 118
女裤 118
季@@ 118
工作台 118
幻@@ 118
异形 118
手链@@ 118
晕染 118
汁 118
海盐 118
烟盒 118
熙 118
用品. 118
监视器 118
眼镜架 118
稳定 118
自慰杯 118
衣裤 118
试管 118
转盘 118
重力 118
链@@ 118
错 118
闪光灯 118
问题 118
附录 118
高雅 118
￥@@ 118
-2 117
10月 117
17-@@ 117
bs 117
bu9@@ 117
can@@ 117
ep@@ 117
f5@@ 117
ix 117
j7 117
ld@@ 117
platform 117
porsche 117
sc 117
su 117
tee@@ 117
togo 117
usb3.0 117
with 117
✪@@ 117
主持人 117
主机板 117
亦 117
便@@ 117
冰凉 117
勇 117
包围 117
卡卡 117
厘米 117
原料 117
呆 117
呢子 117
地靴 117
坎肩 117
声卡 117
忘 117
手电 117
排气管 117
探 117
摇@@ 117
无糖 117
板桥 117
淡@@ 117
理论 117
祝福 117
稳 117
穿过 117
红枣 117
纪念版 117
纹路 117
网购 117
背巾 117
薰@@ 117
装饰@@ 117
酷奇 117
金丝绒 117
钉@@ 117
领口 117
鬼@@ 117
3-6 116
at 116
double 116
dyson 116
fw@@ 116
huang 116
mate 116
ml- 116
print 116
sampo 116
seventeen 116
佳能 116
全方位 116
包包包 116
哈利波特 116
堂@@ 116
大容量 116
妞妞 116
展@@ 116
手工艺 116
承重 116
抽奖 116
指针 116
携带型 116
收纳@@ 116
曲线 116
本) 116
果盘 116
欢 116
止痒 116
死皮 116
污 116
火星 116
灰姑娘 116
百货公司 116
练字 116
老爷 116
胶底 116
袖短t 116
裁 116
裤腰带 116
读@@ 116
赫@@ 116
金盏花 116
颖 116
飞镖 116
魔女 116
(非 115
2012 115
2020/@@ 115
24cm 115
4月 115
60cm 115
7月 115
902 115
ci 115
edge 115
f1 115
gtr 115
ine 115
md@@ 115
r9 115
shf 115
sl 115
sw 115
vol.@@ 115
x7 115
yoyo 115
供应器 115
光面 115
出清@@ 115
印字 115
变焦 115
吊椅 115
吋) 115
品味 115
埃及 115
太极 115
密度 115
密码箱 115
市集 115
开刃 115
播 115
整箱 115
明日 115
沟 115
测量 115
溜 115
煲 115
牛仔布 115
玻璃膜 115
珠子 115
男包 115
画册 115
眼皮 115
空瓶 115
纯净 115
芙 115
莹 115
蜘蛛 115
西点 115
赵 115
邦@@ 115
醒 115
闻 115
阳具 115
骚 115
113 114
145 114
303 114
7p 114
a& 114
aape 114
bt21 114
c0@@ 114
chanel@@ 114
daniel 114
gen@@ 114
joy 114
js 114
mit@@ 114
mk5@@ 114
muji 114
note5 114
pan@@ 114
slim 114
✪ 114
一键 114
上课 114
仙境 114
仙气 114
双子 114
发行 114
布面 114
帘子 114
快手 114
抢先 114
摩洛哥 114
改善 114
校 114
油壶 114
火烈鸟 114
煤油 114
男t 114
神话 114
粉) 114
纱@@ 114
螨@@ 114
视觉 114
谦 114
金丝 114
阶 114
颈部 114
食用 114
饭碗 114
验 114
鲸鱼 114
＆ 114
｝@@ 114
20g 113
380@@ 113
3m@@ 113
6-12 113
black@@ 113
crystal 113
dm@@ 113
good 113
har@@ 113
ii@@ 113
m3 113
master 113
ml*@@ 113
pin 113
pin@@ 113
ra 113
ultraboost 113
up@@ 113
x手机 113
力量 113
吊扇 113
售出) 113
完@@ 113
定妆 113
客户 113
库@@ 113
悠@@ 113
打蜡 113
搅拌机 113
橄榄 113
欣@@ 113
每日 113
浏海 113
渍 113
焊 113
监测 113
离 113
缓冲 113
老年人 113
背斜 113
航@@ 113
船型 113
袖口 113
角度 113
身体乳 113
轮滑鞋 113
醉 113
钢架 113
驱车 113
36-@@ 112
a6 112
ahc 112
az@@ 112
bc@@ 112
laneige 112
lte 112
maserati 112
mei 112
mercci22 112
note10 112
pet@@ 112
summer 112
x10 112
yo 112
い@@ 112
シ@@ 112
ー 112
今日 112
会场 112
作业 112
兼容 112
初版 112
动物园 112
发露 112
大摆 112
套装@@ 112
季节 112
封面 112
居@@ 112
恐怖 112
成型 112
战争 112
捆 112
探险 112
教具 112
文件柜 112
更新 112
水母 112
沙漏 112
滑滑 112
盐@@ 112
神仙 112
经济学 112
耶诞 112
股 112
腻 112
自助 112
钟@@ 112
(8 111
*1 111
1+@@ 111
155 111
256g 111
5cm 111
63@@ 111
6g 111
ae@@ 111
charles& 111
dy@@ 111
fossil 111
hellokitty 111
ic 111
kakao 111
mcqueen 111
mh@@ 111
mm/@@ 111
pochette 111
sgs 111
sh 111
shimano 111
t型 111
vga 111
x4 111
下铺 111
井@@ 111
亲笔 111
件@@ 111
保险 111
分层 111
剑@@ 111
单鞋 111
员工 111
园@@ 111
国画 111
小人 111
居家家 111
彼 111
惠普 111
手巾 111
拆卖 111
拳 111
拼@@ 111
更换 111
标示 111
沙袋 111
游泳池 111
溪 111
烤@@ 111
爵士 111
瘦脸 111
白熊 111
石榴 111
虫@@ 111
贵宾 111
软软 111
透亮 111
部@@ 111
门窗 111
随@@ 111
(12 110
(白 110
.2 110
1.0 110
19-@@ 110
aj4 110
bc 110
bi 110
d0@@ 110
dd 110
dsquared2 110
new@@ 110
r2 110
s6 110
不同 110
中空 110
仁@@ 110
会客 110
元宝 110
切菜 110
化妆盒 110
吊柜 110
射灯 110
小子 110
州 110
急速 110
打气 110
料@@ 110
末 110
枪@@ 110
椅背 110
海鲜 110
班@@ 110
瘦长 110
筑 110
缝线 110
羽毛球 110
老二 110
视@@ 110
轴承 110
釉 110
铲子 110
随身听 110
面) 110
风力 110
鹅 110
黑面 110
齿轮 110
＄@@ 110
(b@@ 109
(中 109
.0 109
50/@@ 109
bre@@ 109
fl@@ 109
g5 109
gtx@@ 109
gundam 109
lol 109
mer@@ 109
moto 109
nike/ 109
oppo@@ 109
s7@@ 109
❥@@ 109
フ@@ 109
人像 109
体感 109
保洁 109
凤凰 109
加工 109
国文 109
大阪 109
契尔氏 109
套鞋 109
小提琴 109
尺@@ 109
成犬 109
戴@@ 109
打折 109
打结 109
扩@@ 109
排球 109
日制 109
最低 109
桃子 109
母子 109
汝 109
测@@ 109
滤@@ 109
灯罩 109
照@@ 109
玫 109
盥洗 109
硬币 109
纽西兰 109
背包@@ 109
能@@ 109
芭@@ 109
苏打 109
蚂蚁 109
货到付款 109
酒瓶 109
飘逸 109
餐车 109
鱼眼 109
"nike 108
(满 108
(预购 108
225@@ 108
24v 108
3s 108
808 108
b37@@ 108
bn@@ 108
ho 108
london 108
nova 108
np@@ 108
paris 108
rl 108
story 108
丝器 108
五月天 108
低调 108
克拉 108
全民 108
匹 108
卡包 108
名侦探柯南 108
坏 108
头) 108
宣 108
寇 108
山居 108
弘 108
弥 108
彼得 108
心灵 108
成套 108
扣子 108
抄 108
拾 108
断@@ 108
旋风 108
旧@@ 108
早@@ 108
杉 108
柔顺 108
格斗 108
浅蓝 108
浴衣 108
涂 108
玫瑰@@ 108
生态 108
电话机 108
盈 108
神明 108
竹制 108
米桶 108
美工 108
艾草 108
节庆 108
薄款 108
薰香 108
衣袋 108
裸色 108
计时器 108
软垫 108
适用) 108
遇 108
铝圈 108
霜@@ 108
题库 108
首发 108
高街 108
(2) 107
1-0@@ 107
\n\n 107
a2@@ 107
fb@@ 107
jy 107
mf@@ 107
mickey 107
mitsubishi 107
momo 107
ne 107
par@@ 107
suzuki 107
xr@@ 107
ア@@ 107
亏本 107
今 107
军装 107
勒@@ 107
半圆 107
哈雷 107
喷水 107
地区 107
大堂 107
娜美 107
家) 107
工地 107
干爽 107
开心 107
必@@ 107
挑逗 107
摆台 107
散打 107
施工 107
日杂 107
杀价@ 107
果果 107
桑@@ 107
概念 107
橡皮擦 107
氨基酸 107
温控 107
渲染 107
玖 107
瓶装 107
瞬间 107
缺 107
背带裤 107
背袋 107
能力 107
萍 107
葛 107
豆浆 107
运送 107
重量 107
金) 107
铁塔 107
预购@@ 107
风暴 107
麦克 107
1- 106
114 106
350v2 106
402 106
499 106
ban@@ 106
carhartt 106
cd) 106
forever 106
gucci包包 106
hero 106
j.@@ 106
jp 106
land 106
md 106
men@@ 106
mg@@ 106
mx@@ 106
per@@ 106
pop@@ 106
s- 106
tb@@ 106
一样 106
人类 106
人造 106
优惠@@ 106
免税 106
公牛 106
切割机 106
刷牙 106
前灯 106
包机 106
卖场; 106
变身 106
古龙 106
各@@ 106
合格 106
商品) 106
四轴 106
垒 106
大口 106
妮妮 106
崎 106
带线 106
年会 106
摩托 106
新颖 106
日用 106
时刻 106
曲奇 106
潮鞋 106
灶 106
炖锅 106
煎锅 106
看@@ 106
种@@ 106
秘书 106
细腻 106
羽@@ 106
自留 106
莲@@ 106
蒙@@ 106
认知 106
远射 106
连裤袜 106
通风 106
餐桌布 106
马卡龙 106
高度 106
魔幻 106
黑水 106
(3@@ 105
(蓝) 105
1/ 105
202@@ 105
414@@ 105
5月 105
bd 105
cafe 105
chicco 105
dj 105
duffy 105
eye 105
f0@@ 105
g.@@ 105
ina 105
iphone8 105
lancome 105
prime 105
pro/@@ 105
ry@@ 105
school 105
ter 105
tr 105
一番 105
久@@ 105
乙 105
亮度 105
似 105
住 105
八卦 105
农用 105
力士 105
境内 105
墨绿色 105
大同 105
婷婷 105
字体 105
宝盒 105
尾翼 105
扁 105
挡风板 105
普洱茶 105
杂@@ 105
来电 105
来自 105
枕@@ 105
水草 105
泊 105
派@@ 105
海钓 105
炼@@ 105
爱上 105
球球 105
电表 105
皮裤 105
盆架 105
秘@@ 105
统一 105
缇@@ 105
蒜@@ 105
警 105
说话 105
谊 105
钱@@ 105
雪糕 105
颂 105
驼背 105
﹞@@ 105
(全) 104
...... 104
165 104
42mm 104
90ml 104
957@@ 104
ani@@ 104
best 104
bh 104
bra@@ 104
ei@@ 104
kaws 104
kiki 104
l]@@ 104
speed 104
tester 104
tf@@ 104
v领@@ 104
xi@@ 104
xl) 104
za 104
上色 104
丑 104
东西 104
云南 104
件) 104
佳人 104
冠@@ 104
冰河 104
功夫茶 104
包屁 104
包组 104
单冷 104
后备箱 104
吸乳器 104
图片 104
奇妙 104
婆@@ 104
寿@@ 104
小衫 104
少@@ 104
年轻 104
幻想 104
戈 104
扭结 104
承 104
政@@ 104
断电 104
月饼 104
有限 104
模式 104
汀 104
河马 104
渔 104
渣 104
温暖 104
灌 104
爆乳 104
百折 104
端 104
纸箱 104
绿) 104
肖 104
色料 104
芭蕾舞 104
营@@ 104
萧 104
蜡线 104
觉 104
计@@ 104
讲机 104
连续 104
钞票 104
长颈鹿 104
门锁 104
雕塑 104
鞋店 104
(4@@ 103
-10 103
10) 103
119 103
310@@ 103
602 103
]#@@ 103
cl 103
cm-@@ 103
cor@@ 103
ec@@ 103
evo 103
iv 103
kipling 103
lacoste 103
mark 103
prm 103
sweet 103
t- 103
ting 103
whoo 103
y.@@ 103
ye@@ 103
→@@ 103
☆☆ 103
一) 103
七夕 103
专用) 103
价$@@ 103
保湿 103
冲洗 103
勒 103
区@@ 103
取@@ 103
大腿 103
失@@ 103
奔驰 103
宽袖 103
屋顶 103
山水 103
待 103
折) 103
摄 103
替 103
档案 103
椰 103
橡皮 103
沁 103
油瓶 103
泡@@ 103
烧水壶 103
热水器 103
睫@@ 103
矽@@ 103
等@@ 103
老花镜 103
蚊@@ 103
赫本 103
转印 103
迪奥@@ 103
锯齿 103
长桌 103
1028 102
11100 102
2.1 102
2018/@@ 102
211@@ 102
310 102
70g 102
749@@ 102
8.@@ 102
8p 102
aj11 102
ferrari 102
nars 102
nature 102
ni 102
pm 102
s8@@ 102
spade 102
xxl 102
ᄋ@@ 102
什么 102
任意 102
休息 102
伞@@ 102
作者 102
假@@ 102
做@@ 102
受 102
史迪奇 102
吸附 102
国语 102
基本款 102
妆前乳 102
字帖 102
宇@@ 102
宾@@ 102
巴利 102
引@@ 102
弯头 102
影视 102
抱抱 102
指尖 102
捏 102
新春 102
暴@@ 102
梦游 102
沈 102
浴袍 102
点缀 102
焕肤 102
爱恋 102
瓜子 102
男朋友 102
盒带 102
直升机 102
纸尿裤 102
脚底 102
自带 102
菜瓜 102
蒸笼 102
蔓越莓 102
衬 102
褥子 102
警察 102
谜 102
遮阳板 102
酱油 102
铁灰 102
长卷 102
长短 102
饵@@ 102
魅 102
麦片 102
＃@@ 102
.5@@ 101
760@@ 101
888 101
gear 101
i7@@ 101
max90 101
pg@@ 101
q-@@ 101
s/ 101
s2 101
sb@@ 101
vivi 101
书坊 101
公鸡 101
军规 101
制作人 101
单排扣 101
卡) 101
叶草 101
嫁 101
孕@@ 101
宝剑 101
小铺 101
开店 101
拍拍 101
杂 101
束缚 101
桐 101
欣欣 101
汽修 101
烘干机 101
照明灯 101
牛肉 101
玉a 101
珮@@ 101
画笔 101
百合 101
盆景 101
真爱 101
礼品盒 101
第六 101
绳子 101
膝盖 101
自在 101
船@@ 101
芥末 101
芭 101
荷花 101
藻 101
说@@ 101
贵族 101
进击 101
阴蒂 101
风云 101
-00@@ 100
-45 100
30/@@ 100
330@@ 100
38mm 100
6mm 100
:: 100
abc 100
cm/@@ 100
cuxi 100
dream@@ 100
f7@@ 100
free@@ 100
ft 100
fun@@ 100
intel 100
iphone6/@@ 100
low@@ 100
may@@ 100
maybelline 100
nt@@ 100
por@@ 100
top@@ 100
xt 100
zoo 100
主义 100
休眠 100
六色 100
划 100
前卫 100
友@@ 100
咖啡@@ 100
堆 100
壹湾 100
夫人 100
妇 100
层@@ 100
工具车 100
席子 100
形状 100
心情 100
恋@@ 100
息 100
戴尔 100
抽@@ 100
无双 100
杀价@@ 100
杨@@ 100
桦 100
椅套 100
橘红 100
汤姆 100
泛 100
浅蓝色 100
湾 100
灯座 100
生产 100
电子琴 100
皮具 100
翻斗 100
芬@@ 100
茵 100
菠萝 100
薄型 100
赫 100
邮寄 100
闪闪 100
风大 100
香菇 100
(内 99
b4@@ 99
bear@@ 99
fs@@ 99
fx@@ 99
ga-@@ 99
grey 99
mimi 99
p30 99
realme 99
rock 99
t/@@ 99
tea 99
tour 99
京@@ 99
俗 99
刘@@ 99
创作 99
初秋 99
加湿 99
单字 99
卖场) 99
双重 99
启 99
命运 99
四月 99
园林 99
声波 99
奖杯 99
女朋友 99
娟 99
嫩白 99
巡 99
弦@@ 99
慈@@ 99
敏@@ 99
木炭 99
杰克 99
案 99
沉@@ 99
油箱 99
流量 99
测验 99
父亲节 99
特价@@ 99
甘@@ 99
番茄 99
瘦@@ 99
祈福 99
童袜 99
系列) 99
肥@@ 99
裕 99
豆子 99
贝亲 99
越野车 99
适配器 99
钢珠 99
银河 99
鞋内 99
鲑鱼 99
.... 98
199@@ 98
2l 98
608 98
element 98
hang 98
io 98
jet 98
kg@@ 98
ky 98
lb@@ 98
m2 98
m2@@ 98
pvc@@ 98
racing 98
re: 98
shu 98
sr 98
war@@ 98
wei 98
wen 98
wish 98
xb@@ 98
zippo 98
►@@ 98
上下 98
丝质 98
严选 98
人形 98
儿童@@ 98
八角 98
再@@ 98
前置 98
勾@@ 98
周年庆 98
和平 98
固体 98
坠饰 98
外置 98
宾馆 98
小鞋 98
弗@@ 98
挑@@ 98
暴龙 98
机场 98
榨汁 98
正规 98
每@@ 98
水泵 98
洗澡盆 98
液压 98
炫酷 98
环绕 98
益@@ 98
短发 98
笔芯 98
笛 98
籽@@ 98
纪@@ 98
纸杯 98
织@@ 98
续 98
羊肉 98
舍@@ 98
苦 98
范冰冰 98
蜂胶 98
蜘蛛侠 98
裁剪 98
裸妆 98
超级@@ 98
逢 98
金属@@ 98
防静电 98
馅 98
黄水晶 98
(0@@ 97
108@@ 97
25mm 97
br 97
bur@@ 97
civic 97
fc@@ 97
kd@@ 97
l.@@ 97
u11 97
ver 97
xbox 97
you@@ 97
╭☆ 97
☞@@ 97
下杀@@ 97
不二 97
为@@ 97
五月 97
付@@ 97
代买 97
加温 97
北极熊 97
发声 97
吹@@ 97
大圆 97
奶器 97
孙悟空 97
小心 97
应急 97
得标 97
想@@ 97
推车 97
摄像机 97
救援 97
敬酒 97
新书 97
新疆 97
春节 97
曼谷 97
束带 97
杠@@ 97
板式 97
栗 97
毛领 97
水上 97
汽机 97
沃@@ 97
法器 97
洗衣 97
洛克 97
深度 97
添 97
温度计 97
熨烫 97
牵 97
研究 97
筱@@ 97
绵羊 97
编@@ 97
翻译 97
耐穿 97
肩@@ 97
胖@@ 97
致@@ 97
艺品 97
菌@@ 97
螺@@ 97
触感 97
赏@@ 97
起来 97
跟@@ 97
跳台 97
车模 97
这样 97
逍遥 97
避光 97
雪靴 97
雾@@ 97
香料 97
马戏团 97
魔王 97
龟@@ 97
(特价 96
1s 96
203 96
410 96
ami@@ 96
amy 96
ang 96
ax 96
cdg 96
cn@@ 96
cream 96
hb@@ 96
hu 96
iris 96
kh@@ 96
ky@@ 96
lenovo 96
out 96
play@@ 96
po 96
series 96
sneaker 96
tra@@ 96
trainer 96
v/@@ 96
zu@@ 96
☆nike 96
倩 96
勤 96
单孔 96
喇叭裤 96
坐椅 96
坚 96
大力 96
套套 96
套组 96
小香 96
尚@@ 96
屁衣@@ 96
张) 96
情趣@@ 96
手作@@ 96
打印 96
支) 96
放松 96
日语 96
朋克 96
格丽 96
步机 96
死@@ 96
毅 96
浴帘 96
清洁器 96
清香 96
滋 96
滑步 96
牙签 96
琴@@ 96
留@@ 96
留言板 96
矫正器 96
碳粉匣 96
程@@ 96
穿戴 96
站@@ 96
系小 96
美体 96
舰队 96
裙裤 96
覆盖 96
许@@ 96
谁 96
输 96
远@@ 96
邪 96
长巾 96
间@@ 96
风镜 96
香膏 96
髪@@ 96
黛@@ 96
(5@@ 95
(m) 95
(s) 95
131 95
1kg 95
2010 95
2019@@ 95
530@@ 95
5l 95
]: 95
cas@@ 95
che@@ 95
christian 95
diy@@ 95
dr 95
kai@@ 95
kiehl's 95
ling 95
rav4 95
ren@@ 95
s3 95
sf 95
sk 95
taiwan 95
touch 95
亭 95
写@@ 95
凉垫 95
卡车 95
名款 95
土豆 95
够 95
大厅 95
太太 95
婴幼 95
宗 95
寺 95
心理学 95
意威 95
懂 95
戒子 95
战国 95
技@@ 95
探@@ 95
文件夹 95
机) 95
束腰 95
柑橘 95
样@@ 95
沃 95
泡菜 95
消防 95
满满 95
炭 95
确认 95
竹编 95
胸花 95
蛮 95
褶 95
记@@ 95
项链@@ 95
高阶 95
鼓@@ 95
(黑色 94
-9@@ 94
-s@@ 94
1g 94
20吋 94
230@@ 94
370@@ 94
5吋 94
6s/@@ 94
:@@ 94
camry 94
com@@ 94
der 94
des 94
dw@@ 94
head 94
jack 94
miumiu 94
mn@@ 94
moon 94
pam@@ 94
ph 94
playboy 94
r.@@ 94
select 94
show 94
toshiba 94
xr1 94
► 94
仙子 94
伍 94
储水 94
克星 94
免@@ 94
公寓 94
兴@@ 94
出货@@ 94
别@@ 94
刻版 94
午餐 94
卡带 94
可口可乐 94
吊挂 94
后座 94
嘉班纳 94
地漏 94
垂钓 94
域 94
天蓝 94
头带 94
妙@@ 94
宅@@ 94
宗@@ 94
寒 94
屈 94
广@@ 94
投资 94
揹巾 94
无人机 94
日用品 94
桌球 94
棉花 94
水笔 94
泳帽 94
洗脚 94
濑@@ 94
烘干 94
玛丽 94
珠珠 94
甲虫 94
电锯 94
皮箱 94
窗纱 94
签字笔 94
紧@@ 94
缝纫机 94
罗纹 94
葡萄酒 94
蒸@@ 94
蚊香 94
蛇头 94
蜂 94
蟹@@ 94
行者 94
西裤 94
触@@ 94
超级英雄 94
车轮 94
遗@@ 94
锁@@ 94
锐步 94
韩流 94
飞翔 94
(50 93
(h@@ 93
(t@@ 93
-a@@ 93
-h@@ 93
1/6 93
1000@@ 93
121 93
122 93
15/@@ 93
430 93
60g 93
9.7 93
9月 93
ali@@ 93
basic 93
chen@@ 93
fe 93
hi-@@ 93
ir@@ 93
jr 93
lovelive 93
sugar 93
tm@@ 93
too 93
vit@@ 93
zen@@ 93
カ@@ 93
凹凸 93
医用 93
发簪 93
吋/@@ 93
喜庆 93
坊@@ 93
坦克 93
头绳 93
宫@@ 93
小米@@ 93
工坊 93
年货 93
底盘 93
手霜 93
扩音器 93
搞笑 93
新型 93
景德镇 93
栏杆 93
洲 93
涡轮 93
潜航 93
火辣 93
烟斗 93
猿人 93
理疗 93
直立 93
磨牙 93
窝@@ 93
粉彩 93
粘@@ 93
线圈 93
背面 93
脚凳 93
脚趾 93
腊 93
芭蕾 93
草机 93
袋鼠 93
费雪 93
运动表 93
进阶 93
造形 93
酸奶 93
鱿鱼 93
麻布 93
(6@@ 92
(粉 92
-6 92
169 92
35-39 92
599 92
603 92
adi@@ 92
bal@@ 92
basket 92
birkin 92
con 92
df@@ 92
earth 92
lunar 92
rc@@ 92
sisley 92
sto@@ 92
um 92
we 92
介 92
传动 92
伪 92
伯爵 92
但 92
全新@@ 92
兽@@ 92
凤@@ 92
包保 92
午后 92
卷发器 92
古巴 92
备@@ 92
夏新 92
大家 92
层板 92
工房 92
广告牌 92
开拓者 92
怪@@ 92
怪物 92
搁板 92
摔壳 92
放置 92
教练 92
无声 92
时尚@@ 92
杀) 92
校服 92
正式 92
波希米亚 92
浪@@ 92
演奏 92
照相机 92
燕窝 92
狗狗 92
玉髓 92
瑕膏 92
电焊 92
码数 92
积 92
章@@ 92
缺货 92
脖围 92
落地镜 92
葱@@ 92
路易 92
辅助器 92
辐射 92
除螨 92
饮品 92
骨头 92
1300 91
2015年 91
214@@ 91
28cm 91
5mm 91
8cm 91
a30 91
adidas/ 91
a字裙 91
dxf 91
hc@@ 91
house@@ 91
hyper@@ 91
ld 91
m-xxl码 91
m1 91
mm*@@ 91
mon 91
open 91
ox 91
power@@ 91
rt@@ 91
sharp 91
squishy 91
t3／ 91
turbo 91
wellington 91
woven 91
xdr 91
zero@@ 91
zip 91
イ@@ 91
专科 91
丹麦 91
乌克丽丽 91
乐团 91
书局 91
人工 91
佳丽 91
值得 91
压克力 91
咖啡店 91
器具 91
姿@@ 91
室@@ 91
小品 91
屁屁 91
年代 91
度@@ 91
延@@ 91
挂帘 91
敲 91
新鲜货 91
毛毛虫 91
浮标 91
湿@@ 91
灶台 91
焦点 91
爷 91
狂@@ 91
缘子 91
老鹰 91
耗材 91
胃 91
花圈 91
若@@ 91
蓁 91
言情小说 91
距 91
部分 91
靶 91
预售 91
风尚 91
食指 91
饱 91
黑暗 91
() 90
(约 90
*10 90
-40 90
-t@@ 90
/3 90
10mm 90
152 90
305 90
420 90
880@@ 90
apple@@ 90
dz@@ 90
mama 90
n\n 90
sha@@ 90
sup 90
ugg 90
wd@@ 90
中秋 90
买卖 90
做工 90
光盘 90
卡钳 90
告白 90
嘟嘟 90
器) 90
垢 90
基地 90
妳 90
娱乐 90
宝缇 90
宽裤 90
小学 90
小金 90
应@@ 90
拆装 90
按摩@@ 90
散@@ 90
春日 90
显@@ 90
机动 90
栖 90
毫升 90
汤勺 90
油污 90
源@@ 90
漆@@ 90
演@@ 90
点烟器 90
焊接 90
玻璃门 90
琪琪 90
瓜@@ 90
画框 90
疏通 90
痘印 90
砂@@ 90
穗 90
究 90
粉碎机 90
肥皂盒 90
范@@ 90
营业 90
袖子 90
铝框 90
露脐 90
颜@@ 90
#-no.t1 89
#4@@ 89
(中) 89
-03 89
-p@@ 89
1.5@@ 89
137 89
2- 89
850 89
b. 89
bio@@ 89
dai@@ 89
df 89
english 89
junior 89
kk@@ 89
lisa 89
night 89
np-@@ 89
soft 89
soul 89
subaru 89
t短t 89
vc 89
vita 89
wl@@ 89
wn@@ 89
为止 89
分子 89
动感 89
半截 89
单手 89
卢 89
厚实 89
口腔 89
和风 89
喜宴 89
喜帖 89
国产 89
圣经 89
坐@@ 89
声音 89
如约 89
弟 89
把@@ 89
拆) 89
拟 89
斜@@ 89
无损 89
显白 89
普普 89
杆@@ 89
核@@ 89
棘轮 89
江@@ 89
汪汪 89
海尔 89
淘宝 89
渗透 89
火箭 89
炒菜 89
热售 89
瓷器 89
盘香 89
簿 89
素食 89
结构 89
绞肉机 89
罪 89
背光 89
航拍 89
英文版 89
蒂芙尼 89
蓉 89
蔡依林 89
被单 89
译 89
贴耳 89
迪士尼乐园 89
通道 89
釉@@ 89
金钢 89
针织@@ 89
锥 89
镜架 89
防腐 89
雷神 89
饭团 89
鲁夫@@ 89
鲜花 89
&no.t1 88
(l) 88
/2 88
210@@ 88
213@@ 88
270@@ 88
3ds 88
3mm 88
all@@ 88
are 88
a款 88
candy 88
chan@@ 88
e27 88
eh@@ 88
falcon 88
fujifilm 88
g家 88
ken@@ 88
king@@ 88
lancome兰蔻 88
leboy 88
m6 88
mc 88
mina 88
nmd_r1 88
ol@@ 88
oo 88
qq@@ 88
s9@@ 88
slide 88
wild 88
xa 88
不倒翁 88
内衣裤 88
列印 88
势 88
卡夹 88
卡拉 88
双排 88
吊顶 88
哑 88
善@@ 88
国王 88
地垫 88
堤 88
大礼包 88
婴 88
幻影 88
开岔 88
往 88
操 88
改造 88
效能 88
施华 88
晾晒 88
朝@@ 88
村@@ 88
查 88
样式 88
水平仪 88
波兰 88
滴@@ 88
画架 88
磁石 88
票@@ 88
秋衣 88
立牌 88
竹子 88
经络 88
背心@@ 88
背部 88
脉 88
脚蹬 88
蜥蜴 88
表皮 88
覆 88
话@@ 88
谭 88
超重 88
车业 88
钛合金 88
钳子 88
锥@@ 88
降@@ 88
雀 88
雪人 88
魅惑 88
#免 87
/1 87
1600 87
36mm 87
50-@@ 87
801 87
844@@ 87
917@@ 87
fila斐 87
flex 87
flight 87
gar@@ 87
gm@@ 87
i6s 87
io@@ 87
ios 87
jordan@@ 87
key 87
montblanc万 87
om 87
ori@@ 87
p.@@ 87
polo衫@@ 87
race 87
size@@ 87
三轮 87
业@@ 87
主管 87
乐天 87
伤@@ 87
俏丽 87
关公 87
关键 87
卫@@ 87
可调整 87
可选) 87
吃@@ 87
启@@ 87
啾啾 87
坛 87
奇幻 87
寒@@ 87
小桌 87
小百货 87
川久保玲 87
帝国 87
弧形 87
影像 87
手幅 87
振 87
揉 87
效期 87
救@@ 87
晶晶 87
柴@@ 87
样板 87
梯形 87
橡皮筋 87
橱 87
海蓝 87
点烟 87
璇 87
瓷碗 87
用带 87
皮靴 87
管家 87
紧身衣 87
胜利 87
语言 87
调教 87
豆沙 87
身高 87
输入 87
运动型 87
铁制 87
鞋#@@ 87
颗) 87
飞轮 87
高山 87
鼠@@ 87
ｍ@@ 87
#爆款 86
(k@@ 86
(保留) 86
(白色) 86
----@@ 86
1/2@@ 86
124 86
161 86
2b 86
302 86
316l 86
325 86
502 86
901 86
american 86
cam@@ 86
don@@ 86
ele@@ 86
em 86
fre@@ 86
hydro 86
j7@@ 86
look 86
note4 86
nova@@ 86
pad 86
pocket 86
pri@@ 86
rihanna 86
rm 86
tp@@ 86
wood 86
x9 86
♪@@ 86
と@@ 86
ラ@@ 86
东芝 86
会计学 86
发油 86
古铜色 86
吊绳 86
哈士奇 86
响@@ 86
固态 86
图鉴 86
填充 86
奶昔 86
孕 86
岸 86
帽檐 86
平台 86
床笠 86
序号 86
强磁 86
徽 86
态 86
打蛋器 86
折屏 86
摘 86
收口 86
枝@@ 86
柜边 86
柱@@ 86
树枝 86
棋盘 86
水族箱 86
水蜜桃 86
海底 86
淡水 86
爱迪生 86
现在 86
生长 86
礼帽 86
简体 86
粉丝 86
级@@ 86
纪念@@ 86
绣@@ 86
绿水 86
罐) 86
胡须 86
芳@@ 86
苑 86
菩萨 86
装小 86
议价) 86
评@@ 86
贝尔 86
费@@ 86
赛斯@@ 86
足部 86
蹲 86
车库 86
铃@@ 86
门票 86
阅 86
阶@@ 86
难 86
霞 86
鸡翅 86
鼠标垫 86
(8@@ 85
(女) 85
(黄 85
127 85
129 85
133 85
1800 85
18650 85
20-@@ 85
2月 85
4000 85
6.0 85
680@@ 85
and@@ 85
apm 85
art@@ 85
bonbon 85
cle@@ 85
edp 85
eslite 85
fa 85
google 85
i11 85
jd@@ 85
moncler 85
mp 85
natural 85
nylon 85
otg 85
w) 85
x9@@ 85
ysl包包 85
ル@@ 85
一卡通 85
云端 85
人员 85
便盆 85
倩碧 85
出行 85
制冰 85
刺客 85
印表机 85
卷纸 85
圆弧 85
复活节 85
孝 85
宗教 85
对开 85
推拉门 85
擦@@ 85
故 85
朵朵 85
枫叶 85
梨子 85
植萃 85
气氛 85
水柜 85
洋装@@ 85
爬@@ 85
片式 85
猫爪 85
珍藏版 85
病@@ 85
皮卡 85
盖板 85
短上衣 85
程式 85
粉刷 85
系列@@ 85
罗宾 85
肯@@ 85
胆 85
脚链 85
腹带 85
花样 85
苍@@ 85
英式 85
茶花 85
草写 85
薇@@ 85
虹 85
见@@ 85
货铺 85
贵@@ 85
适@@ 85
阻@@ 85
陆@@ 85
限时.特价 85
非洲 85
预约 85
食器 85
鸭嘴 85
(红 84
1-4 84
12mm 84
2.7 84
2000@@ 84
235 84
2ml 84
40g 84
528@@ 84
6cm 84
a2 84
bp@@ 84
cx@@ 84
cy 84
der@@ 84
f.@@ 84
fm@@ 84
g. 84
hardy 84
kiehl's契尔氏 84
koso 84
lily 84
lp 84
m0@@ 84
ob@@ 84
ot@@ 84
pd@@ 84
pm2.5 84
tiffany& 84
tree 84
z1 84
ㄧ 84
一定 84
与@@ 84
亮眼 84
仔店 84
任何 84
佑@@ 84
保健品 84
划@@ 84
勾勾 84
卫星 84
厚度 84
古筝 84
只为 84
听@@ 84
呵护 84
外观 84
好评 84
婚宴 84
婴@@ 84
孔@@ 84
寄送 84
帘布 84
幼犬 84
底板 84
心理 84
扇形 84
拐杖 84
控@@ 84
教程 84
栓 84
桂花 84
榉木 84
止@@ 84
段式 84
汪 84
洋芋 84
牛油 84
狐@@ 84
粉橘 84
统@@ 84
耶诞节 84
肤乳 84
蒸锅 84
蜂窝 84
蜜糖 84
赠@@ 84
起泡 84
跃 84
车儿 84
选物 84
造@@ 84
针管 84
钛晶 84
钢制 84
铁人 84
雾化 84
音效 84
(20 83
(60 83
(原价 83
(请 83
(高 83
-l@@ 83
154 83
2017@@ 83
204 83
25/@@ 83
25g 83
2mm 83
315@@ 83
40-@@ 83
405 83
44mm 83
526@@ 83
680 83
699 83
819@@ 83
apieu 83
ar24@@ 83
fv@@ 83
ga-100 83
issey 83
ker@@ 83
m5 83
make 83
psv 83
sam@@ 83
t/ 83
ten 83
√ 83
上网 83
不凋花 83
丛林 83
临时 83
乌龙 83
低温 83
关于 83
刺@@ 83
十二生肖 83
原理 83
发现 83
向@@ 83
吴@@ 83
品の 83
品家 83
哲 83
喔) 83
夜市 83
夹) 83
学t 83
安德森 83
定价: 83
引 83
拱 83
提手 83
政 83
文豪 83
木腿 83
朱@@ 83
民俗 83
沙漠 83
泫雅 83
活肤 83
浓@@ 83
牛轧糖 83
物流 83
琳@@ 83
璐 83
甄 83
电暖器 83
电热水壶 83
男外套 83
盖) 83
矿@@ 83
稀@@ 83
筋膜 83
红猪 83
群@@ 83
翻转 83
臣 83
艳@@ 83
虚拟 83
贞 83
贵人 83
还有 83
驾 83
黑格 83
龙婆 83
"isbn: 82
(a@@ 82
..... 82
116@@ 82
153 82
15cm 82
188 82
2.5d 82
22cm 82
24-@@ 82
3-4 82
30*@@ 82
316@@ 82
510 82
6splus 82
8吋 82
android 82
ann 82
coco@@ 82
ez 82
g1 82
h.@@ 82
iphone7plus 82
irving 82
l'occitane 82
lc@@ 82
longines 82
over@@ 82
re-ment 82
sg@@ 82
store@@ 82
t5／ 82
vw 82
white@@ 82
z5 82
zb@@ 82
专案 82
书: 82
优生 82
兵@@ 82
内装 82
军刀 82
列@@ 82
卡/@@ 82
右@@ 82
吸血鬼 82
命@@ 82
嗨 82
圆饼 82
复习 82
如何 82
子实 82
守@@ 82
宝龙 82
屁@@ 82
惊@@ 82
打击 82
护耳 82
拌 82
捆绑 82
捷@@ 82
操作 82
救星 82
斗士 82
机顶盒 82
果树 82
柚木 82
沛纳海 82
没@@ 82
流星 82
润色 82
燃 82
真皮@@ 82
眼唇 82
砂纸 82
祖@@ 82
纪录器 82
绑@@ 82
缝纫 82
联合 82
自黏 82
臭@@ 82
花王 82
萃取 82
蝇 82
表壳 82
象@@ 82
货号: 82
起坐 82
踏板车 82
钢化膜 82
镇@@ 82
麦饭石 82
黑檀 82
(s@@ 81
.3 81
/adidas 81
050@@ 81
1/100 81
1/64 81
15g 81
35-44 81
420@@ 81
7/8plus 81
997 81
baseus 81
bm@@ 81
color@@ 81
dji 81
ia 81
jdi 81
jy@@ 81
kan@@ 81
miyake 81
oil 81
oppor@@ 81
p1 81
pen@@ 81
q10 81
real 81
rog 81
t4／ 81
toy@@ 81
t短袖 81
か@@ 81
ハ@@ 81
三重 81
丽塔 81
众@@ 81
信箱 81
免运@@ 81
冲绳 81
出) 81
刊 81
动人 81
包/@@ 81
单一 81
叔叔 81
商行 81
啊 81
喝水 81
国内 81
士兵 81
奥地利 81
威力 81
婉 81
存@@ 81
小咪 81
布套 81
师傅 81
庙 81
延时 81
强度 81
彤 81
惊 81
戳 81
技嘉 81
整人 81
斐乐 81
晏 81
木瓜 81
模仿 81
正品) 81
海螺 81
淋雨 81
热带 81
甘菊 81
皮纹 81
盾牌 81
硬盘 81
箭头 81
精粹 81
约@@ 81
纪录 81
线组 81
绞@@ 81
肤水 81
胀气 81
脱色 81
腿部 81
芝 81
荒野 81
莉玫 81
装置 81
豆浆机 81
赔本 81
踝靴 81
避邪 81
酒壶 81
酱料 81
金冠 81
铁三角 81
魔道 81
鱼鳞 81
齐@@ 81
1.4 80
20mm 80
20ss 80
212 80
314@@ 80
4l 80
4mm 80
580@@ 80
610 80
90-@@ 80
air2 80
aq 80
avent 80
bee 80
belt 80
bf@@ 80
dk@@ 80
ers 80
far@@ 80
gc@@ 80
h0@@ 80
ink 80
jd 80
kb@@ 80
lala 80
lbj 80
lit@@ 80
m10 80
n.@@ 80
order 80
ou@@ 80
poli 80
rr 80
ry 80
wings 80
wr@@ 80
ws 80
z3 80
°@@ 80
ღ 80
三通 80
主打 80
事务 80
京都 80
侦探 80
保障 80
信号 80
修剪 80
兵器 80
冲泡 80
副乳 80
劲@@ 80
发射器 80
发酵 80
君@@ 80
地瓜 80
屎 80
工业级 80
弓形 80
怡@@ 80
恤 80
按摩棒 80
收集 80
教益 80
新郎 80
无盖 80
本命年 80
水墨 80
水溶性 80
汁@@ 80
沙发巾 80
深色 80
混@@ 80
点数 80
烘 80
焕@@ 80
燕@@ 80
球裤 80
瘦小 80
盗 80
眉毛 80
矿石 80
码) 80
福音 80
红花 80
绘图 80
肌粹 80
脖 80
腿@@ 80
臭氧 80
茂 80
茹 80
荷@@ 80
觉醒 80
试衣间 80
询价 80
谢@@ 80
跨年 80
车厢 80
远投 80
钢板 80
门铃 80
防护栏 80
霖 80
骚@@ 80
高音 80
-12 79
0.9 79
126@@ 79
171 79
1m 79
206 79
23.5 79
235@@ 79
2xl 79
3/ 79
325@@ 79
38-45 79
678 79
717@@ 79
850@@ 79
950 79
ar5@@ 79
card 79
chu 79
easy 79
ef 79
eos 79
girl@@ 79
good@@ 79
got7 79
jm 79
light@@ 79
lock 79
ls@@ 79
lux 79
mam@@ 79
n6@@ 79
nm 79
od@@ 79
oem 79
pk@@ 79
the@@ 79
un 79
w.@@ 79
zz 79
丝棉 79
书橱 79
休闲服 79
先锋 79
入/@@ 79
凡@@ 79
凸@@ 79
包装) 79
压壳 79
古代 79
地面 79
壁@@ 79
壮 79
夜场 79
天地 79
天气 79
小可 79
小樱 79
御@@ 79
抚 79
文玩 79
旺旺 79
明子 79
椒 79
溅 79
滑液 79
灯架 79
烫@@ 79
爆炸 79
玉镯 79
环境 79
生理 79
电冰箱 79
疏油 79
瘾 79
白钢 79
睡裤 79
破损 79
碱 79
秋天 79
童女 79
箱) 79
胜@@ 79
膝上 79
艺术品 79
花蕾 79
芳香剂 79
虾米 79
裤) 79
资@@ 79
轮毂 79
退@@ 79
限定@@ 79
集线器 79
音乐@@ 79
飞碟 79
马来西亚 79
鸟巢 79
鼻子 79
龙泉 79
(只 78
(赠 78
**@@ 78
10g 78
12月 78
144 78
146 78
14cm 78
198 78
20年 78
2色 78
35-@@ 78
6/6s 78
9789864@@ 78
bar 78
bigbang 78
bikini 78
bon 78
brother 78
canmake 78
cap@@ 78
dr.wu 78
dvd) 78
elle 78
g0@@ 78
k1 78
kolin 78
lan@@ 78
like 78
long 78
lt 78
mil@@ 78
p20 78
rv 78
sel@@ 78
sky@@ 78
tl@@ 78
vi 78
walk 78
works 78
xz 78
╭@@ 78
乔迁 78
二用 78
二色 78
做饭 78
停 78
初中生 78
压机 78
参@@ 78
名产 78
吨 78
嚼 78
坠@@ 78
坡 78
堵 78
妖 78
嫩@@ 78
封闭 78
小包 78
开孔 78
感谢 78
扭蛋 78
抓绒 78
拔@@ 78
捏捏 78
搁 78
故障 78
晒@@ 78
朵@@ 78
桥@@ 78
棍@@ 78
植绒 78
欲 78
毛发 78
油箱盖 78
泰迪 78
泼 78
浇花 78
灰尘 78
热卖@@ 78
爬爬 78
爱美 78
爵 78
电棒 78
租 78
线衣 78
练功 78
网袋 78
美观 78
花布 78
苦@@ 78
苹果x 78
蓝蓝 78
螨虫 78
裙装 78
裤衩 78
裱 78
足银 78
车窗 78
辛巴 78
辟邪 78
迷你型 78
邮局 78
银灰 78
银耳 78
闵 78
陀 78
陪护 78
集合 78
香气 78
高倍 78
鹰@@ 78
"adidas 77
107@@ 77
115@@ 77
166 77
23cm 77
3l 77
3t 77
404 77
4t 77
carbon 77
crew 77
cv@@ 77
den 77
dn@@ 77
eu@@ 77
first 77
flower 77
fresh 77
hademu 77
idolish7 77
jin 77
john 77
note9 77
pa+++ 77
project 77
red@@ 77
rose@@ 77
seed 77
ste@@ 77
sv@@ 77
ton@@ 77
uemura 77
vivi@@ 77
wireless 77
♛ 77
✧@@ 77
し@@ 77
キ@@ 77
コ@@ 77
亚曼尼 77
会计 77
六月 77
医院 77
协@@ 77
原价$@@ 77
后跟 77
咖啡馆 77
喉 77
噗@@ 77
固定器 77
圣物 77
墙体 77
妈@@ 77
妹@@ 77
小小@@ 77
小床 77
小资 77
岛@@ 77
市区 77
招@@ 77
招牌 77
捷克 77
摔@@ 77
日志 77
日本语 77
映 77
来袭 77
毒@@ 77
民国 77
池@@ 77
洽询 77
清晰 77
灰) 77
牛筋 77
玻@@ 77
电流 77
画集 77
磨砂皮 77
票夹 77
绒卫衣 77
绒毯 77
老佛爷 77
膝 77
自学 77
自来水 77
萌@@ 77
落地扇 77
蒂芬妮 77
行李袋 77
读书 77
轻跑 77
选购 77
钢木 77
钨钢 77
键@@ 77
防水表 77
阿迪 77
隔@@ 77
鱼子 77
黑人 77
黑子 77
(多 76
(路易威登) 76
(金 76
1.8@@ 76
105@@ 76
1400 76
14k 76
156 76
185 76
2016@@ 76
3500 76
403 76
6000 76
6m 76
a73 76
ah 76
aw 76
bh@@ 76
cb 76
cm*@@ 76
crocs 76
d&g 76
dl@@ 76
garmin 76
gr 76
hid 76
id@@ 76
jh@@ 76
ju 76
m-4xl 76
max/@@ 76
miss@@ 76
muse 76
nine 76
nt 76
o-@@ 76
pt 76
pw@@ 76
rac@@ 76
republic 76
sea 76
silver 76
ster 76
tai@@ 76
tc@@ 76
typec 76
victoria's 76
wallet 76
〃 76
丝边 76
五行 76
仪@@ 76
伶 76
佛堂 76
便签 76
偏@@ 76
军靴 76
刷白 76
剪发 76
十月 76
半盔 76
单杠 76
味道 76
图) 76
大黄蜂 76
妖精 76
小舖"@@ 76
尿@@ 76
布帘 76
帕 76
彰化 76
影印 76
情绪 76
手工@@ 76
扫把 76
拉伸 76
推拿 76
收藏品 76
日记本 76
时空 76
晚@@ 76
栽 76
桔@@ 76
求@@ 76
洗碗池 76
活塞 76
海藻 76
消毒器 76
淇 76
熬 76
版大 76
物盒 76
玻璃罩 76
疏水 76
百元 76
百褶 76
砂锅 76
空中 76
糖果盒 76
红外 76
结缘 76
股东会 76
腰围 76
艾斯@@ 76
英吋 76
菩提 76
葡 76
蒜 76
表白 76
衫m-3xl 76
装水 76
规@@ 76
讲@@ 76
货款 76
迪奥 76
邓 76
醋 76
音波 76
高亮 76
黏贴 76
/6 75
11.@@ 75
2way 75
40-4@@ 75
60-@@ 75
80-@@ 75
bas@@ 75
bs@@ 75
cos@@ 75
dk 75
essence 75
golden 75
im@@ 75
jogger 75
kai 75
kevin 75
lx@@ 75
mamaway 75
nk 75
ring 75
special 75
tfboys 75
tokyo 75
u-@@ 75
vc@@ 75
vii 75
vs@@ 75
wy 75
ze 75
中老年人 75
今年 75
住宿 75
佬 75
僵尸 75
克罗心 75
凡赛斯 75
刮刀 75
券@@ 75
包被 75
包退 75
半帘 75
卖) 75
卡通@@ 75
双层床 75
双边 75
发票) 75
声道 75
外墙 75
外带 75
实验室 75
小布 75
带头 75
弹弓 75
我& 75
截 75
手书) 75
打气筒 75
振兴 75
推理 75
施@@ 75
昕 75
显瘦 75
木门 75
柒@@ 75
桶装 75
梦梦 75
楼@@ 75
氏@@ 75
氟 75
水果刀 75
治@@ 75
注音 75
洽 75
浓香 75
深灰色 75
混纺 75
清风 75
滑行 75
滚@@ 75
灸@@ 75
燃脂 75
特典 75
特效 75
电信 75
电饭煲 75
知道 75
糕点 75
绘@@ 75
翁 75
聚合物 75
葳 75
蓝莓 75
衣帽间 75
观@@ 75
蹦迪 75
蹭 75
速食 75
铃木 75
铆 75
门牌 75
雄狮 75
雨披 75
雷根 75
靓 75
饰品@@ 75
马蹄 75
鲫鱼 75
麝香 75
(红) 74
1. 74
12.5 74
15) 74
18v 74
2.4g 74
2014年 74
30-@@ 74
400g 74
61@@ 74
704 74
805 74
bwsr 74
d3@@ 74
dog 74
hs 74
i5-@@ 74
ji 74
lp@@ 74
mio 74
music 74
o.@@ 74
psp 74
sen@@ 74
um@@ 74
urban 74
v8 74
♪ 74
一流 74
不晕 74
中央 74
乐高 74
书写 74
今天 74
佑 74
你@@ 74
储蓄罐 74
八音盒 74
典@@ 74
准@@ 74
划算 74
割破 74
卷轴 74
变色龙 74
咸蛋 74
啰 74
喷壶 74
四脚 74
奶锅 74
小腿 74
尤@@ 74
尽 74
思考 74
慢@@ 74
扇@@ 74
扎@@ 74
护身符 74
挂牌 74
排气 74
文法 74
无极 74
旺@@ 74
明治 74
果实 74
桶@@ 74
橙色 74
比亚 74
氛围 74
水星 74
求生 74
漏斗 74
烟熏 74
热水瓶 74
珍珠@@ 74
电灯 74
电熨斗 74
画眉 74
痘痘 74
笠@@ 74
糖糖 74
绗缝 74
编着 74
罐子 74
腹肌 74
自动伞 74
舖☆ 74
薄棉 74
蜻蜓 74
血压 74
裸靴 74
评 74
资源 74
车壳 74
车顶 74
辞典 74
迎@@ 74
遮脸 74
铝制 74
防止 74
防磨 74
霸@@ 74
高田 74
黑豆 74
＃ 74
#6@@ 73
(古 73
(正 73
(限时 73
0.3 73
138 73
181 73
2.2 73
^^ 73
ate 73
aux 73
a级 73
bosch 73
creuset 73
duo 73
furylite 73
gn@@ 73
jump 73
keyway 73
lu 73
model 73
n4@@ 73
oc@@ 73
perfect 73
pigeon 73
polo@@ 73
ser@@ 73
sin@@ 73
ski@@ 73
stone 73
swift 73
tod's 73
tro@@ 73
wei@@ 73
y) 73
ク@@ 73
ル 73
三世 73
专用@@ 73
乌龙茶 73
亮丽 73
会所 73
佩戴 73
保管 73
保鲜膜 73
免运# 73
凝@@ 73
击@@ 73
初级 73
半价 73
华伦天奴 73
单板 73
吸吮 73
和服 73
垃圾筒 73
复制 73
头像 73
姑娘 73
宝适 73
害 73
寝具 73
将军 73
小猪 73
床尾 73
床架 73
开封 73
所有 73
手) 73
技巧 73
指南 73
掌上 73
揹@@ 73
斩 73
方法 73
旱冰鞋 73
杠 73
柯@@ 73
梅子 73
欢@@ 73
正义 73
毒液 73
水电 73
沙拉 73
沙拉碗 73
烤架 73
猫耳 73
瑄 73
瓶子 73
瓷盘 73
白发 73
皮夹@@ 73
真的 73
碳粉 73
绸缎 73
缠绕 73
网吧 73
羽毛球拍 73
花莲 73
蓝绿色 73
蚊子 73
蜜饯 73
蟑螂 73
记事 73
路灯 73
迪卡侬 73
逗猫 73
门槛 73
闷烧 73
阴茎 73
面碗 73
餐券 73
鸣@@ 73
｛@@ 73
(预 72
/4 72
1-4@@ 72
1050 72
139 72
151 72
164 72
186 72
225 72
25cm 72
39-44 72
3吋 72
480@@ 72
4a 72
50mm 72
51@@ 72
5m 72
604 72
8000 72
810 72
a50 72
aqua 72
brand 72
canvas 72
co. 72
d) 72
dm 72
dragon 72
hr@@ 72
hui 72
ino@@ 72
iphone6@@ 72
ita 72
jimmy 72
kobe@@ 72
lcd 72
mars 72
may 72
mega 72
roo@@ 72
sou@@ 72
sti@@ 72
sunny 72
sy 72
tc 72
team 72
v3 72
yang 72
き@@ 72
く@@ 72
ト 72
不要 72
串@@ 72
临摹 72
交流 72
全职 72
冻膜 72
则 72
动手 72
匙@@ 72
匠@@ 72
卖场@@ 72
发型师 72
垫被 72
大妈 72
孩@@ 72
家用电脑 72
小刀 72
异色 72
弯曲 72
录影 72
律 72
心动 72
愤怒 72
手珠 72
按扣 72
挖@@ 72
暴力 72
校@@ 72
检@@ 72
炉@@ 72
热卖# 72
版小 72
牙线 72
瓢 72
生锈 72
用品@@ 72
电波 72
皮绳 72
知识 72
算 72
粒@@ 72
精品@@ 72
紫砂壶 72
缓 72
罩@@ 72
聚@@ 72
胸口 72
腊@@ 72
视讯 72
设定 72
车头 72
转接器 72
近@@ 72
迹 72
金鱼 72
链式 72
锡@@ 72
镖@@ 72
长绒 72
防污 72
阶梯 72
雕@@ 72
骆 72
鹿角 72
黑框 72
1# 71
12) 71
135@@ 71
136 71
2011 71
2cm 71
312 71
3cm 71
5.1 71
504 71
555 71
6s@@ 71
8x 71
b5@@ 71
chanel/ 71
che 71
class 71
den@@ 71
eau 71
fenty 71
fit@@ 71
gentle 71
grand 71
gymboree 71
iphone7@@ 71
kar@@ 71
kinyo 71
lb 71
len@@ 71
makita 71
mate@@ 71
metis 71
ms-@@ 71
nd 71
ob 71
palace 71
pei 71
ppsu 71
pretty 71
puzzle 71
r3 71
ras@@ 71
room 71
saber 71
street 71
t6／ 71
t9／ 71
tor@@ 71
tsu@@ 71
t恤衫 71
uni 71
vn@@ 71
wu@@ 71
xz@@ 71
ytl 71
╭＊ 71
◤@@ 71
中老年 71
九折 71
于@@ 71
光圈 71
光纤 71
全景 71
农村 71
创见 71
剧@@ 71
加州 71
半自动 71
原文 71
叶黄素 71
吹风 71
哲@@ 71
唇膜 71
售楼 71
在@@ 71
块@@ 71
墙@@ 71
增加 71
大钞 71
宁@@ 71
容器 71
小方包 71
屏东 71
屑 71
康乃馨 71
微风 71
战场 71
扩大 71
护脊 71
抽真空 71
指套 71
换季 71
救 71
智旻 71
木桶 71
机台 71
板材 71
柚@@ 71
止汗 71
正反 71
玩乐 71
现货. 71
球杆 71
瑶瑶 71
电烤箱 71
电量 71
疗@@ 71
盅 71
盖毯 71
直销@@ 71
真实 71
砂轮 71
碰 71
礼袋 71
移动式 71
筛@@ 71
紧实 71
红心 71
缀 71
缘@@ 71
罗斯 71
肽@@ 71
脚踝 71
腮 71
自然@@ 71
芭比 71
茶器 71
蒲团 71
行军床 71
讯号 71
贴纸@@ 71
超弹性 71
达摩 71
郁 71
钱包@@ 71
锌 71
闲 71
难@@ 71
雀巢 71
颜色: 71
饵 71
饼@@ 71
香辣 71
马克杯 71
骏 71
鱼油 71
-011 70
-05 70
/a@@ 70
1-001 70
1.3 70
13.3 70
1b 70
2007 70
222 70
327 70
45mm 70
540@@ 70
6.1 70
6a 70
708 70
911 70
9mm 70
a70 70
ada 70
ari@@ 70
ax7 70
blue@@ 70
cg 70
cs-@@ 70
dior@@ 70
es-@@ 70
eyes 70
fin@@ 70
girls 70
glow 70
gtx 70
gw@@ 70
iphone7/@@ 70
key@@ 70
mm/ 70
montblanc 70
n9@@ 70
nana 70
oh 70
olympus 70
se2 70
sol 70
t7／ 70
thrasher 70
vios 70
y6@@ 70
yes 70
zr@@ 70
♚@@ 70
あ@@ 70
な@@ 70
三阳 70
上身 70
不补 70
世界杯 70
乱@@ 70
亨 70
人机 70
倒挂 70
光) 70
六甲 70
内径 70
冰晶 70
冰袋 70
加深 70
原子 70
商铺 70
嘉义 70
垫高 70
她 70
安妮 70
定价 70
实拍) 70
导入 70
巷 70
带扣 70
席梦思 70
年度 70
庄园 70
延 70
彦 70
志龙 70
念珠 70
戒@@ 70
拉链@@ 70
拜@@ 70
捷运 70
提醒 70
星期 70
暴 70
期@@ 70
木材 70
概要 70
水帘 70
汗@@ 70
滋@@ 70
滤纸 70
炖@@ 70
烟器 70
热水袋 70
犬猫 70
状况 70
玩水 70
玳瑁 70
痘 70
短外套 70
研究所 70
纱帘 70
艾伦 70
芙蓉 70
芬迪 70
芮@@ 70
蔓@@ 70
蛋蛋 70
订下 70
请@@ 70
走失 70
跆拳道 70
距离 70
迷宫 70
遮@@ 70
金卡 70
镯 70
随机) 70
面粉 70
飞鼠 70
馨@@ 70
". 69
#超 69
(7 69
*3 69
-5 69
-d@@ 69
.4 69
1/4 69
120cm 69
132 69
205@@ 69
208 69
236 69
2t 69
323 69
366@@ 69
40*@@ 69
606 69
6l 69
7.1 69
7/8 69
703 69
7ml 69
950@@ 69
990@@ 69
a&@@ 69
a+ 69
bio 69
b款 69
c200 69
charms 69
cm/ 69
cre@@ 69
eq@@ 69
han 69
ino 69
joe 69
lr@@ 69
m&@@ 69
m4 69
mor@@ 69
nex 69
o型 69
pants 69
queen@@ 69
rayban 69
rx 69
sat@@ 69
smile 69
sports 69
uv@@ 69
vin@@ 69
win 69
xc@@ 69
zc@@ 69
☆╮ 69
之恋 69
产妇 69
亮光 69
以下 69
佩佩 69
克斯@@ 69
内搭 69
创新 69
包金 69
单耳 69
发货) 69
味) 69
咨询 69
唇蜜 69
噪@@ 69
回力 69
圆柱 69
地摊 69
处@@ 69
套子 69
奢侈 69
寝 69
小兔子 69
巴洛克 69
平头 69
建议 69
忠@@ 69
思思 69
扩展 69
拜 69
捕鱼 69
揹包 69
改变 69
旗@@ 69
无色 69
晗 69
曦 69
杂志架 69
条码 69
桌巾 69
棉线 69
欲望 69
沙金 69
油压 69
注水 69
海星 69
润滑油 69
漏水 69
町 69
登场 69
百万 69
百科 69
睡美人 69
神偷 69
种籽 69
精巧 69
紫光 69
线) 69
胡椒 69
花梨木 69
花环 69
茶桶 69
菜篮 69
薛 69
西藏 69
要@@ 69
视窗 69
警车 69
贷 69
边角 69
释@@ 69
鉴 69
锥形 69
长直 69
阴道 69
音源 69
饭@@ 69
饭厅 69
鸽 69
齿器 69
(500 68
(e@@ 68
(l@@ 68
(双 68
-3 68
111008@@ 68
134 68
2003 68
2005 68
205 68
208@@ 68
35cm 68
4吋 68
620 68
745@@ 68
7a 68
8月 68
amo@@ 68
ar14@@ 68
bling 68
bor@@ 68
c300 68
camo 68
choo 68
dx@@ 68
ez@@ 68
fan 68
fear 68
garden 68
gra@@ 68
grace 68
i5@@ 68
ice@@ 68
ix@@ 68
lc 68
lego@@ 68
lei@@ 68
m3@@ 68
mj@@ 68
neverfull 68
note3 68
p10 68
pb 68
pm@@ 68
r9@@ 68
ram 68
rt 68
s. 68
s5 68
tv@@ 68
ultra@@ 68
una 68
vo 68
wal@@ 68
woo@@ 68
x/xs 68
xy 68
zebra 68
✧ 68
フ 68
三四 68
中小型 68
中药材 68
丰盈 68
乐家 68
五谷杂粮 68
介面 68
会社 68
低帮 68
像@@ 68
关系 68
冈山 68
冷光 68
单边 68
历@@ 68
吐 68
品汇 68
喷射 68
噜噜米 68
地理 68
外挂 68
大脚 68
天窗 68
头箍 68
奥利奥 68
女夏 68
妆前 68
妤 68
家居の 68
宽边 68
宾 68
寻@@ 68
山水画 68
平日 68
开式 68
当当 68
微距 68
恶@@ 68
我@@ 68
战车 68
手工制 68
打卡 68
拖布 68
拥有 68
指示牌 68
挽 68
播放机 68
斯特 68
显示卡 68
本色 68
杖 68
桌边 68
桩 68
植物@@ 68
死神 68
毡 68
油纸 68
澄@@ 68
灭@@ 68
煮壶 68
特种兵 68
猪年 68
理想 68
琪@@ 68
瓷@@ 68
短途 68
磨粉机 68
祛痘 68
精神 68
纯正 68
维纳斯 68
肝@@ 68
芝加哥 68
莱恩 68
葱 68
蕾@@ 68
补货 68
衫潮 68
训练器 68
贞@@ 68
货柜 68
趾 68
转转 68
轮滑 68
重生 68
铁板烧 68
铁锅 68
锅铲 68
雄@@ 68
露露 68
食谱 68
餐巾 68
鱼网 68
(粉) 67
++ 67
++@@ 67
-04 67
-4 67
-46 67
162 67
163 67
2013年 67
216@@ 67
2500 67
3.1 67
340@@ 67
365@@ 67
600g 67
605 67
bag@@ 67
boy@@ 67
c) 67
d2@@ 67
dress 67
dvz' 67
excel 67
exq 67
gabrielle 67
gi 67
hair 67
hifi 67
jj 67
kr@@ 67
lomo 67
lulu 67
note7 67
of@@ 67
phone@@ 67
pr 67
qc3.0 67
qi 67
rosherun 67
sim 67
snow 67
tan@@ 67
tennis 67
tws 67
v7 67
xa1 67
は@@ 67
ス 67
㊋@@ 67
七件 67
三角@@ 67
上下铺 67
主人 67
全盔 67
写作 67
初恋 67
包潮 67
医@@ 67
即@@ 67
县 67
合页 67
吸力 67
唇釉@@ 67
啦啦 67
地狱 67
大肠 67
奇奇蒂蒂@@ 67
娇@@ 67
字) 67
宜兴 67
小红帽 67
小铺@@ 67
嵌入式 67
帐号 67
平纹 67
平行 67
庆@@ 67
庭@@ 67
彩条 67
惑 67
所@@ 67
护肩 67
拆封) 67
拎包 67
招财进宝 67
摇床 67
敬 67
整体 67
晴天 67
杀│ 67
材@@ 67
束身 67
枫木 67
标识 67
桔梗 67
次@@ 67
比利时 67
水粉 67
洁面乳 67
火速 67
爬虫 67
瓢虫 67
盟 67
第七 67
签@@ 67
索隆 67
约定 67
统计学 67
美国制 67
老公 67
老婆 67
背板 67
脂肪 67
舖棉 67
花子 67
茶漏 67
葡萄@@ 67
蒜器 67
藕粉 67
藻@@ 67
裁@@ 67
西餐厅 67
试穿 67
辣味 67
达) 67
连接线 67
醇 67
镁@@ 67
闭 67
险 67
饮食 67
饰板 67
马桶盖 67
骰子 67
高中生 67
(15 66
(f@@ 66
(全@@ 66
(单@@ 66
(新货 66
(经典 66
1-3-6 66
142 66
2-3@@ 66
25*@@ 66
253 66
2k 66
345@@ 66
3色 66
5w 66
702 66
7cm 66
906 66
90g 66
a'pieu 66
a57 66
abercrombie 66
acs 66
cal@@ 66
coach/蔻 66
dan@@ 66
dear 66
dt@@ 66
edt 66
fu 66
fy@@ 66
fz@@ 66
gin@@ 66
hc 66
hub 66
ic@@ 66
il 66
iw@@ 66
joy@@ 66
kymco 66
l'@@ 66
metal 66
mp4 66
noki@@ 66
oh@@ 66
p/@@ 66
p0@@ 66
palette 66
pink@@ 66
powder 66
t8@@ 66
toreba 66
tre@@ 66
van@@ 66
yy@@ 66
专车 66
丝网 66
乐金 66
乳酸菌 66
人) 66
伯奇 66
依依 66
元祖 66
光滑 66
具) 66
冈 66
写生 66
凹@@ 66
制冰机 66
加油 66
匣@@ 66
占 66
只@@ 66
吟 66
呼 66
垫板 66
壁柜 66
女宝 66
宣纸 66
宾士@@ 66
希腊 66
慕@@ 66
懒得 66
扣手 66
抽抽 66
握力 66
搅 66
收据 66
效率 66
无痛 66
日夜 66
是否 66
柳@@ 66
柴油 66
正确 66
母亲 66
母女 66
毫米 66
水平 66
消毒柜 66
涉水 66
环形 66
环扣 66
监@@ 66
盘式 66
研@@ 66
祖师 66
空心 66
精雕 66
红格 66
细菌 66
绷 66
缎@@ 66
缝@@ 66
网球鞋 66
网红 66
翻页 66
育儿 66
脚踏板 66
腕表 66
色卡 66
芒@@ 66
茗@@ 66
萨尔 66
装饰柜 66
触媒 66
贝恩 66
超取 66
转蛋 66
软体 66
速干 66
遮盖 66
酷炫 66
金融 66
银白 66
银魂 66
长腿 66
防伪 66
防锈 66
集) 66
非本 66
领子 66
驰) 66
(完) 65
100/@@ 65
192 65
24.5 65
258@@ 65
2k@@ 65
6p 65
7g 65
__@@ 65
armani亚曼尼 65
a梦@@ 65
car 65
factory 65
fg 65
flo@@ 65
flux 65
food 65
fragment 65
future 65
gaming 65
gre@@ 65
hearts 65
hr 65
j0@@ 65
j2@@ 65
k0@@ 65
kanye 65
m8 65
mix@@ 65
ml+@@ 65
nx 65
nyx 65
plu@@ 65
s" 65
sanlux 65
sta@@ 65
stage 65
suv 65
sym 65
s~@@ 65
t+ 65
thunder 65
ww@@ 65
yaris 65
yonex 65
young 65
your 65
zi 65
★★@@ 65
さ@@ 65
イ 65
一箱 65
上手 65
不褪色 65
专营 65
仿@@ 65
企划 65
休@@ 65
佛经 65
傲 65
光电 65
八哥 65
冈@@ 65
切菜器 65
史迪奇@@ 65
喷墨 65
嘴@@ 65
国度 65
垂直 65
复方 65
好玩 65
家具@@ 65
寻宝 65
导轨 65
尼康 65
岁@@ 65
幕布 65
干贝 65
废@@ 65
恒@@ 65
折扇 65
护垫 65
护头 65
护肘 65
指甲刀 65
按钮 65
故事书 65
新奇 65
新生婴儿 65
新茶 65
无线电 65
晚霜 65
月) 65
期间 65
木器 65
木地板 65
木桌 65
桨 65
楔型 65
每个 65
油管 65
渔网 65
游戏@@ 65
湖@@ 65
漂@@ 65
漏@@ 65
爽@@ 65
狐仙 65
症 65
监听 65
盖巾 65
眼袋 65
着色 65
稳定器 65
童帽 65
笑@@ 65
笔袋 65
筒靴 65
篮@@ 65
红发 65
纹眉 65
缕空 65
胸部 65
艾玛@@ 65
药盒 65
菓 65
蒲公英 65
蔬@@ 65
蚁@@ 65
蚊虫 65
词 65
贡 65
贩卖 65
赚 65
软壳@@ 65
轻柔 65
辛普森 65
辣@@ 65
运动装 65
逗 65
避@@ 65
钩针 65
钰 65
钱币 65
铁丝 65
镀银 65
镜台 65
面交) 65
香肠 65
高脚杯 65
#创意 64
$100 64
&儿 64
(全场 64
(另 64
(颜色 64
(黑@@ 64
-25 64
-35 64
1-5 64
12m 64
157 64
178 64
1tb 64
246 64
25-@@ 64
3-4@@ 64
306 64
322 64
40/@@ 64
4cm 64
60*@@ 64
666 64
7000 64
a14@@ 64
ban 64
cherry 64
cross 64
c型 64
d/@@ 64
ex-@@ 64
fan@@ 64
fish 64
handle 64
hg@@ 64
kawasaki 64
lesportsac 64
mt-@@ 64
nx@@ 64
s6@@ 64
salvatore 64
sm-@@ 64
t5 64
t5@@ 64
t长 64
ux@@ 64
ver. 64
vt 64
wheels 64
xp@@ 64
╮@@ 64
☆小 64
下垂 64
主角 64
丽芙 64
乳房 64
任@@ 64
众多 64
优选# 64
伽@@ 64
供@@ 64
俊@@ 64
光影 64
关注 64
养殖 64
内容 64
几@@ 64
制造) 64
剂@@ 64
前列腺 64
勃@@ 64
博物馆 64
厕纸 64
同志 64
回忆 64
国宝 64
图形 64
坦@@ 64
埃@@ 64
墨水匣 64
备用 64
大豆 64
头花 64
奇美 64
奴 64
嫩肤 64
守护 64
宏碁 64
小叶 64
工具@@ 64
形象 64
影响 64
手提箱 64
折叠车 64
抱@@ 64
振@@ 64
掌@@ 64
摄影棚 64
放大 64
放心 64
斗牛犬 64
方舟 64
春联 64
机械式 64
条) 64
榛 64
此款 64
清理 64
滑梯 64
热感 64
猪猪 64
盲@@ 64
石榴石 64
碟片 64
竞@@ 64
粘胶 64
繁殖 64
繁花 64
红光 64
结发 64
绪 64
缓解 64
罗拉 64
肚脐 64
脉冲 64
臂章 64
舌@@ 64
芯@@ 64
芸 64
苍蝇 64
蓓@@ 64
薰 64
蛋器 64
衣裙 64
规划 64
讲 64
调味瓶 64
谢谢 64
贞德 64
贾 64
资料柜 64
软木 64
追加 64
金饰 64
鉴定 64
铬 64
锻@@ 64
集市 64
鞋器 64
顾 64
预订) 64
马夹 64
高铁 64
!!@@ 63
(200 63
,@@ 63
-44 63
/20 63
0-1 63
184 63
198@@ 63
2008 63
3+@@ 63
575@@ 63
909 63
97898@@ 63
??? 63
ae 63
age 63
alpha 63
authentic 63
bask 63
beauty@@ 63
co.@@ 63
f3@@ 63
fer@@ 63
field 63
gy@@ 63
hx@@ 63
i7/@@ 63
k.@@ 63
kg) 63
kg/@@ 63
las@@ 63
mcm 63
micro@@ 63
mv@@ 63
n0@@ 63
peanuts 63
rider 63
sata 63
sen 63
tcg 63
tl-@@ 63
wtaps 63
リ@@ 63
三月 63
下) 63
下午 63
举 63
五号 63
人家 63
介绍 63
会区 63
储@@ 63
六一 63
内含 63
利亚 63
功@@ 63
务 63
南非 63
卯钉 63
卷尺 63
原生 63
厨@@ 63
发音 63
口交 63
吉利 63
后排 63
咬咬 63
喜乐 63
器. 63
土城 63
太空舱 63
夹头 63
子代 63
家饰 63
宽度 63
小) 63
尼斯 63
嵌 63
弱@@ 63
征 63
扑 63
扒 63
投射 63
抢手 63
挤压 63
推出 63
收音 63
斋 63
方式 63
旅@@ 63
昆虫 63
晴@@ 63
暮 63
曹 63
机型 63
杀人 63
格) 63
梨@@ 63
比例 63
毛皮 63
水印 63
消除 63
淘@@ 63
渍@@ 63
湘 63
火龙 63
烫发 63
球拍 63
电磨 63
白色@@ 63
皮带@@ 63
皱褶 63
真书 63
碧儿 63
碳化 63
红色) 63
绝色 63
翠@@ 63
肉干 63
胜肽 63
臣氏 63
至@@ 63
花语 63
芸@@ 63
菇 63
蛇皮 63
计时表 63
订婚 63
调酒 63
贤@@ 63
超人力 63
超级赛亚 63
足底 63
车) 63
适用: 63
邂逅 63
配对 63
醒@@ 63
阶段 63
饮@@ 63
驰@@ 63
驱@@ 63
驱动 63
""@@ 62
(下标 62
(仅 62
(海外 62
(特价) 62
(男) 62
(随机 62
....... 62
/10 62
1/8 62
189 62
195 62
249 62
2s 62
3-001 62
30mm 62
34-40 62
366 62
390@@ 62
445@@ 62
7/8/@@ 62
8.0 62
\\\"" 62
ace@@ 62
ant@@ 62
c3 62
cha@@ 62
clarins 62
craft 62
denim 62
dry 62
fas@@ 62
g*2 62
gabbana 62
gel-@@ 62
gogoro2 62
guerlain 62
hana 62
hyundai 62
jill 62
k5@@ 62
l2 62
laura 62
m64@@ 62
m8@@ 62
mag@@ 62
mk3@@ 62
modern 62
pcs 62
pgm 62
reno@@ 62
sandisk 62
shin@@ 62
sr-@@ 62
t) 62
t8／ 62
thea 62
ua@@ 62
vcd 62
vintage@@ 62
vr@@ 62
water 62
上网卡 62
下水道 62
丽儿 62
仕女 62
优优 62
伙伴 62
光板 62
八分 62
单机 62
卡纸 62
双语 62
受@@ 62
吊兰 62
后盖 62
呎码 62
唯一 62
喔@@ 62
四层 62
固定架 62
圣诞老人 62
壁钟 62
姆斯 62
子多 62
孟 62
它 62
官@@ 62
富士山 62
小说@@ 62
巡@@ 62
巢 62
总裁 62
手部 62
扭力 62
拉线 62
挑选 62
排水管 62
摄像 62
数据 62
旋转木马 62
昂 62
普卡 62
桂圆 62
梦境 62
橡@@ 62
水貂 62
沐 62
浸 62
湘@@ 62
烤面 62
烫衣板 62
热熔 62
熟@@ 62
猫眼石 62
玄 62
百褶@@ 62
皇室 62
皮革@@ 62
盖碗 62
穿) 62
竖条 62
筋 62
简约@@ 62
粉盒 62
精品屋 62
纱巾 62
纸篓 62
纾困 62
绵@@ 62
耳线 62
菜单 62
说明 62
调色 62
赚到 62
踏@@ 62
车子 62
达尔@@ 62
达特 62
迈克 62
连结 62
道路 62
钢扣 62
锌合金 62
锻造 62
防风衣 62
雨天 62
雷达 62
霉@@ 62
青花瓷 62
页@@ 62
额@@ 62
马龙 62
鼻毛 62
龙虾 62
(20@@ 61
(7@@ 61
(上) 61
(下) 61
(九 61
(五 61
(附@@ 61
1112 61
117@@ 61
12.@@ 61
12v@@ 61
149 61
1:1 61
24/@@ 61
290 61
3.4 61
32mm 61
470 61
5*@@ 61
50% 61
6/6s/@@ 61
6d 61
710 61
923 61
980 61
[a@@ 61
action 61
ax5 61
balance@@ 61
char@@ 61
creeper 61
daybreak 61
disruptor 61
fire 61
gap@@ 61
ger 61
giant 61
hel@@ 61
home@@ 61
ine@@ 61
kappa 61
ken 61
los 61
mango 61
mask 61
mos 61
mvp 61
no.1 61
oreo 61
out@@ 61
outdoor 61
sexy 61
shine 61
sk-ii 61
stella 61
sv 61
t2／ 61
tg@@ 61
tho@@ 61
tl 61
tn@@ 61
toeic 61
tony 61
v2@@ 61
vault 61
well 61
west 61
wm@@ 61
zy 61
♔@@ 61
三宝 61
乳酪 61
亚瑟士 61
作坊 61
光灯 61
克力@@ 61
全国 61
兹@@ 61
冻@@ 61
凌@@ 61
切肉 61
力学 61
北京 61
午@@ 61
午夜 61
单只 61
单品 61
卤@@ 61
发套 61
可移 61
咏 61
咒@@ 61
咸 61
啾@@ 61
喜字 61
圆桶 61
壹号 61
外传 61
奇奇 61
好奇 61
威利 61
婚@@ 61
家居@@ 61
宽楦 61
小甜甜 61
岩@@ 61
崔 61
序 61
御寒 61
悠 61
悬浮 61
户@@ 61
托里 61
抗震 61
折纸 61
拼图@@ 61
接受 61
日文版 61
昊 61
显示屏 61
木框 61
条文 61
椰@@ 61
橙@@ 61
气机 61
活性炭 61
海水 61
漂浮 61
燃气灶 61
狗屋 61
猪肉 61
球迷 61
理发器 61
生活@@ 61
男仕 61
皮草 61
盘) 61
目录 61
睿@@ 61
瞬 61
硬笔 61
碎纸机 61
空盒 61
红唇 61
纯黑 61
绝缘 61
绿叶 61
腾@@ 61
舱 61
花式 61
茉@@ 61
西洋 61
解构 61
调速 61
贰@@ 61
跳绳 61
达尔 61
门把手 61
雨棚 61
馆) 61
马赛克 61
鸥@@ 61
ａ@@ 61
#0@@ 60
#现货 60
(r@@ 60
(出清) 60
(蓝色) 60
).@@ 60
010@@ 60
1.1 60
2.5吋 60
3+ 60
32cm 60
3ml 60
3xl 60
4s 60
537@@ 60
545@@ 60
640@@ 60
alphabounce 60
base 60
colourpop 60
coo@@ 60
cool@@ 60
dell 60
doll 60
dt 60
ea 60
f2.8 60
family 60
fleece 60
fly@@ 60
g4 60
iphonexs 60
ips 60
ir 60
kao 60
lon@@ 60
oi@@ 60
only 60
opp 60
q3 60
remax 60
rimowa 60
s75@@ 60
speed@@ 60
sportswear 60
tec 60
town 60
velvet 60
v型 60
wen@@ 60
winnie 60
zippy 60
ᴇ@@ 60
■@@ 60
★全馆 60
☛@@ 60
タ@@ 60
临 60
乐谱 60
二轮 60
亚丝娜 60
人间 60
休闲@@ 60
优先 60
伟@@ 60
保险套 60
修枝 60
公尺 60
公车 60
军工 60
冷水 60
凑 60
刀锋 60
制造@@ 60
刷洗 60
割草机 60
包装纸 60
单身 60
卷帘 60
厕@@ 60
含运 60
咒 60
嘴唇 60
团队 60
圆片 60
地砖 60
娅 60
子网 60
实拍@@ 60
寄@@ 60
开裆 60
彩屏 60
影院 60
微软 60
思维 60
急救 60
戽斗 60
手枪 60
手环@@ 60
批@@ 60
放大器 60
无暇 60
显微镜 60
月历 60
杀$ 60
村风 60
架) 60
栗子 60
格格 60
死亡 60
泳池 60
消音 60
港@@ 60
炸鸡 60
焰 60
照相 60
玮 60
电饭锅 60
研磨器 60
笔套 60
篇@@ 60
纲 60
组合式 60
经理 60
罗马数字 60
耳钉 60
腰垫 60
腰身 60
至尊 60
莱尔 60
蜂王 60
袍 60
裤脚 60
褶@@ 60
调温 60
贝瑞 60
越@@ 60
车套 60
这个 60
都@@ 60
酵母 60
金表 60
钩@@ 60
钱袋 60
长洋 60
风气 60
骆驼 60
黑橘 60
龙凤 60
(保 59
/30 59
007@@ 59
1'07 59
1.2m 59
1111 59
1200@@ 59
13) 59
16mm 59
183 59
1x@@ 59
20*@@ 59
2001 59
228 59
233 59
234 59
238 59
24mm 59
308 59
315 59
333 59
490@@ 59
5-6 59
505 59
506 59
6.3 59
7-11@@ 59
706 59
7吋 59
80) 59
95-@@ 59
99-@@ 59
a+@@ 59
bathing 59
betty 59
bg 59
biore 59
bri@@ 59
buff 59
chanel包包 59
cushion 59
dar@@ 59
del@@ 59
deluxe 59
diptyque 59
e0@@ 59
eagle 59
heart@@ 59
homme 59
i.@@ 59
kangol 59
kv@@ 59
liu 59
ln 59
lun@@ 59
m-xxxl码 59
mel@@ 59
mer 59
mistine 59
ml-@@ 59
moc 59
monaco 59
nude 59
petit 59
prophere 59
qposket 59
s79@@ 59
social 59
sta 59
studio@@ 59
tp 59
t恤女 59
t素t 59
ur 59
u领 59
v- 59
wear 59
work 59
yam@@ 59
ᅡ 59
◥ 59
つ@@ 59
ㄚ@@ 59
下单@@ 59
中坜 59
乳垫 59
五十 59
享@@ 59
倪 59
党 59
册@@ 59
军训 59
凝乳 59
剑麻 59
剪纸 59
加价 59
包包@@ 59
午 59
吋盆 59
喷泉 59
土地 59
土豪 59
堵漏 59
失 59
奶酪 59
好帮手 59
威尔 59
客制化 59
寸@@ 59
导游 59
小舖) 59
小镇 59
干净 59
弹珠 59
影子 59
怎么 59
急@@ 59
扬@@ 59
技师 59
据 59
排档 59
斑马纹 59
旋转式 59
标准型 59
标签纸 59
标语 59
棠 59
水水 59
泰拳 59
洒 59
洛杉矶 59
海神 59
直角 59
确 59
筛 59
纬 59
线钳 59
练@@ 59
经文 59
继电器 59
罩子 59
肚皮舞 59
胎@@ 59
膳魔师 59
芽@@ 59
茶罐 59
菜篮子 59
蓁@@ 59
螺母 59
言@@ 59
诺基亚 59
贝拉 59
贝母 59
超导 59
轰 59
轻型 59
较 59
追逐 59
速溶 59
遮阳帘 59
野炊 59
金粉 59
防晒衫 59
雅芳 59
震@@ 59
香) 59
鱼钩 59
鸿@@ 59
黑发 59
#虾皮 58
(上 58
-42 58
10.2 58
1080@@ 58
2.0@@ 58
209 58
24hr 58
3- 58
30) 58
326 58
331 58
428@@ 58
44-@@ 58
5.5吋 58
5v 58
720@@ 58
99% 58
\""""" 58
a00@@ 58
a51 58
a77 58
ang@@ 58
bone 58
book@@ 58
cars 58
clot 58
dmv 58
dot 58
eni@@ 58
ever 58
eye@@ 58
fs 58
gore-tex 58
gt-@@ 58
human 58
hyperdunk 58
ie@@ 58
ler 58
let's 58
marcelo 58
mari@@ 58
medi@@ 58
mia 58
ml" 58
molly 58
mr 58
neo@@ 58
ns@@ 58
ok@@ 58
oz@@ 58
remix 58
s4@@ 58
sacai 58
sal@@ 58
san 58
skin@@ 58
stayreal 58
t2 58
tx 58
t大 58
t恤t恤 58
utility 58
vans@@ 58
vape 58
vol.2 58
w205 58
ws@@ 58
zs@@ 58
☞ 58
☼@@ 58
こ@@ 58
た@@ 58
一千 58
丙级 58
串灯 58
为什么 58
乳器 58
乳头 58
人格 58
佐 58
修正 58
假日 58
凌志 58
列车 58
刚@@ 58
助力 58
单靴 58
卡组 58
古奇@@ 58
可洗 58
向日葵 58
咪咪 58
四川 58
圣保罗 58
坚@@ 58
型车 58
培 58
大包 58
太空@@ 58
太空铝 58
奖励 58
威化 58
字样 58
小花 58
干透 58
并 58
幽 58
快门 58
快餐 58
手提@@ 58
执@@ 58
抛光机 58
挪 58
摇铃 58
播放 58
攻@@ 58
文具@@ 58
新房 58
旅游鞋 58
日规 58
杯杯 58
橡树 58
武术 58
殿 58
沟通 58
油桶 58
沿帽 58
法规 58
洞@@ 58
温热 58
游乐园 58
满分 58
灯头 58
灯笼裤 58
热卖#@@ 58
燕子 58
牌) 58
狼@@ 58
猛@@ 58
猜 58
珍妮 58
疆 58
白瓷 58
睿 58
石材 58
禄 58
米奇@@ 58
繁 58
纯钛 58
纹理 58
缩@@ 58
罩衣 58
耶@@ 58
肉片 58
腰果 58
苹果绿 58
莉莉 58
藤蔓 58
詹 58
计步器 58
貂 58
负 58
货源 58
赛季 58
超音波 58
辛@@ 58
进口@@ 58
透明@@ 58
配套 58
酷咕 58
金士顿 58
销@@ 58
镀@@ 58
阿迪达 58
陶@@ 58
隆@@ 58
题@@ 58
飘带 58
香水@@ 58
鱼口 58
鸡腿 58
&超 57
+2 57
-s 57
1-2-3@@ 57
14mm 57
176 57
191 57
2+@@ 57
2.5@@ 57
211 57
375@@ 57
5t 57
711@@ 57
998 57
>@@ 57
__ 57
ate@@ 57
cec 57
chloe@@ 57
clinique 57
dr.martens 57
ee 57
fd@@ 57
fog 57
fur@@ 57
gal@@ 57
ger@@ 57
gf@@ 57
goyard 57
heran 57
i6@@ 57
icash 57
ite 57
j5 57
jbl 57
jing 57
kin 57
labo 57
lan 57
lq@@ 57
met-@@ 57
mic 57
ner@@ 57
pat@@ 57
pdd 57
ps2 57
que@@ 57
run@@ 57
shoulder 57
skoda 57
sneakers 57
spa@@ 57
stars 57
sup@@ 57
suqqu 57
three 57
uag 57
v字 57
xr/@@ 57
∣@@ 57
✩@@ 57
ん@@ 57
一百 57
七色 57
三门 57
不怕 57
不用 57
中药 57
主动 57
主场 57
二手机 57
五金@@ 57
伴侣 57
伸 57
余@@ 57
保龄球 57
偷@@ 57
前线 57
剑桥 57
包含 57
单位 57
单间 57
卡尔 57
历届 57
台) 57
合体 57
后厢 57
哥哥 57
圆角 57
墩 57
外盖 57
大三 57
大海 57
妈祖 57
姐@@ 57
字画 57
宅女 57
客房 57
小雨 57
左手 57
市面 57
帝王 57
德式 57
感情 57
懒@@ 57
手摇铃 57
手杖 57
执事 57
旦 57
有氧 57
朋@@ 57
服务@@ 57
板) 57
染发膏 57
柠檬@@ 57
柾国 57
案板 57
横杆 57
残 57
气息 57
泳@@ 57
浴帽 57
港式 57
灵魂 57
热卖) 57
煤气 57
牧@@ 57
玛士 57
珀 57
男士@@ 57
百分百 57
皙@@ 57
私房 57
移@@ 57
穴位 57
米饭 57
粉笔 57
糊 57
红宝石 57
组合柜 57
经营 57
维斯 57
老北京 57
肌因 57
肛塞 57
脸巾 57
芦@@ 57
花花世界 57
花鸟 57
菊花茶 57
蓝色) 57
薰机 57
藏青 57
螺丝@@ 57
衬衫@@ 57
被罩 57
读卡机 57
课@@ 57
踝@@ 57
迈@@ 57
运中 57
运动衫 57
退换 57
逗@@ 57
部品 57
醋@@ 57
量杯 57
锁匙 57
阪@@ 57
阳伞 57
阿尔法 57
阿甘 57
陵 57
雅致 57
零嘴 57
雷姆 57
馥@@ 57
高校 57
黑色@@ 57
＋@@ 57
ｔ@@ 57
(附赠 56
.黑 56
0.7 56
1-10 56
1-6 56
10*@@ 56
10.1 56
197 56
207 56
22.5 56
22mm 56
231 56
238@@ 56
24吋 56
28-@@ 56
29-42 56
299@@ 56
307 56
399@@ 56
512@@ 56
9s 56
@@ 56
a10@@ 56
a60 56
airpods2 56
arashi 56
ation 56
bike 56
bit@@ 56
blaze 56
boost@@ 56
cla@@ 56
code 56
com 56
cover 56
drive 56
gucc@@ 56
he 56
hearts克罗心 56
high@@ 56
hoo@@ 56
hy 56
i5 56
i8@@ 56
internationalist 56
ja 56
jets 56
kl@@ 56
kn@@ 56
land@@ 56
lindy 56
lunarepic 56
money 56
nail 56
nu 56
oli@@ 56
op 56
pearl 56
pharrell 56
princess 56
pure@@ 56
rr@@ 56
ryz 56
s20@@ 56
sale 56
sch@@ 56
simple 56
sk2 56
skater 56
sonic 56
s型 56
tshirt 56
ut 56
ver.@@ 56
vespa 56
vivienne 56
way@@ 56
wifi@@ 56
xin 56
y5@@ 56
york 56
yy. 56
z0@@ 56
za@@ 56
■ 56
三开门 56
下水 56
专门 56
乙@@ 56
从@@ 56
佰@@ 56
佳佳 56
倾 56
健美 56
兜@@ 56
几乎 56
凯文 56
加码 56
勃 56
北面 56
卓@@ 56
单) 56
卡纳赫拉 56
卫衣@@ 56
友人 56
发烧 56
叠加 56
听力 56
啫喱 56
四面 56
团子 56
圆珠笔 56
土司 56
基隆 56
增长 56
夏普 56
大悲咒 56
天珠 56
女儿 56
婆婆 56
婴儿鞋 56
学: 56
宝藏 56
小台灯 56
山羊皮 56
希望 56
幸@@ 56
延伸 56
当代 56
录音带 56
影集 56
怕 56
恬@@ 56
慈 56
报纸 56
拚@@ 56
日清 56
晚会 56
有趣 56
栀子 56
标志性 56
桂@@ 56
梳@@ 56
梵 56
橙子 56
款#@@ 56
歌曲 56
油机 56
泉@@ 56
洛洛 56
灯箱 56
热情 56
牌照 56
玛莉@@ 56
生姜 56
生机 56
电车 56
监控器 56
相簿 56
石膏 56
种菜 56
秦 56
筋@@ 56
糖霜 56
纠正 56
纺纱 56
线材 56
结合 56
罚 56
羊羔绒 56
翔@@ 56
翰@@ 56
耀@@ 56
聚宝 56
背侧 56
苹果@@ 56
荳@@ 56
蓝水 56
藏版 56
藤条 56
蟒蛇 56
裂@@ 56
裤内 56
认@@ 56
课程 56
逼 56
配) 56
钧 56
锯片 56
限定) 56
韦@@ 56
风范 56
验货 56
鸭@@ 56
黑桃 56
#5@@ 55
#爆款# 55
(3) 55
(p@@ 55
(中@@ 55
(艾 55
-24 55
-ez 55
-f@@ 55
-m@@ 55
-r@@ 55
/二手 55
0000 55
002@@ 55
14/@@ 55
1450@@ 55
15mm 55
175 55
216 55
218 55
24m 55
263 55
275@@ 55
2x@@ 55
300g 55
36-46 55
490 55
6*@@ 55
6-100 55
750ml 55
903 55
929 55
9428@@ 55
9h@@ 55
9吋 55
bb6@@ 55
boo@@ 55
burlon 55
cla 55
dolce& 55
eco 55
extreme 55
f1s 55
footscape 55
gba 55
gk@@ 55
hon@@ 55
honey 55
in-@@ 55
jj@@ 55
l-4xl 55
l0@@ 55
lion 55
lv8 55
m-xxxl 55
m7@@ 55
mal@@ 55
market 55
moon@@ 55
nt$@@ 55
padlock 55
pi 55
p助 55
q5 55
qx@@ 55
s/s 55
sarah 55
scottish 55
shinee 55
t7@@ 55
tank 55
track 55
travel 55
us10 55
van 55
wan@@ 55
wing 55
♔ 55
✩ 55
り@@ 55
ん 55
乃@@ 55
乞丐 55
争@@ 55
亲爱 55
仓@@ 55
充线 55
兔兔 55
八代 55
养成 55
冬瓜 55
冲孔 55
冷饮 55
切片机 55
创造 55
制化@@ 55
包. 55
厂) 55
口盖 55
可用 55
吉祥物 55
名家 55
唇露 55
国大 55
垮 55
头部 55
奖品 55
奥德赛 55
女板 55
女警 55
存储 55
客服) 55
家居) 55
尺寸) 55
座机 55
弹簧夹 55
微积分 55
惊奇 55
扁平 55
抵 55
搭衫 55
播@@ 55
敬@@ 55
旅行@@ 55
早安 55
显色 55
晶亮 55
晶洞 55
木鞋 55
束@@ 55
植@@ 55
歌手 55
永远 55
洋洋 55
海夹 55
淋@@ 55
清爽型 55
狐貍 55
玺 55
玺@@ 55
理财 55
用于 55
用餐 55
电击 55
瘦瘦 55
瞬@@ 55
磁砖 55
神器@@ 55
立得 55
竹席 55
粹 55
精细 55
繁@@ 55
老公公 55
肉肉 55
肌密 55
舌 55
花园) 55
葡萄牙 55
蜜蜡 55
螺 55
街@@ 55
触摸屏 55
负@@ 55
软硬 55
轻质 55
运# 55
释 55
长凳 55
队@@ 55
靶@@ 55
飘@@ 55
麟 55
麻糬 55
#新款 54
(300 54
(加 54
(每 54
(白@@ 54
-00 54
0000@@ 54
10w 54
11) 54
148 54
1620@@ 54
182 54
2009 54
220v@@ 54
3*@@ 54
355 54
363 54
45cm 54
503 54
590 54
5cgo 54
7-100 54
705@@ 54
789 54
802 54
986@@ 54
a- 54
a20 54
amd 54
ao 54
auto@@ 54
benq 54
bg@@ 54
chris 54
clean 54
diesel 54
dou@@ 54
fh@@ 54
g9@@ 54
george 54
gogo 54
goo@@ 54
holika 54
hot@@ 54
hs@@ 54
hunter 54
ig@@ 54
infinite 54
ip 54
k8 54
koko 54
kw@@ 54
legends 54
lf@@ 54
line@@ 54
m440@@ 54
maru@@ 54
mont 54
pig 54
robot 54
rock@@ 54
rv@@ 54
shi 54
signature 54
sil@@ 54
slip-on 54
tescom 54
tex 54
twist 54
wii 54
x.@@ 54
xp 54
xw 54
☆chanel 54
お@@ 54
リ 54
一拖 54
丁丁 54
万年历 54
三角巾 54
不修 54
书报 54
二胡 54
人手 54
介@@ 54
价钱 54
全智贤 54
军旅 54
切片器 54
剃@@ 54
削皮 54
压器 54
厚外套 54
反向 54
发牌 54
圣衣 54
大学t 54
大白 54
大眼仔 54
大眼睛 54
大网 54
女外套 54
奴@@ 54
姓 54
家用@@ 54
尼泊尔 54
岭 54
巨大 54
帐本 54
座套 54
彬 54
恶灵 54
悟@@ 54
惟 54
报警器 54
抽水 54
振动 54
掏 54
摸 54
撒 54
撒@@ 54
收纳包 54
新安 54
普考 54
柴犬@@ 54
橄榄油 54
水车 54
沙发椅子 54
洗洁 54
活性碳 54
浮动 54
清除 54
渔@@ 54
漫步 54
澎湖 54
热裤 54
热风 54
煎蛋 54
珂@@ 54
生意 54
疤痕 54
皮套@@ 54
盏 54
盒装) 54
盗@@ 54
砂轮机 54
福神 54
立柱 54
端@@ 54
第1 54
籍 54
粘土 54
紫檀 54
红潮 54
继@@ 54
美发店 54
美梦 54
翼@@ 54
而@@ 54
色带 54
艺术家 54
芙妮 54
花花公子 54
螺丝起子 54
行政 54
该 54
谷物 54
超短 54
车车 54
运输 54
迷雾 54
逆@@ 54
遮阳网 54
酒具 54
野犬 54
金葱 54
销量 54
阁楼 54
阻力 54
除草机 54
面试 54
革命 54
鞋汇 54
顺丰 54
饭菜 54
马鞭 54
鳞 54
鸭子 54
鹿皮 54
＿ 54
￥ 54
"☆ 53
(4) 53
(出货 53
(日 53
(橘@@ 53
.7 53
/百 53
0.4 53
1-2-3 53
100-@@ 53
144@@ 53
147 53
159 53
18m 53
2.8 53
217@@ 53
219 53
232 53
336 53
340 53
43mm 53
505@@ 53
50cm 53
5c 53
690 53
804 53
a. 53
a10 53
aj5 53
anderson 53
ano 53
ant 53
ar0@@ 53
ara 53
aro@@ 53
banana 53
c250 53
cel@@ 53
cer@@ 53
chic@@ 53
cny 53
coffee 53
cooper 53
cotton 53
d'@@ 53
disney@@ 53
dkny 53
foundation 53
fro@@ 53
g3 53
hario 53
hk@@ 53
hobo 53
hotwheels 53
j2 53
jan@@ 53
k2@@ 53
link 53
luna 53
madness 53
min 53
minkoff 53
monarch 53
naraya 53
nes 53
rainbow 53
revolution 53
saddle 53
sandal 53
she@@ 53
silver@@ 53
sk8-hi 53
soho 53
solo 53
tanjun 53
ts-@@ 53
ura 53
vapor 53
victor 53
wet 53
ye 53
ᅳ 53
ᅵ@@ 53
∮@@ 53
✦@@ 53
下杀☆ 53
专营店 53
中级 53
书画 53
书立 53
乳油 53
亨@@ 53
亮色 53
人造花 53
代售 53
何@@ 53
倾@@ 53
免税店 53
公家 53
公馆 53
养护 53
农家 53
创业 53
利器 53
医师 53
卡龙@@ 53
即溶 53
卵磷脂 53
厄文 53
压线 53
原厂 53
及@@ 53
发射 53
口裤 53
古曼@@ 53
哑光@@ 53
哟 53
唤 53
唯@@ 53
垫) 53
壹家 53
天空之城 53
宝利 53
宽带 53
小孩子 53
市价 53
布) 53
带子 53
店家 53
弯@@ 53
情侣@@ 53
戏@@ 53
战斗机 53
戚 53
指手 53
描述 53
搓澡 53
故宫 53
星期五 53
最终 53
有限公司 53
水陆 53
沛 53
法师 53
泪 53
洋娃娃 53
洗菜 53
流线 53
消防车 53
满版 53
灯壳 53
点火 53
煎饼 53
爱用 53
牛奶糖 53
狠 53
狼人 53
王鲁夫 53
瑟@@ 53
电缆 53
电阻 53
画质 53
皇帝 53
盲盒 53
直上 53
直筒@@ 53
真正 53
碟子 53
碧蓝 53
磨刀器 53
神像 53
秸秆 53
童年 53
米格 53
素) 53
紧急 53
级别 53
耐晒 53
肽 53
舞鞋 53
萝莉 53
蒟蒻 53
蓝橘 53
行装 53
轮圈 53
辣妹 53
运#@@ 53
还原 53
进场 53
郡 53
量化 53
金字 53
长条桌 53
闹铃 53
隐 53
雪儿 53
青瓷 53
面条 53
面皮 53
鞋粉 53
顽皮 53
风沙 53
风管 53
飞天 53
鸡精 53
黑巧克力 53
默@@ 53
ｏ@@ 53
&全场 52
(120@@ 52
)@@ 52
1/43 52
11.5 52
18/@@ 52
1:18 52
20190@@ 52
256@@ 52
309 52
30x@@ 52
324 52
36-4@@ 52
460 52
4g/@@ 52
540 52
81@@ 52
[c@@ 52
_y@@ 52
ala 52
ama 52
au 52
back 52
bm 52
c5 52
cabas 52
can 52
chan 52
doris 52
e's 52
effect 52
ey@@ 52
faye 52
fen@@ 52
g+ 52
gl 52
hsu 52
kon@@ 52
lancer 52
logitech 52
long@@ 52
m20@@ 52
major 52
moo@@ 52
native 52
ness 52
ou 52
pad@@ 52
per 52
posh 52
ride 52
running 52
s-2xl 52
scott 52
sq@@ 52
suga 52
t4@@ 52
tas@@ 52
tina 52
tough 52
true 52
type-c@@ 52
uncaged 52
v15 52
venus 52
waffle 52
wood@@ 52
ロ@@ 52
上托 52
中信 52
之宝 52
乌拉圭 52
伊伊 52
伐木 52
侧面 52
充充 52
共用 52
农药 52
冥@@ 52
冰激凌 52
制药 52
加仑 52
加强型 52
加热器 52
加绒卫衣 52
卤味 52
双胞胎 52
叮@@ 52
告 52
噪音 52
地方 52
地球仪 52
地铺 52
塑型 52
塑封 52
塑料袋 52
处方 52
天平 52
奏@@ 52
奔 52
套房 52
奥特曼 52
娘娘 52
宇航员 52
家务 52
小钱 52
岳 52
己 52
年华 52
廷 52
弥勒佛 52
微微 52
恢复 52
惜 52
手排 52
手袋@@ 52
扫描 52
投篮 52
折价 52
换装 52
排队 52
搅拌棒 52
文房四宝 52
斧 52
明天 52
晚餐 52
杂货舖 52
染色 52
标签机 52
桔 52
榴@@ 52
次方 52
民众 52
水靴 52
汇@@ 52
污@@ 52
油封 52
泡器 52
波纹 52
浮力 52
涮 52
淋 52
渔轮 52
源氏 52
满屋 52
潮流@@ 52
灰橘 52
特卖@@ 52
特选 52
电光 52
男青年 52
番@@ 52
皱折 52
盔 52
矢@@ 52
砍 52
福气 52
笛@@ 52
练习@@ 52
结束 52
编制 52
网线 52
耳机@@ 52
脸器 52
腹器 52
腹部 52
芭比@@ 52
花篮 52
茂@@ 52
萨斯 52
蒋 52
蝴蝶@@ 52
行事历 52
行李箱@@ 52
街机 52
议) 52
识 52
超合金 52
超大号 52
车队 52
软式 52
辉@@ 52
这里 52
道士 52
遛 52
部队 52
酵@@ 52
鎏金 52
错过 52
镊子 52
长明灯 52
阁@@ 52
防螨 52
非凡 52
飞侠 52
飞飞 52
马来貘 52
高桥 52
高空 52
髪 52
(24 51
(韩国 51
-43 51
-y@@ 51
/12 51
1.8米 51
12.9 51
143 51
15.@@ 51
187 51
1月 51
2/ 51
2012年 51
237 51
247@@ 51
258 51
308@@ 51
354 51
35mm 51
370 51
39-45 51
45x@@ 51
616@@ 51
718@@ 51
8-10 51
820 51
996@@ 51
::: 51
\\\ 51
_☆ 51
a20@@ 51
a40 51
a80@@ 51
ak 51
amissa 51
anpanman 51
are@@ 51
ariel 51
b) 51
banila 51
bird 51
bjd 51
c. 51
cc- 51
ch-@@ 51
climacool 51
crazy 51
cup 51
daiwa 51
dj@@ 51
ev@@ 51
g- 51
g5@@ 51
gy 51
hey 51
hf@@ 51
jf 51
jk@@ 51
kirkland 51
lm 51
m- 51
mann 51
miku 51
mk58@@ 51
mouse 51
msp 51
nex@@ 51
o. 51
om@@ 51
os@@ 51
p9 51
parker 51
pon@@ 51
pw 51
q7 51
r20 51
ron@@ 51
s20 51
sentra 51
sogo 51
t365 51
tm 51
tone 51
uk@@ 51
ul 51
undefeated 51
u凸 51
v9 51
vdl 51
x2@@ 51
x8 51
xa2 51
xiaomi 51
yun@@ 51
˙@@ 51
✤@@ 51
中网 51
丽人 51
乒乓球 51
乱斗 51
产地 51
亲亲 51
优美 51
传感器 51
使用) 51
候 51
兆 51
冰冰 51
冰棒 51
冷气机 51
凉风 51
减负 51
刮伤 51
医学 51
占卜 51
卡莉 51
双肩背 51
发丝 51
吸尘 51
咖色 51
堵塞 51
多孔 51
大) 51
太空人 51
太阳@@ 51
奕迅 51
女巫 51
如果 51
妆蛋 51
妮维雅 51
始 51
孩儿 51
实价 51
对) 51
小伙 51
巴伦 51
布防 51
年) 51
废 51
手卷 51
找@@ 51
抢@@ 51
拐角 51
拭@@ 51
挡水 51
捡 51
新干线 51
旅人 51
无线@@ 51
无铅 51
杀￥ 51
材料@@ 51
松本 51
柒 51
染料 51
棉花棒 51
残@@ 51
毕 51
水胶 51
水银 51
汽材 51
波斯 51
波波@@ 51
泰迪@@ 51
浓郁 51
海豹 51
漂白 51
火腿 51
炸弹 51
焦@@ 51
牧场 51
田玉 51
男单 51
疏 51
白紫 51
皮件 51
真金 51
知性 51
矽 51
砲 51
磅@@ 51
秀款 51
穿衣 51
窥@@ 51
签筒 51
篷 51
簇 51
米) 51
米妮@@ 51
粉尘 51
纯水 51
线板 51
终@@ 51
缎 51
网兜 51
脊椎 51
脏@@ 51
膳 51
自身 51
舟 51
色素 51
芒星 51
芭比娃娃 51
花果 51
药妆 51
菲律宾 51
菲菲 51
蓉@@ 51
蔻驰@@ 51
薏米 51
行为 51
袖扣 51
詹姆士 51
订金 51
译@@ 51
财神爷 51
货☆ 51
蹦蹦 51
车上 51
车带 51
载@@ 51
辟 51
酿 51
金属框 51
铁链 51
铝材 51
锐@@ 51
长辈 51
飞马 51
香榭 51
鲨 51
麒麟 51
ｉ@@ 51
"# 50
$200 50
(#@@ 50
(剩 50
(红色) 50
(长 50
(限量 50
-g@@ 50
/925 50
005@@ 50
006@@ 50
0507 50
1+ 50
1+1 50
15w 50
168@@ 50
173 50
2-3 50
2.3 50
2020.@@ 50
2020ss 50
2021/@@ 50
20l 50
25) 50
265 50
3w 50
4.1 50
4764@@ 50
535@@ 50
5x@@ 50
620@@ 50
6xl 50
806 50
809 50
908 50
93/17 50
995 50
999@@ 50
a75 50
aj6 50
asi@@ 50
bebe 50
bin 50
board 50
bucket 50
cen@@ 50
chain 50
cro@@ 50
d3 50
dio 50
ds-@@ 50
farm 50
ferragamo菲拉格 50
fl 50
fp@@ 50
green@@ 50
hun@@ 50
iron 50
j&@@ 50
jam 50
jin@@ 50
kit@@ 50
kt-@@ 50
laser 50
lh@@ 50
lly@@ 50
magi@@ 50
mh 50
moma 50
nan@@ 50
nd@@ 50
neighborhood 50
nite 50
pal@@ 50
pillow 50
pixel 50
rg@@ 50
rilakkuma 50
rx-@@ 50
ryan 50
shield 50
shock 50
short 50
solar 50
stick 50
sunshine 50
tar@@ 50
tin@@ 50
type@@ 50
t百 50
yt 50
─@@ 50
◈@@ 50
☜ 50
ま@@ 50
ㄉ@@ 50
两相宜 50
之前 50
之子 50
乐乐@@ 50
乘@@ 50
九尾狐 50
仲 50
价值 50
伪装 50
伴郎 50
保护@@ 50
修脚 50
值@@ 50
光明 50
关东 50
刀叉 50
切切 50
加长型 50
勇@@ 50
包装@@ 50
北方 50
博古 50
卡式 50
原声 50
去屑 50
发条 50
吉斯 50
名匠 50
后灯 50
吸收 50
哭 50
啤酒杯 50
喷火 50
囍@@ 50
国民 50
外罩 50
大蒜 50
天幕 50
太平洋 50
奇奇@@ 50
奕@@ 50
女大 50
婉@@ 50
字型 50
学会 50
宣@@ 50
将@@ 50
小便 50
小型@@ 50
小宜 50
小苏打 50
小鬼 50
尹 50
尺) 50
岑 50
度数 50
廉@@ 50
异性 50
归 50
当家 50
彩笔 50
微光 50
忍@@ 50
悍将 50
悠悠 50
慕斯 50
成为 50
扑满 50
打孔器 50
抽气 50
拉链式 50
持续 50
捣@@ 50
探照灯 50
撞@@ 50
断裂 50
族@@ 50
日光 50
日月 50
本土 50
杀价│ 50
查@@ 50
格尔 50
格雷 50
桑拿 50
检定 50
椒@@ 50
楷书 50
残疾人 50
气泵 50
水货 50
油门 50
泫 50
活口 50
派克 50
流明 50
漂流 50
演 50
烟灰 50
焖 50
爵@@ 50
牛蒡 50
物箱 50
特价品 50
特惠@@ 50
独一无二 50
猿@@ 50
瑟 50
疤 50
病毒 50
白面 50
皮毛 50
省钱 50
祢 50
福鞋 50
竞标 50
笔架 50
算@@ 50
管理学 50
簿@@ 50
类@@ 50
红鹤 50
纯棉@@ 50
纺车 50
结实 50
绚@@ 50
绳) 50
翻毛 50
老帽 50
老板桌 50
联网 50
肚兜 50
肥佬 50
脱妆 50
腊肠 50
花) 50
药师 50
蒜泥 50
薯 50
衬裙 50
袭 50
诚@@ 50
误 50
说明书 50
财经 50
超q 50
路亚@@ 50
轿车 50
追求 50
配合 50
酒吧台 50
酪 50
采购 50
金字塔 50
钥@@ 50
锦鲤 50
键鼠 50
镀钛 50
镁 50
长项 50
闲@@ 50
隔水 50
雀斑 50
雪地 50
露台 50
韵律 50
顾客 50
飞龙 50
香水瓶 50
骨架 50
鲨@@ 50
黑手 50
黑管 50
黑线 50
黑色) 50
鼠尾草 50
(2018) 49
(下单 49
(灰) 49
(白色 49
(粉色) 49
-06 49
-12@@ 49
0-3 49
1.5l 49
1/18 49
10a 49
10吋 49
12*@@ 49
13/@@ 49
14吋 49
16/@@ 49
1600@@ 49
165@@ 49
224 49
245 49
318@@ 49
369 49
4" 49
406 49
4g@@ 49
5.2 49
511 49
612 49
775@@ 49
905 49
910 49
910@@ 49
921 49
955@@ 49
_k@@ 49
a71 49
ach@@ 49
ag 49
b/@@ 49
bao 49
bell 49
bot 49
bwfc 49
cc. 49
cheng 49
diva 49
dna 49
doom 49
dresseum 49
f10 49
fish@@ 49
gift 49
glc 49
gogo@@ 49
hand@@ 49
h扣 49
ins@@ 49
iope 49
iphone8plus 49
iq@@ 49
kaishi 49
lam@@ 49
lunar@@ 49
lux@@ 49
maison 49
many 49
mdns 49
mh-@@ 49
nn@@ 49
p2 49
p3 49
ps4@@ 49
s4 49
shin 49
sofina 49
spf50@@ 49
t. 49
td@@ 49
thermos膳 49
txt 49
uma 49
undercover 49
v.@@ 49
vol.1 49
wip 49
ykk 49
z2 49
zone 49
ᄉ@@ 49
ラ 49
下载 49
世界@@ 49
业务 49
丛书 49
两侧 49
乐趣 49
习@@ 49
了@@ 49
五星 49
位@@ 49
作文 49
保护垫 49
修剪器 49
停车场 49
光临 49
光采 49
公共 49
公司级 49
切面 49
化妆舞会 49
十三 49
危机 49
参考书 49
发电机 49
古着 49
台塑 49
后裔 49
告示牌 49
周刊 49
呼@@ 49
品. 49
唇萃 49
嘉年华 49
垒球 49
堡@@ 49
女佣 49
姊妹 49
姜@@ 49
婆 49
婕@@ 49
宠@@ 49
山包 49
崁 49
差@@ 49
幔 49
幽@@ 49
床帘 49
底部 49
度度 49
开发票 49
开放式 49
必备@@ 49
志祥 49
忠 49
惯性 49
感恩 49
戈@@ 49
戒指@@ 49
战机 49
房屋 49
扶 49
持妆 49
推子 49
摇控 49
散步 49
新婚 49
方盒 49
杯) 49
杵 49
松下 49
构造 49
检测仪 49
比特 49
水剂 49
油炸 49
油炸锅 49
油膏 49
沿 49
海岸 49
涛 49
淋浴器 49
港仔 49
滨 49
潜行 49
灌@@ 49
牙骨 49
特定 49
狄@@ 49
猪排 49
现实 49
现货★ 49
珉 49
珐瑯@@ 49
球形 49
电脑@@ 49
疮 49
疾风 49
皮夹克 49
盔甲 49
矶钓 49
破壁 49
碎@@ 49
神龙 49
票据 49
禧 49
空专 49
立体@@ 49
米粒 49
精制 49
糖蛋白 49
紫红 49
组织 49
终局 49
翰林 49
肾 49
胶布 49
腰椎 49
腻子 49
艾斯 49
茶托 49
荞麦 49
蔻超 49
表器 49
表现 49
袍@@ 49
裁缝 49
裆@@ 49
裕@@ 49
裤. 49
课桌 49
象牙 49
转向 49
辅料 49
运动衣 49
郁@@ 49
钉枪 49
钩子 49
铰链 49
锤子 49
键帽 49
防火 49
鞋. 49
鞋.@@ 49
鞋柜 49
驻 49
骑士@@ 49
高点 49
(25 48
(美 48
-e@@ 48
-x@@ 48
0001 48
10l 48
12v24v 48
167 48
18ss 48
1t 48
2011年 48
215 48
3.5@@ 48
38-@@ 48
417@@ 48
508 48
6-001 48
6/26 48
630 48
655 48
7s 48
830 48
8l 48
9t 48
=@@ 48
adilette 48
als 48
ami 48
asos 48
bel@@ 48
box@@ 48
cbr@@ 48
chin@@ 48
cindy 48
co2 48
compact 48
dora 48
durant 48
dv 48
fang 48
formula 48
fox 48
full 48
g7@@ 48
happy@@ 48
hero@@ 48
ht 48
i/@@ 48
ipsa 48
iroo 48
kanebo 48
keds 48
lady@@ 48
last 48
legend 48
lou@@ 48
lov@@ 48
lovfee 48
m9 48
nat@@ 48
neonoe 48
nfc 48
percent 48
planet 48
pouch 48
qc 48
qi@@ 48
r11s 48
ron 48
room@@ 48
rouge 48
rs-@@ 48
rt-@@ 48
sana 48
sj@@ 48
sp-@@ 48
st-@@ 48
tab@@ 48
tnf 48
tom@@ 48
tr70 48
united 48
u形 48
versace@@ 48
via 48
volvo 48
┋@@ 48
◄@@ 48
下标@@ 48
东海 48
也@@ 48
五合一 48
俐落 48
倾心 48
六字真言 48
凹槽 48
前叉 48
副@@ 48
加水 48
包内 48
十八 48
单筒 48
厕 48
双星 48
发展 48
口臭 48
口钳 48
另类 48
叶片 48
咬@@ 48
喊 48
国标 48
圆顶 48
在家 48
坚固 48
培林 48
奥特 48
好友 48
字典 48
孟@@ 48
完结 48
宜兰 48
宝典 48
客场 48
导线 48
小仓 48
小毛 48
小气 48
尘@@ 48
座钟 48
引擎盖 48
归@@ 48
待@@ 48
心) 48
悬疑 48
手枪钻 48
打蛋 48
护板 48
抽水机 48
拉拉@@ 48
揹 48
摆放 48
攀爬 48
敦@@ 48
新居 48
映@@ 48
木偶 48
朱砂 48
机票 48
桌脚 48
梭 48
榨@@ 48
樱花@@ 48
死角 48
殿堂 48
水培 48
沐沐 48
泡芙 48
海洋@@ 48
润滑剂 48
淑 48
湾@@ 48
溯溪 48
溶@@ 48
满足 48
潜@@ 48
火热 48
火线 48
热缩 48
熔@@ 48
爽肤 48
牛牛 48
珂 48
痒 48
白领 48
皱纹 48
直线 48
砲@@ 48
祛斑 48
禁@@ 48
私藏 48
秋裤 48
称重 48
税) 48
稳固 48
策略 48
纪念日 48
终 48
绣球 48
绫@@ 48
者@@ 48
职@@ 48
胺 48
自家 48
自我 48
舔@@ 48
色/@@ 48
色粉 48
芷@@ 48
莜莜 48
蔓 48
行器 48
裂缝 48
褐色 48
襦裙 48
西西 48
论@@ 48
谱架 48
趣@@ 48
路线 48
踝 48
车间 48
转动 48
边防 48
迅@@ 48
远近 48
送人 48
选择) 48
通过 48
道家 48
郁金香 48
部曲 48
配备 48
野狼 48
金金 48
钢印 48
钵 48
钻孔 48
铜板 48
阿拉丁 48
雪白 48
露乳 48
风刺 48
风干 48
香吉士 48
马铃薯 48
鲇鱼 48
默 48
#8@@ 47
(1@@ 47
(w@@ 47
(保证 47
(适用 47
(陈 47
106@@ 47
109@@ 47
138@@ 47
141 47
15*@@ 47
158@@ 47
18) 47
18w 47
2006 47
2019.@@ 47
223 47
242 47
24h@@ 47
252 47
255 47
277 47
281 47
3" 47
334@@ 47
335 47
351 47
361 47
3p 47
5x 47
609 47
660 47
693 47
705 47
747@@ 47
8*@@ 47
848@@ 47
8a 47
9789865@@ 47
988 47
_q@@ 47
a50@@ 47
ale 47
alice@@ 47
angel@@ 47
ashlee's 47
ava 47
a赏 47
b1 47
care@@ 47
d. 47
dior迪奥 47
dri-fit 47
d赏 47
eh-@@ 47
ek 47
epi 47
ever@@ 47
f36@@ 47
fi 47
fil@@ 47
final 47
flash 47
fuji 47
fuji@@ 47
g6@@ 47
gle 47
gold@@ 47
icash2.0 47
impact 47
intex 47
l/ 47
lat@@ 47
legacy 47
ley 47
lia 47
lm@@ 47
ma-@@ 47
mod 47
nor@@ 47
oblique 47
olivia 47
pant 47
peppa 47
point 47
rex 47
ruby 47
shorts 47
slp 47
sou 47
storm 47
surface 47
teco 47
tit@@ 47
tn 47
totoro 47
tsumtsum 47
wf@@ 47
zeus 47
❥ 47
て@@ 47
み@@ 47
レ@@ 47
上下床 47
下杀★ 47
不再 47
东北 47
中间 47
久坐 47
乐蒂@@ 47
乡@@ 47
互@@ 47
亭@@ 47
亮泽 47
便条 47
信纸 47
假发 47
光碟) 47
免邮 47
凝膜 47
加绒@@ 47
半高 47
卢@@ 47
原始 47
厨卫 47
双筒 47
口服 47
可变 47
右手 47
吊车 47
后置 47
品: 47
哈特 47
哥伦比亚 47
哲学 47
唇膏#@@ 47
圣母 47
壹体 47
外星人 47
外送 47
姬@@ 47
婕 47
宋@@ 47
定时器 47
宝丽来 47
家生 47
小东西 47
小米米家 47
属@@ 47
工具袋 47
廊 47
御用 47
德曼 47
恤@@ 47
手术 47
手脚 47
托德斯 47
披@@ 47
拜拜 47
拥抱 47
推杆 47
描 47
搏击 47
收款 47
斌 47
旅馆 47
春酒 47
果香 47
柏林 47
标价 47
毛绒绒 47
水头 47
水温 47
水溶 47
水质 47
永不 47
油光 47
洋葱 47
洪@@ 47
涂@@ 47
消磁 47
淇淋 47
滤清器 47
潜水表 47
灌篮高手 47
灵动 47
炒菜锅 47
焊工 47
牡蛎 47
犬用 47
玫红 47
玻璃球 47
珍宝 47
白星 47
看板 47
磁吸式 47
稀少 47
稻@@ 47
紫) 47
纯金 47
绮@@ 47
职业装 47
胸围 47
脑@@ 47
脖式 47
自信 47
舒适@@ 47
艾玛 47
芮&美 47
花香 47
苏格兰 47
莱特 47
萤@@ 47
藻土 47
虚@@ 47
蟹 47
补色 47
装机 47
裤管 47
视野 47
认 47
贺卡 47
超紧 47
车锁 47
送客 47
选手 47
速效 47
郊游 47
郎@@ 47
配戴 47
配电 47
重要 47
金莎 47
錬@@ 47
针孔 47
钉书机 47
铅@@ 47
铅笔@@ 47
银弹 47
阿尔@@ 47
霓@@ 47
青柠 47
面机 47
面积 47
项@@ 47
风筝 47
魂@@ 47
鲜肉 47
鸵鸟 47
鸽子 47
麻辣烫 47
#款 46
#特价 46
(10@@ 46
(80 46
(d@@ 46
(未 46
(爱 46
-07 46
/// 46
/三 46
0.2 46
1150 46
16) 46
18*@@ 46
1st 46
20) 46
2002 46
212@@ 46
275 46
2m 46
3-0@@ 46
32-@@ 46
32/@@ 46
33-@@ 46
338@@ 46
349 46
35-41 46
384 46
408 46
409 46
40cm 46
411@@ 46
434@@ 46
525@@ 46
552 46
6-8 46
6. 46
607 46
7mm 46
806@@ 46
820@@ 46
ar18@@ 46
bandai@@ 46
batman 46
bella 46
brembo 46
bro@@ 46
brush 46
colors 46
dionysus 46
diva's 46
edc 46
edifice 46
ek@@ 46
evo@@ 46
fendi@@ 46
flyknit@@ 46
g2 46
gazelle 46
gh 46
gla@@ 46
hf 46
hola 46
il@@ 46
j1 46
jt 46
kikilala 46
kiwi 46
kw 46
kyosho 46
lai@@ 46
mavic 46
mm-@@ 46
mq@@ 46
mw 46
nn 46
olive 46
origins 46
oz/@@ 46
park 46
people 46
prada/ 46
qasa 46
r7 46
rain@@ 46
real@@ 46
rg 46
rich 46
s&@@ 46
sg 46
spf50+ 46
t1 46
t6@@ 46
toms 46
val@@ 46
vans万 46
vol@@ 46
x12 46
x21 46
x]@@ 46
xy@@ 46
ying 46
zoe 46
zy@@ 46
★现货 46
ふ@@ 46
カ 46
ク 46
下册 46
专场 46
临@@ 46
丶 46
乘 46
习 46
二手) 46
交易 46
亮亮 46
任选) 46
份@@ 46
伊丽莎白 46
体脂 46
光头 46
公民 46
养颜 46
内部 46
冰柜 46
凉拖鞋 46
切割器 46
切换 46
发泄 46
只) 46
名人 46
君子 46
吸睛 46
哆@@ 46
哈密瓜 46
哩 46
回礼 46
图样 46
墨西哥 46
大卫 46
大野 46
奔腾 46
奢侈品 46
女婴 46
女帽 46
女段 46
姊姊 46
子长 46
字幕 46
安抚巾 46
宝格 46
审@@ 46
容易 46
小卡@@ 46
小楷 46
小球 46
尺寸@@ 46
屯 46
巷@@ 46
帐@@ 46
干裂 46
弧@@ 46
彩带 46
怀孕 46
感光 46
感应器 46
才@@ 46
打孔机 46
折叠凳 46
护发膜 46
拉长 46
拉长石 46
挖掘机 46
捉 46
捣蒜 46
揪 46
搜@@ 46
搜寻 46
撕@@ 46
教科书 46
方程式 46
旅行用 46
时报 46
明亮 46
晋 46
晕 46
晨光 46
晶石 46
月份 46
服贴 46
札@@ 46
权@@ 46
束发带 46
果绿 46
枣@@ 46
柳丁 46
标) 46
桌灯 46
档@@ 46
梭织 46
橄榄绿 46
次) 46
欢喜 46
氧@@ 46
泄 46
消费 46
淘气 46
湿气 46
漏勺 46
澡盆 46
灾 46
热狗 46
焖烧 46
爽身粉 46
珀@@ 46
珪 46
用电 46
癌 46
白花 46
磨刀 46
秀气 46
税@@ 46
穿越 46
突@@ 46
笑笑 46
类似 46
粉红@@ 46
纶 46
绯@@ 46
缤@@ 46
羞@@ 46
翘板 46
耶 46
聚光 46
背负式 46
膨胀 46
膳@@ 46
航模 46
船锚 46
艾米粒 46
花型 46
螺旋@@ 46
行星 46
衣. 46
裆 46
证) 46
调味品 46
贴心 46
贼 46
车箱 46
软膜 46
边毯 46
迎 46
醇@@ 46
铁灰色 46
错@@ 46
门门 46
队服 46
阴毛 46
附送 46
韩超 46
颗@@ 46
飞盘 46
魔神 46
鲜食 46
麂皮绒 46
黎@@ 46
"[@@ 45
(二@@ 45
(台中 45
(银 45
-15 45
/5 45
1.25 45
1080 45
11/11 45
130g 45
139@@ 45
2. 45
2.4a 45
226 45
243 45
285 45
3-100 45
3.3 45
305@@ 45
321 45
415@@ 45
5547@@ 45
60/@@ 45
675@@ 45
6x@@ 45
709 45
780 45
90/@@ 45
9789869@@ 45
aero 45
ain 45
arduino 45
arts 45
b00@@ 45
be@rbrick 45
bit 45
blade 45
buy@@ 45
bz@@ 45
b赏 45
coin 45
d5@@ 45
e/@@ 45
e5@@ 45
easy@@ 45
eb@@ 45
ec 45
egg 45
emilie 45
epsom 45
f30 45
fac@@ 45
fendi/ 45
g+@@ 45
gb/@@ 45
gti 45
gunze 45
harden 45
heat 45
heritage 45
hl 45
hol@@ 45
if@@ 45
ini 45
ion 45
j4@@ 45
jun 45
let@@ 45
m-5xl 45
m. 45
m435@@ 45
march 45
mart 45
mazda@@ 45
mbs 45
mis@@ 45
ml574 45
nerf 45
nillkin 45
onitsuka 45
panerai沛纳海 45
paul& 45
pilot百 45
ping 45
ple@@ 45
pooh 45
ros 45
rpm 45
s'@@ 45
sakura 45
se/@@ 45
simba 45
sse 45
t3 45
tic 45
tonymoly 45
t恤百 45
t连 45
ub@@ 45
v10 45
walker 45
westwood 45
xs/@@ 45
xv 45
yan@@ 45
yun 45
¥@@ 45
ᅩ 45
─ 45
┃@@ 45
▷蔡 45
✦ 45
专供 45
专注 45
主板 45
乳牛 45
亦@@ 45
产业 45
人造@@ 45
仪表板 45
企管 45
伍@@ 45
体积 45
佳品 45
侬侬 45
保温壶 45
保留) 45
俱 45
偏远 45
全家福 45
冲击钻 45
凛@@ 45
凝冻 45
分体式 45
利率 45
制作@@ 45
刷) 45
剥@@ 45
功放 45
包.@@ 45
卡套 45
印泥 45
古玩 45
古驰 45
只能 45
各类 45
吸铁石 45
吸音 45
咖啡因 45
哈哈 45
啰@@ 45
器械 45
因为 45
垫圈 45
壳) 45
外衣 45
大沿 45
大米 45
大逃杀 45
大马士革 45
奈米@@ 45
娃娃@@ 45
嫣 45
实木@@ 45
家◁ 45
宸 45
尊@@ 45
小丸 45
小头 45
小户 45
小鹿斑比 45
屑@@ 45
山羊 45
师大 45
开放 45
弱 45
得意 45
性价比 45
患 45
愈小 45
手工艺品 45
抗氧化 45
护罩 45
报警 45
拧 45
拳击手套 45
挖土机 45
捕@@ 45
提琴 45
收银机 45
斑点 45
旷野 45
暂 45
更@@ 45
板架 45
格林 45
框) 45
棋@@ 45
模块 45
水盆 45
沙盘 45
泡汤 45
滋味 45
滑地 45
漂移 45
演讲台 45
爷爷 45
物) 45
物袋 45
特技 45
狂野 45
玧其 45
玮@@ 45
球星 45
画本 45
白纱 45
白起 45
百宝箱 45
皿 45
目前 45
相框 45
睫 45
矿泉水 45
磨刀石 45
科克兰 45
积雪草 45
立即 45
符号 45
等) 45
米缸 45
纸质 45
细胞 45
绿豆 45
缇嘉 45
聚财 45
肌底 45
肝 45
肩颈 45
艾灸@@ 45
苔藓 45
药局 45
营养@@ 45
薄膜 45
蜜妮 45
衣夹 45
装甲 45
西雅图 45
观光 45
解题 45
议价: 45
负重 45
软性 45
连接器 45
金泰亨 45
镜箱 45
长毛 45
闪烁 45
隐扣 45
领针 45
飙@@ 45
饰) 45
骑士队 45
高频 45
魔芋 45
鲸 45
黄) 45
黄绿 45
黏胶 45
(n@@ 44
(亮 44
(现 44
(米 44
-22 44
0.8 44
1-100 44
1-5@@ 44
14) 44
14.5 44
17) 44
1x 44
218@@ 44
22-@@ 44
229 44
3.0@@ 44
334 44
335@@ 44
345 44
362 44
367 44
37-@@ 44
3kg 44
4-0@@ 44
4.2 44
4d@@ 44
4xl 44
570 44
6.6 44
670@@ 44
777 44
799 44
80/@@ 44
816 44
830@@ 44
aa3@@ 44
alo@@ 44
asus@@ 44
balance新百 44
bow@@ 44
bred 44
c2 44
campus 44
cube 44
dance 44
dark 44
db 44
die@@ 44
din@@ 44
dm-@@ 44
dp@@ 44
dre@@ 44
ear 44
ear@@ 44
fast 44
fifty 44
gio 44
hop 44
hybrid 44
i7-@@ 44
ito 44
iv@@ 44
joyride 44
juice 44
klein@@ 44
marjorie 44
miu@@ 44
ml*2 44
monkey 44
oni@@ 44
p20@@ 44
pa++ 44
peach 44
qw@@ 44
rabbit 44
ray@@ 44
s10@@ 44
say 44
stay 44
strap 44
switch@@ 44
t10 44
t6 44
thom 44
tiida 44
w204 44
why&1/2 44
wow 44
wx@@ 44
x_plr 44
y9@@ 44
yves 44
∣ 44
▸@@ 44
❖@@ 44
ら@@ 44
シ 44
一对一 44
丞@@ 44
丢@@ 44
串串 44
些 44
人人 44
人民 44
仙鹤 44
代理@@ 44
使@@ 44
促销@@ 44
保暖@@ 44
偷窥 44
光控 44
光源 44
克里里 44
兔兔@@ 44
冬日 44
净肤 44
出生 44
凿 44
刮刮 44
剁 44
办@@ 44
功能@@ 44
包户 44
化机 44
南方 44
卡子 44
原住民 44
去毛 44
取) 44
变化 44
变成 44
变速箱 44
古堡 44
台下 44
咕叽 44
品木 44
哪 44
围嘴 44
地铁 44
墬 44
壹字 44
处理器 44
夹心饼干 44
妤@@ 44
妮子 44
孝@@ 44
安装) 44
实际 44
宥@@ 44
家具城 44
封闭式 44
小和尚 44
小时候 44
小毛巾 44
小物@@ 44
小豆 44
小香@@ 44
属于 44
岁) 44
工坊@@ 44
巫师 44
带) 44
席@@ 44
平板电脑 44
康宁 44
引体向上 44
彩印 44
彩妆@@ 44
怀@@ 44
悦@@ 44
感觉 44
房门 44
手串 44
手机@@ 44
批发@@ 44
抽水器 44
拆售 44
挎@@ 44
挑色 44
挡泥板 44
排风扇 44
文昌 44
方圆 44
晨曦 44
替代 44
服务员 44
木椅 44
本月 44
杂货) 44
条形 44
柑@@ 44
柔肤 44
标本 44
案@@ 44
棉纱 44
楦@@ 44
樟@@ 44
模特儿 44
每天 44
永和 44
油脂 44
浩@@ 44
润发 44
清洁@@ 44
湖南 44
漫游 44
灭菌 44
烛@@ 44
烟酰胺 44
煤@@ 44
熨衣 44
熨衣板 44
猎 44
生化 44
画布 44
登山杖 44
稻 44
竞赛 44
篮球架 44
糯米 44
纽@@ 44
终结 44
绕@@ 44
绽放 44
缺@@ 44
羊毛衫 44
美金 44
脚踏式 44
脱落 44
臂力 44
自动@@ 44
舌头 44
艾莉丝 44
芦洲 44
茶艺 44
莎莎 44
落叶 44
葵@@ 44
薯@@ 44
虹@@ 44
蜂箱 44
衣舖 44
角钢 44
记号 44
课桌椅 44
贝蒂 44
财运 44
贱 44
软膏 44
软骨 44
过夜 44
送给 44
速器 44
遥 44
邮政 44
重点 44
金光 44
金沙 44
金龙 44
铁道 44
铜线 44
防护网 44
阴影 44
阻 44
陪 44
鞋) 44
韦 44
飞沫 44
验@@ 44
魔兽 44
ｓ@@ 44
"#@@ 43
#1 43
#3 43
$新品 43
(gs) 43
(黄) 43
---- 43
-28 43
/g@@ 43
0.0 43
0.6 43
10% 43
1166@@ 43
137@@ 43
193 43
196 43
2400 43
266 43
278@@ 43
288 43
30日 43
311@@ 43
328 43
41-@@ 43
4ml 43
70/@@ 43
707 43
718 43
875@@ 43
8plus/@@ 43
928 43
991 43
9m 43
@秒 43
aka 43
arden 43
armani@@ 43
axis 43
ba-@@ 43
boots 43
brita 43
camera 43
chimei 43
city@@ 43
constance 43
ct-@@ 43
cut 43
d7@@ 43
doll@@ 43
dou 43
dsq 43
elantra 43
eng@@ 43
evisu 43
excelsior 43
fen 43
gam@@ 43
hand 43
hao@@ 43
hugo 43
icon 43
ie 43
iphone6/6s 43
iphone6plus 43
iphonexr 43
jt@@ 43
ker 43
ks@@ 43
limited 43
lon 43
lotto 43
master@@ 43
mate20 43
mcq 43
medium 43
mercedes 43
monsta 43
mv 43
nina 43
nr-@@ 43
oa 43
ram@@ 43
rd 43
rilakkuma拉拉 43
rm@@ 43
roxy 43
s+ 43
s-l 43
s8+@@ 43
shark 43
sim@@ 43
swingman 43
t" 43
tape 43
tg 43
tru@@ 43
unt 43
uv400 43
v6 43
vomero 43
wb 43
wk@@ 43
wwe 43
y/ 43
z4 43
{{ 43
ᅵ 43
●@@ 43
◣@@ 43
☚ 43
♚\ 43
♚北美 43
〖@@ 43
マ@@ 43
ミ@@ 43
一壶 43
丈 43
下杀&@@ 43
义大利@@ 43
今@@ 43
仓储 43
代谢 43
佩奇 43
供应) 43
停车牌 43
全书 43
全长 43
公式 43
公益 43
冢虎 43
几何图形 43
分解 43
切菜板 43
刮痕 43
动漫@@ 43
勃肯 43
北美 43
匣 43
午安 43
卡尺 43
印第安 43
卷心 43
双) 43
双杠 43
叠@@ 43
口袋@@ 43
可能 43
台东 43
呎 43
员@@ 43
品# 43
品名 43
品茗杯 43
嘎@@ 43
回来 43
因@@ 43
国棉 43
地缚 43
域@@ 43
埠 43
夏凉 43
多样 43
大幅 43
大鱼 43
天蓝色 43
头牌 43
奇兵 43
妇幼 43
媛 43
存放 43
学生装 43
封条 43
小票 43
徕@@ 43
怀 43
恨 43
想想 43
成形 43
扬声器 43
拌面 43
拳套 43
接触 43
收购 43
斐 43
新色 43
旅程 43
月球 43
有间 43
查理布朗 43
梓@@ 43
椰子油 43
橱@@ 43
氧气 43
汤姆福特 43
治疗 43
泉水 43
泪@@ 43
洁肤 43
流行色 43
测试仪 43
游标卡尺 43
澎@@ 43
炉子 43
烟嘴 43
焊@@ 43
焗@@ 43
煮@@ 43
爱马仕@@ 43
牡丹花 43
猫薄荷 43
珈@@ 43
珠帘 43
甘草 43
甲壳 43
电笔 43
矿物质 43
称@@ 43
稿 43
空气@@ 43
窗花 43
童装@@ 43
经书 43
网咖 43
置地 43
美版 43
肩部 43
腹@@ 43
自卫 43
自取) 43
舒丹 43
蒲 43
薄饼 43
藕色 43
蝉 43
衣帽钩 43
裸睡 43
誉 43
诱@@ 43
购物@@ 43
足贴 43
跨@@ 43
车尾 43
辰@@ 43
这@@ 43
迷你@@ 43
逸@@ 43
逻辑 43
野马 43
钉子 43
钢弹 43
铜管 43
铭@@ 43
铸 43
门板 43
防噪音 43
陌@@ 43
青铜 43
靴男 43
顺畅 43
香氛@@ 43
鱼儿 43
鲸@@ 43
鳕鱼 43
鹅@@ 43
麦芽 43
黏贴@@ 43
黑芝麻 43
ｔ 43
"可 42
#7@@ 42
#可 42
(i@@ 42
(出清 42
(勿 42
(女 42
(正版 42
-08 42
.9 42
/nike 42
1-1 42
1001 42
102@@ 42
12.3 42
13.@@ 42
1500@@ 42
16吋 42
1700 42
194 42
2.6 42
217 42
248 42
2d 42
312@@ 42
3200 42
332 42
338 42
369@@ 42
3e 42
3x@@ 42
42-@@ 42
460@@ 42
498 42
4x 42
5.7 42
55-@@ 42
555@@ 42
5xl 42
6.2 42
60x 42
7/7@@ 42
armani/ 42
bir@@ 42
brick 42
bun@@ 42
cd+@@ 42
cha 42
ching 42
cob 42
col@@ 42
c纹 42
days 42
doo@@ 42
e) 42
edwin 42
elf 42
elizabeth 42
energy 42
f3 42
fate/@@ 42
fine 42
forever21 42
friend 42
gildan 42
goose 42
ham@@ 42
hud 42
it's 42
j3 42
j4 42
k3@@ 42
kc@@ 42
kf@@ 42
les@@ 42
m/ 42
m612@@ 42
mate10 42
mate30 42
melissa 42
mesh 42
ml. 42
mom 42
mono 42
m~@@ 42
now 42
odyssey 42
opi 42
orange 42
pa++++ 42
pf@@ 42
port 42
r/@@ 42
redmi 42
res 42
shot 42
show@@ 42
sneaker@@ 42
stephen 42
suit 42
supreme@@ 42
sz@@ 42
t8 42
tenga 42
tiguan 42
tiny 42
tta 42
tx@@ 42
u12 42
ung 42
v11 42
voyage 42
w8 42
what 42
wonder 42
wt@@ 42
xl-@@ 42
xmart 42
ᆫ 42
ᆫ@@ 42
├@@ 42
う@@ 42
る@@ 42
レ 42
丁香 42
上学 42
中青年 42
书_ 42
二手车 42
仕皮带 42
代客 42
任务 42
健身器 42
储物 42
克力立牌 42
养蜂 42
决@@ 42
凉感@@ 42
加重 42
化石 42
占@@ 42
卡斯@@ 42
发根 42
发蜡 42
受损 42
口味) 42
口琴 42
可) 42
可梦 42
可穿) 42
吉他@@ 42
吉他弦 42
名画 42
呀 42
周杰 42
咩咩 42
哨 42
器皿 42
坏@@ 42
埋 42
处女 42
外文 42
大v 42
大和 42
大麦 42
天王 42
头短 42
妇@@ 42
安然 42
宪 42
小天使 42
小天鹅 42
小羊皮 42
小钢炮 42
干货 42
康复 42
异端 42
彩蛋 42
徒 42
念佛 42
怀表 42
恒久 42
悬@@ 42
手表@@ 42
打光 42
损@@ 42
接收 42
描金 42
揹带 42
搬运车 42
救生衣 42
敢 42
旋钮 42
晨@@ 42
暖炉 42
机上 42
机工 42
杓 42
查理 42
桌游 42
桐@@ 42
橄榄@@ 42
毛茸茸 42
汉字 42
沙拉@@ 42
油) 42
泛@@ 42
洗手乳 42
涂色 42
清夜 42
渊 42
湿控 42
溜@@ 42
滋补 42
炮@@ 42
炸@@ 42
烘烤 42
照灯 42
猪皮 42
猫猫 42
猿 42
玩具狗 42
环卫 42
瑰@@ 42
生鲜 42
电吹风 42
男t恤 42
白米 42
相关 42
瞳@@ 42
矮@@ 42
码器 42
砖@@ 42
破裂 42
磨砂膏 42
祛@@ 42
神脑 42
禁止 42
租@@ 42
积@@ 42
第八 42
篆刻 42
粉底霜 42
粉灰 42
素雅 42
纤长 42
纯净水 42
绿色) 42
老花眼镜 42
肚@@ 42
肛门 42
肤露 42
胎盘 42
胭脂 42
膜) 42
色块 42
色调 42
花仙子 42
茶室 42
菱@@ 42
蓝天 42
薏仁 42
褪色 42
西柚 42
贡缎 42
跟着 42
车型 42
车组 42
转生 42
轮椅 42
达人@@ 42
运☆ 42
连线@@ 42
适配 42
逃@@ 42
通通 42
道会 42
那些 42
里面 42
金币 42
铁路 42
锹 42
问@@ 42
闷 42
阿拉@@ 42
阿曼尼 42
阿里山 42
院@@ 42
雅痞 42
青花 42
鞋凉 42
音符 42
预防 42
颈圈 42
频道 42
颜霜 42
骷颅 42
高飞 42
魔女宅急便 42
鲔鱼 42
鹏 42
ｃ@@ 42
ｄ@@ 42
#下杀# 41
(21@@ 41
(40 41
(三@@ 41
(下 41
(原@@ 41
(宅 41
(手 41
(盒装) 41
(绿 41
(预@@ 41
-1a 41
-28@@ 41
........ 41
/b@@ 41
010 41
1+2 41
1/12 41
160g 41
179 41
1c 41
22/@@ 41
221 41
29) 41
2p 41
3.2 41
319 41
368 41
4000@@ 41
410@@ 41
413@@ 41
45/@@ 41
48-@@ 41
4e 41
523@@ 41
8-12 41
803 41
alex 41
b7@@ 41
banpresto 41
bhm 41
bu 41
c&@@ 41
cab@@ 41
cal 41
cc-@@ 41
cci 41
cd-@@ 41
couture 41
d+@@ 41
daisy 41
dio@@ 41
e. 41
elsa 41
eri@@ 41
fantasy 41
flow 41
force@@ 41
gen 41
gle@@ 41
gro@@ 41
hal@@ 41
her 41
hw@@ 41
ih 41
ins百 41
just@@ 41
kiki@@ 41
kingston 41
kpu 41
lamigo 41
lanvin 41
lipstick 41
lv-@@ 41
mai@@ 41
mall 41
mar 41
miyuki 41
ml/100 41
moire 41
montaigne 41
moto@@ 41
nasa 41
nc@@ 41
ner 41
nit@@ 41
ozweego 41
peak 41
pf 41
pick 41
pra@@ 41
pro-@@ 41
rayban雷朋 41
re-@@ 41
rh@@ 41
rin@@ 41
shell 41
sigma 41
socks 41
soldier 41
sq 41
th-@@ 41
toto 41
ue 41
v1 41
vuitton/ 41
williams 41
xt@@ 41
x型 41
yourself 41
zenpad 41
zoo@@ 41
๑@@ 41
★限时 41
♕ 41
ち@@ 41
ひ@@ 41
ッ@@ 41
テ@@ 41
ロ 41
七星 41
三孔 41
三峡 41
三段式 41
三环 41
下床 41
不良 41
两瓶 41
书夹 41
书屋 41
乳牙 41
亲自 41
人力 41
会议室 41
低脂 41
侍@@ 41
修眉 41
倾城 41
假人 41
儿时 41
全日 41
公职 41
再见 41
军用 41
制版 41
加速 41
单张 41
博文 41
卷) 41
压力锅 41
压缩机 41
双倍 41
变形虫 41
叫@@ 41
吉/nike 41
吊架 41
同轴 41
名片盒 41
告知 41
咕咕 41
唇笔 41
喇叭@@ 41
塞斯 41
增大 41
士林 41
大底 41
天花板 41
娃@@ 41
婷@@ 41
子. 41
宝儿 41
寒流 41
封膜 41
尊贵 41
小区 41
小文 41
小苍兰 41
小龙 41
屋☆ 41
工作@@ 41
年底 41
底乳 41
弹力@@ 41
当季 41
忘@@ 41
意见箱 41
成本 41
打草 41
批发) 41
抑@@ 41
护腿 41
抬头 41
抵@@ 41
拉筋 41
掌上型 41
攀岩 41
收纳筒 41
攻击 41
教师节 41
新潮 41
旱冰 41
月牙 41
有缘 41
望@@ 41
机械@@ 41
材质: 41
杠铃 41
极地 41
柔滑 41
柯瑞 41
标记 41
梯@@ 41
款款 41
毛巾@@ 41
汀@@ 41
沥@@ 41
涂装 41
消防@@ 41
淳@@ 41
炎@@ 41
热销) 41
燕麦片 41
爱玛仕 41
牙器 41
牛仔@@ 41
物美 41
狼牙 41
猩猩 41
献 41
玉米@@ 41
玫瑰色 41
珍珠粉 41
生酮 41
用车 41
申 41
电子@@ 41
画像 41
畔 41
白条 41
白菜 41
白蜡 41
百科@@ 41
盲 41
矽灵 41
碟@@ 41
笔电 41
管理@@ 41
米茄@@ 41
紫藤 41
红萝卜 41
纪念册 41
细条纹 41
绿化 41
肠@@ 41
肤霜 41
胶片 41
胶膜 41
胸肌 41
脸型 41
芋@@ 41
芥@@ 41
草皮 41
药材 41
菲拉格慕 41
落地窗 41
葡萄柚 41
蕙@@ 41
蚕 41
蛤蟆 41
融 41
蟾蜍 41
行) 41
裂纹 41
褐@@ 41
详解 41
质地 41
资料架 41
路卡 41
遮风 41
酷酷 41
金银花 41
金门 41
钥匙@@ 41
镯子 41
附小 41
限量@@ 41
霏慕 41
韩东 41
韶涵 41
香粉 41
马克@@ 41
驼@@ 41
高蛋白 41
鸭舌 41
黑豹 41
龙眼 41
#秒 40
(150 40
(9@@ 40
(中文版) 40
(售 40
(第二 40
(美国 40
-adidas 40
-w@@ 40
/s 40
1.00 40
125g 40
18mm 40
1900 40
2-001 40
2004 40
2006年 40
2010年 40
213 40
215@@ 40
273 40
3.7v 40
304@@ 40
318 40
36--44 40
368@@ 40
388 40
407 40
5.8 40
5v@@ 40
5w@@ 40
9-001 40
907 40
960@@ 40
9789866@@ 40
acg 40
aj12 40
alano 40
amiibo 40
anello 40
ar-@@ 40
atomy 40
balmain 40
big@@ 40
cd+dvd 40
cell 40
choker 40
cicily 40
clear 40
crossbody 40
d/ 40
damier 40
discovery 40
ei 40
er/ 40
exchange 40
eyeshadow 40
fy 40
gri@@ 40
h&@@ 40
h7@@ 40
hepa 40
hh@@ 40
hip 40
integrate 40
island 40
jen@@ 40
jl 40
lbj@@ 40
led灯 40
lee@@ 40
let 40
lli@@ 40
loop 40
lou 40
ltd 40
mah@@ 40
mid@@ 40
moonstar 40
mx 40
note4x 40
ong 40
osmo 40
pentel 40
puku 40
r11@@ 40
reading 40
ren 40
rucksack 40
sc-@@ 40
sense 40
sheturwx881 40
smart@@ 40
snapback 40
sulwhasoo 40
syn@@ 40
t-arts 40
t韩 40
ure 40
us9 40
use 40
vjr 40
v纹 40
winflo 40
wp@@ 40
xz1 40
yuri 40
zen 40
ღ唯一 40
ᅡ@@ 40
✰@@ 40
ヒ@@ 40
七号 40
万用表 40
三叶 40
且 40
中原 40
之钥 40
乳清蛋白 40
享受 40
代) 40
仪式 40
伴@@ 40
侦测 40
倒翁 40
停@@ 40
健身车 40
光华 40
克) 40
公交 40
兼 40
删减 40
剩@@ 40
十字@@ 40
南洋 40
卡牌 40
卿 40
双开 40
双龙 40
发发 40
发电 40
另@@ 40
台阶 40
唇部 40
喜爱 40
团购 40
国中 40
均衡 40
坦 40
大声 40
安安 40
宰 40
小火 40
小白兔 40
巅峰 40
巫婆 40
庆典 40
店☆ 40
开水 40
彻 40
慰器 40
成语 40
扎染 40
抠 40
抹@@ 40
拉货 40
拿@@ 40
挂锁 40
掉@@ 40
排骨 40
握@@ 40
摩天 40
新式 40
新机 40
旋@@ 40
日子 40
日晒 40
有弹性 40
木箱 40
本式 40
本草 40
机座 40
染色剂 40
栈@@ 40
桂格 40
棱@@ 40
款/@@ 40
正牌 40
步摇 40
武海 40
氛 40
水解 40
清洁工具 40
游泳裤 40
澄 40
炖 40
烊千玺 40
烟管 40
烹饪 40
焙 40
爆款# 40
爬梯 40
爬藤 40
独家❀ 40
独立筒 40
玉兰 40
王牌 40
玩具枪 40
玩物 40
现货✪ 40
电弧 40
男中 40
男篮 40
百货☆ 40
真心 40
短袖@@ 40
石磨 40
硕@@ 40
磨砂玻璃 40
神灯 40
章) 40
童床 40
童裤 40
笔笔 40
籐@@ 40
红款 40
纸筒 40
纾压 40
缠@@ 40
老姜 40
脚印 40
脱水 40
脸盆架 40
舒柔 40
色版 40
芬迪@@ 40
花椒 40
花蜜 40
苗@@ 40
范儿 40
茗 40
荡 40
萨克斯 40
葡萄干 40
蒂蒂 40
补习 40
裴 40
视听 40
解锁 40
详@@ 40
详细 40
貂@@ 40
贩@@ 40
赖@@ 40
超微 40
车票 40
辣椒酱 40
还愿 40
避 40
酥油 40
酥油灯 40
铁片 40
铝膜 40
铱 40
铺) 40
长耳 40
闺蜜@@ 40
防盗门 40
防窥 40
陆龟 40
露得清 40
青山 40
青鸟 40
靠椅 40
面巾 40
鞋# 40
鞋潮 40
领花 40
饲@@ 40
饲养 40
馆★ 40
香吉士@@ 40
马靴 40
驾驶证 40
驿站 40
ｘ@@ 40
"※ 39
(32@@ 39
(739) 39
(90@@ 39
(三色 39
(上@@ 39
(普卡) 39
(正品) 39
(深 39
(纯 39
-012 39
-36 39
.8 39
/m@@ 39
0002 39
1.7 39
1/7 39
1002 39
1109 39
12-18m 39
120/@@ 39
13.5 39
14k金 39
16cm 39
180g 39
2" 39
2-3-@@ 39
25.5 39
27cm 39
28mm 39
2kg 39
31-@@ 39
355@@ 39
356 39
35g 39
364 39
373 39
4-6 39
40) 39
40x@@ 39
45*@@ 39
456 39
487 39
48v 39
4x@@ 39
640 39
75g 39
8s 39
^臻 39
_o@@ 39
a18@@ 39
agv 39
aki 39
ao3108-@@ 39
ard 39
bat@@ 39
blythe 39
bounce 39
bow 39
bridge 39
bright 39
browne 39
cam 39
charlotte 39
cm- 39
coleman 39
cri@@ 39
curry@@ 39
d& 39
d&@@ 39
dg@@ 39
dia 39
duo@@ 39
ella 39
ery 39
flap 39
frozen 39
g&g 39
gla 39
gx2 39
gym 39
hiphop 39
hor@@ 39
i7plus 39
ignite 39
instax 39
jay@@ 39
jw 39
kinaz 39
l'oreal 39
lai 39
lock@@ 39
luxgen 39
m-j 39
m-xx@@ 39
m616@@ 39
mark@@ 39
med 39
messenger 39
mfi 39
mine 39
mini2 39
mmx@@ 39
mus@@ 39
niki 39
nuk 39
panda 39
panerai 39
performance 39
platinum 39
pod 39
rf 39
ria 39
rl@@ 39
s-3xl 39
solution 39
standard 39
tag 39
taito 39
tim 39
tra 39
tu 39
u.@@ 39
under@@ 39
visee 39
wang@@ 39
wel@@ 39
wind 39
ybw 39
ysl@@ 39
◢ 39
〗@@ 39
ウ@@ 39
㊣➋ 39
万用@@ 39
三节 39
不断 39
中低 39
主厨 39
乖乖 39
事件 39
五彩 39
人偶 39
价款 39
俐 39
偏小 39
儿子 39
充头 39
免烫 39
八宝 39
公牛队 39
军风 39
凹 39
刨冰 39
削皮器 39
半透 39
卧式 39
即时 39
压条 39
厨柜 39
反复 39
发饰品 39
古巴特 39
古曼 39
古驰@@ 39
句 39
号/@@ 39
吊环 39
品种 39
喝茶 39
四分 39
回) 39
回旋 39
圈) 39
地板@@ 39
夺 39
奏 39
奖牌 39
套环 39
存卡 39
孩童 39
守护神 39
安德玛@@ 39
宝宝@@ 39
实习 39
家具店 39
家里 39
对话 39
小提 39
小松 39
小舖- 39
尝 39
就@@ 39
尿盆 39
崇 39
带走 39
干燥剂 39
平顶 39
年节 39
底托 39
弧 39
总统 39
我# 39
托运 39
折刀 39
折叠@@ 39
抛@@ 39
护甲 39
拉姆 39
拉环 39
拳@@ 39
捂 39
授 39
搞定 39
撑杆 39
擕式 39
擦车 39
散货 39
文) 39
有声 39
期: 39
柜橱 39
株 39
样品 39
档板 39
梅森 39
款.@@ 39
正面 39
死侍 39
水果@@ 39
法律 39
注意 39
洗剂 39
洗浴 39
浆@@ 39
浸@@ 39
混凝土 39
游艇 39
漩涡 39
烙 39
烟具 39
烟花 39
烟雾 39
煮饭 39
煲汤 39
版v 39
版型 39
版日 39
版衣 39
牌手 39
特价: 39
环游 39
现货#@@ 39
珊@@ 39
珍爱 39
甜筒 39
电子钟 39
电影票 39
疤@@ 39
白色) 39
省@@ 39
短柄 39
硬挺 39
科大 39
竖@@ 39
符@@ 39
米诺@@ 39
索尔 39
紫蓝 39
约翰 39
纸牌 39
细腰 39
络 39
罗利 39
美洲 39
美肤 39
耐吉 39
胡萝卜 39
脏污 39
舖"@@ 39
艇 39
花粉 39
荞@@ 39
莓果 39
菁英 39
菓子 39
蕉@@ 39
袋鼯 39
装裱 39
裤.@@ 39
裤潮 39
裱@@ 39
解答 39
询问) 39
赢 39
踢@@ 39
连帽@@ 39
逊 39
野蛮 39
量子 39
金属色 39
钥 39
铜色 39
银灰色 39
长城 39
闹 39
防磁 39
阿姨 39
雨具 39
雾霾 39
霍@@ 39
鞋袜 39
食品@@ 39
马力欧 39
鱼片 39
鸡尾酒 39
麦田 39
黑花 39
ｎ@@ 39
#2 38
(二手@@ 38
(深@@ 38
(适合 38
(降价) 38
*5 38
-09 38
-2a 38
.lv 38
.nike 38
0-3@@ 38
0.38 38
1000g 38
1101 38
175@@ 38
1a@@ 38
2008年 38
21-@@ 38
214 38
22*@@ 38
224@@ 38
259 38
261 38
26mm 38
282 38
288@@ 38
306@@ 38
313@@ 38
329 38
353 38
36/@@ 38
375 38
398@@ 38
4.3 38
45-@@ 38
453 38
5200 38
60mm 38
70s 38
790@@ 38
7c 38
870@@ 38
922 38
955 38
9cm 38
9g 38
[p@@ 38
aj7@@ 38
ance 38
app@@ 38
ay 38
b2 38
bang 38
bbq 38
blossom 38
bold 38
bul@@ 38
bus 38
casio@@ 38
cher@@ 38
cle 38
daiso 38
dimotiv 38
doraemon 38
eco@@ 38
epoch 38
feel 38
fiesta 38
fila@@ 38
fn@@ 38
fx 38
g1@@ 38
grandline 38
grip 38
h7 38
h8@@ 38
hat 38
hd-@@ 38
hello@@ 38
hl@@ 38
infinity 38
inter@@ 38
jtc 38
k6 38
karl 38
l- 38
live@@ 38
louis@@ 38
ma-1 38
matte 38
meier.q 38
ment 38
mk32@@ 38
mk8@@ 38
mothercare 38
mountain 38
mu 38
nct 38
non 38
ot 38
ox@@ 38
pa+++@@ 38
palm 38
pen 38
peter 38
pho@@ 38
place 38
playmobil 38
pliage 38
que 38
ra-@@ 38
rcp 38
retro@@ 38
rit@@ 38
sar@@ 38
sas@@ 38
shop" 38
shu@@ 38
skii 38
sn 38
snidel 38
solo@@ 38
splus 38
stuart 38
sx 38
t9@@ 38
tac@@ 38
tan 38
t男女 38
ub 38
ufo 38
ultimate 38
und@@ 38
ure@@ 38
v4 38
v60 38
viral 38
vogue 38
vuitton@@ 38
v脸 38
w0@@ 38
wi-fi 38
xbox360 38
xc 38
xf@@ 38
yellow 38
yoga 38
y型 38
zne 38
zo 38
zx700 38
ℊℴℴ₫ 38
∮ 38
☜@@ 38
タ 38
ㄧ字 38
一下 38
一切 38
万事 38
三越 38
世勋 38
主线 38
举重 38
乐芬 38
乳霜@@ 38
争 38
亚克力@@ 38
伊姆斯 38
伦裤 38
便鞋 38
充充电 38
免持 38
入手 38
冉 38
到期 38
割@@ 38
努@@ 38
包女 38
千斤顶 38
印记 38
卸@@ 38
口头 38
召唤 38
合金钢 38
名著 38
咖啡粉 38
哑@@ 38
哺 38
啾 38
园丁 38
固定式 38
地下 38
增量 38
士顿 38
外框 38
大哥大 38
大盘 38
天坛 38
夹具 38
套潮 38
妳]☆ 38
客订@@ 38
导演 38
小帽 38
小房子 38
小玩意 38
小苍 38
屋) 38
展柜 38
山本@@ 38
岱@@ 38
崴 38
左旋 38
帮助 38
干胶 38
平均 38
平装 38
年糕 38
床褥 38
底价 38
弹片 38
录像 38
徐@@ 38
德玛库里 38
心跳 38
情境 38
护脚 38
拐 38
择 38
拼盘 38
挡@@ 38
挺@@ 38
换新 38
掌握 38
描@@ 38
擦擦 38
敌 38
新人 38
方凳 38
方型 38
明星赛 38
晃 38
暴风 38
曼尼@@ 38
曼秀雷敦 38
有人 38
术@@ 38
果子 38
棉绒 38
棒垒球 38
棚@@ 38
槽@@ 38
款. 38
水中 38
沙滩椅 38
油器 38
波波 38
湿乳 38
湿洗 38
滑冰鞋 38
滚滚 38
瀑布 38
焕白 38
煤气灶 38
牧马 38
生物学 38
电热水器 38
白霜 38
皂模 38
皮) 38
短t@@ 38
矶 38
确认) 38
磨头 38
穹 38
童男 38
端午 38
竹木 38
米/@@ 38
米粉 38
粉条 38
精华乳 38
精彩 38
糕@@ 38
纠@@ 38
红米@@ 38
纪念币 38
绊 38
网上 38
老光 38
肉球 38
肖@@ 38
肥料 38
肩膀 38
胸衣 38
腕@@ 38
自封 38
自选 38
色笔 38
艾米@@ 38
芭乐@@ 38
花店 38
花灯 38
苍兰 38
茄@@ 38
菈@@ 38
蒂芬@@ 38
蕃茄 38
蕙 38
袋. 38
视镜 38
触控式 38
讨@@ 38
识@@ 38
详阅 38
豆花 38
象棋 38
贝贝@@ 38
路虎 38
运费@@ 38
返@@ 38
远端 38
逐 38
配件@@ 38
酮 38
酷奇@@ 38
重计 38
金证@@ 38
铁艺@@ 38
铂@@ 38
银光 38
银币 38
键盘膜 38
附带 38
陈列柜 38
陪伴 38
雅轩 38
雷姆@@ 38
霓净思 38
霸王龙 38
顶尖 38
风量 38
飘飘 38
香道 38
驴@@ 38
驾驶镜 38
高容量 38
鬼怪 38
鱼池 38
鲍@@ 38
鼓风机 38
"i@@ 37
&co 37
(0 37
(1000 37
(12@@ 37
(一@@ 37
(居家家) 37
(无@@ 37
(绿色) 37
(需 37
-32 37
018 37
0w 37
1/4@@ 37
1100@@ 37
1234 37
15x@@ 37
166@@ 37
179@@ 37
1980 37
1995 37
2007年 37
2015@@ 37
20w 37
251 37
272 37
2c 37
35/@@ 37
350ml 37
377 37
382 37
3c] 37
4+@@ 37
425 37
440 37
46-@@ 37
55/@@ 37
5千 37
630@@ 37
6x 37
70cm 37
8+@@ 37
822@@ 37
890 37
8x@@ 37
90*@@ 37
992 37
a/ 37
aero@@ 37
age@@ 37
aid 37
airpods@@ 37
ane 37
ani 37
ar17@@ 37
ash@@ 37
astone 37
avene 37
ba-110 37
ber 37
best@@ 37
blush 37
bobo@@ 37
butterfly 37
c6 37
c9 37
circle 37
date 37
deep 37
desert 37
dl 37
dobe 37
don 37
elmo 37
emma 37
equipment 37
ess 37
essentials 37
f2 37
fancy 37
fd 37
fhd 37
fortis 37
france 37
furyu 37
g7 37
gfriend 37
hb 37
hermes/ 37
hood 37
iphone8/@@ 37
jb@@ 37
jimin 37
jtc-@@ 37
juicy 37
jun@@ 37
k9 37
l1 37
lac@@ 37
lala@@ 37
large 37
line: 37
liquid 37
ln@@ 37
lulu@@ 37
m+ 37
m-3@@ 37
minnie 37
mk5896 37
model@@ 37
momo@@ 37
moshi 37
no.t1 37
ons 37
orbis 37
p) 37
peace 37
pur@@ 37
qm 37
ris 37
road 37
sin 37
sis 37
sos 37
spi@@ 37
stri@@ 37
sur@@ 37
toki 37
t卫 37
t长袖 37
u/@@ 37
uc 37
vac@@ 37
vy 37
wolf 37
wor@@ 37
x8@@ 37
xz2 37
years 37
⋯ 37
│新货 37
╮ 37
☆adidas 37
♤ 37
♫@@ 37
ㄉ 37
一博 37
三能 37
下雨 37
不可@@ 37
不点 37
东南亚 37
严@@ 37
主持 37
九宫 37
今生 37
代用 37
低糖 37
保安 37
保持 37
修改 37
修脸 37
倍@@ 37
公道 37
兴隆 37
冲壶 37
决定 37
分割 37
刨@@ 37
割爱 37
动态 37
勋章 37
包圆 37
包裹 37
华夫 37
单独 37
卖完 37
原汁 37
参考) 37
口感 37
合法 37
呈 37
和谐 37
咏@@ 37
品免运 37
喜舖 37
囍 37
园区 37
国防 37
圆头 37
地平线 37
复刻 37
大脑 37
头顶 37
奇趣 37
套袖 37
奥克斯 37
女t 37
好事 37
姗姗 37
威士忌 37
娜妞 37
媲美 37
子弹头 37
孙@@ 37
安全@@ 37
实感 37
小雪 37
崁灯 37
幕@@ 37
广东 37
广播 37
广角镜 37
店舖 37
开槽 37
影碟机 37
念@@ 37
成熟 37
手表带 37
打包机 37
扫@@ 37
把握 37
抓破 37
抗痘 37
披巾 37
拷贝 37
按摩椅 37
换式 37
插销 37
搂 37
搪瓷 37
文物 37
日系 37
昱@@ 37
普洱 37
期) 37
末@@ 37
条杠 37
柔和 37
柔美 37
标用 37
格纹 37
棉服 37
棕榈 37
槌 37
樟木 37
歌词 37
步骤 37
武装 37
段@@ 37
氨@@ 37
氩 37
江户 37
沸@@ 37
油腻 37
济@@ 37
淡雅 37
湿器 37
湿润 37
溶解 37
滑面 37
滴水 37
澡巾 37
灯眉 37
灰黑色 37
热水 37
热火 37
牛乳 37
物业 37
玖@@ 37
球花 37
瓶盖 37
瓷花瓶 37
用型 37
电池) 37
电路 37
畅销书 37
白皙 37
白鞋 37
百达翡丽 37
皮皮@@ 37
盘组 37
直购 37
相思 37
眉膏 37
真我 37
眼睫毛 37
眼镜@@ 37
硫@@ 37
硬质 37
礼物) 37
神力 37
稳@@ 37
突破 37
窗器 37
童书 37
笛子 37
第4 37
笼@@ 37
米黄 37
粒) 37
粗细 37
糖果屋 37
索尼@@ 37
纱门 37
线衫 37
组. 37
绑腿 37
结帐 37
结晶 37
绢花 37
缴费 37
网架 37
罗勒 37
美眉 37
耀眼 37
考级 37
耍 37
脚丫 37
膳食 37
臀@@ 37
芋头 37
花插 37
茉 37
茶楼 37
茶碗 37
菇@@ 37
葛根 37
蓄 37
蓓 37
蛇@@ 37
蜜粉 37
行政学 37
衍 37
衣饰 37
补习班 37
衫百 37
裸粉 37
襟 37
觉@@ 37
解决 37
训@@ 37
讲台 37
调色盘 37
资材 37
边柜 37
运★ 37
速成 37
配全 37
金钱 37
钓虾 37
铜扣 37
锈@@ 37
锈钢 37
长期 37
门店 37
闻@@ 37
阀门 37
队#@@ 37
随心 37
集团 37
音器 37
风筒 37
饰边 37
饿 37
香槟色 37
马达@@ 37
鱼杆 37
麻麻 37
龙波 37
龙王 37
︵@@ 37
＜@@ 37
"a@@ 36
"│ 36
#下杀 36
#二手 36
(16 36
(g@@ 36
(优 36
(新版) 36
(浅 36
(玫瑰 36
(绿) 36
(韩 36
-26 36
-30 36
-400@@ 36
-v@@ 36
-z@@ 36
0.1 36
0918 36
100m 36
100w 36
116610 36
127@@ 36
129@@ 36
12h 36
12l 36
177 36
19) 36
19*@@ 36
1970@@ 36
1吋 36
2% 36
2+ 36
2-0@@ 36
24) 36
27-@@ 36
28*@@ 36
292 36
2代 36
3-1 36
3.5g 36
3100 36
346 36
3a@@ 36
424@@ 36
450g 36
470@@ 36
475@@ 36
499@@ 36
50x@@ 36
570@@ 36
5kg 36
6+@@ 36
615 36
645 36
8-001 36
80s 36
813 36
818@@ 36
91@@ 36
920@@ 36
97-@@ 36
9a 36
_j@@ 36
_n@@ 36
a12@@ 36
amazing 36
amber 36
ans@@ 36
apo@@ 36
apollo 36
ast@@ 36
a字@@ 36
a货@@ 36
back@@ 36
bandouliere 36
bass 36
bkk 36
boite 36
bottle 36
boys 36
b群 36
cd0@@ 36
cherry@@ 36
chia 36
chicago 36
chou 36
ciao 36
cli@@ 36
clio 36
daily 36
dri@@ 36
dual 36
duck 36
ew@@ 36
ful@@ 36
gia 36
glo@@ 36
gor 36
gshock 36
have 36
herschel 36
hoda 36
i8plus 36
infocus 36
iqos 36
isport 36
jam@@ 36
kid 36
kuku 36
l. 36
lamborghini 36
lay 36
linda 36
ling@@ 36
lip@@ 36
lla 36
loo@@ 36
lovely 36
m415@@ 36
m7 36
maker 36
mc-@@ 36
medicom 36
metallic 36
michaelkors 36
mk57@@ 36
mrl@@ 36
n5 36
news 36
ngk 36
nie 36
nikeair@@ 36
nuby 36
ov@@ 36
over 36
ovo 36
pb@@ 36
pencil 36
pets 36
pride 36
ptt 36
ru 36
s.g 36
sa-@@ 36
saffiano 36
sai@@ 36
serpenti 36
sevenfriday 36
shopping 36
squad 36
ster@@ 36
sty@@ 36
sus@@ 36
tk@@ 36
toe 36
tomica@@ 36
tor 36
tou@@ 36
tp-@@ 36
travis 36
two@@ 36
tz@@ 36
t恤m-3xl 36
t潮t 36
us11 36
v5 36
victorine 36
vol.3 36
v牌 36
watch@@ 36
world@@ 36
x/xs/xr/@@ 36
x4@@ 36
xiii 36
xxxl 36
y12 36
z5p 36
zenfone3 36
z生活 36
█@@ 36
○@@ 36
☆" 36
✤ 36
す@@ 36
セ@@ 36
万花筒 36
上方 36
丨 36
义勇 36
书│ 36
五千 36
代订 36
份) 36
体内 36
佛牌 36
作家 36
促销$ 36
偷 36
催眠 36
军帽 36
凛 36
凡士林 36
刃@@ 36
刑法 36
创世 36
前导 36
力车 36
北仓 36
博美 36
卡拉@@ 36
卧@@ 36
发型 36
发罩 36
取代 36
台大 36
吉普 36
后面 36
四星 36
圆圆 36
塑料@@ 36
复活 36
外型 36
大厂 36
天竺葵 36
太郎 36
奇肌 36
女家 36
始@@ 36
娃娃衫 36
孔) 36
射击 36
小妞 36
小宝宝 36
小队 36
尖嘴 36
尚好 36
崛起 36
工学 36
巴尔曼 36
帆布@@ 36
幼教 36
底) 36
开张 36
开窗 36
异国 36
式样 36
征@@ 36
徐坤 36
微晶 36
意义 36
战将 36
打坐 36
抽油烟机 36
挤@@ 36
提示 36
摩根 36
斐@@ 36
日葵 36
星之卡比 36
普拉@@ 36
月刊 36
木架 36
果味 36
果园 36
果然 36
梗 36
梗@@ 36
棉质 36
橘黄 36
欧根 36
款人 36
步伐 36
步步 36
气门 36
水垢 36
水绿 36
水雾 36
汽水 36
油墨 36
泫雅风 36
泰山 36
洗刷 36
活化 36
消化 36
涤纶 36
淫@@ 36
深夜 36
清洁用品 36
港版 36
滢 36
漱@@ 36
潮人 36
澡@@ 36
灯) 36
灵感 36
烟缸 36
烧杯 36
热血 36
焙@@ 36
照) 36
爱神 36
父亲 36
片/@@ 36
牧牧家 36
特工 36
狮子座 36
现货: 36
玲珑 36
琉@@ 36
琵琶 36
甩棍 36
由@@ 36
白武士 36
百灵 36
盎司 36
眉刀 36
眼霜 36
短衫 36
砖石 36
碎冰机 36
祭@@ 36
筒式 36
管) 36
米娜 36
米线 36
红星 36
红皮 36
纤维@@ 36
纯粹 36
纹) 36
终身 36
绵绵 36
绸 36
置@@ 36
美容美发 36
美语 36
翡 36
翻翻 36
老爸 36
聊 36
胺基酸 36
脚部 36
腋毛 36
自然色 36
花生@@ 36
苏苏 36
荒 36
荷包蛋 36
营养素 36
蒙田 36
虎眼石 36
行政法 36
行李车 36
衣包 36
衣钩 36
表/@@ 36
衫卫衣 36
衬垫 36
袖衫 36
观赏 36
角川 36
触碰 36
警报器 36
认识 36
设计@@ 36
访 36
试吃 36
询 36
贝克 36
贝贝 36
账本 36
质料 36
贾@@ 36
赔钱 36
蹈 36
蹦 36
车站 36
输@@ 36
辫 36
连身@@ 36
迷幻 36
退色 36
避孕套 36
野战 36
量) 36
针) 36
铁床 36
铁血 36
铁质 36
铃兰 36
铠甲 36
铲@@ 36
锁具 36
锋利 36
锯子 36
镀锌 36
长形 36
长版 36
闭@@ 36
防冻 36
陈情 36
雪松 36
露娜 36
面额 36
韵@@ 36
顾@@ 36
领券 36
领取 36
饶舌 36
高浓度 36
鱼饵 36
麻油 36
黄斑 36
龟头 36
＠ 36
"小 35
"小@@ 35
"送 35
#m 35
#爆款@@ 35
(50@@ 35
(90 35
(v@@ 35
(六 35
(好 35
(实拍) 35
+s10 35
-38@@ 35
-39@@ 35
.6 35
/8@@ 35
001@@ 35
004@@ 35
01-@@ 35
030@@ 35
1/10 35
2016/@@ 35
21/@@ 35
2200 35
24*@@ 35
2400@@ 35
26*@@ 35
2800 35
319@@ 35
32吋 35
35ml 35
38/@@ 35
38cm 35
3b 35
464@@ 35
4c 35
5-001 35
58mm 35
626@@ 35
660@@ 35
722@@ 35
8.1 35
810@@ 35
840 35
85g 35
860 35
880 35
92-@@ 35
?@@ 35
_i@@ 35
alma 35
anastasia 35
ann's 35
anti 35
ash 35
b&@@ 35
ba7@@ 35
bea@@ 35
beach 35
biotherm 35
brazza 35
bunny 35
burberry@@ 35
c" 35
c63 35
c6@@ 35
charm 35
cq23@@ 35
cr 35
cute 35
c字 35
das 35
die 35
dp 35
eb-@@ 35
esp@@ 35
eva@@ 35
fate/grand 35
figma 35
fj@@ 35
fk@@ 35
fle@@ 35
flora 35
freak 35
fri@@ 35
game@@ 35
gol@@ 35
has@@ 35
heroes 35
i8/@@ 35
jeep 35
jenny 35
kan 35
kas@@ 35
kiehls 35
kobe11 35
kor@@ 35
ld-@@ 35
lemon 35
lg@@ 35
liao 35
living 35
lm汽 35
loreal 35
m67@@ 35
mary 35
mary@@ 35
max/xr/@@ 35
mercer 35
mur@@ 35
n3 35
nas 35
newbalance 35
oakley 35
onepiece 35
ora 35
pack@@ 35
pas@@ 35
pc-@@ 35
petite 35
pn@@ 35
poke@@ 35
prem 35
quest 35
q饼 35
r7@@ 35
ree@@ 35
rin 35
rody 35
roger 35
s.h 35
seven 35
sk6 35
sport@@ 35
spring 35
t-shirt@@ 35
tam@@ 35
tat@@ 35
tc-@@ 35
ther@@ 35
thomas 35
tm-@@ 35
trefoil 35
tretta@@ 35
tur@@ 35
v20 35
vn0a3@@ 35
wan 35
winter 35
wjlp 35
women 35
xsg 35
y7 35
yard 35
yz@@ 35
z/@@ 35
z00 35
∞@@ 35
∥@@ 35
⊙@@ 35
☆日光 35
♞@@ 35
に@@ 35
る 35
チ@@ 35
ナ@@ 35
・ 35
ㄇ型 35
一件式 35
一组) 35
七月 35
三部曲 35
下杀& 35
不破 35
东风 35
丰富 35
乎 35
乐队 35
九号 35
乳清 35
事机 35
五帝 35
人中之龙 35
人仔 35
代理版 35
代购. 35
以色列 35
仰 35
仲基 35
仿生 35
优儿 35
伸展 35
住@@ 35
侨 35
偶@@ 35
允 35
元/@@ 35
冒 35
军人 35
军品 35
冲凉 35
刺穿 35
前轮 35
加装 35
劵 35
包m4@@ 35
包壳 35
包装机 35
十五 35
卜力 35
卯 35
印花@@ 35
厚道 35
台北市 35
吋笔 35
吸引 35
味觉 35
四季@@ 35
回家 35
国手 35
国潮 35
埔@@ 35
堆叠 35
备品 35
复兴 35
夜晚 35
大c 35
大中小 35
天河石 35
天高 35
头家 35
夹克衫 35
如来 35
娴 35
嫣儿 35
孤@@ 35
安德@@ 35
安瓶 35
对策 35
小乖 35
小型犬 35
小家电 35
尔斯 35
尾款 35
屁 35
展览 35
崁@@ 35
崖 35
帮鞋 35
年轻人 35
延迟 35
开罐器 35
引力 35
微调 35
怒@@ 35
恩善 35
恰 35
愿@@ 35
手足 35
打字 35
打扫 35
技法 35
抖@@ 35
护肤膏 35
报表 35
拉姆@@ 35
拉门 35
拍器 35
拓@@ 35
挂绳 35
接单 35
推荐) 35
搅拌器 35
整块 35
整蛊 35
时下 35
普拉 35
暖水袋 35
朋 35
木杆 35
机种 35
杉木 35
果器 35
柔肤水 35
柠檬黄 35
格拉芙 35
梭@@ 35
榆木 35
横滨 35
横纹 35
橘红色 35
欧阳 35
比得 35
民法 35
水下 35
水洗 35
沙发@@ 35
油刷 35
油罐 35
法学 35
洛可可 35
津@@ 35
洲@@ 35
测器 35
济州 35
海浪 35
深紫 35
淳 35
清降噪 35
游乐场 35
炕桌 35
炸机 35
烈@@ 35
热压 35
热饮 35
煎@@ 35
爆款-@@ 35
牧草 35
物篮 35
玄凤 35
玛丽@@ 35
町@@ 35
畅@@ 35
疼 35
痛@@ 35
白字 35
白水 35
皂液 35
皓@@ 35
盆花 35
眉粉 35
眼泪 35
睡床 35
瞬洁 35
矫@@ 35
石面 35
碧玉 35
种花 35
空调毯 35
穿法 35
管子 35
篱笆 35
粒绒 35
精纯 35
练习生 35
绢@@ 35
绿松石 35
缩小 35
罪@@ 35
美乐蒂 35
胶皮 35
脚位 35
膝@@ 35
般 35
节水 35
芊@@ 35
芒 35
花火 35
茎 35
草本@@ 35
菜园 35
菲拉格 35
蔡@@ 35
蛋壳 35
补发 35
补给 35
西德 35
西施 35
议@@ 35
课外 35
贝斯 35
赫拉@@ 35
超人@@ 35
跟凉 35
跳蛋 35
车床 35
软q 35
运动会 35
违 35
迦@@ 35
迪士尼史迪奇 35
钢索 35
锁边 35
阻燃 35
限购 35
随心所欲 35
震动器 35
面条机 35
韩语 35
领收 35
风光 35
饼铛 35
马口铁 35
驼 35
高架 35
高画质 35
高考 35
黄白 35
黑/@@ 35
龙门 35
ｅ@@ 35
ｌ@@ 35
ｐ 35
##@@ 34
#2@@ 34
(j@@ 34
(x@@ 34
(今日 34
(日@@ 34
(深蓝) 34
(灰 34
(粉@@ 34
(蓝色 34
(首 34
-11@@ 34
-20 34
-he 34
0.9m 34
1,@@ 34
1107 34
1108 34
124@@ 34
145@@ 34
149@@ 34
170g 34
178@@ 34
18-24m 34
1:24 34
2-4@@ 34
200/@@ 34
2017/@@ 34
227 34
23) 34
240ml 34
26-@@ 34
278 34
286 34
287 34
34-39 34
341 34
372 34
4-001 34
455 34
5.6 34
50) 34
507 34
525 34
560 34
599@@ 34
6-7-@@ 34
6.7 34
611@@ 34
658 34
65w 34
663 34
6t 34
739@@ 34
763 34
788 34
8- 34
818 34
825 34
916@@ 34
928@@ 34
9ss 34
[h@@ 34
_p@@ 34
a1@@ 34
a80 34
aaa 34
act 34
aesop 34
aibo 34
amour 34
animal 34
any@@ 34
ar19@@ 34
army 34
bee@@ 34
blo@@ 34
boot 34
burst 34
c1 34
call 34
camp 34
carters 34
cx 34
dewalt 34
diy/ 34
dolly 34
dr.cink 34
dun@@ 34
e6@@ 34
edge@@ 34
ell 34
f5 34
fei@@ 34
foamposite 34
gaoria 34
get 34
ghz 34
godox 34
gogoro@@ 34
gros 34
gt-r 34
gui@@ 34
g扣 34
hills 34
huahua 34
igo@@ 34
iphone5 34
j6 34
jason 34
jb 34
jean 34
jersey 34
jessica 34
jf@@ 34
jt-@@ 34
kia 34
kr 34
kuo 34
l3 34
lh 34
logo短t 34
lunarglide 34
majestic 34
ment@@ 34
mir@@ 34
mis 34
ms.@@ 34
multi 34
music&ecology 34
myprotein 34
n2 34
nar@@ 34
nikelab 34
nixon 34
note2 34
nrg 34
nv@@ 34
passat 34
phi@@ 34
plan@@ 34
pt-@@ 34
qb@@ 34
q弹 34
rain 34
razer 34
ripndip 34
ros@@ 34
s& 34
sam 34
samantha 34
sand@@ 34
set@@ 34
shan 34
shelliemay 34
sli@@ 34
spf30 34
tata 34
tint 34
tpe 34
trail 34
t潮 34
w&@@ 34
wannaone 34
water@@ 34
wrx 34
y9 34
ysl/ 34
}} 34
~) 34
ʀ@@ 34
ᴏ@@ 34
⋯⋯ 34
│六月 34
║@@ 34
◥@@ 34
★免 34
☆hermes 34
☆爱心 34
☛ 34
✽@@ 34
サ@@ 34
ム 34
不对称 34
丶@@ 34
举@@ 34
予 34
二维 34
五斗橱 34
五星级 34
亚培 34
亲笔签名 34
人脸 34
仲夏 34
伸缩式 34
低卡 34
侏㑩纪 34
侏罗纪 34
促销) 34
俗@@ 34
假期 34
像素 34
克莱 34
全新│ 34
兮 34
再现 34
冰温 34
冷媒 34
分离器 34
制图 34
半导体 34
半球 34
华为p30 34
南部 34
卡卡@@ 34
卡贴 34
压印 34
厘@@ 34
厢 34
双缸 34
反转 34
口哨 34
名模 34
呆@@ 34
商标 34
嘎 34
回到 34
回头客 34
回转 34
固) 34
土机 34
垃圾箱 34
基因 34
基本@@ 34
堆@@ 34
塔克 34
塘 34
外用 34
多边形 34
大码@@ 34
大童@@ 34
大补 34
天竺鼠 34
太宰治 34
姊 34
姻缘 34
媒体 34
字汇 34
宁宁 34
定量 34
宝箱 34
家事 34
密宗 34
小公仔 34
小衣橱 34
小键盘 34
尿不湿 34
展场 34
山楂 34
平盘 34
平衡@@ 34
年末 34
座) 34
开立 34
强震 34
思域 34
或@@ 34
战队 34
截止 34
手提包包 34
扰 34
折合 34
抢购★ 34
拉力器 34
拓展 34
拜佛 34
挂轴 34
提盒 34
揭 34
摔角 34
撑@@ 34
敲打 34
文件架 34
斯特@@ 34
旁 34
旅行者 34
无头 34
无花果 34
日版@@ 34
时尚达人 34
晒衣夹 34
木业 34
杀虫剂 34
杆子 34
束胸 34
极佳 34
构 34
果茶 34
柒柒 34
柔嫩 34
格丽@@ 34
梁@@ 34
梦工厂 34
梵文 34
检查 34
款潮 34
水) 34
水分 34
水巾 34
汉考克 34
汐 34
油蜡 34
法莱绒 34
泽泽 34
浓厚 34
海龟 34
涵@@ 34
淘淘 34
湛蓝 34
溪@@ 34
滋补品 34
激战 34
火红 34
灯台 34
灰灰 34
烧石 34
焊机 34
爆款@@ 34
特优 34
狐臭 34
玉珮 34
玥@@ 34
珠串 34
生) 34
电子手表 34
电板 34
疯马 34
白兔 34
百花 34
皮制 34
真空@@ 34
着妳]☆ 34
瞬效 34
石墨 34
硅@@ 34
硝 34
碰@@ 34
磁场 34
祈 34
秦@@ 34
穿搭 34
窄@@ 34
童颜 34
笔器 34
符咒 34
精心 34
糊涂 34
糖) 34
组合@@ 34
继 34
绿绿 34
缠 34
美品 34
羚 34
老化 34
聚酯 34
肉色 34
肌精 34
肤仪 34
腕力 34
舜 34
节奏 34
花籽 34
草地 34
药用 34
菊@@ 34
藕@@ 34
虐恋 34
蚀 34
行李架 34
衣) 34
衣领 34
补给站 34
被褥 34
西门 34
觅 34
计算 34
读卡器 34
豆乳 34
豆腐@@ 34
赌@@ 34
跳蚤 34
身材 34
车体 34
车种 34
轮式 34
边缘 34
遮阳棚 34
重庆 34
金水 34
鑚@@ 34
钉鞋 34
铁观音 34
银白色 34
间隙 34
阳极 34
阿波@@ 34
阿玛@@ 34
雪尼尔 34
零配件 34
霏 34
露天 34
韩) 34
颊 34
风平 34
风靡 34
飞鸟 34
饭勺 34
香奈@@ 34
骑@@ 34
骨骼 34
黑熊 34
黑陶 34
黛安芬 34
"lv 33
#全场 33
#台湾 33
&新品 33
(5.@@ 33
(宽 33
(数位 33
(新@@ 33
(桃@@ 33
-23 33
-39 33
-44@@ 33
-47 33
-m 33
070@@ 33
090@@ 33
1-3-5 33
100) 33
1060@@ 33
110-220v 33
15吋 33
15日 33
17.5 33
180*@@ 33
1d 33
2010@@ 33
2021 33
2100 33
23-@@ 33
268 33
271 33
290@@ 33
2nd 33
311 33
324@@ 33
33*@@ 33
35) 33
352 33
40ml 33
440@@ 33
4k@@ 33
564@@ 33
595@@ 33
6-7 33
610@@ 33
612@@ 33
664 33
6b 33
6plus/@@ 33
7.2 33
730 33
730@@ 33
740@@ 33
790 33
799@@ 33
858 33
881 33
888@@ 33
9*@@ 33
904 33
921733-@@ 33
921826-@@ 33
?????? 33
??@@ 33
ach 33
ar46@@ 33
arai 33
ato 33
avi@@ 33
band@@ 33
bandai万代 33
beast 33
bj@@ 33
blackpink 33
bonnie 33
bp 33
chane 33
cho 33
clip 33
crown 33
cz@@ 33
c级@@ 33
devil 33
ef-@@ 33
ew 33
extra 33
fairy 33
feng 33
fighter 33
gnc 33
gucc 33
h6@@ 33
hawk 33
hdr 33
hill@@ 33
hrv 33
huf 33
ingni 33
ity 33
ivy 33
iz* 33
j.house 33
j6@@ 33
jadior 33
je 33
k2 33
k5 33
k88 33
k8@@ 33
kel@@ 33
km 33
kore@@ 33
kuga 33
kun 33
lla@@ 33
luminor 33
l夹 33
m-3xl@@ 33
m414@@ 33
m45@@ 33
m68@@ 33
megahouse 33
meme 33
mexico 33
ming 33
mk60@@ 33
mrt580 33
n60@@ 33
nautica 33
nc 33
nereides 33
never 33
nine@@ 33
nm@@ 33
nmd@@ 33
noe 33
not 33
nxt 33
ore 33
p30@@ 33
pass 33
pei@@ 33
penny 33
ple 33
puma@@ 33
rd-@@ 33
revenge 33
ricoh 33
river 33
s80@@ 33
side 33
sion 33
sk-@@ 33
sleeve 33
sof@@ 33
solarsoft 33
ssa 33
str@@ 33
swiss 33
sylvie 33
test 33
tp-link 33
type-c转 33
t恤潮 33
uf 33
vel@@ 33
vic@@ 33
view 33
w/ 33
war 33
whirlpool 33
wil@@ 33
wmf 33
wt 33
x20 33
xf 33
xu@@ 33
yxs 33
z5@@ 33
˙ 33
ღ先 33
✯@@ 33
❁@@ 33
❦ 33
い 33
ゆ@@ 33
エ@@ 33
ㄇ@@ 33
一点 33
三轴 33
不规则 33
中古@@ 33
丽丽 33
乳胶漆 33
二战 33
互 33
仟@@ 33
价│ 33
休闲馆 33
优派 33
传真 33
信义 33
元年 33
公爵 33
六角@@ 33
冯 33
冷却 33
刀割 33
判@@ 33
刷头 33
华语 33
卫生@@ 33
压褶 33
压面机 33
友情 33
取暖器 33
变型 33
变脸 33
吸入 33
周周 33
哪@@ 33
啡 33
嘿 33
培养 33
塌 33
大仙 33
大夫 33
大班 33
天上 33
天文 33
娜美@@ 33
婚纱照 33
宁静 33
寄卖 33
富豪 33
对流 33
对表 33
导向 33
小喇叭 33
小文$ 33
小贝 33
小野 33
尘螨 33
尽@@ 33
层层 33
履@@ 33
峻 33
崩坏 33
巢@@ 33
工具书 33
巴克 33
巴巴 33
帅哥 33
年历 33
庭园 33
廷@@ 33
弯弯 33
强劲 33
彩图 33
心心相印 33
忧郁 33
总共 33
总部 33
成分 33
手纸 33
扭蛋@@ 33
拐棍 33
拜年 33
挂画 33
指南针 33
按@@ 33
挪威 33
换) 33
捶 33
接听 33
搭载 33
摇马 33
支付 33
文化@@ 33
料架 33
斜角 33
新车 33
旁@@ 33
昆@@ 33
晴空 33
月相 33
服饰店 33
木屋 33
木屑 33
杀价# 33
杂粮 33
松果 33
枕巾 33
柔润 33
柳编 33
楼顶 33
榨汁器 33
模型) 33
欲@@ 33
款# 33
款-@@ 33
比克 33
气体 33
氧机 33
泊尔 33
泡泡@@ 33
泡茶器 33
洗澡间 33
活动) 33
海南 33
涉 33
深绿 33
滑动 33
烙饼 33
烤鱼 33
热销@@ 33
父母 33
王一 33
珑 33
瑛 33
瑞兴 33
生铁 33
甩@@ 33
电热锅 33
画墙 33
痕迹 33
白洁 33
的) 33
皮球 33
着妳 33
碁峰 33
碳钢 33
礼仪 33
福士 33
空机 33
空版 33
笔刀 33
等待 33
系列: 33
红粉 33
红莲 33
练习本 33
绽 33
美军 33
老山 33
耳勺 33
肉泥 33
肤皂 33
肿 33
背包#@@ 33
背椅 33
脚器 33
自销 33
自驾游 33
艺术@@ 33
芝士 33
花栗鼠 33
花花@@ 33
英雄@@ 33
范特西 33
蒙娜丽莎 33
蚁 33
街景 33
补妆 33
袖上 33
视力 33
解剖 33
记者 33
评量 33
试卷 33
诞生 33
读物 33
货. 33
身衣 33
车把 33
轨迹 33
载重 33
辨识 33
运动器材 33
这么 33
迦 33
迹@@ 33
透气@@ 33
造型@@ 33
逻@@ 33
郭@@ 33
酒桶 33
金发 33
钥匙环 33
钦 33
钧@@ 33
钻) 33
铁壶 33
铜制 33
银杏 33
锉刀 33
长) 33
长裤@@ 33
门把 33
防暴 33
防毒 33
防蛀 33
阿弥陀佛 33
除锈 33
隐形磁 33
雪莉玫 33
霍 33
静物 33
革@@ 33
鞋-@@ 33
鞋女 33
颈挂 33
风雪 33
飞溅 33
香器 33
香茅 33
马卡龙@@ 33
马扎 33
马桶圈 33
高产 33
高筒靴 33
魔法@@ 33
鲜奶 33
鸦@@ 33
"现货 32
#304 32
#韩国 32
(18@@ 32
(22@@ 32
(一般 32
(厂家 32
(台@@ 32
(台北 32
(带 32
(水 32
(粉色 32
(紫 32
*4 32
-210 32
-l 32
/f@@ 32
03-@@ 32
1008 32
1010 32
1113 32
12000 32
174 32
18.5 32
185@@ 32
187@@ 32
195@@ 32
2021.@@ 32
20cm@@ 32
20v 32
220ml 32
23/@@ 32
264 32
3-2@@ 32
30w 32
314 32
317 32
34-@@ 32
344 32
3dwoo 32
4-5 32
4500 32
534@@ 32
6/20 32
665@@ 32
668 32
670 32
7-001 32
780@@ 32
7p@@ 32
826@@ 32
878@@ 32
898@@ 32
9. 32
918 32
920 32
^) 32
_x@@ 32
a11@@ 32
active 32
ade@@ 32
ame@@ 32
animate 32
ann@@ 32
anna@@ 32
annie 32
ar5905 32
aspire 32
ath@@ 32
athle 32
auto 32
ax5s 32
bai@@ 32
bbia 32
beams 32
bears 32
beat@@ 32
ben 32
benefit 32
bie@@ 32
blend 32
brit@@ 32
bumbag 32
bw 32
c8@@ 32
cable 32
claire 32
cloud 32
colo@@ 32
comp@@ 32
consortium 32
cosme 32
d9 32
disco 32
drg 32
dz 32
ena 32
er-@@ 32
fashion@@ 32
ffy@@ 32
fr 32
fran@@ 32
ft-@@ 32
ful 32
giordano 32
got@@ 32
gurashi 32
h4 32
hak@@ 32
hape 32
hat@@ 32
healthy 32
hn 32
hoody 32
hs-@@ 32
ht-@@ 32
ik@@ 32
jelly 32
jm@@ 32
kak@@ 32
kicks 32
korea@@ 32
lar@@ 32
lazy@@ 32
leten 32
lockme 32
makeup 32
mand@@ 32
maz@@ 32
met 32
mk33@@ 32
mma 32
ms249 32
naked 32
nba@@ 32
nest 32
nizza 32
p40 32
pac@@ 32
photo 32
pilot 32
pippen 32
pla@@ 32
py@@ 32
r88@@ 32
rb 32
ree 32
rer 32
richell 32
sea@@ 32
sne@@ 32
spectra 32
spray 32
square 32
ss-@@ 32
structure 32
style@@ 32
sui@@ 32
sw-@@ 32
sweatshirt 32
swim 32
t10@@ 32
taipei 32
teana 32
ted 32
tr-@@ 32
train 32
twice@@ 32
t米家) 32
usb-@@ 32
usb-c 32
usb3.1 32
uu 32
ux 32
very 32
vetements 32
vie 32
volkswagen 32
vv@@ 32
window 32
wow@@ 32
x27@@ 32
xl号 32
xo@@ 32
xs/ 32
yang@@ 32
yn@@ 32
zakka@@ 32
zb63 32
ze620 32
zg 32
zh@@ 32
↓ 32
∼ 32
≡@@ 32
│全场 32
╯@@ 32
▼ 32
♡性感 32
♤@@ 32
ア 32
キ 32
マ 32
专人 32
丛 32
丞琳 32
主演 32
习惯 32
人头 32
人性 32
令@@ 32
伦理 32
供电 32
侧标 32
保密 32
停电 32
储蓄 32
光碟@@ 32
全世界 32
全开 32
公转 32
公里 32
再版 32
冰镇 32
冲水 32
凯里 32
刨刀 32
利制 32
利达 32
刷卡) 32
加厚@@ 32
加护 32
勤@@ 32
北大 32
匠心 32
匹@@ 32
单排 32
卡布奇诺 32
卡斯 32
卧房 32
却 32
卷筒 32
反应 32
发动机 32
发片 32
取物 32
另外 32
台湾@@ 32
吉它 32
吋手机 32
后轮 32
呦 32
哔 32
喆 32
喵星 32
图书馆 32
图案@@ 32
圃 32
土黄 32
地带 32
垂吊 32
墩布 32
复古格 32
大毛 32
天生 32
女内裤 32
女篮 32
姵@@ 32
姿势 32
字母@@ 32
安神 32
宙@@ 32
宝坚 32
宝芙 32
封袋 32
小吃店 32
尸@@ 32
尿布垫 32
屋子 32
工作证 32
巨星 32
干粮 32
年年 32
开箱 32
弃 32
彰 32
往@@ 32
微米 32
忙 32
忧@@ 32
忧伤 32
恐 32
恬廊 32
憨@@ 32
打击@@ 32
打洞 32
打猎 32
扣款 32
抗压 32
抗寒 32
折伞 32
抵用 32
拚 32
拱门 32
挂灯 32
挤奶器 32
捡便宜 32
捷安特 32
放电 32
文创 32
文房 32
斯坦 32
日日 32
昆布 32
昌@@ 32
春茶 32
普卡@@ 32
晶体 32
杜邦 32
条案 32
果脯 32
柜) 32
柯尔斯 32
栈 32
桔红 32
椎@@ 32
楷 32
模板 32
毛膏 32
毛躁 32
水润 32
汽球 32
沙丁鱼 32
法则 32
洋行 32
活用 32
浓汤 32
液) 32
混装 32
源头 32
潜水衣 32
潭 32
潮酷 32
灵芝 32
炫光 32
燃@@ 32
爆棚 32
爵士鼓 32
版女 32
狮子王 32
猴@@ 32
玉器 32
王公仔 32
王冠 32
珍藏@@ 32
珍贵 32
球棒 32
电池@@ 32
电筒 32
画线 32
白茶 32
皂液器 32
皂盒 32
盗墓 32
直营 32
眉刷 32
短裤@@ 32
砚 32
硅藻土 32
碎肉 32
祥@@ 32
窑变 32
立方 32
粉粉 32
系风. 32
红薯 32
级) 32
纾 32
组/@@ 32
经销商 32
绕颈 32
绿篱 32
编码 32
美国队 32
老天 32
肌活 32
肌轮 32
肛交 32
股@@ 32
胖丁 32
脆饼 32
腔 32
自然光 32
色泽 32
艾尔 32
芮 32
茄子 32
茶炉 32
荧幕 32
药水 32
莲子 32
菲尔 32
萤石 32
葛@@ 32
薪 32
藕 32
藜@@ 32
蚤 32
蝎子 32
螺帽 32
行包 32
补助 32
褐 32
覆@@ 32
谱@@ 32
象牙白 32
贴) 32
贺@@ 32
超纤 32
超过 32
车位 32
车盘 32
软木塞 32
还@@ 32
远东 32
连网 32
迷迭香 32
通信 32
酪@@ 32
酵 32
金丝@@ 32
金行 32
针织衣 32
钛金 32
钢精 32
铜钱 32
锄@@ 32
锰钢 32
阻尼 32
除臭剂 32
隼 32
霆 32
霜) 32
鞍@@ 32
韩蕾 32
音速 32
风凉 32
餐杯 32
饱腹 32
香烟 32
马灯 32
鲨鱼鳍 32
黑胡椒 32
ｐ@@ 32
!!! 31
"百 31
(6) 31
(75@@ 31
(no.@@ 31
(rolex) 31
(s-@@ 31
(z@@ 31
(三色) 31
(双@@ 31
(整 31
(赠送 31
))) 31
*6 31
-c 31
.g 31
/led 31
00-@@ 31
10-12 31
114@@ 31
16.@@ 31
17/@@ 31
18年 31
1mm 31
2# 31
200w 31
204@@ 31
295 31
31512@@ 31
33mm 31
348 31
358 31
383 31
391 31
392@@ 31
39mm 31
3: 31
422@@ 31
448 31
449 31
510@@ 31
551 31
55吋 31
628@@ 31
686 31
6sp 31
7.0 31
712@@ 31
7日 31
8-100 31
84955@@ 31
886 31
8c 31
918@@ 31
@全场 31
a's 31
a01 31
a13@@ 31
accord 31
aj13 31
aj3 31
albion 31
ale@@ 31
amigo@@ 31
angela 31
anne 31
anti@@ 31
ar59@@ 31
ashi@@ 31
b.toys 31
bc-@@ 31
blanc 31
braun 31
burberry/ 31
business 31
c- 31
chenn 31
chiu 31
christmas 31
chukka 31
chun 31
cipu 31
clo@@ 31
cola 31
control 31
cover@@ 31
cr-v 31
cra@@ 31
creator 31
cv 31
cx-@@ 31
d' 31
d型 31
ero@@ 31
f20 31
f8@@ 31
faced 31
ferragamo菲拉格慕 31
first@@ 31
flip 31
fo 31
g" 31
gmt 31
goods 31
graphic 31
gts 31
halo 31
hey@@ 31
hit@@ 31
hk 31
i6/@@ 31
inomata 31
ion@@ 31
ipod 31
ix35 31
j&y 31
jaguar 31
js@@ 31
kc 31
kl) 31
liz 31
lowrys 31
luxe 31
m.2 31
mazda3 31
miki 31
mini4 31
mini5 31
miniso 31
mk59@@ 31
mmj 31
mode 31
n1 31
nini 31
nk@@ 31
no. 31
novo 31
ob11 31
ocean 31
open@@ 31
pa-@@ 31
pai@@ 31
palladium 31
pam00@@ 31
pan 31
pl 31
rement 31
rick 31
rmk 31
r·h· 31
sabon 31
sac 31
sandy 31
sephora 31
sf-@@ 31
sher@@ 31
shop㊣ 31
ske@@ 31
sl-@@ 31
sound 31
sound@@ 31
spirit 31
stanley 31
steel 31
t00@@ 31
ta/@@ 31
tempo 31
think 31
tie 31
tin 31
t字 31
u2 31
u6 31
ush@@ 31
vapor@@ 31
ville 31
vtech 31
w.lab 31
wol@@ 31
work@@ 31
x23 31
xii 31
y" 31
y- 31
y-3@@ 31
year 31
yeezy@@ 31
ze554 31
ɴ@@ 31
ᄋ 31
∴@@ 31
☚@@ 31
☼ 31
❉ 31
コ 31
ム@@ 31
メ@@ 31
ㄇ字 31
世绘 31
业务员 31
东立 31
丫@@ 31
中音 31
丹丹 31
亨利 31
以及 31
企 31
伊曼 31
会馆 31
伯贤 31
伸缩@@ 31
佐料 31
体乳 31
你家 31
侬@@ 31
信报箱 31
倪@@ 31
傅 31
克林 31
公母 31
典礼 31
农会 31
农庄 31
冷藏箱 31
冻干 31
凯蒂 31
切尔西 31
别致 31
制冷器 31
刷刷 31
剃头刀 31
前掌 31
勇气 31
包布 31
包饭 31
化工 31
北市 31
卡其@@ 31
卡尔@@ 31
卫生衣 31
即发 31
压头 31
厚片 31
原型 31
叉勺 31
发绳 31
台钟 31
品乐家 31
哉 31
喔喔 31
喜鹊 31
噢 31
坐骑 31
垂@@ 31
堆堆 31
塞尔 31
墬@@ 31
大宝 31
大帝 31
大赛 31
夹.@@ 31
奖@@ 31
套件 31
女裙 31
奴比@@ 31
妈咪) 31
始祖鸟 31
嫁@@ 31
定妆@@ 31
寸: 31
对子 31
寻找 31
小将 31
小王子 31
小瓶 31
小钻 31
小颗 31
尼克@@ 31
展厅 31
峰@@ 31
工程@@ 31
布鲁@@ 31
布鲁斯 31
带电 31
幸福@@ 31
幺 31
廊@@ 31
强悍 31
彩云 31
径@@ 31
微缩 31
心意 31
必败 31
悲@@ 31
感恩节 31
手编 31
手铐 31
折扣@@ 31
抢眼 31
护身 31
抽风机 31
拉紧 31
拼音 31
按摩棒@@ 31
挤牙膏 31
提高 31
插线 31
搓@@ 31
效果器 31
救生 31
救生圈 31
教养 31
新乐 31
新款) 31
旋律 31
无后 31
旭@@ 31
时来运转 31
旻@@ 31
普利@@ 31
暖暖@@ 31
木柜 31
木片 31
机关 31
枕边 31
棉t恤 31
楚 31
榨 31
檀@@ 31
正方 31
歪 31
殿@@ 31
每组 31
气管 31
氙气 31
汪喵 31
沫@@ 31
浅绿 31
海杆 31
海盗船 31
消暑 31
滑凉 31
漫步者 31
漫漫 31
漫画@@ 31
潘朵拉@@ 31
火山@@ 31
火柴 31
火鸡 31
灰指甲 31
炫耀 31
烤肉架 31
热气球 31
热量 31
焊枪 31
爱心@@ 31
爱玩 31
物件 31
特斯拉 31
狱 31
玉山 31
王子@@ 31
玩具反斗城 31
现货_ 31
现货丶 31
玻璃钢 31
甚 31
生气 31
甩卖 31
电) 31
电吹风机 31
男靴 31
疫@@ 31
疾@@ 31
登山@@ 31
白天 31
白点 31
白酒 31
皮器 31
盈@@ 31
眼仔 31
督 31
破解 31
碱性 31
神经 31
票) 31
福寿 31
空军一号 31
立农 31
第2 31
第九 31
管器 31
簪子 31
粗线 31
紫红色 31
纯绵 31
绕线 31
维特 31
老大 31
耐力 31
耳环. 31
背) 31
胶垫 31
脸谱 31
腌@@ 31
臻品 31
舖ღ 31
舞蹈鞋 31
航线 31
艺人 31
艾灸 31
茱@@ 31
茶) 31
草席 31
薄片 31
藏式 31
藜 31
行程 31
衔扣 31
褥@@ 31
览 31
订书机 31
请在 31
调音器 31
豌豆 31
财富 31
货物 31
走道 31
辫子 31
过期 31
迪达@@ 31
遇@@ 31
郑@@ 31
酒精@@ 31
酷乐 31
醋瓶 31
金曲 31
钛晶@@ 31
钢瓶 31
银) 31
锁链 31
长椅 31
除氯 31
陨石 31
陶艺 31
障 31
雅马哈 31
青轴 31
靖@@ 31
鞋/@@ 31
韦德 31
颈带 31
颐 31
颜乳 31
风t恤 31
飞旋 31
食品袋 31
饵料 31
香火 31
香花 31
马桶@@ 31
骨干 31
魔法师 31
鲔 31
麻将桌 31
黄花 31
黏袋 31
鼻器 31
"/@@ 30
"\@@ 30
(11@@ 30
(2016) 30
(34@@ 30
(70 30
(y@@ 30
(优) 30
(半 30
(城邦 30
(特@@ 30
(第三 30
(红@@ 30
(金) 30
****@@ 30
+++ 30
.) 30
.5x 30
0003 30
011 30
03/@@ 30
1-6@@ 30
10k 30
10m 30
10x@@ 30
1102 30
1212 30
1280 30
14.@@ 30
172 30
1950 30
2-100 30
2-3-4-@@ 30
2021年 30
209@@ 30
20x@@ 30
21cm 30
26) 30
2600 30
283 30
298 30
3-12 30
3-6@@ 30
332@@ 30
339 30
33cm 30
34mm 30
35*@@ 30
360ml 30
385 30
393 30
411 30
43-@@ 30
435@@ 30
446 30
463 30
5-100 30
5.3 30
55mm 30
578@@ 30
5th 30
685@@ 30
708@@ 30
712 30
764@@ 30
766 30
832@@ 30
855 30
899@@ 30
8w 30
942842-@@ 30
9l 30
_j005d 30
_z@@ 30
ah8050-@@ 30
aj7 30
allure 30
and1/2 30
aso@@ 30
assc 30
ata 30
atm 30
basketball 30
berry 30
bloom 30
botani@@ 30
boutique 30
brisk 30
bryant 30
cafe@@ 30
celine@@ 30
champion@@ 30
chance 30
cmx@@ 30
comme 30
coo 30
cosply 30
cot@@ 30
coupe 30
craftholic 30
cx5 30
diana 30
digital 30
din 30
du 30
ducati 30
eclipse 30
edison 30
efr@@ 30
eli@@ 30
f. 30
f11 30
fal@@ 30
fashion- 30
find 30
fs1@@ 30
g8@@ 30
gn 30
gucci双g 30
havaianas 30
hguc 30
hobby 30
hype 30
hyper 30
h家 30
infiniti 30
iphone/@@ 30
iphone5s 30
ite@@ 30
j'adior 30
j12 30
jack@@ 30
k&@@ 30
k) 30
k10 30
k7 30
kap@@ 30
lace 30
lazy 30
livina 30
lotte 30
luggage 30
m.a.c 30
m11 30
m12 30
m62@@ 30
mamba 30
mercedes-benz 30
mercier 30
mit-@@ 30
mlx@@ 30
mm200 30
moomin 30
moomin@@ 30
mw@@ 30
nb-@@ 30
nds 30
ng@@ 30
nh@@ 30
no: 30
oc 30
official 30
olay 30
online 30
oro 30
p8@@ 30
pallas 30
pcs) 30
pods 30
poe 30
pos@@ 30
prius 30
pv@@ 30
ran@@ 30
rca 30
rm-@@ 30
rn@@ 30
s+@@ 30
s-max 30
s76@@ 30
satchel 30
sdi 30
selfie 30
sj 30
su: 30
superme 30
swi@@ 30
t3@@ 30
ta-@@ 30
tailwind 30
terra 30
thinkpad 30
tomytec 30
tree@@ 30
tte 30
tus@@ 30
t恤m-xxl 30
t素t素 30
ud@@ 30
uk 30
uno 30
usb2.0 30
vip@@ 30
x27 30
xmax 30
yaya 30
yohji 30
your@@ 30
yuan 30
zara@@ 30
zb602 30
ze552 30
zeta 30
ω@@ 30
ᄀ@@ 30
이 30
┃ 30
▼@@ 30
♕@@ 30
✰ 30
❖ 30
❧@@ 30
め@@ 30
ノ@@ 30
ホ@@ 30
ャ@@ 30
㊣➊ 30
一律 30
三叉 30
三合一@@ 30
三日 30
三脚 30
上蜡 30
下杀^@@ 30
不锈钢@@ 30
专属) 30
丫买买铺 30
中统 30
五谷 30
交错 30
亮肤 30
什锦 30
他人 30
伊人 30
休闲装 30
体操 30
供桌 30
保健食品 30
保湿乳 30
保证卡 30
保险丝 30
信誉 30
修理 30
俱@@ 30
倒数 30
倒立 30
储存罐 30
儿童文学 30
克莱@@ 30
公务 30
公斤) 30
兰香 30
共有 30
其它 30
典) 30
冷兵器 30
分开 30
前戏 30
包# 30
包车 30
化妆@@ 30
北斗 30
半裙 30
单条 30
南投 30
卡匣 30
印制 30
危险 30
卵@@ 30
厂牌 30
压气 30
去油 30
双人@@ 30
双心 30
双拍 30
可触 30
合并 30
吉尔 30
含税 30
吮吸 30
告@@ 30
呎@@ 30
哒 30
哨子 30
唱机 30
啃咬 30
回归 30
围棋 30
国) 30
国学 30
坐卧 30
壁贴 30
壮@@ 30
壹家壹 30
处理@@ 30
复杂 30
多用途 30
大孔 30
大披肩 30
大棚 30
天下@@ 30
天竺 30
头层 30
奎 30
套书 30
女星 30
妇婴 30
妊娠 30
妮可 30
娃娃) 30
孕期 30
安全套 30
官网 30
宿@@ 30
导论 30
小公 30
小兵 30
小卖 30
小巷 30
小跑 30
展会 30
岗@@ 30
巫 30
巴斯夫 30
带宽 30
平板车 30
年前 30
幽默 30
弄 30
弓@@ 30
彩球 30
快艇 30
惊魂 30
战地 30
所以 30
打褶 30
扣扣 30
扭伤 30
扶桑 30
扶梯 30
报告 30
拆卖) 30
拉斯@@ 30
拟@@ 30
拯救 30
挚爱 30
挥 30
推推 30
援@@ 30
摩儿 30
撸@@ 30
操作台 30
收藏版 30
新增 30
方案 30
无影 30
日落 30
旺角. 30
星球大战 30
暗扣 30
曾@@ 30
朔 30
朗基 30
木心 30
木木 30
木木@@ 30
本命 30
本舖"@@ 30
机. 30
机智 30
材质) 30
村上隆 30
束发 30
枚) 30
柜角 30
标贴 30
桌下 30
桑葚 30
梦想家 30
楠木 30
樱木花道 30
欧斯 30
水晶@@ 30
水道 30
汉方 30
汽座 30
沙发毯 30
沙棘 30
沾@@ 30
泊@@ 30
法斗 30
法棍 30
洒水壶 30
洗衣盆 30
浇@@ 30
浇水 30
浪板 30
涤@@ 30
添加剂 30
湖人队 30
潘@@ 30
潮包 30
澈 30
澳门 30
火神 30
炙@@ 30
炭治郎 30
烛光 30
然@@ 30
熔 30
爆款#@@ 30
爱国者 30
爱小 30
版画 30
牌底 30
牙套 30
牵@@ 30
猫熊 30
玟@@ 30
玻 30
玻璃窗 30
球类 30
瓶/@@ 30
电包 30
电梯 30
电焊机 30
略@@ 30
痕@@ 30
白云 30
百货) 30
百货@ 30
皂机 30
监狱 30
盔@@ 30
直板 30
短帘 30
短毛 30
矿灯 30
码头 30
研究室 30
示@@ 30
礼物@@ 30
祐@@ 30
窈窕 30
笙@@ 30
第6 30
答@@ 30
策 30
箔@@ 30
箭@@ 30
红袍 30
练习器 30
绒被 30
编程 30
羔羊 30
翊@@ 30
耕 30
耗@@ 30
联府 30
肆 30
肉感 30
肌板 30
胶) 30
脆@@ 30
艺兴 30
节棍 30
花枝 30
芹@@ 30
苹 30
苹@@ 30
葆 30
薯片 30
蛋) 30
蝎 30
行走 30
补水 30
补胎 30
西华 30
西式 30
西方 30
观察 30
设@@ 30
证照 30
豹@@ 30
貍@@ 30
货品 30
购入) 30
贷款 30
起毛 30
趟 30
轮盘 30
轴心 30
辉煌 30
返 30
迷恋 30
退货 30
配线 30
酿酒 30
重奏 30
重建 30
量: 30
金石 30
金黄色 30
鉴定@@ 30
钓箱 30
钻钻 30
锅子 30
锯@@ 30
镜头@@ 30
镭@@ 30
长款 30
门号 30
门边 30
问号 30
防御 30
陪@@ 30
集美 30
雷诺 30
霖@@ 30
青轴@@ 30
靠@@ 30
领夹 30
领导 30
风速 30
飞行@@ 30
餐馆 30
饱@@ 30
饱满 30
香片 30
香甜 30
香脆 30
骄@@ 30
高帮 30
鱼具 30
鸡汤 30
麻吉@@ 30
黄瓜 30
黑色素 30
＄ 30
"- 29
#\n 29
$500 29
(150@@ 29
(22 29
(25@@ 29
(5) 29
(f) 29
(专属 29
(专柜 29
(全馆 29
(台 29
(实 29
(实拍 29
(尺 29
(有@@ 29
(正@@ 29
(版 29
(精装) 29
(红色 29
(自 29
(香奈儿) 29
-05@@ 29
-2色 29
-300 29
-500 29
-k 29
.c 29
.gucci 29
/c@@ 29
/s@@ 29
/usb 29
011@@ 29
017 29
02/@@ 29
020 29
1.5g 29
1.8l 29
1/2/@@ 29
1090@@ 29
110/@@ 29
1155 29
12v24v@@ 29
1350 29
1360@@ 29
155@@ 29
169@@ 29
2-6 29
2300 29
232@@ 29
254 29
28-36 29
292@@ 29
3-5 29
3-6m 29
3.5吋 29
308364 29
3v 29
3三 29
4.7吋 29
40-47 29
40l 29
451 29
50w 29
516 29
559 29
575 29
5q 29
5z 29
64-@@ 29
673 29
6ml 29
70*@@ 29
765@@ 29
7d 29
7plus/@@ 29
800g 29
816@@ 29
834@@ 29
849@@ 29
864@@ 29
88-@@ 29
8g/@@ 29
8k 29
925@@ 29
929@@ 29
:00 29
@@@@ 29
airmax 29
ans 29
ass 29
bel 29
betta 29
beverly 29
blackmores 29
ble@@ 29
blk 29
bose 29
bot@@ 29
butter 29
bye 29
c4 29
calvinklein 29
cca 29
cc霜 29
chin 29
cq2@@ 29
crocodile 29
crt300 29
dan 29
dc-@@ 29
ddr3 29
deer 29
dor 29
doremi 29
e1 29
emp@@ 29
eng 29
ettusais 29
eve 29
ey 29
f3.5 29
f4 29
f9@@ 29
fb: 29
figure 29
fire@@ 29
fix 29
flower@@ 29
flu@@ 29
form 29
f赏 29
gate 29
georg 29
gn-@@ 29
guard 29
gucci/@@ 29
guccl 29
hai@@ 29
hdmi@@ 29
heal@@ 29
hei@@ 29
here 29
hh 29
hill 29
holi@@ 29
hooded 29
hsi@@ 29
hsieh 29
if 29
ifme 29
ikids♬@@ 29
impreza 29
iphone6/6s/@@ 29
iphone6s/@@ 29
iphonex/@@ 29
jensen 29
kat@@ 29
kb 29
kd-@@ 29
keepall 29
kg/ 29
kinloch 29
kiss@@ 29
kitchen 29
kuma 29
lar 29
laurent@@ 29
lr 29
lw-@@ 29
ly00@@ 29
m40156 29
m60017 29
mania 29
map 29
martin 29
mate9 29
max2 29
men's 29
milk 29
mind 29
mivue 29
mm- 29
multi@@ 29
mx-@@ 29
nicole 29
noname 29
octavia 29
omega@@ 29
ori 29
pap@@ 29
papa 29
pentax 29
pod-s3.1 29
qui@@ 29
r&@@ 29
rene 29
retina 29
rj 29
sao 29
satin 29
sd-@@ 29
slo@@ 29
so-@@ 29
spo@@ 29
ssk 29
start 29
stitch 29
stu@@ 29
tak@@ 29
talk 29
tek 29
tilbury 29
time@@ 29
tnt@@ 29
tool 29
tsai 29
tucson 29
t大学 29
u3 29
ultr@@ 29
var@@ 29
venomenon 29
wind@@ 29
wit@@ 29
woman 29
x-trail 29
xxx 29
yozu 29
ze550 29
zu 29
ღ*玛琪朵 29
ᅦ 29
ᴀ@@ 29
∞ 29
∼@@ 29
┋秒 29
╭ 29
△ 29
☆兔兔 29
の家 29
ター 29
ッ 29
万能@@ 29
三彩 29
上线 29
下杀$@@ 29
不对 29
丑@@ 29
丝衫 29
丧 29
中华民国 29
中山 29
中秋节 29
亚历山大 29
亚版 29
交锋 29
仆@@ 29
仑@@ 29
代币 29
优胜 29
优选@@ 29
伤口 29
估价 29
保真 29
俪@@ 29
儒 29
光小语 29
光帘 29
光彩 29
公主@@ 29
养生@@ 29
再生 29
凉水壶 29
函@@ 29
分享器 29
切换器 29
初夏 29
剥皮 29
力器 29
势不可挡 29
勇敢 29
单人@@ 29
单向 29
博基尼 29
卜 29
卡片@@ 29
卸除 29
压克力@@ 29
厚底@@ 29
双勾 29
双钩 29
口内 29
口香糖 29
各色 29
吊牌 29
同时 29
后街 29
吐@@ 29
周末 29
哪里 29
售后 29
喜气 29
回购 29
圆满 29
土星 29
圭@@ 29
地下室 29
场合 29
垦丁 29
复合式 29
外汇 29
外翻 29
夜行 29
天丝@@ 29
天神 29
太古 29
奇葩 29
女百 29
妲@@ 29
媛@@ 29
嬉皮 29
孔雀@@ 29
孤 29
安全门 29
定座 29
宝岛 29
家俱 29
寥寥 29
小摆设 29
小版 29
小盒 29
小锅 29
小雅 29
展板 29
展示板 29
山田 29
布质 29
布鲁托 29
帆@@ 29
帕玛@@ 29
帽加绒 29
平底凉 29
平锅 29
序@@ 29
开启 29
弹力布 29
律师 29
怪手 29
悬 29
惹 29
战舰 29
房顶 29
托鞋 29
扶手椅 29
技能 29
择@@ 29
持@@ 29
挂机 29
接环 29
提灯 29
插板 29
播种 29
收涎 29
改版 29
整型 29
敷@@ 29
文版) 29
新包 29
新闻 29
方便面 29
无名 29
明火 29
星星@@ 29
晓晓 29
晟 29
晟@@ 29
晨露 29
更衣室 29
有型 29
未用 29
村秀 29
果仁 29
果酸 29
架子@@ 29
柄@@ 29
树林 29
棒. 29
棒球手套 29
棕) 29
椰子@@ 29
次氯酸 29
歇@@ 29
殿下 29
毛球 29
水晶绒 29
水网 29
水面 29
油条 29
油水 29
油灯 29
洗) 29
洗衣粉 29
洛特 29
活泼 29
测距仪 29
测量仪 29
浮夸 29
海草 29
深绿色 29
添@@ 29
清单 29
港风 29
湿度 29
滑冰 29
潜水艇 29
灰黄 29
炊具 29
炫彩@@ 29
热爱 29
焕采 29
爷@@ 29
版. 29
牙粉 29
犄角 29
犬泰迪 29
献@@ 29
猴年 29
玛莎拉蒂@@ 29
球器 29
瑞拉 29
璃@@ 29
瓜果 29
生日蛋糕 29
生物@@ 29
电话线 29
白巧克力 29
百伦@@ 29
百叶 29
百合@@ 29
皙 29
皮克斯 29
益生菌 29
盘大 29
相纸 29
石) 29
磁贴 29
磷 29
示范 29
祝 29
票券 29
祯 29
福冈 29
秘诀 29
积木@@ 29
立坽 29
童舖 29
等等 29
简报 29
篷@@ 29
粉黄 29
系绳 29
红人 29
红盘 29
纤细 29
纱布巾 29
纸) 29
纸板 29
线路 29
绚丽 29
网球拍 29
羊羊 29
美) 29
美人@@ 29
美容师 29
耕@@ 29
耽美 29
肠胃 29
肩宽 29
胖mm 29
胚@@ 29
胡椒粉 29
脉@@ 29
脱皮 29
自创 29
舒丹@@ 29
舖★ 29
节能灯 29
芬兰 29
花儿 29
芹 29
苔@@ 29
英汉 29
荳荳 29
菜盆 29
菜菜 29
萨波 29
蓝黑色 29
藏传 29
蛋白@@ 29
融@@ 29
袁 29
装订 29
装饰布 29
裕隆 29
观世音 29
言情 29
训练@@ 29
诊所 29
诠@@ 29
语文 29
豚@@ 29
象征 29
贝印 29
贝缇 29
负担 29
财金 29
贯通 29
贴.@@ 29
贴布 29
贴纸) 29
贴膜@@ 29
赠品) 29
趴@@ 29
辑@@ 29
过膝靴 29
送) 29
速写 29
邮筒 29
配件) 29
酥@@ 29
重新 29
金玉 29
钙@@ 29
铝镁合金 29
铬@@ 29
铺☆ 29
铺床 29
镶@@ 29
阿信 29
际 29
降落伞 29
限制级 29
除垢 29
除毛器 29
除霉 29
隔断帘 29
隔间 29
雕刻刀 29
雪花@@ 29
青梅 29
青金石 29
靠得住 29
鞘 29
须@@ 29
顿@@ 29
颜色) 29
飘香 29
飨宴 29
餐台 29
香浓 29
马毛 29
鱼) 29
鱼丸 29
鲜艳 29
鲤 29
鸡皮 29
黄蜂 29
黏贴式 29
黑米 29
!!) 28
"爱 28
$新货 28
&g 28
(19@@ 28
(30@@ 28
(u@@ 28
(一盒 28
(八 28
(内含 28
(卡 28
(售出) 28
(圣 28
(左 28
(灰色) 28
(种子 28
(臻 28
(银) 28
(黄色) 28
-29 28
-300@@ 28
-35@@ 28
-37@@ 28
-k@@ 28
.s 28
/4@@ 28
/7 28
1400@@ 28
16.5 28
16a 28
17*@@ 28
1: 28
1tb@@ 28
239 28
23c 28
24v@@ 28
269 28
274 28
284 28
291 28
2: 28
30l 28
313 28
317@@ 28
37) 28
4/ 28
40w 28
4434@@ 28
493 28
5-17 28
5/6 28
550ml 28
560@@ 28
566 28
567 28
569 28
574@@ 28
590@@ 28
6.9 28
621 28
66-@@ 28
661 28
662 28
669 28
695@@ 28
7.3 28
7.9 28
717 28
728@@ 28
751 28
752 28
756 28
7p/@@ 28
80*@@ 28
8450@@ 28
845@@ 28
8524@@ 28
899 28
8v 28
90% 28
9000 28
911@@ 28
926 28
987 28
a" 28
a&m 28
a39 28
a92018 28
adata 28
addiction 28
adr 28
alan 28
anda 28
ao292@@ 28
ape@@ 28
apink 28
astro 28
ath-@@ 28
b& 28
b375@@ 28
balance/nb 28
balea 28
bao@@ 28
bdsm 28
beetle 28
bin@@ 28
boo 28
bq415@@ 28
build 28
c10 28
captain 28
cin@@ 28
co-@@ 28
custom 28
c款 28
daytona 28
deco 28
diet 28
dior/迪奥 28
dr-@@ 28
e9@@ 28
electrolux 28
elle@@ 28
f) 28
fei 28
fleur 28
forester 28
fusion 28
g10 28
gao 28
ght 28
gie 28
grandista 28
group 28
hallmark 28
hong 28
hoo 28
hq@@ 28
hua 28
instapump 28
international 28
irene 28
iti@@ 28
j1@@ 28
j5@@ 28
jumbo 28
kamera 28
katze 28
keep 28
ket@@ 28
kiko 28
kors@@ 28
lagerfeld 28
lbj13 28
lea@@ 28
lj 28
lv零 28
m2r 28
m54@@ 28
ma1 28
made@@ 28
mamonde 28
mani@@ 28
maxi 28
memo 28
mini-@@ 28
mkb 28
ml/50 28
mobile 28
mondeo 28
more@@ 28
mp5 28
multiple 28
n\n@@ 28
nano@@ 28
nice@@ 28
non@@ 28
note8pro 28
offwhite 28
pa++@@ 28
phy@@ 28
pocky 28
revlon 28
rita 28
rogue 28
s-m 28
sas 28
sau@@ 28
seagate 28
season 28
seoul 28
shm 28
shoe 28
soft99 28
some 28
sor@@ 28
spe@@ 28
ssi@@ 28
stop 28
sugar@@ 28
swisse 28
tal@@ 28
tel@@ 28
tk 28
trunk 28
ttbooks 28
tube 28
t恤男 28
t爱 28
uf@@ 28
v30 28
v5@@ 28
veer 28
vichy 28
vk 28
whi@@ 28
wild@@ 28
woo 28
wr 28
wt-@@ 28
x30 28
xa@@ 28
zar@@ 28
zenfone@@ 28
zmi 28
zp 28
zp* 28
zs-@@ 28
zx750 28
¥ 28
ᄅ@@ 28
‖@@ 28
▸ 28
◄ 28
☽ 28
❆@@ 28
け@@ 28
も@@ 28
ツ@@ 28
ニ@@ 28
一拳 28
三千 28
丝雪肌 28
丫店 28
中医 28
主妇 28
乐福 28
亿@@ 28
他@@ 28
众星 28
优品 28
优惠# 28
优惠券 28
会员卡 28
会话 28
伯伦 28
伯特 28
低压 28
供应@@ 28
促销&@@ 28
假山 28
催 28
儿歌 28
元件 28
充满 28
光光 28
克杯@@ 28
全新. 28
公开 28
六分 28
六折 28
兰仕 28
军团 28
冲刺 28
凋 28
凯蒂猫@@ 28
出售) 28
出版) 28
函 28
初见 28
前进 28
剪剪 28
剪子 28
加厚型 28
加藤 28
匀@@ 28
北极@@ 28
升降机 28
单单 28
博世 28
卡龙色 28
厝 28
发出 28
发明 28
发网 28
发膏 28
古巴@@ 28
句@@ 28
可食用 28
台历 28
吊袜带 28
吞 28
呐 28
品格 28
哆啦a梦 28
哥吉拉@@ 28
唤醒 28
啵@@ 28
喇 28
团团 28
固定@@ 28
圆领t 28
坎@@ 28
坛子 28
塞尔@@ 28
壹号店@@ 28
复式 28
夏天@@ 28
大便 28
大头@@ 28
大富翁 28
大树 28
大鼻子 28
太妃糖 28
套裙 28
女伶 28
好莱坞 28
妇女 28
妈☆ 28
姨妈 28
婴儿@@ 28
媳妇 28
守护者 28
安全网 28
宝贝@@ 28
实力 28
宾士w@@ 28
寄) 28
寄送) 28
密语 28
对照 28
小栈 28
小菜 28
小虾 28
小黄瓜 28
尤加 28
局部 28
层) 28
屠@@ 28
工笔 28
已经 28
币@@ 28
希尔思 28
带板 28
常用 28
平方 28
庄@@ 28
床头板 28
建构 28
弓箭 28
弹簧@@ 28
录音@@ 28
心手 28
心电图 28
必读 28
性能 28
息@@ 28
恶名昭彰 28
悍@@ 28
戟 28
扁头 28
手写板 28
打洞@@ 28
技g@@ 28
投币 28
折现 28
担@@ 28
拉丁舞 28
招考 28
拨@@ 28
指甲钳 28
排水孔 28
插手 28
插页 28
搬运 28
搭裤 28
摄影@@ 28
收到 28
效应 28
敏镐 28
新星 28
日间 28
易峰 28
星河 28
显影 28
晒网 28
暑 28
暖意 28
暗影 28
暴雨 28
曼尼 28
月付 28
有点 28
本体 28
术后 28
机防 28
杀$@@ 28
杀│@@ 28
杓@@ 28
松露 28
柔情 28
株式会社 28
栽@@ 28
梧桐 28
棉针织 28
椅) 28
椰子树 28
榜 28
橡 28
毛) 28
气功 28
水牌 28
江湖 28
污垢 28
法会 28
泡椒 28
泰亨 28
泰勒 28
洛克@@ 28
活体 28
浦@@ 28
涵涵 28
深棕色 28
灌溉 28
炒@@ 28
炒面 28
炖盅 28
烛 28
烯 28
爬山 28
爱妳]☆ 28
牙科 28
牛头 28
狗狗@@ 28
环氧树脂 28
珮 28
琳瑯 28
琼 28
申@@ 28
电烙铁 28
电视剧 28
略 28
登月 28
白兰氏 28
百日 28
皿@@ 28
盆子 28
盐味 28
盒/@@ 28
盘点 28
直通 28
眼圈 28
矽藻土 28
砚台 28
碎片 28
碳酸 28
社区 28
社长 28
神社 28
福斯 28
秀美 28
租屋 28
穿墙 28
笋 28
第十 28
筑@@ 28
签到 28
管钳 28
篇) 28
簸箕 28
米勒 28
米白 28
粉末 28
粉色) 28
粒子 28
粪 28
精典 28
糖罐 28
糙米 28
红鞋 28
纳福 28
组-@@ 28
组合) 28
细长 28
织物 28
结石 28
绫 28
绿蓝 28
缇花@@ 28
美甲@@ 28
翅 28
老茧 28
耳套 28
肌研 28
胺@@ 28
脆皮 28
脊@@ 28
脐@@ 28
脱水机 28
脸池 28
脾@@ 28
舌舔 28
般若 28
芋 28
苦瓜 28
茉莉@@ 28
荒@@ 28
萱@@ 28
蒜头 28
蓝白 28
蔚蓝 28
蛋糕@@ 28
蜡皮 28
衫男 28
袋泡茶 28
裸妆@@ 28
裸石 28
观念 28
计划@@ 28
记忆@@ 28
讲课 28
词@@ 28
话梅 28
调整器 28
贝比@@ 28
财源 28
货币 28
质) 28
超霸 28
足印 28
车垫 28
车辆 28
转身 28
软布 28
输) 28
连帽帽t 28
遮瑕@@ 28
郝 28
酸辣 28
量级 28
量身 28
金/@@ 28
金钟 28
金黄金 28
钢丝钳 28
钢铁侠 28
铁柜 28
铠@@ 28
锡纸 28
镍 28
长寿 28
门器 28
防雨布 28
阿卡@@ 28
附件 28
震撼 28
霏@@ 28
青草 28
面筋 28
鞋跟 28
鞋鞋 28
顶天立地 28
预定) 28
香木 28
马裤 28
马里奥 28
驴 28
高背 28
鬃毛 28
鲁鲁@@ 28
鹅卵石 28
︱ 28
ｄ 28
"大 27
"超 27
(14 27
(armani) 27
(中文 27
(林 27
(欢迎 27
(紫) 27
(编号 27
(迪 27
+) 27
-32@@ 27
-41 27
-925 27
-p 27
/100 27
012 27
05070 27
07/@@ 27
1% 27
1-7@@ 27
1/24 27
1005 27
1009 27
1011@@ 27
101@@ 27
1119 27
1167@@ 27
13mm 27
15.5 27
150mm 27
2.1a 27
2022 27
2022@@ 27
2500@@ 27
29*@@ 27
298@@ 27
2z 27
2吋 27
3.6 27
30000 27
3300 27
337 27
3780@@ 27
38-46 27
386 27
394 27
395 27
407@@ 27
452 27
458 27
468 27
488@@ 27
4b 27
5% 27
5.8吋 27
527@@ 27
538@@ 27
555088-@@ 27
611 27
613 27
66s 27
6v 27
7.8 27
725 27
7500 27
755@@ 27
758 27
7x 27
807 27
839@@ 27
840@@ 27
882 27
883 27
885 27
8d 27
8m 27
8t 27
9-100 27
9-12 27
930 27
930@@ 27
945 27
965@@ 27
989 27
9d 27
[e@@ 27
\\@@ 27
a75s 27
ack 27
aco 27
af/hco) 27
agf 27
album 27
alien 27
ama@@ 27
andy 27
ane@@ 27
ank@@ 27
api@@ 27
ar16@@ 27
ars 27
atx 27
audio 27
aura 27
b4 27
battle 27
beaute 27
beige 27
bour@@ 27
bv007@@ 27
bx@@ 27
c12 27
chapeau 27
cky 27
cm" 27
coat 27
company 27
continental 27
cr-@@ 27
cross@@ 27
cru@@ 27
cz 27
d9@@ 27
dailo 27
dashing 27
defiant 27
derma@@ 27
desire@@ 27
duplo 27
dvd-@@ 27
dvd9 27
e5 27
e63 27
e90 27
echo 27
eg 27
emily 27
emo 27
epi@@ 27
escape 27
esprit 27
ette 27
e赏 27
fc-@@ 27
flair 27
four 27
freestyle] 27
french 27
from 27
furla 27
g*3 27
g2000 27
gd-@@ 27
gf 27
gj@@ 27
global 27
goo 27
h/@@ 27
head@@ 27
holic 27
how 27
iniki 27
innisfree@@ 27
iphonexsmax 27
iri@@ 27
irobot 27
j000@@ 27
japan@@ 27
jet@@ 27
jewel 27
jl@@ 27
jur@@ 27
justin 27
k2g@@ 27
kal@@ 27
kanahei 27
kc-@@ 27
kimi 27
lim 27
little@@ 27
llon 27
lthr 27
m10@@ 27
m18 27
max95 27
miz@@ 27
moony 27
move 27
mun@@ 27
na-v@@ 27
napolex 27
nb247 27
nel 27
neogence霓 27
nf@@ 27
nie@@ 27
nr@@ 27
opp@@ 27
p&g 27
pa++++@@ 27
peugeot 27
philipp@@ 27
pit@@ 27
plr 27
rich@@ 27
rika 27
rio 27
rival 27
rivalry 27
rowa 27
s-3@@ 27
s-xx@@ 27
s11 27
s3@@ 27
s_ 27
sac@@ 27
saem 27
sco@@ 27
see 27
see@@ 27
sh-@@ 27
shop- 27
simply 27
sole 27
spf 27
spm 27
springs 27
stan@@ 27
sti 27
stock 27
swee@@ 27
t&@@ 27
tas 27
tattoo 27
thebuy-@@ 27
this 27
toro 27
toryburch 27
transcend 27
trey 27
ture 27
twin@@ 27
t圆领 27
t宽松 27
t帽t 27
ud 27
ui 27
usm 27
vers@@ 27
vicky 27
victoria 27
viii 27
vin 27
warm 27
was@@ 27
wat@@ 27
wc 27
xzs 27
y/@@ 27
y17 27
yan 27
z.@@ 27
zer@@ 27
ᄇ@@ 27
│新品 27
★送 27
☆polly 27
☆尚☆ 27
☆爱 27
☆现货 27
✐@@ 27
✽ 27
え@@ 27
し 27
そ@@ 27
テ 27
ナ 27
ㄇ 27
一罐 27
七七 27
三元 27
三四@@ 27
丝缎 27
中部 27
之梦 27
之间 27
乐儿 27
乐芙 27
书斋 27
书豪 27
云豹 27
五指 27
仗 27
代理商 27
伺服器 27
体恤衫 27
便利商店 27
修补膏 27
修订 27
元旦 27
光片 27
免提 27
入组 27
全员 27
共和国 27
关门 27
养身 27
内胎 27
内藏 27
冒@@ 27
农夫 27
冲量 27
冲锋@@ 27
冷感 27
凯撒 27
刀具架 27
分线器 27
划线 27
刷毛 27
剂) 27
剔@@ 27
剧院 27
动动 27
劵@@ 27
北海 27
华为@@ 27
华尔@@ 27
单相 27
博柏利巴 27
卡包@@ 27
卡林@@ 27
厂件 27
厌 27
双f 27
双拼 27
反光镜 27
反派 27
发叉 27
发束 27
可口 27
可混 27
台卡 27
合式 27
吉娃娃 27
吋大 27
吐血 27
吧@@ 27
含水 27
呆呆 27
周转 27
哈瓦仕 27
哥特 27
唇膏@@ 27
啡@@ 27
器/@@ 27
图画 27
坜@@ 27
垂耳 27
培育 27
增发 27
壁扇 27
夜钓 27
大姨妈 27
大意 27
大礼 27
夺@@ 27
奈奈 27
奔跑 27
女衬衫 27
威威 27
娘@@ 27
娜赫拉 27
子家 27
字贴 27
孵@@ 27
安东尼 27
定) 27
实践 27
宠物@@ 27
家. 27
家居馆 27
寂寞 27
富丽 27
寸衫 27
寺庙 27
小喵 27
小店@@ 27
小柜 27
尺子 27
尺码) 27
尼亚 27
尼克斯 27
山口 27
巡回 27
工匠 27
巨型 27
布书 27
布置@@ 27
希尔顿 27
帮套 27
庆祝 27
床子 27
度计 27
开光 27
彩虹@@ 27
彭@@ 27
心脏 27
恕 27
意者 27
戏服 27
战利品 27
房客 27
手势 27
手机游戏 27
扑克 27
打开 27
扫帚 27
扭@@ 27
扯 27
抗风 27
拼板 27
挂饰 27
指示 27
捕手 27
探测 27
接地 27
揉面 27
搬 27
摩斯 27
摸@@ 27
操@@ 27
收录 27
故事@@ 27
文明 27
斑霜 27
斯/@@ 27
斯摩@@ 27
方枕 27
旋转@@ 27
无忧 27
无羡 27
日月潭 27
昼@@ 27
普罗旺斯 27
暗红 27
有余 27
木凳 27
末日 27
本: 27
机械手 27
机组 27
杀人鲸 27
杯器 27
杰拉 27
板子 27
板手 27
果糖 27
架式 27
柚 27
柿 27
格力 27
桌儿 27
桑蚕 27
植物性 27
楦 27
欧意 27
比较 27
毛巾被 27
气密 27
氧化 27
水族馆 27
汰 27
汽车蜡 27
沧海 27
油膜 27
泡泡糖 27
洁面@@ 27
洗发@@ 27
洗涤 27
流苏@@ 27
测温 27
润肌 27
濑 27
灿@@ 27
热转印 27
燕尾 27
版t 27
牌子 27
牢 27
牧牧 27
状@@ 27
狮@@ 27
玉佩 27
王妃 27
玛丽珍 27
玛利欧 27
玩具) 27
现货☆ 27
班服 27
瑜@@ 27
瑯@@ 27
瓦楞纸 27
瓶罐 27
用品) 27
用家 27
电绣 27
男m-3xl 27
男段 27
留学 27
登高 27
皮克 27
益菌 27
盒饭 27
相遇 27
砖墙 27
硅藻 27
硕珍 27
祈愿 27
私讯 27
穹@@ 27
符合 27
算盘 27
米其林 27
米米 27
糖浆 27
糯@@ 27
繁星 27
红红 27
红铜 27
约克 27
绅@@ 27
绍@@ 27
经销 27
绞 27
续@@ 27
绸@@ 27
缸@@ 27
网) 27
网友 27
罗兰@@ 27
羊奶 27
美商 27
翅@@ 27
翘@@ 27
翡翠@@ 27
老牌 27
耐热玻璃 27
耳环s925 27
耶稣 27
肤) 27
背带) 27
胶囊@@ 27
胶粘 27
脐带 27
脱发 27
脱毛机 27
膨@@ 27
臂力器 27
自爱器 27
自由@@ 27
舔 27
舖) 27
艺妓 27
艾米丽 27
花盒 27
苍 27
苏拉 27
药品 27
莹@@ 27
菁@@ 27
菇菇 27
蓝牙 27
蕨@@ 27
藏书 27
蝙蝠衫 27
螺栓 27
衫m-2xl 27
袋.@@ 27
裁判 27
装. 27
裸装 27
西洋@@ 27
计量 27
详 27
豪迈 27
貂毛 27
贝吉@@ 27
贸 27
费) 27
赵@@ 27
起源 27
超薄型 27
躲猫猫 27
辛巴@@ 27
边) 27
运用 27
迪斯@@ 27
选择@@ 27
遮阴 27
郡@@ 27
针线盒 27
钛金@@ 27
钢刀 27
钢门 27
铁环 27
铠 27
银红 27
防尘@@ 27
防护@@ 27
阵@@ 27
阿卡将 27
阿拉伯 27
阿胶 27
阿飞 27
除草 27
陷 27
难度 27
雷电 27
霾@@ 27
靡 27
面包@@ 27
面漆 27
靴潮 27
顽@@ 27
领袖 27
颈项 27
马可 27
马尔@@ 27
鬼脸 27
魔术师 27
鸦 27
麻豆 27
黎明 27
黑茶 27
＂ 27
"* 26
"3 26
"新 26
"正 26
"美@@ 26
#4 26
$50 26
&& 26
( 26
(14@@ 26
(a) 26
(for 26
(促 26
(促销 26
(多色 26
(时尚 26
(最 26
-013 26
-16@@ 26
-250 26
-3色 26
.二手 26
.小 26
.日本 26
/6@@ 26
/e@@ 26
/三民 26
/橘 26
0k 26
1-12 26
1/2/3 26
1004 26
1011 26
110v@@ 26
1110088@@ 26
12.7 26
120*@@ 26
125/@@ 26
12w 26
189@@ 26
19.5 26
1:64 26
2/1 26
2/3 26
2003年 26
2004年 26
20200@@ 26
2022年 26
22.5@@ 26
226@@ 26
228@@ 26
241 26
244 26
245@@ 26
257 26
267 26
279 26
2l@@ 26
2r 26
2w 26
3# 26
3600 26
378 26
378@@ 26
40--@@ 26
429@@ 26
433@@ 26
45) 26
454 26
459 26
466 26
50*@@ 26
5050 26
556@@ 26
565 26
6-10 26
6.13 26
65/@@ 26
674 26
678@@ 26
698 26
715 26
740 26
75% 26
760 26
765 26
778@@ 26
7l 26
7x@@ 26
8000@@ 26
860@@ 26
8637@@ 26
????@@ 26
@^ 26
_g@@ 26
aki@@ 26
aldo 26
angeles 26
angle 26
anni@@ 26
artist 26
ati@@ 26
aw-@@ 26
babygap 26
bal 26
baobao 26
birkenstock 26
bla@@ 26
body@@ 26
books 26
bre 26
c11 26
c180 26
cath 26
cb-@@ 26
check 26
cl-@@ 26
closet 26
cologne 26
concert 26
cookie 26
cosplay@@ 26
cost@@ 26
cp9@@ 26
czmmsn54 26
c家 26
darphin 26
db-@@ 26
dea 26
dior包包 26
dsq2 26
d扣 26
e" 26
e27@@ 26
e60 26
earth@@ 26
epo@@ 26
est@@ 26
f8 26
fc789 26
fg@@ 26
foot 26
forest 26
g*10 26
gas@@ 26
gel@@ 26
gift@@ 26
god@@ 26
godzilla 26
goomea 26
grand@@ 26
hammer 26
hanna 26
hco) 26
hermes@@ 26
hil@@ 26
hung 26
i. 26
ista伊士达 26
j'code 26
j8 26
j8@@ 26
jabra 26
jct 26
jewelry 26
jie 26
jojo@@ 26
joyce 26
k/@@ 26
k4@@ 26
kim 26
kumamon 26
l/xl 26
lab@@ 26
lamy 26
lane@@ 26
leadcat 26
less 26
lips 26
ls-@@ 26
m" 26
m-2@@ 26
maggie 26
marshall 26
mat 26
mbm@@ 26
merrell 26
microsoft 26
mira 26
mk2 26
motion 26
movie 26
mrl247@@ 26
music@@ 26
mustela 26
n412@@ 26
nav@@ 26
nb574 26
ne-@@ 26
nh 26
nyc 26
n°@@ 26
pand@@ 26
path 26
peau 26
pos 26
pureboost 26
px@@ 26
q2 26
rb-@@ 26
ri 26
round 26
s9/@@ 26
safe 26
sain@@ 26
salad 26
sale@@ 26
santa 26
sfc 26
skinny 26
skyline 26
sle@@ 26
sml 26
song 26
spao 26
sse@@ 26
sue@@ 26
swagger 26
t2@@ 26
tang 26
think@@ 26
t情侣 26
ulker_@@ 26
une 26
us9.5 26
uto 26
v17 26
v8@@ 26
vis 26
vision 26
volu@@ 26
vuit@@ 26
v格 26
wp 26
wy@@ 26
x- 26
x00 26
xz3 26
yon@@ 26
yoyo@@ 26
ys-@@ 26
yuan@@ 26
zett 26
~~ 26
ⅱ 26
⊙ 26
⋆ 26
│低价 26
┇@@ 26
◈ 26
★xq-3c@@ 26
☆louis 26
♧@@ 26
❁ 26
〖小桃美衣 26
〞 26
う 26
の店 26
オ@@ 26
㊒@@ 26
㊕@@ 26
一见钟情 26
不可思议 26
东区 26
丞丞 26
中考 26
丽丝尔 26
义卖 26
之一 26
之语 26
乌木 26
乐园@@ 26
乱乱 26
乳酸 26
介意 26
仰@@ 26
价廉 26
伶@@ 26
俊雅 26
保修 26
保护剂 26
俞 26
信仰 26
假饵 26
光波 26
全黑 26
六边形 26
兼@@ 26
冠霖 26
冥想 26
冰山 26
冷热水 26
冷藏柜 26
凯西 26
分配器 26
制订 26
化剂 26
北意 26
半成品 26
华人 26
协会 26
卓越 26
单售 26
卜@@ 26
卫裤 26
即将 26
压板 26
去火 26
友友 26
双料 26
反射 26
反绒 26
发亮 26
发胶 26
发言台 26
叔 26
变态 26
古着@@ 26
可选 26
台币 26
台钓 26
呛 26
味精 26
和合 26
品客 26
哈佛 26
售完) 26
唷@@ 26
喽 26
四方 26
国家队 26
地柜 26
坪@@ 26
垒@@ 26
培根 26
增订 26
处) 26
大肚 26
天伯伦 26
天龙 26
夹. 26
委@@ 26
委托 26
威尼斯 26
嫚@@ 26
嬉@@ 26
孑 26
孤儿 26
学家 26
完/@@ 26
完工 26
宝瓶 26
客栈 26
客满 26
客订-@@ 26
射手 26
小b 26
小丫 26
小蚁 26
小象 26
少见 26
尼尔 26
屁屁@@ 26
岔@@ 26
川崎 26
已@@ 26
巾/@@ 26
布/@@ 26
带柄 26
帮板鞋 26
帽沿 26
幅@@ 26
并@@ 26
录音机 26
彩旗 26
心面 26
态@@ 26
性酷 26
恋恋 26
房地 26
手套@@ 26
扣) 26
抗过 26
报童 26
拉娜 26
拒绝 26
拔罐 26
拳皇 26
拾音器 26
指挥@@ 26
换气扇 26
掀@@ 26
排气扇 26
探险@@ 26
控制@@ 26
掸子 26
描红 26
提示牌 26
收纳袋 26
放气 26
散件 26
整合 26
斯图西 26
无尽 26
无脚 26
无障碍 26
日本@@ 26
星矢 26
春游 26
昭 26
普普风 26
暑假 26
暖壶 26
有底 26
朝日 26
本人 26
机构 26
机洗 26
架车 26
柠 26
格子@@ 26
格拉 26
款式) 26
正韩 26
气色 26
氧化@@ 26
水球 26
江南 26
汤包 26
汪@@ 26
泓 26
活水 26
流光 26
海关 26
海尼根 26
海陆 26
淇@@ 26
深紫色 26
添加@@ 26
滑雪@@ 26
漾@@ 26
火锅@@ 26
灭火器 26
灰色) 26
灵性 26
灿烂 26
炼金@@ 26
炽 26
烘碗机 26
烘衣机 26
烽火 26
熊) 26
爪子 26
爱子 26
特种 26
犯 26
狙击 26
狼毫 26
猪头 26
王) 26
王源 26
玻璃水瓶 26
理台 26
瑄@@ 26
瑞克@@ 26
甄@@ 26
甘蔗 26
电话卡 26
电通 26
白晶 26
皮皮 26
睛@@ 26
矩@@ 26
短袖t 26
矮人 26
矶@@ 26
砗磲 26
硬派 26
硼@@ 26
碎石 26
磨砂@@ 26
祺儿 26
禧@@ 26
种) 26
稍 26
穿线 26
童子 26
篷布 26
精油@@ 26
纪梵希 26
纯度 26
纳帕 26
纸包 26
纸张 26
绘本 26
绞肉 26
绣花鞋 26
网站 26
网通 26
老爷车 26
聪 26
肉包 26
肉桂 26
肤水@@ 26
脚裤 26
自杀 26
臭味 26
舍利 26
色#@@ 26
节省 26
菁萃 26
菲斯 26
营地 26
蒜泥器 26
蘸 26
虎皮 26
蛙式 26
衣刷 26
表_ 26
衰 26
装下 26
裤# 26
计算器 26
讯) 26
记得 26
证日 26
诗风 26
诱饵 26
请问 26
谎言 26
貍 26
败家 26
贰 26
赐福 26
超时空 26
超级玛利欧 26
超自然 26
足膜 26
软绵绵 26
运输车 26
进水 26
迪奇 26
速寄 26
遇见@@ 26
遥@@ 26
配方) 26
金牛 26
金鸡 26
鑚 26
针头 26
铁管 26
铁锹 26
镍氢 26
长白山 26
门缝 26
防卫 26
防锈@@ 26
阿朗 26
除雾 26
雁 26
雯@@ 26
霓虹 26
静静 26
鞋业 26
鞋油 26
韧@@ 26
颜皂 26
风情@@ 26
风流 26
香珍 26
骨传导 26
高人 26
高压锅 26
高大 26
鬼屋 26
鬼火 26
鲁士@@ 26
麦穗 26
黑莓 26
"二 25
"阿@@ 25
#便宜 25
#日本 25
(110 25
(16@@ 25
(18 25
(201@@ 25
(600 25
(b11@@ 25
(q@@ 25
(y-) 25
(上衣 25
(任选 25
(优惠 25
(卷 25
(尺寸 25
(居家 25
(效 25
(袋装) 25
(香奈儿 25
+plus 25
-22@@ 25
-38 25
-3d 25
-4-6 25
-48 25
-50 25
-lv 25
/1000 25
01/@@ 25
015 25
1-8 25
1.5m1.8 25
108年 25
1165@@ 25
1210 25
12345@@ 25
12g 25
1512 25
154@@ 25
167@@ 25
16ss 25
1998年 25
1m@@ 25
2009年 25
2025 25
21) 25
250ml 25
268@@ 25
28吋 25
2p@@ 25
2tb 25
3-6-12 25
32) 25
348@@ 25
357 25
359 25
36) 25
392 25
3way 25
4. 25
40-50 25
430@@ 25
432 25
445 25
447 25
462 25
474 25
4760@@ 25
486 25
4s店 25
5.4 25
5/5s 25
513@@ 25
515 25
518 25
547@@ 25
565@@ 25
568 25
6.4 25
6000@@ 25
60w 25
60x@@ 25
622@@ 25
626 25
690@@ 25
695 25
726@@ 25
761 25
766@@ 25
774 25
8+ 25
807471-@@ 25
80x@@ 25
812@@ 25
828 25
8ml 25
900g 25
940 25
983 25
9999@@ 25
9ml 25
a180 25
a19@@ 25
acc 25
accessories 25
ado 25
agete 25
airpods1/2 25
aj69@@ 25
amp 25
ana@@ 25
anniversary 25
aqu@@ 25
arena 25
ari 25
armor 25
ary 25
ata@@ 25
ated 25
balen@@ 25
ball@@ 25
bay 25
block 25
bp-@@ 25
c7@@ 25
calculus 25
carol 25
case@@ 25
cc) 25
cell@@ 25
cher 25
chimmy 25
cia 25
cit@@ 25
cole 25
colt 25
corolla 25
cq240@@ 25
c赏 25
dazz@@ 25
decay 25
down 25
drive@@ 25
duramo 25
d家 25
eat 25
ebay 25
eco-drive 25
eh 25
enjoy 25
f4@@ 25
fami@@ 25
fore@@ 25
fs-@@ 25
fuse 25
g&@@ 25
g-0@@ 25
gaga 25
gb-@@ 25
gentlemonster 25
gigabyte 25
gma-s110 25
grain 25
guilty 25
halloween 25
hard 25
hay@@ 25
hsin 25
huang@@ 25
i'm 25
ings 25
iwc万国 25
j7prime 25
j7pro 25
jane 25
jdm 25
jessie 25
jn 25
jx@@ 25
k/ 25
k12 25
k2g27@@ 25
kam@@ 25
kids@@ 25
kitan 25
kitty/ 25
lc-@@ 25
leica 25
ler@@ 25
lie 25
limit 25
lite@@ 25
lulus 25
lumix 25
lush 25
l码 25
m1.5 25
m43@@ 25
m44022 25
macbook@@ 25
marukan 25
mccartney 25
mf 25
moda 25
mono@@ 25
mother 25
motor@@ 25
mp3) 25
n626@@ 25
nak@@ 25
ncc 25
ning 25
note8t 25
nz@@ 25
oguma 25
org@@ 25
outlander 25
p& 25
p1@@ 25
pg1 25
pic@@ 25
port@@ 25
posket 25
pper 25
purcell 25
qind 25
qp 25
qqbow 25
quot; 25
r. 25
r18 25
rav@@ 25
raw 25
rb3025 25
rc-@@ 25
rda 25
relax 25
renew 25
reno2 25
rhino 25
rou@@ 25
s10e 25
sab@@ 25
schwarzkopf 25
second 25
seeds 25
sele@@ 25
sennheiser 25
shirt@@ 25
soap 25
some@@ 25
stream 25
sumikko 25
sweet@@ 25
tap@@ 25
tarte 25
tcl 25
td 25
tid@@ 25
tion 25
too@@ 25
trainers 25
ttl 25
tuning 25
t女 25
t裤 25
ue@@ 25
ula 25
us13 25
us8.5 25
v-220v 25
v-gucci 25
v7@@ 25
ven 25
very@@ 25
virgil 25
viv@@ 25
vu@@ 25
windcheater 25
wl574 25
won@@ 25
ws-@@ 25
x3@@ 25
yamamoto 25
yeh 25
yl 25
yts 25
zenfone2 25
ᄃ@@ 25
ᄉ 25
ᅥ 25
ᅮ@@ 25
―@@ 25
╯ 25
▷@@ 25
♫ 25
✎ 25
ィ@@ 25
ケ 25
スタ 25
ット 25
ハ 25
ース 25
一级 25
一组 25
三十 25
三百 25
上市) 25
上帝 25
上床 25
不失 25
丙烯 25
乐器. 25
乐器@@ 25
书人 25
乳/@@ 25
乳晕 25
乳木果 25
云台 25
京剧 25
亮晶晶 25
仓库@@ 25
仙草 25
价: 25
仿真丝 25
优良 25
伪@@ 25
佐罗 25
体位 25
体验@@ 25
佛手 25
侣@@ 25
侬 25
便利@@ 25
便宜@@ 25
促销& 25
信用 25
健步 25
催@@ 25
傻瓜 25
儿) 25
元山 25
克仿 25
克洛伊 25
公制 25
兵马俑 25
冰球 25
冲程 25
减肥@@ 25
凯蒂@@ 25
凯迪@@ 25
出入 25
切断 25
列传 25
初春 25
初榨 25
刮水器 25
前方 25
剪影 25
加倍 25
务@@ 25
十分 25
半拉 25
华泰 25
卫队 25
印鉴 25
即插即用 25
卵 25
双带 25
双模 25
发) 25
台网 25
号手 25
吋4k 25
吋八 25
名器@@ 25
后卫 25
后土 25
后脚 25
哀@@ 25
哆啦a梦@@ 25
哺乳@@ 25
唇蜜@@ 25
噗 25
土豆泥 25
境界 25
墓 25
复古风 25
夕阳 25
外野 25
多益 25
大兔兔 25
大吉@@ 25
大哥 25
大褂 25
天) 25
天花 25
头罩 25
夹趾 25
套挂 25
好走 25
妍@@ 25
妏 25
妮薇 25
字长 25
孵 25
宙斯 25
宛@@ 25
宝塔 25
宵@@ 25
家教 25
寄出 25
密封圈 25
富冈 25
小公主 25
小女孩 25
小如 25
小玩具 25
小美 25
尖叫 25
屁屁裤 25
层架 25
居室 25
屏屋 25
山姆 25
山茶 25
左边 25
巫@@ 25
布幕 25
布条 25
布纹 25
带. 25
干燥@@ 25
平躺 25
底妆 25
异想 25
归来 25
形态 25
彤彤 25
彩珠 25
往复 25
徕 25
心房 25
恭喜 25
恰恰 25
懒骨头 25
房车 25
手灯 25
打发 25
扭曲 25
扭转 25
抚@@ 25
报刊架 25
拍打 25
指示灯 25
挖耳 25
挡车 25
挽回 25
掀翻 25
排水口 25
推荐# 25
插孔 25
搜寻: 25
摩擦 25
擎 25
教条 25
文儿@ 25
斋@@ 25
斯) 25
斯卡@@ 25
新款式 25
旗帜 25
无度 25
早午餐 25
星级 25
昭@@ 25
是@@ 25
暖气 25
暨 25
曙光 25
月经 25
有机@@ 25
期货 25
木底 25
杜蕾斯 25
林心如 25
林氏 25
栏@@ 25
格林@@ 25
桂冠 25
桦@@ 25
梓 25
梢 25
梵克雅@@ 25
棉棉 25
棉絮 25
楔形 25
榻 25
横须贺 25
樱井 25
橡胶@@ 25
欧盟 25
歌剧 25
气大 25
气筒 25
氢 25
水床 25
污渍 25
汤面 25
沃克 25
油彩 25
油精 25
波特 25
泽言 25
活宝 25
流行@@ 25
浓度 25
海绵垫 25
润润 25
润肤霜 25
清纯 25
温室 25
滴管 25
潜水@@ 25
澳@@ 25
灰白色 25
灰蓝色 25
点子 25
烫手 25
熙@@ 25
燃油 25
燥 25
爆膜 25
牙具 25
牙龈 25
牧羊@@ 25
牵念 25
特务 25
犀利 25
犬宠物 25
狩猎 25
猫猫@@ 25
玉米须 25
玛德@@ 25
玥 25
玲儿 25
玻璃纤维 25
班长 25
球手 25
瑕 25
瑕盘 25
瑞克 25
瑞斯 25
瓣@@ 25
生日卡 25
用心 25
留声机 25
疏@@ 25
痔@@ 25
痞@@ 25
目鱼 25
相宜 25
相架 25
看护 25
矿泉 25
砖块 25
硅油 25
硬板 25
磁疗 25
社会@@ 25
祯@@ 25
空调衫 25
端午节 25
竿@@ 25
第3 25
筠 25
筱 25
箫 25
箴言 25
米纳 25
米菈 25
粤语 25
糯 25
素体 25
红玉 25
红石榴 25
红糖 25
纤体 25
约: 25
纳海姆 25
纸笔 25
经济@@ 25
绒球 25
结婚礼 25
统计 25
绢 25
绿豆糕 25
罂@@ 25
羊绒衫 25
美娜 25
老王 25
耗 25
耿 25
股东 25
肤质 25
胃@@ 25
胭@@ 25
胶印 25
脖圈 25
脚后跟 25
脚气 25
脱毛膏 25
自助餐 25
自律 25
舵@@ 25
艺匠 25
芙莎 25
芯片 25
花溪 25
芳芳 25
茯苓 25
茶香 25
草绿 25
药箱 25
荷重 25
莱姆@@ 25
菜籽 25
蒂芬 25
蒜蓉 25
薇薇 25
藤席 25
虹吸 25
蚀刻 25
蚊液 25
蛋白质 25
蜂蜡 25
蜜柚 25
行军 25
行款 25
行灯 25
衍生 25
衣服@@ 25
衣舍 25
衰@@ 25
裙) 25
裱花 25
裸光 25
让@@ 25
试验 25
详情 25
调理器 25
谋 25
貌 25
质保 25
购买) 25
起夜 25
超时 25
路易斯 25
转速 25
轮) 25
软水 25
轰@@ 25
辣椒@@ 25
迷你裙 25
追踪 25
通用@@ 25
邮箱 25
酥脆 25
酸性 25
醋酸 25
重金属 25
金牛座 25
钓虾@@ 25
钨 25
钱箱 25
铁杆 25
铁网 25
铁门 25
铣刀 25
铨 25
长虹 25
防晒@@ 25
防腐剂 25
除尘器 25
隐密 25
隔音@@ 25
雨罩 25
雷霆s 25
霓 25
青岛 25
静心 25
靛蓝 25
鞋壹 25
鞣@@ 25
顽 25
风儿 25
风雨衣 25
餐盘 25
饭锅 25
马丁@@ 25
马仕@@ 25
马力 25
马斯 25
驯鹿 25
骑士靴 25
骨折 25
魅族 25
鱼干 25
鲜果 25
麦斯 25
黄昏 25
黑字 25
龄犬 25
"#360 24
"b@@ 24
"chanel 24
"台湾 24
"金@@ 24
#11@@ 24
$300 24
(13@@ 24
(15@@ 24
(28@@ 24
(35@@ 24
(宝 24
(平 24
(最后 24
(本 24
(盛 24
(蓝@@ 24
(金色) 24
(阿 24
*** 24
*12 24
-250@@ 24
-27 24
-27@@ 24
-45@@ 24
-nike 24
-x 24
.e 24
001-@@ 24
003@@ 24
020@@ 24
040@@ 24
060@@ 24
08-@@ 24
1.8/@@ 24
1.9 24
1/72 24
100*@@ 24
1026@@ 24
110g 24
11mm 24
1650 24
1701 24
188@@ 24
1900@@ 24
1~@@ 24
20% 24
2000年 24
2005年 24
200u 24
2088 24
240g 24
26/@@ 24
27.5 24
297 24
2x 24
30年 24
336@@ 24
374 24
409@@ 24
418 24
426 24
481 24
482 24
48v@@ 24
491 24
495@@ 24
498@@ 24
4四 24
5" 24
5-15 24
500w 24
524@@ 24
553 24
557@@ 24
571-@@ 24
6.14 24
617 24
619 24
653 24
7-10 24
70d 24
70ml 24
716@@ 24
723@@ 24
728 24
75/@@ 24
81968@@ 24
82-@@ 24
889 24
892@@ 24
90x@@ 24
95% 24
9527 24
977@@ 24
9t@@ 24
a-2@@ 24
a-kay0 24
a15@@ 24
a59 24
a92020 24
about 24
accessory 24
af-@@ 24
agi@@ 24
aime 24
allen 24
anny 24
apeach 24
ar2448 24
ar60@@ 24
arc'teryx 24
aroma 24
az 24
b6 24
babycare 24
balenciaga@@ 24
bang@@ 24
bbgo/ 24
bebe@@ 24
birthday 24
ble 24
bleu 24
bob@@ 24
brit 24
c-0@@ 24
c/ 24
cf-@@ 24
charming 24
chien 24
cj 24
clima 24
clu@@ 24
cn 24
come@@ 24
cph@@ 24
cq24@@ 24
cur@@ 24
cx-5 24
d1 24
dash 24
david 24
dis@@ 24
dro@@ 24
dunlop 24
dvd~ 24
e- 24
e-books 24
e7 24
eds 24
ego 24
ems 24
est 24
f35@@ 24
f7 24
felicie 24
figuarts 24
g00@@ 24
gb) 24
ges 24
gin 24
givench@@ 24
grl 24
gun 24
gx3 24
h2 24
happ@@ 24
heron 24
ho-@@ 24
honey@@ 24
hr-@@ 24
hsgcsreg 24
hstnn-@@ 24
hsu@@ 24
hui@@ 24
hz 24
ikea@@ 24
ink@@ 24
ipo@@ 24
ito@@ 24
jordan1 24
k- 24
k1@@ 24
kong 24
kwazi 24
kyrie@@ 24
le-@@ 24
leo 24
levi@@ 24
lex 24
lor@@ 24
lumin@@ 24
m20 24
m445@@ 24
m50@@ 24
management 24
maxi@@ 24
merry 24
miffy 24
miui 24
mk-@@ 24
mk3 24
mk56@@ 24
moun@@ 24
mr530 24
mtg 24
mug 24
mul@@ 24
n41@@ 24
n5@@ 24
naruto 24
nature's 24
nbhd 24
ncy 24
nin@@ 24
omron 24
organic 24
our 24
paradise 24
phantom 24
playstation 24
poli@@ 24
pon 24
proctsbe 24
ps-@@ 24
purple 24
rk@@ 24
royale 24
rs-x 24
samsonite 24
scho@@ 24
shar@@ 24
sing 24
sk8 24
ski 24
spigen 24
stam@@ 24
sticker 24
stra@@ 24
strix 24
sub@@ 24
superman 24
swatch 24
sy-@@ 24
system 24
t063.61 24
tencel 24
toyo@@ 24
trinomic 24
tro 24
u1 24
underarmour 24
unicorn 24
uq 24
uri@@ 24
vd 24
vene@@ 24
vivier 24
w1 24
whe@@ 24
wk 24
word 24
xon 24
xq@@ 24
xs-@@ 24
y6 24
y7@@ 24
yabbi 24
z01 24
ze520 24
zenfone5 24
zer 24
zoeva 24
ɪ@@ 24
ᄂ@@ 24
ᄌ@@ 24
ᆼ@@ 24
℃ 24
ⅱ@@ 24
∵@@ 24
┍全场 24
╭☆雪 24
☆代购 24
☛☛ 24
♡♡ 24
✤ℊℴℴ₫ 24
✶ 24
ほ@@ 24
ュ@@ 24
ㄚ 24
ㄧ组 24
一体@@ 24
万斯@@ 24
三星s10 24
上架@@ 24
不见不散 24
专卖@@ 24
世一 24
两用) 24
丫头 24
中小 24
中裤 24
丽莎@@ 24
义乳 24
书. 24
二哥 24
云集 24
五角 24
些@@ 24
交响@@ 24
仔机 24
企业@@ 24
伊莱克斯 24
优惠价: 24
优然 24
伤发 24
体质 24
你好 24
例 24
供货 24
侧灯 24
侧睡 24
促进 24
僧@@ 24
元. 24
充大 24
克/@@ 24
兑换券 24
全实木 24
公子 24
养生壶 24
内建 24
内里@@ 24
冰川 24
凉靴 24
凰 24
出击 24
出版@@ 24
判 24
剩下 24
力强 24
加入 24
包包) 24
包屁衣 24
升级@@ 24
升级版) 24
半熟 24
华美 24
协调 24
单价 24
单方 24
单日 24
单组 24
南阳 24
南风 24
卤 24
历险记 24
原产 24
双侧 24
双核 24
发货@@ 24
变声器 24
变身器 24
可携带 24
吉儿 24
同色 24
名师 24
名表 24
吼 24
呼噜 24
咲@@ 24
品#@@ 24
品蓝 24
哈姆@@ 24
哦) 24
唐尼 24
唢呐 24
售价: 24
唱@@ 24
唷) 24
喂奶 24
喜剧 24
喵の 24
回头 24
围墙 24
均@@ 24
基德 24
壁架 24
壸 24
壹脚蹬 24
多款 24
大眼蛙 24
天堂t 24
太岁 24
奇特 24
套票 24
女武神 24
女鞋#@@ 24
奶油色 24
奶牛 24
好棒 24
妖妖 24
姥@@ 24
娅@@ 24
娘子 24
孔器 24
孚 24
安利美特 24
安居 24
定做@@ 24
宛 24
宥 24
宵 24
宽腰带 24
寓@@ 24
小不点 24
小林 24
小议 24
少儿 24
屌@@ 24
展示台 24
干燥机 24
年限 24
幻境 24
开闭 24
异型 24
强力胶 24
彩金 24
彼@@ 24
怀孕期 24
态度 24
悠闲 24
愈@@ 24
戏剧 24
成员 24
所罗门 24
手球 24
打印纸 24
打手 24
打水 24
折抵 24
抢购@@ 24
拉手 24
拉车 24
拍卖@@ 24
挂链 24
挤牙膏器 24
捆扎 24
捷豹 24
排挡 24
探测器 24
摇钱树 24
收藏家 24
收钱 24
放松器 24
敌@@ 24
教主 24
敦 24
数位@@ 24
数控 24
料) 24
斜边 24
新光 24
无边 24
无骨 24
曼哈顿 24
曼黛玛琏 24
有) 24
有度 24
朋堂 24
服) 24
木乃伊 24
木板床 24
本周 24
术: 24
机头 24
杀戮 24
权力 24
来往 24
枫@@ 24
柏油 24
档案夹 24
棉条 24
棋洛 24
棒) 24
横线 24
步枪 24
毕@@ 24
毛笔字 24
毛裤 24
民用 24
氯@@ 24
水口 24
水带 24
水杨酸 24
汇款 24
汽缸 24
汽车) 24
沐浴@@ 24
油亮 24
法: 24
泥膜 24
洁肤@@ 24
派对@@ 24
浪漫@@ 24
消失 24
消音器 24
淡紫 24
深情 24
深蓝@@ 24
清水河 24
温器 24
温莎 24
满身 24
滢@@ 24
滴剂 24
瀚@@ 24
炮台 24
炼金 24
烂@@ 24
烈焰 24
烧水 24
烨 24
热带鱼 24
牵引器 24
特卖) 24
特惠# 24
犯@@ 24
犯罪 24
状态 24
狸 24
獭 24
玉兔 24
现代@@ 24
现货✿ 24
玻璃纸 24
珍珠奶茶 24
珞@@ 24
球队 24
理查@@ 24
瑕保 24
瑾 24
瓣 24
用地 24
田径 24
电子书 24
电木 24
电池组 24
电磁@@ 24
男潮 24
男馆 24
百分百@@ 24
皓 24
盖器 24
盛夏 24
直尺 24
相扑 24
真空包装 24
硅 24
磅秤 24
禹@@ 24
科幻 24
科目 24
秒@@ 24
稳压 24
穿孔 24
突 24
窟 24
笔杆 24
箍 24
米亚@@ 24
米沃@@ 24
类比 24
粉饼@@ 24
紫金 24
纯. 24
纸品 24
纺织 24
纾@@ 24
组$@@ 24
细软 24
维度 24
缆@@ 24
编辑 24
罗威 24
美媒 24
美瞳 24
美能 24
群组 24
羽绒衣 24
考勤机 24
聚氨酯 24
股票 24
背包包 24
脂机 24
脚轮 24
自然风 24
舖☆@@ 24
船长 24
艾迪 24
花器@@ 24
茶袋 24
草绿色 24
莱姆 24
莺歌 24
菈菈 24
菲儿 24
菲比 24
萝莉@@ 24
萤 24
营养液 24
葫芦@@ 24
薰炉 24
虐 24
蛇形 24
蜗@@ 24
蜡油 24
行书 24
衣女 24
衣橱の 24
袜) 24
装饰家 24
裤#@@ 24
褂 24
西亚 24
览@@ 24
解码 24
诉讼法 24
试用品 24
试纸 24
贡@@ 24
货运 24
贪@@ 24
超频 24
踩@@ 24
转让 24
软化 24
辅导 24
运✪ 24
这边 24
途@@ 24
遇见妳 24
邮原厂 24
酷玩街 24
重装 24
野人 24
金品汇 24
金标 24
钓鱼@@ 24
钢炮 24
铜器 24
铝管 24
银子 24
销售: 24
锋@@ 24
锌@@ 24
长枕 24
长袖@@ 24
长途 24
防盗器 24
防雨罩 24
阿富汗 24
陆军 24
青春@@ 24
青龙 24
靖 24
鞭@@ 24
预付 24
领带夹 24
颊@@ 24
风格@@ 24
风灯 24
风雨 24
风馆 24
食尸鬼 24
饭桶 24
饮料机 24
驻颜 24
驾照 24
高雄@@ 24
高雄市 24
鸥美乐蒂 24
麋@@ 24
麻雀 24
黄杨 24
黏性 24
黑天 24
鼎@@ 24
龄@@ 24
ｓ 24
"-@@ 23
"a&f 23
"乐@@ 23
"裴裴 23
#- 23
#10@@ 23
#2019 23
#39@@ 23
#adidas 23
$$@@ 23
$1000 23
($@@ 23
(120 23
(180 23
(2017 23
(2019年 23
(36-4@@ 23
(b) 23
(s号) 23
(下@@ 23
(二) 23
(二色 23
(全新品) 23
(卖场 23
(女@@ 23
(杏@@ 23
(正品 23
(紫色) 23
(绝版 23
(色 23
(降价 23
(高雄 23
*30 23
-08@@ 23
-200 23
-5.6 23
-50@@ 23
.figuarts 23
/1.8 23
/9 23
/三@@ 23
001) 23
051 23
1003 23
1021 23
1050@@ 23
110-@@ 23
120x@@ 23
1300@@ 23
1380 23
1401 23
150/@@ 23
1660 23
1680 23
170ml 23
1:12 23
1mp3) 23
1p 23
1三 23
2018.@@ 23
2022.@@ 23
219@@ 23
22.@@ 23
220g 23
255@@ 23
265@@ 23
28) 23
28-38 23
28/@@ 23
29-@@ 23
296 23
2980 23
2g/@@ 23
3-3@@ 23
3. 23
300h 23
309@@ 23
320ml 23
342 23
35x@@ 23
380v 23
381 23
396 23
397 23
3ctown 23
3x 23
3y 23
4*@@ 23
41mm 23
464 23
465@@ 23
4色 23
5- 23
501@@ 23
5118@@ 23
528 23
531 23
558 23
5plus 23
6+/@@ 23
6- 23
6-12m 23
6.8 23
6/7/8 23
615@@ 23
628 23
636@@ 23
641 23
6500 23
664@@ 23
667 23
697 23
71-@@ 23
725@@ 23
75cm 23
762 23
764 23
7b 23
7pro 23
7t 23
811 23
812 23
819686-@@ 23
859 23
876 23
891 23
90) 23
924 23
951 23
960 23
970@@ 23
9789578@@ 23
981 23
984 23
997@@ 23
9c 23
@新货 23
]. 23
a32-@@ 23
aaaa@@ 23
adore 23
ahd 23
aikatsu 23
ail 23
alpha@@ 23
alter 23
atmos 23
avon 23
b' 23
baby☆ 23
beautiful 23
bio-@@ 23
blst 23
blu@@ 23
bluetooth 23
bonjour 23
bosch博 23
brown@@ 23
bs-@@ 23
bull 23
byredo 23
c-4@@ 23
c4@@ 23
cad 23
canada 23
carter 23
cc.@@ 23
ces 23
classic@@ 23
clemen@@ 23
cook 23
cooky 23
cp-@@ 23
crazylight 23
cu 23
d- 23
d4 23
dad 23
daks 23
descen@@ 23
dor@@ 23
dra@@ 23
dress@@ 23
dvz 23
elephant 23
ent 23
eo@@ 23
eq 23
ere 23
eric 23
evi@@ 23
ew-@@ 23
five 23
frame 23
g4@@ 23
gan@@ 23
gozo 23
gray 23
great 23
gudetama 23
guy 23
g±@@ 23
h2o 23
handmade 23
hen@@ 23
hv@@ 23
ic-@@ 23
iphone7/8plus 23
isbn 23
isneakers 23
jen 23
k30 23
kl/@@ 23
km@@ 23
kors/@@ 23
label 23
ladies 23
lex@@ 23
lf 23
li-@@ 23
lillard 23
liu@@ 23
logo/ 23
lt-@@ 23
lucy 23
l钛 23
m419@@ 23
mastermind 23
max/xr 23
meiji 23
mes 23
microsd 23
ming@@ 23
moi@@ 23
nacnac 23
net@@ 23
note6 23
notebook 23
o'@@ 23
ode 23
ola 23
ordinary 23
ore@@ 23
ow@@ 23
oxo 23
parfum 23
peggy 23
peko 23
please 23
polar 23
pour 23
ppt 23
pp短t 23
prada@@ 23
press 23
prince 23
pro11 23
protro 23
pt950 23
pul@@ 23
r15@@ 23
r698 23
rage 23
rel 23
rfid 23
rise 23
rj@@ 23
roberta 23
roland 23
royal@@ 23
s/m/@@ 23
s1@@ 23
s7edge 23
s9+ 23
s999 23
s: 23
sei@@ 23
serum 23
shox 23
sing@@ 23
slime 23
smar@@ 23
smash 23
ssr 23
stand 23
starwars 23
staub 23
stripe 23
sum@@ 23
superb 23
te-@@ 23
tech@@ 23
tex@@ 23
thi@@ 23
things 23
tiffany@@ 23
ting@@ 23
to-@@ 23
tos 23
tre 23
tus 23
twinkle 23
t棉t 23
t运动 23
unc 23
us12 23
us8 23
ute 23
v1@@ 23
vera 23
vf 23
vista 23
viva 23
vlog 23
vol.4 23
vor@@ 23
wall 23
wash 23
wheath- 23
wide 23
wn 23
women's 23
wonder@@ 23
wonderland 23
x/xs/xr 23
x450 23
xin@@ 23
xo 23
yao 23
yd 23
yin 23
yr@@ 23
yzf-@@ 23
zl 23
~~~~~~@@ 23
ᅳ@@ 23
ᆨ@@ 23
ᴀ 23
⁎@@ 23
↓@@ 23
∬@@ 23
│东 23
◤ 23
★allpop★ 23
★◎★ 23
☆买 23
✎@@ 23
ケ@@ 23
㊣❧ 23
一字@@ 23
专用车 23
丘@@ 23
丝线 23
个性化 23
丰润 23
久久 23
乐购 23
九把刀 23
书挡 23
亩 23
人: 23
人士 23
人大 23
仅@@ 23
伏@@ 23
优利 23
伟士 23
传记 23
位器 23
佐雅 23
佛龛 23
作; 23
作品集 23
例@@ 23
供水 23
侯 23
保水 23
保险杠 23
修护@@ 23
修长 23
俯卧撑 23
倒车镜 23
假货 23
傲@@ 23
克拉@@ 23
克洛@@ 23
克里@@ 23
免运"@@ 23
全功能 23
内墙 23
内野 23
军绿 23
农机 23
冰棍 23
冷袋 23
凡赛斯@@ 23
出包 23
出租@@ 23
出道 23
分享@@ 23
分析@@ 23
刊@@ 23
刻花 23
前盖 23
剖@@ 23
剖腹产 23
劈@@ 23
动器 23
助手 23
包蔻 23
匡 23
十四 23
千万 23
卡文克莱 23
印染 23
印花布 23
即用 23
历代 23
厌@@ 23
原价: 23
去污@@ 23
去角 23
发女 23
可爱@@ 23
各款 23
合壹 23
吉士@@ 23
吉普@@ 23
后宫 23
呱呱 23
呼吸@@ 23
咕@@ 23
咚咚 23
咨@@ 23
哔@@ 23
商事 23
喂食器 23
喜洋洋 23
园) 23
国旅 23
土色 23
地上 23
地形 23
场地 23
坎 23
坐月子 23
坡@@ 23
培罗娜 23
填缝 23
境@@ 23
墨盒 23
墬子 23
外貌 23
大会 23
大吉 23
大田 23
大福 23
大道 23
大门口 23
大飞 23
天官 23
天眼 23
天鹅堡 23
央 23
夹#@@ 23
奇怪 23
奇菲尔德 23
奕奕 23
套包 23
套头@@ 23
套车 23
奶杯 23
奶糖 23
好喝 23
姚 23
嫁衣 23
嬷@@ 23
字拖 23
守望 23
安可 23
安迪 23
完) 23
定位器 23
宣传单 23
害@@ 23
容量: 23
宽松@@ 23
密集 23
富力 23
察@@ 23
寡妇 23
对比 23
小桃 23
小燕子 23
小盒子 23
小舖-@@ 23
小鼠 23
少女@@ 23
尚头 23
尼禄 23
尿片 23
展现 23
山本耀 23
嵌@@ 23
巅 23
巡逻 23
工业用 23
工兵 23
巧思 23
布. 23
布拉@@ 23
布朗@@ 23
帘杆 23
帽) 23
幔@@ 23
广州 23
库存品 23
廉 23
建材 23
开荒 23
弹头 23
强制 23
强大 23
强韧 23
彦@@ 23
德斯 23
心爱 23
必须 23
忆@@ 23
思莲恩 23
恩典 23
恭@@ 23
恭喜发财 23
悠活 23
悸动 23
情书 23
惊悚 23
惹火 23
憩 23
房事 23
手膜 23
手锯 23
扑@@ 23
扒@@ 23
扣锁 23
扩音 23
扮@@ 23
护踝 23
抬@@ 23
抽烟 23
拉架 23
拉格@@ 23
指压 23
指标 23
按动 23
接器 23
接送 23
提神 23
搭) 23
携手 23
摄@@ 23
摆地摊 23
收藏@@ 23
文青 23
斯伯@@ 23
新作 23
新品# 23
新品) 23
无接缝 23
日出 23
日程 23
时区 23
时尚) 23
时装表 23
星期@@ 23
星期四 23
昭和 23
景轩 23
晶莹 23
曼巴 23
月季 23
木屐 23
木盘 23
机壳@@ 23
来到 23
松石 23
板车 23
极客 23
极轻 23
枕心 23
林俊杰 23
林内 23
果) 23
柜: 23
柠檬味 23
格调 23
栽培 23
桃红@@ 23
桐木 23
棕垫 23
椒盐 23
樟 23
橘) 23
款加绒 23
正统 23
武者 23
每本 23
气潮 23
水产 23
水仪 23
汽车@@ 23
沥青 23
沫 23
波器 23
注明 23
洛斯 23
浏海@@ 23
浩瀚 23
海外版 23
海岛 23
海报) 23
清洗器 23
清高 23
渗@@ 23
渠道 23
火柴盒 23
灰狼 23
烯@@ 23
焗 23
爆丸 23
爵士舞 23
父 23
牌桌 23
牙缸 23
牛尔 23
牛肉@@ 23
物罐 23
犬/@@ 23
狐狸@@ 23
猎鹰 23
猫咪@@ 23
猫舍 23
王乔 23
玛莉 23
玛莎 23
现货& 23
玲玲 23
珍映 23
球) 23
球馆 23
理器 23
琳娜 23
琼@@ 23
璃 23
生死 23
甲器 23
电台 23
电灯泡 23
电版 23
电磁阀 23
界@@ 23
畜牧 23
痘痘@@ 23
痴@@ 23
白兰 23
百兽 23
盅@@ 23
盒. 23
盒玩 23
直插 23
相信 23
相间 23
眠@@ 23
眼妆 23
睡椅 23
知恩 23
矫姿 23
短篇 23
码数: 23
砂石 23
确定 23
碳刷 23
碳纤@@ 23
磊 23
礼) 23
祐 23
禁忌 23
禅@@ 23
福尔摩斯 23
福斯@@ 23
科尔 23
科普 23
秒针 23
秘笈 23
穆@@ 23
穿洞 23
立柜 23
章钉 23
童) 23
端庄 23
竹片 23
竹篮 23
笔管 23
笔记@@ 23
笨 23
米尔@@ 23
粮@@ 23
紫铜 23
红参 23
纤纤 23
纸尿布 23
纹银 23
纽曼 23
线型 23
线网 23
细条 23
细毛 23
结单) 23
绕脖 23
络@@ 23
缝制 23
罐罐 23
网孔 23
网页 23
罗汉 23
羊皮@@ 23
羊角 23
美术馆 23
美特 23
翡@@ 23
翻滚 23
耳夹 23
聚焦 23
聿 23
肢 23
肥胖 23
背影 23
胶圈 23
胶带@@ 23
臂@@ 23
自修 23
自动机 23
舒芙 23
色板 23
芊 23
花台 23
花种 23
芸莎 23
英制 23
茶包 23
茶油 23
茶茶 23
药丸 23
莎拉 23
莫代尔 23
获 23
莹莹 23
菈 23
菓@@ 23
著@@ 23
蓝花 23
蕾姆 23
薄板 23
蜡绳 23
血滴 23
衣#@@ 23
表女 23
表表 23
衫t恤 23
装袋 23
装闺 23
西部 23
角川@@ 23
订书 23
设计) 23
说明@@ 23
负压 23
货单 23
贵州 23
赚钱 23
赤道 23
超骚 23
跪 23
路路 23
身长 23
达尔文 23
迅 23
连锁 23
逃 23
选用 23
邓@@ 23
酒水 23
酚@@ 23
酪梨 23
酸甜 23
酸痛 23
野性 23
量多 23
金山 23
金星 23
金黄 23
鉴@@ 23
钢包 23
铁器 23
铁甲 23
铁线 23
铁锤 23
铸@@ 23
铸造 23
锯机 23
镖 23
长大衣 23
闷热 23
阅@@ 23
阿嬷 23
阿尔 23
阿甘鞋 23
降低 23
陶瓷器 23
陷阱 23
隧道 23
零食@@ 23
青色 23
靠山 23
面纱 23
韩. 23
韩方 23
频@@ 23
频率 23
风华 23
风景画 23
飞船 23
飨 23
饺@@ 23
馄饨 23
馆长 23
香体 23
驱动器 23
驱虫 23
骗人 23
高龄 23
魁 23
鸟窝 23
鸟笼子 23
鸭绒 23
鸭鸭 23
麦精 23
麻纱 23
齐胸 23
￥爆 23
"10 22
"三 22
"全 22
"思思 22
"无@@ 22
#c@@ 22
#telethi 22
$全场 22
(0.@@ 22
(100@@ 22
(11 22
(23@@ 22
(250 22
(45 22
(东 22
(厚 22
(厚) 22
(夹 22
(爆 22
(福利 22
(第一 22
(耐 22
(花 22
(订单 22
(银色) 22
----- 22
-100% 22
.w 22
/500 22
/978986@@ 22
/a 22
/ck 22
/cosplay 22
/m 22
00) 22
019 22
080@@ 22
09/@@ 22
092@@ 22
0g 22
1-7 22
1.5m1.8m 22
1/144@@ 22
100v 22
1010@@ 22
1017 22
1030 22
1103 22
12-15 22
1250 22
13000 22
14*@@ 22
17.3 22
1941 22
197@@ 22
1991 22
1996 22
1f 22
207@@ 22
2090 22
20a 22
23.@@ 22
26cm 22
297@@ 22
29cm 22
2手 22
3/8@@ 22
30/ 22
307@@ 22
33*33cm 22
33x@@ 22
35-45 22
36-47 22
36cm 22
37.00 22
387 22
39-@@ 22
3rd 22
4-100 22
400% 22
4165 22
425@@ 22
439 22
456@@ 22
45g 22
46mm 22
48h 22
48mm 22
49016@@ 22
4p 22
5. 22
5/ 22
5001 22
507@@ 22
515@@ 22
5500 22
555088-0@@ 22
55cm 22
566@@ 22
598 22
5c@@ 22
5s/@@ 22
5代 22
6.35 22
6/ 22
6/23 22
6/7 22
614 22
649 22
6c 22
7*@@ 22
7- 22
7/2 22
7/7 22
70mm 22
722 22
757 22
8.8 22
811@@ 22
817@@ 22
853 22
884 22
890@@ 22
9.7吋 22
9.8 22
917 22
927 22
98-178 22
980@@ 22
9w 22
;@@ 22
[a0@@ 22
]925 22
]※ 22
a.tw 22
a200 22
a22@@ 22
a72018 22
a_@@ 22
adventure 22
akb48 22
alasha 22
ali 22
alph@@ 22
angela@@ 22
anker 22
antonio 22
ar58@@ 22
ar5920 22
asa 22
ashley 22
ato@@ 22
b12@@ 22
b28@@ 22
b8 22
bearbrick 22
belle 22
bershka 22
beyond 22
boss@@ 22
brick@@ 22
bulls 22
byo 22
c-3@@ 22
c7 22
cai@@ 22
carmate 22
carolina 22
chocolate 22
chy 22
cker 22
cns 22
colour 22
combo 22
coni 22
connect 22
conver@@ 22
cosmetics 22
cou@@ 22
d's 22
de-@@ 22
deal 22
destiny 22
dha 22
dona 22
dos 22
dreams 22
drew 22
driver 22
egf 22
ela@@ 22
er. 22
ergo@@ 22
ero 22
exo@@ 22
fair@@ 22
favorite 22
find@@ 22
fjallraven 22
flb 22
[...]
