/ 76357
( 58185
) 57671
for 54116
" 45097
dress 22998
- 22979
with 22947
bag 21969
, 21142
case 21085
and 20824
set 19824
's 17401
! 16844
cod 16342
& 15628
# 15362
women 13914
black 13241
new 13154
1 12881
top 12810
men 12525
korean 12146
size 11878
fashion 10946
in 10851
shoes 10772
plus 10537
2 10233
kids 10107
3 9899
authentic 9869
white 9779
original 9725
baby 9584
shirt 9467
preloved 9394
the 9187
: 7852
mini 7794
of 7757
by 7683
sale 7407
+ 7101
gold 7087
samsung 6982
. 6821
cotton 6750
blue 6749
high 6698
4 6478
quality 6470
watch 6393
w 6312
sling 6286
to 6218
[ 6195
ladies 6175
] 6174
iphone 6165
shorts 6160
free 6157
terno 5975
pants 5837
design 5759
5 5753
x 5644
6 5643
pro 5613
\ 5569
long 5545
cream 5468
glass 5344
silver 5343
short 5263
floral 5193
box 5174
a 5167
soap 5146
on 5136
blouse 5117
red 5116
pink 5053
mask 5044
body 4966
100 4921
shoulder 4873
cover 4863
hard 4863
light 4700
% 4587
7 4584
nike 4351
unisex 4341
leather 4334
8 4330
color 4271
tempered 4205
backpack 4136
* 4127
face 4065
hair 4053
usb 4033
10 3998
| 3943
denim 3928
oil 3911
hand 3852
green 3834
skin 3823
one 3804
small 3784
pack 3731
phone 3730
led 3726
m 3705
live 3700
necklace 3680
casual 3659
t-shirt 3591
oppo 3542
ring 3483
car 3467
wallet 3460
brand 3434
hello 3424
sandals 3408
stainless 3400
matte 3368
skirt 3321
polo 3301
lip 3237
kitty 3223
back 3181
soft 3162
huawei 3158
s 3150
pcs 3146
up 3120
battery 3108
girl 3099
holder 3099
printed 3095
piece 3089
bluetooth 3048
plain 3037
bracelet 3002
earrings 2988
cute 2985
style 2970
water 2968
sexy 2955
jacket 2949
all 2944
perfume 2901
socks 2886
girls 2875
only 2855
gel 2842
air 2827
large 2827
charger 2813
kit 2752
powder 2734
off 2730
cable 2713
full 2701
12 2693
-@@ 2681
waterproof 2669
2018 2665
old 2626
sleeve 2587
jeans 2585
i 2563
power 2563
lotion 2556
rubber 2556
steel 2555
c 2540
super 2540
vivo 2537
mobile 2529
summer 2526
max 2521
pouch 2514
portable 2509
whitening 2475
us 2474
toy 2460
h 2450
t 2449
medium 2443
e 2440
premium 2439
bottle 2418
card 2417
lace 2415
wireless 2400
beauty 2386
big 2382
couple 2382
out 2367
l 2357
magic 2354
book 2296
secret 2293
brush 2292
tshirt 2289
selling 2280
100ml 2275
from 2269
tops 2262
series 2260
motorcycle 2242
travel 2235
bath 2217
g 2214
' 2209
d 2207
bags 2198
assorted 2195
bundle 2193
sports 2183
strap 2170
print 2162
sticker 2158
good 2154
love 2126
lite 2110
per 2110
no 2090
galaxy 2084
e@@ 2070
mens 2064
adidas 2061
cap 2048
belt 2008
20 1997
inspired 1994
heart 1991
stand 1983
de 1967
bra 1966
3d 1963
mouse 1952
star 1946
n 1945
speaker 1936
coach 1932
rose 1918
neck 1917
fit 1914
sleeveless 1913
k@@ 1909
ultra 1892
universal 1892
flower 1890
hot 1880
2019 1875
b 1875
waist 1875
ml 1869
double 1867
clear 1865
japan 1862
flat 1843
lipstick 1839
o 1826
fan 1823
18k 1821
character 1819
made 1816
g@@ 1815
sleeves 1813
round 1805
s@@ 1805
brown 1802
organizer 1800
plastic 1799
2016 1797
note 1797
my 1795
pen 1792
tote 1791
or 1790
tea 1782
onhand 1780
swimsuit 1777
j7 1771
italy 1756
crop 1755
2017 1749
camera 1749
apple 1748
9 1740
adult 1733
re@@ 1728
milk 1727
pocket 1726
6s 1719
2in1 1710
candy 1708
victoria 1707
edition 1697
tee 1689
tpu 1686
p@@ 1685
dark 1680
classic 1677
spray 1673
x@@ 1669
best 1668
jewelry 1668
natural 1663
organic 1656
wall 1654
romper 1653
liquid 1650
prime 1649
collection 1618
toys 1617
take 1616
boys 1609
i@@ 1608
paper 1608
stripe 1607
boy 1604
coffee 1604
t@@ 1604
care 1600
type 1592
shampoo 1590
11 1586
yellow 1586
two 1584
mist 1577
30 1575
metal 1573
branded 1567
gray 1567
home 1565
trendy 1565
electric 1562
pure 1560
tint 1557
storage 1555
y 1555
headset 1553
bar 1547
doll 1542
dual 1541
clothes 1539
d@@ 1537
slim 1537
facial 1525
pad 1518
a@@ 1517
cut 1517
c@@ 1513
game 1512
b@@ 1500
r 1500
protector 1499
eye 1495
arrival 1493
n@@ 1491
wash 1491
k 1490
l@@ 1490
skinny 1489
pendant 1486
colors 1480
check 1475
y@@ 1471
chain 1470
m@@ 1469
casio 1466
sando 1466
cartoon 1465
o@@ 1463
side 1460
checkout 1457
laptop 1457
cat 1452
50 1447
party 1440
dog 1436
food 1412
maxi 1409
f@@ 1408
u 1405
glow 1404
panty 1400
shockproof 1394
nature 1393
hoodie 1392
vintage 1392
knitted 1389
school 1389
screen 1385
pillow 1380
21 1379
a7 1376
pop 1376
92.5 1375
clip 1374
gift 1371
korea 1371
cup 1367
smart 1366
swimwear 1364
h@@ 1361
bikini 1358
silicone 1356
buy 1354
mickey 1352
serum 1349
little 1347
navy 1347
me 1344
saudi 1339
charm 1335
unicorn 1335
xiaomi 1331
tees 1326
costume 1325
wear 1324
towel 1323
inches 1320
12pcs 1319
pencil 1319
z@@ 1318
16 1316
2020 1312
michael 1312
lv 1311
works 1307
stripes 1306
head 1304
handbag 1300
nova 1298
bear 1296
v 1286
grams 1283
v@@ 1281
bts 1276
anti 1273
low 1270
mirror 1268
pc 1262
3in1 1261
disney 1261
j@@ 1259
man 1259
digital 1257
foam 1252
xl 1248
r@@ 1245
lens 1240
shipping 1236
happy 1230
vitamin 1229
sport 1227
15 1222
cherry 1220
xs 1217
collagen 1211
lacoste 1211
square 1203
shop 1202
elegant 1201
sneakers 1201
kors 1200
orange 1200
fast 1199
oem 1199
basketball 1195
genuine 1193
toner 1191
gucci 1190
makeup 1190
overruns 1187
z 1182
mk 1180
10@@ 1175
fresh 1175
single 1175
shirts 1174
kitchen 1173
.@@ 1172
go 1169
2@@ 1159
18 1158
handle 1158
keychain 1158
w@@ 1158
ball 1157
u@@ 1156
frame 1152
pre-loved 1151
5@@ 1150
3@@ 1144
2015 1143
chocolate 1142
tie 1140
bangkok 1136
tape 1131
5s 1130
de@@ 1129
stick 1125
ink 1124
pajama 1120
nba 1119
jumpsuit 1117
redmi 1115
fashionable 1113
crystal 1112
asus 1110
formal 1108
womens 1107
jordan 1106
you 1106
board 1101
1@@ 1100
_ 1097
way 1096
8@@ 1095
adapter 1095
nail 1094
accessories 1086
f 1085
as@@ 1084
mio 1078
button 1076
60 1075
zipper 1073
canvas 1064
sun 1064
sony 1061
lamp 1059
slippers 1058
pet 1055
front 1054
tube 1053
6@@ 1050
leggings 1050
powerbank 1050
360 1043
forever 1043
se 1042
running 1038
in@@ 1036
4@@ 1035
figure 1032
sold 1030
kid 1025
inch 1021
shoe 1018
wooden 1015
as 1014
years 1011
to@@ 1008
velvet 1004
bavin 1003
charging 1002
statement 1000
p 995
table 994
washable 994
coin 992
children 991
eau 991
cross 983
heels 983
house 980
lucky 980
earphone 979
it 976
limited 973
essential 970
purse 970
shock 967
christmas 966
se@@ 965
pearl 964
jelly 963
10pcs 957
diamond 952
li@@ 952
cleansing 946
blush 945
office 944
24 943
filter 942
personalized 942
fragrance 936
special 935
pre 929
925 928
jogger 926
micro 925
adjustable 924
king 924
mi@@ 924
palette 924
conditioner 923
50ml 922
funko 921
night 921
ro@@ 921
band 920
ribbon 920
ing 919
mix 919
mo@@ 917
13 914
thailand 911
eyebrow 910
@ 908
le@@ 908
aloe 907
14 906
12@@ 905
es 905
perfect 904
stone 904
can 903
fabric 903
album 902
j2 901
wallpaper 901
la 900
stretchable 900
ph 899
an 898
touch 898
jersey 897
zenfone 896
cloth 895
balloon 894
outdoor 891
bank 890
door 889
a37 887
her 887
day 886
android 884
code 884
mat 884
oz 884
time 881
tool 881
birthday 880
tester 880
guard 879
available 877
a3s 876
hd 875
pair 874
hp 873
princess 873
slip 872
beach 871
bed 871
f5 871
150 869
j5 868
kate 868
switch 868
price 867
rechargeable 867
art 866
curtain 864
diy 862
f7 862
version 862
7@@ 861
ti@@ 861
co@@ 860
40 858
is 858
al@@ 857
machine 856
mate 856
mi 855
proof 852
wrap 852
longsleeve 851
grey 848
cheek 847
make 845
.. 843
chanel 843
edge 843
juice 842
seller 842
armor 841
keyboard 841
wedge 841
9@@ 840
cleanser 840
key 840
zara 840
blazer 838
di@@ 838
foundation 837
tv 836
clay 833
headband 833
dry 831
f9 830
ice 830
me@@ 828
bike 827
human 826
protection 826
6pcs 825
an@@ 824
lock 824
jumper 823
scrub 822
pieces 821
overrun 820
tank 819
purple 818
a5 813
basic 813
j 810
stickers 810
toyota 810
spade 806
books 805
er 805
foil 805
2pcs 804
lady 804
ar@@ 802
marvel 802
class 801
lego 801
bb 799
brandnew 799
suit 798
string 797
a71 794
bodycon 794
gaming 794
ri@@ 792
earring 789
honda 787
official 787
woman 787
25 785
a83 784
chiffon 784
drive 784
months 784
plated 784
colored 783
guess 783
play 783
rejuvenating 783
diaper 782
used 782
plate 781
ba@@ 780
logo 778
core 777
y53 777
stud 775
y6 774
v7 772
customized 769
ed 767
flash 767
pump 767
0@@ 766
foldable 766
ipad 766
250ml 764
halter 764
hat 764
avon 763
semi 763
f1s 762
rack 759
flip 758
lo@@ 758
toddler 757
your 755
polka 754
at 752
adhesive 751
eyeshadow 750
sweater 749
iron 747
order 747
v11 747
life 745
louis 743
30ml 742
real 740
coat 738
le 738
er@@ 737
co 736
• 734
sweet 733
disposable 732
decor 731
essence 730
mg 728
tumbler 728
underwear 727
ac@@ 726
gluta 726
magnetic 726
st@@ 726
xr 726
5g 723
flats 722
vuitton 722
photo 721
wood 721
animal 720
foot 720
mesh 720
30@@ 719
po@@ 719
pro@@ 719
colourpop 716
f3 716
s-@@ 716
al 715
be 714
125 713
balm 713
mall 712
capsules 711
mac 711
v9 711
bi@@ 709
pawnable 709
pull 708
bedsheet 707
complete 706
striped 705
si@@ 704
70 703
data 703
3pcs 702
am@@ 698
brake 698
multi 698
acrylic 697
500ml 696
pvc 696
half 695
s6 695
notebook 694
professional 694
1pc 692
a59 692
luxxe 691
ma@@ 691
be@@ 688
ers 688
~ 688
s8 686
16@@ 685
20@@ 684
cushion 683
frozen 683
un@@ 683
cold 682
mic 681
queen 681
usa 681
v5 680
wedding 680
package 679
ukay 679
cutter 678
dream 677
t-@@ 677
vera 677
world 675
infant 674
bo@@ 673
ear 673
transparent 672
17 671
cod@@ 671
s7 671
50@@ 670
fruit 670
line 670
cake 669
remover 669
items 668
butterfly 667
cellphone 666
control 664
female 664
pesos 664
cm 660
cool 660
j4 658
offshoulder 657
pandora 657
pads 656
seeds 656
10ml 655
automatic 655
replica 655
6g 654
lcd 653
vinyl 653
4in1 652
action 652
pan 651
j6 650
sheet 650
16gb 649
cosmetics 649
microphone 649
stock 649
loved 648
y71 647
32 646
car@@ 646
cleaner 645
innisfree 645
bow 644
q@@ 644
stereo 644
en@@ 643
honey 642
19@@ 641
clutch 641
ms 641
so@@ 640
marikina 639
te@@ 639
... 638
la@@ 638
minnie 638
first 637
longsleeves 637
00@@ 636
converse 636
gathering 636
onesie 636
tag 636
ho@@ 634
paint 633
down 631
500 630
plush 630
15@@ 629
seat 629
tree 629
urban 628
deep 626
speed 626
p20 625
extra 624
folding 623
sugar 623
block 620
safety 619
carter 618
glutathione 618
layer 616
wholesale 616
dc 615
13@@ 614
18@@ 614
simple 614
slingbag 614
we 613
ne@@ 612
wifi 612
01 610
snail 610
wild 609
crochet 608
fits 608
imported 608
rainbow 608
'@@ 607
a6 607
acid 607
moisturizing 607
7g 606
gundam 606
sp@@ 606
sunglasses 606
do@@ 605
dresses 605
f11 605
tools 605
wire 605
pi@@ 604
heavy 603
motor 603
mug 603
not 603
ma 602
checkered 601
200 600
hanging 599
net 599
rice 599
self 599
90 598
uv 598
newborn 597
model 596
su@@ 596
loose 594
port 594
ready 594
ko@@ 593
rear 593
city 592
paris 592
11@@ 591
kojic 591
lg 591
planner 590
sh@@ 590
highwaist 589
19 588
glitter 588
longchamp 588
mascara 588
nylon 588
spring 588
vi@@ 588
aluminum 587
60@@ 586
thick 586
cardigan 585
nursing 585
pin 585
barbie 584
cards 584
mar@@ 582
shape 582
bangle 581
colorful 580
silicon 580
tone 580
80 579
drink 579
embroidered 579
lenovo 579
mm 579
sis 579
turban 579
ki@@ 578
mango 578
maroon 576
peach 576
v11i 576
fila 575
random 575
vans 574
legends 572
helmet 570
display 569
quick 569
a8 568
it@@ 567
jansport 567
ts 567
cosmetic 566
grade 566
crossbody 565
flare 565
graphic 565
money 564
grip 563
kylie 563
my@@ 563
family 562
35 561
classy 560
each 560
lights 559
slimming 559
solar 557
a50 556
slipper 556
100@@ 555
ceramic 555
clean 555
polish 555
pore 555
y91 554
panda 553
100g 552
32gb 552
lemon 551
silk 551
el 550
racing 550
shield 550
shower 550
bracket 549
ly 549
maong 549
boots 548
luxury 548
no@@ 548
sa 548
bowl 547
gown 547
spoon 547
ac 545
brow 545
el@@ 545
daily 544
pony 544
ra@@ 544
japanese 543
y81 543
1kg 542
etude 541
neoprene 541
spaghetti 541
bagpack 540
ra 540
s9 540
sd 540
ch@@ 539
duty 539
freesize 539
croptop 538
ootd 538
remote 538
scent 538
roller 537
25@@ 536
5.5 536
gap 536
gear 536
link 536
anime 534
g-shock 533
36 532
g-@@ 531
pot 531
5pcs 530
romoss 529
sealed 529
yrs 529
like 527
music 526
hi@@ 523
non 522
retro 522
stitch 522
tutu 522
realme 521
sa@@ 521
y69 520
magnet 519
angel 518
charcoal 518
pattern 518
umbrella 518
q 517
14@@ 515
carbon 515
neo 515
sizes 515
at@@ 514
blanket 514
letter 514
na 514
snap 514
200ml 513
ls 513
protective 513
do 512
ds 512
sleepwear 512
28 511
a5s 511
hk 511
cc 510
ni@@ 510
visor 510
gloves 509
8g 508
caps 508
ine 508
2.0 507
miracle 507
roll 506
80@@ 504
ankle 504
hero 504
prints 504
onesies 503
j1 501
beads 500
souvenir 500
cord 499
republic 499
stuffed 499
charge 498
ab@@ 497
c-@@ 497
clothing 497
pe@@ 497
60ml 496
shine 496
moon 495
treatment 495
v-neck 495
ang 494
alloy 493
rashguard 493
film 492
ps4 492
contact 491
baking 490
replacement 490
23 489
chair 489
golden 489
facemask 488
mint 488
repair 488
ii 487
thin 487
a39 486
now 486
aqua 485
breathable 485
go@@ 485
knee 485
lee 485
ver 485
y9 485
zip 485
dragon 484
master 484
pig 484
quartz 484
earphones 483
open 483
ss 483
teens 483
cars 482
egg 482
1.@@ 481
candle 481
id 481
jade 481
40@@ 480
batman 480
games 480
infinity 480
lu@@ 480
mount 480
plug 480
jumpshort 479
da@@ 477
anello 476
j8 476
mermaid 476
pa 476
use 476
violet 476
st 475
5d 474
6plus 474
sponge 474
auto 473
bamboo 473
patch 473
royal 473
crocs 472
tablet 472
-2@@ 471
acne 471
crown 471
designs 471
pa@@ 471
beige 470
yo 470
collar 469
dsn 469
push 469
rain 469
17@@ 468
brief 468
fiber 468
socket 468
100pcs 467
lunch 467
window 467
yamaha 467
based 466
analog 465
ar 465
baseball 465
how 465
metallic 465
v15 464
250 463
alcohol 463
wax 463
3i 462
-0@@ 461
mother 461
cd 460
fairy 460
50pcs 458
d-@@ 458
jo@@ 458
pre@@ 458
ce@@ 457
parfum 457
pastel 457
solid 457
year 457
base 456
ca 456
nintendo 456
uniqlo 456
boss 455
kpop 455
support 455
butter 454
iconic 454
wars 454
150ml 453
24@@ 453
ta@@ 452
tommy 452
carrier 451
sets 451
sim 451
drawstring 450
glossy 450
padded 450
privacy 450
ta 450
a30 449
64gb 447
avengers 447
sandal 447
slit 447
street 447
a10 446
factory 446
signature 446
5a 445
mosquito 445
rare 444
ryx 444
fi@@ 443
washi 443
wheel 442
balloons 441
blade 441
ch 441
male 440
maybelline 440
plant 440
3-@@ 439
anti-@@ 439
bu@@ 439
get 439
pokemon 439
ps 439
ai@@ 438
easy 438
tri@@ 438
herbal 437
regular 436
99 435
alibaba 435
lauren 435
bare 434
dispenser 434
marc 434
mtg 434
under 434
f1 433
xa 433
4pcs 432
dolphin 432
incipio 432
less 432
nmax 431
salt 431
so 431
02 430
5ml 430
meter 430
satin 430
soothing 430
ation 429
cartridge 429
orig 429
22 428
300 428
delivery 428
moisture 428
-3@@ 427
drop 427
starbucks 427
avent 426
spandex 426
therapy 426
a33 425
strawberry 425
tattered 425
vest 425
fish 424
ka@@ 424
supreme 424
for@@ 423
gun 423
l-@@ 423
nude 423
on@@ 423
poster 423
001 422
26 422
capsule 422
duo 421
php 421
sc@@ 421
3.0 420
fine 420
item 420
zoom 420
bulb 419
glue 419
instant 419
luggage 419
wave 419
boho 418
guitar 418
2-@@ 417
cs 417
winter 417
liner 414
pullover 414
spf 414
vape 414
wonder 414
apparel 412
edt 412
jo 412
toothpaste 412
gas 411
grand 411
melissa 411
ya 411
a-@@ 410
bt21 410
he@@ 410
lightning 410
american 409
gi@@ 409
living 409
seamless 409
handmade 408
hood 408
memory 408
pc@@ 408
s5 408
th 408
45 407
laneige 407
stuff 407
7plus 406
con@@ 406
sneaker 406
midi 405
ss@@ 405
tablets 405
boxer 404
sex 404
stylus 404
sun@@ 404
tassel 404
ad@@ 403
arm 403
babies 403
canon 403
clearance 403
elite 403
finger 403
shell 403
stretch 403
15ml 402
a4 402
a57 402
ap@@ 402
awei 402
ex@@ 402
scale 402
vacuum 402
wet 402
m-@@ 401
papaya 401
starter 401
bsco 400
promo 400
2i 399
ka 399
pairs 399
solution 399
standard 399
th@@ 399
s3 398
son 398
tail 398
ve 398
a20 397
puff 397
bright 396
ga@@ 396
hook 396
purpose 396
ver@@ 396
1-@@ 395
120 395
coconut 395
p9 395
s4 395
snow 395
swimming 395
massage 394
toilette 394
110 393
audio 393
cash 393
computer 393
flavor 393
knit 393
min@@ 393
suede 393
50g 392
garden 392
kiss 392
liptint 392
acer 391
combo 391
creative 391
heat 391
keratin 391
ter 391
bubble 390
bucket 390
da 390
4g 389
am 389
straw 389
blossom 388
clock 388
cycling 388
hub 388
wide 388
35@@ 387
daughter 387
missha 387
more 387
toe 387
active 386
bicycle 386
brilliant 386
e-@@ 386
puzzle 386
ralph 386
sleeping 386
tripod 386
chrome 385
ins 385
selfie 385
young 385
bvlgari 384
en 384
gen 384
products 384
2.@@ 383
extension 383
air@@ 382
concealer 382
burberry 381
gu@@ 381
peeling 381
reusable 381
sea 381
army 380
electronic 380
j7pro 380
38 379
headphone 379
27 378
affordable 378
bible 378
drill 378
headphones 378
sf 378
age 377
aha 377
legit 377
pan@@ 377
ripped 377
sm 377
vita 377
3.@@ 375
90@@ 375
bears 375
dust 375
leaf 375
supplies 375
personal 374
sheets 374
stain 374
ck 373
days 373
disc 373
jack 373
tray 373
10k 372
12v 372
22@@ 372
j3 372
just 372
33 371
exo 371
over 371
packaging 371
per@@ 371
system 371
a9 370
bl@@ 370
bottom 370
eyeliner 370
ge@@ 370
klein 369
outfit 369
trend 369
y55 369
28@@ 368
comfortable 368
container 368
s10 368
tu@@ 368
ke@@ 367
pipe 367
choco 366
scarf 366
camouflage 364
j2prime 364
vanilla 364
400 363
p30 363
tire 363
0.@@ 362
bottles 362
makapal 362
manual 362
protect 362
refill 362
tamiya 362
force 361
hdmi 361
or@@ 361
turtle 361
yoga 361
product 360
tribal 360
vs 360
1st 359
laser 359
pretty 359
stylish 359
approx 358
flowers 358
havaianas 358
x-@@ 358
y95 358
88@@ 357
a31 357
america 357
captain 357
dove 357
flashlight 357
dr. 356
gym 356
ko 356
plaid 356
ship 356
spa 356
t-shirts 356
toothbrush 356
ty 356
xundd 356
75 355
8plus 355
anne 355
are 355
bar@@ 355
bleaching 355
overlap 355
basket 354
kg 354
les 354
a70 353
radio 353
twice 353
500g 352
bnew 352
mary 352
ram 352
s1 352
tory 352
blocks 351
ana 350
dvd 350
primer 350
sporty 350
floor 349
prada 349
tomato 349
ve@@ 349
bass 348
blend 348
charms 347
chinese 347
hellokitty 347
honor 347
um 347
ford 346
jbl 346
mitsubishi 346
nova3i 346
number 346
peel 346
32@@ 345
cargo 345
end 345
lavender 345
mom 345
sweat 345
31 344
htp 344
knife 344
re 344
24k 343
banana 343
decoration 343
p10 343
spiderman 343
coco 342
jar 342
inflatable 341
watches 341
xsmax 341
rock 340
drifit 339
essentials 339
gloss 339
glasses 338
magical 338
shadow 338
straight 338
26@@ 337
chi@@ 337
cropped 337
meters 337
miss 337
ru@@ 337
sale@@ 337
tiger 337
5-@@ 336
ton 336
woven 336
14k 335
cologne 335
decal 335
gshock 335
harry 335
hooded 335
lebron 335
man@@ 335
shopee 335
sterling 335
bathroom 334
ci@@ 334
controller 334
formula 334
jacobs 334
rope 334
ca@@ 333
fe@@ 333
rosegold 333
super@@ 333
ted 333
ak@@ 332
cleaning 332
ge 332
grill 332
kobe 332
wired 332
70@@ 331
cases 331
massager 331
s-m 331
swim 331
128gb 330
auth 330
kipling 330
malone 330
sauce 330
sm@@ 330
-1 329
die 329
fire 329
fork 329
mah 329
no.@@ 329
nokia 329
surgical 329
triple 329
wrist 329
03 328
dial 328
microfiber 328
otg 327
-4@@ 326
236ml 326
29 326
berry 326
cabinet 326
sakura 326
choker 325
him 325
ref 325
stamp 325
pool 324
room 324
sachet 324
space 324
te 324
lasting 323
mp@@ 323
muscle 323
b-@@ 322
eyeglasses 322
feeding 322
ks 322
leaves 322
name 322
raincoat 322
we@@ 322
y17 322
cas@@ 321
elastic 321
inner 321
nose 321
nyx 321
pu 321
sandisk 321
bench 320
desk 320
potter 320
sky 320
ter@@ 320
deodorant 319
olive 319
rush 319
s. 319
seed 319
volume 319
34 318
g21 318
headlight 318
kyrie 318
let 318
6-@@ 317
dish 317
du@@ 317
8gb 316
cam 316
ce 316
cu@@ 316
hanger 316
highlighter 316
j7prime 316
pcs. 316
1l 315
aztec 315
rash 315
soul 315
underarm 315
extract 314
g4 314
sunflower 314
balance 313
aerox 312
banner 312
der 312
ios 312
ling 312
part 312
smooth 312
4s 311
; 311
ler 311
20ml 310
dots 310
ed@@ 310
gh@@ 310
sound 310
wipes 310
ace 309
ashley 309
eyelash 309
ha@@ 309
hu@@ 309
ting 309
wi@@ 309
a35 308
55@@ 307
coordinates 307
invitation 307
ly@@ 307
maternity 307
video 307
36@@ 306
5in1 306
burch 306
comb 306
cupcake 306
cups 306
deluxe 306
hand@@ 306
satchel 306
sy 306
wrench 306
4-@@ 305
deo 305
fo@@ 305
puma 305
rabbit 305
y15 305
ate 304
mat@@ 304
modern 304
tech 304
v2 304
neon 303
120ml 302
health 302
multifunctional 302
nice 302
thermal 302
cosrx 301
curler 301
hermes 301
pambahay 301
blender 300
desktop 300
gra@@ 300
humidifier 300
je@@ 299
masks 299
photocard 299
4x 298
removal 298
tab 298
watts 298
dot 297
es@@ 297
player 297
wheels 297
yo@@ 297
1000 296
booster 296
bralette 296
cooler 296
forever21 296
liter 296
nova2i 296
pleated 296
sense 296
sk@@ 296
three 296
> 295
mon@@ 295
pockets 295
sunscreen 295
ultimate 295
ali@@ 294
cat@@ 294
fitness 294
ga 294
maker 294
ply 294
10g 293
bell 293
dangling 293
hilfiger 293
mid 293
mold 293
monster 293
mu@@ 293
sample 293
uni@@ 293
friends 292
lovely 292
mas@@ 292
ms. 292
rattan 292
bohemian 291
dior 291
pre-order 291
pu@@ 291
sign 291
superman 291
very 291
adults 290
hydrating 290
m1 290
painting 290
po 290
backless 289
english 289
fm 289
james 289
mineral 289
ordinary 289
swarovski 289
7-@@ 288
comics 288
hose 288
perfumes 288
resistant 288
rings 288
42 287
bumper 287
garlic 287
ity 287
playstation 287
supplement 287
dye 286
panel 286
compact 285
300ml 284
charles 284
educational 284
fantasy 284
studio 284
1m 283
bal@@ 283
breast 283
cooling 283
custom 283
joy 283
lips 283
ng 283
press 283
training 283
39 282
88 282
bee 282
click 282
clips 282
mark 282
men@@ 282
monitor 282
sock 282
200@@ 281
dogs 281
edp 281
giveaways 281
length 281
monkey 281
smiggle 281
wa@@ 281
0 280
37 280
a10s 280
chest 280
ft 280
handheld 280
pod 280
shades 280
us@@ 280
002 279
1080p 279
bodysuit 279
building 279
cube 279
nails 279
ph@@ 279
200g 278
bib 278
boost 278
ku@@ 278
y85 278
herschel 277
sho@@ 277
true 277
180 276
in-ear 276
k-@@ 276
messenger 276
paperback 276
pressure 276
sheer 276
zero 276
20000mah 275
champion 275
faux 275
gr@@ 275
ina 275
li 275
passport 275
pressed 275
sofa 275
y51 275
cami 274
lin@@ 274
organics 274
relief 274
cor@@ 273
knot 273
tic 273
tr@@ 273
trimmer 273
chicken 272
christian 272
valve 272
3m 271
beautiful 271
bs 271
eco 271
41 270
fake 270
har@@ 270
lo 270
sunnies 270
500@@ 269
can@@ 269
cooker 269
dash 269
decals 269
marble 269
pens 269
shade 269
story 269
tan 269
ated 268
fitted 268
kimono 268
sn@@ 268
27@@ 267
ballpen 267
kiddie 267
legend 267
mixed 267
tin 267
tokong 267
type-c 267
armour 266
ben@@ 266
che@@ 266
ck@@ 266
ps3 266
san@@ 266
sticky 266
twin 266
v-@@ 266
48 265
55 265
ag@@ 265
camping 265
et 265
fu@@ 265
leopard 265
lot 265
ny 265
rhinestone 265
skin@@ 265
skincerity 265
8-@@ 264
gentle 264
reversible 264
scented 264
stars 264
ty@@ 264
able 263
anastasia 263
comfy 263
flex 263
k10 263
nlighten 263
peplum 263
tissue 263
vneck 263
vo@@ 263
business 262
cal@@ 262
comfort 262
em@@ 262
garterized 262
lining 262
moisturizer 262
ah 261
bestseller 261
detergent 261
exclusive 261
hybrid 261
london 261
merry 261
os 261
screw 261
slide 261
strip 261
101 260
coloring 260
ju@@ 260
mos 260
75@@ 259
alarm 259
packs 259
1pcs 258
45@@ 258
a20s 258
diffuser 258
ella 258
na@@ 258
seal 258
stroller 258
tip 258
u.s 258
y67 258
feminine 257
learning 257
leg 257
multicolor 257
ne 257
oversized 257
safe 257
club 256
cocktail 256
f11pro 256
fun 256
monopod 256
mustard 256
printer 256
sweatshirt 256
2.4a 255
20pcs 255
blackpink 255
geneva 255
naked 255
ons 255
theme 255
xperia 255
y-@@ 255
4gb 254
hyundai 254
indoor 254
raider 254
ur@@ 254
wristlet 254
cetaphil 253
fur 253
ji@@ 253
lingerie 253
lte 253
supply 253
xrm 253
38@@ 252
als 252
bento 252
boutique 252
buttons 252
cctv 252
faucet 252
lever 252
multi-@@ 252
philips 252
10000mah 251
a50s 251
calamansi 251
circle 251
french 251
plains 251
sen@@ 251
hole 250
par@@ 250
star@@ 250
tupperware 250
,@@ 249
270 249
actual 249
bunny 249
cutting 249
parts 249
rs 249
colour 248
garter 248
gr5 248
ing@@ 248
ite 248
lol 248
mari@@ 248
mixer 248
stay 248
tela 248
angle 247
center 247
heel 247
horse 247
karaoke 247
matting 247
snapback 247
sublimation 247
ys 247
beat 246
br@@ 246
cy@@ 246
extreme 246
focus 246
laundry 246
power@@ 246
slime 246
step 246
tony 246
au@@ 245
chic 245
clinique 245
kay 245
manila 245
off-shoulder 245
rc 245
sh 245
skater 245
ballet 244
halloween 244
healing 244
included 244
mo 244
pl@@ 244
ringer 244
shi@@ 244
ze@@ 244
144 243
34@@ 243
brightening 243
doctor 243
flamingo 243
last 243
mine 243
moly 243
pin@@ 243
sanitizer 243
sleep 243
ut@@ 243
4a 242
adventure 242
anna 242
carters 242
di 242
macbook 242
robot 242
ruffled 242
versace 242
y7 242
3.5mm 241
amazing 241
ant 241
bag@@ 241
dy 241
eyes 241
loop 241
natasha 241
sti@@ 241
65 240
around 240
bb@@ 240
cell 240
era 240
keith 240
marker 240
seventeen 240
ul@@ 240
wine 240
zi@@ 240
batch 239
engine 239
land 239
photocards 239
season 239
sensor 239
suzuki 239
tent 239
tom 239
bosch 238
cookie 238
ex 238
hy@@ 238
liliw 238
mc@@ 238
nissan 238
rich 238
spongebob 238
tshirts 238
xa1 238
york 238
alpha 237
born 237
c2 237
four 237
pointed 237
sd@@ 237
skirts 237
ze 237
110@@ 236
92 236
= 236
bri@@ 236
contour 236
gs 236
pr@@ 236
ribbed 236
85 235
a30s 235
almond 235
av@@ 235
ban@@ 235
blood 235
energy 235
msm 235
spicy 235
chips 234
flexible 234
fossil 234
mp 234
sparkle 234
tattoo 234
verse 234
west 234
43 233
bo 233
con 233
cooking 233
cr@@ 233
intense 233
see 233
sy@@ 233
3w 232
400ml 232
child 232
chopper 232
f-@@ 232
han@@ 232
pp@@ 232
resin 232
soda 232
sofia 232
av 231
belle 231
cactus 231
cho@@ 231
ct 231
lc 231
store 231
surprise 231
toilet 231
too 231
track 231
z1 231
2xl 230
9-@@ 230
? 230
combination 230
hi 230
taylor 230
bleach 229
ha 229
horn 229
ja@@ 229
lightweight 229
loot 229
xxl 229
{ 229
} 229
04 228
68 228
ang@@ 228
black@@ 228
buckle 228
chili 228
coral 228
luna 228
morning 228
ti 228
aid 227
ber@@ 227
birkenstock 227
hg 227
ruffle 227
straightener 227
ws 227
.00 226
250g 226
29@@ 226
72 226
95 226
cheese 226
corner 226
jeju 226
puppy 226
read 226
2nd 225
char@@ 225
detox 225
gb 225
hardcover 225
jag 225
linen 225
nine 225
syrup 225
underwire 225
24pcs 224
98 224
cookies 224
et@@ 224
hearts 224
ns 224
s.@@ 224
sticks 224
v15pro 224
150@@ 223
h-@@ 223
insert 223
j4plus 223
ocean 223
tinted 223
unlocked 223
400@@ 222
blouses 222
der@@ 222
dri-fit 222
eraser 222
ever 222
penshoppe 222
shaped 222
slot 222
☆ 222
300@@ 221
ard 221
bershka 221
elle 221
flo@@ 221
ll 221
mega 221
omni 221
pen@@ 221
peppa 221
right 221
run 221
spigen 221
g530 220
hair@@ 220
ion 220
ke 220
trolley 220
.... 219
85@@ 219
elf 219
emblem 219
healthy 219
may 219
naturals 219
paw 219
peanut 219
sole 219
wo@@ 219
advanced 218
eyeglass 218
flawless 218
prelove 218
printing 218
sam@@ 218
size@@ 218
vegetable 218
y91c 218
za 218
33@@ 217
ba 217
bolt 217
console 217
ear@@ 217
gar@@ 217
mini@@ 217
panties 217
pooh 217
64 216
craft 216
envelope 216
ff@@ 216
frosted 216
grinder 216
heroes 216
m20 216
tin@@ 216
view 216
animals 215
assembly 215
barley 215
bloom 215
cacao 215
cats 215
kilo 215
lin 215
souvenirs 215
tawas 215
w-@@ 215
y12 215
10-@@ 214
2a 214
5.0 214
aa 214
adaptor 214
bur@@ 214
dell 214
fa@@ 214
fi 214
ll@@ 214
n-@@ 214
nu@@ 214
pas@@ 214
sophie 214
student 214
trial 214
600 213
cre@@ 213
embroidery 213
globe 213
mario 213
multifunction 213
qu@@ 213
ry 213
total 213
99@@ 212
ag 212
cb@@ 212
creme 212
dy@@ 212
fitflop 212
sli@@ 212
without 212
003 211
350 211
6in1 211
bio@@ 211
bit 211
ds@@ 211
hi-@@ 211
liters 211
m10 211
new@@ 211
saw 211
sided 211
stove 211
the@@ 211
work 211
2.5 210
any 210
bre@@ 210
ct@@ 210
dishwashing 210
dome 210
gopro 210
ong 210
sw@@ 210
teddy 210
wool 210
bt@@ 209
chia 209
material 209
rgb 209
sto@@ 209
sunblock 209
yu@@ 209
6.5 208
a3@@ 208
armani 208
clinic 208
dvr 208
finish 208
san 208
scents 208
security 208
warm 208
3g 207
66 207
< 207
back@@ 207
bella 207
combi 207
crib 207
drawer 207
ele@@ 207
glitters 207
luminous 207
med 207
ment 207
panini 207
125ml 206
park 206
r17 206
res 206
this 206
85ml 205
bandai 205
connector 205
in1 205
mer@@ 205
point 205
thai 205
warranty 205
30g 204
5t 204
argan 204
ating 204
coil 204
creamy 204
gamepad 204
jujube 204
ms@@ 204
wal@@ 204
1a 203
ance 203
clipper 203
lip@@ 203
royale 203
sewing 203
smartphone 203
23@@ 202
6.@@ 202
airmax 202
backcase 202
cc@@ 202
daisy 202
jogging 202
label 202
mam 202
patches 202
pour 202
synthetic 202
180@@ 201
airpods 201
capacity 201
don 201
fs 201
intensive 201
invisible 201
lily 201
look 201
shaper 201
sniper 201
x9 201
yugioh 201
44 200
and@@ 200
beautederm 200
comforter 200
hd@@ 200
nano 200
spot 200
tiny 200
05 199
10m 199
bat@@ 199
earings 199
ic 199
ikea 199
kingdom 199
monogram 199
restock 199
vision 199
cm-@@ 198
flap 198
fox 198
hammer 198
ings 198
jv 198
lan@@ 198
m2 198
precious 198
washing 198
1.5 197
135 197
75ml 197
beaded 197
bearing 197
bt 197
copy 197
deck 197
eagle 197
john 197
js 197
ky 197
lash 197
multi-function 197
p-@@ 197
tower 197
135g 196
45cm 196
bas@@ 196
champ 196
condition 196
feet 196
insulated 196
mb@@ 196
ste@@ 196
tws 196
war 196
water@@ 196
dr 195
great 195
layered 195
ombre 195
picture 195
plussize 195
ro 195
spl 195
tsum 195
wind 195
aeropostale 194
amplifier 194
ani@@ 194
elephant 194
f21 194
nut 194
owl 194
walker 194
52 193
56@@ 193
ah@@ 193
baby@@ 193
driver 193
junior 193
league 193
miner 193
pe 193
rx 193
stones 193
streaming 193
tmx 193
topper 193
° 193
4.@@ 192
aquarium 192
bird 192
bricks 192
etc 192
fold 192
frontrow 192
function 192
post 192
ten@@ 192
v5s 192
valentino 192
vit@@ 192
× 192
benefit 191
cloud 191
cordless 191
fl 191
her@@ 191
kirkland 191
luxe 191
milky 191
msm.hk 191
shark 191
shelf 191
by@@ 190
cylinder 190
eyewear 190
gsm 190
ki 190
lazy 190
nipple 190
team 190
tra@@ 190
triangle 190
46 189
channel 189
den@@ 189
ginger 189
is@@ 189
opener 189
oven 189
truck 189
65@@ 188
alphabet 188
ble 188
compatible 188
cucumber 188
drawing 188
gallon 188
kn95 188
naruto 188
platinum 188
ry@@ 188
sand@@ 188
toddlers 188
weight 188
81 187
bl 187
cam@@ 187
homme 187
non-@@ 187
notes 187
revolution 187
rosary 187
speedy 187
teeth 187
activity 186
away 186
bakuna 186
bangles 186
dryer 186
god 186
guide 186
hugo 186
ky@@ 186
mac@@ 186
php@@ 186
8pcs 185
96 185
autumn 185
boxes 185
mm@@ 185
sha@@ 185
tough 185
wings 185
120@@ 184
21@@ 184
800@@ 184
dolls 184
gri@@ 184
multipurpose 184
pilaten 184
played 184
stocks 184
wing 184
54 183
5mm 183
bullet 183
cp 183
different 183
hoodies 183
lid 183
match 183
paste 183
sanrio 183
spark 183
va 183
1pair 182
250@@ 182
amber 182
bone 182
jet 182
journal 182
mild 182
noodles 182
transfer 182
vehicle 182
whole 182
30cm 181
oval 181
santa 181
shopping 181
twist 181
wig 181
07 180
1-2 180
130 180
5m 180
cap@@ 180
daiso 180
drops 180
elizabeth 180
feather 180
fix 180
freebies 180
kawaii 180
myphone 180
op 180
plu@@ 180
replaceable 180
smith 180
thrones 180
150g 179
4k 179
degree 179
gr3 179
micro@@ 179
op@@ 179
pajamas 179
pm 179
pride 179
ride 179
sl@@ 179
top@@ 179
yourself 179
1000ml 178
18inches 178
71 178
amour 178
ampoule 178
cosplay 178
curry 178
dolce 178
emergency 178
fashion@@ 178
head@@ 178
layers 178
overall 178
p8 178
patrol 178
pillowcase 178
piston 178
sk 178
♡ 178
700 177
97 177
ad 177
bronze 177
clamp 177
file 177
max@@ 177
sprocket 177
y5 177
57@@ 176
800 176
blackhead 176
curtains 176
eu 176
handy 176
movie 176
ryxskincerity 176
slides 176
teen 176
virgin 176
well 176
win@@ 176
66@@ 175
^ 175
a1 175
april 175
bbq 175
calculator 175
dried 175
mechanical 175
playboy 175
simply 175
snack 175
spf50 175
ware 175
zer 175
zo@@ 175
155 174
cl@@ 174
collectible 174
earbuds 174
eye@@ 174
prestige 174
purifier 174
sand 174
soup 174
straps 174
tropical 174
v8 174
2-in-1 173
5.@@ 173
ea@@ 173
free@@ 173
giant 173
ip 173
jumbo 173
killer 173
ley 173
mk@@ 173
nivea 173
oatmeal 173
ol 173
reseller 173
shiseido 173
58@@ 172
64@@ 172
78 172
diapers 172
gen@@ 172
kar@@ 172
keto 172
pets 172
pineapple 172
sachets 172
seiko 172
trainer 172
vol 172
2pc 171
compression 171
ded 171
description 171
glam 171
non-slip 171
output 171
play@@ 171
teal 171
triumph 171
y66 171
5c 170
600@@ 170
a3 170
advance 170
characters 170
cri@@ 170
diary 170
five 170
pedal 170
peripera 170
ruffles 170
sb 170
walking 170
48@@ 169
9h 169
ay@@ 169
burner 169
generation 169
hiking 169
intel 169
ken@@ 169
lab 169
pacifier 169
ports 169
shot 169
things 169
tw@@ 169
ven@@ 169
500mg 168
fat 168
ger@@ 168
left 168
military 168
philippines 168
pins 168
pri@@ 168
rom 168
spiral 168
but 167
corn 167
dri@@ 167
ff 167
glutamansi 167
ker 167
khaki 167
mal@@ 167
midnight 167
s2 167
spider 167
ten 167
watermelon 167
x2 167
2000 166
2way 166
3ply 166
ao@@ 166
beachkin 166
boyleg 166
briefs 166
dre@@ 166
durable 166
exercise 166
ip@@ 166
mer 166
mor@@ 166
numbers 166
ok 166
on-hand 166
pain 166
quaff 166
stan 166
stationery 166
trending 166
y62018 166
2014 165
25pcs 165
3-in-1 165
30pcs 165
98@@ 165
beans 165
bling 165
blue@@ 165
bonnet 165
choice 165
lanyard 165
lion 165
retractable 165
strechable 165
thermometer 165
toshiba 165
youth 165
6p 164
aspire 164
cal 164
christening 164
disk 164
dozen 164
effect 164
everyday 164
goggles 164
grid 164
las@@ 164
medical 164
nm 164
pomade 164
taiwan 164
test 164
tor@@ 164
uno 164
volcanic 164
1x 163
51 163
az@@ 163
calvin 163
collections 163
com@@ 163
comic 163
derma 163
drinking 163
fab 163
false 163
fr@@ 163
ger 163
gi 163
inverter 163
maam 163
madre 163
morphe 163
napkin 163
pilot 163
swing 163
tro@@ 163
ua 163
xt 163
..... 162
77 162
direct 162
foaming 162
ingco 162
lime 162
mommy 162
qui@@ 162
raider150 162
rectangular 162
red@@ 162
skechers 162
titanium 162
11pro 161
130@@ 161
62 161
boat 161
bra@@ 161
brassiere 161
bro@@ 161
cole 161
cro@@ 161
fall 161
george 161
mop 161
never 161
one@@ 161
shea 161
sin@@ 161
trousers 161
y11 161
1tb 160
256gb 160
2t 160
3xl 160
7p 160
ap 160
dear 160
designer 160
gt@@ 160
here 160
jasmine 160
kin@@ 160
knight 160
melody 160
mossimo 160
optical 160
paul 160
peppermint 160
road 160
saver 160
tactical 160
vga 160
war@@ 160
xi@@ 160
37@@ 159
42@@ 159
4t 159
bean 159
doctors 159
doraemon 159
prince 159
romantic 159
strong 159
tf 159
unique 159
vanity 159
12-@@ 158
63 158
8mm 158
baptismal 158
bead 158
clo@@ 158
color@@ 158
converter 158
fly 158
gingersnaps 158
lighting 158
ni 158
place 158
sal@@ 158
scissors 158
sesame 158
sr@@ 158
theft 158
twisted 158
win 158
2012 157
ami@@ 157
aromatherapy 157
dra@@ 157
drum 157
grower 157
hydro@@ 157
lift 157
nmd 157
nova2lite 157
pepper 157
powered 157
shake 157
spinner 157
strength 157
writing 157
7.@@ 156
92@@ 156
ari@@ 156
changing 156
chi 156
dd@@ 156
fendi 156
fuel 156
gre@@ 156
hardbound 156
hip 156
household 156
instax 156
j710 156
kettle 156
mp3 156
novel 156
piyao 156
tre@@ 156
wh@@ 156
102 155
activated 155
copper 155
farm 155
fre@@ 155
gingham 155
lan 155
nendoroid 155
ren@@ 155
ters 155
wa 155
wiper 155
ys@@ 155
20g 154
39@@ 154
beef 154
castor 154
df@@ 154
fog 154
ful 154
global 154
jc 154
kill 154
mr. 154
remax 154
renew 154
via 154
wallets 154
004 153
005 153
1set 153
b0@@ 153
call 153
disinfectant 153
dress@@ 153
foods 153
holiday 153
ir@@ 153
j2pro 153
lipo 153
luffy 153
native 153
nuts 153
pam@@ 153
through 153
vibrator 153
wardrobe 153
zircon 153
40ml 152
baby-g 152
balls 152
bel@@ 152
beverly 152
bio 152
crew 152
epson 152
high@@ 152
hills 152
initial 152
j6plus 152
latest 152
lla 152
mouth 152
nourishing 152
roundneck 152
rubberized 152
superstar 152
under@@ 152
120g 151
49 151
cy 151
eva 151
heng 151
keds 151
ken 151
munafie 151
raw 151
rotating 151
shimmer 151
turmeric 151
unit 151
xbox 151
08 150
6x 150
anchor 150
antibacterial 150
ara 150
boyfriend 150
braided 150
ethyl 150
figures 150
hanabishi 150
impact 150
international 150
makita 150
ml@@ 150
reserved 150
vios 150
76@@ 149
assy 149
boo@@ 149
cha@@ 149
elsa 149
frogsuit 149
italian 149
m-l 149
make-up 149
mj 149
musical 149
of@@ 149
ps@@ 149
s- 149
smile 149
softgels 149
spin 149
tata 149
15-@@ 148
3.5 148
3t 148
47 148
accent 148
ans 148
candles 148
catcher 148
co. 148
date 148
gro@@ 148
jin 148
kw@@ 148
leisure 148
lowest 148
manga 148
moist 148
onepiece 148
phones 148
por@@ 148
semi-@@ 148
thor 148
trio 148
yarn 148
105 147
44@@ 147
82 147
accessory 147
anti@@ 147
ash 147
attire 147
coated 147
cs@@ 147
len@@ 147
mules 147
ning 147
omega 147
repacked 147
sf@@ 147
ways 147
witch 147
0-@@ 146
006 146
2.1a 146
61 146
69 146
calendar 146
ep 146
fer@@ 146
hold 146
hoop 146
hq 146
m3 146
multi@@ 146
ointment 146
reno 146
sc 146
sec 146
ser@@ 146
shiny 146
snake 146
sp 146
2gb 145
300g 145
cage 145
flow 145
gin@@ 145
glo@@ 145
johnson 145
long@@ 145
online 145
over@@ 145
pampers 145
performance 145
projector 145
rub 145
scooter 145
si 145
skincare 145
8p 144
a79 144
before 144
dickies 144
dv@@ 144
evening 144
fancy 144
fantech 144
fusion 144
hobo 144
hollow 144
hunter 144
il 144
lightstick 144
lt@@ 144
mr 144
parisian 144
reader 144
rod 144
silky 144
spread 144
vit 144
ya@@ 144
000@@ 143
008 143
bad 143
bali 143
closet 143
cuff 143
dr@@ 143
flavored 143
harness 143
himalayan 143
ine@@ 143
lbc 143
miniature 143
our 143
pal@@ 143
thermos 143
v3 143
ves 143
y92019 143
06 142
09 142
53 142
95@@ 142
chance 142
dead 142
empty 142
jan@@ 142
minifigure 142
module 142
sleeved 142
st. 142
ur 142
20cm 141
47@@ 141
bedroom 141
binder 141
bomb 141
carpet 141
cast 141
dri 141
ia 141
jackets 141
nikon 141
ron 141
router 141
snoopy 141
strapless 141
tg@@ 141
trading 141
uniform 141
10mm 140
140 140
89 140
cur@@ 140
dar@@ 140
folded 140
fortuner 140
geometric 140
klairs 140
los 140
melon 140
memo 140
once 140
painted 140
pick 140
repriced 140
throw 140
y6pro 140
1000@@ 139
115 139
25ml 139
6splus 139
a5@@ 139
aircon 139
bioaqua 139
don@@ 139
drying 139
eyelashes 139
grass 139
justice 139
lantern 139
mtb 139
padlock 139
screwdriver 139
shawl 139
signal 139
train 139
v7plus 139
walk 139
000 138
58 138
750 138
dollshoes 138
han 138
mb 138
multimedia 138
ninja 138
pinky 138
salon 138
shift 138
splash 138
thread 138
400g 137
90ml 137
a.@@ 137
brass 137
brushes 137
carb 137
chronograph 137
cm@@ 137
dan@@ 137
exfoliating 137
gb@@ 137
glu@@ 137
highquality 137
j-@@ 137
kl 137
latex 137
levi 137
luck 137
oshkosh 137
pigment 137
project 137
rejuvinating 137
solo 137
tan@@ 137
tour 137
ut 137
'oreal 136
67 136
73 136
ai 136
aldo 136
blooming 136
cath 136
ceiling 136
cutie 136
giveaway 136
got7 136
gt 136
herb 136
hypoallergenic 136
intex 136
kai 136
lit@@ 136
magazine 136
miners 136
month 136
needs 136
other 136
p30lite 136
plan@@ 136
que 136
razor 136
state 136
tar@@ 136
up@@ 136
brother 135
c1 135
cle@@ 135
detachable 135
express 135
faith 135
fe 135
footwear 135
gs@@ 135
ini 135
kri@@ 135
lac@@ 135
md@@ 135
minimalist 135
mountain 135
mushroom 135
oils 135
olay 135
palm 135
ponytail 135
punch 135
scoop 135
van@@ 135
ye@@ 135
't 134
6.1 134
7a 134
ab 134
amp 134
aux 134
colo@@ 134
dinosaur 134
elbow 134
flowy 134
gradient 134
ground 134
huggies 134
level 134
mc 134
ray 134
scar 134
set@@ 134
six 134
skull 134
split 134
tags 134
unsealed 134
waisted 134
watercolor 134
zebra 134
zen@@ 134
artificial 133
auto@@ 133
canvass 133
celebrity 133
civic 133
close 133
dance 133
gabbana 133
hw 133
iphonex 133
isuzu 133
marine 133
nestle 133
pat@@ 133
perry 133
poloshirt 133
skinfood 133
slip-on 133
some 133
turtleneck 133
v17 133
va@@ 133
zodiac 133
0.5mm 132
15g 132
160 132
220 132
3pc 132
79 132
86 132
a73 132
ata 132
badge 132
c6 132
daniel 132
duck 132
dynamic 132
ja 132
meat 132
min 132
outlet 132
penguin 132
platform 132
ren 132
steamer 132
tiffany 132
wn 132
240 131
3-6 131
3ds 131
68@@ 131
76 131
78@@ 131
ax 131
banpresto 131
breaker 131
charlotte 131
cks 131
des 131
donut 131
earth 131
fleece 131
future 131
gm 131
insect 131
inside 131
ir 131
kidston 131
map 131
nat@@ 131
ous 131
sink 131
specs 131
spi@@ 131
titan 131
treats 131
van 131
von 131
'kitty 130
8.@@ 130
83 130
9oz 130
ariel 130
blower 130
cartier 130
cla@@ 130
couture 130
external 130
fro@@ 130
gifts 130
hush 130
jump 130
lettuce 130
mcm 130
mil@@ 130
pullout 130
sta 130
tier 130
vr 130
warmer 130
1box 129
2x 129
anniversary 129
ati@@ 129
breastfeeding 129
cart 129
chunky 129
cli@@ 129
col@@ 129
convertible 129
del@@ 129
ghz 129
hs-@@ 129
lbs 129
letters 129
loreal 129
maintenance 129
mia 129
mousse 129
permanent 129
plates 129
powdered 129
r-@@ 129
radiator 129
reading 129
rise 129
second 129
ssd 129
tennis 129
x3 129
1pack 128
350ml 128
arts 128
boston 128
curl 128
ee@@ 128
freshener 128
ght 128
innova 128
jam 128
juicer 128
ness 128
receiver 128
rescue 128
swiss 128
tarte 128
tas@@ 128
thrifted 128
tur@@ 128
u-@@ 128
ure 128
wattpad 128
wrangler 128
zone 128
1liter 127
91 127
aurora 127
bestway 127
c.@@ 127
calming 127
embossed 127
emoji 127
enhancer 127
fujifilm 127
fun@@ 127
gang 127
island 127
j730 127
lotus 127
menow 127
minions 127
mono 127
montero 127
multi-purpose 127
pro-@@ 127
ramen 127
rider 127
sailor 127
she@@ 127
sodium 127
station 127
ster 127
sunny 127
toms 127
what 127
z3 127
4d 126
7pcs 126
antenna 126
baofeng 126
beatle 126
bha 126
hawk 126
hidden 126
omnia 126
pre-@@ 126
sharpener 126
sil@@ 126
swift 126
ties 126
topshop 126
transcend 126
160@@ 125
arbutin 125
blk 125
bond 125
chef 125
ches 125
ction 125
fondant 125
fu 125
gg@@ 125
hol@@ 125
hyaluronic 125
king@@ 125
kisses 125
mt@@ 125
mud 125
police 125
pots 125
short@@ 125
sparkling 125
strips 125
that 125
1-3 124
2013 124
750ml 124
900 124
bay 124
break 124
bul@@ 124
defense 124
fan@@ 124
fruits 124
gourmet 124
its 124
joystick 124
k7 124
kid@@ 124
kim 124
kraft 124
lon 124
loss 124
people 124
rt 124
sampler 124
skort 124
transformer 124
tub 124
venus 124
18-@@ 123
3n1 123
450 123
6a 123
80g 123
bars 123
better 123
che 123
davis 123
fluid 123
joni 123
lam@@ 123
nillkin 123
plum 123
race 123
rick 123
science 123
smocked 123
steering 123
takal 123
tal@@ 123
transformers 123
trouser 123
val@@ 123
winnie 123
$ 122
-01 122
-2 122
a7@@ 122
ala 122
autolight 122
bat 122
bon@@ 122
bouquet 122
doormat 122
eri@@ 122
ey@@ 122
ferrari 122
ita 122
kia 122
mx@@ 122
north 122
panasonic 122
pole 122
sprayer 122
thi@@ 122
valentine 122
wyi 122
201@@ 121
2n1 121
a40 121
absorbent 121
ack 121
arrow 121
ces 121
cj 121
david 121
device 121
gildan 121
i-@@ 121
jazz 121
ku 121
loafers 121
marie 121
mono@@ 121
nct 121
ny@@ 121
pc. 121
piano 121
radiation 121
saint 121
smoke 121
strappy 121
studded 121
ysl 121
yunteng 121
.ph 120
a72018 120
aroma 120
bracelets 120
bread 120
care@@ 120
fas@@ 120
ignition 120
lie 120
motion 120
pk 120
plushie 120
preorder 120
sam 120
sensitive 120
sensual 120
squishy 120
tat@@ 120
teether 120
trench 120
y19 120
zed 120
210 119
40g 119
ages 119
beer 119
bomber 119
d. 119
eli@@ 119
hel@@ 119
iii 119
industrial 119
lc@@ 119
let@@ 119
mag@@ 119
noir 119
pp 119
ria 119
son@@ 119
spice 119
spy 119
tos 119
wanna 119
x1 119
x10 119
-5@@ 118
2-3 118
3a 118
4wd 118
acoustic 118
ale 118
artwork 118
beltbag 118
big@@ 118
blu@@ 118
bombshell 118
caramel 118
ci 118
crazy 118
db@@ 118
diesel 118
faced 118
form 118
fx 118
home@@ 118
hs 118
huda 118
lon@@ 118
onyx 118
refrigerator 118
soaps 118
tires 118
trim 118
ts@@ 118
vertical 118
wheat 118
y.o 118
3rd 117
a60 117
a77 117
alice 117
grow 117
hollister 117
il@@ 117
isopropyl 117
jesus 117
ker@@ 117
lar@@ 117
lipcream 117
lyn 117
out@@ 117
pt 117
rac@@ 117
retail 117
shopkins 117
stu@@ 117
styling 117
suction 117
surf 117
themed 117
tokyo 117
tor 117
uk 117
36-40 116
5.2 116
8.5 116
90g 116
anti-theft 116
blo@@ 116
bridal 116
bug 116
carry 116
decorative 116
den 116
gn@@ 116
indian 116
ino 116
jeggings 116
key@@ 116
lakers 116
mama 116
may@@ 116
pping 116
racer 116
seduction 116
sky@@ 116
sl 116
stre@@ 116
upper 116
welding 116
3ml 115
56 115
ane 115
ascorbate 115
bands 115
barako 115
baymax 115
blusher 115
chip 115
complex 115
cow 115
dessert 115
equipment 115
feng 115
hot@@ 115
icon 115
juicy 115
maria 115
mattress 115
milktea 115
photo@@ 115
placenta 115
prepaid 115
rest 115
sb@@ 115
scato 115
tai@@ 115
terranova 115
y75 115
007 114
57 114
59 114
700@@ 114
ae@@ 114
aveeno 114
chibi 114
chu@@ 114
dis@@ 114
drone 114
flakes 114
france 114
guaranteed 114
kin 114
oh 114
pie 114
polyester 114
saving 114
setting 114
shi 114
stri@@ 114
tints 114
tonymoly 114
vent 114
wolf 114
zinc 114
168 113
67@@ 113
a0@@ 113
bi 113
buds 113
cdi 113
dangle 113
decay 113
divided 113
e.@@ 113
fy 113
ipaky 113
iphone6 113
light@@ 113
love@@ 113
ltb 113
manicure 113
marks 113
molder 113
mr@@ 113
note2 113
ot@@ 113
own 113
pho@@ 113
piggy 113
potato 113
repellent 113
roasted 113
samyang 113
sunshine 113
varsity 113
vinegar 113
y79 113
yard 113
yi 113
zu@@ 113
'm 112
05@@ 112
220@@ 112
501 112
a80 112
anti-aging 112
balenciaga 112
cf@@ 112
ery 112
flops 112
friendly 112
girdle 112
high-@@ 112
holes 112
mags 112
making 112
mode 112
ner@@ 112
please 112
regulator 112
ruby 112
rushguard 112
shaver 112
sol 112
stream 112
trash 112
warriors 112
wor@@ 112
yn 112
zing 112
★ 112
123 111
19v 111
304 111
3s 111
77@@ 111
ada 111
bbw 111
covers 111
ding 111
dkny 111
drain 111
ears 111
er-@@ 111
femme 111
fisher 111
funny 111
hb@@ 111
io 111
ironman 111
jane 111
kingston 111
lashes 111
lia 111
nova5t 111
plants 111
release 111
rompers 111
rouge 111
sata 111
scratch 111
sha 111
ski@@ 111
stamps 111
storm 111
t- 111
tam@@ 111
tide 111
vin@@ 111
wel@@ 111
y6ii 111
yu 111
z2 111
zz@@ 111
1.5m 110
2011 110
bryant 110
burst 110
c3 110
canadian 110
citrus 110
customize 110
designed 110
diet 110
em 110
fidget 110
forest 110
hazel 110
kelly 110
operated 110
pant 110
reflective 110
rm 110
rust 110
sage 110
sed 110
ses 110
slicer 110
smash 110
squarepants 110
stop 110
sty@@ 110
tion 110
unlock 110
vial 110
z5 110
zh 110
25g 109
43@@ 109
46@@ 109
9.@@ 109
book@@ 109
cafe 109
cha 109
choose 109
cker 109
combined 109
crepe 109
deer 109
fin@@ 109
floater 109
garnish 109
gl@@ 109
good@@ 109
ito 109
keimav 109
kidswear 109
kit@@ 109
leash 109
miniso 109
playing 109
pulley 109
quilted 109
south 109
stage 109
stephen 109
u.s. 109
v1 109
vp 109
washer 109
-c 108
...... 108
09@@ 108
180ml 108
53@@ 108
add 108
ate@@ 108
bangladesh 108
ble@@ 108
chloe 108
cinderella 108
cocoa 108
concentrate 108
correction 108
d.@@ 108
delight 108
dental 108
diecast 108
driving 108
dz 108
evil 108
extender 108
filler 108
flyknit 108
gal@@ 108
hal@@ 108
hem 108
inter@@ 108
jigsaw 108
kawasaki 108
lil 108
market 108
medicine 108
mto 108
neo7 108
np@@ 108
ok@@ 108
oxford 108
oxygen 108
rectangle 108
steam 108
tm@@ 108
toycastle3 108
y5ii 108
350@@ 107
5v 107
about 107
ani 107
ash@@ 107
blank 107
bolts 107
built-in 107
california 107
details 107
euro 107
folder 107
grape 107
green@@ 107
heads 107
hulk 107
jenna 107
kan@@ 107
kat@@ 107
kd 107
li-ion 107
measuring 107
mit@@ 107
nutri@@ 107
pizza 107
rl 107
sanitary 107
sized 107
slacks 107
sonic 107
swan 107
tb 107
tes 107
wd 107
after 106
aging 106
ano 106
bandage 106
brooch 106
buy1take1 106
capri 106
corset 106
cutlery 106
derm 106
eu@@ 106
fighter 106
firefly 106
fla@@ 106
grab 106
kevin 106
matt 106
rt@@ 106
shimano 106
ssa 106
stem 106
temp@@ 106
tg 106
thong 106
wand 106
windproof 106
y6pro2019 106
zoo 106
52@@ 105
absorber 105
compartment 105
cookware 105
far@@ 105
feel 105
fender 105
hor@@ 105
infrared 105
ments 105
neo9 105
pimple 105
popular 105
seasoning 105
sing 105
sjcam 105
stent 105
universe 105
wave125 105
009 104
103 104
170 104
2g 104
320 104
54@@ 104
ach 104
ay 104
buttoned 104
castle 104
coverage 104
discount 104
dro@@ 104
dw 104
espadrille 104
euc 104
excellent 104
flag 104
freeship 104
herbs 104
holika 104
hooks 104
hotel 104
in-@@ 104
kat 104
levis 104
lipsticks 104
ms-@@ 104
note8 104
ori@@ 104
petite 104
pj 104
precision 104
protein 104
pt@@ 104
un 104
whip 104
yeezy 104
-40 103
00mah 103
230 103
8oz 103
abstract 103
aidelai 103
ale@@ 103
bale 103
bang 103
bob 103
cel@@ 103
chuck 103
count 103
dildo 103
ei@@ 103
final 103
fri@@ 103
gold@@ 103
growth 103
ink@@ 103
load 103
mai@@ 103
micromatic 103
mugs 103
network 103
non-wire 103
puritan 103
r1 103
rejuv 103
removable 103
seven 103
sharp 103
sion 103
tips 103
united 103
vitamins 103
y91i 103
yl 103
16-@@ 102
220v 102
450@@ 102
9t 102
abs 102
arden 102
calcium 102
collapsible 102
dam@@ 102
detail 102
fc 102
flask 102
friend 102
gps 102
joe 102
joy@@ 102
kh@@ 102
lancome 102
lippie 102
lle 102
loafer 102
local 102
mazda 102
md 102
ping 102
pit@@ 102
show 102
stix 102
sur@@ 102
touchscreen 102
trunk 102
turbo 102
two-piece 102
02@@ 101
03@@ 101
a-line 101
amethyst 101
athletic 101
c. 101
case@@ 101
citronella 101
cut@@ 101
dai@@ 101
dota 101
earing 101
european 101
ever@@ 101
flour 101
ft@@ 101
gam@@ 101
gem 101
goddess 101
grace 101
hershey 101
ht@@ 101
jin@@ 101
keeper 101
lli@@ 101
m.@@ 101
mothercare 101
nel 101
pearls 101
pillows 101
re-@@ 101
rj 101
sel@@ 101
shui 101
starry 101
superhero 101
sync 101
tiktok 101
tt 101
tulle 101
value 101
whi@@ 101
₱ 101
4oz 100
a. 100
abc 100
all-@@ 100
anklet 100
bandana 100
beast 100
belly 100
bn 100
brazilian 100
cd@@ 100
cer 100
clover 100
cot@@ 100
cpu 100
crafts 100
eni@@ 100
ent 100
hotwheels 100
ji 100
keep 100
laminating 100
longback 100
mt 100
postcard 100
prote@@ 100
rocker 100
runner 100
smok 100
spo@@ 100
stanley 100
str@@ 100
tac@@ 100
tingi 100
uni 100
vault 100
wr@@ 100
xx@@ 100
yes 100
3000 99
6mm 99
8in1 99
a2 99
ami 99
ann 99
beyblade 99
booties 99
colourette 99
df 99
effective 99
evo 99
firming 99
g.@@ 99
gg 99
gladiator 99
hb 99
hipster 99
huarache 99
ipanema 99
kasoy 99
keys 99
lenses 99
macaron 99
mass 99
mystery 99
peeler 99
pi 99
polymer 99
pper 99
purposes 99
que@@ 99
skool 99
t1 99
106 98
3mm 98
4.0 98
49@@ 98
550 98
7ml 98
87 98
aaa 98
af@@ 98
aqu@@ 98
bc 98
body@@ 98
damage 98
dd 98
emulsion 98
felt 98
fully 98
giordano 98
joker 98
kyowa 98
nia 98
nu 98
nutrition 98
oral 98
originals 98
safari 98
secrets 98
squeeze 98
stress 98
tab@@ 98
will 98
x5@@ 98
108 97
11-@@ 97
74 97
9g 97
abaca 97
ala@@ 97
aura 97
backpacks 97
bn@@ 97
bp@@ 97
buy1 97
cou@@ 97
esprit 97
fur@@ 97
gasket 97
glittery 97
handkerchief 97
k1 97
kong 97
lightening 97
minion 97
olivia 97
pencils 97
picks 97
propolis 97
rain@@ 97
rat 97
rim 97
rose@@ 97
sle@@ 97
spider-man 97
tap 97
techniques 97
tick 97
wat@@ 97
wrinkle 97
2-way 96
201 96
280 96
5x 96
6-12 96
ats 96
birth 96
bite 96
brick 96
bride 96
cannon 96
circular 96
crayon 96
curved 96
dashboard 96
decorations 96
dip 96
ee 96
engineering 96
fiction 96
give 96
goku 96
gp@@ 96
incense 96
iu 96
ivory 96
katerina 96
laguna 96
laminated 96
ld@@ 96
lines 96
many 96
modular 96
non-stick 96
p.@@ 96
poreless 96
quad 96
revlon 96
rio 96
rock@@ 96
sar@@ 96
takara 96
thomas 96
topsider 96
twinkle 96
vary 96
width 96
ye 96
1,@@ 95
12m 95
4ml 95
a8@@ 95
alma 95
bentonite 95
bk 95
bookmark 95
cadbury 95
champagne 95
chocolates 95
creations 95
deli@@ 95
ela 95
fishing 95
fountain 95
gum 95
hifi 95
hyper 95
jean 95
laced 95
lar 95
leg@@ 95
loo@@ 95
lootbag 95
low@@ 95
lux 95
magenta 95
martin 95
mx 95
ner 95
nest 95
pack@@ 95
panther 95
pikachu 95
samsonite 95
stories 95
sushi 95
tracker 95
tri 95
tri-color 95
vapor 95
vaseline 95
whistle 95
yan 95
zen 95
08@@ 94
175 94
1g 94
41-45 94
89@@ 94
amulet 94
amy 94
apron 94
buttondown 94
cereal 94
ching 94
dw@@ 94
eos 94
feeder 94
g1 94
gas@@ 94
giorgio 94
have 94
headbands 94
his 94
hydro 94
j5prime 94
jumpshorts 94
kt 94
lover 94
lp 94
materials 94
pond 94
recorder 94
romance 94
sante 94
sj@@ 94
skydrive 94
tec 94
trap 94
turquoise 94
vo 94
wit@@ 94
x4 94
y67v5s 94
118 93
16oz 93
600ml 93
72@@ 93
aesthetic 93
alkaline 93
alo@@ 93
amore 93
ant@@ 93
atomizer 93
avail 93
b.@@ 93
basics 93
beaute 93
bong 93
bun@@ 93
caliper 93
candies 93
china 93
cone 93
cortez 93
crocodile 93
disruptor 93
eyelet 93
fury 93
glittered 93
grain 93
hen@@ 93
id@@ 93
intelligent 93
jj@@ 93
kon@@ 93
l.@@ 93
lost 93
m. 93
mighty 93
mirage 93
multi-functional 93
pages 93
poly@@ 93
r.@@ 93
r9 93
ranger 93
recipe 93
save 93
she 93
speakers 93
sword 93
ultrasonic 93
utility 93
vie 93
wan 93
worth 93
113 92
14-@@ 92
1s 92
60cm 92
94 92
ail 92
andrea 92
approved 92
ban 92
bit@@ 92
but@@ 92
casing 92
cnc 92
credit 92
dad 92
dining 92
eat 92
fluffy 92
fubu 92
got 92
gummy 92
hawaiian 92
heist 92
i.@@ 92
infinix 92
lean 92
mod 92
multivitamins 92
navarro 92
nes 92
organix 92
pg 92
pop@@ 92
ppe 92
purifying 92
saem 92
sch@@ 92
shop@@ 92
standee 92
starwars 92
stra@@ 92
subwoofer 92
suitcase 92
tomica 92
weighing 92
-7@@ 91
00 91
1ml 91
3-4 91
900@@ 91
academia 91
allen 91
australia 91
aw@@ 91
babe 91
collared 91
cover@@ 91
crush 91
diva 91
expert 91
faded 91
flight 91
gauge 91
invoice 91
kes 91
matcha 91
mes 91
mhz 91
ned 91
need 91
neutrogena 91
petal 91
pls 91
pr 91
pumps 91
quicksand 91
robe 91
shoulders 91
study 91
swim@@ 91
tomy 91
torch 91
tt@@ 91
y62 91
0-3 90
170@@ 90
2008 90
60g 90
93 90
adi@@ 90
anti-spy 90
bathing 90
bf 90
bilena 90
birthstone 90
bremod 90
cer@@ 90
clarifying 90
davidoff 90
deco 90
dies 90
dubai 90
ero 90
flu@@ 90
foot@@ 90
hats 90
irving 90
jojo 90
kenneth 90
lacey 90
lifting 90
list 90
mamba 90
mocha 90
muffler 90
neo5 90
next 90
nit@@ 90
pear 90
pur@@ 90
rai@@ 90
s7@@ 90
sig@@ 90
spencer 90
tell 90
tru@@ 90
tuff 90
tummy 90
vel@@ 90
xi 90
07@@ 89
127 89
188 89
20-@@ 89
650 89
96@@ 89
alex 89
alive 89
artist 89
axle 89
beard 89
bnwt 89
burn 89
cen@@ 89
chan@@ 89
cheap 89
colgate 89
couples 89
curling 89
d3 89
dustbag 89
engagement 89
fl@@ 89
fridge 89
frog 89
ga-@@ 89
givenchy 89
hdd 89
hoo@@ 89
ideal 89
im@@ 89
logitech 89
metro 89
mousepad 89
nan@@ 89
nut@@ 89
passion 89
patent 89
philippine 89
poly 89
py@@ 89
ram@@ 89
ran@@ 89
reborn 89
reebok 89
rs@@ 89
sarah 89
sequins 89
shaker 89
stabilizer 89
sunday 89
supplier 89
swaddle 89
tales 89
talkie 89
white@@ 89
who 89
111 88
2010 88
25cm 88
airplane 88
art@@ 88
beetle 88
bor@@ 88
bundles 88
change 88
chro@@ 88
ct100 88
dainty 88
emerald 88
fern 88
gram 88
hairpin 88
hilux 88
ines 88
j510 88
kie 88
ld 88
lipbalm 88
live@@ 88
lubricant 88
lululemon 88
mimi 88
one-piece 88
onion 88
patrick 88
persona 88
premiere 88
psp 88
rit@@ 88
roses 88
sie 88
soy 88
spf30 88
sunglass 88
tolsen 88
tou@@ 88
workout 88
wow 88
yam@@ 88
128 87
50mm 87
82@@ 87
888 87
arti@@ 87
boy@@ 87
brilliance 87
cider 87
cmx@@ 87
corporate 87
dashcam 87
early 87
effects 87
freeshipping 87
garcinia 87
he 87
heeled 87
hex 87
hongkong 87
iphone5 87
kai@@ 87
katespade 87
lat@@ 87
penis 87
pic 87
pioneer 87
prin@@ 87
pure@@ 87
puregold 87
realme3 87
record 87
riding 87
rotary 87
slots 87
spf@@ 87
studs 87
sub@@ 87
surface 87
surplus 87
take1 87
ther@@ 87
toiletry 87
twinning 87
voice 87
10.@@ 86
1200 86
212 86
31@@ 86
5000 86
agate 86
balancing 86
banila 86
bg@@ 86
bought 86
bs@@ 86
coinpurse 86
crayola 86
cubic 86
ering 86
ez 86
fit@@ 86
flora 86
fra@@ 86
gan 86
grooming 86
handbags 86
hoody 86
ideapad 86
ig@@ 86
induction 86
kick 86
lacquer 86
lang 86
lene 86
liners 86
mam@@ 86
matic 86
message 86
moringa 86
msi 86
multiple 86
onitsuka 86
paper@@ 86
piping 86
pliage 86
salted 86
samurai 86
shoppe 86
shortsleeve 86
sleek 86
spell 86
t.@@ 86
tankini 86
tle 86
twi@@ 86
wall@@ 86
yards 86
zy 86
-6@@ 85
104 85
190 85
3-piece 85
303 85
30m 85
9.7 85
ben 85
bin 85
buddha 85
butt 85
chen 85
cl-@@ 85
crissa 85
dancing 85
dia 85
dji 85
fd 85
fire@@ 85
fries 85
greetings 85
hp@@ 85
lava 85
meal 85
mounted 85
mse 85
nic 85
organi@@ 85
pap@@ 85
pb 85
perfecting 85
punk 85
raglan 85
rastaclat 85
roll-on 85
rotate 85
senior 85
sephora 85
sg 85
slightly 85
spacer 85
sta@@ 85
stray 85
temperature 85
tommee 85
v2s 85
workbook 85
zi 85
16inches 84
330 84
59@@ 84
5cm 84
6m 84
are@@ 84
beanie 84
bosny 84
company 84
del 84
dotted 84
ea 84
ep@@ 84
expandable 84
fa 84
furniture 84
ghost 84
gorgeous 84
gtx 84
gui@@ 84
hydration 84
ikon 84
inf@@ 84
jmaxx 84
liveselling 84
mattel 84
meet 84
monokini 84
ms.@@ 84
nars 84
oreo 84
pang 84
pl 84
salmon 84
self-@@ 84
soft@@ 84
sunset 84
tippee 84
town 84
trd 84
vip 84
x6 84
xrm110 84
yoobao 84
04@@ 83
125@@ 83
18650 83
2009 83
2m 83
2x@@ 83
3mg 83
4.5 83
a750 83
ao 83
arctic 83
ations 83
bedsheets 83
bronzer 83
cee 83
celine 83
chopping 83
cit@@ 83
cycle 83
demon 83
ders 83
downy 83
eve 83
ferragamo 83
flat@@ 83
freebie 83
hands 83
hop 83
infinite 83
len 83
lipgloss 83
mcqueen 83
night@@ 83
ou@@ 83
person 83
range 83
ri 83
rolls 83
seaweed 83
seen 83
ser 83
silver@@ 83
soil 83
splitter 83
succulent 83
tabs 83
tapes 83
tina 83
today 83
too@@ 83
vegan 83
wang 83
xtreme 83
yasen 83
z-@@ 83
-up 82
107 82
17-@@ 82
199 82
3l 82
4mm 82
5x@@ 82
69@@ 82
80ml 82
87@@ 82
a92020 82
ado 82
alvin 82
animation 82
box@@ 82
brushed 82
cameras 82
chassis 82
concert 82
eh@@ 82
extended 82
gh 82
gmate 82
hbw 82
iphone7 82
j. 82
jump@@ 82
kabuki 82
kikay 82
lancer 82
las 82
le-@@ 82
math 82
mga 82
microwave 82
minis 82
mittens 82
nar@@ 82
nb 82
noise 82
phi@@ 82
phoenix 82
poncho 82
r17pro 82
relay 82
rer 82
s-l 82
scallop 82
shutter 82
slider 82
sol@@ 82
std 82
superbreak 82
than 82
trans@@ 82
tz 82
undies 82
victorias 82
walkie 82
-1@@ 81
2.5@@ 81
2005 81
360@@ 81
aki 81
anti-slip 81
app@@ 81
ary 81
brows 81
clu@@ 81
concentrated 81
ctor 81
duster 81
elmo 81
find 81
g. 81
gal 81
garnier 81
group 81
gummies 81
hamster 81
hight 81
joint 81
k20 81
keychains 81
lane 81
lb@@ 81
liz 81
magnesium 81
minifigures 81
mixes 81
moto 81
noodle 81
note9 81
planet 81
radiance 81
roxy 81
runway 81
say 81
scissor 81
sealer 81
sen 81
stamping 81
sutla 81
tights 81
tooth 81
traveling 81
vampire 81
wealth 81
xy 81
y7pro 81
'am 80
12oz 80
2000@@ 80
4th 80
880@@ 80
ace@@ 80
arrivals 80
artifact 80
astro 80
aw 80
badminton 80
bargain 80
blessed 80
blind 80
blueberry 80
bm@@ 80
bradshaw 80
bulk 80
canister 80
cin@@ 80
collector 80
comp@@ 80
crayons 80
crisscross 80
day@@ 80
dew 80
dor 80
estee 80
gel@@ 80
glossier 80
grapeseed 80
housing 80
i5 80
j.@@ 80
j82018 80
jr 80
mats 80
mel@@ 80
mf@@ 80
mix@@ 80
negative 80
o-@@ 80
obsession 80
ol@@ 80
pet@@ 80
pia 80
pigeon 80
ponds 80
processor 80
pul@@ 80
sebum 80
sm-@@ 80
small-medium 80
strainer 80
stranger 80
terry 80
tm 80
vibrating 80
xx 80
yogurt 80
-free 79
12ml 79
205 79
9a 79
abercrombie 79
alva 79
ama 79
amd 79
apex 79
asia 79
avocado 79
bedding 79
beyond 79
boom 79
bows 79
certified 79
chalk 79
chamomile 79
chicco 79
chill 79
collectibles 79
coo@@ 79
electrical 79
elujai 79
frying 79
full@@ 79
gelpen 79
gemstone 79
hg@@ 79
ho 79
in-1 79
ino@@ 79
kb@@ 79
mill 79
ming 79
moto@@ 79
nor@@ 79
octopus 79
packed 79
paco 79
paperbag 79
perfection 79
pha 79
picnic 79
pliers 79
prepacked 79
rebranding 79
rugged 79
scen@@ 79
service 79
sour 79
stabilo 79
su 79
thank 79
tylex 79
uc 79
ultra-thin 79
vibe 79
windows 79
yang 79
yn@@ 79
112 78
140@@ 78
40mm 78
50-@@ 78
555 78
a-2@@ 78
aj 78
ak 78
alexa 78
amo@@ 78
b2 78
battle 78
bea@@ 78
blanc 78
blemish 78
breeze 78
c0@@ 78
cape 78
construction 78
cra@@ 78
cru@@ 78
dm@@ 78
ell 78
fruity 78
gadget 78
ham@@ 78
hikvision 78
hon@@ 78
if 78
june 78
keypad 78
l-glutathione 78
lauder 78
lic 78
lucas 78
moana 78
od@@ 78
ottogi 78
pomegranate 78
pumpkin 78
rouser 78
towels 78
tp-link 78
trilogy 78
ups 78
volts 78
vy 78
wish 78
yr 78
2kg 77
2s 77
40pcs 77
airbag 77
angels 77
asi@@ 77
ates 77
bac@@ 77
bathrobe 77
best@@ 77
bp 77
cl 77
claw 77
cob 77
cubes 77
ekel 77
fee 77
flyball 77
glas@@ 77
golf 77
highcut 77
hill 77
hotpot 77
i7 77
incanto 77
j7@@ 77
l-xl 77
malunggay 77
matching 77
mind 77
mylar 77
neck@@ 77
neo@@ 77
odor 77
off@@ 77
ore 77
p20lite 77
paradise 77
pubg 77
rapid 77
raspberry 77
refreshing 77
rolling 77
rosehip 77
self-adhesive 77
sell 77
smiley 77
spyder 77
squ@@ 77
sterilizer 77
tex 77
textured 77
three-@@ 77
throttle 77
travelling 77
ung 77
union 77
unisilver 77
various 77
wafer 77
wl@@ 77
word 77
-36 76
........ 76
06@@ 76
100m 76
165 76
2ml 76
3-ply 76
35ml 76
5w 76
above 76
aero 76
ain 76
aro@@ 76
ava 76
benetton 76
berries 76
bites 76
bu 76
carolina 76
cigarette 76
cq@@ 76
creed 76
criss 76
dent 76
dreams 76
droplets 76
eco@@ 76
element 76
es-@@ 76
flash@@ 76
flavors 76
football 76
halo 76
hard@@ 76
heart@@ 76
hijab 76
inhaler 76
injoy 76
k0@@ 76
lithium 76
lly 76
lp@@ 76
marian 76
measure 76
mei 76
mid@@ 76
musk 76
p1 76
paddle 76
puncher 76
row 76
ruler 76
safeguard 76
sin 76
sons 76
stretchy 76
two-way 76
whipp 76
wigo 76
18m 75
365 75
41@@ 75
86@@ 75
alphabounce 75
ane@@ 75
ase 75
barong 75
batik 75
benedict 75
bon 75
cab@@ 75
cambogia 75
corolla 75
ddr4 75
dge 75
dhc 75
doom 75
duffle 75
eclat 75
eg@@ 75
enhanced 75
fac@@ 75
footrest 75
fuchsia 75
gf 75
gms 75
hai@@ 75
hardcase 75
hnj 75
hoops 75
km 75
lers 75
needle 75
nerf 75
normal 75
oni@@ 75
ot 75
ppy 75
purederm 75
r. 75
r3 75
radiant 75
rattle 75
receipt 75
rilakkuma 75
steps 75
suitable 75
swi@@ 75
swimsuits 75
t. 75
tai 75
velcro 75
virus 75
x12 75
y5@@ 75
zaxy 75
-10@@ 74
10400mah 74
12pairs 74
5th 74
6x@@ 74
asstd 74
becca 74
bibs 74
bull 74
combat 74
deadpool 74
decant 74
dex 74
duyan 74
ena 74
field 74
filipino 74
flop 74
fran@@ 74
game@@ 74
glowing 74
gon 74
gp 74
griller 74
gw@@ 74
height 74
hiace 74
issue 74
jh@@ 74
l. 74
latte 74
medi@@ 74
medicated 74
micellar 74
missy 74
mixing 74
mn 74
nd 74
note5 74
pancake 74
passenger 74
pcs.@@ 74
pirate 74
playset 74
polarized 74
rca 74
ree 74
rep@@ 74
s5@@ 74
scarlet 74
shifter 74
sketch 74
stool 74
sz 74
text 74
tf@@ 74
um@@ 74
ura 74
vic 74
vietnam 74
x18 74
y.@@ 74
....... 73
01@@ 73
1200@@ 73
advantage 73
arc 73
barbecue 73
bebe 73
blonde 73
bust 73
canada 73
celina 73
check@@ 73
cher 73
cia 73
compressor 73
court 73
crispy 73
db 73
dc@@ 73
ebook 73
eng 73
eternity 73
fb 73
flush 73
frames 73
gpp 73
gravity 73
honeycomb 73
hope 73
jen@@ 73
jug 73
kas@@ 73
lay 73
lord 73
mart 73
moon@@ 73
om 73
one-@@ 73
origin 73
pal 73
pocketbac 73
pouches 73
rcb 73
rg 73
rosy 73
rr 73
saddle 73
salvatore 73
shapes 73
song 73
sor@@ 73
timer 73
tresemme 73
trigger 73
tuna 73
ukulele 73
variant 73
vase 73
wind@@ 73
wu 73
xoxo 73
y6@@ 73
-on 72
1.5@@ 72
10a 72
10x 72
aero@@ 72
ander 72
avanza 72
baked 72
bandeau 72
bits 72
bounce 72
camo 72
conditioning 72
curly 72
d0@@ 72
daster 72
delicious 72
derma@@ 72
dora 72
eb 72
fillers 72
flannel 72
fortune 72
fr 72
ful@@ 72
functional 72
gan@@ 72
goat 72
gu 72
hammock 72
j7core 72
kits 72
mani@@ 72
media 72
mi9 72
multicolored 72
nation 72
ney 72
overnight 72
pacific 72
pill 72
powdery 72
rh@@ 72
scarlett 72
sco@@ 72
shing 72
spare 72
ssy 72
stirring 72
stockings 72
tender 72
tit@@ 72
ton@@ 72
uratex 72
washed 72
wl 72
wwe 72
zo 72
zzy 72
1-3@@ 71
10.5 71
15.6 71
2.1 71
2012-@@ 71
5l 71
7.5 71
70ml 71
7s 71
airy 71
always 71
amazon 71
au 71
axe 71
belo 71
birds 71
biscuits 71
bliss 71
bose 71
build 71
built 71
ched 71
com 71
crime 71
ctive 71
disco 71
domino 71
dual-@@ 71
e-buy 71
elegance 71
f3plus 71
fenty 71
gab@@ 71
gd 71
gie 71
giraffe 71
ian 71
im 71
j2@@ 71
jackson 71
jewel 71
keyring 71
land@@ 71
laura 71
lead 71
lm 71
merah 71
mh@@ 71
milani 71
mnl 71
mon 71
non-woven 71
non@@ 71
on-@@ 71
optimum 71
orders 71
powerful 71
press@@ 71
react 71
realmec2 71
revitalizing 71
same 71
scoopback 71
scout 71
sof@@ 71
sq@@ 71
sr 71
stain@@ 71
stein 71
tale 71
ther 71
to-@@ 71
torque 71
twilly 71
varicose 71
vs@@ 71
wei@@ 71
words 71
x-men 71
-24 70
-3 70
1kilo 70
2018@@ 70
21k 70
2l 70
310 70
65ml 70
a510 70
a52020 70
aj@@ 70
anthony 70
aoa 70
babydoll 70
betty 70
blades 70
bodybag 70
boot 70
boxed 70
cac@@ 70
canin 70
chronicles 70
coaster 70
couch 70
cs-@@ 70
das 70
death 70
dg@@ 70
dongle 70
els 70
enamel 70
est 70
filled 70
flip-flops 70
g5 70
gd@@ 70
gymboree 70
hat@@ 70
ideas 70
imd 70
iphone11pro 70
ition 70
jj 70
jungle 70
knob 70
koko 70
lai 70
litter 70
lovers 70
lt 70
lus 70
m5 70
nb@@ 70
nina 70
pinkish 70
pitcher 70
rate 70
rearview 70
renewal 70
roast 70
rookie 70
s0@@ 70
sassy 70
sealant 70
shelves 70
skateboard 70
sounds 70
source 70
ster@@ 70
steve 70
stopper 70
strike 70
strings 70
students 70
tc 70
ultra@@ 70
variety 70
where 70
windshield 70
xmas 70
y93 70
y9prime 70
1.8@@ 69
10s 69
190@@ 69
240@@ 69
24m 69
2mm 69
330@@ 69
8a 69
8ml 69
ach@@ 69
ari 69
arms 69
bk@@ 69
bulls 69
butter@@ 69
cock 69
cola 69
cp@@ 69
cul@@ 69
damier 69
digitizer 69
din 69
dressing 69
dun@@ 69
eng@@ 69
everything 69
floating 69
foodaholic 69
glove 69
goods 69
iced 69
infants 69
kor@@ 69
lotte 69
lv@@ 69
mangosteen 69
mel 69
mvp 69
n0@@ 69
no.1 69
nt 69
oneplus 69
opti@@ 69
pantene 69
polkadots 69
popcorn 69
potty 69
rpm 69
sack 69
sales 69
sequin 69
short-sleeved 69
sleev@@ 69
spag 69
speed@@ 69
st-@@ 69
stand@@ 69
standing 69
sunrise 69
tak@@ 69
tile 69
tmx155 69
totoro 69
try 69
ttgr 69
types 69
when 69
why 69
wi-fi 69
wise 69
yumi 69
zz 69
-- 68
109 68
13-@@ 68
2007 68
280@@ 68
3gb 68
601 68
70cm 68
84@@ 68
act 68
ardeur 68
ath@@ 68
atm 68
barrel 68
below 68
carrot 68
chan 68
chin 68
crunch 68
cuyi 68
darling 68
drainer 68
ec 68
erasable 68
ess 68
ethernet 68
fate 68
general 68
givi 68
glory 68
gold-plated 68
graded 68
happy@@ 68
highwaisted 68
ie 68
individual 68
insulation 68
iphone@@ 68
ipod 68
iz 68
jollibee 68
k. 68
kids@@ 68
lemonade 68
lou@@ 68
michaela 68
mn@@ 68
motherboard 68
mus@@ 68
orchid 68
outer 68
page 68
riordan 68
ron@@ 68
shoe@@ 68
sperry 68
spirulina 68
t3 68
tap@@ 68
telescopic 68
tsu@@ 68
uhf 68
wedges 68
women@@ 68
y7pro2019 68
za@@ 68
-02 67
1.8 67
12.@@ 67
12mm 67
16g 67
2,@@ 67
208 67
500gb 67
a51 67
accesories 67
ae 67
alia 67
alien 67
anal 67
anti-glare 67
apricot 67
ballerina 67
band@@ 67
bao 67
benassi 67
bh 67
bus 67
bv@@ 67
cg@@ 67
cinnamon 67
classics 67
ddr3 67
detector 67
dinner 67
dutch 67
ey 67
fans 67
fied 67
fli@@ 67
gerber 67
gifo 67
gio 67
guyabano 67
harden 67
herrera 67
hm 67
howru 67
hoyoma 67
image 67
imarflex 67
kno@@ 67
mad 67
mar 67
moments 67
n.@@ 67
national 67
notepad 67
o.@@ 67
parker 67
patterned 67
pd 67
petals 67
philip 67
photobook 67
pilipinas 67
posters 67
qi@@ 67
ran 67
ribbons 67
ring@@ 67
sai@@ 67
sel 67
spe@@ 67
tableware 67
tear 67
tight 67
treat 67
twin@@ 67
ul 67
v17pro 67
wonders 67
wrapped 67
yves 67
″ 67
0-6 66
100grams 66
117 66
2006 66
203 66
340g 66
5kg 66
720 66
750@@ 66
97@@ 66
a6@@ 66
a9@@ 66
aa@@ 66
acqua 66
albums 66
allure 66
almonds 66
anti-radiation 66
ascorbic 66
bby 66
both 66
breastmilk 66
bro 66
bw@@ 66
cabin 66
challenge 66
chee@@ 66
colourtint 66
crystals 66
curve 66
dal@@ 66
dawn 66
dh@@ 66
dslr 66
ek@@ 66
ely 66
figurine 66
fil@@ 66
flea 66
gli@@ 66
harley 66
highlight 66
hilton 66
how.r.u 66
input 66
jp@@ 66
katy 66
ks@@ 66
madam 66
meow 66
million 66
moschino 66
ov@@ 66
pastry 66
plas@@ 66
pods 66
pra@@ 66
qi 66
rabanne 66
rat@@ 66
rin 66
roman 66
s6@@ 66
scott 66
sg@@ 66
shock@@ 66
soccer 66
soldering 66
soldier 66
sound@@ 66
technology 66
tu 66
vice 66
watch@@ 66
winner 66
woo 66
x5 66
11promax 65
60w 65
6t 65
84 65
aegis 65
antiskid 65
ator 65
avenue 65
baller 65
bottoms 65
broken 65
buah 65
ch-@@ 65
check-out 65
chopsticks 65
claire 65
culottes 65
dawning 65
dv 65
ette 65
gc 65
gigabit 65
gigabyte 65
gudetama 65
gue 65
hk@@ 65
horizontal 65
inspirational 65
int 65
iti@@ 65
ju 65
jumpsuits 65
kaws 65
kitten 65
kw 65
law 65
lay@@ 65
lb 65
lollipop 65
magnets 65
mand@@ 65
monopoly 65
note3 65
om@@ 65
ona 65
openline 65
ounce 65
pd@@ 65
pea 65
ple@@ 65
pol@@ 65
powe 65
quick@@ 65
rd 65
refillable 65
rtw 65
scanner 65
select 65
shin 65
slique 65
tang@@ 65
tricolor 65
ute 65
valentines 65
ven 65
waistline 65
wristband 65
.5@@ 64
1.5l 64
185 64
19-@@ 64
3.1 64
302 64
305 64
355 64
a710 64
a92018 64
athena 64
ative 64
baseus 64
bear@@ 64
ber 64
blends 64
boxing 64
bum 64
camisole 64
challis 64
cheapest 64
cho 64
cj@@ 64
clear@@ 64
cod-@@ 64
crusher 64
cyan 64
dan 64
decorating 64
desire 64
drip 64
dx 64
eiffel 64
electro@@ 64
ens 64
ero@@ 64
ez@@ 64
favors 64
fda 64
glamour 64
goo@@ 64
gowoori 64
gy 64
hairband 64
hazelnut 64
heritage 64
hin@@ 64
hyper@@ 64
internal 64
jenny 64
logy 64
lov@@ 64
mach@@ 64
main 64
mould 64
ped 64
peter 64
phantom 64
powerhouse 64
prima 64
realme5 64
ringke 64
samantha 64
sey 64
shel@@ 64
side@@ 64
smo@@ 64
stackable 64
sugar@@ 64
telephone 64
thailook 64
tr 64
treasure 64
vi 64
waffle 64
winder 64
wn@@ 64
xy@@ 64
ziplock 64
-28 63
0.5 63
118@@ 63
122 63
2-piece 63
202 63
230@@ 63
301 63
512gb 63
668 63
680@@ 63
70g 63
ato 63
audrey 63
ballpoint 63
batwing 63
bill 63
bin@@ 63
blackberry 63
blur 63
burger 63
camel 63
cara 63
casa 63
century 63
circuit 63
dl@@ 63
exhaust 63
favorite 63
freedom 63
g2 63
gorilla 63
gy@@ 63
hand-@@ 63
handsfree 63
headlamp 63
inspiron 63
irish 63
kamiseta 63
lette 63
lies 63
mei@@ 63
most 63
necklaces 63
ners 63
palda 63
pavilion 63
pest 63
pla@@ 63
repellant 63
rf 63
rimmel 63
selena 63
shapers 63
shin@@ 63
siwa 63
softgel 63
sts 63
survival 63
thing 63
tial 63
tilbury 63
timeless 63
trade 63
unbranded 63
vers 63
vet 63
water-@@ 63
work@@ 63
y6s 63
zr 63
116 62
133 62
168@@ 62
180cm 62
2usb 62
3c 62
502 62
7.0 62
a4tech 62
aim 62
antique 62
ashi 62
awesome 62
bendix 62
bla@@ 62
bowknot 62
bt-@@ 62
childrens 62
citrine 62
clar@@ 62
clippers 62
cullotes 62
dal 62
eas@@ 62
exp 62
fade 62
far 62
headdress 62
hour 62
hug 62
imports 62
jolly 62
kal@@ 62
ladie 62
lanvin 62
lovecorner 62
medela 62
nebulizer 62
nighties 62
nworld 62
overuns 62
peep 62
pes 62
phr 62
present 62
prizm 62
redmi@@ 62
resistance 62
ric 62
sabrina 62
salad 62
sco 62
sea@@ 62
seagate 62
seoul 62
serving 62
soaplada 62
squad 62
sse 62
start 62
straws 62
stro@@ 62
suits 62
talk 62
tie@@ 62
tonic 62
tors 62
tp 62
ukay-ukay 62
und 62
university 62
veggie 62
ving 62
zirconia 62
-38 61
1.6 61
100s 61
121 61
15cm 61
15pcs 61
2.4ghz 61
2021 61
20v 61
30mm 61
380 61
3x 61
808 61
8x 61
9m 61
a520 61
ack@@ 61
airforce 61
all-in-one 61
ally 61
angel@@ 61
asics 61
attack 61
aviator 61
banderitas 61
brallete 61
brooklyn 61
cardigans 61
carrying 61
cell@@ 61
clean@@ 61
crunchy 61
devil 61
dino 61
ef@@ 61
ere 61
fix@@ 61
fj@@ 61
flame 61
foo@@ 61
fs@@ 61
garterize 61
heaven 61
holy 61
inc 61
into 61
ix 61
j210 61
j2core 61
j530 61
jessica 61
jet@@ 61
jl@@ 61
jon@@ 61
k5 61
kissproof 61
kt@@ 61
lighter 61
mann 61
mj@@ 61
nescafe 61
ob@@ 61
og 61
org@@ 61
oversize 61
pak 61
pixie 61
plane 61
r9s 61
rin@@ 61
rog 61
rotor 61
sara 61
sher@@ 61
singapore 61
sir 61
sit@@ 61
sniper150 61
soak 61
soen 61
ssi@@ 61
stella 61
stradivarius 61
tee@@ 61
trucker 61
vers@@ 61
wacoal 61
whiteboard 61
working 61
y83 61
√ 61
✓ 61
'pieu 60
're 60
-32 60
-8@@ 60
013 60
10in1 60
10meters 60
138 60
15w 60
18inch 60
2002 60
201804@@ 60
236 60
260@@ 60
3-5 60
4pc 60
4xl 60
510 60
801 60
999 60
abi@@ 60
alu@@ 60
anda 60
angeles 60
ank@@ 60
bang@@ 60
basin 60
bc@@ 60
bet@@ 60
biker 60
bookmarks 60
boro 60
cans 60
chase 60
chewable 60
copier 60
cross@@ 60
cti@@ 60
culture 60
diameter 60
dissipation 60
dos 60
dream@@ 60
dtv 60
enjoy 60
envy 60
eq 60
euro@@ 60
fly@@ 60
frost 60
gate 60
german 60
ginseng 60
goody 60
grendha 60
guy 60
herbalife 60
igprints 60
ion@@ 60
iring 60
janoski 60
kay@@ 60
kind 60
laserjet 60
lavander 60
lighten 60
mag 60
matrix 60
minecraft 60
motocross 60
nationwide 60
neckline 60
oc 60
oilbased 60
pamela 60
pedigree 60
phy@@ 60
pocophone 60
pompom 60
q-@@ 60
q7 60
quest 60
racket 60
recollections 60
s10e 60
s7edge 60
sandwich 60
selection 60
semi@@ 60
sia 60
skinpotions 60
slayer 60
tran@@ 60
turn 60
tw 60
twilight 60
ungrip 60
vc 60
vt 60
way@@ 60
weave 60
x7 60
xl@@ 60
zy@@ 60
-05 59
12inches 59
1500 59
1995 59
2mp 59
4-in-1 59
4r 59
50cm 59
520 59
6-9 59
79@@ 59
8x@@ 59
a90 59
autofocus 59
baguio 59
ball@@ 59
bees 59
bf@@ 59
bubbles 59
cg 59
coco@@ 59
doodle 59
dunk 59
dxn 59
eline 59
eucalyptus 59
every 59
explosion 59
fear 59
flying 59
fringe 59
gat@@ 59
georgette 59
ges 59
hairclip 59
i9@@ 59
indoplas 59
jp 59
kentucky 59
kk@@ 59
kore@@ 59
lace-up 59
learn 59
ling@@ 59
lisa 59
lock@@ 59
lowcut 59
m0@@ 59
mansi 59
masking 59
maximum 59
member 59
models 59
mtp-@@ 59
mumuso 59
nappy 59
oz@@ 59
packing 59
papaw 59
pax 59
peanuts 59
pm@@ 59
poccophone 59
posted 59
ps2 59
rebel 59
rn 59
root 59
s8@@ 59
sally 59
scar@@ 59
scotch 59
sense@@ 59
sions 59
snow@@ 59
t0@@ 59
temptation 59
ts-@@ 59
ula 59
ultraboost 59
uni-@@ 59
verdon 59
vitality 59
vol@@ 59
wan@@ 59
wisdom 59
xo 59
y81i 59
12months 58
15mm 58
222 58
3-4@@ 58
320@@ 58
5i 58
74@@ 58
8.0 58
a01 58
ali 58
ass 58
beam 58
belted 58
bihaku 58
cb 58
chicago 58
cket 58
coming 58
cos 58
cream@@ 58
cutout 58
dio 58
emma 58
ence 58
epoxy 58
ev@@ 58
fab@@ 58
faceshield 58
fino 58
fryer 58
furry 58
genie 58
guava 58
gun@@ 58
h0@@ 58
harem 58
hexagon 58
interior 58
ivy 58
jy@@ 58
life@@ 58
marketing 58
memo@@ 58
monthly 58
mpo 58
nadine 58
nk 58
parka 58
pob 58
potion 58
ppers 58
q10 58
resist 58
ros 58
royu 58
sau@@ 58
singles 58
skate 58
soap@@ 58
spatula 58
sss 58
stock@@ 58
styler 58
suspension 58
sweety 58
talking 58
tra 58
uf 58
ultra-@@ 58
und@@ 58
use@@ 58
ved 58
wear@@ 58
whit@@ 58
wood@@ 58
y9prime2019 58
zc@@ 58
10l 57
10w 57
119 57
1x@@ 57
225 57
225@@ 57
25-32 57
268 57
35mm 57
3way 57
3x3 57
3x@@ 57
805 57
850 57
activewear 57
alada 57
andy 57
ather 57
b. 57
baao 57
baptism 57
basil 57
beauche 57
bie 57
botton 57
breath 57
brew 57
buddy 57
buster 57
cation 57
coats 57
college 57
corrector 57
crocheted 57
deals 57
dice 57
dou@@ 57
e0@@ 57
earpods 57
emo@@ 57
epsa 57
flo 57
fo 57
fuji 57
google 57
gx@@ 57
hang 57
high-quality 57
hn 57
hr 57
hydraulic 57
imm@@ 57
import 57
j120 57
jam@@ 57
jason 57
jun@@ 57
lets 57
lined 57
lish 57
lr@@ 57
ls@@ 57
maine 57
markers 57
mars 57
melasma 57
merch 57
minute 57
mir@@ 57
mizon 57
moss 57
mu 57
nasa 57
neverfull 57
notebooks 57
nozzle 57
od 57
ora 57
pai@@ 57
peacock 57
peri 57
prime@@ 57
ray@@ 57
resellers 57
rib 57
rotation 57
seri@@ 57
shortsleeves 57
sides 57
silent 57
simulation 57
smartphones 57
speedometer 57
spirit 57
stufftoys 57
tas 57
tassle 57
technomarine 57
temporary 57
tl-@@ 57
toned 57
trifold 57
two-@@ 57
vari@@ 57
vibrant 57
was@@ 57
weather 57
yas@@ 57
zippered 57
1-1 56
1-2@@ 56
12s 56
25mm 56
2in 56
350g 56
7d 56
7yrs 56
800ml 56
83@@ 56
almost 56
apollo 56
aq@@ 56
aya 56
ayesha 56
bay@@ 56
bayong 56
bea 56
bee@@ 56
bic 56
bir@@ 56
blow 56
bot 56
bpa 56
brand@@ 56
brow@@ 56
brownies 56
buffet 56
busha 56
cakes 56
capacitor 56
caremask 56
cashmere 56
catherine 56
caviar 56
cebu 56
cing 56
clas@@ 56
cln 56
counter 56
crank 56
dirty 56
dock 56
dor@@ 56
dp 56
dreamcatcher 56
durant 56
dustproof 56
ec@@ 56
elements 56
eric 56
ethnic 56
fantastic 56
favor 56
fill 56
flipflops 56
garbage 56
gauze 56
glit@@ 56
goodquality 56
h.@@ 56
hairbow 56
hay@@ 56
heat@@ 56
hong 56
illuminating 56
inst@@ 56
isa 56
issey 56
ith 56
laurent 56
led@@ 56
lit 56
lj 56
lla@@ 56
lootbags 56
ls2 56
m2@@ 56
mas 56
mega@@ 56
merchandise 56
mont 56
motorcycles 56
muji 56
neutral 56
nhk 56
nt@@ 56
photography 56
pine 56
placemat 56
rda 56
receiving 56
reflector 56
reli@@ 56
rl-@@ 56
scion 56
sdhc 56
seater 56
sequined 56
shu@@ 56
skid 56
stick@@ 56
suave 56
tel 56
texture 56
thermo@@ 56
tumi 56
turmask 56
unofficial 56
unscented 56
vanguard 56
voltage 56
warrior 56
xie 56
zer@@ 56
--@@ 55
10x@@ 55
112@@ 55
114 55
130g 55
2-4 55
2001 55
2003 55
26cm 55
270@@ 55
30x@@ 55
32g 55
3ce 55
40cm 55
6gb 55
6ml 55
6th 55
9pcs 55
a6plus 55
against 55
amethyste 55
amino 55
annie 55
any@@ 55
app 55
arizona 55
batteries 55
bel 55
biore 55
bound 55
breed 55
carburetor 55
ceramics 55
closed 55
coins 55
colle@@ 55
costumes 55
cranberry 55
crv 55
cure 55
desert 55
din@@ 55
diving 55
dose 55
edifice 55
emily 55
extensions 55
ferrero 55
g3 55
germany 55
gin 55
graphics 55
grocery 55
history 55
htc 55
imperial 55
iso@@ 55
jacob 55
jt 55
kutkutin 55
labo 55
lex 55
long-sleeved 55
lun@@ 55
m30 55
mandarin 55
mannequin 55
n95 55
nc 55
nissin 55
note4 55
old@@ 55
oo@@ 55
orly 55
pay@@ 55
peace 55
posh 55
preloved@@ 55
premier 55
racerback 55
return 55
rj45 55
russian 55
sab@@ 55
sagmit 55
samples 55
scalp 55
sele@@ 55
sembo 55
shines 55
sian 55
sider 55
sisley 55
slow 55
sophia 55
spor@@ 55
swatch 55
sz@@ 55
uv@@ 55
wellington 55
woo@@ 55
yoko 55
zel 55
011 54
1.2 54
129 54
12w 54
2-pc 54
200w 54
28cm 54
450ml 54
4l 54
520@@ 54
530 54
550@@ 54
650@@ 54
85g 54
901 54
94@@ 54
acb 54
agatha 54
bolero 54
bowls 54
budget 54
chelsea 54
corduroy 54
covergirl 54
cts 54
daddy 54
dark@@ 54
dol@@ 54
dolly 54
dropper 54
elixir 54
fal@@ 54
frank 54
fry 54
garland 54
gbb 54
glam@@ 54
goal 54
gtw 54
hell 54
hi-fi 54
inspire 54
intimate 54
jack@@ 54
kk 54
kpads 54
kra@@ 54
lilac 54
lou 54
low-@@ 54
lysol 54
mate20 54
met 54
mouthwash 54
nas@@ 54
natura 54
nautica 54
nicholas 54
nova@@ 54
p100 54
pad@@ 54
peony 54
playpen 54
pork 54
puri@@ 54
real@@ 54
rho@@ 54
rl@@ 54
s10@@ 54
sapphire 54
sealing 54
shaft 54
shirt@@ 54
sit 54
snacks 54
soluble 54
solutions 54
speaks 54
spoiler 54
stationary 54
sting 54
sweetheart 54
thin@@ 54
tox 54
trail 54
traveler 54
uva 54
val 54
vegetables 54
wristwatch 54
-h@@ 53
1b 53
2-4@@ 53
2015-@@ 53
2d 53
30s 53
40-@@ 53
6000 53
acetate 53
aco 53
adorable 53
alberto 53
angelus 53
anti-fog 53
applicator 53
ars 53
beatles 53
beauty@@ 53
blinds 53
bobbi 53
bodysuits 53
british 53
bys 53
calligraphy 53
candy@@ 53
casserole 53
cayler 53
chambray 53
cher@@ 53
clip-on 53
coating 53
colours 53
confetti 53
cruiser 53
dca 53
debut 53
dietary 53
dragonball 53
ef 53
ek 53
enzo 53
ets 53
famous 53
fertilizer 53
float 53
fm@@ 53
fresh@@ 53
garfield 53
gus 53
i7s 53
imitation 53
inclusions 53
itch 53
koi 53
korean@@ 53
lee@@ 53
lense 53
lifter 53
lls 53
lunchbox 53
mathematics 53
megapro 53
minimum 53
momoland 53
mood 53
motors 53
movies 53
moving 53
ornament 53
ox@@ 53
pac@@ 53
pit 53
porcelain 53
razer 53
rfid 53
robert 53
rox 53
scrap 53
sculpting 53
shar@@ 53
shining 53
sizzix 53
smartwatch 53
sparks 53
sph 53
spike 53
sport@@ 53
sweat@@ 53
tch 53
teen@@ 53
tl 53
ube 53
utensil 53
venom 53
vivid 53
want 53
wd@@ 53
web 53
wee 53
weekend 53
wizard 53
wk 53
wonderland 53
y7prime 53
zia 53
zigzag 53
'eau 52
-25 52
018 52
145 52
1pc. 52
2.4 52
200mm 52
209 52
4-6 52
50m 52
add@@ 52
ans@@ 52
avi@@ 52
been 52
cartoons 52
chino 52
cle 52
cloth@@ 52
come 52
compass 52
concept 52
costumized 52
cotton@@ 52
covered 52
deal 52
destiny 52
diamonds 52
dk@@ 52
dom 52
double-@@ 52
drinks 52
duffel 52
e. 52
eden 52
eless 52
export 52
face@@ 52
fic 52
fight 52
finishing 52
fitch 52
fol@@ 52
gagage 52
gee 52
gentleman 52
girl@@ 52
gon@@ 52
hardware 52
hologram 52
hr@@ 52
hung 52
india 52
iphones 52
ipon 52
jelly@@ 52
jones 52
kap@@ 52
kilos 52
liniment 52
lona 52
lux@@ 52
mamonde 52
midwaist 52
mie 52
moment 52
mun@@ 52
munchkin 52
mystic 52
nap@@ 52
nicole 52
ninewest 52
nos 52
omni@@ 52
pasta 52
polo@@ 52
posture 52
reverse 52
reviewer 52
rex 52
rhinestones 52
rie 52
river 52
rorec 52
run@@ 52
sav@@ 52
senza 52
sui 52
sx@@ 52
tall 52
taupe 52
teacher 52
terra 52
therapeutic 52
trolls 52
tubeless 52
tuyo 52
ultr@@ 52
wash@@ 52
watery 52
welcome 52
wonder@@ 52
xxxl 52
yi@@ 52
zalora 52
zevy 52
-b@@ 51
................@@ 51
010 51
1000mg 51
128@@ 51
12cm 51
13.3 51
149 51
2.4g 51
215 51
22cm 51
3.0@@ 51
3.75 51
505 51
608 51
902 51
a6s 51
accounting 51
apido 51
b1 51
bajaj 51
bifold 51
bkk 51
bossini 51
boxy 51
brain 51
brands 51
bras 51
cherokee 51
ckle 51
commercial 51
corp 51
country 51
cut-out 51
d2 51
deni@@ 51
die@@ 51
distributor 51
droplet 51
dt@@ 51
echo 51
eggs 51
f.@@ 51
fer 51
fifty 51
flare@@ 51
g6 51
geekvape 51
ging 51
gl 51
handcrafted 51
hansen 51
harper 51
heater 51
heating 51
holly 51
hydra 51
inserts 51
jungkook 51
jy 51
kd@@ 51
kkw 51
kuku 51
lea 51
legs 51
lis 51
little@@ 51
mantra 51
maxi@@ 51
mediheal 51
melt 51
mera 51
microsd 51
mina 51
minerals 51
miu 51
miyake 51
motorola 51
mur@@ 51
mutant 51
n9@@ 51
nautical 51
nightwear 51
o. 51
pale 51
papi 51
pat 51
pee@@ 51
phone@@ 51
pn@@ 51
pocketbooks 51
polaroid 51
pped 51
probiotics 51
puppies 51
quilt 51
realme3pro 51
realme@@ 51
rm-@@ 51
robin 51
s8plus 51
sandalwood 51
sauna 51
scope 51
scrapbook 51
sequence 51
sliding 51
sni@@ 51
statue 51
stic 51
stocking 51
sw 51
t5@@ 51
tho@@ 51
tie-@@ 51
tiles 51
traditional 51
transmission 51
two-tone 51
uri@@ 51
vital 51
waste 51
yen 51
zar@@ 51
zumba 51
1.0 50
1.8l 50
11.@@ 50
12-18 50
16pcs 50
18w 50
2004 50
20w 50
2ply 50
380@@ 50
4n1 50
568 50
9.5 50
academy 50
adhesion 50
af 50
age@@ 50
alcatel 50
aloha 50
altis 50
apo@@ 50
bangs 50
bd@@ 50
bg 50
biscuit 50
blaster 50
blending 50
cai@@ 50
ced 50
chy 50
civil 50
cowl 50
crash 50
cx@@ 50
defender 50
definition 50
desig@@ 50
dg 50
dr.@@ 50
ds-@@ 50
duos 50
e27 50
eb-@@ 50
education 50
enemy 50
eo 50
esp@@ 50
eur 50
f0@@ 50
fuschia 50
g7@@ 50
ga110 50
gamer 50
gard 50
geforce 50
gging 50
glycolic 50
hasbro 50
high-end 50
hon 50
hyperdunk 50
ipad@@ 50
j0@@ 50
jagger 50
jay@@ 50
jeffree 50
jen 50
jk@@ 50
k.@@ 50
k3 50
kc 50
kinoki 50
kins 50
knits 50
late 50
legging 50
lifestyle 50
liqu@@ 50
listing 50
long-lasting 50
loves 50
lu 50
m5@@ 50
mason 50
mber 50
meiji 50
monsters 50
myra 50
nake@@ 50
nights 50
nongshim 50
note@@ 50
ow@@ 50
pact 50
piercing 50
prom 50
qq 50
rado 50
rd@@ 50
rising 50
rp 50
ru 50
rug 50
scene 50
section 50
signage 50
slo@@ 50
somebymi 50
squi@@ 50
sse@@ 50
stevia 50
succulents 50
suga 50
supple 50
temp 50
temperament 50
teri@@ 50
there 50
tine 50
tong 50
tunes 50
twill 50
tx 50
una 50
ust 50
venice 50
vibes 50
wer@@ 50
wonderline 50
ws-@@ 50
xr@@ 50
-c@@ 49
12in1 49
180g 49
189 49
2.0@@ 49
340 49
40w 49
40x@@ 49
5r 49
6.6 49
7.1 49
90-@@ 49
ache 49
answer 49
anti-bacterial 49
anti-perspirant 49
ants 49
benton 49
bga@@ 49
blan@@ 49
bottled 49
bou@@ 49
brac@@ 49
centella 49
cf 49
chess 49
chew 49
claus 49
cruzer 49
d3@@ 49
dea@@ 49
deli 49
dictionary 49
digi@@ 49
disinfecting 49
dong 49
dust@@ 49
elli@@ 49
empire 49
ered 49
fb@@ 49
fever 49
ffe@@ 49
finder 49
fixed 49
fragrances 49
fuse 49
glaze 49
grapefruit 49
grater 49
haikyuu 49
hea@@ 49
hello@@ 49
help 49
holo 49
inspi 49
intl 49
invitations 49
ives 49
jumping 49
kam@@ 49
keyholder 49
kings 49
kjm 49
lei@@ 49
less@@ 49
locket 49
looney 49
lopez 49
lx@@ 49
madden 49
maru@@ 49
mid-@@ 49
nets 49
nette 49
nursery 49
offer 49
only.fashion 49
paubos 49
pig@@ 49
pk@@ 49
plat@@ 49
pollution 49
popsicle 49
practical 49
ras@@ 49
remo@@ 49
saucer 49
saudigold 49
share 49
should 49
skeleton 49
ski 49
skmei 49
snap@@ 49
spa@@ 49
speci@@ 49
stencil 49
stilton 49
studios 49
surge 49
taillight 49
take@@ 49
taste 49
thunder 49
timberland 49
tk@@ 49
tn@@ 49
weekly 49
wellness 49
whale 49
witness 49
y9@@ 49
yy@@ 49
,000 48
-34 48
012 48
125g 48
25-30 48
260 48
2yrs 48
4-5 48
480 48
5oz 48
603 48
6pairs 48
701 48
810 48
all@@ 48
ange@@ 48
asa 48
asahi 48
atx 48
az 48
bad@@ 48
baybayin 48
bigger 48
bolster 48
boo 48
br 48
bridge 48
c9 48
chevrolet 48
chicharon 48
chisel 48
chopstick 48
chris 48
ciao 48
clio 48
core@@ 48
cozy 48
cruz 48
degrees 48
doc 48
domin@@ 48
dpi 48
everpower 48
ew 48
fair 48
farmstay 48
fen@@ 48
fg 48
fiesta 48
fjs@@ 48
flashing 48
fle@@ 48
ganda 48
ghts 48
gluta@@ 48
gul@@ 48
hin 48
hx@@ 48
iv 48
jimin 48
jt5 48
kc@@ 48
kha@@ 48
kitkat 48
lator 48
leafy 48
ligh@@ 48
log 48
loom 48
lr 48
m4@@ 48
mania 48
mates 48
n1 48
nd@@ 48
nie 48
novo 48
oats 48
opening 48
origin@@ 48
paisley 48
palmolive 48
pantulog 48
para 48
personality 48
qc 48
quinn 48
reflectorized 48
regatta 48
rel 48
repack 48
rizoma 48
sat@@ 48
shaping 48
shoulderbag 48
sili@@ 48
siz@@ 48
sj 48
smoothing 48
squeezer 48
starmobile 48
sto 48
stunning 48
superfood 48
swanson 48
swivel 48
tered 48
think 48
travel@@ 48
ture 48
uk@@ 48
utensils 48
vac 48
veronica 48
versatile 48
ville 48
whey 48
wil@@ 48
wy@@ 48
xerox 48
-04 47
-35 47
016 47
1.0@@ 47
1.2@@ 47
12000mah 47
120mm 47
126 47
12mos 47
171 47
1996 47
1gb 47
2019-2020 47
24-@@ 47
24v 47
2b 47
2k@@ 47
300mbps 47
5pc 47
5pro 47
6,@@ 47
62@@ 47
700ml 47
702 47
75g 47
aka 47
armored 47
arte@@ 47
arturo 47
ask 47
ast 47
ater 47
bestguard 47
bhw 47
bold 47
booldeet 47
c5 47
cali@@ 47
cane 47
carat 47
caster 47
catch 47
cel 47
cement 47
cica 47
cod. 47
create 47
creston 47
dakki 47
delights 47
dicer 47
dj 47
doorbell 47
embossing 47
eros 47
est@@ 47
fashionista 47
father 47
fatigue 47
fengshui 47
floss 47
flower@@ 47
friendship 47
gil@@ 47
gr 47
graffiti 47
grinding 47
grips 47
holders 47
holographic 47
instrument 47
irene 47
jk 47
kl@@ 47
kumot 47
lamb 47
lands 47
li-@@ 47
lower 47
macro 47
mae 47
masturbator 47
mccormick 47
mcneil 47
meizu 47
ment@@ 47
merrell 47
mfsunnies 47
ml-@@ 47
nam@@ 47
nc@@ 47
net@@ 47
nk@@ 47
odyssey 47
onal 47
ox 47
pb@@ 47
pck 47
pendants 47
pixi 47
plier 47
plo@@ 47
polishing 47
post@@ 47
pulse 47
qfashion 47
queens 47
r150 47
rb@@ 47
rebonding 47
revo 47
rocket 47
seat@@ 47
severus 47
shirt-@@ 47
smart@@ 47
smi@@ 47
so.nice 47
sof 47
sulfur 47
supremo 47
sweet@@ 47
swit@@ 47
tailored 47
tarpaulin 47
throne 47
ticket 47
tics 47
tri-@@ 47
ush 47
wearable 47
xrm125 47
yan@@ 47
yaya 47
zation 47
zoo@@ 47
.5 46
000mah 46
1.4 46
1.4@@ 46
1001 46
100w 46
140cm 46
1d 46
308 46
333 46
428-@@ 46
4c 46
606 46
720p 46
73@@ 46
7in1 46
8000 46
850@@ 46
aba@@ 46
alert 46
ality 46
ann@@ 46
bac 46
bezel 46
bonne 46
brave 46
bumblebee 46
bushing 46
career 46
careline 46
cashew 46
cathy 46
cav@@ 46
chain@@ 46
chairs 46
cham 46
charlie 46
cide 46
clara 46
cn 46
cod.@@ 46
col 46
dazzling 46
dorothy 46
double-sided 46
dough 46
doughnut 46
draw 46
dualpro 46
east 46
ellis 46
embroided 46
endgame 46
ener@@ 46
ening 46
evolution 46
eyebag 46
fel@@ 46
fie 46
flyman 46
folds 46
gc@@ 46
gels 46
generic 46
gibi 46
guards 46
hada 46
hanuman 46
hera 46
hl 46
hours 46
idol 46
iner 46
inkjet 46
jasper 46
julia 46
ked 46
kei@@ 46
kitchenware 46
kyla 46
lal@@ 46
lap 46
lina 46
liza 46
ma-@@ 46
mad@@ 46
management 46
mandala 46
mate20pro 46
memories 46
menthol 46
met@@ 46
mh 46
microsoft 46
mirac@@ 46
momo 46
nipples 46
nordic 46
nutella 46
oat 46
occasions 46
options 46
ors 46
oz. 46
p20pro 46
paints 46
pambata 46
papel 46
peri@@ 46
peso 46
phil 46
poco 46
polybag 46
reaction 46
redragon 46
reference 46
relax 46
relaxed 46
rette 46
rk@@ 46
roshe 46
sac@@ 46
sedan 46
sheep 46
sies 46
skip 46
small@@ 46
stark 46
stator 46
stepsill 46
sters 46
stine 46
stit@@ 46
strange 46
sum 46
tensioner 46
textiles 46
thea 46
thousand 46
top-@@ 46
tunic 46
ufw 46
unk 46
vader 46
vapo@@ 46
vg 46
wra@@ 46
wraps 46
y. 46
you@@ 46
zie 46
zipped 46
-s@@ 45
019 45
124 45
12g 45
140g 45
14t 45
151 45
1600@@ 45
18cm 45
1997 45
20m 45
20mm 45
235@@ 45
30w 45
5-in-1 45
55ml 45
65g 45
7mm 45
8cm 45
9d 45
a2@@ 45
al-@@ 45
allan 45
ams 45
anti-fingerprint 45
anton 45
apieu 45
arena 45
asian 45
august 45
bibdana 45
bl-4@@ 45
blackheads 45
bles 45
burt 45
carburator 45
celtics 45
changer 45
charming 45
choco@@ 45
clearing 45
cobra 45
condenser 45
connect 45
crackers 45
dani@@ 45
darth 45
devices 45
dio@@ 45
document 45
ems 45
enchanteur 45
england 45
enlarger 45
eon 45
fast@@ 45
feelin 45
fem 45
fried 45
gameboy 45
gar 45
ggle 45
ggy 45
gia 45
gir@@ 45
glutalipo 45
gold-tone 45
grand@@ 45
hobby 45
huawie 45
hun@@ 45
impulse 45
indonesia 45
ipega 45
isolation 45
jacquard 45
jasmin 45
jc@@ 45
jerry 45
jewelries 45
jumper@@ 45
justees 45
karat 45
kers 45
kgs 45
kili 45
kn@@ 45
l1r1 45
lippies 45
liver 45
lk 45
ls-@@ 45
maganda 45
metric 45
mq 45
msmhk 45
muffin 45
navara 45
np-@@ 45
ns@@ 45
nyc 45
oil-based 45
omg 45
opp 45
organza 45
pallete 45
pinoy 45
pixel 45
port@@ 45
pot@@ 45
pou@@ 45
pretend 45
pringles 45
pti@@ 45
qcy 45
riders 45
ries 45
round@@ 45
rudu 45
shed 45
shrink 45
silhouette 45
slee@@ 45
sley 45
sn 45
snapshot 45
social 45
spectra 45
stethoscope 45
stripped 45
styles 45
sup@@ 45
surveillance 45
sweetener 45
swirl 45
taytay 45
terno@@ 45
times 45
timewise 45
tis 45
toaster 45
trac@@ 45
trooper 45
trouble 45
trunks 45
ue 45
vani@@ 45
variable 45
vee 45
ver. 45
vity 45
wea@@ 45
wick 45
with@@ 45
worm 45
worn 45
wrislet 45
zeus 45
-23 44
005@@ 44
1.7 44
12inch 44
142 44
14cm 44
160g 44
1dozen 44
210@@ 44
228 44
3v 44
473ml 44
809 44
9ml 44
absorption 44
acker 44
ama@@ 44
amanda 44
anti-skid 44
api@@ 44
arri@@ 44
ax@@ 44
b3 44
bff 44
blossoms 44
bow@@ 44
brace 44
bugs 44
buy@@ 44
cau@@ 44
ccml 44
clever 44
clog 44
clogs 44
cn@@ 44
complexion 44
compound 44
cosmic 44
cry@@ 44
cus 44
design@@ 44
emp@@ 44
eth@@ 44
fanny 44
flex@@ 44
fore@@ 44
full-@@ 44
garage 44
gla@@ 44
gor@@ 44
gospel 44
gran@@ 44
grease 44
handlebar 44
hc@@ 44
hion 44
hs@@ 44
icing 44
idea 44
inflator 44
ining 44
jjc 44
kang 44
kb 44
kry@@ 44
ktees 44
kultura 44
l-carnitine 44
leather@@ 44
leatherette 44
long-@@ 44
m4 44
mamala 44
martha 44
melamine 44
mike 44
misumi 44
mmx@@ 44
motorbike 44
mtp-v@@ 44
mule 44
muslim 44
nai@@ 44
nate 44
newest 44
nex@@ 44
nur@@ 44
nurse 44
olympus 44
optic 44
ori 44
peak 44
peptide 44
personalize 44
petit 44
pie@@ 44
playful 44
ppr 44
prepack 44
preparation 44
puppet 44
ratchet 44
reju@@ 44
rmg 44
rolex 44
rx@@ 44
s9plus 44
samgyupsal 44
scientific 44
sing@@ 44
skk 44
sleeper 44
smoo@@ 44
speedo 44
spin@@ 44
splashproof 44
staple 44
stapler 44
ste 44
success 44
sup 44
superior 44
synergy 44
tal 44
tala 44
tek 44
toblerone 44
tumblers 44
tus 44
vine 44
yh 44
'gosh 43
-03 43
-33 43
100mm 43
15.@@ 43
157 43
161 43
16cm 43
195 43
1999 43
1kl 43
2013-@@ 43
2020@@ 43
213 43
24cm 43
2k 43
2lite 43
3.5@@ 43
30-@@ 43
30000mah 43
300mm 43
325 43
3pairs 43
5000@@ 43
60pcs 43
6d 43
800g 43
802 43
8yrs 43
a10@@ 43
ade 43
allo@@ 43
also 43
ame 43
armband 43
avdf 43
b5 43
badescu 43
barefoot 43
bed@@ 43
blackbox 43
block@@ 43
blue-@@ 43
booty 43
botanical 43
bun 43
by-@@ 43
cassette 43
cat6 43
cham@@ 43
chap@@ 43
chart 43
chevron 43
chie 43
circo 43
cloudfone 43
coordinate 43
crest 43
dairy 43
distressed 43
down@@ 43
dry@@ 43
electri@@ 43
endless 43
epi@@ 43
equal 43
espadrilles 43
espresso 43
excel 43
explorer 43
festival 43
fish@@ 43
fitbit 43
fitting 43
folio 43
gimbal 43
gly@@ 43
gothic 43
gt-@@ 43
hang@@ 43
hans 43
harvest 43
holic 43
hut 43
icy 43
imprint 43
insta@@ 43
iphone11 43
j62018 43
jang 43
juli@@ 43
kicks 43
kle@@ 43
koala 43
kotobukiya 43
kr@@ 43
lake 43
lapel 43
legendary 43
lice 43
license 43
lightness 43
luck@@ 43
lush 43
made@@ 43
maid 43
maldives 43
march 43
matchbox 43
mber@@ 43
mcg 43
me-@@ 43
myrrh 43
necktie 43
nin@@ 43
nonwire 43
offi@@ 43
oi@@ 43
os@@ 43
p250 43
paracord 43
peachy 43
peg 43
plating 43
pleasure 43
plus@@ 43
pn 43
polar 43
rash@@ 43
rc@@ 43
rechargable 43
religious 43
rev@@ 43
rocher 43
ros@@ 43
rubi@@ 43
rubik 43
saffiano 43
saiyan 43
sas@@ 43
scho@@ 43
seasons 43
sei@@ 43
shells 43
shir@@ 43
sou@@ 43
spinning 43
splcodgenuine100 43
stor 43
suki 43
syn@@ 43
t2 43
table@@ 43
tarnish 43
telesin 43
tim 43
toes 43
tow 43
tp@@ 43
translucent 43
trends 43
twins 43
unused 43
upto 43
vhf 43
victory 43
w0@@ 43
ward 43
wild@@ 43
wimpy 43
wink 43
writer 43
xpander 43
zoro 43
-t@@ 42
......... 42
020 42
108@@ 42
132 42
1500@@ 42
18k@@ 42
206 42
207 42
3,@@ 42
3-pack 42
3110 42
35-40 42
3ft 42
3r 42
60s 42
60x@@ 42
610 42
777 42
8,@@ 42
8y 42
9-12 42
access 42
achi 42
adventures 42
alaska 42
alco@@ 42
alex@@ 42
ania 42
arduino 42
atomy 42
bailey 42
bianca 42
black-@@ 42
bny 42
border 42
boxers 42
brit 42
britney 42
bulgari 42
burgundy 42
c4 42
cecilia 42
chas@@ 42
chil@@ 42
chubby 42
code@@ 42
coin@@ 42
cottony 42
damper 42
delicate 42
distance 42
divider 42
easy@@ 42
eh 42
eight 42
erie 42
excess 42
faceshop 42
farrah 42
figma 42
firm 42
gems 42
glow@@ 42
gn 42
greek 42
haan 42
harajuku 42
heartbeat 42
hoddie 42
hotdog 42
humannature 42
ie@@ 42
ies 42
illuminator 42
jes 42
jlt 42
kel@@ 42
kineza 42
knotted 42
kp1 42
kyb 42
labels 42
lanbena 42
lc-@@ 42
lilo 42
lim 42
literide 42
lj@@ 42
lli 42
locks 42
logi@@ 42
lola 42
lor 42
ltp-@@ 42
lumin@@ 42
m-xl 42
mambi 42
marshmallow 42
med@@ 42
medal 42
mental 42
microwavable 42
mik@@ 42
mio@@ 42
mock 42
moda 42
motowolf 42
mudguard 42
navyblue 42
note10 42
novels 42
ology 42
panic 42
pass 42
pear@@ 42
perfumed 42
pops 42
postcards 42
practice 42
prreti 42
puff@@ 42
queen@@ 42
r7 42
reveal 42
rsgw 42
s-0@@ 42
s20 42
sander 42
se-@@ 42
see@@ 42
sex@@ 42
shimmering 42
shogun 42
sister 42
skorts 42
sling@@ 42
sos 42
sted 42
sty 42
sub 42
sure 42
swe@@ 42
tagalog 42
thy 42
tictac 42
timing 42
tinkerbell 42
tta 42
tumblr 42
ultrathin 42
uti@@ 42
vac@@ 42
veins 42
vguc 42
volkswagen 42
wer 42
western 42
wilson 42
x8 42
yrs. 42
-26 41
-4 41
1.3 41
100-@@ 41
100cm 41
12a 41
131 41
162 41
170ml 41
1990 41
199@@ 41
2-3@@ 41
216 41
3-way 41
3.4a 41
3d@@ 41
3kg 41
3oz 41
4.3 41
500w 41
511 41
5inch 41
7t 41
8s 41
90cm 41
acti@@ 41
anion 41
arabica 41
ast@@ 41
bag-@@ 41
beginners 41
bidet 41
bones 41
breakfast 41
burning 41
cci 41
chewy 41
clip@@ 41
closer 41
common 41
cont@@ 41
contrast 41
crab 41
ctions 41
das@@ 41
daylight 41
det@@ 41
diana 41
disinfection 41
drunk 41
dtc 41
e-liquid 41
e.l.f. 41
epic 41
escada 41
eureka 41
evvph 41
expiry 41
exten@@ 41
fairy@@ 41
fingerprint 41
flood 41
flowering 41
freshner 41
front@@ 41
gardening 41
gatas 41
gf@@ 41
ginal 41
gol@@ 41
half@@ 41
hannah 41
hap@@ 41
hindi 41
honey@@ 41
i8@@ 41
ido@@ 41
imp@@ 41
inclusion 41
index 41
interchangeable 41
io@@ 41
ite@@ 41
jars 41
kim@@ 41
kni@@ 41
kurtina 41
l.a 41
l0@@ 41
laces 41
ladys 41
lampin 41
lang@@ 41
lgts 41
llo 41
lube 41
lum 41
luv 41
lw 41
magi@@ 41
mal 41
maxx 41
mbps 41
mexico 41
mini-@@ 41
mink 41
mmer 41
monopad 41
moonlight 41
mosaic 41
motor@@ 41
mul@@ 41
must 41
nami 41
netbook 41
offset 41
only@@ 41
panoramic 41
para@@ 41
paula 41
pc-@@ 41
penny 41
photos 41
plugs 41
plus-size 41
poli@@ 41
positive 41
pre-owned 41
presto 41
quiet 41
quotes 41
rad 41
relumins 41
roger 41
ross 41
rough 41
rusty 41
sad@@ 41
sandy 41
sanuk 41
scrat@@ 41
server 41
shan@@ 41
shopper 41
signed 41
since 41
skylanders 41
slu@@ 41
sofitec 41
storybook 41
straightening 41
stru@@ 41
stufftoy 41
sunnyware 41
tiara 41
tro 41
une 41
upgrade 41
ux 41
vas@@ 41
vc@@ 41
vogue 41
volt 41
volu@@ 41
wave100 41
whipped 41
won@@ 41
xuping 41
yarns 41
yun 41
025 40
1.8kg 40
10.1 40
10inches 40
1100 40
184 40
19mm 40
2-pack 40
204 40
226g 40
4.1 40
428@@ 40
4x4 40
630 40
70-@@ 40
950 40
a4@@ 40
automotive 40
ave@@ 40
backpack@@ 40
bal 40
beater 40
blair 40
buildmate 40
calling 40
camilla 40
causal 40
cian 40
cking 40
contouring 40
coords 40
coun@@ 40
cradle 40
dash@@ 40
dimmable 40
dl 40
duvet 40
edible 40
enfant 40
escape 40
fei@@ 40
fence 40
fighting 40
fitflops 40
flaws 40
fluorescent 40
freezer 40
ft. 40
goblin 40
grosgrain 40
guality 40
hdtv 40
headrest 40
heal 40
ht 40
inang 40
indicator 40
infallible 40
iope 40
iro@@ 40
jd@@ 40
jel@@ 40
jennifer 40
jjt 40
jy. 40
lm@@ 40
low-top 40
ltp-v@@ 40
lyn@@ 40
m6 40
maze 40
membrane 40
mis@@ 40
moisturising 40
nancy 40
ninjago 40
nl 40
open@@ 40
origami 40
originai 40
pag@@ 40
pao 40
pegasus 40
pic@@ 40
pixar 40
playmat 40
playsuit 40
plunger 40
poop 40
preowned 40
prism 40
psicom 40
qualcomm 40
r8 40
rage 40
rah 40
raptors 40
rated 40
realme5pro 40
remove 40
revitali@@ 40
rollers 40
rou@@ 40
rr@@ 40
s10plus 40
scraper 40
shoes@@ 40
sidebag 40
simpson 40
softener 40
space@@ 40
spec 40
sportswear 40
ssed 40
stan@@ 40
still 40
stle 40
sul@@ 40
supersale 40
superstay 40
sweets 40
tc@@ 40
theory 40
tooth@@ 40
toy@@ 40
transmitter 40
tropi@@ 40
tubular 40
tweezer 40
upgraded 40
v-power 40
v10 40
valley 40
variants 40
vibration 40
vin 40
vul@@ 40
weapon 40
week 40
ws@@ 40
yrs.old 40
zg 40
α@@ 40
-100 39
-31 39
-42 39
1.8m 39
10cm 39
10oz 39
1100@@ 39
156 39
178 39
18x@@ 39
192 39
1989 39
20s 39
2tb 39
3-1 39
3-6m 39
310@@ 39
3in 39
5,@@ 39
7th 39
80-@@ 39
9w 39
adam 39
addidas 39
akg 39
ako@@ 39
antiperspirant 39
ap24 39
aphrodisia 39
aron 39
australian 39
avenger 39
bangtan 39
beachwear 39
bigbang 39
bija 39
bio-@@ 39
blouse@@ 39
bmw 39
bot@@ 39
buck@@ 39
cabana 39
calm 39
camshaft 39
canopy 39
cari@@ 39
clouds 39
comm@@ 39
containers 39
cosme@@ 39
creation 39
cree 39
crystalline 39
daban 39
dable 39
dahua 39
dat@@ 39
delay 39
diagonal 39
dig@@ 39
drag 39
dt 39
dual@@ 39
electroplated 39
everest 39
factor 39
fc@@ 39
fhd 39
fifi 39
figuarts 39
filters 39
fin 39
fittings 39
flashdrive 39
floor@@ 39
forme 39
freesf 39
freeze 39
gani@@ 39
grant 39
habits 39
ham 39
hangers 39
hits 39
hogwarts 39
imak 39
investment 39
ions 39
iphone6s 39
ix@@ 39
jay 39
jm 39
joyride 39
jz118@@ 39
kasya 39
kee 39
kiss@@ 39
knuckle 39
kris 39
laud 39
leader 39
les@@ 39
malaysia 39
mamypoko 39
matchy 39
maya 39
meduim 39
mg@@ 39
mice 39
milo 39
mobi@@ 39
monsta 39
moroccan 39
multi-color 39
mum 39
mustache 39
mux 39
netflix 39
ngk 39
nicer 39
nigh@@ 39
nov@@ 39
nz@@ 39
occasion 39
oil@@ 39
oni 39
p. 39
p20@@ 39
pajero 39
panty@@ 39
phar@@ 39
pineng 39
plaka 39
pldt 39
pores 39
predator 39
probiotic 39
pv@@ 39
qc3.0 39
qf 39
rapunzel 39
reci@@ 39
resi@@ 39
roche 39
rocking 39
rosemary 39
satellite 39
sds@@ 39
senka 39
serial 39
shave 39
sil 39
sins 39
skinfit 39
sock@@ 39
soo@@ 39
spoke 39
t10 39
t5 39
t8@@ 39
tangerine 39
telescope 39
thai@@ 39
tia 39
tique 39
together 39
torani 39
tracing 39
tren@@ 39
tron 39
tus@@ 39
uag 39
utp 39
vapormax 39
vega 39
vir@@ 39
viva 39
w.@@ 39
warts 39
wears 39
whisk 39
wife 39
wigs 39
wing@@ 39
wjf 39
wy 39
xs@@ 39
yaiba 39
yazi 39
yd 39
yon 39
yul 39
zaful 39
zoe 39
-6 38
........@@ 38
.1 38
015 38
1,000 38
1- 38
1-5 38
10000 38
12x@@ 38
1300 38
136@@ 38
139 38
141 38
1800 38
182 38
1998 38
2-1 38
2022 38
20x@@ 38
2in1@@ 38
2tone 38
3-5@@ 38
30-35 38
420 38
480@@ 38
4x@@ 38
5-6 38
500grams 38
50w 38
6-18 38
602 38
81@@ 38
a00@@ 38
acce@@ 38
activ@@ 38
adap@@ 38
ades 38
aire 38
alkansya 38
aloevera 38
alph@@ 38
anti-acne 38
antiseptic 38
bataan 38
bayo 38
beau@@ 38
belts 38
break@@ 38
butterscotch 38
button-down 38
bw 38
cardfight 38
carton 38
catriona 38
celeteque 38
cent 38
chainsaw 38
chlo@@ 38
claiborne 38
classa 38
coca 38
coldshoulder 38
cook 38
creamer 38
creamsilk 38
dart 38
degreaser 38
dinnerware 38
dooney 38
doug 38
dragons 38
ejuice 38
emperor 38
feli@@ 38
filling 38
fiona 38
flesh 38
fp@@ 38
freesia 38
garnet 38
gasoline 38
groom 38
guilty 38
happiness 38
has 38
heather 38
helmets 38
hue 38
immune 38
ited 38
j310 38
jer@@ 38
jimmy 38
jinju 38
jose 38
just@@ 38
k2 38
kalamansi 38
kenzo 38
kg. 38
kimetsu 38
knitting 38
koko@@ 38
kur@@ 38
kz 38
lazel 38
lolita 38
madrid 38
maple 38
marcus 38
mary@@ 38
maxine 38
mble 38
middle 38
ml. 38
mma 38
molded 38
multivitamin 38
mw@@ 38
nasal 38
nature@@ 38
nhance 38
nike@@ 38
ntc 38
oc@@ 38
oddstickers 38
oppo@@ 38
optimus 38
ord@@ 38
paw@@ 38
pee 38
pg@@ 38
physical 38
piglet 38
planer 38
pochette 38
poe 38
pon@@ 38
pun@@ 38
qt 38
qw@@ 38
ral 38
rasta 38
realistic 38
rene 38
respirator 38
rol@@ 38
rosa 38
rounds 38
rows 38
sak@@ 38
scu@@ 38
seafood 38
secosana 38
shaving 38
shy 38
sierra 38
sive 38
sma 38
small-@@ 38
songs 38
soon 38
sso@@ 38
starex 38
static 38
sterili@@ 38
suit@@ 38
swab 38
tel@@ 38
tele@@ 38
tg-@@ 38
thanos 38
thinkpad 38
thru 38
thumb 38
totebag 38
tti 38
tweeter 38
type@@ 38
ud 38
wk@@ 38
wolverine 38
xb@@ 38
y9s 38
yy 38
-12@@ 37
-fit 37
................................@@ 37
014 37
1080 37
11oz 37
136 37
14.@@ 37
1600 37
16inch 37
1993 37
1c 37
2008-@@ 37
223 37
233 37
3.1a 37
309 37
450g 37
6-7 37
6.4 37
60-@@ 37
63@@ 37
710 37
905 37
906 37
a8plus 37
addict 37
ado@@ 37
ako 37
antioxidant 37
ape 37
aquamarine 37
aria 37
assassin 37
autograph 37
bet 37
beverage 37
billiard 37
biotin 37
blackout 37
cappuccino 37
capshop 37
chin@@ 37
cignus 37
cir@@ 37
classi@@ 37
clavicle 37
clay@@ 37
comes 37
commuter 37
coolant 37
corn@@ 37
cowboy 37
damaged 37
delta 37
digest 37
doll@@ 37
dragon@@ 37
dress-@@ 37
dvi 37
eno 37
erase 37
essen@@ 37
expansion 37
farrar 37
fd@@ 37
fds@@ 37
fig 37
fuji@@ 37
furball 37
gfriend 37
gger 37
grms 37
gudi 37
hairclips 37
hanes 37
has@@ 37
hd3 37
headed 37
headwear 37
hide 37
i9082 37
immortal 37
inger 37
inpods 37
instru@@ 37
interface 37
internet 37
j5pro 37
jr. 37
july 37
jumpskirt 37
kilogram 37
kinds 37
kw-@@ 37
lat 37
leo 37
lf@@ 37
lipton 37
locking 37
m6@@ 37
macaroon 37
main@@ 37
maxidress 37
mex 37
micky 37
move 37
naturacentials 37
nick 37
nitro 37
oli@@ 37
on7 37
p150 37
payless 37
peculiar 37
pekas 37
periwinkle 37
pers 37
pli@@ 37
poker 37
polkadot 37
purchase 37
qnet 37
quar@@ 37
refle@@ 37
refresh 37
resto@@ 37
retina 37
rusi 37
saber 37
safe@@ 37
scra@@ 37
sega 37
send 37
sill 37
simcard 37
skintone 37
speak 37
spout 37
stains 37
steel@@ 37
strada 37
submersible 37
sung 37
sus@@ 37
tac 37
target 37
teardrop 37
temperd 37
thunder@@ 37
tied 37
tnt 37
tons 37
tter 37
tubes 37
u.@@ 37
uo 37
uta 37
uv-@@ 37
vco 37
villa 37
virginity 37
volleyball 37
voltmeter 37
wb 37
weight@@ 37
wipe 37
wm@@ 37
wrapper 37
wu@@ 37
y3 37
yah 37
yayamanin 37
yf 37
yield 37
yx 37
0.38mm 36
017 36
1-4 36
1.2m 36
1000w 36
10pcs. 36
137 36
13cm 36
158 36
15x@@ 36
160ml 36
198@@ 36
1mm 36
2007-@@ 36
2014-@@ 36
249 36
24mm 36
256 36
295ml 36
2f 36
2oz 36
2ways 36
35g 36
3cm 36
4.7 36
680 36
6cm 36
730 36
7i 36
8th 36
9v 36
acai 36
acks 36
ald 36
arpege 36
artisan 36
ature 36
backs 36
bagonly 36
barber 36
beauti@@ 36
believe 36
beyouthiful 36
bility 36
biztree 36
blush@@ 36
bm 36
boardwalk 36
bowtie 36
brownie 36
caddy 36
cameo 36
camille 36
cheddar 36
cherrymobile 36
chers 36
comb@@ 36
compaq 36
conne@@ 36
connecting 36
contro@@ 36
corelle 36
cork 36
crossbar 36
cruise 36
crushed 36
death@@ 36
divi@@ 36
dog@@ 36
donna 36
door@@ 36
dreamer 36
e5@@ 36
eable 36
emi@@ 36
equ@@ 36
extractor 36
f5@@ 36
fabri@@ 36
fabulous 36
fat@@ 36
finger@@ 36
flaw 36
formulas 36
friction 36
frnc 36
fw@@ 36
g7106 36
ged 36
gent 36
glitz 36
greatest 36
guardian 36
hardtop 36
hatchback 36
himalaya 36
homemade 36
i3 36
icosmetica 36
ionic 36
iphone4 36
ishigaki 36
ivt 36
j8. 36
jac@@ 36
jl 36
journey 36
jpop 36
k-pads 36
kara 36
kee@@ 36
knorr 36
kodak 36
konzert 36
ks-@@ 36
l.a. 36
lds 36
legacy 36
lint 36
lite@@ 36
ln@@ 36
logic 36
lpg 36
macbeth 36
magnum 36
mark@@ 36
michelle 36
mists 36
mitch 36
mper 36
mtrt 36
natures 36
nav@@ 36
nectarine 36
no-@@ 36
no. 36
nova3 36
novelty 36
nudes 36
oil-@@ 36
ole 36
ollie 36
original@@ 36
p200 36
pageant 36
pantyliner 36
party@@ 36
paulo 36
pid 36
pills 36
pipes 36
plasma 36
playtex 36
plex 36
pong 36
prayer 36
pregnancy 36
props 36
psu 36
push-up 36
put 36
puzzles 36
q3 36
quadcopter 36
r0@@ 36
raz@@ 36
recovery 36
rh 36
rinse 36
rip 36
rite 36
rocks 36
rohto 36
s-xl 36
scales 36
set-@@ 36
shopp 36
simpsons 36
smar@@ 36
some@@ 36
something 36
spar@@ 36
spoons 36
spr@@ 36
srp 36
stable 36
step@@ 36
streetwear 36
stroke 36
sub-@@ 36
sulwhasoo 36
suspender 36
swa@@ 36
thomson 36
tins 36
toothpick 36
touch@@ 36
typec 36
unlimited 36
updated 36
vel 36
vivi 36
vooc 36
was 36
wen@@ 36
wwfph 36
x9@@ 36
xs-@@ 36
xt@@ 36
-22 35
-29 35
.5cm 35
0001 35
1.1 35
120cm 35
12yrs 35
135@@ 35
13mm 35
16x@@ 35
17cm 35
18mos 35
1994 35
1t 35
2012@@ 35
2017-@@ 35
20l 35
21st 35
221 35
3000@@ 35
32oz 35
390 35
4-5@@ 35
401 35
45w 35
55-@@ 35
580 35
703 35
7b 35
8inches 35
900ml 35
909 35
ables 35
achi@@ 35
adf 35
aly@@ 35
andre@@ 35
angela 35
archie 35
armpit 35
asymmetrical 35
backup 35
bag. 35
bak@@ 35
bath@@ 35
beat@@ 35
bedside 35
ben10 35
bian 35
binlu 35
bleu 35
bodyworks 35
bq@@ 35
bron@@ 35
brook 35
bru@@ 35
btob 35
bumebime 35
butane 35
bye 35
c24 35
carri@@ 35
casino 35
chel@@ 35
chemical 35
christ@@ 35
christie 35
classical 35
co-@@ 35
collectors 35
colour@@ 35
colu@@ 35
conceal 35
condom 35
crankcase 35
cted 35
cuffed 35
cz 35
d1 35
day6 35
density 35
dge@@ 35
diamante 35
discounted 35
dru@@ 35
elas@@ 35
elle@@ 35
embroid 35
enchanted 35
enhance 35
esme 35
et-@@ 35
fair@@ 35
fleur 35
footsocks 35
framed 35
freshly 35
gain 35
gee@@ 35
ggs 35
ghi@@ 35
glutalight 35
gm@@ 35
gogh 35
gone 35
gp-@@ 35
griffin 35
gv 35
gy6 35
h4 35
harmony 35
hav@@ 35
havainas 35
hei@@ 35
hero@@ 35
hollywood 35
hub@@ 35
ice@@ 35
ico@@ 35
icons 35
ingredients 35
instabright 35
integrated 35
iridium 35
iris 35
ities 35
itzy 35
jdm 35
jeep 35
joseph 35
k8 35
kab@@ 35
kami@@ 35
kelsey 35
kka 35
l.12.12 35
lav@@ 35
loaf 35
lose 35
lucky@@ 35
mango@@ 35
marlboro 35
matte@@ 35
mme 35
monarch 35
moni@@ 35
movement 35
mugen 35
mura 35
murano 35
mut@@ 35
nutrilite 35
oot@@ 35
opal 35
pans 35
pas 35
patterns 35
pave 35
pedicure 35
petrol 35
pf 35
pickup 35
pink@@ 35
pique 35
pisonet 35
poison 35
price@@ 35
propeller 35
quart 35
r15 35
rachel 35
raffles 35
rainy 35
regi@@ 35
rei@@ 35
repeater 35
restore 35
rm@@ 35
roo@@ 35
rta 35
rubbershoes 35
sds 35
sdxc 35
servings 35
sew 35
shan 35
sher 35
shoot 35
shooter 35
show@@ 35
shredder 35
sla@@ 35
slam 35
snowflake 35
so-en 35
solotica 35
spears 35
stack 35
stretch@@ 35
sucker 35
summer@@ 35
sunsilk 35
sweatshorts 35
t110 35
tar 35
teabags 35
tech@@ 35
ted@@ 35
textile 35
then 35
thrift 35
ths 35
til@@ 35
tool@@ 35
true@@ 35
tut@@ 35
uc@@ 35
ufc 35
ull 35
var@@ 35
veg 35
vehicles 35
waistband 35
wave@@ 35
wika 35
windbreaker 35
woofer 35
wt 35
xl-3xl 35
xs-s 35
xuebami 35
yale 35
yoyo 35
yuri 35
zoey 35
zon 35
𝐈@@ 35
-9@@ 34
1-6 34
1.6@@ 34
1050 34
14.2mm 34
170g 34
18-24 34
2.5mm 34
245 34
252 34
355ml 34
36b 34
4cm 34
4ft 34
4pairs 34
530@@ 34
6000mah 34
64g 34
7inches 34
8m 34
946ml 34
a13@@ 34
abi 34
abs-cbn 34
adjuster 34
aff@@ 34
african 34
aming 34
anti-scratch 34
armrest 34
assy@@ 34
astray 34
ath 34
authen@@ 34
availa@@ 34
babyg 34
backlight 34
bacon 34
bae 34
blast 34
bli@@ 34
brit@@ 34
brothers 34
build@@ 34
cardholder 34
chamois 34
checkerd 34
chole@@ 34
chrono 34
cial 34
clasp 34
collage 34
cos@@ 34
costu@@ 34
course 34
cover-up 34
curvy 34
ddy 34
dee 34
denso 34
detective 34
dic@@ 34
dipbrow 34
dollhouse 34
doo@@ 34
e7 34
earl 34
eo@@ 34
ertiga 34
explo@@ 34
extendable 34
faber 34
feed 34
fication 34
fir@@ 34
foglight 34
frill 34
fujidenzo 34
fx@@ 34
garment 34
genuine100 34
georgia 34
geronimo 34
ght@@ 34
gluta-@@ 34
glutax 34
graham 34
gunmetal 34
half-@@ 34
helicopter 34
hersheys 34
hi-cut 34
hourglass 34
hrv 34
hstnn-@@ 34
hydr@@ 34
i125 34
ig 34
inno@@ 34
iphonexr 34
jaguar 34
jar@@ 34
je 34
jewel@@ 34
jewellery 34
jim 34
jonaxx 34
julong 34
keepers 34
ket 34
kiehl 34
lady@@ 34
lamborghini 34
lara 34
lexi 34
lh 34
lh@@ 34
lier 34
lle@@ 34
lled 34
macy 34
magnolia 34
maii 34
manufactured 34
marga 34
maxglow 34
menstrual 34
mercier 34
meri@@ 34
metro@@ 34
miku 34
miller 34
mol@@ 34
moose 34
moti@@ 34
mt-@@ 34
nacific 34
nouvo 34
nutri 34
o2 34
occas@@ 34
ones 34
pals 34
papemelroti 34
patched 34
physicians 34
pick@@ 34
pn-@@ 34
portrait 34
prevent 34
protec 34
psy@@ 34
pull-out 34
punny 34
pw@@ 34
quarter 34
quil@@ 34
quinoa 34
radi@@ 34
rebecca 34
repairing 34
rexona 34
rire 34
rrj 34
runs 34
rustic 34
sa1e 34
sace 34
salve 34
scre@@ 34
selected 34
shure 34
silverworks 34
sincerity 34
sippy 34
sk-@@ 34
smoothie 34
sonia 34
stance 34
strengthening 34
teenage 34
teething 34
tft 34
tic@@ 34
toast 34
tokidoki 34
toma@@ 34
toppers 34
twopiece 34
ub 34
ult 34
units 34
unity 34
uto 34
veil 34
village 34
vitam@@ 34
watchportal 34
weekender 34
wish@@ 34
woody 34
x-level 34
yours 34
yss 34
zzle 34
.......... 33
.2 33
026 33
039 33
110g 33
16mm 33
179 33
187 33
193 33
200grams 33
20inches 33
237 33
24x@@ 33
255 33
290 33
2c 33
2cm 33
307 33
330ml 33
38mm 33
405 33
591ml 33
650ml 33
6pc 33
908 33
a14@@ 33
abe 33
abel 33
ade@@ 33
adri@@ 33
alchemist 33
alle@@ 33
alligator 33
ame@@ 33
ameri@@ 33
anie 33
antibac 33
anya 33
anycast 33
appli@@ 33
ariana 33
atmosphere 33
baruan 33
bble 33
beach@@ 33
beats 33
bells 33
billabong 33
blankets 33
blazers 33
blu-ray 33
bmx 33
bor 33
bradley 33
braid 33
bucks 33
bumble 33
c.o.d 33
card@@ 33
caseology 33
castell 33
cg125 33
chable 33
chang@@ 33
cheesecake 33
cindy 33
coke 33
compress 33
conan 33
cooper 33
crisp 33
crossing 33
cushi@@ 33
cw 33
deco@@ 33
defen@@ 33
dermacol 33
designplus 33
dimension 33
dk 33
donald 33
du 33
eco-friendly 33
effector 33
ejm 33
electroplate 33
ello 33
enclosure 33
ene 33
engraved 33
enne 33
entry 33
enzyme 33
epoch 33
eq@@ 33
eria 33
events 33
executive 33
flange 33
fleer 33
fragrant 33
freego 33
frixion 33
g-spot 33
gamuza 33
geek 33
gence 33
geo@@ 33
girly 33
gle 33
glucose 33
godzilla 33
gur@@ 33
gx 33
hear@@ 33
heli@@ 33
henry 33
houston 33
ht-@@ 33
hydrogel 33
i12 33
ibo 33
indigo 33
ing-@@ 33
inte@@ 33
item@@ 33
ito@@ 33
j1@@ 33
jennie 33
jung 33
jx 33
karen 33
know 33
ktph 33
l- 33
l1 33
ladder 33
lattice 33
leonard 33
library 33
lili@@ 33
longrich 33
lounge 33
macrame 33
mascot 33
mavic 33
meg 33
microns 33
midoko 33
minimal 33
miss@@ 33
movable 33
mrs 33
msh 33
much 33
n10 33
nal@@ 33
naturactor 33
near 33
nica 33
noblekids 33
ob 33
oily 33
oriental 33
ornaments 33
others 33
ous@@ 33
oversea 33
p2 33
p30pro 33
p50 33
parking 33
pcx 33
pentel 33
pregnant 33
pudding 33
pull-@@ 33
pulls 33
qs 33
quad@@ 33
rail 33
ral@@ 33
ralliart 33
rayon 33
ream 33
recording 33
refills 33
rel@@ 33
reserve 33
rivet 33
rus 33
russell 33
ryzen 33
saga 33
scooper 33
scri@@ 33
seasoned 33
shooting 33
shoul@@ 33
singing 33
ske@@ 33
skinlab 33
skintouch 33
sleep@@ 33
sman 33
snickers 33
snu@@ 33
sofi@@ 33
sold@@ 33
specialty 33
spl@@ 33
spokes 33
spotlight 33
ss-@@ 33
stansmith 33
stefan 33
stila 33
suv 33
tease 33
thickening 33
thief 33
thompson 33
thro@@ 33
tive 33
toning 33
toronto 33
tuner 33
turband 33
tv@@ 33
v5-@@ 33
v5lite 33
westbrook 33
wh 33
wishes 33
yel@@ 33
yer 33
z0@@ 33
zh@@ 33
-a 32
-black 32
-cod 32
-g 32
036 32
159 32
15a 32
169 32
186 32
18pcs 32
19.5v 32
1992 32
2.2 32
2003-@@ 32
2005-@@ 32
2006-@@ 32
2016-2019 32
211 32
234 32
3-wick 32
3.42a 32
3.5g 32
34b 32
45pcs 32
5000mah 32
50grams 32
552 32
600w 32
605 32
620 32
705 32
707 32
80cm 32
903 32
9x@@ 32
aba 32
abdomen 32
airbrush 32
ake 32
alaric 32
angry 32
anth@@ 32
appear@@ 32
aqva 32
arr@@ 32
asha 32
astro@@ 32
ation@@ 32
b4@@ 32
baker 32
balanced 32
baleno 32
banks 32
bedtime 32
beginner 32
bl-@@ 32
blaze 32
bless@@ 32
bonbon 32
bowling 32
bracele@@ 32
campus 32
caribbean 32
cassandra 32
cassie 32
center@@ 32
chew@@ 32
chon 32
coelho 32
colleen 32
connection 32
conver@@ 32
cour@@ 32
crate 32
cum 32
cus@@ 32
d4 32
dang@@ 32
dest@@ 32
dexe 32
dha 32
diver 32
dn 32
dn@@ 32
donruss 32
dp@@ 32
dylan 32
dz@@ 32
e-juice 32
earring@@ 32
editions 32
ego 32
encore 32
erry 32
f. 32
fabcon 32
faito 32
falling 32
favorites 32
fibisco 32
fingers 32
fisher-price 32
fru@@ 32
g0@@ 32
g7 32
gallery 32
geni@@ 32
gerry 32
gluten 32
gluth@@ 32
guerisson 32
hamper 32
hanna 32
hazeshop 32
hbd 32
hc 32
hj@@ 32
holi@@ 32
hongli 32
horizon 32
hygiene 32
hyun 32
icm 32
impor@@ 32
infusion 32
insta 32
irregular 32
itive 32
iv@@ 32
iz@@ 32
j330 32
jama 32
jibbitz 32
js@@ 32
jun 32
justin 32
kittens 32
koso 32
kyle 32
lamaze 32
lea@@ 32
leigh 32
lepin 32
lids 32
lje 32
lunar 32
madison 32
mage 32
magnifier 32
mala@@ 32
mara 32
master@@ 32
mate10 32
mate@@ 32
mauve 32
mech 32
medicinal 32
meg@@ 32
mela 32
milkca 32
mis 32
mmies 32
mobile@@ 32
moistfull 32
mortal 32
mr.@@ 32
mug@@ 32
muscletech 32
nak@@ 32
noki@@ 32
nova4 32
ola 32
omaga 32
omron 32
osmo 32
oxi@@ 32
padding 32
part@@ 32
patterson 32
paws 32
perfu@@ 32
pg-@@ 32
piso 32
poin@@ 32
points 32
pop-up 32
poppy 32
prep 32
primark 32
primary 32
private 32
promise 32
psi 32
puffs 32
putty 32
quantum 32
ramyun 32
read@@ 32
relx 32
resealable 32
riley 32
ris 32
roman@@ 32
rx-@@ 32
rxr 32
ryxskin 32
s9@@ 32
sable 32
sac 32
sailormoon 32
sala 32
sale. 32
sanitizing 32
schoolbag 32
scrubber 32
seas@@ 32
september 32
sgp 32
sh-@@ 32
shadows 32
shopp@@ 32
similac 32
siren 32
sleveless 32
smashbox 32
soles 32
stacking 32
sterile 32
stor@@ 32
strand 32
style@@ 32
tapioca 32
terminal 32
theater 32
tightening 32
timex 32
tion@@ 32
tn 32
tour@@ 32
trees 32
triton 32
tuxedo 32
ulzzang 32
ume 32
underarmour 32
unds 32
uro 32
urs 32
usb-c 32
vein 32
velvetines 32
voucher 32
vtech 32
warning 32
watt 32
waves 32
whe@@ 32
white-@@ 32
wii 32
willow 32
wp@@ 32
wre@@ 32
x75 32
yema 32
yet 32
yj@@ 32
yoyoso 32
ᄋ@@ 32
-07 31
0-3m 31
1.3@@ 31
1.5mm 31
10,000mah 31
105@@ 31
10pc 31
150mm 31
152 31
176 31
196 31
1piece 31
2-5 31
200cm 31
2018-19 31
227 31
232 31
235 31
25-@@ 31
26-@@ 31
306 31
32-@@ 31
32mm 31
3e 31
3pro 31
402 31
4d@@ 31
4g@@ 31
5-1 31
6-9@@ 31
710@@ 31
abo@@ 31
absolu 31
adjust 31
ager 31
alli@@ 31
aluminium 31
ande@@ 31
area 31
ashi@@ 31
aso@@ 31
asymmetric 31
atten@@ 31
aussie 31
azur 31
bakeware 31
bangko@@ 31
beau 31
biking 31
blake 31
blowout 31
bol@@ 31
brocade 31
butterflies 31
c10 31
c100 31
cad@@ 31
cameron 31
chimmy 31
chri@@ 31
cici 31
cky 31
cms 31
cocoberry 31
conversion 31
corned 31
coverup 31
creator 31
cup@@ 31
cutters 31
decor@@ 31
des@@ 31
devo@@ 31
dle 31
dore@@ 31
draw@@ 31
elvi@@ 31
enlar@@ 31
entrance 31
ergonomic 31
eun@@ 31
excelsior 31
exchange 31
fav 31
fearless 31
ffle 31
fl. 31
fl.oz 31
fleetmax 31
florence 31
fluoride 31
frank@@ 31
ga-110 31
gatsby 31
get@@ 31
gk 31
going 31
graphite 31
graphy 31
greeting 31
guardians 31
hamilton 31
hara 31
haw@@ 31
hikari 31
impro@@ 31
ini@@ 31
inn 31
intra 31
j42018 31
jd 31
jjs 31
jojoba 31
jvt 31
k001 31
kanken 31
kathryn 31
kindergarten 31
kiwi 31
komodo 31
ktv 31
l-2xl 31
lacy 31
lai@@ 31
lau@@ 31
lbb 31
lebelage 31
litchi 31
looking 31
loops 31
lor@@ 31
luckin 31
lumens 31
luxcent 31
macadamia 31
maldita 31
matter 31
medium-large 31
mee 31
mented 31
mio125 31
mona 31
mtr 31
ne-@@ 31
nee 31
negotiable 31
nemo 31
never@@ 31
newyork 31
nourish 31
ns-@@ 31
nuby 31
oh@@ 31
olaf 31
origins 31
oro 31
oud 31
overwatch 31
p9@@ 31
paperang 31
paren@@ 31
pasjel 31
penelope 31
percy 31
perkins 31
ple 31
pom 31
pos 31
pos@@ 31
presen@@ 31
produ@@ 31
qube 31
quick-drying 31
quiksilver 31
raven 31
rb 31
ree@@ 31
resident 31
robes 31
roblox 31
rockets 31
rollerball 31
rs100 31
sad 31
schoo@@ 31
see-through 31
sf-@@ 31
shrimp 31
silica 31
slice 31
slim@@ 31
slimfit 31
softband 31
sq 31
squareneck 31
ssam@@ 31
sus 31
susan 31
swee@@ 31
tain@@ 31
then@@ 31
thickened 31
thumbler 31
tiesides 31
totally 31
tul@@ 31
twenty 31
ubiquiti 31
uma 31
underwater 31
vegetarian 31
vivo@@ 31
wei 31
whisky 31
whole@@ 31
wj 31
ww@@ 31
x.@@ 31
x21 31
yt-@@ 31
zc554kl 31
· 31
『 31
』 31
𝐞@@ 31
-10 30
-300@@ 30
0.5@@ 30
0.7mm 30
001@@ 30
002@@ 30
028 30
030 30
033 30
034 30
1-0@@ 30
118ml 30
143 30
153 30
16.@@ 30
173 30
18v 30
191 30
1oz 30
20000 30
202@@ 30
229 30
23.5l 30
2500 30
25l 30
28-34 30
28-@@ 30
282 30
299 30
3.4 30
3.7v 30
326 30
328 30
35-39 30
399 30
3color 30
50s 30
51@@ 30
6ft 30
6oz 30
7-1 30
7000 30
7cm 30
803 30
818 30
818@@ 30
88ml 30
8inch 30
900g 30
90s 30
920 30
99.@@ 30
a12@@ 30
a62018 30
a70s 30
a91 30
aa-@@ 30
acu@@ 30
ad-@@ 30
adilette 30
agent 30
ahd 30
aler 30
alie 30
all-natural 30
allergenic 30
alyssa 30
aman 30
amor 30
ando 30
anti-colic 30
apruva 30
aquatic 30
attached 30
b-0@@ 30
b4 30
baf 30
bake 30
barcode 30
bh@@ 30
bigsize 30
bonnie 30
booklet 30
bourke 30
broad@@ 30
bustier 30
bv-@@ 30
c7@@ 30
camcorder 30
carla 30
carol 30
chapter 30
chilli 30
chun@@ 30
citizen 30
coachella 30
continental 30
cost@@ 30
cot 30
crane 30
cular 30
cute@@ 30
dandelion 30
decool 30
despicable 30
dmc 30
dna 30
drama 30
drawers 30
dresser 30
drl 30
drypers 30
dul@@ 30
e5 30
eds 30
energizer 30
enriched 30
envelopes 30
eve@@ 30
exfoliant 30
f3@@ 30
feathers 30
feeling 30
fine@@ 30
fishnet 30
flirt 30
flute 30
foglamp 30
fold@@ 30
friday 30
furious 30
furla 30
g-string 30
gamosa 30
gand@@ 30
gd-@@ 30
gies 30
gkk 30
gluco@@ 30
godox 30
got@@ 30
groot 30
gsw 30
gth 30
h. 30
hairbows 30
haven 30
hh@@ 30
hia 30
highlighters 30
hil@@ 30
hinges 30
hl@@ 30
holster 30
i. 30
ids 30
ik@@ 30
illusion 30
ilove@@ 30
individually 30
ivana 30
jf 30
joggers 30
jordana 30
juan 30
jute 30
jw 30
karadium 30
katrina 30
katsa 30
kimchi 30
kne@@ 30
komine 30
kose 30
kuroko 30
ladladlandph 30
lala 30
lemongrass 30
lewis 30
lif@@ 30
lits 30
locker 30
louise 30
lulu 30
luncheon 30
maca 30
mans 30
manuka 30
marmont 30
mediapad 30
mela@@ 30
metromanila 30
mf 30
mfjewelry 30
minimizer 30
mochi 30
monica 30
mons 30
mori 30
morty 30
mrc-@@ 30
mun 30
muse 30
mx-@@ 30
nan 30
nano@@ 30
nas 30
navi@@ 30
necklace@@ 30
needles 30
non-toxic 30
nova5i 30
nr 30
nuo 30
octa@@ 30
onlyyouth 30
osram 30
outerwear 30
overun 30
p0@@ 30
palawan 30
papers 30
parallel 30
password 30
pawnable@@ 30
pba 30
pier@@ 30
pillowcases 30
pitta 30
pms 30
pocketbook 30
pple 30
primera 30
program@@ 30
projection 30
puffed 30
push@@ 30
quality@@ 30
rece@@ 30
reese 30
register 30
rella 30
renewing 30
reno@@ 30
resurfacing 30
ret 30
retinol 30
revi@@ 30
rey@@ 30
rian 30
rich@@ 30
rj@@ 30
rox@@ 30
roy 30
rs150 30
ruched 30
rules 30
s10lite 30
s4@@ 30
s925 30
sausage 30
sdf@@ 30
secure 30
shapewear 30
shat@@ 30
short-@@ 30
skins 30
small-large 30
smd 30
sme@@ 30
sno@@ 30
sooper 30
sp-@@ 30
spectrum 30
spen@@ 30
spf15 30
spyker 30
stack@@ 30
stam@@ 30
stealth 30
strobe 30
sunshield 30
sym 30
tali 30
television 30
tera 30
throat 30
thy@@ 30
tional 30
tix 30
tongue 30
tracy 30
tshirt@@ 30
tsubaki 30
twice@@ 30
tyre 30
uhs-i 30
unsweetened 30
unt 30
ush@@ 30
v.@@ 30
v5plus 30
vanessa 30
vd 30
ventilation 30
vero 30
vina 30
vinci 30
visible 30
vr@@ 30
washcloth 30
webcam 30
woods 30
x20 30
xqt-@@ 30
yaris 30
yle 30
zoya 30
zu 30
zx@@ 30
-27 29
0-3mos 29
022 29
024 29
051 29
1.1@@ 29
1000pcs 29
1005 29
14x@@ 29
164 29
1991 29
20a 29
219 29
242 29
247 29
24mos 29
265 29
28street 29
2colors 29
2inch 29
331 29
36-45 29
366 29
3usb 29
4-6@@ 29
5-piece 29
5pairs 29
7-in-1 29
720@@ 29
8-10 29
858 29
8t 29
93@@ 29
9s 29
able@@ 29
active@@ 29
adul@@ 29
aesop 29
aga@@ 29
again 29
air-@@ 29
aller 29
alt 29
anas 29
ange 29
anker 29
appro@@ 29
aquas@@ 29
arm@@ 29
atom 29
attr@@ 29
authorized 29
b1t1 29
ba-@@ 29
bai@@ 29
barebody 29
barely 29
bata 29
birken 29
bobson 29
brande@@ 29
brightest 29
bubblegum 29
bulldog 29
bush@@ 29
busy 29
buzz 29
cables 29
calorie 29
camry 29
caro@@ 29
cas 29
central 29
cerave 29
cere@@ 29
coll@@ 29
colourful 29
counting 29
croco 29
cu 29
cudd@@ 29
cuffs 29
cw@@ 29
d2@@ 29
dale 29
dashing 29
davi@@ 29
ddle 29
decker 29
deodorizer 29
developer 29
diaries 29
digits 29
dinosaurs 29
divine 29
dori@@ 29
doz 29
earloop 29
emboss 29
essie 29
exotic 29
expe@@ 29
exquisite 29
files 29
filipiniana 29
finest 29
finished 29
fl-@@ 29
flip@@ 29
flounce 29
fon@@ 29
found@@ 29
fpv 29
freak 29
freshwater 29
fudge 29
fullface 29
gala@@ 29
galactomyces 29
gate@@ 29
gay 29
gener@@ 29
gigi 29
gina 29
giving 29
gods 29
grizzly 29
groo@@ 29
happywallph 29
hips 29
honor@@ 29
hou@@ 29
human@@ 29
incredible 29
intal 29
iri@@ 29
ites 29
january 29
jelt 29
john@@ 29
joyo 29
k-pop 29
kan 29
kita 29
l-gluta 29
l.o.@@ 29
lamps 29
large@@ 29
latitude 29
layout 29
leak@@ 29
lesportsac 29
lig@@ 29
linda 29
liptints 29
lity 29
livestreaming 29
lys 29
maiden 29
mallows 29
masked 29
mess 29
metal@@ 29
micron 29
milli@@ 29
mist@@ 29
mit 29
mlb 29
modeling 29
mold@@ 29
monte 29
mots 29
mounting 29
mummy 29
mura@@ 29
mutarru 29
n-max 29
naturale 29
naughty 29
nex 29
nova5 29
oscar 29
p8@@ 29
packbag 29
pang@@ 29
pant@@ 29
par 29
plusize 29
pranela 29
pristine 29
q1 29
rays 29
refining 29
rey 29
rid 29
rier 29
rodeo 29
roof 29
sandugo 29
savers 29
secondhand 29
seconds 29
sentra 29
sequ@@ 29
serve 29
seven@@ 29
shabu 29
shane 29
shirly 29
shiro 29
shuta 29
slate 29
slay 29
slogan 29
slr 29
smashing 29
spanish 29
spider@@ 29
spro@@ 29
straw@@ 29
stuff@@ 29
stx 29
superheroes 29
supplements 29
t-back 29
tassels 29
tay@@ 29
teats 29
tery 29
tex@@ 29
tom@@ 29
topps 29
track@@ 29
transfor@@ 29
tress 29
turtles 29
txt 29
ud@@ 29
ug@@ 29
ure@@ 29
urine 29
valiant 29
vam@@ 29
velour 29
vio@@ 29
virtual 29
vu@@ 29
w125 29
watsons 29
whitener 29
write 29
wynn 29
xing 29
xmax 29
y7@@ 29
yummy 29
zb@@ 29
zers 29
-off 28
-x@@ 28
032 28
047 28
053 28
1.2l 28
13.@@ 28
166 28
18mm 28
2.8 28
213@@ 28
218 28
240ml 28
258 28
260gsm 28
28mm 28
2pcs. 28
3310 28
340@@ 28
3b 28
4.0@@ 28
4.2 28
410 28
430 28
45mm 28
5-6@@ 28
5.5@@ 28
50x@@ 28
570 28
609 28
61@@ 28
6l 28
6v 28
7,@@ 28
7-8 28
7inch 28
830 28
98-@@ 28
a20@@ 28
aape@@ 28
acle 28
affor@@ 28
aircraft 28
amon@@ 28
andro@@ 28
anti-dust 28
applique 28
asse@@ 28
atlas 28
atv 28
aukey 28
axis 28
bagoong 28
barbara 28
beachkins 28
beddings 28
beli@@ 28
bennett 28
berg 28
bert 28
blu 28
bnwot 28
bob@@ 28
bonus 28
bras@@ 28
brite 28
brush@@ 28
brushless 28
bury 28
bus@@ 28
cali 28
cavaliers 28
cellular 28
charm@@ 28
checker 28
chekered 28
cherie 28
chok 28
ciss 28
cleanse 28
codpawnable 28
collins 28
commander 28
concrete 28
constellation 28
corrugated 28
coupler 28
craft@@ 28
crafting 28
croc 28
ction@@ 28
d-0@@ 28
d001 28
destash 28
dic 28
dmax 28
doors 28
ebene 28
ecosport 28
eliminator 28
elo 28
ents 28
er. 28
erich 28
ess@@ 28
experia 28
f7@@ 28
faber-castell 28
fallen 28
fashionice 28
fier 28
financial 28
finn 28
five-@@ 28
flair 28
flas@@ 28
follow 28
food@@ 28
four@@ 28
francesca 28
frequency 28
fujitsu 28
ga-110@@ 28
gers 28
ghoul 28
glade 28
glide 28
glo 28
glutagen 28
gra 28
grandia 28
graph 28
gras@@ 28
grit 28
gro 28
hab@@ 28
hak@@ 28
handles 28
hatsune 28
hd-@@ 28
hea 28
held 28
hemp 28
hf 28
high-waisted 28
hugot 28
hui 28
hungry 28
in. 28
insipio 28
int@@ 28
jb@@ 28
jenner 28
jt@@ 28
kao 28
kari 28
kas 28
kath@@ 28
kawhi 28
kf@@ 28
kickstand 28
kies 28
kinder 28
kuro@@ 28
lactation 28
laine 28
led-@@ 28
lemon@@ 28
loft 28
lore 28
lot@@ 28
lucy 28
lunchbag 28
m9 28
m9@@ 28
mang@@ 28
maro@@ 28
maxell 28
mers 28
micari 28
mined 28
moist@@ 28
moisturi@@ 28
month@@ 28
mp-@@ 28
mus 28
nal 28
narrow 28
neem 28
nies 28
nip 28
nn 28
nomad 28
nori 28
nothing 28
october 28
ono 28
orginal 28
oring 28
outfits 28
outside 28
overalls 28
path 28
pay 28
phase 28
phat 28
pil@@ 28
pili 28
pinas 28
plan 28
pld 28
polisher 28
poo@@ 28
popp@@ 28
printable 28
prosperity 28
psvita 28
quin@@ 28
reality 28
rectifier 28
relaxing 28
restocked 28
rn@@ 28
robo@@ 28
role 28
rubber@@ 28
rucksack 28
sabina 28
sal 28
samplers 28
sandal@@ 28
sanji 28
saya 28
scoo@@ 28
scripture 28
sdd@@ 28
seatcover 28
self@@ 28
sensational 28
sense4 28
sense6 28
sheath 28
shf 28
sie@@ 28
singer 28
smock 28
sph@@ 28
splen@@ 28
sportsbra 28
squeaky 28
sses 28
st.@@ 28
stiletto 28
strand@@ 28
super-@@ 28
superbklean 28
symbol 28
tablea 28
tb@@ 28
tension 28
textbook 28
tian 28
time@@ 28
trapal 28
triangular 28
trip 28
tubbies 28
tulip 28
ucc 28
ukelele 28
uses 28
volcom 28
wers 28
wet@@ 28
whiskas 28
wire@@ 28
xe 28
xin 28
xinjia 28
xo@@ 28
xp@@ 28
xtra 28
yakimoto 28
zero@@ 28
zf 28
-06 27
-3xl 27
-41 27
-5 27
054 27
1-12 27
1.25 27
1.36kg 27
1.5kg 27
10kg 27
110ml 27
12-18m 27
125i 27
146 27
150cm 27
150i 27
18months 27
1k 27
2004-@@ 27
2009-@@ 27
2017-18 27
220g 27
230gsm 27
231 27
280ml 27
2x2 27
316l 27
32cm 27
334 27
370@@ 27
411 27
45ml 27
4d-@@ 27
5-pack 27
509 27
512 27
550kl 27
55g 27
5se 27
727 27
7oz 27
8-12 27
80mm 27
90w 27
99.9 27
a-0@@ 27
acc 27
aceking 27
acidic 27
all-inclusive 27
along 27
amin@@ 27
ana@@ 27
anger 27
animated 27
anti-dandruff 27
atin 27
att@@ 27
aves 27
avr 27
bagshop 27
becado 27
bias 27
bieber 27
bikers 27
binding 27
birkin 27
blin@@ 27
blisty 27
bloody 27
boards 27
bobb@@ 27
botani@@ 27
bre 27
breasted 27
bsn 27
bulbs 27
bumgenius 27
cals 27
came@@ 27
camou 27
camp 27
canned 27
capo 27
cardcaptor 27
cate 27
cele@@ 27
centrix 27
chafing 27
chakra 27
chat 27
chick 27
chinkee 27
chua 27
class10 27
cleveland 27
cm-13@@ 27
coas@@ 27
coast 27
cool@@ 27
coq10 27
cora 27
cr 27
creams 27
crimson 27
crop@@ 27
cto@@ 27
custo@@ 27
cz@@ 27
dana 27
deoproce 27
direct@@ 27
directional 27
division 27
dm 27
doggy 27
downlight 27
dress. 27
drift 27
dryfit 27
dumbbell 27
dusk 27
dutche 27
e7@@ 27
ebike 27
eclipse 27
eee 27
eleven 27
elin 27
ellie 27
embroider 27
engrave 27
engraving 27
environmental 27
essences 27
eternal 27
ew@@ 27
examination 27
explosive 27
f18 27
fai@@ 27
falcon 27
fami@@ 27
fantasies 27
faye 27
fect 27
fern-d 27
flags 27
fraiche 27
frontier 27
garanimals 27
geena 27
geo 27
gor 27
greentea 27
hardness 27
heart-shaped 27
hex@@ 27
high-waist 27
hinge 27
hobonichi 27
horror 27
ichiban 27
ii@@ 27
indo@@ 27
infused 27
inje@@ 27
insu@@ 27
ips 27
ital 27
itech 27
jewels 27
kad@@ 27
kandp 27
kendall 27
kenko 27
ket@@ 27
kie@@ 27
kis 27
kyo@@ 27
laurel 27
leen 27
lete 27
line@@ 27
lipp@@ 27
llian 27
locked 27
loloph 27
luke 27
luxxe@@ 27
mable 27
madeca 27
maga@@ 27
malt 27
mamas 27
manufacturer 27
metalic 27
meyer 27
micheal 27
might 27
milk@@ 27
milliliters 27
mini4 27
miso 27
mission 27
mizuno 27
mk5@@ 27
mna 27
monitoring 27
mq@@ 27
muddy 27
multit@@ 27
mustela 27
muster 27
n88 27
nac 27
neca 27
nectar 27
neil 27
niacinamide 27
nib 27
nido 27
nn@@ 27
northface 27
november 27
nutritional 27
olymp@@ 27
one68 27
oo 27
oper@@ 27
ova 27
paramore 27
parfums 27
pashmina 27
paul@@ 27
pcs@@ 27
person@@ 27
pistachi@@ 27
polly 27
polycotton 27
pretty@@ 27
prewalker 27
prize 27
ption 27
ptop 27
quet 27
racks 27
ress 27
restaurant 27
retailer 27
reve 27
rg@@ 27
riverdale 27
roll@@ 27
rong 27
roy@@ 27
ryan 27
s6edge 27
sabo 27
salicylic 27
say@@ 27
scand@@ 27
schi@@ 27
sci@@ 27
shment 27
shoes-@@ 27
shots 27
silverhan 27
single-@@ 27
sisters 27
skippy 27
skt 27
sm. 27
sne@@ 27
sole@@ 27
soleil 27
soul@@ 27
sparco 27
ssions 27
stone@@ 27
stret@@ 27
stripper 27
sunvit- 27
surround 27
sweatshirts 27
t230 27
template 27
tessa 27
they 27
thri@@ 27
tions 27
titans 27
tle@@ 27
tobi 27
tofu 27
treasures 27
trinity 27
trust 27
twisting 27
ufo 27
uhd 27
ured 27
uri 27
uring 27
usborne 27
user 27
vermi@@ 27
violin 27
w10 27
wavy 27
wearing 27
weatherproof 27
weison 27
wholesaler 27
williams 27
y- 27
y5-2 27
yalex 27
ying 27
yor@@ 27
your@@ 27
zai 27
zaku 27
zc520tl 27
zenfone@@ 27
zombie 27
� 27
's@@ 26
,000mah 26
-00 26
0.6 26
0000@@ 26
1-5@@ 26
1.2kg 26
1000rpm 26
100pesos 26
10grams 26
10th 26
12pieces 26
12x12 26
134 26
14.5mm 26
147 26
148 26
14inches 26
163 26
18karat 26
20kg 26
243 26
251 26
275 26
2xl-4xl 26
3-layer 26
318 26
323 26
35cm 26
36pcs 26
40a 26
454g 26
45g 26
4p 26
4ply 26
4s1m 26
4usb 26
507 26
512@@ 26
518 26
6.0 26
604 26
60mm 26
678 26
775@@ 26
8-in-1 26
806 26
820 26
88-@@ 26
8l 26
a5000 26
a7-@@ 26
abby 26
accen@@ 26
activ 26
acupuncture 26
adjustment 26
af1 26
aira 26
aladdin 26
aline 26
alis 26
alizer 26
aller@@ 26
alter@@ 26
ample 26
ance@@ 26
ances 26
ancient 26
anne@@ 26
antho@@ 26
anti-fall 26
anti-wrinkle 26
api 26
ar-@@ 26
arch@@ 26
ascen@@ 26
assor@@ 26
astringent 26
astronaut 26
aud@@ 26
auth. 26
authenti@@ 26
auto-@@ 26
aventurine 26
awa@@ 26
bacterial 26
bag- 26
bakery 26
bare@@ 26
bark 26
beth 26
bj@@ 26
blen@@ 26
bonit@@ 26
booth 26
bore 26
bratz 26
breastpump 26
brera 26
bridesmaid 26
bull@@ 26
buyer 26
c-0@@ 26
cand@@ 26
canmake 26
cardboard 26
cardstock 26
chandelier 26
cheeks 26
cheeky 26
ckles 26
class-a 26
click@@ 26
closure 26
colla@@ 26
coloured 26
confe@@ 26
correcting 26
ct-@@ 26
cting 26
cuticle 26
cyclo@@ 26
d-max 26
d5 26
dalandan 26
dandruff 26
danielle 26
dded 26
decathlon 26
deepcool 26
desi@@ 26
detoxifying 26
dh-@@ 26
digit 26
direction 26
dive 26
dont 26
dowell 26
dra 26
dre 26
drive@@ 26
duck@@ 26
duct 26
dura@@ 26
dust-proof 26
dx@@ 26
ead 26
eb@@ 26
eg 26
emb@@ 26
evi@@ 26
experience 26
fashions 26
fierce 26
fir 26
flexi 26
frankincense 26
fructis 26
fus@@ 26
g6@@ 26
gadgets 26
gardenia 26
garments 26
gary 26
generator 26
germ 26
girbaud 26
girlfriend 26
gis 26
glassware 26
glutat@@ 26
god@@ 26
grammar 26
grande 26
granules 26
greencross 26
gtx@@ 26
guns 26
haze 26
headsets 26
helper 26
hh 26
highlighting 26
highly 26
hip@@ 26
hunt 26
illustrated 26
ilog 26
imagin@@ 26
in1@@ 26
inni@@ 26
inti@@ 26
ive 26
j5@@ 26
jackie 26
jerseys 26
jto 26
julius 26
juniors 26
jurassic 26
kev@@ 26
kevler 26
kigurumi 26
kihno 26
kily.ph 26
kitty@@ 26
knit@@ 26
kts-@@ 26
l300 26
labiotte 26
lac 26
lamin@@ 26
language 26
lasercut 26
leave 26
leon 26
lexing 26
lica 26
licensed 26
lifetime 26
lime@@ 26
lipkit 26
ller 26
lotions 26
loud 26
lowback 26
maru 26
masters 26
maui 26
maxwell 26
mba 26
mcc@@ 26
mcdo 26
megalast 26
melimelo 26
melted 26
mendoza 26
midri@@ 26
misaki 26
mise 26
mitt 26
monaco 26
monte@@ 26
mother@@ 26
motomo 26
mtk 26
murang 26
mxi 26
n5 26
natal 26
nightmare 26
nirvana 26
nord 26
obsidian 26
orocan 26
otterbox 26
overlay 26
p1000 26
pain@@ 26
pantyhose 26
pasalubong 26
pebble 26
pedi@@ 26
percent 26
perfectly 26
perm 26
phonecase 26
pito 26
pixma 26
plain@@ 26
pleats 26
pneumatic 26
pompoms 26
position 26
poten@@ 26
prescription 26
pression 26
pton 26
publi@@ 26
qualit@@ 26
r11s 26
r2 26
rakk 26
rapoo 26
realmex 26
reflex 26
reg 26
rejuven@@ 26
rid@@ 26
ringlight 26
rison 26
road@@ 26
rubi 26
s7562 26
sana 26
scru@@ 26
sdcz@@ 26
sette 26
shoelace 26
shre@@ 26
six@@ 26
skn 26
skybox 26
slip@@ 26
smu@@ 26
snowflakes 26
snowman 26
society 26
sockets 26
soya 26
spray@@ 26
squee@@ 26
standar@@ 26
stea@@ 26
sten 26
stimulator 26
stitching 26
strapped 26
t4k 26
tang 26
tara 26
tca 26
techtrance 26
ter-@@ 26
tering 26
tica 26
tiered 26
tilt 26
tis@@ 26
tl@@ 26
toasted 26
topp@@ 26
touchpad 26
trafaluc 26
travis 26
trek 26
trend@@ 26
tuffgear 26
tweed 26
twine 26
u. 26
ung@@ 26
v5@@ 26
variation 26
vida 26
vince 26
waikiki 26
waltz 26
wf@@ 26
whit 26
wintermelon 26
wires 26
within 26
workpro 26
wreath 26
xin@@ 26
xo-@@ 26
y55s 26
yao 26
yeast 26
yun@@ 26
zealand 26
zhi@@ 26
znb 26
zurc 26
zza 26
ᅵ@@ 26
░ 26
-37@@ 25
-4a 25
-neck 25
-s 25
-white 25
.shop 25
0.3 25
0.7 25
023 25
044 25
070 25
1.5ml 25
10.2 25
1002 25
1004 25
1050@@ 25
10inch 25
11.5 25
11g 25
154 25
1970 25
1meter 25
1mp 25
2.4@@ 25
200pcs 25
2016-2020 25
214 25
217 25
230ml 25
236@@ 25
24months 25
256@@ 25
2600mah 25
288 25
322 25
375 25
3pcs. 25
4000mah 25
410@@ 25
428 25
5.8 25
500pcs 25
503 25
55mm 25
58mm 25
6-12mos 25
660@@ 25
666 25
6i 25
760@@ 25
8x11 25
9000mah 25
a11 25
abbott 25
activities 25
ae-@@ 25
aged 25
akk7@@ 25
alized 25
alone 25
already 25
amar@@ 25
amaz@@ 25
ampo@@ 25
andriod 25
annual 25
arcade 25
assemble 25
aster 25
asy 25
b12 25
background 25
bacteria 25
bathtub 25
beeswax 25
beryl 25
bi-fold 25
bies 25
bikes 25
billie 25
bioline 25
bl-5@@ 25
blade@@ 25
blooms 25
bly@@ 25
bobs 25
breathe 25
broom 25
buffing 25
buldak 25
c-3@@ 25
c7 25
capac@@ 25
capiz 25
carryall 25
carved 25
cateye 25
cello 25
ceramide 25
certificate 25
chains 25
chargers 25
child@@ 25
chlorine 25
chocker 25
christ 25
cin 25
cinnamoroll 25
clai@@ 25
cog@@ 25
cology 25
colorstay 25
columbia 25
content 25
convenient 25
corps 25
cracker 25
cry 25
ctors 25
cu.ft. 25
cx 25
cycles 25
d-1@@ 25
dallas 25
darci 25
davao 25
deadly 25
deformation 25
dered 25
dess@@ 25
dex@@ 25
difference 25
dish@@ 25
dito 25
dp-@@ 25
dur@@ 25
earbud 25
eczema 25
ed-@@ 25
edens 25
ellen 25
elo@@ 25
embellished 25
engineer 25
equalizer 25
europe 25
every@@ 25
f5youth 25
fansite 25
ffy 25
fisher@@ 25
flared 25
floral@@ 25
flux 25
focallure 25
fortified 25
fren@@ 25
funnel 25
ga110@@ 25
gel-cream 25
geometry 25
ghter 25
gif@@ 25
given 25
gj@@ 25
gk@@ 25
glutamax 25
goodnight 25
graco 25
graduation 25
grat@@ 25
guar@@ 25
gunpla 25
gw 25
handsoap 25
hao@@ 25
heartstrings 25
heimish 25
hele@@ 25
hie 25
hig@@ 25
hit 25
hob@@ 25
holding 25
hone 25
houseware 25
hoy 25
hurley 25
hz 25
i5-@@ 25
ichi@@ 25
illu@@ 25
illuminated 25
imari 25
invictus 25
iphonexs 25
ire 25
ise 25
iso 25
iwhite 25
j7plus 25
jan 25
jill 25
jing@@ 25
jomalone 25
jour@@ 25
jovan 25
k.o 25
kapote 25
kathy 25
kaye 25
koji@@ 25
kut@@ 25
la-@@ 25
lah 25
laughing 25
lazypod 25
lc150 25
leak 25
leapfrog 25
legion 25
lev3 25
lexington 25
litre 25
lk@@ 25
looks 25
lq 25
luci@@ 25
lure 25
lx 25
lx-@@ 25
lychee 25
mall@@ 25
manifold 25
masquerade 25
mct 25
megap@@ 25
meme 25
micro-@@ 25
milkshake 25
ming@@ 25
miniatures 25
mirrorless 25
mmi@@ 25
moo@@ 25
mor 25
n3 25
nail@@ 25
names 25
napkins 25
neocell 25
neogen 25
nickel 25
no6 25
o-neck 25
o-ring 25
ohm 25
ola@@ 25
onwards 25
organizers 25
oxidant 25
pab@@ 25
papa 25
papas 25
parent 25
parti@@ 25
peach@@ 25
pere@@ 25
perfector 25
pg-90@@ 25
philipp@@ 25
photopaper 25
pirates 25
planter 25
polvoron 25
prone 25
ps-@@ 25
puller 25
rad@@ 25
rape 25
relic 25
rence 25
repackage 25
replace 25
review 25
richard 25
rightpack 25
rihanna 25
rockstud 25
rotatable 25
roth 25
row@@ 25
rugs 25
rule 25
sai 25
sasha 25
scalar 25
scars 25
scrapbooking 25
sensation 25
serena 25
shinee 25
shun 25
sic 25
sio 25
siopao 25
sletic 25
slingback 25
smacker 25
snakeskin 25
soybean 25
spec@@ 25
spld 25
ssion 25
ssive 25
starfish 25
starting 25
string@@ 25
sugardolls 25
sumsung 25
supergirl 25
swag 25
sx 25
t4@@ 25
tanktop 25
tanya 25
tapered 25
tbc 25
td@@ 25
tea@@ 25
terminator 25
thayers 25
theraphy 25
thigh 25
third 25
thrasher 25
tig 25
tnx 25
toni 25
tracking 25
trekking 25
tric 25
trin@@ 25
trumpet 25
truth 25
u.s.a 25
umb@@ 25
until 25
upper@@ 25
urvan 25
v. 25
v4 25
vacation 25
vegeta 25
velvety 25
vu 25
w7 25
wahl 25
wanted 25
wily 25
wok 25
wpf 25
wq@@ 25
wri@@ 25
xl-2xl 25
y6-2018 25
yin@@ 25
yopokki 25
ysp 25
yz@@ 25
zest 25
zoeva 25
zooey 25
zx 25
ᄉ@@ 25
ᅡ@@ 25
● 25
＃ 25
-45 24
-j@@ 24
-l@@ 24
........... 24
0-12 24
004@@ 24
021 24
042 24
10-12 24
1015 24
10yrs 24
11x@@ 24
13pcs 24
15m 24
177 24
181 24
183 24
1960 24
2000mah 24
20sheets 24
2200 24
259 24
285 24
2y 24
316@@ 24
336 24
338 24
370 24
3in1@@ 24
3inch 24
3layer 24
3yrs 24
4,@@ 24
4-8 24
4.74a 24
551 24
580@@ 24
5inches 24
5v@@ 24
6-1 24
708 24
70mm 24
75mm 24
790@@ 24
80x@@ 24
823@@ 24
910 24
910@@ 24
959 24
a9-@@ 24
abdominal 24
actor 24
adore 24
ageless 24
aichun 24
alite 24
alluring 24
alphaland 24
alta 24
am4 24
andre 24
anti-lost 24
apple@@ 24
aprilskin 24
aqua@@ 24
artistry 24
aven@@ 24
b1@@ 24
bab 24
babyboy 24
babygirl 24
bao@@ 24
batch@@ 24
bber 24
bc175 24
benz 24
bes 24
bga-@@ 24
bi-@@ 24
birken@@ 24
bnc 24
boa 24
boardshorts 24
boned 24
bounty 24
brazillian 24
breathing 24
broad 24
bs-@@ 24
builder 24
bundled 24
bx@@ 24
cache 24
calendula 24
cancelling 24
cancer 24
caplets 24
caterpillar 24
cca 24
cellowax 24
chen@@ 24
chinos 24
circles 24
cjve 24
cod12pieces 24
codnew 24
compressed 24
cond 24
condor 24
cooky 24
corsair 24
cracked 24
crist@@ 24
cto 24
cv@@ 24
d5@@ 24
daks 24
dashiki 24
definer 24
demi 24
dentist 24
descendants 24
detailed 24
dew@@ 24
dhendhenshop 24
dilis 24
dirt 24
discover 24
doterra 24
dres 24
driven 24
drop@@ 24
e- 24
elisse 24
especial 24
etes 24
exia 24
extras 24
eyebrows 24
f7youth 24
fading 24
fasion 24
feline 24
fern@@ 24
fiberglass 24
flavoring 24
fred 24
frogsuits 24
g9@@ 24
gao 24
gel-@@ 24
genesis 24
genius 24
gic 24
gos 24
grs 24
guc 24
gugo 24
gym@@ 24
gyro 24
h1 24
hachi 24
had@@ 24
hana 24
hawaii 24
hexagonal 24
hey 24
hou 24
hq@@ 24
hu 24
hughes 24
hunger 24
hurricane 24
ier 24
inda 24
ined 24
injection 24
inks 24
intro 24
ist 24
jagthug 24
jap@@ 24
jart 24
jenga 24
jergens 24
jetflash 24
jh-@@ 24
jord@@ 24
julie 24
kawa 24
klean 24
knapsack 24
kojie 24
korean-style 24
kyt 24
ladies@@ 24
laid 24
lana 24
lao 24
latch 24
lax 24
leap 24
leds 24
leur 24
lev@@ 24
lian 24
lings 24
lington 24
lipz 24
liter@@ 24
lling 24
luckycharm 24
ma-fra 24
macar@@ 24
maggie 24
mak@@ 24
margaret 24
marri@@ 24
matthe@@ 24
maybeline 24
mcfarlane 24
members 24
merrysun 24
metallica 24
meteor 24
mexican 24
miami 24
mies 24
mile 24
milleni@@ 24
minidress 24
molds 24
molten 24
momma 24
mond 24
monomola 24
montessori 24
motif 24
moulded 24
msa 24
mulberry 24
muslin 24
mv@@ 24
narciso 24
narnia 24
need@@ 24
nik 24
novel@@ 24
np300 24
numerals 24
nvidia 24
oak 24
offwhite 24
oliver 24
opaque 24
opi 24
organ 24
ort@@ 24
osaki 24
ost 24
outs 24
oyster 24
packet 24
packets 24
palazzo 24
pallet 24
pastillas 24
peas 24
pellet 24
pendant@@ 24
pepero 24
petron 24
phoebe 24
phon 24
pictures 24
plac 24
plus.@@ 24
plushies 24
pm2.5 24
poo 24
porsche 24
prai@@ 24
preppy 24
preschool 24
procare 24
pulu@@ 24
pusheen 24
pussy 24
px@@ 24
py 24
qoute 24
qual@@ 24
quelch 24
quen@@ 24
quicksilver 24
r001 24
raptor 24
raven@@ 24
reel 24
riz@@ 24
rty 24
rubb@@ 24
rubbing 24
sanchez 24
sanicare 24
saurus 24
scorpio 24
script 24
sei 24
serpentina 24
sharpie 24
shatterproof 24
shinny 24
shippuden 24
shirataki 24
showa 24
sign@@ 24
slip-@@ 24
slipon 24
sliver 24
smash@@ 24
smoked 24
snowy 24
soo 24
soprano 24
sorting 24
sory 24
spd 24
sphere 24
squash 24
squir@@ 24
ssss@@ 24
stimul@@ 24
strai@@ 24
stur@@ 24
subaru 24
sulfate 24
sv@@ 24
t7@@ 24
tally 24
taro 24
tatcha 24
tears 24
thir@@ 24
threaded 24
tired 24
to0.@@ 24
tolda 24
tot 24
tourmaline 24
trucks 24
tte 24
turbans 24
tyshop 24
unbreakable 24
unique@@ 24
urt 24
us10k 24
v11@@ 24
v380 24
valentus 24
vation 24
velve@@ 24
victor 24
vie@@ 24
w. 24
wade 24
weeks 24
whirlpool 24
wicked 24
workbooks 24
wrist@@ 24
wx@@ 24
xia 24
xlarge 24
xlr 24
yar@@ 24
yna 24
young@@ 24
ypad 24
yurry 24
zc553kl 24
zhi 24
zipback 24
♚ 24
'beau 23
'issey 23
'l 23
'style 23
'z 23
-inspired 23
-proof 23
0.8@@ 23
0002 23
029 23
040 23
045 23
046 23
060 23
1-4@@ 23
1.2to@@ 23
1.6kg 23
10,@@ 23
1080@@ 23
10mx45cm 23
1150 23
11pcs 23
12.9 23
130ml 23
158@@ 23
18ksaudigoldpawnable@@ 23
198 23
1987 23
19cm 23
1color 23
1inch 23
1yr 23
2-layer 23
2.5kg 23
2014-2018 23
2019@@ 23
238 23
250v 23
272 23
2ft 23
3-6months 23
3-6mos 23
3-pc 23
305@@ 23
311 23
354ml 23
36cm 23
3inches 23
3meters 23
40-45 23
430@@ 23
4ch 23
4in 23
4m 23
4pcs. 23
50l 23
532ml 23
556 23
5n1 23
5xl 23
6-7@@ 23
6-8 23
600g 23
611 23
621 23
670@@ 23
6inches 23
6w 23
6y 23
704 23
711 23
7w 23
850g 23
881 23
911 23
950@@ 23
9l 23
a15@@ 23
a1k 23
a6000 23
abonne 23
accord 23
aches 23
aci@@ 23
aku 23
alangan 23
albom 23
alcoplus 23
aly 23
alyn 23
am-@@ 23
ampalaya 23
anastacia 23
anatomy 23
angelica 23
angled 23
anti- 23
antonio 23
arch 23
archer 23
aries 23
aroma@@ 23
arthur 23
assi@@ 23
asy@@ 23
audi 23
avai@@ 23
aways 23
b.b 23
babyland 23
badia 23
bandi@@ 23
barbeque 23
barrier 23
beep 23
bluehouse 23
blur@@ 23
boba 23
bodywash 23
bonet 23
bookshelf 23
boysen 23
boyz 23
branch 23
bread@@ 23
breath@@ 23
brighten 23
broadway 23
buckles 23
c- 23
cana 23
carbo@@ 23
carrie 23
cartridges 23
catholic 23
cause 23
cedarwood 23
celestial 23
chateau 23
cheaper 23
chry@@ 23
cinema 23
cka 23
ckets 23
ckie 23
cling 23
cloths 23
cm-11@@ 23
coffe 23
cole@@ 23
comp 23
conve@@ 23
cor 23
cose 23
cove 23
crafted 23
crossgrain 23
crossover 23
crypton 23
ctable 23
dare 23
dbz 23
ddr5 23
de-@@ 23
deodorizing 23
detailing 23
dianne 23
dipper 23
dis 23
discovery 23
dota2 23
ds-2ce@@ 23
easysoft 23
elise 23
embelli@@ 23
energi@@ 23
eqt 23
eras@@ 23
eyel@@ 23
f2 23
factorie 23
february 23
ff353 23
fg@@ 23
fiber@@ 23
fjallraven 23
flowery 23
forehead 23
fort 23
four-@@ 23
fra 23
frameless 23
fsl 23
ft-@@ 23
g- 23
gb-@@ 23
gdplus 23
gemini 23
gery 23
gil 23
gillette 23
glass11 23
glutha 23
gma 23
goya 23
granola 23
halogen 23
handsome 23
hearing 23
hee 23
here@@ 23
heroine 23
hippo 23
hipseat 23
honesty 23
hua 23
huggable 23
hur@@ 23
hygi@@ 23
i7-@@ 23
ics 23
improved 23
inch@@ 23
insole 23
instruments 23
ip65 23
iphone5g 23
iphonexsmax 23
isol@@ 23
itas 23
j4@@ 23
jabra 23
janet 23
jas@@ 23
jaw 23
jf@@ 23
jig 23
joyce 23
ju-ju-be 23
kala@@ 23
kape 23
katty 23
kidz 23
kissed 23
knock 23
koreanfashion 23
kts-10@@ 23
kus@@ 23
laila 23
laptops 23
lavatory 23
leche 23
light-@@ 23
lighten@@ 23
liv 23
livestream 23
loaded 23
logical 23
lp-e@@ 23
lumbar 23
lumia 23
m3.0 23
machines 23
mailtank 23
mane 23
masturbation 23
mati@@ 23
mau@@ 23
mbled 23
mechanism 23
megan 23
melan@@ 23
metrosunnies 23
microwaveable 23
mijia 23
milan 23
milestone 23
milka 23
mitchell 23
mng 23
modified 23
molly 23
mont@@ 23
mothers 23
mulan 23
multimeter 23
nac@@ 23
name@@ 23
nata 23
natura@@ 23
naturally 23
nau@@ 23
navarros 23
negosyo 23
nesoberi 23
nipper 23
nix 23
np 23
nuskin 23
oasis 23
off-white 23
omo 23
ong@@ 23
onlineshop 23
option 23
osh 23
oster 23
outfitters 23
p10@@ 23
p3 23
p500 23
pacifi@@ 23
palo@@ 23
pand@@ 23
paras@@ 23
parfois 23
patricia 23
pel@@ 23
pered 23
pf@@ 23
phonics 23
pleat 23
pout 23
powerpuff 23
preci@@ 23
profession@@ 23
promil 23
protectant 23
pss 23
ptor 23
punching 23
pus@@ 23
pyrex 23
pyunkang 23
q6 23
ql 23
qq@@ 23
quote 23
r6 23
radeon 23
raider@@ 23
randomly 23
rc-@@ 23
rei 23
reser@@ 23
retur@@ 23
ricci 23
rmk 23
rodriguez 23
roronoa 23
russe 23
sacred 23
saf@@ 23
sap@@ 23
sardines 23
sep 23
set- 23
shap@@ 23
shepherd 23
shovel 23
shuya 23
signs 23
simp@@ 23
skye 23
skywalker 23
snaps 23
sorry 23
spagetti 23
spareparts 23
spea@@ 23
starts 23
sticker@@ 23
stitched 23
strontium 23
struc@@ 23
struck 23
sue 23
sulit 23
suspen@@ 23
sv 23
sweeper 23
swipe 23
t285 23
t2@@ 23
t8 23
taehyung 23
talc 23
tamarind 23
tax@@ 23
tcg 23
temper 23
testers 23
the-@@ 23
thongs 23
threads 23
thug 23
tneck 23
tol@@ 23
tones 23
topic 23
trident 23
trolly 23
ttes 23
turkey 23
twinings 23
twister 23
twotone 23
uch 23
ulti@@ 23
ultima 23
ultron 23
using 23
v11pro 23
vagina 23
vap@@ 23
vca 23
vis@@ 23
vit. 23
vol.2 23
voyager 23
vs1 23
wai@@ 23
wallet@@ 23
wbb@@ 23
wed@@ 23
wel 23
wilton 23
world@@ 23
wx 23
xc@@ 23
xe@@ 23
xf@@ 23
xp 23
xunod 23
y52 23
yaoi 23
zc520kl 23
zippy 23
zl@@ 23
zon@@ 23
ｏ@@ 23
'fashion 22
've 22
-010 22
-09 22
-11@@ 22
-28@@ 22
-size 22
-y@@ 22
............ 22
043 22
1-15 22
1-2yrs 22
1.5hp 22
1000mm 22
110l 22
115@@ 22
12-18mos 22
12pcs. 22
13.5 22
15w@@ 22
1996-@@ 22
1lb 22
1pairs 22
2-3t 22
2-6 22
2002-@@ 22
2016-@@ 22
210-@@ 22
226 22
22mm 22
24-29 22
240g 22
25x@@ 22
262 22
269 22
300m 22
315 22
317 22
3200 22
324 22
325@@ 22
33-@@ 22
34a 22
36-@@ 22
368 22
38cm 22
3ab 22
3colors 22
4.5@@ 22
4000 22
404 22
40s 22
499 22
4tb 22
4u 22
5.5mm 22
510@@ 22
52-@@ 22
5ft 22
5gs 22
5meters 22
5mp 22
6-9m 22
60caps 22
610@@ 22
613 22
640@@ 22
6led 22
6mg 22
6pcs. 22
70x@@ 22
800w 22
80mb 22
80pcs 22
819@@ 22
922 22
955 22
aces 22
acy 22
airs 22
alliance 22
alto 22
amazonian 22
amway 22
ander@@ 22
anni@@ 22
another 22
aplus 22
arma@@ 22
arrive 22
assas@@ 22
ateneo 22
aunthentic 22
auth@@ 22
author 22
avery 22
backlit 22
baekhyun 22
bap 22
basahan 22
base@@ 22
bing 22
blended 22
blink 22
blit@@ 22
blitz 22
bloo@@ 22
blues 22
bok 22
bosca 22
brazil 22
brooke 22
bros 22
bvq 22
c11p@@ 22
c6@@ 22
c8 22
c9@@ 22
caged 22
carbon@@ 22
case-@@ 22
cavity 22
centrum 22
champions 22
chemica 22
cherry@@ 22
cheska 22
choo 22
chroma 22
chu 22
cko 22
clare 22
clin@@ 22
clinical 22
cocos 22
cold@@ 22
coleen 22
composition 22
condura 22
cosmix 22
crewneck 22
cuir 22
current 22
cyber 22
day-@@ 22
daypack 22
dbs 22
dddd@@ 22
dea 22
december 22
dedic@@ 22
deflector 22
dette 22
development 22
die-cast 22
dion 22
doh 22
dok 22
doremi 22
drool 22
dub 22
dummy 22
duncan 22
earpick 22
ecotools 22
edc 22
eled 22
elena 22
ely@@ 22
enchan@@ 22
eries 22
essensa 22
everlasting 22
f-0@@ 22
fairness 22
fh@@ 22
fifth 22
finds 22
flagship 22
flashcards 22
flavour 22
fleshlight 22
flipcover 22
fn@@ 22
francisco 22
franco 22
freya 22
fty 22
g5@@ 22
gail 22
gashapon 22
gest 22
ggie 22
ggies 22
ghten@@ 22
git@@ 22
gladking 22
glazed 22
gthening 22
gutter 22
hailey 22
hairpins 22
hams 22
hed@@ 22
hematite 22
hers 22
high-grade 22
hjc 22
hn@@ 22
homes 22
howlite 22
huenicorn 22
hw@@ 22
hypoallergeni@@ 22
i-tech 22
ic@@ 22
iler 22
illumin@@ 22
illustration 22
ilo@@ 22
inary 22
ip11 22
ipad2 22
irdy 22
iverson 22
jani@@ 22
jarrow 22
jg@@ 22
jkysd 22
joan 22
jon 22
juiced 22
kane@@ 22
kapeng 22
karl 22
kaw 22
keroppi 22
kills 22
kinetic 22
kirei 22
kneepads 22
kou 22
kristine 22
kuji 22
l22 22
lace@@ 22
lactum 22
ladle 22
lalaloopsy 22
languages 22
lanolin 22
lipliner 22
lockset 22
longsleev@@ 22
longsleve 22
longwear 22
lots 22
lumi 22
luxurious 22
lyla 22
lyra 22
m.2 22
m7@@ 22
maggi 22
magnus 22
mai 22
mandy 22
mang 22
manipis 22
marshall 22
mation 22
maxxis 22
mefapo 22
meisons 22
mercury 22
mic@@ 22
mica 22
miguel 22
milanos 22
millenni@@ 22
milwaukee 22
mimosa 22
miner@@ 22
miya 22
mk6@@ 22
moby 22
moccas@@ 22
mort@@ 22
moun@@ 22
mountaineering 22
mu-x 22
mumu 22
naked3 22
nath@@ 22
nel@@ 22
nestea 22
nickelodeon 22
niv 22
noel 22
nrb 22
nuk 22
nutshell 22
officewear 22
ome@@ 22
on-ear 22
ora@@ 22
ordin@@ 22
orico 22
oy 22
panyo 22
parade 22
patchwork 22
pea@@ 22
pebbles 22
pedi 22
pediasure 22
petroleum 22
picanto 22
planters 22
pocket@@ 22
pooch 22
porefessional 22
portal 22
powerline 22
pray 22
presi@@ 22
pretzel 22
profile 22
promag 22
proven 22
pucca 22
puree 22
purr 22
quality. 22
rach@@ 22
rack@@ 22
radial 22
rae 22
rav@@ 22
really 22
recon 22
reducing 22
repelling 22
res@@ 22
research 22
revit@@ 22
rhino 22
ritual 22
rivets 22
rk 22
rxk 22
s530 22
saemmul 22
saliva 22
sassa 22
saugwunder 22
savage 22
saw@@ 22
sc-@@ 22
scal@@ 22
scro@@ 22
scrubsuit 22
scrunchie 22
sennheiser 22
seren@@ 22
sharing 22
shiel@@ 22
shit 22
sidemirror 22
sigma 22
sinu@@ 22
sissy 22
skyline 22
sle 22
snailwhite 22
snsd 22
soulty 22
spam 22
spellbinders 22
squares 22
stal@@ 22
starch 22
starlight 22
store@@ 22
stripe@@ 22
styled 22
sure@@ 22
swap 22
sweaters 22
t350 22
tabletop 22
takoyaki 22
tali@@ 22
teach 22
tear@@ 22
than@@ 22
tinapa 22
toha 22
tomorrow 22
toni@@ 22
transceiver 22
tre 22
trenchcoat 22
ttl 22
tty 22
tucson 22
turner 22
ulta 22
umi 22
usa-@@ 22
usb2.0 22
uso 22
uy 22
vaio 22
vels 22
vert 22
vgod 22
victorian 22
vill@@ 22
vise 22
vita@@ 22
vn 22
von@@ 22
vw 22
w00@@ 22
waist@@ 22
wallsticker 22
walnut 22
warfare 22
wear-@@ 22
wed 22
wg 22
wgw 22
who@@ 22
william 22
windmill 22
worship 22
wrapping 22
yaki 22
yonex 22
yson 22
yss. 22
yuki 22
¦ 22
♛ 22
𝐚@@ 22
--- 21
-00@@ 21
-012 21
-08 21
-12 21
-d@@ 21
0.50 21
0.75 21
031 21
035 21
059 21
1-3yrs 21
1006 21
12pc 21
1300@@ 21
14g 21
14oz 21
18000mah 21
1816 21
185@@ 21
1pck 21
2- 21
2-5@@ 21
2-ply 21
2.1@@ 21
2.3@@ 21
2.5d 21
2016-17 21
2016-2018 21
20180@@ 21
210g 21
21cm 21
260ml 21
27.5 21
28-36 21
283 21
292 21
2pillowcase 21
2xl@@ 21
3-6@@ 21
3-7 21
3.25a 21
3000mah 21
316 21
3for@@ 21
4.4a 21
4y 21
5208 21
550ml 21
578@@ 21
612 21
620@@ 21
625 21
65w 21
662 21
675@@ 21
6color 21
6usb 21
706 21
725 21
7l 21
8000mah 21
804 21
811 21
828 21
828@@ 21
9.00 21
91@@ 21
920@@ 21
955@@ 21
960@@ 21
9yrs 21
a21 21
a50@@ 21
ability 21
absolu@@ 21
abundant 21
agua 21
airdots 21
ali-l@@ 21
almay 21
alternative 21
amelia 21
andi 21
anytek 21
aphrodite 21
appetite 21
argen@@ 21
aro 21
aryana 21
assn 21
assn. 21
aus@@ 21
authenthic 21
axel 21
bag.@@ 21
bago 21
bam 21
battle@@ 21
bc-@@ 21
benefits 21
bergamot 21
beta 21
bf-@@ 21
bluetooh 21
blv 21
bobble 21
bootleg 21
boracay 21
borrowed 21
bottega 21
bourbon 21
boya 21
bp-@@ 21
bragg 21
breaking 21
brey@@ 21
bring 21
buyers 21
cah 21
camu 21
captoe 21
cf-@@ 21
charg@@ 21
cheer@@ 21
chelle 21
chest@@ 21
chicc 21
chocol@@ 21
chord 21
city@@ 21
cke@@ 21
clam@@ 21
clamps 21
clit@@ 21
colander 21
colon 21
color-@@ 21
colorblock 21
continuous 21
cop@@ 21
corre@@ 21
couple@@ 21
covid 21
craf@@ 21
craze 21
cricut 21
crinkles 21
crun@@ 21
customi@@ 21
customizable 21
cx-@@ 21
cynthia 21
dai 21
defying 21
dence 21
deo@@ 21
did 21
dishwasher 21
dobe 21
doms 21
doo 21
drums 21
dunhill 21
dupe 21
dusty 21
dwarf 21
eliquid 21
en-el@@ 21
enhancement 21
enhancing 21
entertainment 21
enti@@ 21
enza 21
epsom 21
erasers 21
esti@@ 21
evangelion 21
event 21
expander 21
extra@@ 21
extracts 21
eyelid 21
f4@@ 21
fahrenheit 21
fajardo 21
fbt01@@ 21
feel@@ 21
fifa 21
filtration 21
fini@@ 21
fjs 21
fliptop 21
flutter 21
foreign 21
fortnite 21
fowl 21
fp-@@ 21
frida 21
fury125 21
fx-@@ 21
ganoderma 21
gem@@ 21
genevieve 21
glamorous 21
glas 21
gle@@ 21
gn-@@ 21
goals 21
gordon 21
grommet 21
gs-@@ 21
gt-r 21
gwen 21
gypsy 21
hairbrush 21
hauling 21
headpiece 21
heal@@ 21
hearty 21
highend 21
hippie 21
house@@ 21
hugger 21
hul@@ 21
hundred 21
hypo 21
i11 21
in1set 21
inche@@ 21
includes 21
infin@@ 21
ington 21
intermediate 21
invicta 21
iphone5s 21
iphone8 21
iron-@@ 21
ish 21
iting 21
jaclyn 21
jul@@ 21
juniper 21
juvia 21
jz 21
k9 21
kaidon 21
kak@@ 21
kalimba 21
kang@@ 21
kappa 21
kata 21
katie 21
kilo@@ 21
klay 21
kneepad 21
kosh 21
laboratory 21
ladybug 21
lak@@ 21
landscape 21
launcher 21
lazuli 21
lear@@ 21
leath@@ 21
liberty 21
licious 21
lighted 21
lind@@ 21
lipstain 21
lipstick@@ 21
llies 21
loading 21
locally 21
lons 21
lows 21
ltd 21
mah@@ 21
mahogany 21
makoto 21
masque 21
mattifying 21
mcdodo 21
measurement 21
meiya 21
metis 21
microtex 21
mirro@@ 21
mitsu@@ 21
mk-@@ 21
mm-@@ 21
mma@@ 21
modes 21
moi@@ 21
mongol 21
moonstone 21
morgan 21
morocco 21
mos. 21
moyou 21
mush@@ 21
nag@@ 21
namu 21
nec 21
neg@@ 21
nen@@ 21
nerdy 21
newly 21
nightdress 21
ning@@ 21
nized 21
noble 21
non-tarnish 21
nor 21
nora 21
note7 21
nova2 21
nuit 21
nx@@ 21
ode 21
oil-free 21
ole@@ 21
oled 21
omega-3 21
ony 21
ore@@ 21
orthodontic 21
otto 21
ovo 21
p30@@ 21
pagoda 21
pai 21
painless 21
pastels 21
pcie 21
peppapig 21
ph-@@ 21
pinwheel 21
pinx 21
pix 21
plug-@@ 21
plunging 21
pre- 21
pre-love 21
princesses 21
purses 21
pyary 21
q8 21
qiyi 21
qqq 21
qua@@ 21
rab@@ 21
radical 21
raion 21
reggae 21
reindeer 21
reliever 21
remember 21
resun 21
rhea 21
rhian 21
rio@@ 21
rita 21
rizal 21
roots 21
rtec 21
rtx 21
rue 21
ruth 21
s1pro 21
saki 21
scan 21
scs 21
sean@@ 21
secon@@ 21
seedling 21
sekushi 21
sellers 21
semilarge 21
seuss 21
shallow 21
shantahl 21
shei@@ 21
shen@@ 21
shiba 21
shie 21
shoebox 21
shu 21
sight 21
silka 21
size-@@ 21
sl-@@ 21
slam@@ 21
sleepsuit 21
sma@@ 21
smocking 21
snorkeling 21
soho 21
solemate 21
som 21
souls 21
soundbar 21
spac@@ 21
spain 21
spiced 21
spots 21
spring@@ 21
sprinkles 21
standees 21
stel@@ 21
steri@@ 21
sthe@@ 21
stich 21
stop@@ 21
street@@ 21
superb 21
superdry 21
suyod 21
sweatpants 21
swoosh 21
t-shirt@@ 21
taclight 21
taco 21
tart 21
tastic 21
tend 21
tequila 21
tes@@ 21
th-@@ 21
tha 21
theobroma 21
thickness 21
tigger 21
tik 21
tote@@ 21
totu 21
traffic 21
transdermal 21
tube@@ 21
tun@@ 21
tures 21
tx@@ 21
ultraviolet 21
underpants 21
urinal 21
ury 21
valerie 21
vapor@@ 21
vate 21
vct-@@ 21
vden 21
vette 21
viper 21
vmi 21
volumizing 21
voyage 21
wal 21
wallpapers 21
web@@ 21
whitelight 21
whiten@@ 21
wide-@@ 21
wt@@ 21
xipin 21
xylophone 21
yak@@ 21
yama 21
year@@ 21
yk 21
ylene 21
ys-@@ 21
yuan 21
zaine 21
zenutrients 21
ᅳ@@ 21
𝐀@@ 21
-250 20
-35@@ 20
-x 20
.3 20
.luckycharm 20
0-3months 20
0-6m 20
0.25 20
006@@ 20
027 20
038 20
050@@ 20
1.0hp 20
100php 20
101@@ 20
10t 20
120l 20
175g 20
17mm 20
1800@@ 20
1892 20
194 20
197 20
1975 20
2-3yo 20
2-3yrs 20
2-8yrs 20
2.25 20
2.5l 20
2014-2019 20
21g 20
227g 20
238@@ 20
239 20
241 20
24hr 20
253 20
2color 20
2kl 20
2n@@ 20
3-12 20
310mm 20
312 20
324@@ 20
32a 20
332 20
337 20
345 20
36,@@ 20
36mm 20
38b 20
4-7 20
400mg 20
425g 20
4in1@@ 20
5.0@@ 20
540 20
540@@ 20
562 20
5k 20
5pcs. 20
6-11 20
6-12m 20
626 20
628 20
664 20
685 20
6colors 20
6months 20
6pcs-@@ 20
6yrs 20
7days 20
7m 20
880 20
8v 20
9005 20
9months 20
a16@@ 20
a7000 20
aal 20
abacus 20
absor@@ 20
acey 20
ackle 20
act@@ 20
activator 20
adhesi@@ 20
adium 20
ads 20
adven@@ 20
ahi@@ 20
aida 20
aio 20
airbed 20
ais 20
aking 20
alcogel 20
alexander 20
ally@@ 20
alo 20
althea 20
amara 20
amatte 20
andra 20
angelfashion 20
ank 20
ano@@ 20
aozi 20
appa@@ 20
ark 20
asher 20
aste 20
asu@@ 20
athered 20
ato@@ 20
baby-@@ 20
baellerry 20
balan@@ 20
bam@@ 20
banig 20
bart 20
bbs 20
bca 20
beasts 20
beautika 20
bebeta 20
beginning 20
bia 20
bijin 20
bills 20
bitter 20
bj-@@ 20
blkshp 20
blocking 20
blos 20
blotted 20
bobby 20
bonakid 20
bongbong 20
boombox 20
bottons 20
bral@@ 20
brand-new 20
brassi@@ 20
broo@@ 20
bub@@ 20
bukid 20
caite 20
calf 20
candie 20
canter 20
cardam 20
cardinal 20
cares 20
carizma 20
cbr@@ 20
centellian 20
cfv 20
chalkboard 20
chameleon 20
chanyeol 20
chargeable 20
checked 20
cheetah 20
chemistry 20
chico 20
chief 20
church 20
cious 20
citron 20
clothesline 20
cm-4@@ 20
cobalt 20
cockroach 20
cod- 20
coi@@ 20
colle 20
colorfull 20
come@@ 20
companion 20
component 20
concepts 20
condiments 20
confidence 20
controlled 20
convention 20
correct 20
cotta 20
cow@@ 20
crisps 20
cristina 20
cue 20
cultivera.agri 20
cultured 20
curity 20
dame 20
dant 20
dasdas@@ 20
daw@@ 20
dc-@@ 20
deadbolt 20
dean 20
defining 20
dennis 20
depi@@ 20
dere@@ 20
desgin 20
deskjet 20
diane 20
diff@@ 20
dimm 20
dip@@ 20
dolph@@ 20
dreamy 20
dz09 20
earcuff 20
eauty 20
effici@@ 20
eggplant 20
eilish 20
elly 20
ene@@ 20
enie 20
eno@@ 20
ensure 20
enthusiast 20
epi 20
epilator 20
even 20
expanding 20
f2@@ 20
feast 20
felicity 20
filament 20
finding 20
flatsandals 20
flavo@@ 20
flaw@@ 20
foe 20
foiled 20
footmask 20
for.@@ 20
forks 20
forte 20
frame@@ 20
free-size 20
fting 20
fucos 20
funandsmart 20
fundamentals 20
fy@@ 20
fying 20
ga100 20
gabri@@ 20
gamusa 20
gap@@ 20
gibson 20
gift@@ 20
ginebra 20
gingersnap 20
gioia 20
gixx@@ 20
glamorosa 20
gles 20
glorious 20
goji 20
goku@@ 20
goo 20
goodbye 20
guer@@ 20
h8@@ 20
hairdressing 20
hall 20
haphapph 20
hayabusa 20
her. 20
heuer 20
hibiscus 20
hiphop 20
hk-@@ 20
hokkaido 20
holmes 20
horse@@ 20
houndstooth 20
hss 20
hui@@ 20
hup 20
hydra@@ 20
i10 20
iam@@ 20
icecream 20
increase 20
indi@@ 20
infantino 20
installation 20
invi@@ 20
invit@@ 20
ipx 20
isla 20
izumi 20
j1mini 20
jai@@ 20
jayson 20
jeon@@ 20
jh 20
jie 20
jm@@ 20
johnsons 20
jumshort 20
jumsuit 20
jz@@ 20
k- 20
k30 20
kamen 20
kidsafe 20
kingever 20
kir@@ 20
kixx 20
kkjjshop 20
kleancolor 20
kn 20
know@@ 20
kojicmansi 20
korilakkuma 20
kre@@ 20
kung 20
kyocera 20
l200 20
l6@@ 20
lambskin 20
lameila 20
lampshade 20
large-xl 20
laugh 20
lazy@@ 20
ledsign 20
lev 20
levithan 20
litt@@ 20
lives 20
lly@@ 20
loki 20
lomvum 20
lone 20
longe@@ 20
love11shop 20
ltr 20
lululun 20
m- 20
m7 20
m88 20
mademoiselle 20
magne@@ 20
magni@@ 20
majestic 20
maliit 20
mallow 20
maltesers 20
manhattan 20
margot 20
martens 20
masonry 20
mater@@ 20
mayonnaise 20
maz@@ 20
mbo 20
mbs 20
mcdavid 20
mck@@ 20
meco 20
medium@@ 20
melatonin 20
menthol@@ 20
mercer 20
michelin 20
mickeymouse 20
mine@@ 20
ministar 20
missugars 20
miz@@ 20
mmmmm 20
mmt 20
mom@@ 20
momo@@ 20
momoso 20
motivational 20
mrg 20
msm-hk 20
mudmaster 20
murakami 20
mustang 20
mv 20
my-@@ 20
n00@@ 20
n4@@ 20
naomi 20
nations 20
natur@@ 20
nb-@@ 20
nba@@ 20
news 20
nic@@ 20
nis 20
no7 20
non-contact 20
note10pro 20
notepads 20
ntsc-j 20
nunbell 20
nye 20
oakley 20
off-@@ 20
ohms 20
oned 20
onsale 20
open-@@ 20
oph 20
opium 20
optics 20
oregano 20
orient 20
ory 20
ove@@ 20
overla@@ 20
p-bandai 20
p120 20
p1zbad@@ 20
pau@@ 20
pearly 20
pedia 20
pent@@ 20
pheno@@ 20
philosophy 20
phyto 20
pinsan 20
plunge 20
poke@@ 20
polaris 20
pompompurin 20
pons 20
portia 20
pouch@@ 20
pow@@ 20
ppee 20
ppies 20
primadonna 20
prise 20
program 20
promod 20
protectors 20
prun@@ 20
pug 20
pull@@ 20
pump@@ 20
purple@@ 20
qkz 20
quarts 20
quin 20
quiz 20
raffle 20
rag 20
ragnarok 20
rainforest 20
rand@@ 20
rator 20
reclining 20
recommen@@ 20
reduce 20
reducer 20
reef 20
reign 20
rein@@ 20
removing 20
reno2 20
revenge 20
revitalize 20
rica 20
rit 20
rol 20
rosewater 20
rous 20
rt-@@ 20
rui 20
rum 20
rush@@ 20
s-xxl 20
sa-@@ 20
sae 20
sala@@ 20
sama 20
samgyup 20
samsun@@ 20
sang 20
sang@@ 20
sapatos 20
sas 20
sasimi 20
sasuke 20
saudi@@ 20
schedule 20
scoopy 20
screws 20
scrunchies 20
secret@@ 20
sell@@ 20
selma 20
separ@@ 20
serpen@@ 20
setter 20
sexy@@ 20
shana 20
shear 20
sherlock 20
shop.@@ 20
shut 20
shuttlecock 20
sim@@ 20
sion@@ 20
size12 20
sket@@ 20
smokey 20
sniper@@ 20
snoe 20
soba 20
softbound 20
songbook 20
sophi@@ 20
spanribs 20
sparkly 20
spearmint 20
spf60 20
sponges 20
ssb 20
ssen@@ 20
ssh 20
stv 20
supermarket 20
surich 20
swadd@@ 20
sweatshort 20
swifty 20
t6 20
tables 20
tain 20
tarteist 20
tcm 20
teak 20
tec@@ 20
tess 20
tested 20
thalia 20
these 20
ting@@ 20
tk 20
tles 20
tokkyo 20
topping 20
trailblazer 20
tribe 20
tsa 20
tual 20
tulips 20
tune 20
ture@@ 20
tured 20
turn@@ 20
tweezers 20
two@@ 20
tytiffany 20
ukayukay 20
ultragirl 20
uncommon 20
unicor@@ 20
urban@@ 20
usb@@ 20
v4.2 20
v5-4@@ 20
vene@@ 20
venum 20
verus 20
vey 20
videoke 20
villa@@ 20
voltes 20
vs-@@ 20
vs. 20
wheelchair 20
whitehead 20
wi 20
wns 20
wonderful 20
x8@@ 20
xenon 20
xring 20
ym 20
yonk 20
youth@@ 20
yr@@ 20
yumi@@ 20
zee 20
𝐒@@ 20
'n 19
'opulent 19
's-@@ 19
-46 19
-d 19
-p@@ 19
0-6months 19
0.2 19
0.9 19
00-@@ 19
0003 19
058 19
093 19
1-2t 19
100x@@ 19
1060 19
110-3@@ 19
1120 19
1205 19
1420 19
1500w 19
1660 19
1800w 19
18g 19
1980 19
1993-@@ 19
1p 19
1w 19
2.5ml 19
2.7 19
2000w 19
200mah 19
2018-2020 19
2019-20 19
205@@ 19
224 19
23g 19
23ml 19
246 19
260g 19
264 19
298@@ 19
3-4yrs 19
3-5yrs 19
3-axis 19
3.2 19
3.6 19
312@@ 19
313 19
327 19
345@@ 19
355@@ 19
35w 19
393 19
4-layer 19
408 19
411@@ 19
435@@ 19
43cm 19
454 19
4inches 19
4kg 19
504 19
556@@ 19
560 19
5lbs 19
6000@@ 19
607 19
60p 19
618 19
675 19
8000@@ 19
820@@ 19
825 19
9.9 19
929 19
abella 19
abelle 19
ac-@@ 19
aerox155 19
afici@@ 19
agnes 19
ago 19
ah4u 19
air2 19
akes 19
aki@@ 19
alfred 19
alist 19
amarah 19
amig 19
amk 19
amu@@ 19
amuse 19
ancho@@ 19
anko 19
ante 19
anti-pollution 19
apo 19
architecture 19
atomi@@ 19
aut@@ 19
auxiliary 19
b2@@ 19
b5@@ 19
b7@@ 19
ba110 19
babyliss 19
bagtag 19
bana 19
barba@@ 19
batangas 19
battleg@@ 19
bazooka 19
bean@@ 19
bei 19
bene@@ 19
bestprice 19
bestselling 19
bey@@ 19
bf-888s 19
bluegreen 19
blushed 19
boarding 19
bohe@@ 19
boop 19
boosting 19
boun@@ 19
bps@@ 19
brai@@ 19
brandy 19
breast@@ 19
brembo 19
brianna 19
bright@@ 19
brim 19
brtc 19
buko 19
button-@@ 19
c.o.d. 19
ca-@@ 19
caffeine 19
calci@@ 19
camelbak 19
campana 19
cani@@ 19
carabiner 19
carnelian 19
cass 19
cc-@@ 19
cd-@@ 19
celebration 19
cellophane 19
chaos 19
char 19
charge2 19
chel 19
chip@@ 19
choke 19
chrono@@ 19
chugoku 19
chunks 19
cked 19
climbing 19
cloud@@ 19
clown 19
coach@@ 19
coastar 19
colar 19
coleman 19
colla 19
colo 19
colorway 19
comouflage 19
compli@@ 19
concea@@ 19
concep@@ 19
condi@@ 19
condu@@ 19
const@@ 19
cosmos 19
cost 19
cough 19
cowhide 19
cpsa 19
crack@@ 19
crankshaft 19
crawling 19
cross-@@ 19
cru 19
crump@@ 19
ctor@@ 19
cuddle 19
cumin 19
cv 19
cyclone 19
danger 19
daphne 19
dazzle 19
dealer 19
debbie 19
deca@@ 19
decorated 19
denti@@ 19
deri@@ 19
designing 19
dess 19
det 19
dete@@ 19
dewalt 19
dextro@@ 19
die-@@ 19
digi 19
dir-fit 19
disp@@ 19
dollar 19
dresss 19
dut@@ 19
dyosa 19
e5-4@@ 19
ecobag 19
eda 19
electroplating 19
elitebook 19
elizavecca 19
enlargement 19
epub 19
ergobaby 19
erica 19
erical 19
erized 19
esi 19
eta 19
euphoria 19
eves 19
evo@@ 19
exam 19
excellence 19
eyed 19
f9@@ 19
faces 19
faceted 19
families 19
fc-@@ 19
flipflop 19
float@@ 19
florals 19
foamer 19
foli@@ 19
fondue 19
font 19
freeshippingshopee 19
fring@@ 19
fro 19
fs-@@ 19
fujihama 19
functions 19
g313 19
g360 19
g4-@@ 19
ge-@@ 19
gears 19
germicidal 19
ggles 19
gilas 19
gins 19
gochu@@ 19
goldfish 19
gomez 19
gosh 19
gozum 19
grapes 19
graph@@ 19
gree 19
gst 19
gual 19
guit@@ 19
gurashi 19
halal 19
hands-free 19
hardsole 19
harman 19
havana 19
headlights 19
heavyduty 19
heidi 19
heiress 19
helix 19
hennesy 19
hguc 19
high-top 19
hiyang 19
hol 19
honeysuckle 19
honeywell 19
honor8x 19
hoover 19
hor 19
hs-82@@ 19
huawe@@ 19
hunters 19
hyperx 19
ike@@ 19
iko 19
illumitox 19
imag@@ 19
impress 19
inas 19
inches@@ 19
inse@@ 19
intake 19
intelli@@ 19
intensi@@ 19
interactive 19
ip6 19
ip67 19
ipho@@ 19
iphone6plus 19
iphone8plus 19
j72016 19
jacket@@ 19
jake 19
jb 19
jeanne 19
jedi 19
jlh 19
johnny 19
juices 19
jyun 19
kakashi 19
kaku 19
kanteen 19
kdrama 19
kellogg 19
keychain@@ 19
kidd 19
killing 19
kish 19
knots 19
koby 19
kolin 19
kombat 19
kool 19
kulambo 19
ladi@@ 19
lany 19
large-@@ 19
lation 19
ldnio 19
leboy 19
leggins 19
leon@@ 19
lettering 19
lexus 19
lick 19
lie@@ 19
limit@@ 19
liven 19
longsleeved 19
lorac 19
loving 19
lowwaist 19
lstar 19
lubric@@ 19
lucent 19
lug 19
lynelefootwear 19
mace 19
mach 19
mack@@ 19
magsafe 19
mail@@ 19
make@@ 19
marin@@ 19
maxene 19
miche@@ 19
microsdhc 19
microsdxc 19
mikata 19
mikaylashoppe 19
mila 19
milano 19
mill@@ 19
mindful 19
mioi125 19
mistique 19
mitsushi 19
mming 19
mobius 19
moder@@ 19
mori@@ 19
motorized 19
moul@@ 19
movall 19
moyes 19
mrs. 19
mucin 19
mud@@ 19
multi-layer 19
multi-use 19
natrol 19
nerds 19
niacin 19
noni 19
nonstick 19
nuggets 19
nw@@ 19
okay 19
okinawa 19
ono@@ 19
outdoors 19
owned 19
oxide 19
p180 19
p350 19
p40 19
pacsafe 19
paintings 19
pala@@ 19
parachute 19
pari@@ 19
partition 19
pauline 19
pawn@@ 19
pdf 19
pechay 19
penta@@ 19
peotraco 19
perfect@@ 19
perfor@@ 19
personalised 19
petit@@ 19
phab 19
phshop 19
pico@@ 19
pierre 19
pla 19
plaque 19
pointer 19
potted 19
pouchie 19
powder@@ 19
prince@@ 19
prizes 19
procurement 19
prop@@ 19
psy 19
purchased 19
pyramid 19
qc@@ 19
qqjk 19
rb-@@ 19
readers 19
rear@@ 19
reduced 19
reduction 19
ref@@ 19
refined 19
regenerist 19
remastered 19
renee 19
reno2f 19
rent 19
replenishing 19
rhi@@ 19
riano 19
ribb@@ 19
rix 19
rms 19
roberts 19
roma 19
royal@@ 19
rs-@@ 19
rubbermaid 19
samsung@@ 19
san-yang 19
savannah 19
sb-@@ 19
scorpion 19
scrabble 19
sean 19
search 19
selle 19
sensu@@ 19
separate 19
services 19
set. 19
sharpening 19
shelim 19
shine@@ 19
showcase 19
sienna 19
sixteen 19
sj6 19
sketchbook 19
skindigm 19
skycorp 19
slin@@ 19
smartheart 19
smoke@@ 19
smoking 19
snackers 19
snorkel 19
soli@@ 19
sora 19
spir@@ 19
sponge@@ 19
spoo@@ 19
stal 19
stamped 19
staples 19
steak 19
sticated 19
sting@@ 19
stirrer 19
strate@@ 19
stronger 19
sue@@ 19
sunkissed 19
surpri@@ 19
suspenders 19
swat@@ 19
syringe 19
taekwondo 19
taper 19
tart@@ 19
tdd 19
thick@@ 19
tinker 19
tney 19
tol 19
tomb 19
tombow 19
tone@@ 19
topi@@ 19
toxic 19
tps 19
trace 19
trader 19
triang@@ 19
trs 19
tto 19
tubing 19
u-shaped 19
ultralight 19
uniheart 19
upl 19
usb-@@ 19
usb3.0 19
valkyrie 19
valu@@ 19
veneta 19
vials 19
vibroaction 19
visual 19
voopoo 19
warehouse 19
wares 19
waterproof@@ 19
wayfarer 19
whead 19
wht 19
widow 19
wie 19
wonderwoman 19
worksheets 19
wrinkles 19
written 19
wunder 19
x24 19
x40@@ 19
xhilaration 19
xz 19
y532017 19
yaki@@ 19
ych 19
younger 19
yt 19
yu-gi-oh 19
yufiya 19
zic 19
zte 19
ᆫ@@ 19
✧ 19
✿ 19
＆ 19
'occitane 18
-1a 18
-b 18
-f@@ 18
-m@@ 18
-shirt 18
0.38 18
0.6@@ 18
0000 18
007@@ 18
057 18
085 18
1,2,@@ 18
1.0l 18
1.5g 18
10050mah 18
1008 18
100a 18
10sheets 18
10t-@@ 18
10w-40 18
10y 18
110-@@ 18
113g 18
1151 18
117@@ 18
11a 18
11inch 18
12v@@ 18
1400 18
14mm 18
14pcs 18
172 18
190g 18
1963 18
1e 18
1pc.@@ 18
2.37a 18
2001-@@ 18
20th 18
23cm 18
24h 18
257 18
281 18
29ml 18
2layer 18
2lbs 18
2pairs 18
3-8yrs 18
304@@ 18
314@@ 18
32017 18
320g 18
338@@ 18
360ml 18
36w 18
3p 18
4-pack 18
4-piece 18
4-port 18
407 18
425 18
46-@@ 18
48pcs 18
4inch 18
5-7 18
506 18
50h 18
516 18
531 18
54mm 18
591 18
5x7 18
6-in-1 18
60capsules 18
6900 18
6pieces 18
6pro 18
7.5ml 18
700g 18
790 18
7kg 18
7x 18
8.5@@ 18
807 18
80s 18
855 18
883 18
8ch 18
92-@@ 18
9grams 18
9inches 18
acan 18
acs 18
adapters 18
adata 18
adi 18
adv 18
aeroic 18
affair 18
after@@ 18
agenda 18
agi@@ 18
agu@@ 18
airconditioner 18
airwalk 18
alan 18
alexandra 18
algae 18
aling 18
alize 18
allergy 18
alphatoys 18
ambi@@ 18
amper@@ 18
amy@@ 18
anti-blue 18
anti-mosquito 18
anti-uv 18
aper 18
apparatus 18
appearance 18
arrow@@ 18
artfx 18
asos 18
at-@@ 18
ather@@ 18
atlan@@ 18
aur 18
baak 18
ballon 18
bally 18
banners 18
bari@@ 18
barre@@ 18
battlefield 18
bbc 18
behind 18
being 18
bejeweled 18
belgian 18
bella@@ 18
belle@@ 18
beloved 18
beth@@ 18
bib@@ 18
billion 18
bilog 18
blanca 18
bleach@@ 18
bler 18
blinking 18
blt 18
board@@ 18
boat@@ 18
bondage 18
bonsai 18
bop 18
borax 18
bottle@@ 18
bourne 18
brake@@ 18
brightex 18
buck 18
buff 18
bulgar@@ 18
butto@@ 18
buy1@@ 18
cable@@ 18
cabo@@ 18
calu@@ 18
cami@@ 18
candice 18
canteen 18
cardamom 18
cardio@@ 18
carl 18
carnauba 18
carnival 18
casaya 18
cedar 18
celebr@@ 18
celet 18
cey 18
challenger 18
chand@@ 18
chime 18
choosing 18
chur@@ 18
citromint 18
ckers 18
clan@@ 18
cmh 18
cmyk 18
colli@@ 18
collo@@ 18
comple@@ 18
comprehen@@ 18
condo 18
consu@@ 18
cook@@ 18
corales 18
cori@@ 18
coupling 18
crawler 18
crescent 18
criss-cross 18
crossback 18
ctu@@ 18
cu. 18
curls 18
cuties 18
cvi 18
cyber@@ 18
cyc@@ 18
dahlia 18
dam 18
daredevil 18
darts 18
dates 18
decors 18
demolition 18
devi@@ 18
dickin@@ 18
dimensional 18
director 18
diswashing 18
dit@@ 18
dium 18
dized 18
dolphine 18
dorco 18
dotcom 18
drac@@ 18
drape 18
dress- 18
dura 18
dw5600 18
edu@@ 18
egg@@ 18
ele 18
electro 18
eli 18
embroi@@ 18
empress 18
emum 18
emw 18
end@@ 18
ending 18
ends 18
eneloop 18
energizing 18
enterprise 18
er- 18
erin 18
exfoliator 18
exit 18
f4 18
falls 18
fashi@@ 18
fashion-@@ 18
fau@@ 18
feb 18
fetish 18
fill@@ 18
first@@ 18
fisheye 18
fixing 18
flam@@ 18
fleek 18
fling 18
flip-@@ 18
florsheim 18
fm2 18
folk 18
fourshoppe 18
fourth 18
freestyle 18
freshness 18
frut@@ 18
fts 18
garmin 18
gartered 18
gator 18
gau@@ 18
gddr5 18
genic 18
gentlemen 18
getz 18
git 18
gizeh 18
glacial 18
glass3 18
gleam 18
glowbar 18
glutafit 18
goldtoe 18
goose@@ 18
gori@@ 18
gourd 18
grove 18
gry@@ 18
guerlain 18
gyp@@ 18
hallmark 18
haltered 18
hanford 18
harris 18
hatchimals 18
hau@@ 18
hay 18
hazard 18
health@@ 18
heated 18
heatsink 18
hedgren 18
hikers 18
hillary 18
hip-hop 18
how@@ 18
hsm 18
hydroponics 18
hypno@@ 18
ib@@ 18
ide@@ 18
inc. 18
including 18
ingot 18
inkle 18
insoles 18
inspiration 18
inverted 18
ip68 18
iqos 18
islander 18
itos 18
janylin 18
jap 18
jardin 18
ject 18
jeremy 18
jho@@ 18
jhope 18
jingpin 18
jj00@@ 18
jose@@ 18
k.c 18
karate 18
karma 18
kath 18
kd-@@ 18
keen 18
kemei 18
kewpie 18
kg@@ 18
kick@@ 18
kimi 18
kirin 18
kissy 18
kk-@@ 18
km-@@ 18
knee-length 18
knights 18
knives 18
kr 18
kum 18
kurstenshop 18
laar@@ 18
labs 18
landing 18
lash@@ 18
law@@ 18
leah 18
leav@@ 18
lei 18
lena 18
leot@@ 18
leverag 18
levres 18
licorice 18
links 18
lipcolor 18
lis@@ 18
ln 18
lomo@@ 18
lop 18
lox 18
lt20 18
lubri@@ 18
luigi 18
lust 18
m12 18
m8 18
maas 18
mae@@ 18
major 18
malaysian 18
malong 18
manta 18
marcelo 18
margarita 18
marula 18
marykay 18
matibay 18
maureen 18
maxim 18
medallion 18
medium-sized 18
mee@@ 18
melo 18
mentary 18
merlot 18
merona 18
mery 18
messy 18
metho@@ 18
micro-usb 18
midi@@ 18
mig 18
millie 18
mimi@@ 18
mindy 18
minimizing 18
minoxidil 18
missing 18
mister 18
mitten 18
mock@@ 18
modem 18
moisturiser 18
mole@@ 18
monochrome 18
moulding 18
mz 18
n9 18
nathaniel 18
naturehike 18
nchant 18
ndl 18
neal 18
neut@@ 18
nfl 18
nick@@ 18
nikki 18
nings 18
nitecore 18
nitrile 18
nv350 18
nwt 18
oblong 18
oce@@ 18
odorless 18
ofra 18
oid 18
okm 18
omber 18
on-the-go 18
oppa 18
optipro 18
oracle 18
orig@@ 18
outlaw 18
over-@@ 18
p300 18
p3200 18
pa-@@ 18
pallette 18
pandan 18
pandor 18
panlabas 18
papa@@ 18
partner 18
path@@ 18
pei@@ 18
pera 18
percussion 18
pickled 18
piedras 18
pimples 18
pio 18
places 18
plus-@@ 18
pocke@@ 18
poli 18
polished 18
popsocket 18
porcelana 18
possi@@ 18
pre-walker 18
pren@@ 18
preser@@ 18
prevention 18
priming 18
principles 18
prive 18
problem 18
problems 18
proof@@ 18
proph@@ 18
psalm 18
pur 18
purity 18
q9 18
qoncept 18
ques 18
quick-@@ 18
qulity 18
qy 18
r11 18
radish 18
rap 18
rar@@ 18
rave 18
recharge@@ 18
redemption 18
reinfor@@ 18
repackaged 18
retro@@ 18
revive 18
revoltech 18
reward 18
reyes 18
rhy@@ 18
richoco 18
ride-on 18
rie@@ 18
rip@@ 18
riveter 18
robusta 18
rogue 18
rolled 18
rosette 18
rosie 18
rts 18
rx-78-2 18
sagada 18
salecod 18
sani@@ 18
savings 18
scence 18
school@@ 18
scouring 18
sculpt 18
seas 18
selling@@ 18
semi-crop 18
separator 18
shawill 18
shields 18
shor@@ 18
silk@@ 18
sine@@ 18
sitting 18
sivanna 18
six-@@ 18
skill 18
skills 18
skyblue 18
sleepy 18
slick 18
slits 18
snackeez 18
snody 18
sophisticated 18
sor 18
sors 18
speaker@@ 18
specific 18
spee@@ 18
speeds 18
spel@@ 18
spurs 18
sson 18
stash 18
stephanie 18
stickerless 18
stin 18
ston 18
stormtrooper 18
stretcher 18
strix 18
stuffedtoy 18
stussy 18
suite 18
sunsonic 18
suppli@@ 18
supporter 18
surf@@ 18
surplice 18
swingman 18
sylvia 18
t-wolf 18
ta-@@ 18
tablecloth 18
tambourine 18
tanks 18
tao 18
tayo 18
teapot 18
teer 18
teflon 18
tempo 18
ternos 18
terra@@ 18
thenorthface 18
thetic 18
thicken 18
thriller 18
tidy 18
toiletries 18
toothgel 18
topia 18
toro 18
tortoise 18
travelmate 18
tree@@ 18
tresor 18
tretta 18
trf 18
tribute 18
tronsmart 18
troy 18
tz@@ 18
ual 18
uchiha 18
uda 18
ukay@@ 18
uke 18
ultrasound 18
uncharted 18
uv-5r 18
uvc 18
v- 18
v12 18
v6 18
vaping 18
vendetta 18
vernis 18
vicks 18
vio 18
vis 18
visco@@ 18
vite 18
voltron 18
vondutch 18
vortex 18
vp-@@ 18
vp@@ 18
vtow 18
vwc@@ 18
w-2@@ 18
waterfall 18
watering 18
weide 18
weigh@@ 18
weird 18
weld 18
weng 18
whim@@ 18
whisper 18
women-@@ 18
wr 18
x30 18
xa2 18
xiao@@ 18
xv 18
yh@@ 18
yin 18
yong 18
youtheory 18
yt-1288 18
yuja 18
zan@@ 18
zb6@@ 18
zelda 18
zeta 18
zhiyun 18
½ 18
№ 18
𝐂@@ 18
𝐋@@ 18
'd 17
'll 17
-0.@@ 17
-001 17
-15@@ 17
-30 17
-37 17
-7 17
-a@@ 17
-g@@ 17
-i@@ 17
.5x@@ 17
.k 17
056 17
0m 17
1-10 17
1.0mm 17
1.2g 17
1.5cm 17
1.75 17
1.75@@ 17
1003 17
1102 17
115g 17
1188 17
12t 17
14.5 17
140x@@ 17
144hz 17
15s 17
167 17
1688 17
16a 17
178@@ 17
18-24m 17
18oz 17
2017@@ 17
20x30 17
2200mah 17
24s 17
250gb 17
250grams 17
25mg 17
27-@@ 17
2p 17
2piece 17
30days 17
30x30cm 17
31-36 17
311@@ 17
314 17
320ml 17
335 17
340ml 17
352 17
380ml 17
3mos 17
4-pc 17
4.8 17
403 17
42mm 17
44-@@ 17
460 17
465 17
470 17
4color 17
5050 17
508 17
514@@ 17
54-@@ 17
558 17
561 17
565 17
57mm 17
6-piece 17
600mg 17
616 17
655 17
6n1 17
731 17
751 17
7to@@ 17
8-2 17
888s 17
989 17
a-z 17
a11x 17
a12 17
a19@@ 17
a536 17
abbey 17
absolute 17
accesso@@ 17
acerola 17
adel@@ 17
adobe 17
ador 17
agri@@ 17
aids 17
ail@@ 17
airpod 17
alex107 17
ali-@@ 17
alina 17
alisa 17
alk@@ 17
amerilock 17
ampli@@ 17
andrew 17
ante@@ 17
antetoko@@ 17
antiradiation 17
ara@@ 17
aring 17
arkham 17
armak 17
armo@@ 17
arowana 17
atsu 17
attraxion 17
aus 17
austen 17
avatar 17
aviation 17
bab@@ 17
bagong 17
bait 17
baku@@ 17
baro@@ 17
basi@@ 17
batgirl 17
batter 17
batter@@ 17
bavin@@ 17
bdf 17
beauplus 17
beautic 17
begins 17
bers 17
bg-@@ 17
bibli@@ 17
bilyaran 17
biodegradable 17
birch 17
blind@@ 17
bloks 17
bloomer 17
bly 17
bobber 17
bomb@@ 17
bos 17
boss@@ 17
botto@@ 17
bouncing 17
bouncy 17
boundaries 17
bowler 17
brack@@ 17
brv 17
bubbly 17
bud 17
budd@@ 17
buffalo 17
bundle@@ 17
c10@@ 17
c8@@ 17
cafele 17
caliburn 17
capture 17
carle 17
carlo 17
casual@@ 17
cavs 17
cb-@@ 17
cellulite 17
centric 17
cera 17
cers 17
ceuticals 17
chai 17
chalis 17
chao@@ 17
charmed 17
cheron 17
chet 17
chiller 17
ciara 17
cie 17
cleans@@ 17
cleavage 17
clicker 17
clipboard 17
clothes@@ 17
clothing@@ 17
coby 17
cogs 17
cold-shoulder 17
colouring 17
coma 17
computers 17
cond. 17
cony 17
cookbook 17
coolwater 17
cote 17
cr-v 17
creamery 17
creeper 17
crocker 17
curious 17
cylindrical 17
d- 17
d-2@@ 17
d-link 17
dami@@ 17
dating 17
dau@@ 17
dc12v 17
dead@@ 17
dec@@ 17
dee@@ 17
deliver 17
denture 17
develo@@ 17
diabe@@ 17
digesti@@ 17
dinem 17
discs 17
dkc 17
dler 17
dockers 17
dong-a 17
doreamon 17
dork 17
dormitory 17
drake 17
dumb@@ 17
during 17
e1 17
e6@@ 17
eating 17
economy 17
elba 17
electroly@@ 17
elementary 17
elli 17
embo@@ 17
emporio 17
endurance 17
ere@@ 17
eri 17
ester 17
eucerin 17
eunice 17
expiration 17
extr@@ 17
extraordinary 17
eyemask 17
fame 17
fang 17
fashioned 17
fds 17
federal 17
fern-activ 17
ffff@@ 17
figlia 17
flaps 17
flatware 17
flox 17
fon 17
force1 17
formed 17
fortun@@ 17
fp 17
freesocks 17
funtainer 17
fut@@ 17
fv@@ 17
g10 17
g4@@ 17
gaiman 17
gation 17
gba 17
geisha 17
gen2 17
gender 17
georgina 17
gged 17
gho@@ 17
gian@@ 17
giannis 17
giga 17
gingerbread 17
gogo 17
gowns 17
goyard 17
gr8@@ 17
grains 17
grids 17
grille 17
gripo 17
gross 17
growing 17
guil@@ 17
gus@@ 17
gutterless 17
gx-@@ 17
h2o 17
h7 17
hai 17
haier 17
hama 17
harle@@ 17
haruki 17
hb-@@ 17
hbk 17
heavenly 17
henna 17
hf@@ 17
histo@@ 17
hiti 17
hog 17
hold@@ 17
hong. 17
hot-@@ 17
howard 17
huayu 17
hudson 17
humid@@ 17
hypo@@ 17
ibuy 17
ijoy 17
ilike 17
impressions 17
in-one 17
in2@@ 17
inchs 17
inclined 17
iness 17
innovative 17
inpired 17
instinct 17
iphone11promax 17
iq@@ 17
isabel 17
isabella 17
ista@@ 17
it-@@ 17
ith@@ 17
izone 17
j6@@ 17
jal@@ 17
jamie 17
jas 17
jeansame 17
jeep@@ 17
jeff@@ 17
jegging 17
jinghao 17
job 17
jockey 17
joyfeel 17
jr@@ 17
juana 17
juantoni 17
jud@@ 17
jumperskirt 17
juven@@ 17
k4 17
k53@@ 17
kal 17
katherine 17
kawa@@ 17
keeping 17
kenpa@@ 17
kind@@ 17
kira 17
kiyo@@ 17
kki 17
kopiko 17
koyo 17
kracie 17
kulay 17
kv@@ 17
kw-3@@ 17
kylo 17
l-4@@ 17
l-glutapower 17
l120 17
label@@ 17
lable 17
ladie@@ 17
laga 17
lali@@ 17
lancets 17
lap@@ 17
lata 17
lawn 17
legged 17
lence 17
leng@@ 17
lenticular 17
leslie 17
lga 17
linkin 17
listerine 17
living@@ 17
lized 17
llan@@ 17
llers 17
lng 17
lomo 17
lootbag@@ 17
lt-@@ 17
luc@@ 17
lumiere 17
lustre 17
m14 17
m3@@ 17
magneto 17
male@@ 17
mali@@ 17
malibu 17
mamamoo 17
mani 17
mariel 17
marley 17
mate30 17
mavericks 17
mcdonald 17
mecha 17
meguiar 17
melting 17
mercedes 17
meur 17
microblading 17
mika 17
mikaela 17
miles 17
mimo 17
mincer 17
miranda 17
mme@@ 17
mmi 17
mmmm@@ 17
mobilio 17
mone@@ 17
motorcyle 17
motorstar 17
multiway 17
murayta 17
mw 17
n5@@ 17
nad@@ 17
nap 17
nels 17
neutr@@ 17
new. 17
newbor@@ 17
nexus 17
ng@@ 17
nhc-@@ 17
nino 17
nurture 17
nutritious 17
nv@@ 17
ocean@@ 17
oe 17
ogx 17
oids 17
omi 17
opened 17
ops 17
organiser 17
orignal 17
ose 17
over-the-ear 17
ovleng 17
p10plus 17
p1zbac@@ 17
p3100 17
pac 17
pak@@ 17
palmer 17
pami@@ 17
panels 17
paperdolls 17
patchouli 17
pati@@ 17
pcs-@@ 17
pedals 17
peel-off 17
peice 17
pein 17
peli@@ 17
pellets 17
perforated 17
pey@@ 17
piece@@ 17
pil 17
pinstripe 17
pis 17
placing 17
planting 17
pleasures 17
plextone 17
plus2018 17
pogi 17
pore@@ 17
potions 17
pp-@@ 17
preservation 17
prices 17
primrose 17
promag@@ 17
proto@@ 17
psal 17
puni@@ 17
puppets 17
purely 17
puto 17
pz@@ 17
q18@@ 17
qa@@ 17
qposket 17
quadcore 17
r.s.@@ 17
rabb@@ 17
raffled 17
ragusa 17
ramgo 17
raz 17
rc-0@@ 17
refresher 17
refurbi@@ 17
reishi 17
relax@@ 17
reme@@ 17
reno6.4 17
revitalisor 17
revol@@ 17
rico@@ 17
rium 17
rooster 17
rosal@@ 17
rp@@ 17
rrrr@@ 17
rrx 17
rs8 17
russia 17
rv@@ 17
rw 17
rz 17
s.h.figuarts 17
s5830 17
sadi@@ 17
salomon 17
salsa 17
sam. 17
sandra 17
saniti@@ 17
saucony 17
saudigoldpawnable@@ 17
scious 17
scor@@ 17
screw@@ 17
seachem 17
sedu@@ 17
sehun 17
senda 17
sexyback 17
shank 17
shee 17
sheila 17
shies 17
shir 17
shirt- 17
shoerack 17
shoes. 17
shopbillie2 17
shopee.ph 17
sibility 17
side-@@ 17
silver-@@ 17
simon 17
simpli@@ 17
sipper 17
sj4000 17
sleepsack 17
sliced 17
smatree 17
smell 17
smoky 17
smpac 17
smy@@ 17
sn-@@ 17
snor@@ 17
so-@@ 17
solder 17
sour@@ 17
spanner 17
spha@@ 17
sphygmo@@ 17
spun 17
sricam 17
stages 17
stallion 17
state@@ 17
stay@@ 17
step-@@ 17
stling 17
stren@@ 17
stro 17
stuffs 17
styleclub 17
styro 17
sublimated 17
sues 17
sumikko 17
sun-@@ 17
sunshade 17
supper 17
surfer 17
suzanne 17
sweetened 17
t20 17
tamar@@ 17
tanga 17
tanjun 17
tank@@ 17
taped 17
tasty 17
tations 17
tcl 17
techni@@ 17
tempered@@ 17
theon 17
tials 17
top. 17
toss 17
trans 17
transi@@ 17
traps 17
trave@@ 17
trials 17
trick 17
tropic 17
trrrixii 17
tsuki@@ 17
tsumtsum 17
ttings 17
tung@@ 17
tunnel 17
twinkle-fashion 17
twix 17
tyk 17
ulike 17
ultraman 17
univers@@ 17
ura@@ 17
useful 17
uskin 17
uso@@ 17
uts 17
uv400 17
vali@@ 17
variations 17
vcd 17
vector 17
velo@@ 17
vf 17
vheauty 17
video@@ 17
vienna 17
vivi@@ 17
vx 17
w100 17
waf@@ 17
wands 17
wav@@ 17
wave110 17
wax@@ 17
webber 17
weed 17
ween 17
weijl 17
went 17
wj@@ 17
wmns 17
wo 17
wolf@@ 17
women- 17
worksheet 17
wp 17
ww 17
xxx 17
xxx@@ 17
y7p 17
yah@@ 17
yb@@ 17
yl@@ 17
yt-228 17
z5x 17
zb601kl 17
zip@@ 17
zoids 17
𝐄@@ 17
𝐑@@ 17
𝐢@@ 17
𝐫@@ 17
'hermes 16
-a-@@ 16
.7 16
0-6@@ 16
0.4 16
0005 16
010@@ 16
037 16
052 16
1-2y 16
1-9 16
1.3grams 16
1.4g 16
1.77 16
1.7l 16
1.9 16
102@@ 16
107@@ 16
10c 16
12.12 16
120gb 16
120w 16
127g 16
135ml 16
1400@@ 16
140ml 16
14i@@ 16
14inch 16
15000mah 16
1500rpm 16
150w 16
155@@ 16
155g 16
15l 16
174 16
17x@@ 16
18-135 16
18-55mm 16
1986 16
1988 16
2-3y 16
2.3 16
200m 16
20180422@@ 16
220cm 16
22k 16
230g 16
248 16
24inches 16
25000mah 16
25a 16
263 16
26mm 16
28pcs 16
295 16
2w 16
3-4y 16
3. 16
30a 16
30l 16
31-3@@ 16
31-@@ 16
359 16
35a 16
375@@ 16
40-44 16
4000@@ 16
407@@ 16
428-4@@ 16
451 16
455 16
462 16
468 16
46cm 16
4w 16
5-8 16
5.00 16
525 16
53-@@ 16
6-2 16
6-inch 16
6020 16
619 16
621ml 16
626@@ 16
650w 16
660 16
669 16
688 16
6900@@ 16
6in 16
7-9 16
70s 16
721 16
732 16
750g 16
767@@ 16
7gplus 16
800mah 16
8017 16
80th 16
813 16
817 16
824@@ 16
852 16
887 16
888@@ 16
8ft 16
90x@@ 16
980@@ 16
983 16
9b 16
9cm 16
9inch 16
9th 16
a500@@ 16
a82018 16
abr@@ 16
absorbing 16
ac1200 16
accordion 16
achable 16
acro@@ 16
adamantine 16
advan 16
ageing 16
agi 16
aha@@ 16
aj1 16
alam 16
alicia 16
alisgp 16
alizing 16
allison 16
almera 16
amansi 16
amay 16
amit@@ 16
anais 16
angelo 16
apartment 16
applicable 16
aromat@@ 16
aromatic 16
arth@@ 16
ary@@ 16
ased 16
aser 16
ashitaba 16
aspirator 16
ass@@ 16
assault 16
assistant 16
atelier 16
athione 16
athle@@ 16
attachment 16
authentic. 16
auxis 16
avene 16
aw-@@ 16
axial 16
b-complex 16
b12@@ 16
b6 16
b7 16
bagsak 16
balck 16
balloons-@@ 16
bareminerals 16
bas 16
batmobile 16
batt 16
battery-@@ 16
bent 16
berry@@ 16
bestsellers 16
bikinis 16
bil@@ 16
biogenic 16
bishi 16
blackboard 16
bluetooth@@ 16
blutooth 16
boardbook 16
boarder 16
boxin 16
boye 16
brallette 16
bran 16
brey 16
brick@@ 16
briefcase 16
brio 16
brittle 16
budf 16
buffer 16
bullets 16
bumps 16
burnt 16
bwc 16
c5@@ 16
ca8io 16
cabbage 16
caly@@ 16
camelback 16
camoufla@@ 16
canola 16
carbonated 16
caroline 16
carpen@@ 16
carry@@ 16
carving 16
cary 16
case3 16
casey 16
cavendish 16
cch 16
ccino 16
ccl 16
cco 16
celeste 16
celyn 16
cerine 16
cervi@@ 16
cgm 16
charged 16
chari@@ 16
cheer 16
chenille 16
chestnut 16
chless 16
choc 16
chocovron 16
chrome@@ 16
cigarettes 16
classification 16
cleopatra 16
cles 16
clone 16
club@@ 16
cluster 16
clyde 16
cmos 16
cod-new 16
cod.perfume 16
coffe@@ 16
compart@@ 16
conce@@ 16
conden@@ 16
contemporary 16
coolmax 16
coon 16
corpor@@ 16
cosy 16
counter@@ 16
cran@@ 16
crazy@@ 16
creatine 16
crocband 16
crop-@@ 16
crosswind 16
cruci@@ 16
cture 16
culti@@ 16
cupcakes 16
cursive 16
d7 16
d7@@ 16
dac@@ 16
dakimakura 16
dalfour 16
dani 16
daytime 16
daze 16
dbj 16
ddk 16
ddr2 16
ddr@@ 16
demin 16
derail@@ 16
diab@@ 16
dian@@ 16
differen@@ 16
diluted 16
divergent 16
dj@@ 16
dodo 16
doggie 16
doily 16
dona 16
dood@@ 16
dope 16
double@@ 16
dow 16
drinker 16
drives 16
dropping 16
drug 16
dson 16
duke 16
e1-4@@ 16
earpiece 16
earth@@ 16
easter 16
ed. 16
edge@@ 16
edit 16
edition@@ 16
eff@@ 16
egyptian 16
elantra 16
eleanor 16
emboss@@ 16
emo 16
enfam@@ 16
enic 16
enter@@ 16
ep-@@ 16
ergo 16
erika 16
esan 16
eti@@ 16
exodus 16
exos 16
exploding 16
exq 16
ext 16
fairies 16
fannyfashion 16
features 16
fem@@ 16
ferti@@ 16
ffi@@ 16
fibers 16
filip@@ 16
finery 16
fizz 16
flameless 16
flan 16
flax 16
flouri@@ 16
forces 16
fore 16
forged 16
format 16
formen 16
francine 16
frosting 16
frp 16
fter 16
fton 16
fuck 16
funky 16
g-7@@ 16
g.w 16
g32@@ 16
ga700 16
galvanized 16
gangster 16
gari 16
gauntlet 16
gbt 16
gelato 16
ghty 16
ging@@ 16
gl-@@ 16
glare 16
glen@@ 16
glider 16
glutami@@ 16
goldpawnablesplcodgenuine100 16
goldzan 16
goodies 16
gooseneck 16
goth 16
gravy 16
greens 16
grisham 16
guine@@ 16
gulong 16
gusto 16
h2 16
habit 16
hacksaw 16
hairtie 16
hamburger 16
handicraft 16
handpainted 16
haplas 16
harden@@ 16
hart 16
harvey 16
hasp 16
havi@@ 16
heel@@ 16
hella 16
herbench 16
hero5 16
hf-@@ 16
hit@@ 16
hm@@ 16
hosp@@ 16
hua@@ 16
hudab@@ 16
humble 16
hummingbird 16
hurry 16
husband 16
husk 16
hy 16
hype 16
i-fern 16
i6 16
icure 16
ik 16
ila@@ 16
ile 16
include 16
inox 16
iridescent 16
isabelle@@ 16
iser 16
itama 16
itters 16
iwata 16
ixpand 16
j1mini@@ 16
jacqu@@ 16
jail@@ 16
jakarta 16
jdi 16
jenny@@ 16
jessy 16
jewelry925silver 16
jigg@@ 16
jima 16
jit@@ 16
joel 16
jona 16
jou 16
js-@@ 16
jzsale 16
kad 16
kage 16
kangaroo 16
karimadon 16
kathleen 16
kenwood 16
khm 16
kiera 16
kilay 16
kill@@ 16
kindle 16
kite 16
kku 16
konektopshop 16
kru@@ 16
kst 16
kun@@ 16
l-xxl 16
lacto@@ 16
lad 16
lala@@ 16
lannister 16
lansinoh 16
lapis 16
lariat 16
laying 16
lazer 16
lce 16
leaders 16
ledge 16
legal 16
lele 16
let-@@ 16
lett 16
lettes 16
ley@@ 16
lipo@@ 16
lippy 16
liquor 16
listic 16
literary 16
ljy@@ 16
longdress 16
luminarc 16
lved 16
lz 16
mabuhay 16
mack 16
madeline 16
magnifying 16
makeover 16
manometer 16
manu@@ 16
mbing 16
meeting 16
meike 16
melo@@ 16
meric 16
mermai@@ 16
meron 16
meter@@ 16
metrical 16
mgs-@@ 16
microfibre 16
midea 16
midori 16
mind@@ 16
minor 16
mirrors 16
misb 16
mj001 16
mk3@@ 16
mm. 16
mmy@@ 16
mod@@ 16
mohashi 16
moleskine 16
monday 16
moo 16
mosqu@@ 16
muk@@ 16
multi-surface 16
multifun@@ 16
musi@@ 16
must@@ 16
mysteri@@ 16
nah 16
nam 16
nator 16
neodymium 16
neroli 16
nier 16
nine@@ 16
non-gmo 16
nowitzki 16
nvme 16
nvr 16
nwb 16
nxt 16
oct 16
officejet 16
oleum 16
onda 16
onlinestore 16
ontz 16
opti 16
oran 16
ou 16
oxidizing 16
p1,@@ 16
pabder 16
pack-@@ 16
paki@@ 16
palace 16
parfume 16
park@@ 16
parklight 16
passionate 16
pbb 16
peed 16
pegs 16
perfume@@ 16
perspirant 16
petti@@ 16
pharma 16
philli@@ 16
pill@@ 16
pillow@@ 16
pitch 16
playground 16
pment 16
poko 16
polycarbonate 16
pororo 16
posite 16
position@@ 16
posket 16
posse@@ 16
post-it 16
pper@@ 16
premuim 16
presyo 16
proud 16
psycho@@ 16
purito 16
put@@ 16
pwede 16
quan@@ 16
rainproof 16
rap@@ 16
ratings 16
realfire 16
reas@@ 16
reen 16
rele@@ 16
renegade 16
replac@@ 16
result 16
retailmnl 16
retin@@ 16
rhimarose 16
rial 16
ridge 16
rina 16
ritz 16
rivers 16
romp@@ 16
rondoletti 16
rouser135 16
rudy 16
rusi@@ 16
ryj 16
s-26 16
s2@@ 16
s90@@ 16
safari@@ 16
sago 16
sake 16
saltnic 16
sasa 16
sash 16
sca 16
scarves 16
screenprotector 16
seasonal 16
seaweeds 16
seed@@ 16
semi-formal 16
separately 16
shabby 16
shakespeare 16
sharpshooter 16
shawn 16
shino@@ 16
shire 16
shirley 16
shoo@@ 16
shops 16
shouder 16
shy@@ 16
siamese 16
signpen 16
sili 16
sinan@@ 16
singlepuff 16
sion-@@ 16
size6 16
sj5000 16
skat@@ 16
skirt@@ 16
skylinker 16
sliders 16
smoothness 16
snapdragon 16
softex 16
somjin 16
soother 16
sorella 16
sorter 16
south@@ 16
souvin@@ 16
sparkplug 16
spf40 16
sporti@@ 16
spritz 16
spy@@ 16
squared 16
sso 16
stamper 16
steamboat 16
steelseries 16
straighten@@ 16
stride 16
sulley 16
summ@@ 16
surfing 16
surprezza 16
swissgear 16
sws 16
sylvanian 16
syma 16
t530 16
t6@@ 16
tactics 16
tainer 16
tappet 16
tazanna 16
td 16
teaching 16
teaser 16
technic 16
techno 16
tekken 16
tenda 16
tenga 16
tening 16
tgph 16
thank@@ 16
thinking 16
thumb@@ 16
tigernu 16
tini 16
tmx125 16
toecap 16
toki 16
tongs 16
transit 16
trendsetter 16
tri-fold 16
triu@@ 16
trophy 16
tural 16
tvi 16
tweety 16
tyr 16
u1 16
u2 16
ua@@ 16
uhs-1 16
ulifeshop 16
un-@@ 16
uncanny 16
undere@@ 16
unic 16
uo@@ 16
uwell 16
v20 16
vagi@@ 16
vanni 16
veria 16
veroni@@ 16
verses 16
very@@ 16
victorinox 16
vik@@ 16
vincent 16
viola 16
vivobook 16
vl 16
vocal 16
vv@@ 16
w-30 16
w1 16
wait 16
wanderlust 16
waway 16
wb@@ 16
west@@ 16
westinghouse 16
whitegold 16
wid@@ 16
wide@@ 16
winker 16
winning 16
wizar@@ 16
wm 16
wristlets 16
wt-@@ 16
wunder@@ 16
x100 16
x125 16
x27 16
xs-3xl 16
yamang 16
yard@@ 16
yasuy 16
yc 16
yee@@ 16
ylang 16
yong@@ 16
youtube 16
yuyu 16
z.@@ 16
zan 16
zashoppe 16
zb500@@ 16
zb555kl 16
zd553kl 16
ze552kl 16
zel@@ 16
zion 16
ᄂ@@ 16
♔ 16
＋ 16
----@@ 15
-2a 15
-44 15
-48 15
-50@@ 15
-core 15
-out 15
-selling 15
.9 15
.h 15
.mxr 15
020@@ 15
062 15
1-20 15
1. 15
1.3kg 15
100mbps 15
1018 15
11.6 15
11cm 15
128g 15
12mp 15
12vdc 15
12yo 15
137@@ 15
144@@ 15
150mbps 15
17inch 15
18-24mos 15
180mm 15
1982 15
1997-@@ 15
19v@@ 15
1hp 15
2-tone 15
2016@@ 15
2018-2019 15
20d 15
218@@ 15
219@@ 15
220mm 15
22g 15
23-@@ 15
2500@@ 15
250mic 15
25c 15
25s 15
25th 15
275@@ 15
286 15
287 15
28g 15
296 15
2ds 15
2inches 15
2nd@@ 15
3- 15
3200@@ 15
320gb 15
34pcs 15
3500 15
356 15
361 15
363 15
364 15
375g 15
380g 15
388 15
3months 15
3ways 15
4-2@@ 15
413@@ 15
44mm 15
453 15
48-@@ 15
4colors 15
5-inch 15
5.1 15
5.1a 15
528 15
570@@ 15
58cm 15
6-12@@ 15
6.3 15
6.8 15
63mm 15
670 15
6mos 15
7-12 15
70gsm 15
715 15
726 15
752 15
760 15
788 15
79store 15
7c 15
7grams 15
8.4 15
8.5x@@ 15
8001 15
822@@ 15
884 15
889 15
8c 15
8pc 15
9000 15
9082 15
915 15
923 15
950ml 15
970 15
988 15
99-@@ 15
9c 15
9to@@ 15
a1@@ 15
aaaa 15
aape 15
acacia 15
acts 15
adar@@ 15
adora 15
adr 15
agv 15
aikas 15
air1 15
akashi 15
akh 15
alam@@ 15
alpha@@ 15
amas 15
amen@@ 15
ampu@@ 15
analyn 15
anew 15
aning 15
anpanman 15
ant-man 15
anto@@ 15
anu@@ 15
anxiety 15
aph 15
apolo@@ 15
aquaman 15
aquarius 15
arabian 15
aran@@ 15
argy@@ 15
aritaum 15
armand@@ 15
armature 15
aromagicare 15
arrived 15
arte 15
artsy 15
arya 15
as-@@ 15
asd 15
asdas@@ 15
asive 15
assi 15
atc 15
attitude 15
audio@@ 15
autho@@ 15
avante 15
awg 15
awra 15
b20 15
bache@@ 15
bacolo@@ 15
baking@@ 15
bandouliere 15
barn 15
basa 15
baskets 15
baso 15
bayong@@ 15
beaut@@ 15
bejewelled 15
bela 15
beren@@ 15
beret 15
berlin 15
bing@@ 15
bingo 15
biotic 15
birthdays 15
bladder 15
blanche 15
blood@@ 15
boardshort 15
body-@@ 15
boku 15
bonjour 15
bosi 15
brianwallpaper 15
brilli@@ 15
bronzing 15
brooks 15
bruce 15
bss 15
bst@@ 15
btm-@@ 15
bunch 15
c-4@@ 15
c30@@ 15
caffe 15
calli@@ 15
camino 15
capri@@ 15
carmat 15
carou@@ 15
carto@@ 15
case- 15
cathkidston 15
catrice 15
caul@@ 15
ccc 15
celerio 15
celeron 15
cellet 15
chained 15
charac@@ 15
charge@@ 15
charmee 15
checker@@ 15
cheri@@ 15
chies 15
choices 15
christine 15
cine@@ 15
cino 15
circus 15
citi@@ 15
cken 15
clash 15
claudia 15
cleats 15
cleo 15
cloak 15
closet@@ 15
clou@@ 15
coat@@ 15
coca-cola 15
cock@@ 15
cod100 15
codbaby 15
cofee 15
coffee@@ 15
cold-pressed 15
colonia 15
combos 15
cons 15
constru@@ 15
conta@@ 15
cop 15
cordy@@ 15
cosmo 15
cosmo@@ 15
cpp 15
cr2032 15
crimping 15
crisper 15
cultural 15
czy 15
daniella 15
darkblue 15
darna 15
daug@@ 15
daugh@@ 15
davidson 15
decad@@ 15
deci@@ 15
dela 15
detailer 15
dez 15
dfc 15
diag@@ 15
dim 15
dirk 15
disci@@ 15
dishes 15
disneyland 15
displayport 15
donal@@ 15
dorbz 15
dow@@ 15
dude 15
dumbb@@ 15
dunlop 15
duralite 15
durian 15
dxf 15
dynamics 15
dyse 15
econo@@ 15
edges 15
edo 15
ef-@@ 15
eki 15
ela@@ 15
elasti@@ 15
elec@@ 15
electronics 15
ell@@ 15
ellana 15
elmer 15
embrace 15
emer@@ 15
ento 15
envelop 15
equi@@ 15
erson 15
esqui@@ 15
everbilena 15
eving 15
ewa 15
ex-@@ 15
exerciser 15
exo-@@ 15
explore 15
exposed 15
extention 15
eyed@@ 15
facemasks 15
fanmade 15
fantas@@ 15
fashio 15
fastener 15
feat@@ 15
fen 15
ffin 15
fh 15
fibre 15
fibre@@ 15
flasher 15
flies 15
floodlight 15
flori@@ 15
floure@@ 15
folic 15
formation 15
foxy 15
francis 15
fukusawa 15
fume 15
future@@ 15
g-0@@ 15
g2000 15
gami 15
garden@@ 15
gav@@ 15
getti 15
gfo@@ 15
ghan 15
ghost@@ 15
gig 15
gintama 15
glamskin 15
glycerin 15
gnon 15
goose 15
gplus 15
grace@@ 15
gran 15
grind 15
gtr 15
gucci@@ 15
guet 15
guitars 15
guri 15
hac-@@ 15
haha 15
handbook 15
handle@@ 15
hate 15
haw 15
hazel@@ 15
high-heeled 15
highchair 15
hol-free 15
holder@@ 15
hoola 15
hp-@@ 15
https 15
hummer 15
hv@@ 15
hydrate 15
hyyh 15
iam 15
ians 15
ical 15
icase 15
idrinks 15
infe@@ 15
infuser 15
inking 15
inner@@ 15
inspi@@ 15
instamu@@ 15
insur@@ 15
integr@@ 15
iphone4g 15
ipl 15
ipo@@ 15
j105 15
j110 15
j72015 15
jami@@ 15
jav@@ 15
jerhigh 15
jerky 15
jessa 15
jewelry@@ 15
jouer 15
jsn@@ 15
juliet 15
jys 15
k-on 15
kaf@@ 15
kali 15
kalinga 15
kapaver 15
karla 15
kei 15
kero@@ 15
ketchup 15
kettle@@ 15
keyhole 15
kiki 15
kimmy 15
kity 15
koi@@ 15
koya 15
kutis 15
kwen@@ 15
l2 15
l8@@ 15
lace-@@ 15
lage 15
lahat 15
laser@@ 15
latory 15
layering 15
lenn 15
lent 15
lever@@ 15
lga1151 15
lgbt 15
lide 15
lifan@@ 15
lifestyles 15
lillard 15
limitless 15
lique 15
lita 15
literature 15
littles 15
lium 15
liz@@ 15
llium 15
llll@@ 15
loader 15
loam 15
logan 15
lovcat 15
lozen@@ 15
lq-@@ 15
luma 15
lumee 15
lumi@@ 15
lustrous 15
lvs 15
m-0@@ 15
m-a 15
m8@@ 15
madame 15
madonna 15
magician 15
majesty 15
makecua 15
maki 15
makinis 15
manic 15
maped 15
marina 15
marte 15
marvelous 15
masculine 15
mastermind 15
mate20@@ 15
megabass 15
megam@@ 15
menu 15
mercy 15
meridian 15
mideer 15
mil 15
mini1 15
mira@@ 15
mizu@@ 15
mline 15
mobile-@@ 15
moc 15
modelling 15
money@@ 15
monge 15
more@@ 15
motard 15
muay 15
mute 15
myo@@ 15
n-strike 15
n7100 15
nbody 15
nece@@ 15
neko 15
new-@@ 15
next@@ 15
nezuko 15
nfc 15
ni-@@ 15
nics 15
nighty 15
nit 15
nlt 15
no1 15
nouri@@ 15
nozzles 15
nsw 15
nw 15
obi 15
oflex 15
online@@ 15
oooo@@ 15
orbit 15
orchi@@ 15
organization 15
orgasm 15
orihiro 15
orland@@ 15
ortho@@ 15
oscill@@ 15
owls 15
oxy@@ 15
p6 15
pair@@ 15
patri@@ 15
patriot 15
patron 15
pawnble 15
pentagon 15
perming 15
peroxide 15
physi@@ 15
physio@@ 15
pilat@@ 15
pilip@@ 15
pilots 15
pinkie 15
pint 15
pipe@@ 15
piper 15
pits 15
piu 15
pj@@ 15
pk-@@ 15
polar@@ 15
politan 15
ponytails 15
positi@@ 15
pota@@ 15
powders 15
ppo 15
premi@@ 15
premix 15
presario 15
prima@@ 15
pro.@@ 15
proc@@ 15
process 15
professor 15
prop 15
prostate 15
provi@@ 15
pt-@@ 15
pullo@@ 15
pulp 15
pumice 15
puti 15
px 15
pz 15
qr 15
quaker 15
quat@@ 15
ra-@@ 15
raiders 15
rangers 15
ration 15
rd-@@ 15
reaper 15
reconstru@@ 15
red-@@ 15
redminote@@ 15
reed 15
reina 15
rejuv@@ 15
rena 15
repel@@ 15
rera 15
rev 15
rhythm 15
ribbo@@ 15
rig 15
rii 15
rika 15
rims 15
root@@ 15
rosehips 15
rot@@ 15
rowell 15
rubberize 15
ryo 15
s90 15
saina 15
sale.@@ 15
samra 15
sans@@ 15
sarong 15
saucers 15
scarminator 15
scentio 15
scuba 15
sculpture 15
scythe 15
secre@@ 15
sedi@@ 15
servo 15
seye 15
sg-@@ 15
shading 15
shang 15
sheena 15
shiela 15
shiwn 15
shments 15
shoppers 15
shr@@ 15
shs 15
shuttle 15
simm@@ 15
sip 15
skate@@ 15
skittles 15
sleeveles 15
slotted 15
soar 15
soci@@ 15
softcase 15
softcover 15
solar@@ 15
soled 15
sore 15
soside 15
spawn 15
spf45 15
spices 15
spiritual 15
splat@@ 15
splice 15
springfield 15
sprint 15
ssance 15
stant 15
stat 15
status 15
stem@@ 15
stenci@@ 15
stered 15
stics 15
stille@@ 15
stique 15
stoys 15
str 15
submarine 15
sugar-free 15
sul 15
sunglas@@ 15
sunray 15
surgitech 15
survivor 15
swagger 15
swal@@ 15
swat 15
t-phox 15
tad@@ 15
tag@@ 15
tage 15
tail@@ 15
taking 15
taku 15
tammy 15
tanako 15
tation 15
tatting 15
team@@ 15
teme@@ 15
terre 15
tet 15
thebalm 15
there@@ 15
thorn 15
thrill 15
ti-@@ 15
tings 15
tly 15
toki@@ 15
top- 15
tore 15
toyo 15
tractor 15
trad@@ 15
trafal@@ 15
tranexamic 15
tread@@ 15
tres 15
triske@@ 15
tuf 15
tyjewelry 15
tyle 15
u3 15
uchi@@ 15
ugly 15
um-@@ 15
underseat 15
upon 15
upri@@ 15
urium 15
us10 15
us6 15
ushas 15
ushi 15
uti 15
ux@@ 15
v.2 15
v3.0 15
v4.1 15
valencia 15
varnish 15
ve-@@ 15
vebajaj 15
vege@@ 15
vely 15
vement 15
vh 15
vibr@@ 15
vil@@ 15
vines 15
vivibag 15
vol.1 15
vou@@ 15
vv 15
wander 15
wanli 15
wasabi 15
wcf 15
weaved 15
wee@@ 15
wendy 15
wf-@@ 15
whate@@ 15
whisk@@ 15
win10 15
winter@@ 15
wolves 15
wome 15
workers 15
writ@@ 15
x2@@ 15
xc 15
xen 15
xen@@ 15
xl-4xl 15
xp-@@ 15
xps 15
y-pad 15
y.co 15
y.s 15
y9-2019 15
yankees 15
yeah 15
yellow@@ 15
yeon 15
yokai 15
yon@@ 15
yosi 15
yp 15
z00@@ 15
zb50@@ 15
zb551kl 15
zipp@@ 15
zq@@ 15
⿻ 15
𝐍@@ 15
𝐎@@ 15
𝐓@@ 15
,000@@ 14
-18@@ 14
-230 14
-47 14
0-1 14
0-9 14
0006 14
011@@ 14
02-@@ 14
041 14
0917 14
1.2v 14
1.5a 14
1000g 14
100l 14
1016 14
109@@ 14
1130 14
12.5 14
1288 14
129@@ 14
12l 14
13g 14
1650 14
1701 14
19.5@@ 14
19.@@ 14
190ml 14
1966 14
196@@ 14
2-8 14
2. 14
2.0a 14
200a 14
2011-@@ 14
2023 14
20oz 14
211@@ 14
214@@ 14
215@@ 14
2300 14
24oz 14
25m 14
26-27 14
267 14
279 14
290@@ 14
294 14
2x1 14
30t 14
33cm 14
34-44 14
362 14
36a 14
372 14
375ml 14
391 14
392 14
40p 14
420@@ 14
424 14
440 14
443 14
4b 14
4x2 14
5020 14
517 14
574 14
588 14
590 14
59mm 14
6-10 14
601@@ 14
615 14
617 14
635 14
658 14
673 14
678@@ 14
69-@@ 14
690 14
693 14
6b 14
6kg 14
7.5g 14
728 14
785 14
8003 14
812 14
860 14
899 14
8d 14
8kg 14
9-1 14
904 14
90mm 14
912 14
926 14
928 14
96-@@ 14
960 14
991 14
998 14
9mm 14
a- 14
a8-@@ 14
a88@@ 14
acious 14
acup 14
ada@@ 14
adams 14
adia 14
adjust@@ 14
aime 14
aiwa 14
alba 14
aliyah 14
allu@@ 14
alupe 14
analy@@ 14
angan 14
anna@@ 14
aof@@ 14
apink 14
aq-230@@ 14
aquap@@ 14
asso@@ 14
athan 14
atlanta 14
atomic 14
atty 14
b11@@ 14
babi@@ 14
babolat 14
baggage 14
bahay 14
baile 14
bales 14
ballet@@ 14
barbell 14
barber@@ 14
barrow 14
bbing 14
bcbg 14
bd 14
belkin 14
berger 14
beware 14
bial 14
bie@@ 14
binaur@@ 14
bird@@ 14
blister 14
blocked 14
borne 14
bour@@ 14
brad 14
bram 14
brave@@ 14
bravo 14
brs 14
bt0@@ 14
bubble@@ 14
bubi 14
bud@@ 14
bugatti 14
bump 14
bump@@ 14
bur 14
c001 14
c01 14
c02 14
c3@@ 14
cab 14
cai 14
cake@@ 14
callie 14
cally 14
capsu@@ 14
castor@@ 14
castrol 14
cat5e 14
cath@@ 14
cavali@@ 14
cb125 14
champion@@ 14
chang 14
chat@@ 14
cherries 14
chine@@ 14
chon@@ 14
christopher 14
ciaga 14
cio 14
cit 14
cities 14
ckk 14
clan 14
classique 14
compet@@ 14
comput@@ 14
concentr@@ 14
concor@@ 14
contigo 14
contr@@ 14
cooked 14
copen@@ 14
corona 14
cort 14
cottage 14
coul@@ 14
cp-1 14
cpe 14
crash@@ 14
creati@@ 14
creature 14
croft 14
crossed 14
cruel@@ 14
cta 14
culotte 14
cupid 14
currant 14
curtis 14
cuts 14
d-s@@ 14
dab@@ 14
dah 14
dancer 14
dapper 14
darkness 14
dazz@@ 14
deer@@ 14
dehumidifier 14
deore 14
derella 14
destroyer 14
diff 14
dispen@@ 14
distortion 14
distress 14
distribu@@ 14
dodge 14
doi@@ 14
dometer 14
dono 14
dremel 14
dsa 14
dudu 14
duhan 14
duo@@ 14
dw-@@ 14
dyed 14
each@@ 14
eas 14
efs 14
elai@@ 14
electrolux 14
eliner 14
ency 14
encyclo@@ 14
enix 14
ensemble 14
ental 14
ente 14
environ@@ 14
ery@@ 14
es. 14
essentielle 14
everyone 14
excite 14
exo@@ 14
feed@@ 14
ffin@@ 14
fia 14
ficent 14
fiel@@ 14
figur@@ 14
fili@@ 14
finer 14
fing@@ 14
flocked 14
flourish 14
fluff@@ 14
flytrap 14
footw@@ 14
force@@ 14
forever@@ 14
fps 14
fragr@@ 14
freak@@ 14
fron@@ 14
frosty 14
g50@@ 14
ga-100 14
gai@@ 14
gano 14
garcia 14
gaux 14
gazelle 14
gbps 14
gen1 14
geon 14
ginkgo 14
gold-@@ 14
golden@@ 14
gradu@@ 14
granite 14
grim 14
groove 14
grown 14
gsb 14
gua 14
guad@@ 14
guarantee 14
gue@@ 14
gum@@ 14
gump@@ 14
gund@@ 14
gymn@@ 14
h2@@ 14
hao 14
hardwood 14
hario 14
havit 14
hawai@@ 14
headwrap 14
hear 14
hedge@@ 14
hhhh@@ 14
highest 14
hive 14
hop@@ 14
hops 14
horiz@@ 14
hoya 14
hugs 14
hx-@@ 14
i9300 14
ie-@@ 14
iled 14
incre@@ 14
indul@@ 14
inferno 14
influ@@ 14
install 14
inten@@ 14
ipen 14
iphone7plus 14
ism 14
isse 14
itor 14
jab@@ 14
jak@@ 14
japan@@ 14
jays 14
jeans@@ 14
jian 14
joh@@ 14
jordan@@ 14
joshua 14
jus@@ 14
k20@@ 14
k5@@ 14
k70@@ 14
kali@@ 14
kart 14
kaya 14
kayla 14
keima@@ 14
kens 14
keri 14
kiehls 14
kili@@ 14
kirby 14
kitchenaid 14
kkar 14
kko 14
kls 14
kout 14
laco@@ 14
lada 14
leader@@ 14
lem 14
levin 14
lex@@ 14
lexar 14
lf 14
lg@@ 14
liam 14
lites 14
lities 14
lobster 14
log@@ 14
logo@@ 14
longbo 14
loren@@ 14
loud@@ 14
ltc 14
lude 14
lumen 14
lumix 14
luster 14
lw@@ 14
m365 14
madness 14
mand 14
manizer 14
marke@@ 14
marque@@ 14
mate30@@ 14
mathemat@@ 14
mature 14
max3 14
mayo 14
mdr-xb@@ 14
mechani@@ 14
medium-@@ 14
michi@@ 14
microusb 14
mikasa 14
mikey 14
mir 14
mira 14
miro@@ 14
mirrored 14
miumiu 14
mized 14
mlt-@@ 14
mmed 14
mmy 14
model@@ 14
modu@@ 14
mone 14
moodtape 14
moomin 14
motul 14
mpy 14
muda 14
multilayer 14
murder 14
n. 14
nach@@ 14
nary 14
nh 14
nichi@@ 14
nighter 14
nipp@@ 14
nitro@@ 14
no.2 14
nubuck 14
nutcracker 14
och@@ 14
off-road 14
oma 14
ooak 14
oolong 14
oto@@ 14
palermo 14
pantone 14
pass@@ 14
patty 14
pebbled 14
pepsi 14
perler 14
phil@@ 14
pico 14
piso@@ 14
pistol 14
pixi@@ 14
place@@ 14
plate@@ 14
platfor@@ 14
play-doh 14
pogo 14
pon 14
primo 14
protable 14
prs 14
puffy 14
quer@@ 14
qun@@ 14
r4 14
rabeanco 14
rage@@ 14
raisins 14
rally 14
rami@@ 14
ranch 14
ready@@ 14
rebel@@ 14
redness 14
refe@@ 14
reflection 14
reflectori@@ 14
regul@@ 14
rela@@ 14
rem 14
remix 14
replace@@ 14
restock@@ 14
ricoh 14
rika@@ 14
rk-@@ 14
ro-@@ 14
robinson 14
rolly 14
rops 14
rub@@ 14
ruff@@ 14
rus@@ 14
s26 14
sain@@ 14
salva@@ 14
samine 14
santi@@ 14
santo 14
satur@@ 14
saturday 14
sch 14
scul@@ 14
sday 14
seam@@ 14
settlement 14
shad@@ 14
shezi 14
ships 14
shiro@@ 14
sible 14
silence 14
simo 14
simplicity 14
slant 14
slv 14
sm-t@@ 14
smudge 14
snoo@@ 14
software 14
solit@@ 14
sot 14
spaghet@@ 14
span 14
spf20 14
squal@@ 14
ssp@@ 14
ssss 14
steady 14
stepper 14
stere@@ 14
stria 14
stron@@ 14
stuart 14
stylu@@ 14
sui@@ 14
sutton 14
swing@@ 14
symmetry 14
sympho@@ 14
tae@@ 14
taffy 14
tam 14
tarot 14
teclas@@ 14
tein 14
tendre 14
tissot 14
titani@@ 14
tm-@@ 14
tok 14
tong@@ 14
topaz 14
tornado 14
tourister 14
towel@@ 14
tpb 14
tpc 14
trailer 14
trapeze 14
treme@@ 14
triple@@ 14
tru 14
trun@@ 14
try@@ 14
tting 14
tune@@ 14
u-1@@ 14
ub@@ 14
ui 14
uki 14
ulo 14
univer@@ 14
unknown 14
us8 14
v5.0 14
valor 14
veg@@ 14
velocity 14
veno@@ 14
ver.@@ 14
vil 14
virgin@@ 14
vision@@ 14
vixx 14
warming 14
watch-@@ 14
wc 14
wik@@ 14
wireless-@@ 14
wit 14
witcher 14
wol@@ 14
won 14
wwww@@ 14
x360 14
xion 14
xl-@@ 14
xl-xxl 14
xper@@ 14
xxs 14
y1 14
yak 14
yankee 14
yco 14
yoda 14
yum 14
z1@@ 14
z4 14
zap@@ 14
zaya 14
zin@@ 14
zipper@@ 14
zom@@ 14
zzaro 14
£ 14
ᅩ@@ 14
▼ 14
◆ 14
♧ 14
𝐭@@ 14
---@@ 13
-08@@ 13
-13@@ 13
-15 13
-3.@@ 13
-3000 13
-3a 13
-in 13
-o 13
-r@@ 13
.size 13
0011 13
008@@ 13
01-0@@ 13
01-@@ 13
03-@@ 13
066 13
069 13
071 13
080@@ 13
088 13
094 13
1.00 13
1.8g 13
1010@@ 13
1013 13
1024@@ 13
10b 13
10w40 13
1106 13
110mm 13
116@@ 13
1200w 13
12x 13
12y 13
145g 13
15-5@@ 13
160mm 13
165g 13
165ml 13
175@@ 13
1801 13
2-7 13
2.2@@ 13
2.5g 13
2010@@ 13
2025 13
20t 13
20w@@ 13
21-@@ 13
228@@ 13
237ml 13
2400@@ 13
244 13
24g 13
255@@ 13
277 13
278@@ 13
284 13
288@@ 13
299@@ 13
2xu 13
3-3@@ 13
3-8 13
3.8 13
3001 13
321 13
32b 13
35-@@ 13
357 13
3604 13
360g 13
373 13
378@@ 13
382 13
398@@ 13
4-5y 13
4-7@@ 13
406 13
409 13
40m 13
40t 13
415@@ 13
441 13
45-@@ 13
460@@ 13
475@@ 13
4v 13
5-10 13
5-7@@ 13
5-9 13
50a 13
515 13
522 13
526 13
529 13
5500 13
550w 13
5580 13
55w 13
575 13
6.5@@ 13
6050 13
61-@@ 13
6500@@ 13
65mm 13
66-@@ 13
661 13
672 13
680g 13
699 13
6c 13
709 13
729 13
740 13
753 13
768 13
780 13
8007 13
860@@ 13
9-12m 13
9006 13
907 13
918 13
921 13
925silver 13
951 13
981 13
985 13
a1000 13
a170@@ 13
a18@@ 13
a2dp 13
aaron 13
accu@@ 13
accur@@ 13
ache@@ 13
aer@@ 13
afri@@ 13
ain@@ 13
ald@@ 13
alight 13
allstar 13
alpac@@ 13
alpine@@ 13
amer 13
analysis 13
angie 13
ap-@@ 13
arium 13
army@@ 13
athering 13
atic 13
atra@@ 13
aver@@ 13
awakening 13
awe@@ 13
azure 13
b10 13
babygap 13
bamb@@ 13
batt@@ 13
bau@@ 13
bca@@ 13
beautifully 13
belif 13
bian@@ 13
bibi@@ 13
bigz 13
billy 13
biz@@ 13
bloom@@ 13
blp@@ 13
blythe 13
bode@@ 13
boon 13
border@@ 13
borg 13
bpa@@ 13
br-@@ 13
bran@@ 13
brandon 13
braun 13
broke 13
buil@@ 13
bushi@@ 13
butler 13
bv 13
c-2@@ 13
c.c 13
cach@@ 13
cade 13
calculus 13
camer@@ 13
cara@@ 13
carbonate 13
cash@@ 13
cdg 13
celand 13
cells 13
chara 13
chic@@ 13
choi 13
cia@@ 13
cic 13
cif 13
cis 13
clut@@ 13
colic 13
conair 13
cond@@ 13
continu@@ 13
cork@@ 13
cosbaby 13
cotton-@@ 13
count@@ 13
coupe 13
cra 13
cryst@@ 13
cule 13
d8 13
dae 13
darker 13
dary 13
datsun 13
dbi 13
dding 13
depen@@ 13
derrick 13
deuter 13
dget 13
diablo 13
diam@@ 13
dida 13
dil@@ 13
dong@@ 13
dread@@ 13
drew 13
dt-@@ 13
dutti 13
dyn@@ 13
e.l.f 13
e5-57@@ 13
e5-@@ 13
ean 13
edifier 13
elastics 13
eller 13
esc@@ 13
ete 13
ev 13
evelyn 13
evol@@ 13
excalibur 13
excel@@ 13
excit@@ 13
fait 13
fanclub 13
fantasia 13
fati@@ 13
fault 13
flor@@ 13
flow@@ 13
found 13
fran 13
fre 13
fted 13
gabrielle 13
gaga 13
gato 13
gawa 13
geographic 13
geons 13
geor@@ 13
getaway 13
gger@@ 13
ghibli 13
gile 13
glass@@ 13
glutam@@ 13
goes 13
goggle 13
grandista 13
great@@ 13
grin@@ 13
gsx-@@ 13
gta 13
guest 13
guys 13
gz@@ 13
h11 13
hammer@@ 13
hannah@@ 13
hawks 13
hc-@@ 13
hdr 13
helios 13
hitman 13
hks 13
hoco 13
holtz 13
hr-@@ 13
huang 13
hus@@ 13
husky 13
i3-@@ 13
i8 13
ibm 13
ido 13
ill@@ 13
illy 13
ima@@ 13
incredi@@ 13
iner@@ 13
inex 13
inpods12 13
intensity 13
irwin 13
isabelle 13
italia 13
itek 13
iw@@ 13
j-hope 13
j3@@ 13
jada 13
jane@@ 13
jodi 13
jor@@ 13
josh 13
joyful 13
jsy 13
jx@@ 13
kam 13
kashi@@ 13
keyless 13
keystone 13
kiko 13
kine@@ 13
kki@@ 13
kle 13
kp@@ 13
l-2@@ 13
lance 13
lans@@ 13
ler@@ 13
leten 13
lily@@ 13
listen 13
llama 13
loe 13
logue 13
lolli@@ 13
loween 13
lp-@@ 13
luk 13
lulu@@ 13
lumina 13
lution 13
ly-@@ 13
lys@@ 13
lz@@ 13
mafex 13
magaz@@ 13
maison 13
makes 13
mala 13
marsh@@ 13
mata 13
mbal 13
mbox 13
medicin@@ 13
mediterrane@@ 13
meli@@ 13
melville 13
mess@@ 13
mick@@ 13
minni@@ 13
mistine 13
misty 13
mlc 13
moi 13
moistu@@ 13
molle 13
mosa 13
munch@@ 13
nalgene 13
nament 13
natalie 13
nda 13
nei@@ 13
nept@@ 13
nero 13
neu@@ 13
new.@@ 13
nf 13
nib@@ 13
nismo 13
no3 13
no5 13
noo@@ 13
nostal@@ 13
nsk 13
nude@@ 13
obey 13
oi 13
onaire 13
onesi@@ 13
onite 13
orion 13
oro@@ 13
osu@@ 13
otto@@ 13
outline 13
p15 13
p2p 13
p5@@ 13
p6@@ 13
palettes 13
palm@@ 13
pao@@ 13
paraiba 13
pedr@@ 13
pencil@@ 13
pete 13
peter@@ 13
pez 13
philipp 13
phine 13
phy 13
physiology 13
ping@@ 13
plein 13
pokki 13
polka@@ 13
pomelo 13
porto@@ 13
ppa 13
pres@@ 13
proce@@ 13
projects 13
promotion 13
pse 13
punch@@ 13
pus 13
questions 13
race@@ 13
rec 13
refriger@@ 13
rell 13
resort 13
resur@@ 13
rex@@ 13
rf@@ 13
rhino@@ 13
rine 13
riri 13
rival 13
rive@@ 13
rocky 13
rome 13
romix 13
rtr 13
runaway 13
ruyi 13
rw@@ 13
[...]
