/ 76537
( 58302
) 57790
for 54130
" 45148
- 23368
dress 23050
with 22965
bag 22025
case 21203
, 21149
and 20887
set 19865
's 17431
! 16847
cod 16362
& 15634
# 15372
women 13936
black 13277
new 13196
1 13053
top 12847
men 12598
korean 12167
size 11911
fashion 11024
in 10999
shoes 10867
plus 10610
2 10417
kids 10116
3 10089
authentic 9869
white 9817
original 9745
baby 9650
shirt 9510
preloved 9394
the 9281
: 7860
mini 7838
of 7775
by 7737
sale 7444
+ 7146
gold 7107
samsung 6996
. 6898
blue 6825
cotton 6775
high 6727
4 6590
w 6522
quality 6471
watch 6397
to 6330
[ 6300
sling 6286
] 6276
iphone 6180
ladies 6176
shorts 6176
free 6164
x 5978
terno 5970
5 5864
pants 5854
6 5783
design 5763
a 5749
pro 5690
\ 5569
on 5556
long 5539
cream 5506
silver 5358
glass 5354
short 5329
box 5207
floral 5199
red 5166
soap 5153
blouse 5119
mask 5094
pink 5074
body 5000
100 4994
shoulder 4905
cover 4901
hard 4865
light 4787
7 4690
% 4589
8 4418
color 4378
nike 4378
leather 4362
unisex 4344
tempered 4208
backpack 4172
* 4154
10 4081
face 4081
hair 4079
usb 4057
m 3995
one 3949
| 3943
denim 3936
oil 3925
green 3870
skin 3861
hand 3858
led 3848
pack 3807
small 3807
phone 3776
live 3703
casual 3691
necklace 3683
t-shirt 3594
s 3584
oppo 3554
car 3477
wallet 3466
ring 3462
brand 3441
sandals 3436
hello 3432
stainless 3402
matte 3368
skirt 3340
polo 3313
pcs 3255
back 3250
lip 3244
kitty 3231
-@@ 3226
piece 3179
up 3178
soft 3177
huawei 3160
girl 3126
battery 3109
holder 3100
printed 3099
i 3078
bluetooth 3054
plain 3046
water 3019
bracelet 3010
earrings 2997
cute 2994
all 2983
style 2977
sexy 2966
jacket 2958
t 2943
perfume 2916
socks 2914
air 2885
gel 2884
girls 2881
only 2859
large 2857
charger 2814
e 2786
12 2783
off 2760
kit 2756
c 2750
powder 2742
cable 2731
full 2728
2018 2687
waterproof 2682
h 2658
old 2657
l 2631
sleeve 2598
jeans 2588
power 2581
e@@ 2572
lotion 2561
rubber 2558
steel 2557
mobile 2551
super 2548
max 2539
vivo 2538
summer 2534
us 2526
g 2517
pouch 2514
portable 2506
toy 2480
whitening 2478
premium 2452
medium 2445
card 2434
bottle 2429
lace 2420
big 2407
wireless 2403
d 2399
beauty 2391
book 2388
couple 2385
k@@ 2385
magic 2384
out 2381
g@@ 2326
selling 2314
brush 2302
series 2299
secret 2295
tshirt 2287
100ml 2281
from 2274
tops 2271
s@@ 2267
motorcycle 2243
travel 2238
sports 2224
bath 2223
' 2214
bags 2203
assorted 2195
bundle 2193
per 2176
strap 2173
print 2164
sticker 2161
good 2158
love 2143
20 2129
re@@ 2129
b 2125
lite 2114
no 2113
o 2096
galaxy 2086
or 2079
adidas 2078
n 2077
cap 2071
p@@ 2066
mens 2064
t@@ 2049
x@@ 2035
de 2034
star 2024
belt 2022
heart 2016
inspired 1996
bra 1991
stand 1987
fit 1973
ml 1973
mouse 1973
3d 1964
d@@ 1955
rose 1954
coach 1941
speaker 1937
sleeveless 1916
neck 1915
2019 1910
ultra 1910
waist 1904
flower 1900
i@@ 1896
universal 1895
japan 1890
double 1883
hot 1880
clear 1868
9 1865
pen 1861
flat 1846
made 1846
lipstick 1844
y 1837
my 1834
fan 1825
18k 1821
character 1820
y@@ 1818
sleeves 1812
round 1810
c@@ 1805
2016 1804
brown 1804
organizer 1804
n@@ 1801
note 1801
plastic 1801
tote 1800
m@@ 1798
k 1796
tea 1791
b@@ 1785
onhand 1781
swimsuit 1779
j7 1777
crop 1773
l@@ 1762
apple 1761
italy 1756
2017 1752
camera 1752
a@@ 1746
adult 1737
pocket 1737
milk 1732
6s 1726
2in1 1710
candy 1710
victoria 1707
tee 1706
o@@ 1700
classic 1699
edition 1699
jewelry 1691
tpu 1687
dark 1683
natural 1677
spray 1676
best 1669
organic 1659
30 1658
take 1654
wall 1654
romper 1653
liquid 1652
prime 1651
f@@ 1649
stripe 1632
11 1631
r 1622
care 1621
collection 1621
paper 1615
toys 1615
boys 1612
type 1610
boy 1609
coffee 1609
u 1596
shampoo 1593
two 1589
v@@ 1588
yellow 1587
r@@ 1586
metal 1584
bar 1579
mist 1577
home 1575
j@@ 1574
gray 1570
storage 1568
branded 1567
tint 1567
pure 1565
trendy 1565
electric 1564
pad 1558
headset 1556
doll 1550
dual 1547
slim 1545
clothes 1539
50 1530
u@@ 1527
facial 1525
cut 1524
protector 1519
eye 1517
game 1512
colors 1502
h@@ 1502
wash 1494
arrival 1493
pendant 1491
skinny 1489
cat 1484
z@@ 1481
cartoon 1478
side 1478
check 1475
chain 1471
casio 1467
sando 1466
in@@ 1464
me 1462
laptop 1459
checkout 1457
party 1443
dog 1439
v 1422
2@@ 1419
food 1412
glow 1412
maxi 1410
smart 1408
21 1404
panty 1400
pillow 1396
shockproof 1396
vintage 1394
nature 1393
10@@ 1392
hoodie 1392
knitted 1391
school 1391
screen 1389
inches 1386
clip 1385
a7 1380
pop 1376
92.5 1375
cup 1375
buy 1374
gift 1374
korea 1374
de@@ 1370
swimwear 1366
pc 1363
silicone 1363
16 1361
8@@ 1361
bikini 1361
navy 1360
mickey 1356
serum 1351
grams 1349
little 1349
.@@ 1342
saudi 1339
w@@ 1339
5@@ 1338
charm 1338
unicorn 1336
xiaomi 1333
2020 1331
3@@ 1329
6@@ 1329
towel 1327
costume 1326
tees 1326
wear 1325
head 1324
pencil 1324
shop 1324
lv 1322
12pcs 1320
michael 1316
ing 1312
works 1307
stripes 1306
handbag 1304
bear 1300
li@@ 1299
nova 1298
man 1295
15 1283
anti 1282
low 1280
bts 1276
mirror 1273
xl 1272
z 1272
disney 1271
3in1 1261
sport 1260
digital 1259
foam 1254
go 1253
18 1250
as@@ 1249
se@@ 1247
le@@ 1246
lens 1241
shipping 1237
happy 1234
vitamin 1232
xs 1231
cherry 1230
an 1220
p 1217
se 1215
1@@ 1214
collagen 1213
square 1212
lacoste 1211
orange 1207
elegant 1206
sneakers 1205
kors 1204
genuine 1202
4@@ 1201
basketball 1201
fast 1201
oem 1200
makeup 1192
toner 1191
gucci 1190
overruns 1187
fresh 1186
co@@ 1182
mk 1182
single 1182
kitchen 1176
al@@ 1174
shirts 1174
ball 1173
tie 1170
9@@ 1160
2015 1159
handle 1159
keychain 1158
to@@ 1157
board 1155
frame 1153
pre-loved 1151
tape 1149
f 1148
way 1148
as 1146
chocolate 1146
stick 1146
inch 1145
ink 1143
bangkok 1136
5s 1134
60 1132
asus 1129
formal 1124
crystal 1121
jumpsuit 1120
pajama 1120
nba 1119
redmi 1117
12@@ 1114
fashionable 1113
_ 1111
jordan 1108
womens 1107
you 1103
ar@@ 1099
adapter 1097
nail 1097
accessories 1092
an@@ 1092
me@@ 1090
button 1082
7@@ 1081
sun 1080
zipper 1079
mio 1078
sony 1075
canvas 1073
pet 1069
kid 1067
slippers 1066
mi@@ 1063
lamp 1062
tube 1060
360 1059
running 1057
front 1056
ed 1051
powerbank 1051
leggings 1050
forever 1043
it 1034
figure 1032
sold 1031
shoe 1020
table 1020
wooden 1015
years 1013
0@@ 1012
ro@@ 1012
velvet 1010
ri@@ 1007
cross 1006
bavin 1003
charging 1003
statement 1000
di@@ 999
children 998
coin 998
washable 994
eau 992
king 990
mo@@ 987
heels 983
lucky 982
earphone 981
shock 981
st@@ 977
limited 976
essential 972
house 972
purse 971
24 969
christmas 968
jelly 966
pearl 964
13 958
diamond 958
10pcs 957
14 957
band 957
am@@ 954
ac@@ 952
le 952
cleansing 949
filter 947
blush 945
ba@@ 944
office 944
oz 944
50ml 943
personalized 943
es 942
pre 942
special 942
conditioner 941
fragrance 941
al 938
ph 938
lo@@ 933
mix 933
er@@ 932
925 930
adjustable 929
micro 927
jogger 926
palette 925
pro@@ 924
ribbon 923
night 922
funko 921
stone 920
ti@@ 919
mat 918
cloth 917
perfect 916
wallpaper 916
er 914
thailand 914
eyebrow 912
la 910
@ 909
aloe 907
can 906
zenfone 905
fabric 904
her 903
album 902
day 902
j2 901
stretchable 900
time 899
jersey 898
outdoor 897
touch 897
j 896
si@@ 896
balloon 895
mate 894
hp 892
bed 891
150 890
un@@ 890
bank 889
door 889
price 889
art 888
guard 888
a37 887
is 886
code 885
android 884
tool 882
25 881
birthday 880
tester 880
hd 878
available 877
princess 877
40 876
a3s 876
proof 876
pair 875
slip 875
car@@ 873
beach 871
f5 871
kate 869
switch 869
j5 868
rechargeable 868
sh@@ 868
wrap 868
diy 867
mi 867
curtain 864
version 864
key 863
f7 862
bi@@ 861
te@@ 860
blazer 859
en@@ 858
months 858
grey 857
machine 857
edge 856
sp@@ 856
po@@ 855
longsleeve 851
be@@ 848
cheek 847
ma@@ 847
make 846
lock 844
suit 844
tv 844
.. 843
chanel 843
seller 842
armor 841
cleanser 841
dry 841
keyboard 841
wedge 841
juice 840
zara 840
ice 839
pieces 839
foundation 837
clay 836
headband 833
la@@ 832
f9 830
bike 828
human 828
protection 827
6pcs 826
tank 826
t-@@ 824
jumper 823
purple 823
scrub 823
overrun 821
30@@ 819
a5 819
co 816
bb 815
q@@ 815
stickers 815
basic 814
core 813
20@@ 811
toyota 809
spade 807
foil 806
woman 806
2pcs 805
books 805
at 804
lady 804
class 802
lego 802
marvel 802
play 801
brandnew 799
string 799
bodycon 795
gaming 795
a71 794
mg 791
hat 790
5g 789
drive 789
earring 789
logo 789
official 789
chiffon 787
honda 787
plated 786
colored 785
a83 784
guess 783
rejuvenating 783
diaper 782
ers 782
used 782
125 781
su@@ 781
plate 779
y53 777
stud 776
y6 775
at@@ 773
v7 772
ine 770
customized 769
flash 769
pump 769
avon 768
250ml 767
f1s 767
foldable 766
ipad 766
life 766
halter 765
s-@@ 765
ch@@ 764
iron 764
rack 764
semi 763
flip 762
ho@@ 762
ms 762
toddler 760
your 756
polka 755
19@@ 753
adhesive 753
sweater 753
ts 753
00@@ 752
coat 752
eyeshadow 751
order 750
50@@ 749
v11 747
wood 745
30ml 744
sweet 743
70 741
louis 741
essence 740
ly 740
real 740
el@@ 738
18@@ 737
on@@ 737
be 736
decor 736
17 735
• 734
disposable 733
bo@@ 731
ear 731
mesh 731
balm 730
magnetic 730
~ 730
capsules 729
usa 729
tumbler 728
underwear 728
15@@ 727
gluta 726
it@@ 726
ki@@ 726
xr 726
animal 724
cod@@ 723
flats 723
ko@@ 723
photo 722
vuitton 722
16@@ 721
foot 721
ma 719
cm 716
colourpop 716
f3 716
mar@@ 715
mall 714
'@@ 711
mac 711
s8 711
v9 711
mic 710
lu@@ 709
pawnable 709
pull 709
11@@ 707
bedsheet 707
line 707
complete 706
data 705
striped 705
3pcs 702
multi 702
s6 701
500ml 699
acrylic 698
brake 698
half 698
pvc 698
notebook 697
professional 697
cushion 696
pe@@ 696
so@@ 695
ne@@ 694
1pc 693
a59 692
mm 692
luxxe 691
layer 690
60@@ 686
pi@@ 686
cutter 685
frozen 685
queen 684
bu@@ 683
cold 683
wedding 683
package 681
s7 681
v5 680
ukay 679
dream 678
transparent 678
female 677
world 677
infant 676
pads 676
or@@ 675
vera 675
action 673
100@@ 672
fruit 672
13@@ 671
cake 671
200 670
j6 669
remover 669
butterfly 668
items 668
cellphone 667
control 667
sheet 667
32 664
pesos 664
cool 662
automatic 659
j4 659
offshoulder 658
pandora 657
seeds 657
6g 656
10ml 655
replica 655
tag 655
lcd 653
microphone 653
vinyl 653
4in1 652
pan 651
stock 651
16gb 650
cosmetics 649
honey 649
el 648
loved 648
do@@ 647
stereo 647
y71 647
bow 646
cleaner 645
dc 645
innisfree 645
seat 645
clutch 644
pin 643
city 642
down 642
minnie 642
ds 640
marikina 639
... 638
first 638
paint 638
01 637
converse 637
longsleeves 637
onesie 637
gathering 636
500 634
tree 634
urban 632
25@@ 630
plush 630
pre@@ 630
rice 630
14@@ 629
fits 629
simple 629
speed 629
vi@@ 629
90 628
sugar 628
deep 626
p20 626
extra 625
19 624
7g 624
block 624
safety 622
80 620
folding 620
no@@ 620
ab@@ 619
carter 618
glutathione 618
moisturizing 618
uv 618
imported 616
wholesale 616
wild 616
ad@@ 615
slingbag 614
self 613
we 613
ra@@ 612
acid 611
rainbow 611
snail 611
sunglasses 611
hi@@ 610
wifi 610
crochet 609
sa 608
yrs 608
a6 607
not 607
gundam 606
heavy 606
ation 605
dresses 605
f11 605
mug 605
tools 605
wire 605
motor 604
hanging 603
80@@ 602
ch 602
tone 602
ac 601
checkered 601
model 601
paris 601
loose 600
thick 600
newborn 598
net 597
nylon 596
ready 596
th@@ 596
35 594
ps 594
ni@@ 593
rear 593
spring 592
kojic 591
lg 590
longchamp 590
mascara 590
planner 590
cards 589
highwaist 589
1.@@ 588
aluminum 588
colorful 588
glitter 588
cardigan 587
shape 586
gu@@ 585
nursing 585
barbie 584
con@@ 583
peach 583
vans 583
port 582
bangle 581
drink 581
ls 581
embroidered 580
lenovo 580
lights 580
mango 580
silicon 580
sis 580
turban 579
maroon 576
random 576
v11i 576
fila 575
a8 573
legends 573
quick 573
helmet 570
display 569
ar 568
crossbody 568
ap@@ 567
cosmetic 567
do 567
grade 567
jansport 567
less 566
flare 565
graphic 565
my@@ 565
money 564
family 563
kylie 563
36 562
grip 561
like 561
classy 560
clean 560
duty 560
for@@ 560
cc 559
each 559
slimming 559
ceramic 558
scent 558
solar 558
gear 557
y91 557
-0@@ 556
a50 556
ce@@ 556
slipper 556
100g 555
polish 555
silk 555
panda 554
pore 554
pot 554
32gb 553
shower 553
lemon 552
racing 552
ss 552
boots 551
japanese 550
luxury 550
shield 550
spoon 550
bracket 549
maong 549
en 548
go@@ 548
bowl 547
daily 547
gown 547
q 546
am 545
brow 545
pony 545
3-@@ 544
g-@@ 544
y81 543
1kg 542
etude 542
neoprene 542
s9 542
sa@@ 542
spaghetti 542
ai@@ 541
ta 541
yo 541
5.5 540
bagpack 540
d-@@ 539
freesize 539
remote 539
c-@@ 538
croptop 538
gap 538
ootd 538
roller 538
sd 537
snap 535
anime 534
28 533
ang 533
g-shock 533
music 533
hk 531
sealed 531
st 531
ver 531
chair 530
da 530
retro 530
24@@ 529
40@@ 529
romoss 529
5pcs 528
ca 528
non 528
link 527
tri@@ 527
mint 526
-3@@ 525
pattern 525
sun@@ 524
stitch 523
charcoal 522
ta@@ 522
tutu 522
200ml 521
magnet 521
realme 521
ss@@ 521
umbrella 521
angel 520
na 520
y69 520
letter 519
protective 519
2.0 518
carbon 518
cu@@ 518
da@@ 517
ver@@ 517
sizes 515
anti-@@ 514
blanket 514
ex@@ 514
hero 514
jo@@ 514
neo 514
sleepwear 512
use 512
a5s 511
contact 511
gloves 511
roll 511
visor 510
23 509
caps 509
8g 508
miracle 508
ankle 506
pa@@ 506
dragon 504
gi@@ 504
onesies 504
prints 504
j1 502
17@@ 501
-2@@ 500
beads 500
souvenir 500
cord 499
republic 499
stuffed 499
charge 498
clothing 498
thin 498
violet 498
5ml 497
du@@ 497
plug 497
shine 497
60ml 496
bar@@ 496
fi@@ 495
moon 495
v-neck 495
treatment 494
alloy 493
breathable 493
film 493
ps4 493
rashguard 493
a-@@ 492
golden 492
ii 492
baking 491
repair 491
replacement 491
a39 490
ka 490
2-@@ 489
te 489
facemask 488
knee 488
aqua 487
now 487
open 487
socket 486
lee 485
y9 485
zip 485
master 484
pig 484
quartz 484
earphones 483
teens 483
candle 482
cars 482
egg 482
he@@ 482
batman 481
infinity 481
games 480
jade 480
mount 480
bamboo 479
jumpshort 479
ter 479
royal 478
chi@@ 477
anello 476
crown 476
j8 476
mermaid 476
5d 475
beige 475
pa 475
patch 475
6plus 474
air@@ 474
sponge 474
tablet 474
age 473
auto 473
crocs 473
collar 472
l-@@ 472
acne 471
cs 471
designs 471
ins 471
min@@ 471
th 471
fiber 470
cd 469
dsn 469
lunch 469
push 469
brief 468
rain 468
100pcs 467
baseball 467
window 467
yamaha 467
based 466
mosquito 466
250 465
analog 465
how 465
metallic 465
wax 465
ph@@ 464
solid 464
v15 464
alcohol 463
fairy 463
ing@@ 463
wheel 463
3i 462
plant 462
mother 461
base 459
ke@@ 459
pc@@ 459
001 458
50pcs 458
pastel 458
ko 457
parfum 457
ve 457
year 457
boss 456
nintendo 456
support 456
uniqlo 456
wars 456
02 455
drawstring 455
fe@@ 455
kpop 455
butter 454
iconic 454
sc@@ 454
150ml 453
under 453
ve@@ 453
300 452
padded 452
tommy 452
ya 452
110 451
carrier 451
glossy 451
privacy 451
sets 451
sim 451
64gb 450
ge@@ 450
m-@@ 450
per@@ 450
a30 449
ana 449
22 448
35@@ 448
fish 448
male 448
slit 448
26 447
99 447
avengers 447
ka@@ 447
sandal 447
signature 447
so 447
street 447
2.@@ 446
a10 446
factory 446
meter 446
washi 445
5a 444
je@@ 444
ra 444
rare 444
ryx 444
um 444
blade 442
php 442
balloons 441
ca@@ 441
get 441
herbal 441
pokemon 441
xa 441
easy 440
maybelline 440
1-@@ 439
22@@ 437
3.0 437
f1 437
id 437
45 436
ci@@ 436
ck 436
e-@@ 436
mu@@ 436
regular 436
alibaba 435
der 435
dispenser 435
lauren 435
vest 435
bare 434
marc 434
mtg 434
tu@@ 434
ong 433
4pcs 432
dolphin 432
incipio 432
orig 432
satin 432
soothing 432
bl@@ 431
ler 431
nmax 431
salt 431
hu@@ 430
cartridge 429
les 429
moisture 429
delivery 428
ks 428
wave 428
ag@@ 427
drop 427
starbucks 427
strawberry 427
avent 426
nude 426
spandex 426
therapy 426
zoom 426
a33 425
days 425
poster 425
tattered 425
toe 425
capsule 424
ce 424
supreme 424
gun 423
ed@@ 422
duo 421
luggage 421
4g 420
glue 420
instant 420
item 420
pairs 420
shell 420
winter 420
bulb 419
fine 419
guitar 419
4-@@ 418
boho 418
ty 418
edt 417
ted 416
american 415
handmade 415
120 414
a4 414
pullover 414
sheets 414
spf 414
vape 414
wonder 414
-4@@ 413
ali@@ 413
liner 413
memory 413
toothpaste 413
apparel 412
arm 412
jo 412
lightning 412
tassel 412
grand 411
melissa 411
mon@@ 411
90@@ 410
bt21 410
s5 410
seamless 410
ku@@ 409
living 409
pu@@ 409
s3 409
son 409
tablets 409
6-@@ 408
stuff 408
a57 407
hood 407
laneige 407
ling 407
15ml 406
7plus 406
acer 406
sneaker 406
active 405
finger 405
midi 405
scale 405
we@@ 405
boxer 404
elite 404
sex 404
stylus 404
28@@ 403
ak@@ 403
babies 403
canon 403
clearance 403
gas 403
stretch 403
vacuum 403
27 402
awei 402
standard 402
starter 402
wet 402
fo@@ 401
papaya 401
ter@@ 401
bsco 400
pan@@ 400
promo 400
puff 400
tail 400
2i 399
computer 399
solution 399
bright 398
flavor 398
snow 398
33 397
a20 397
bubble 397
hook 397
knit 396
massage 396
purpose 396
swimming 396
50g 395
coconut 395
p9 395
stain 395
suede 395
cash 394
over 394
selfie 394
toilette 394
audio 393
bucket 393
creative 393
38 392
ate 392
garden 392
heat 392
ina 392
kiss 392
liptint 392
s4 392
straw 392
wide 392
combo 391
keratin 391
wa@@ 391
26@@ 390
88@@ 390
blossom 390
cycling 390
hub 390
0.@@ 389
clock 389
mat@@ 389
more 389
bicycle 388
ite 388
missha 388
sea 388
sleeping 388
31 387
36@@ 387
cor@@ 387
daughter 387
products 387
ru@@ 387
x-@@ 387
brilliant 386
chrome 386
puzzle 386
ralph 386
tripod 386
3.@@ 385
s. 385
bvlgari 384
choco 384
army 383
dvd 383
extension 383
ga@@ 383
tr@@ 383
concealer 382
lo 382
5-@@ 381
burberry 381
electronic 381
j7pro 381
peeling 381
reusable 381
leaf 380
aha 379
headphone 379
affordable 378
bible 378
drill 378
headphones 378
sf 378
sm 378
young 378
bottom 377
legit 377
ripped 377
vita 377
dust 376
mp@@ 376
os 376
70@@ 375
bears 375
ly@@ 375
personal 375
supplies 375
ur@@ 375
j3 374
jack 374
trend 374
disc 373
fu@@ 373
just 373
packaging 373
tray 373
10k 372
12v 372
a9 372
comfortable 372
eyeliner 372
sm@@ 372
system 372
ty@@ 372
32@@ 371
exo 371
sale@@ 371
400 370
gr@@ 370
gra@@ 369
klein 369
outfit 369
pipe 369
y55 369
container 368
man@@ 368
scarf 368
spa 368
s10 367
end 366
ons 366
camouflage 365
cas@@ 365
laser 365
bottles 364
ge 364
j2prime 364
refill 364
vanilla 364
are 363
ford 363
p30 363
tire 363
yoga 363
makapal 362
manual 362
protect 362
tamiya 362
ting 362
vs 362
75 361
force 361
gen 361
hdmi 361
ig@@ 361
super@@ 361
turtle 361
als 360
flowers 360
product 360
1st 359
die 359
flashlight 359
pretty 359
stylish 359
toothbrush 359
tribal 359
approx 358
havaianas 358
no.@@ 358
plaid 358
y95 358
a31 357
america 357
captain 357
dove 357
gym 357
dr. 356
kg 356
ship 356
t-shirts 356
ul@@ 356
xundd 356
8plus 355
anne 355
b-@@ 355
basket 355
bleaching 355
overlap 355
55@@ 354
au@@ 354
shopee 354
twice 354
a70 353
ic 353
s1 353
500g 352
bnew 352
hand@@ 352
mary 352
radio 352
uni@@ 352
blocks 351
floor 351
mer@@ 351
rock 351
tomato 351
gh@@ 350
prada 350
primer 350
sporty 350
blend 349
chinese 349
let 349
honor 348
mitsubishi 348
bass 347
charms 347
hellokitty 347
jbl 347
sweat 347
03 346
cargo 346
knife 346
lavender 346
nova3i 346
number 346
peel 346
pl@@ 346
banana 345
mah 345
mom 345
room 345
-1 344
bell 344
decoration 344
htp 344
p10 344
po 344
ram 344
spiderman 344
24k 343
hooded 343
inflatable 343
coco 342
fire 342
jar 342
wi@@ 342
yo@@ 342
ys 342
sterling 341
straight 341
watches 341
xsmax 341
ated 340
essentials 340
tic 340
drifit 339
formula 339
har@@ 339
tiger 339
tory 339
cr@@ 338
glasses 338
gloss 338
ke 338
lebron 338
magical 338
shadow 338
ste@@ 338
cropped 337
miss 337
pcs. 337
woven 337
14k 336
bench 336
cleaning 335
cologne 335
decal 335
gshock 335
harry 335
ity 335
rope 335
bathroom 334
controller 334
desk 334
dish 334
ir@@ 334
jacobs 334
meters 334
ol@@ 334
sk@@ 334
cam 333
rosegold 333
bal@@ 332
can@@ 332
cases 332
grill 332
kobe 332
massager 332
p-@@ 332
ton 332
wired 332
128gb 331
34 331
ant 331
auth 331
fork 331
pin@@ 331
s-m 331
swim 331
us@@ 331
cabinet 330
ha@@ 330
kipling 330
malone 330
sauce 330
ck@@ 329
microfiber 329
nokia 329
space 329
surgical 329
sy@@ 329
triple 329
wrist 329
dial 328
par@@ 328
88 327
otg 327
236ml 326
choker 326
der@@ 326
muscle 326
sakura 326
stamp 326
dy@@ 325
him 325
leaves 325
men@@ 325
ref 325
29 324
ju@@ 324
lasting 324
name 324
nu@@ 324
pool 324
sachet 324
4s 323
berry 323
mo 323
sy 323
20ml 322
balance 322
bat@@ 322
elastic 322
eyeglasses 322
feeding 322
inner 322
pu 322
raincoat 322
sandisk 322
tech 322
y-@@ 322
y17 322
500@@ 321
cat@@ 321
deodorant 321
nose 321
nyx 321
press 321
sky 321
olive 320
potter 320
es@@ 319
rush 319
seed 319
ace 318
ft 318
g21 318
headlight 318
kyrie 318
volume 318
br@@ 317
hanger 317
hermes 317
j7prime 317
200@@ 316
8gb 316
highlighter 316
ply 316
1l 315
7-@@ 315
aztec 315
rash 315
soul 315
sunflower 315
underarm 315
bag@@ 314
extract 314
g4 314
humidifier 314
masks 314
san@@ 314
sign 314
ion 313
ios 313
smooth 313
sti@@ 313
ze@@ 313
aerox 312
banner 312
blender 312
part 312
sound 312
; 311
lin@@ 311
shi@@ 311
wipes 311
39 310
eyelash 310
mas@@ 310
1000 309
ashley 309
bri@@ 309
deluxe 309
dots 309
k-@@ 309
video 309
a35 308
burch 308
ds@@ 308
modern 308
ordinary 308
comb 307
coordinates 307
invitation 307
maternity 307
multi-@@ 307
multifunctional 307
rabbit 307
satchel 307
shade 307
three 307
wrench 307
5in1 306
cupcake 306
cups 306
puma 306
sn@@ 306
ah 305
cal@@ 305
deo 305
health 305
ment 305
y15 305
yu@@ 305
0 304
desktop 304
lips 304
nice 304
v2 304
neon 303
thermal 303
ze 303
120ml 302
che@@ 302
cosrx 301
curler 301
pambahay 301
dot 300
joy 300
4x 299
hy@@ 299
length 299
photocard 299
180 298
player 298
pleated 298
removal 298
tab 298
watts 298
> 297
sunscreen 297
the@@ 297
wheels 297
ba 296
booster 296
bralette 296
cooler 296
et 296
forever21 296
liter 296
ms. 296
nova2i 296
sense 296
ultimate 296
10g 295
fitness 295
mid 295
pockets 295
37 294
38@@ 294
ang@@ 294
compact 294
english 294
is@@ 294
maker 294
mold 294
monster 294
tan 294
75@@ 293
ator 293
dangling 293
friends 293
hilfiger 293
pp@@ 293
sample 293
swarovski 293
34@@ 292
dior 292
lovely 292
mos 292
rattan 292
superman 292
very 292
bohemian 291
bra@@ 291
di 291
fm 291
m1 291
mc@@ 291
painting 291
pre-order 291
resistant 291
sh 291
adults 290
hydrating 290
mini@@ 290
pressed 290
backless 289
comics 289
james 289
mineral 289
skin@@ 289
42 288
av@@ 288
gs 288
perfumes 288
v-@@ 288
,@@ 287
bumper 287
garlic 287
new@@ 287
playstation 287
sho@@ 287
supplement 287
300ml 286
club 286
custom 286
dye 286
hose 286
panel 286
qu@@ 286
cy@@ 285
educational 285
charles 284
cooling 284
ella 284
fantasy 284
studio 284
training 284
1m 283
breast 283
building 283
gb 283
kay 283
monitor 283
sam@@ 283
sock 283
ah@@ 282
char@@ 282
click 282
clips 282
dogs 282
ings 282
mark 282
002 281
200g 281
and@@ 281
chest 281
edp 281
ff@@ 281
giveaways 281
handheld 281
monkey 281
smiggle 281
a10s 280
bb@@ 280
bee 280
bib 280
ct@@ 280
cube 280
lot 280
nails 280
pen@@ 280
pod 280
shades 280
sofa 280
true 280
zero 280
1080p 279
27@@ 279
bodysuit 279
dy 279
pr@@ 279
safe 279
110@@ 278
45@@ 278
boost 278
ct 278
messenger 278
rings 278
y85 278
48 277
8-@@ 277
able 277
anna 277
herschel 277
in-ear 277
pressure 277
relief 277
faux 276
ja@@ 276
paperback 276
sheer 276
20000mah 275
champion 275
chicken 275
ga 275
knot 275
passport 275
y51 275
3m 274
bs 274
cami 274
organics 274
beautiful 273
christian 273
trimmer 273
150@@ 272
eco 272
story 272
tin 272
valve 272
41 271
han@@ 271
marble 271
cooker 270
fake 270
sunnies 270
col@@ 269
dash 269
decals 269
hole 269
pens 269
sticky 269
ance 268
fitted 268
kimono 268
legend 268
rhinestone 268
ballpen 267
camping 267
kiddie 267
leopard 267
mixed 267
pe 267
tokong 267
type-c 267
armour 266
bo 266
ear@@ 266
ps3 266
store 266
twin 266
ben@@ 265
bio@@ 265
gri@@ 265
op@@ 265
scented 265
skincerity 265
stars 265
4a 264
cam@@ 264
ever 264
gentle 264
reversible 264
anastasia 263
business 263
comfy 263
k10 263
moisturizer 263
mp 263
nlighten 263
peplum 263
tissue 263
tra@@ 263
vneck 263
101 262
comfort 262
detergent 262
exclusive 262
flex 262
garterized 262
hybrid 262
lining 262
london 262
mari@@ 262
seal 262
bestseller 261
coloring 261
era 261
merry 261
screw 261
slide 261
strip 261
55 260
fun 260
hair@@ 260
packs 260
sen@@ 260
alarm 259
learning 259
med 259
tip 259
29@@ 258
400@@ 258
a20s 258
diffuser 258
leg 258
multicolor 258
oversized 258
stroller 258
u.s 258
y67 258
65 257
ard 257
bur@@ 257
em@@ 257
feminine 257
ny 257
ster 257
xperia 257
9-@@ 256
cocktail 256
f-@@ 256
f11pro 256
fur 256
monopod 256
mustard 256
ng 256
printer 256
res 256
rich 256
sweatshirt 256
theme 256
1pcs 255
2.4a 255
20pcs 255
blackpink 255
boutique 255
geneva 255
indoor 255
ll@@ 255
naked 255
w-@@ 255
4gb 254
four 254
french 254
hyundai 254
raider 254
ringer 254
wristlet 254
85@@ 253
cetaphil 253
circle 253
lingerie 253
lte 253
mb@@ 253
philips 253
size@@ 253
supply 253
tor@@ 253
xrm 253
350 252
ban@@ 252
bento 252
buttons 252
cctv 252
faucet 252
lever 252
water@@ 252
10000mah 251
a50s 251
ber@@ 251
calamansi 251
cre@@ 251
mal@@ 251
plains 251
snapback 251
ws 251
270 250
95 250
cc@@ 250
ou@@ 250
star@@ 250
tupperware 250
120@@ 249
actual 249
bunny 249
cutting 249
focus 249
laundry 249
lip@@ 249
lol 249
one@@ 249
parts 249
power@@ 249
250@@ 248
angle 248
colour 248
garter 248
gr5 248
heel 248
karaoke 248
lan@@ 248
mixer 248
sleep 248
stay 248
tela 248
ten@@ 248
99@@ 247
bas@@ 247
center 247
matting 247
sublimation 247
beat 246
den@@ 246
extreme 246
ha 246
manila 246
rc 246
slime 246
step 246
xxl 246
68 245
ballet 245
chic 245
clinique 245
non-@@ 245
off-shoulder 245
skater 245
xa1 245
300@@ 244
black@@ 244
eyes 244
flamingo 244
halloween 244
healing 244
included 244
last 244
144 243
brightening 243
doctor 243
land 243
mine 243
moly 243
robot 243
sanitizer 243
tony 243
y7 243
adventure 242
amazing 242
carters 242
cri@@ 242
don 242
ex 242
macbook 242
marker 242
ous 242
ruffled 242
shaped 242
sw@@ 242
versace 242
3.5mm 241
85 241
aid 241
bre@@ 241
cell 241
cro@@ 241
flo@@ 241
keith 241
natasha 241
ti 241
ves 241
wine 241
33@@ 240
around 240
engine 240
loop 240
may 240
ms@@ 240
season 240
sensor 240
ser@@ 240
seventeen 240
sl@@ 240
3g 239
ating 239
batch 239
con 239
cookie 239
horse 239
photocards 239
spongebob 239
suzuki 239
tent 239
23@@ 238
aa 238
bosch 238
elle 238
liliw 238
nissan 238
pri@@ 238
s.@@ 238
sole 238
tshirts 238
york 238
almond 237
alpha 237
bolt 237
bt@@ 237
c2 237
energy 237
pointed 237
skirts 237
tom 237
4.@@ 236
400ml 236
= 236
child 236
contour 236
ine@@ 236
ribbed 236
43 235
a30s 235
blood 235
buckle 235
chips 235
lightweight 235
msm 235
n-@@ 235
spicy 235
tattoo 235
66 234
flexible 234
fossil 234
lc 234
ley 234
sparkle 234
taylor 234
verse 234
west 234
ag 233
born 233
cl@@ 233
cooking 233
craft 233
intense 233
ker 233
see 233
ters 233
3w 232
bon@@ 232
cactus 232
chopper 232
ll 232
resin 232
she@@ 232
soda 232
sofia 232
72 231
av 231
cb@@ 231
li 231
mm@@ 231
ne 231
re 231
sd@@ 231
surprise 231
toilet 231
track 231
z1 231
2xl 230
? 230
combination 230
fr@@ 230
head@@ 230
max@@ 230
04 229
135 229
bleach 229
dr@@ 229
ele@@ 229
hi 229
{ 229
} 229
5.0 228
64 228
a3@@ 228
chili 228
coral 228
ky 228
loot 228
morning 228
pas@@ 228
.00 227
250g 227
birkenstock 227
cho@@ 227
h-@@ 227
hg 227
horn 227
luna 227
puppy 227
ruffle 227
saw 227
straightener 227
98 226
cheese 226
corner 226
cur@@ 226
jeju 226
lin 226
linen 226
micro@@ 226
nine 226
read 226
za 226
10-@@ 225
2nd 225
ani@@ 225
bandai 225
eraser 225
hardcover 225
jag 225
san 225
syrup 225
underwire 225
v15pro 225
wh@@ 225
24pcs 224
800@@ 224
belle 224
cookies 224
detox 224
dre@@ 224
fa@@ 224
gar@@ 224
hearts 224
ji@@ 224
sticks 224
insert 223
j4plus 223
ocean 223
tinted 223
blouses 222
dri-fit 222
penshoppe 222
slot 222
unlocked 222
☆ 222
bershka 221
bird 221
mega 221
omni 221
panties 221
peppa 221
ren@@ 221
right 221
run 221
spigen 221
wn 221
003 220
embroidery 220
g530 220
ki 220
tin@@ 220
too 220
trolley 220
warm 220
wind 220
.... 219
advanced 219
elf 219
emblem 219
ful 219
healthy 219
naturals 219
paw 219
peanut 219
printing 219
sli@@ 219
wal@@ 219
180@@ 218
1a 218
ding 218
eyeglass 218
flawless 218
her@@ 218
pooh 218
prelove 218
ry 218
vegetable 218
y91c 218
600@@ 217
bel@@ 217
color@@ 217
console 217
eye@@ 217
free@@ 217
frosted 217
gen@@ 217
multifunction 217
student 217
xi@@ 217
zi@@ 217
30g 216
700 216
animals 216
dell 216
envelope 216
fi 216
grinder 216
heroes 216
m20 216
view 216
washing 216
assembly 215
barley 215
bloom 215
cacao 215
cats 215
fun@@ 215
kilo 215
of@@ 215
souvenirs 215
tawas 215
tw@@ 215
y12 215
600 214
adaptor 214
cap@@ 214
sophie 214
trial 214
ware 214
2a 213
az@@ 213
globe 213
m10 213
mario 213
material 213
sided 213
total 213
bro@@ 212
bt 212
creme 212
fitflop 212
na@@ 212
walker 212
win@@ 212
without 212
work 212
6in1 211
blue@@ 211
by@@ 211
dome 211
hi-@@ 211
len@@ 211
liters 211
ness 211
stove 211
tre@@ 211
wool 211
2.5 210
5.@@ 210
6.@@ 210
cm@@ 210
dishwashing 210
drawer 210
gopro 210
mor@@ 210
nut 210
rx 210
teddy 210
vit@@ 210
< 209
any 209
chia 209
ea@@ 209
rgb 209
sunblock 209
6.5 208
ad 208
armani 208
ay@@ 208
clinic 208
dvr 208
finish 208
fold 208
luminous 208
park 208
scents 208
security 208
wa 208
well 208
back@@ 207
bit 207
combi 207
crib 207
glitters 207
jogging 207
ky@@ 207
panini 207
r17 207
this 207
top@@ 207
warranty 207
125ml 206
point 206
thai 206
ven@@ 206
x9 206
7.@@ 205
85ml 205
big@@ 205
coil 205
connector 205
gamepad 205
gsm 205
in1 205
jujube 205
label 205
lion 205
lit@@ 205
44 204
argan 204
bella 204
creamy 204
cy 204
lid 204
por@@ 204
royale 204
sewing 204
ten 204
5t 203
capacity 203
clipper 203
invisible 203
ken@@ 203
lily 203
nano 203
play@@ 203
ps@@ 203
smartphone 203
synthetic 203
1.5 202
75ml 202
airmax 202
backcase 202
daisy 202
ded 202
intensive 202
kar@@ 202
look 202
m2 202
mam 202
patches 202
pour 202
sur@@ 202
05 201
66@@ 201
airpods 201
dolls 201
dri@@ 201
fs 201
shaper 201
shark 201
sniper 201
tg@@ 201
ts@@ 201
wing 201
wo@@ 201
yugioh 201
zen@@ 201
46 200
48@@ 200
away 200
beautederm 200
cle@@ 200
comforter 200
ikea 200
mer 200
tiny 200
vision 200
10m 199
81 199
92 199
feet 199
fox 199
high@@ 199
kingdom 199
lash 199
monogram 199
pal@@ 199
restock 199
spot 199
war 199
5mm 198
beaded 198
bearing 198
boo@@ 198
cm-@@ 198
copy 198
eagle 198
earings 198
eri@@ 198
flap 198
hammer 198
jv 198
precious 198
rs 198
sal@@ 198
58@@ 197
ble 197
deck 197
fan@@ 197
john 197
js 197
multi-function 197
triangle 197
zer 197
135g 196
45cm 196
champ 196
condition 196
dr 196
hd@@ 196
insulated 196
php@@ 196
tower 196
tro@@ 196
tws 196
x2 196
56@@ 195
baby@@ 195
fashion@@ 195
fl 195
great 195
layered 195
lazy 195
ombre 195
owl 195
picture 195
plussize 195
shi 195
spl 195
tsum 195
aeropostale 194
amplifier 194
elephant 194
f21 194
league 194
lie 194
multi@@ 194
red@@ 194
tmx 194
30cm 193
57@@ 193
65@@ 193
ao@@ 193
ap 193
cal 193
driver 193
gg@@ 193
junior 193
miner 193
sk 193
streaming 193
topper 193
° 193
× 193
aquarium 192
bricks 192
cloud 192
derma 192
etc 192
frontrow 192
function 192
luxe 192
post 192
shelf 192
stones 192
v5s 192
va 192
valentino 192
37@@ 191
64@@ 191
benefit 191
ces 191
cordless 191
kirkland 191
milky 191
ml@@ 191
msm.hk 191
nat@@ 191
oven 191
team 191
800 190
cylinder 190
eyewear 190
ino 190
nipple 190
channel 189
drawing 189
ginger 189
opener 189
platinum 189
sand@@ 189
sil@@ 189
truck 189
vo@@ 189
weight 189
78 188
alphabet 188
compatible 188
cucumber 188
gallon 188
jin 188
kn95 188
naruto 188
toddlers 188
tt@@ 188
52 187
bl 187
clo@@ 187
dra@@ 187
gre@@ 187
homme 187
notes 187
revolution 187
rosary 187
speedy 187
teeth 187
activity 186
bakuna 186
bangles 186
boxes 186
cp 186
dar@@ 186
dryer 186
god 186
guide 186
hugo 186
sanrio 186
wings 186
63 185
8pcs 185
96 185
autumn 185
ia 185
tough 185
155 184
different 184
ger@@ 184
jet 184
long@@ 184
match 184
multipurpose 184
pilaten 184
played 184
stocks 184
ua 184
150g 183
amber 183
ans 183
bone 183
bullet 183
hoodies 183
ip@@ 183
mr@@ 183
oval 183
paste 183
spark 183
under@@ 183
1pair 182
degree 182
fall 182
journal 182
mild 182
noodles 182
tan@@ 182
transfer 182
vehicle 182
whole 182
07 181
1000ml 181
130 181
ash 181
feather 181
kw@@ 181
mk@@ 181
ns 181
santa 181
shopping 181
twist 181
wig 181
1-2 180
4k 180
anti@@ 180
daiso 180
drops 180
elizabeth 180
fix 180
freebies 180
ger 180
il@@ 180
kawaii 180
layers 180
myphone 180
pajamas 180
replaceable 180
semi-@@ 180
smith 180
thrones 180
cosplay 179
dolce 179
don@@ 179
gr3 179
mechanical 179
pm 179
pride 179
taiwan 179
18inches 178
21@@ 178
77 178
97 178
amour 178
ampoule 178
ata 178
chi 178
curry 178
dress@@ 178
emergency 178
fl@@ 178
ol 178
op 178
overall 178
p8 178
patrol 178
pillowcase 178
piston 178
♡ 178
5m 177
ara 177
bbq 177
boat 177
bronze 177
clamp 177
file 177
movie 177
ori@@ 177
ro 177
sand 177
spf50 177
sprocket 177
straps 177
vin@@ 177
virgin 177
y5 177
zed 177
44@@ 176
a1 176
blackhead 176
cli@@ 176
curtains 176
eu 176
five 176
gro@@ 176
handy 176
hydro@@ 176
key@@ 176
ryxskincerity 176
slides 176
snack 176
teen 176
vol 176
54 175
^ 175
ack 175
april 175
calculator 175
dried 175
ff 175
las@@ 175
playboy 175
plu@@ 175
road 175
simply 175
sol@@ 175
soup 175
sr@@ 175
tropical 175
1set 174
62 174
71 174
collectible 174
des 174
diapers 174
earbuds 174
ey@@ 174
giant 174
jumbo 174
nivea 174
pineapple 174
prestige 174
purifier 174
shiseido 174
v8 174
war@@ 174
yourself 174
zing 174
2-in-1 173
a3 173
gal@@ 173
gi 173
ip 173
killer 173
ny@@ 173
oatmeal 173
reseller 173
ry@@ 173
via 173
130@@ 172
d. 172
diary 172
hiking 172
keto 172
nm 172
over@@ 172
pets 172
ride 172
rom 172
sachets 172
seiko 172
2pc 171
5c 171
9h 171
ay 171
compression 171
description 171
et@@ 171
fat 171
gl@@ 171
io 171
mac@@ 171
mb 171
non-slip 171
ona 171
output 171
pedal 171
peripera 171
teal 171
trainer 171
triumph 171
up@@ 171
win 171
xt 171
y66 171
95@@ 170
advance 170
ari@@ 170
characters 170
corn 170
generation 170
glam 170
lab 170
pacifier 170
ruffles 170
tam@@ 170
walking 170
61 169
98@@ 169
bor@@ 169
burner 169
dan@@ 169
fly 169
han 169
intel 169
mag@@ 169
military 169
shot 169
sky@@ 169
things 169
000@@ 168
47@@ 168
500mg 168
blo@@ 168
ders 168
ito 168
left 168
min 168
philippines 168
pins 168
spiral 168
watermelon 168
youth 168
ys@@ 168
000 167
18-@@ 167
69 167
ab 167
but 167
glutamansi 167
khaki 167
lanyard 167
midnight 167
spider 167
test 167
2000 166
2014 166
25pcs 166
2way 166
3ply 166
assy 166
beachkin 166
boyleg 166
briefs 166
choice 166
cks 166
dis@@ 166
durable 166
ery 166
exercise 166
lbs 166
mit@@ 166
ni 166
numbers 166
on-hand 166
pain 166
pilot 166
quaff 166
stan 166
stationery 166
thermometer 166
trending 166
y62018 166
3-in-1 165
68@@ 165
ary 165
beans 165
bling 165
bonnet 165
dozen 165
false 165
fre@@ 165
goggles 165
jan@@ 165
kl 165
lan 165
medical 165
ning 165
retractable 165
s2 165
skechers 165
strechable 165
tf 165
toshiba 165
ye@@ 165
105 164
30pcs 164
47 164
6p 164
aspire 164
christening 164
disk 164
effect 164
everyday 164
oo@@ 164
paul 164
pomade 164
strong 164
tat@@ 164
titanium 164
uno 164
volcanic 164
-5@@ 163
1x 163
39@@ 163
82 163
a5@@ 163
adi@@ 163
b0@@ 163
calvin 163
collections 163
comic 163
cuff 163
drinking 163
fab 163
grid 163
inverter 163
kid@@ 163
lime 163
maam 163
madre 163
morphe 163
napkin 163
shea 163
swing 163
trousers 163
van@@ 163
..... 162
09 162
256gb 162
a.@@ 162
a7@@ 162
designer 162
direct 162
foaming 162
hol@@ 162
ingco 162
ita 162
mommy 162
pat@@ 162
raider150 162
rectangular 162
ways 162
11pro 161
bean 161
brassiere 161
cole 161
george 161
its 161
jasmine 161
mop 161
never 161
sb 161
sleeved 161
y11 161
0-@@ 160
10mm 160
12-@@ 160
1tb 160
2t 160
3xl 160
49 160
76@@ 160
7p 160
ate@@ 160
cs@@ 160
dear 160
dor@@ 160
kill 160
king@@ 160
knight 160
lon@@ 160
melody 160
mossimo 160
optical 160
ors 160
pam@@ 160
peppermint 160
remax 160
saver 160
tactical 160
unique 160
vga 160
42@@ 159
4t 159
80g 159
aromatherapy 159
doctors 159
doraemon 159
drum 159
fer@@ 159
ku 159
lighting 159
prince 159
romantic 159
scissors 159
sin@@ 159
vanity 159
51 158
8.@@ 158
8mm 158
ax 158
baptismal 158
bead 158
ble@@ 158
cha@@ 158
che 158
converter 158
df@@ 158
gingersnaps 158
here 158
household 158
kin@@ 158
ok 158
place 158
sesame 158
shake 158
theft 158
twisted 158
vit 158
writing 158
102 157
2012 157
ami@@ 157
case@@ 157
cel@@ 157
elsa 157
grower 157
kettle 157
mil@@ 157
nmd 157
nova2lite 157
pepper 157
plan@@ 157
powered 157
pur@@ 157
si 157
spinner 157
strength 157
changing 156
farm 156
fendi 156
fin@@ 156
fuel 156
gs@@ 156
hardbound 156
hip 156
instax 156
j710 156
mp3 156
native 156
novel 156
out@@ 156
painted 156
piyao 156
ports 156
20g 155
activated 155
ano 155
beef 155
copper 155
gingham 155
hills 155
nendoroid 155
nuts 155
our 155
wardrobe 155
wiper 155
zircon 155
83 154
antibacterial 154
bay 154
call 154
castor 154
fog 154
footwear 154
gold@@ 154
gt@@ 154
hal@@ 154
jc 154
mr. 154
renew 154
wallets 154
220@@ 153
9.@@ 153
crew 153
dh@@ 153
disinfectant 153
foods 153
glu@@ 153
holiday 153
j-@@ 153
j2pro 153
lipo 153
luffy 153
mouth 153
nourishing 153
superstar 153
vibrator 153
120g 152
40ml 152
baby-g 152
beverly 152
bio 152
cer 152
epson 152
eva 152
global 152
initial 152
j6plus 152
ja 152
kai 152
latest 152
leisure 152
lift 152
rotating 152
roundneck 152
rubberized 152
smile 152
tiffany 152
anchor 151
balls 151
blu@@ 151
com@@ 151
ground 151
international 151
keds 151
munafie 151
ot 151
shimmer 151
shiny 151
state 151
sto@@ 151
ties 151
turmeric 151
unit 151
xbox 151
08 150
6x 150
ak 150
boyfriend 150
braided 150
ent 150
ethyl 150
fas@@ 150
figures 150
hanabishi 150
heng 150
impact 150
italian 150
joy@@ 150
makita 150
onepiece 150
raw 150
reserved 150
tur@@ 150
va@@ 150
vios 150
vr 150
yi 150
3t 149
catcher 149
date 149
fro@@ 149
frogsuit 149
lar@@ 149
lla 149
m-l 149
make-up 149
mj 149
mr 149
musical 149
online 149
pping 149
sink 149
softgels 149
spin 149
tata 149
trio 149
09@@ 148
3.5 148
78@@ 148
accent 148
arts 148
aux 148
candles 148
cast 148
co. 148
coated 148
ela 148
hs-@@ 148
lac@@ 148
lowest 148
manga 148
marine 148
moist 148
oh 148
phones 148
pper 148
que 148
rod 148
thor 148
witch 148
yarn 148
zu@@ 148
accessory 147
attire 147
dv@@ 147
ep 147
ker@@ 147
m3 147
mules 147
omega 147
repacked 147
sf@@ 147
wor@@ 147
160@@ 146
2.1a 146
300g 146
53 146
ach@@ 146
ati@@ 146
bi 146
calendar 146
flow 146
gb@@ 146
hollow 146
hq 146
johnson 146
kidston 146
kin 146
lt@@ 146
ointment 146
performance 146
ray 146
reno 146
sec 146
sha@@ 146
silky 146
snake 146
tar@@ 146
tes 146
ur 146
2gb 145
a79 145
ada 145
before 145
fusion 145
high-@@ 145
hold 145
ken 145
ore 145
pampers 145
projector 145
scooter 145
skincare 145
stri@@ 145
van 145
005 144
bali 144
dickies 144
empty 144
evening 144
fancy 144
fantech 144
harness 144
hobo 144
hoop 144
hunter 144
lightstick 144
mc 144
parisian 144
pre-@@ 144
ram@@ 144
reader 144
son@@ 144
spread 144
06 143
bad 143
cker 143
closet 143
dead 143
flavored 143
geometric 143
himalayan 143
lbc 143
miniature 143
pt 143
ses 143
st. 143
t- 143
thermos 143
v3 143
wr@@ 143
y92019 143
15-@@ 142
73 142
cage 142
chance 142
gm 142
minifigure 142
module 142
sc 142
snoopy 142
strapless 142
tal@@ 142
topshop 142
tt 142
val@@ 142
yn 142
20cm 141
79 141
89 141
bedroom 141
binder 141
bomb 141
carpet 141
dri 141
exfoliating 141
eyelashes 141
fla@@ 141
grass 141
jackets 141
kri@@ 141
melon 141
nikon 141
router 141
trading 141
train 141
uniform 141
004 140
140 140
58 140
8p 140
ane 140
aqu@@ 140
brass 140
ction 140
drying 140
folded 140
fortuner 140
ini 140
klairs 140
memo 140
ments 140
once 140
pick 140
repriced 140
rub 140
ser 140
sp 140
thread 140
through 140
throw 140
ure 140
y6pro 140
1000@@ 139
115 139
25ml 139
ai 139
aircon 139
bioaqua 139
bul@@ 139
dd@@ 139
goo@@ 139
justice 139
lantern 139
motion 139
mtb 139
padlock 139
screwdriver 139
shawl 139
signal 139
v7plus 139
walk 139
ya@@ 139
67 138
6splus 138
750 138
90ml 138
brushes 138
dam@@ 138
dollshoes 138
fe 138
inter@@ 138
md@@ 138
multimedia 138
pinky 138
radiation 138
salon 138
shift 138
splash 138
tex 138
tier 138
400g 137
bread 137
carb 137
chronograph 137
chu@@ 137
cru@@ 137
highquality 137
latex 137
levi 137
luck 137
minimalist 137
needs 137
oshkosh 137
pigment 137
project 137
punch 137
qui@@ 137
rejuvinating 137
solo 137
tour 137
x1 137
x3 137
yes 137
'oreal 136
201@@ 136
aldo 136
aro@@ 136
blooming 136
cath 136
ceiling 136
cutie 136
dinosaur 136
giveaway 136
got7 136
gradient 136
herb 136
hypoallergenic 136
ies 136
intex 136
los 136
magazine 136
map 136
may@@ 136
miners 136
month 136
mountain 136
ninja 136
other 136
p30lite 136
rain@@ 136
razor 136
ren 136
008 135
53@@ 135
86 135
a73 135
brother 135
c.@@ 135
c1 135
detachable 135
express 135
faith 135
hon@@ 135
kat@@ 135
level 135
mt@@ 135
mushroom 135
oils 135
olay 135
ponytail 135
que@@ 135
s- 135
scoop 135
six 135
tion 135
z3 135
zebra 135
't 134
006 134
6.1 134
7a 134
amp 134
artificial 134
cf@@ 134
elbow 134
eli@@ 134
flowy 134
huggies 134
iphonex 134
outlet 134
palm 134
scar 134
sha 134
skull 134
split 134
tags 134
unsealed 134
waisted 134
watercolor 134
15g 133
220 133
ae@@ 133
auto@@ 133
canvass 133
celebrity 133
civic 133
close 133
dance 133
db@@ 133
gabbana 133
i-@@ 133
inside 133
isuzu 133
lar 133
meat 133
ner@@ 133
nestle 133
penguin 133
perry 133
poloshirt 133
pp 133
skinfood 133
slip-on 133
soft@@ 133
some 133
turtleneck 133
u-@@ 133
v17 133
zodiac 133
zz@@ 133
0.5mm 132
160 132
3pc 132
76 132
badge 132
c6 132
daniel 132
duck 132
dynamic 132
fleece 132
forest 132
future 132
gn@@ 132
hw 132
platform 132
rai@@ 132
steamer 132
swiss 132
titan 132
vol@@ 132
wel@@ 132
wolf 132
240 131
3-6 131
3ds 131
900 131
ages 131
ariel 131
banpresto 131
bat 131
best@@ 131
breaker 131
charlotte 131
complex 131
couture 131
donut 131
earth 131
ee@@ 131
gt 131
insect 131
jj@@ 131
maintenance 131
ola 131
radiator 131
specs 131
ssd 131
tennis 131
treats 131
von 131
warmer 131
washer 131
'kitty 130
46@@ 130
9oz 130
anniversary 130
ash@@ 130
ations 130
blower 130
cartier 130
chunky 130
del@@ 130
external 130
gifts 130
ink@@ 130
jump 130
letters 130
lettuce 130
mcm 130
mousse 130
pullout 130
reading 130
second 130
xx@@ 130
zone 130
1,@@ 129
1box 129
2x 129
boston 129
breastfeeding 129
cart 129
cla@@ 129
convertible 129
ghz 129
hyaluronic 129
loreal 129
lotus 129
mia 129
permanent 129
plates 129
powdered 129
rescue 129
rise 129
rose@@ 129
shir@@ 129
sonic 129
stre@@ 129
tas@@ 129
ton@@ 129
yu 129
00 128
1pack 128
350ml 128
aurora 128
curl 128
embossed 128
freshener 128
fujifilm 128
hb@@ 128
hush 128
innova 128
island 128
jam 128
juicer 128
mol@@ 128
multi-purpose 128
mur@@ 128
receiver 128
tarte 128
thrifted 128
wattpad 128
wrangler 128
x10 128
1liter 127
bestway 127
calming 127
comp@@ 127
emoji 127
enhancer 127
fur@@ 127
gy@@ 127
hawk 127
hel@@ 127
j730 127
menow 127
minions 127
mono 127
montero 127
mud 127
on-@@ 127
ramen 127
ron 127
sailor 127
sch@@ 127
sodium 127
spi@@ 127
station 127
sty@@ 127
sunny 127
swift 127
t. 127
transcend 127
what 127
4d 126
7pcs 126
antenna 126
baofeng 126
beatle 126
bha 126
cha 126
cher 126
ches 126
flu@@ 126
hidden 126
kh@@ 126
lia 126
loafers 126
loss 126
nillkin 126
omnia 126
police 126
pro-@@ 126
sharpener 126
168 125
450 125
6a 125
ach 125
arbutin 125
blk 125
c. 125
chef 125
fondant 125
fu 125
hem 125
ition 125
kisses 125
lene 125
ok@@ 125
petite 125
pots 125
sized 125
sparkling 125
str@@ 125
strips 125
t.@@ 125
that 125
tz 125
white@@ 125
wit@@ 125
zo@@ 125
$ 124
1-3 124
2013 124
700@@ 124
750ml 124
aroma 124
break 124
cer@@ 124
d.@@ 124
defense 124
fruits 124
gourmet 124
il 124
joystick 124
k7 124
kim 124
kraft 124
ming 124
people 124
piano 124
py@@ 124
race 124
rider 124
sampler 124
skort 124
temp@@ 124
toms 124
transformer 124
tub 124
venus 124
-01 123
-2 123
3n1 123
77@@ 123
91 123
ale 123
art@@ 123
bars 123
better 123
davis 123
ferrari 123
fluid 123
gh 123
joni 123
kia 123
mel@@ 123
pack@@ 123
photo@@ 123
plum 123
rick 123
science 123
smocked 123
sprayer 123
ssa 123
steering 123
takal 123
transformers 123
trouser 123
vo 123
winnie 123
z5 123
zi 123
170@@ 122
2n1 122
a77 122
absorbent 122
ail 122
arrow 122
autolight 122
bouquet 122
david 122
doormat 122
ering 122
feel 122
gang 122
kk@@ 122
north 122
panasonic 122
pole 122
sion 122
valentine 122
wyi 122
25g 121
3a 121
a40 121
ats 121
cj 121
device 121
fy 121
gildan 121
glo@@ 121
ignition 121
jazz 121
kai@@ 121
kal@@ 121
marie 121
mx@@ 121
nct 121
pc. 121
pk 121
saint 121
sco@@ 121
sed 121
sensitive 121
smoke 121
sol 121
spf@@ 121
strappy 121
studded 121
tran@@ 121
ysl 121
yunteng 121
350@@ 120
40g 120
59@@ 120
a72018 120
ath@@ 120
beer 120
bracelets 120
dge 120
eu@@ 120
flat@@ 120
gam@@ 120
iii 120
industrial 120
plushie 120
preorder 120
pul@@ 120
r-@@ 120
sensual 120
sing 120
squishy 120
styling 120
teether 120
thi@@ 120
trench 120
y19 120
.ph 119
007 119
210 119
ama 119
ates 119
bomber 119
clu@@ 119
crazy 119
form 119
fx 119
gg 119
lle 119
noir 119
ping 119
pit@@ 119
spice 119
spy 119
stop 119
tac@@ 119
wanna 119
2-3 118
4wd 118
acoustic 118
alice 118
artwork 118
beltbag 118
bombshell 118
bond 118
caramel 118
care@@ 118
cul@@ 118
df 118
diesel 118
faced 118
grow 118
home@@ 118
huda 118
jesus 118
jin@@ 118
lyn 118
mai@@ 118
mattress 118
np@@ 118
onyx 118
refrigerator 118
sl 118
soaps 118
suction 118
tide 118
tires 118
trim 118
uk 118
vertical 118
wheat 118
y.o 118
yang 118
3rd 117
43@@ 117
a0@@ 117
a60 117
anti-theft 117
dd 117
den 117
dessert 117
equipment 117
fc 117
hollister 117
hs 117
indian 117
isopropyl 117
lipcream 117
mono@@ 117
organi@@ 117
racer 117
retail 117
sb@@ 117
shopkins 117
sta 117
surf 117
themed 117
tm@@ 117
tokyo 117
upper 117
wat@@ 117
36-40 116
5.2 116
8.5 116
90g 116
bridal 116
bug 116
carry 116
decorative 116
deli@@ 116
dol@@ 116
ever@@ 116
gin@@ 116
ir 116
jeggings 116
lakers 116
low@@ 116
mama 116
ot@@ 116
pt@@ 116
rest 116
seduction 116
tec 116
un 116
welding 116
will 116
05@@ 115
3ml 115
56 115
89@@ 115
ascorbate 115
bands 115
barako 115
baymax 115
blusher 115
chip 115
cow 115
feng 115
icon 115
iphone6 115
juicy 115
las 115
maria 115
milktea 115
placenta 115
prepaid 115
repellent 115
sar@@ 115
saving 115
scato 115
ssy 115
stu@@ 115
terranova 115
y75 115
z2 115
3mm 114
3s 114
ado 114
aveeno 114
chibi 114
dangle 114
flakes 114
france 114
good@@ 114
guaranteed 114
hot@@ 114
note2 114
pie 114
polyester 114
scratch 114
setting 114
shop@@ 114
sof@@ 114
sunshine 114
tai@@ 114
tints 114
tonymoly 114
vent 114
zinc 114
-40 113
57 113
67@@ 113
ashi 113
body@@ 113
buds 113
cdi 113
ci 113
decay 113
divided 113
funny 113
green@@ 113
hen@@ 113
holes 113
ipaky 113
kan@@ 113
kno@@ 113
ltb 113
manicure 113
marks 113
mir@@ 113
molder 113
nu 113
own 113
piggy 113
potato 113
roasted 113
sam 113
scen@@ 113
stream 113
stress 113
trash 113
varsity 113
vinegar 113
ving 113
work@@ 113
y79 113
yam@@ 113
yard 113
'm 112
-c 112
304 112
501 112
59 112
a80 112
ala 112
anti-aging 112
balenciaga 112
covers 112
dai@@ 112
dro@@ 112
drone 112
e.@@ 112
er-@@ 112
flops 112
friendly 112
girdle 112
ino@@ 112
kingston 112
lam@@ 112
lc@@ 112
mags 112
making 112
mod 112
mode 112
nel 112
please 112
regulator 112
rompers 112
ruby 112
rushguard 112
samyang 112
shaver 112
vel@@ 112
warriors 112
★ 112
1.5@@ 111
123 111
19v 111
74 111
ane@@ 111
bbw 111
burst 111
citrus 111
dkny 111
drain 111
ears 111
femme 111
fil@@ 111
fisher 111
fully 111
ga-@@ 111
hard@@ 111
ironman 111
jane 111
lashes 111
lets 111
note8 111
nova5t 111
pant 111
plants 111
reflective 111
release 111
sata 111
stamps 111
storm 111
y6ii 111
zh 111
-free 110
1.5m 110
2011 110
bryant 110
bun@@ 110
c3 110
canadian 110
choose 110
customize 110
designed 110
diet 110
dz 110
em 110
fidget 110
flor@@ 110
glas@@ 110
hazel 110
im 110
kelly 110
operated 110
pic 110
r.@@ 110
rouge 110
sage 110
slicer 110
smash 110
squarepants 110
swan 110
tb 110
ultra@@ 110
unlock 110
vial 110
180ml 109
ace@@ 109
add 109
book@@ 109
cafe 109
chloe 109
combined 109
crepe 109
deer 109
driving 109
floater 109
g.@@ 109
garnish 109
goku 109
grape 109
iphone@@ 109
keimav 109
keys 109
kidswear 109
kit@@ 109
leash 109
market 109
miniso 109
mt 109
playing 109
pulley 109
quilted 109
south 109
stage 109
stephen 109
u.s. 109
v1 109
value 109
vp 109
whi@@ 109
...... 108
82@@ 108
92@@ 108
bangladesh 108
blank 108
built-in 108
california 108
cinderella 108
cocoa 108
colo@@ 108
concentrate 108
correction 108
delight 108
dental 108
diecast 108
evil 108
extender 108
filler 108
flyknit 108
folder 108
hor@@ 108
jigsaw 108
kawasaki 108
lancome 108
lil 108
medicine 108
mto 108
neo7 108
ora 108
oxford 108
oxygen 108
rectangle 108
sanitary 108
steam 108
toycastle3 108
wd 108
windproof 108
y5ii 108
ye 108
5v 107
about 107
aging 107
are@@ 107
aw@@ 107
bandage 107
bolts 107
burn 107
cutlery 107
details 107
euro 107
heads 107
hulk 107
jenna 107
ji 107
kd 107
li-ion 107
lon 107
matt 107
measuring 107
pizza 107
poly@@ 107
pop@@ 107
rust 107
slacks 107
squ@@ 107
sub@@ 107
ture 107
170 106
aero@@ 106
after 106
ami 106
ander 106
brooch 106
buy1take1 106
capri 106
castle 106
cit@@ 106
corset 106
eni@@ 106
fighter 106
firefly 106
grab 106
kevin 106
lay 106
love@@ 106
phi@@ 106
popular 106
protein 106
shimano 106
stem 106
thong 106
wand 106
y6pro2019 106
16-@@ 105
2g 105
450@@ 105
52@@ 105
900@@ 105
absorber 105
ani 105
bilena 105
compartment 105
cookware 105
cross@@ 105
excellent 105
fender 105
fern 105
foot@@ 105
in-@@ 105
infrared 105
kat 105
kie 105
load 105
neo9 105
nutri@@ 105
pimple 105
seasoning 105
sjcam 105
stent 105
tg 105
ung 105
universe 105
wave125 105
x4 105
xi 105
yl 105
zoo 105
08@@ 104
103 104
320 104
49@@ 104
54@@ 104
ade 104
ass@@ 104
buttoned 104
cab@@ 104
cd@@ 104
chuck 104
coverage 104
discount 104
dw 104
espadrille 104
euc 104
flag 104
freeship 104
gy 104
herbs 104
holika 104
hooks 104
hotel 104
kes 104
levis 104
lipsticks 104
lux 104
ms-@@ 104
network 104
pj 104
precision 104
pure@@ 104
r1 104
seven 104
sharp 104
shoppe 104
spe@@ 104
surface 104
trans@@ 104
united 104
whip 104
women@@ 104
yeezy 104
00mah 103
230 103
880@@ 103
8oz 103
abs 103
abstract 103
aidelai 103
bale 103
bang 103
beast 103
bit@@ 103
bn@@ 103
calcium 103
dildo 103
dw@@ 103
final 103
fri@@ 103
ft@@ 103
growth 103
joe 103
keep 103
lang 103
micromatic 103
mugs 103
non-wire 103
paper@@ 103
puritan 103
rejuv 103
removable 103
rm 103
show 103
sta@@ 103
ster@@ 103
t1 103
tips 103
tta 103
two-piece 103
vitamins 103
y91i 103
yan 103
03@@ 102
220v 102
9t 102
ae 102
ale@@ 102
app@@ 102
arden 102
athletic 102
bla@@ 102
bob 102
collapsible 102
detail 102
european 102
flask 102
friend 102
gps 102
heeled 102
lippie 102
loafer 102
local 102
m.@@ 102
matic 102
mazda 102
md 102
mid@@ 102
nor@@ 102
ory 102
rer 102
sel@@ 102
stix 102
tit@@ 102
touchscreen 102
trunk 102
turbo 102
uni 102
02@@ 101
11-@@ 101
2000@@ 101
3000 101
550 101
a-line 101
a. 101
a2 101
aaa 101
all-@@ 101
amethyst 101
belly 101
boy@@ 101
citronella 101
cock 101
dota 101
earing 101
evo 101
flour 101
gem 101
glam@@ 101
goddess 101
gp@@ 101
hershey 101
hop 101
ite@@ 101
iti@@ 101
keeper 101
lay@@ 101
lli@@ 101
m. 101
mothercare 101
ner 101
nia 101
pearls 101
pillows 101
rj 101
runner 101
shui 101
starry 101
superhero 101
sync 101
tab@@ 101
tiktok 101
tulle 101
zy 101
₱ 101
106 100
190@@ 100
4oz 100
abc 100
ack@@ 100
af@@ 100
anklet 100
bandana 100
bk 100
bn 100
bp@@ 100
brazilian 100
clover 100
count 100
cpu 100
crafts 100
dia 100
ee 100
effective 100
felt 100
fol@@ 100
grace 100
hotwheels 100
laminating 100
longback 100
macaron 100
night@@ 100
oral 100
pb 100
pencils 100
postcard 100
rocker 100
silver@@ 100
smok 100
stanley 100
sugar@@ 100
tingi 100
try 100
vault 100
xx 100
xy@@ 100
000mah 99
107 99
360@@ 99
4.0 99
5x@@ 99
6mm 99
72@@ 99
87 99
8in1 99
ann 99
beyblade 99
bir@@ 99
booties 99
colourette 99
ctor 99
eco@@ 99
fal@@ 99
firming 99
gladiator 99
hb 99
hipster 99
huarache 99
ipanema 99
kasoy 99
le-@@ 99
lenses 99
mass 99
mn@@ 99
mystery 99
nutrition 99
originals 99
peeler 99
polymer 99
purposes 99
r9 99
ther@@ 99
twi@@ 99
x5@@ 99
108 98
650 98
7ml 98
9g 98
bc 98
box@@ 98
brick 98
cen@@ 98
damage 98
day@@ 98
emulsion 98
giordano 98
joker 98
kon@@ 98
kyowa 98
lic 98
life@@ 98
oni@@ 98
pi 98
pia 98
picks 98
propolis 98
rac@@ 98
rim 98
safari 98
secrets 98
squeeze 98
techniques 98
tooth 98
und 98
zb@@ 98
12m 97
abaca 97
alo@@ 97
angel@@ 97
aura 97
backpacks 97
birth 97
bite 97
bride 97
buy1 97
crayon 97
derm 97
esprit 97
far@@ 97
fit@@ 97
gasket 97
give 97
glittery 97
gram 97
handkerchief 97
in-1 97
incense 97
ines 97
k1 97
kong 97
laguna 97
lightening 97
minion 97
olivia 97
re-@@ 97
sig@@ 97
spider-man 97
sushi 97
tap 97
tick 97
twin@@ 97
wrinkle 97
xy 97
y9@@ 97
009 96
127 96
2-way 96
201 96
280 96
2x@@ 96
5x 96
6-12 96
a8@@ 96
cannon 96
cing 96
circular 96
curved 96
dashboard 96
decorations 96
dip 96
ely 96
engineering 96
expert 96
fiction 96
fishing 96
gum 96
hifi 96
iu 96
ivory 96
katerina 96
len 96
lette 96
lines 96
lov@@ 96
lover 96
many 96
modular 96
mx 96
neo@@ 96
non-stick 96
pikachu 96
poreless 96
quad 96
revlon 96
sav@@ 96
set@@ 96
takara 96
tc 96
thomas 96
topsider 96
twinkle 96
ut 96
vary 96
whistle 96
width 96
01@@ 95
1.0@@ 95
4ml 95
alma 95
apron 95
ase 95
aya 95
bentonite 95
bookmark 95
cadbury 95
champagne 95
ching 95
chocolates 95
cia 95
creations 95
els 95
fountain 95
gas@@ 95
ges 95
gie 95
grain 95
have 95
hyper 95
jean 95
kt 95
laced 95
laminated 95
lootbag 95
magenta 95
martin 95
medi@@ 95
panther 95
rat 95
recorder 95
samsonite 95
she 95
sj@@ 95
stories 95
tle 95
tracker 95
tri-color 95
vapor 95
vaseline 95
175 94
1g 94
41-45 94
600ml 94
aesthetic 94
amulet 94
amy 94
buttondown 94
cereal 94
cone 94
crocodile 94
eos 94
est 94
feeder 94
flight 94
fra@@ 94
g1 94
giorgio 94
gon 94
headbands 94
his 94
hydro 94
j5prime 94
jumpshorts 94
l.@@ 94
lp 94
materials 94
od@@ 94
pond 94
prin@@ 94
romance 94
sante 94
skydrive 94
sle@@ 94
trap 94
tte 94
turquoise 94
ved 94
vie 94
vy 94
y67v5s 94
zen 94
118 93
16oz 93
3-4@@ 93
alkaline 93
amore 93
atomizer 93
australia 93
avail 93
b.@@ 93
basics 93
beaute 93
bu 93
caliper 93
candies 93
chan@@ 93
china 93
cortez 93
dal 93
dal@@ 93
dining 93
disruptor 93
diva 93
eat 93
eyelet 93
fury 93
glittered 93
ham@@ 93
id@@ 93
intelligent 93
lost 93
lt 93
mighty 93
mirage 93
multi-functional 93
oi@@ 93
pages 93
pg 93
prote@@ 93
ranger 93
recipe 93
save 93
sm-@@ 93
speakers 93
sword 93
tos 93
tru@@ 93
ultrasonic 93
utility 93
wan 93
wl 93
worth 93
y.@@ 93
y5@@ 93
1-3@@ 92
113 92
128 92
14-@@ 92
1s 92
60cm 92
94 92
andrea 92
approved 92
bac@@ 92
ban 92
beau@@ 92
casing 92
cnc 92
com 92
credit 92
dad 92
electro@@ 92
eng@@ 92
fee 92
flop 92
fluffy 92
fubu 92
gat@@ 92
gummy 92
hawaiian 92
i.@@ 92
infinix 92
kay@@ 92
lean 92
light@@ 92
multivitamins 92
navarro 92
opti@@ 92
organix 92
ped 92
petal 92
pho@@ 92
ppy 92
pr 92
purifying 92
rio 92
rock@@ 92
row 92
saem 92
sen 92
standee 92
starwars 92
subwoofer 92
suitcase 92
talkie 92
tomica 92
tri 92
weighing 92
za@@ 92
140@@ 91
1ml 91
20-@@ 91
3-4 91
60g 91
69@@ 91
96@@ 91
academia 91
alex 91
allen 91
ao 91
ato@@ 91
babe 91
bf 91
collared 91
cover@@ 91
crush 91
curling 91
faded 91
fran@@ 91
gauge 91
got 91
heist 91
ht@@ 91
invoice 91
matcha 91
mhz 91
mis@@ 91
need 91
neutrogena 91
om 91
pls 91
pumps 91
quicksand 91
rin@@ 91
robe 91
s7@@ 91
shoulders 91
spo@@ 91
study 91
swim@@ 91
tomy 91
torch 91
y62 91
-h@@ 90
0-3 90
1-2@@ 90
111 90
2008 90
anti-spy 90
artist 90
aw 90
bathing 90
birthstone 90
bremod 90
cin@@ 90
clarifying 90
colgate 90
cou@@ 90
d3 90
davidoff 90
deco 90
dies 90
dubai 90
eas@@ 90
gli@@ 90
hats 90
irving 90
jojo 90
kenneth 90
lacey 90
list 90
logitech 90
mamba 90
mocha 90
muffler 90
neo5 90
next 90
non@@ 90
patent 90
pear 90
ppe 90
ran@@ 90
reebok 90
spencer 90
tell 90
tuff 90
tummy 90
ura 90
wow 90
188 89
2010 89
25cm 89
31@@ 89
365 89
alive 89
anda 89
axle 89
beard 89
bm@@ 89
bnwt 89
brand@@ 89
change 89
cheap 89
couples 89
dressing 89
dustbag 89
ek@@ 89
engagement 89
ero 89
ez 89
field 89
fridge 89
frog 89
givenchy 89
hdd 89
ideal 89
kers 89
lifting 89
live@@ 89
metro 89
mousepad 89
nan@@ 89
pad@@ 89
pap@@ 89
passion 89
philippine 89
poly 89
reborn 89
sarah 89
scar@@ 89
sequins 89
shaker 89
stabilizer 89
sting 89
sunday 89
supplier 89
swaddle 89
tales 89
tap@@ 89
tu 89
who 89
x6 89
-on 88
212 88
5cm 88
9.7 88
age@@ 88
airplane 88
beetle 88
brilliance 88
bundles 88
cee 88
check@@ 88
ct100 88
dainty 88
emerald 88
hairpin 88
hat@@ 88
hilux 88
ie 88
induction 88
j510 88
j7@@ 88
lipbalm 88
loo@@ 88
lubricant 88
lululemon 88
mes 88
mimi 88
msi 88
multiple 88
one-piece 88
onion 88
patrick 88
persona 88
premiere 88
psp 88
rat@@ 88
ree 88
reli@@ 88
riding 88
roses 88
rotary 88
same 88
soy 88
spf30 88
sunglass 88
tolsen 88
workout 88
104 87
5000 87
50mm 87
5l 87
888 87
ast 87
cider 87
cmx@@ 87
corporate 87
dashcam 87
dji 87
early 87
effects 87
ena 87
freeshipping 87
garcinia 87
hongkong 87
iphone5 87
iphone7 87
katespade 87
let@@ 87
mnl 87
ov@@ 87
penis 87
pioneer 87
pliage 87
puregold 87
qi@@ 87
realme3 87
record 87
shor@@ 87
short@@ 87
slots 87
studs 87
surplus 87
take1 87
ther 87
toiletry 87
twinning 87
voice 87
wn@@ 87
10.@@ 86
1200 86
93 86
agate 86
any@@ 86
arti@@ 86
balancing 86
banila 86
bg@@ 86
bought 86
bs@@ 86
ced 86
chee@@ 86
coinpurse 86
crayola 86
cubic 86
del 86
dutch 86
ferragamo 86
flora 86
grooming 86
handbags 86
hex 86
hoody 86
hope 86
ideapad 86
inst@@ 86
kick 86
lacquer 86
ligh@@ 86
liners 86
mani@@ 86
meet 86
message 86
moringa 86
onitsuka 86
pet@@ 86
piping 86
rl 86
salted 86
samurai 86
shoe@@ 86
shortsleeve 86
sie 86
skool 86
sleek 86
spell 86
stra@@ 86
tankini 86
tor 86
wall@@ 86
yards 86
.5@@ 85
125@@ 85
190 85
3-piece 85
303 85
30m 85
6m 85
beanie 85
ben 85
bin 85
buddha 85
butt 85
chen 85
cl-@@ 85
clas@@ 85
crissa 85
dancing 85
face@@ 85
fries 85
g. 85
gan 85
ghost 85
gorgeous 85
greetings 85
gtx 85
hun@@ 85
kor@@ 85
lava 85
mam@@ 85
meal 85
mounted 85
mse 85
nest 85
o-@@ 85
perfecting 85
pla@@ 85
raglan 85
rastaclat 85
roll-on 85
rolls 85
rotate 85
rpm 85
rs@@ 85
salmon 85
senior 85
sephora 85
sor@@ 85
spacer 85
stray 85
strike 85
tai 85
temperature 85
tommee 85
und@@ 85
v2s 85
workbook 85
x5 85
-6@@ 84
-7@@ 84
16inches 84
2,@@ 84
2.5@@ 84
330 84
aki 84
ans@@ 84
ative 84
bosny 84
chopping 84
company 84
dark@@ 84
dm@@ 84
dotted 84
dur@@ 84
eve 84
expandable 84
furniture 84
ght 84
he 84
hydration 84
i7 84
i9@@ 84
ikon 84
jmaxx 84
joint 84
liveselling 84
mattel 84
monokini 84
ms.@@ 84
nars 84
oreo 84
pang 84
pl 84
ron@@ 84
s5@@ 84
seaweed 84
self-@@ 84
sleev@@ 84
slightly 84
soil 84
sunset 84
tered 84
tippee 84
tm 84
tr 84
trd 84
vip 84
xrm110 84
yn@@ 84
yoobao 84
-1@@ 83
04@@ 83
18650 83
2009 83
2m 83
3mg 83
4.5 83
a750 83
arctic 83
bedsheets 83
blan@@ 83
bronzer 83
celine 83
cycle 83
demon 83
downy 83
ea 83
ell 83
freebie 83
hands 83
hoo@@ 83
hp@@ 83
infinite 83
ire 83
kabuki 83
land@@ 83
law 83
lipgloss 83
lotte 83
mcqueen 83
mel 83
mga 83
nb 83
noise 83
one-@@ 83
p.@@ 83
person 83
phoenix 83
pli@@ 83
seen 83
semi@@ 83
shed 83
splitter 83
succulent 83
tabs 83
tapes 83
today 83
town 83
vegan 83
wang 83
xtreme 83
yasen 83
11promax 82
199 82
3l 82
4mm 82
80ml 82
a92020 82
alvin 82
animation 82
anti-slip 82
badminton 82
brushed 82
cameras 82
chassis 82
cod-@@ 82
concert 82
dig@@ 82
eh@@ 82
ek 82
estee 82
extended 82
fa 82
find 82
foo@@ 82
gmate 82
hbw 82
j. 82
jump@@ 82
kikay 82
lancer 82
leg@@ 82
lovers 82
lv@@ 82
math 82
microwave 82
minis 82
mittens 82
mix@@ 82
ox 82
page 82
poncho 82
pos@@ 82
r17pro 82
range 82
relay 82
s-l 82
scallop 82
shutter 82
slider 82
std 82
superbreak 82
t3 82
tights 82
undies 82
victorias 82
walkie 82
wealth 82
zoo@@ 82
12oz 81
2-3@@ 81
2005 81
4th 81
8yrs 81
9a 81
aj@@ 81
artifact 81
astro 81
brows 81
bw@@ 81
chain@@ 81
concentrated 81
cp@@ 81
dew 81
die@@ 81
duster 81
elmo 81
ens 81
flash@@ 81
garnier 81
gol@@ 81
group 81
gummies 81
hamster 81
hight 81
i5 81
j.@@ 81
jl@@ 81
jr 81
k0@@ 81
k20 81
keychains 81
liz 81
magnesium 81
mf@@ 81
minifigures 81
mixes 81
mn 81
mon 81
moto 81
nam@@ 81
ners 81
nic 81
noodle 81
note5 81
note9 81
pes 81
planet 81
pti@@ 81
punk 81
radiance 81
roxy 81
run@@ 81
runway 81
sau@@ 81
say 81
scissor 81
sealer 81
sg 81
side@@ 81
stamping 81
sutla 81
swi@@ 81
tang@@ 81
traveling 81
tti 81
vampire 81
watch@@ 81
wl@@ 81
word 81
y7pro 81
yogurt 81
z-@@ 81
'am 80
17-@@ 80
2kg 80
87@@ 80
8x 80
ari 80
arrivals 80
bargain 80
bedding 80
blessed 80
blind 80
blueberry 80
bradshaw 80
bulk 80
canister 80
certified 80
chan 80
collector 80
crayons 80
crisscross 80
devil 80
glossier 80
grapeseed 80
ho 80
housing 80
j82018 80
kas@@ 80
lauder 80
lucas 80
mats 80
negative 80
obsession 80
orig@@ 80
pha 80
pigeon 80
pliers 80
ponds 80
processor 80
pumpkin 80
sebum 80
small-medium 80
sno@@ 80
sour 80
strainer 80
stranger 80
terry 80
tou@@ 80
ups 80
ven 80
vibrating 80
07@@ 79
12ml 79
205 79
2s 79
41@@ 79
428@@ 79
555 79
aa@@ 79
abercrombie 79
alva 79
amd 79
apex 79
avocado 79
beyond 79
blemish 79
boom 79
bows 79
chalk 79
chamomile 79
chicco 79
chill 79
cl 79
collectibles 79
ec@@ 79
electrical 79
elujai 79
fd 79
fire@@ 79
fix@@ 79
fruity 79
frying 79
full@@ 79
gelpen 79
gemstone 79
if 79
kb@@ 79
mansi 79
mill 79
mj@@ 79
octopus 79
odor 79
packed 79
paco 79
paperbag 79
perfection 79
picnic 79
pol@@ 79
prepacked 79
raspberry 79
rebranding 79
rugged 79
service 79
sit@@ 79
stabilo 79
stic 79
tf@@ 79
thank 79
tra 79
tylex 79
uc 79
ultra-thin 79
vibe 79
windows 79
wish 79
06@@ 78
112 78
2l 78
40mm 78
79@@ 78
a-2@@ 78
airbag 78
aj 78
ala@@ 78
alexa 78
b2 78
band@@ 78
battle 78
blanc 78
bp 78
breeze 78
canada 78
cape 78
construction 78
cos 78
eg@@ 78
ev@@ 78
gadget 78
hea@@ 78
hg@@ 78
hikvision 78
ipad@@ 78
isa 78
jh@@ 78
june 78
keypad 78
l-glutathione 78
ld@@ 78
mik@@ 78
moana 78
neck@@ 78
o.@@ 78
ottogi 78
p1 78
paradise 78
pil@@ 78
pomegranate 78
rh@@ 78
rolling 78
rouser 78
ssi@@ 78
than 78
three-@@ 78
tina 78
towels 78
tp-link 78
trilogy 78
ula 78
volts 78
wan@@ 78
ward 78
yr 78
12.@@ 77
35ml 77
40pcs 77
alex@@ 77
alu@@ 77
angels 77
bathrobe 77
bear@@ 77
berries 77
bites 77
bong 77
c0@@ 77
claw 77
cob 77
cubes 77
dc@@ 77
ef@@ 77
ekel 77
element 77
flavors 77
flyball 77
fortune 77
golf 77
highcut 77
hill 77
hotpot 77
incanto 77
jer@@ 77
l-xl 77
l. 77
lane 77
malunggay 77
matching 77
mei 77
mind 77
mylar 77
open@@ 77
orders 77
p20lite 77
pubg 77
rapid 77
refreshing 77
revitali@@ 77
ri 77
rosehip 77
sci@@ 77
self-adhesive 77
sell 77
smiley 77
spyder 77
sterilizer 77
textured 77
throttle 77
trac@@ 77
travelling 77
union 77
unisilver 77
various 77
wafer 77
-36 76
-up 76
........ 76
100m 76
165 76
201804@@ 76
2ml 76
3-ply 76
50-@@ 76
5w 76
above 76
ain 76
ank@@ 76
asia 76
ass 76
ava 76
benetton 76
carolina 76
cq@@ 76
creed 76
criss 76
decor@@ 76
dent 76
dhc 76
dreams 76
droplets 76
eng 76
enhanced 76
ere 76
football 76
halo 76
heart@@ 76
hijab 76
inhaler 76
injoy 76
ira 76
jen@@ 76
km 76
led@@ 76
lithium 76
lp@@ 76
marian 76
measure 76
musk 76
ob@@ 76
ong@@ 76
paddle 76
pig@@ 76
puncher 76
ruler 76
safeguard 76
salvatore 76
shing 76
smo@@ 76
sons 76
stretchy 76
tho@@ 76
two-way 76
whipp 76
wigo 76
you@@ 76
18m 75
199@@ 75
208 75
6x@@ 75
86@@ 75
a9@@ 75
aero 75
alphabounce 75
aq@@ 75
barong 75
batik 75
benedict 75
bon 75
bound 75
bull 75
cambogia 75
corolla 75
cra@@ 75
cream@@ 75
das 75
ddr4 75
dex 75
doom 75
duffle 75
eclat 75
es-@@ 75
footrest 75
fresh@@ 75
fuchsia 75
gf 75
gms 75
hardcase 75
hnj 75
ian 75
im@@ 75
int 75
kle@@ 75
lor@@ 75
lou@@ 75
m5 75
met 75
mul@@ 75
nb@@ 75
nerf 75
normal 75
polarized 75
purederm 75
radiant 75
rattle 75
receipt 75
rilakkuma 75
s0@@ 75
separ@@ 75
sou@@ 75
steps 75
suitable 75
swimsuits 75
text 75
tter 75
tun@@ 75
velcro 75
vietnam 75
x12 75
zaxy 75
1.8 74
10400mah 74
12pairs 74
15.6 74
5th 74
7s 74
act 74
asstd 74
bad@@ 74
bc@@ 74
becca 74
bibs 74
combat 74
court 74
d0@@ 74
deadpool 74
decant 74
duyan 74
fac@@ 74
filipino 74
flannel 74
game@@ 74
glowing 74
griller 74
heat@@ 74
height 74
hiace 74
iring 74
issue 74
jy@@ 74
lies 74
medicated 74
mei@@ 74
micellar 74
missy 74
mixing 74
ney 74
org@@ 74
pancake 74
passenger 74
pcs.@@ 74
pirate 74
playset 74
r. 74
rca 74
scarlet 74
shifter 74
sin 74
sketch 74
stool 74
su 74
sz 74
timer 74
tooth@@ 74
tri-@@ 74
tuna 74
ukulele 74
vers@@ 74
vic 74
virus 74
washed 74
y93 74
-10@@ 73
....... 73
1200@@ 73
7.5 73
84 73
advantage 73
aff@@ 73
ally 73
ant@@ 73
barbecue 73
bebe 73
blonde 73
bust 73
celina 73
coco@@ 73
compressor 73
conditioning 73
crispy 73
cti@@ 73
cure 73
curly 73
db 73
dl 73
eternity 73
fb 73
flush 73
frames 73
gpp 73
gravity 73
honeycomb 73
hoops 73
inal 73
jug 73
latte 73
mart 73
mh@@ 73
moon@@ 73
nar@@ 73
needle 73
origin 73
pacific 73
pal 73
parker 73
pocketbac 73
pouches 73
r3 73
rcb 73
rg 73
rit@@ 73
sab@@ 73
saddle 73
shaft 73
shapes 73
song 73
sss 73
stockings 73
sweat@@ 73
temporary 73
tender 73
thin@@ 73
thing 73
tresemme 73
trigger 73
vap@@ 73
variant 73
vase 73
volu@@ 73
was@@ 73
wu 73
x18 73
xoxo 73
y6@@ 73
10a 72
10x 72
30x@@ 72
320@@ 72
arc 72
avanza 72
baked 72
bandeau 72
bd@@ 72
bin@@ 72
bits 72
bliss 72
bounce 72
camo 72
cav@@ 72
ctive 72
dable 72
daster 72
delicious 72
dru@@ 72
eb 72
ebook 72
fillers 72
floating 72
fr 72
ful@@ 72
functional 72
goat 72
gp 72
gue 72
gw@@ 72
hai@@ 72
hammock 72
j7core 72
lb@@ 72
lead 72
litter 72
media 72
mi9 72
moto@@ 72
multicolored 72
nation 72
nt 72
om@@ 72
overnight 72
pill 72
powdery 72
rosy 72
scarlett 72
spare 72
sr 72
stirring 72
ts-@@ 72
uratex 72
vari@@ 72
words 72
wwe 72
zo 72
zzy 72
10.5 71
2.1 71
2012-@@ 71
240@@ 71
70ml 71
airy 71
always 71
amazon 71
axe 71
barrel 71
bay@@ 71
belo 71
betty 71
birds 71
biscuits 71
bk@@ 71
boxed 71
build 71
built 71
bus 71
butter@@ 71
ched 71
cher@@ 71
cigarette 71
cloth@@ 71
crime 71
desig@@ 71
disco 71
domino 71
donna 71
dora 71
dual-@@ 71
e-buy 71
elegance 71
enamel 71
f3plus 71
fenty 71
gd 71
gin 71
giraffe 71
gu 71
gymboree 71
ix 71
j2@@ 71
jackson 71
jewel 71
ju 71
jungle 71
keyring 71
kits 71
lai 71
laura 71
lls 71
lm 71
lord 71
mbps 71
merah 71
milani 71
mobi@@ 71
mpo 71
national 71
non-woven 71
onal 71
optimum 71
powerful 71
react 71
real@@ 71
realmec2 71
revitalizing 71
scoopback 71
sense@@ 71
sia 71
sleep@@ 71
sq@@ 71
stain@@ 71
ste 71
stein 71
strings 71
tale 71
torque 71
twilly 71
varicose 71
variety 71
vig@@ 71
vir@@ 71
vs@@ 71
wonder@@ 71
x-men 71
-- 70
-24 70
10s 70
118@@ 70
1kilo 70
2018@@ 70
21k 70
310 70
65ml 70
a510 70
a52020 70
a6@@ 70
anal 70
anthony 70
aoa 70
au 70
babydoll 70
blades 70
bodybag 70
boot 70
canin 70
chronicles 70
coaster 70
corp 70
couch 70
coun@@ 70
cs-@@ 70
death 70
dongle 70
ep@@ 70
ets 70
filled 70
flip-flops 70
flip@@ 70
g5 70
gab@@ 70
ideas 70
imd 70
iphone11pro 70
j1@@ 70
jj 70
k. 70
kn@@ 70
knob 70
koko 70
magi@@ 70
nina 70
note@@ 70
pinkish 70
pitcher 70
popcorn 70
rate 70
rc@@ 70
rearview 70
renewal 70
rookie 70
sassy 70
scout 70
sealant 70
shelves 70
short-sleeved 70
sit 70
skateboard 70
sounds 70
source 70
st-@@ 70
steve 70
stopper 70
students 70
sty 70
to-@@ 70
tted 70
use@@ 70
wei@@ 70
when 70
where 70
windshield 70
xmas 70
y9prime 70
zy@@ 70
-3 69
1.8@@ 69
109 69
230@@ 69
24m 69
2mm 69
330@@ 69
530 69
8ml 69
ams 69
arms 69
asa 69
bea@@ 69
beauty@@ 69
bh 69
bose 69
bulls 69
cac@@ 69
cola 69
damier 69
digitizer 69
din 69
dp 69
ei@@ 69
ered 69
everything 69
fle@@ 69
foodaholic 69
gd@@ 69
gel@@ 69
goods 69
iced 69
infants 69
insulation 69
iz 69
ks@@ 69
lex 69
mangosteen 69
mble 69
med@@ 69
motherboard 69
mvp 69
no.1 69
oneplus 69
orchid 69
pantene 69
polkadots 69
potty 69
ppers 69
ray@@ 69
roast 69
rol@@ 69
rr 69
sales 69
sequin 69
shar@@ 69
spag 69
speed@@ 69
standing 69
sunrise 69
tak@@ 69
telescopic 69
tight 69
tmx155 69
totoro 69
ttgr 69
types 69
uv@@ 69
vi 69
why 69
wi-fi 69
wise 69
yumi 69
zz 69
16g 68
2007 68
203 68
280@@ 68
380@@ 68
3gb 68
601 68
70cm 68
84@@ 68
8a 68
8x@@ 68
999 68
ardeur 68
atm 68
avi@@ 68
ballpoint 68
bao 68
below 68
bie 68
carrot 68
cement 68
crunch 68
cuyi 68
darling 68
dinner 68
drainer 68
drinks 68
erasable 68
ethernet 68
fate 68
fli@@ 68
general 68
givi 68
glory 68
glove 68
gold-plated 68
graded 68
happy@@ 68
highwaisted 68
imarflex 68
individual 68
ipod 68
ith 68
jollibee 68
kids@@ 68
lemonade 68
michaela 68
moschino 68
n0@@ 68
note3 68
off@@ 68
outer 68
ple@@ 68
pollution 68
riordan 68
s6@@ 68
sack 68
sg@@ 68
sing@@ 68
ski@@ 68
sperry 68
spirulina 68
spor@@ 68
ss-@@ 68
stand@@ 68
tableware 68
travel@@ 68
uhf 68
vers 68
wedges 68
y7pro2019 68
zar@@ 68
zc@@ 68
-02 67
.5 67
12mm 67
13-@@ 67
3.1 67
500gb 67
5r 67
a51 67
accesories 67
alien 67
anti-glare 67
apricot 67
ballerina 67
baseus 67
bby 67
benassi 67
broken 67
bv@@ 67
cent 67
cg@@ 67
chro@@ 67
cinnamon 67
clar@@ 67
classi@@ 67
classics 67
clean@@ 67
curve 67
dan 67
ddr3 67
desire 67
detector 67
dslr 67
dx 67
ec 67
ess 67
ez@@ 67
fans 67
fied 67
gerber 67
gifo 67
gui@@ 67
guyabano 67
harden 67
herrera 67
hin@@ 67
hl 67
hm 67
howru 67
hoyoma 67
image 67
jp@@ 67
kap@@ 67
kw 67
mad 67
mar 67
minerals 67
moments 67
notepad 67
pastry 67
patterned 67
petals 67
philip 67
photobook 67
pilipinas 67
polo@@ 67
posters 67
pra@@ 67
ribbons 67
rou@@ 67
scott 67
sel 67
shock@@ 67
sian 67
soldier 67
tear 67
tine 67
tis 67
tn@@ 67
treat 67
v17pro 67
wonders 67
wrapped 67
yves 67
″ 67
0-6 66
100grams 66
117 66
2.0@@ 66
2006 66
340g 66
5kg 66
720 66
750@@ 66
acqua 66
albums 66
alco@@ 66
alia 66
allure 66
almonds 66
anti-radiation 66
ascorbic 66
bajaj 66
both 66
breastmilk 66
cabin 66
ch-@@ 66
challenge 66
chin 66
cj@@ 66
colourtint 66
cotton@@ 66
crystals 66
culottes 66
dawn 66
dish@@ 66
dk@@ 66
figurine 66
flea 66
gal 66
gan@@ 66
gio 66
harley 66
highlight 66
hilton 66
hk@@ 66
how.r.u 66
hyper@@ 66
input 66
ix@@ 66
jk 66
kam@@ 66
katy 66
lb 66
ls@@ 66
m0@@ 66
madam 66
meow 66
million 66
pac@@ 66
pain@@ 66
pand@@ 66
pd 66
pd@@ 66
plas@@ 66
plat@@ 66
pods 66
post@@ 66
press@@ 66
r9s 66
rabanne 66
roman 66
sat@@ 66
sher 66
shin 66
soccer 66
soldering 66
soo@@ 66
sound@@ 66
tas 66
technology 66
thea 66
treasure 66
vice 66
winner 66
yt-@@ 66
185 65
18k@@ 65
202 65
301 65
305 65
355 65
3c 65
60w 65
aegis 65
antique 65
antiskid 65
aph@@ 65
ato 65
ature 65
avenue 65
baller 65
bli@@ 65
bottoms 65
buah 65
check-out 65
chopsticks 65
claire 65
cool@@ 65
dawning 65
gigabit 65
gigabyte 65
gluta@@ 65
gudetama 65
gul@@ 65
heritage 65
iner 65
inspirational 65
jumpsuits 65
kaws 65
kitten 65
log 65
lollipop 65
magnets 65
main 65
mand@@ 65
monopoly 65
mus@@ 65
nai@@ 65
nit@@ 65
openline 65
ounce 65
pea 65
plus@@ 65
pou@@ 65
powe 65
qi 65
quick@@ 65
read@@ 65
redu@@ 65
refillable 65
ringke 65
rtw 65
s8@@ 65
scanner 65
select 65
shin@@ 65
slique 65
snap@@ 65
stam@@ 65
tek 65
tial 65
tricolor 65
tw 65
valentines 65
waistline 65
wristband 65
xl@@ 65
xs@@ 65
1.5l 64
302 64
6t 64
a710 64
a92018 64
aire 64
ars 64
athena 64
audrey 64
ber 64
blends 64
boxing 64
bro 64
bum 64
camisole 64
century 64
challis 64
cheapest 64
circuit 64
clear@@ 64
crusher 64
cyan 64
decorating 64
drip 64
dv 64
eds 64
eiffel 64
ey 64
favors 64
fda 64
fly@@ 64
gc 64
german 64
germany 64
gging 64
glamour 64
gowoori 64
h.@@ 64
hairband 64
hand-@@ 64
hazelnut 64
horizontal 64
htc 64
inf@@ 64
internal 64
jenny 64
lus 64
motor@@ 64
mould 64
n.@@ 64
nie 64
pavilion 64
peter 64
phantom 64
pon@@ 64
powerhouse 64
prima 64
q-@@ 64
rd 64
realme5 64
ring@@ 64
sai@@ 64
samantha 64
sey 64
shel@@ 64
stackable 64
tarnish 64
tch 64
telephone 64
thailook 64
um@@ 64
waffle 64
whit@@ 64
wind@@ 64
winder 64
ziplock 64
zr 64
-28 63
0.5 63
116 63
122 63
180cm 63
2-piece 63
512gb 63
668 63
all@@ 63
asics 63
batwing 63
beauti@@ 63
bill 63
blackberry 63
blur 63
bowknot 63
bt-@@ 63
burger 63
buy@@ 63
camel 63
cara 63
casa 63
cour@@ 63
dg@@ 63
dl@@ 63
dou@@ 63
ence 63
exhaust 63
favorite 63
freedom 63
gly@@ 63
gorilla 63
handsfree 63
headlamp 63
hour 63
inspiron 63
irish 63
jun@@ 63
kamiseta 63
kel@@ 63
kl@@ 63
kur@@ 63
mach@@ 63
most 63
n1 63
necklaces 63
palda 63
pest 63
remo@@ 63
repellant 63
rf 63
rimmel 63
salad 63
sea@@ 63
selena 63
shapers 63
siwa 63
slee@@ 63
slo@@ 63
softgel 63
sts 63
sul@@ 63
survival 63
t2 63
table@@ 63
talk 63
terno@@ 63
tilbury 63
timeless 63
trade 63
trooper 63
ult 63
unbranded 63
university 63
vet 63
water-@@ 63
wd@@ 63
y6s 63
yas@@ 63
-38 62
112@@ 62
133 62
168@@ 62
2021 62
228 62
260@@ 62
270@@ 62
2usb 62
502 62
520@@ 62
7.0 62
97@@ 62
a2@@ 62
a4tech 62
aim 62
awesome 62
bendix 62
blin@@ 62
cans 62
cb 62
cell@@ 62
chie 62
childrens 62
citrine 62
clippers 62
cod.@@ 62
college 62
cullotes 62
culture 62
deni@@ 62
exp 62
far 62
fj@@ 62
flame 62
g2 62
headdress 62
heaven 62
hr@@ 62
hug 62
imports 62
inclu@@ 62
inkles 62
into 62
jolly 62
jumper@@ 62
ladie 62
lanvin 62
lovecorner 62
maid 62
medela 62
nebulizer 62
nighties 62
nov@@ 62
nworld 62
oria 62
overuns 62
pear@@ 62
peep 62
phr 62
plating 62
present 62
prizm 62
redmi@@ 62
reno@@ 62
resistance 62
ric 62
sabrina 62
sco 62
seagate 62
seoul 62
serving 62
sher@@ 62
soaplada 62
squad 62
start 62
sted 62
straws 62
suits 62
t0@@ 62
tee@@ 62
tie@@ 62
tp 62
ukay-ukay 62
veggie 62
weave 62
won@@ 62
working 62
zirconia 62
-05 61
013 61
1.2@@ 61
1.6 61
100s 61
121 61
15cm 61
15pcs 61
1kl 61
2.4ghz 61
20v 61
30mm 61
380 61
3x 61
680@@ 61
74@@ 61
9m 61
a520 61
adap@@ 61
airforce 61
all-in-one 61
attack 61
aviator 61
az 61
banderitas 61
bf@@ 61
bou@@ 61
bow@@ 61
brallete 61
brooklyn 61
cali@@ 61
cardigans 61
cari@@ 61
carrying 61
cele@@ 61
cho 61
christ@@ 61
cking 61
cle 61
comm@@ 61
crunchy 61
ctions 61
dino 61
dream@@ 61
ero@@ 61
fade 61
fish@@ 61
garterize 61
gf@@ 61
hap@@ 61
holy 61
inc 61
j210 61
j2core 61
j530 61
jessica 61
jet@@ 61
k5 61
kd@@ 61
kissproof 61
kore@@ 61
lers 61
lighter 61
lim 61
mann 61
nescafe 61
note4 61
nur@@ 61
oid 61
oversize 61
ow@@ 61
pak 61
phy@@ 61
pixie 61
plane 61
rog 61
rotor 61
s7edge 61
sandwich 61
scotch 61
shu@@ 61
singapore 61
sir 61
sniper150 61
soak 61
soen 61
speci@@ 61
stella 61
stradivarius 61
sure 61
tow 61
trucker 61
tus 61
una 61
wacoal 61
whiteboard 61
x7 61
y83 61
√ 61
✓ 61
'pieu 60
're 60
,000 60
-32 60
10in1 60
10meters 60
138 60
15w 60
18inch 60
19-@@ 60
2002 60
236 60
3-5 60
4pc 60
4xl 60
801 60
808 60
al-@@ 60
angeles 60
ave@@ 60
ball@@ 60
bang@@ 60
basin 60
biker 60
bookmarks 60
boro 60
brace 60
chase 60
chewable 60
cide 60
copier 60
dani@@ 60
diameter 60
dissipation 60
dtv 60
eless 60
enjoy 60
envy 60
eq 60
euro@@ 60
flying 60
frost 60
ginseng 60
glow@@ 60
goody 60
grendha 60
h0@@ 60
harem 60
herbalife 60
honey@@ 60
igprints 60
janoski 60
kind 60
laserjet 60
lavander 60
lighten 60
mag 60
matrix 60
mera 60
minecraft 60
models 60
motocross 60
nationwide 60
neckline 60
nk 60
og 60
oilbased 60
ord@@ 60
pamela 60
pedigree 60
pocophone 60
pompom 60
q7 60
quest 60
racket 60
recollections 60
s10e 60
selection 60
skinpotions 60
slayer 60
spr@@ 60
styles 60
tar 60
temptation 60
thri@@ 60
tia 60
tonic 60
turn 60
twilight 60
ungrip 60
vani@@ 60
vc 60
vitality 60
vt 60
way@@ 60
-8@@ 59
12inches 59
1500 59
1995 59
222 59
2mp 59
4-in-1 59
4r 59
50cm 59
510 59
520 59
6-9 59
83@@ 59
a90 59
alph@@ 59
ame 59
arri@@ 59
ater 59
autofocus 59
baguio 59
bees 59
bubbles 59
cg 59
clip@@ 59
coo@@ 59
doodle 59
dunk 59
dxn 59
emb@@ 59
eth@@ 59
eucalyptus 59
every 59
explosion 59
fab@@ 59
fear 59
fig@@ 59
fringe 59
gate 59
georgette 59
gx@@ 59
hairclip 59
hav@@ 59
indoplas 59
jp 59
kentucky 59
lace-up 59
lau@@ 59
learn 59
lisa 59
lowcut 59
lr@@ 59
masking 59
maximum 59
mee 59
member 59
mtp-@@ 59
mumuso 59
nappy 59
oh@@ 59
oro@@ 59
packing 59
papaw 59
pax 59
peacock 59
peanuts 59
pm@@ 59
poccophone 59
poli@@ 59
posted 59
ps2 59
realme@@ 59
rebel 59
reju@@ 59
rin 59
rn 59
root 59
sally 59
sara 59
scra@@ 59
sions 59
snow@@ 59
stock@@ 59
tsu@@ 59
ultraboost 59
uni-@@ 59
verdon 59
wisdom 59
xo 59
y81i 59
yh 59
.2 58
119 58
12months 58
1500@@ 58
15mm 58
1x@@ 58
268 58
2k@@ 58
550@@ 58
5i 58
8.0 58
850 58
a01 58
abi@@ 58
activ@@ 58
acy 58
af 58
andy 58
apollo 58
b. 58
beam 58
belted 58
bihaku 58
chicago 58
coming 58
cutout 58
dio 58
emma 58
epoxy 58
ette 58
faceshield 58
feli@@ 58
fino 58
flare@@ 58
fryer 58
fuji 58
furry 58
genie 58
guava 58
gun@@ 58
gus 58
hexagon 58
ice@@ 58
interior 58
ions 58
ivy 58
ld 58
lice 58
liqu@@ 58
lock@@ 58
marketing 58
mg@@ 58
monthly 58
nadine 58
nasa 58
nigh@@ 58
ony 58
parka 58
pob 58
potion 58
prime@@ 58
q10 58
resist 58
rib 58
royu 58
singles 58
skate 58
soap@@ 58
spatula 58
ssed 58
styler 58
suspension 58
sweety 58
talking 58
texture 58
theory 58
tting 58
ultra-@@ 58
wear@@ 58
wil@@ 58
wood@@ 58
y9prime2019 58
-35 57
10l 57
10w 57
130g 57
2-4@@ 57
25-32 57
350g 57
35mm 57
3way 57
3x3 57
3x@@ 57
70g 57
805 57
activewear 57
alada 57
amo@@ 57
ather 57
baao 57
baptism 57
basil 57
beauche 57
bic 57
bot 57
botton 57
breath 57
brew 57
bridge 57
buddy 57
buster 57
cation 57
cket 57
coating 57
coats 57
corrector 57
counter 57
crocheted 57
dat@@ 57
deals 57
dice 57
dos 57
dustproof 57
earpods 57
epsa 57
ethnic 57
flo 57
fo 57
google 57
hang 57
high-quality 57
hydraulic 57
imm@@ 57
import 57
ion@@ 57
j120 57
jason 57
lat@@ 57
lined 57
lish 57
maine 57
markers 57
mars 57
melasma 57
merch 57
minute 57
mizon 57
moss 57
neverfull 57
notebooks 57
nozzle 57
o. 57
oc 57
pab@@ 57
peri 57
placemat 57
preloved@@ 57
resellers 57
rhi@@ 57
rotation 57
seas@@ 57
shortsleeves 57
sides 57
silent 57
simulation 57
smartphones 57
snor@@ 57
speedometer 57
spirit 57
sters 57
stick@@ 57
stufftoys 57
tassle 57
technomarine 57
tel 57
tl-@@ 57
trifold 57
tro 57
two-@@ 57
ul 57
ush 57
vibrant 57
weather 57
zippered 57
1-1 56
12s 56
2001 56
2014-@@ 56
25mm 56
2in 56
3kg 56
7d 56
7yrs 56
800ml 56
almost 56
ame@@ 56
ayesha 56
bayong 56
bea 56
biore 56
blow 56
bpa 56
british 56
brownies 56
buffet 56
busha 56
but@@ 56
cakes 56
capacitor 56
caremask 56
cashmere 56
catherine 56
cau@@ 56
caviar 56
cebu 56
cln 56
colle@@ 56
crank 56
desert 56
dirty 56
dock 56
dreamcatcher 56
dun@@ 56
durant 56
dz@@ 56
e0@@ 56
eable 56
elements 56
exten@@ 56
fantastic 56
favor 56
figuarts 56
fill 56
flipflops 56
fs@@ 56
fuji@@ 56
garbage 56
gauze 56
goodquality 56
hairbow 56
hn 56
hr 56
illuminating 56
imperial 56
issey 56
itch 56
jon@@ 56
kt@@ 56
laurent 56
lit 56
lj 56
lootbags 56
ls2 56
m2@@ 56
maru@@ 56
mas 56
merchandise 56
mmer 56
mont 56
motorcycles 56
mu 56
muji 56
neutral 56
nhk 56
oz@@ 56
p3@@ 56
pay@@ 56
peace 56
photography 56
pine 56
practical 56
premier 56
rda 56
receiving 56
reflector 56
rl-@@ 56
scion 56
sdhc 56
seater 56
sequined 56
skid 56
slow 56
smar@@ 56
sten 56
suave 56
tile 56
tl 56
too@@ 56
tumi 56
turmask 56
unofficial 56
unscented 56
uri@@ 56
vanguard 56
voltage 56
warrior 56
xie 56
zer@@ 56
--@@ 55
114 55
2-4 55
2003 55
209 55
20x@@ 55
225@@ 55
26cm 55
28cm 55
2f 55
3-5@@ 55
32g 55
3ce 55
4.1 55
40cm 55
6gb 55
6ml 55
6th 55
a6plus 55
against 55
amethyste 55
amino 55
annie 55
anth@@ 55
app 55
arizona 55
authen@@ 55
batteries 55
bg 55
breed 55
bye 55
carburetor 55
ceramics 55
cian 55
closed 55
coins 55
contro@@ 55
costumes 55
cranberry 55
crv 55
dietary 55
din@@ 55
diving 55
dolly 55
edifice 55
elixir 55
emily 55
extensions 55
ferrero 55
g3 55
gentleman 55
gil@@ 55
graphics 55
grocery 55
guy 55
hang@@ 55
hay@@ 55
history 55
hydr@@ 55
ics 55
inspire 55
iri@@ 55
jack@@ 55
jacob 55
jt 55
kutkutin 55
labo 55
legg@@ 55
liter@@ 55
lly 55
long-sleeved 55
lumin@@ 55
m30 55
mandarin 55
mannequin 55
mary@@ 55
mate@@ 55
mber 55
n95 55
nissin 55
ology 55
orly 55
personality 55
posh 55
racerback 55
return 55
rj45 55
russian 55
sagmit 55
samples 55
scalp 55
sembo 55
shines 55
sider 55
sisley 55
sophia 55
swatch 55
til@@ 55
toned 55
uv-@@ 55
var@@ 55
vegetables 55
wellington 55
woo 55
wt 55
yoko 55
zel 55
1.2 54
10x@@ 54
129 54
12w 54
2-pc 54
200w 54
2d 54
30s 54
450ml 54
4l 54
6.4 54
6000 54
650@@ 54
85g 54
901 54
94@@ 54
9pcs 54
acb 54
aco 54
acti@@ 54
agatha 54
bolero 54
bowls 54
brow@@ 54
budget 54
casserole 54
chelsea 54
cn@@ 54
corduroy 54
covergirl 54
cts 54
daddy 54
dge@@ 54
distributor 54
dropper 54
e. 54
fertilizer 54
frank 54
garland 54
gbb 54
ging 54
gran@@ 54
gtw 54
gur@@ 54
hell 54
hi-fi 54
i7s 54
intimate 54
isab@@ 54
kpads 54
lilac 54
lled 54
low-@@ 54
lysol 54
mate20 54
mice 54
mouthwash 54
moving 54
mum 54
mun@@ 54
natura 54
nautica 54
nicholas 54
p100 54
peony 54
pit 54
playpen 54
pork 54
puri@@ 54
qq@@ 54
rho@@ 54
roo@@ 54
sapphire 54
scre@@ 54
sealing 54
sive 54
snacks 54
soluble 54
solutions 54
speaks 54
spoiler 54
stationary 54
stro@@ 54
sweetheart 54
tall 54
teen@@ 54
tool@@ 54
trail 54
traveler 54
tron 54
ud 54
uf 54
ust 54
uva 54
val 54
vin 54
wristwatch 54
y. 54
ying 54
010 53
145 53
1b 53
200mm 53
2015-@@ 53
acetate 53
adorable 53
alberto 53
angelus 53
anti-fog 53
applicator 53
beatles 53
blinds 53
bobbi 53
bodysuits 53
boun@@ 53
bys 53
calligraphy 53
candy@@ 53
cayler 53
chambray 53
charge@@ 53
clip-on 53
colours 53
compass 53
confetti 53
cruiser 53
dca 53
debut 53
dragonball 53
ds-@@ 53
enzo 53
float 53
fru@@ 53
fry 53
garfield 53
hung 53
ie@@ 53
imitation 53
inclusions 53
india 53
jam@@ 53
jl 53
kee@@ 53
koi 53
korean@@ 53
lense 53
lifter 53
lunchbox 53
mathematics 53
megapro 53
minimum 53
momoland 53
mood 53
motors 53
movies 53
ned 53
ornament 53
ox@@ 53
pai@@ 53
pick@@ 53
porcelain 53
rfid 53
ria 53
robert 53
s10@@ 53
scrap 53
sculpting 53
shining 53
sizzix 53
smartwatch 53
sparks 53
sph 53
spike 53
sse 53
sx@@ 53
sz@@ 53
teacher 53
temperament 53
teri@@ 53
thermo@@ 53
tto 53
tx 53
ube 53
ultr@@ 53
unk 53
utensil 53
venom 53
vivid 53
want 53
web 53
wee 53
weekend 53
wizard 53
wk 53
wonderland 53
xb@@ 53
xr@@ 53
y7prime 53
zation 53
zia 53
zigzag 53
'eau 52
011 52
018 52
1pc. 52
2.4 52
50m 52
ako 52
ann@@ 52
aron 52
bble 52
been 52
bolster 52
bron@@ 52
carbon@@ 52
cartoons 52
chino 52
cir@@ 52
clin@@ 52
colour@@ 52
come 52
concept 52
cos@@ 52
costumized 52
covered 52
deal 52
destiny 52
diamonds 52
dom 52
double-@@ 52
duffel 52
eden 52
ene 52
eo 52
export 52
famous 52
fer 52
fic 52
fight 52
finishing 52
fitch 52
gagage 52
gent 52
hardware 52
hologram 52
insta@@ 52
iphones 52
ipon 52
jelly@@ 52
jones 52
kilos 52
lian 52
liniment 52
little@@ 52
ltp-@@ 52
lux@@ 52
mamonde 52
melt 52
midwaist 52
mie 52
moment 52
munchkin 52
mystic 52
n9@@ 52
nap@@ 52
nas@@ 52
nc 52
nicole 52
ninewest 52
omni@@ 52
ones 52
part@@ 52
pasta 52
polaroid 52
posture 52
quilt 52
radi@@ 52
reg@@ 52
reverse 52
reviewer 52
rhinestones 52
river 52
rorec 52
ros 52
rough 52
sad@@ 52
section 52
senza 52
shan@@ 52
sui 52
taupe 52
terra 52
therapeutic 52
traditional 52
trolls 52
tubeless 52
tuyo 52
twill 52
wash@@ 52
watery 52
wave@@ 52
welcome 52
xxxl 52
zalora 52
zevy 52
................@@ 51
1000mg 51
128@@ 51
12cm 51
13.3 51
149 51
18w 51
2.4g 51
20w 51
215 51
22cm 51
24-@@ 51
3.0@@ 51
3.75 51
4-6 51
40-@@ 51
505 51
608 51
902 51
a6s 51
abi 51
accounting 51
ache 51
ail@@ 51
ali 51
ants 51
apido 51
b1 51
bangs 51
bel 51
bifold 51
bility 51
bkk 51
bossini 51
boxy 51
brain 51
brands 51
bras 51
c5 51
cherokee 51
ckle 51
commercial 51
core@@ 51
country 51
cut-out 51
d2 51
das@@ 51
droplet 51
dt@@ 51
dual@@ 51
dust@@ 51
echo 51
eggs 51
elle@@ 51
enhan@@ 51
eon 51
erry 51
f.@@ 51
ffle 51
fifty 51
fon@@ 51
g6 51
gee 51
geekvape 51
girl@@ 51
gl 51
handcrafted 51
hansen 51
harper 51
heater 51
heating 51
hydra 51
inserts 51
jungkook 51
jy 51
kk 51
kkw 51
kuku 51
lat 51
lea 51
lee@@ 51
legs 51
lifestyle 51
lis 51
m5@@ 51
mad@@ 51
mali@@ 51
mantra 51
maxi@@ 51
mediheal 51
microsd 51
mina 51
miu 51
miyake 51
motorola 51
mutant 51
nautical 51
nightwear 51
opp 51
pale 51
papi 51
pat 51
phone@@ 51
physi@@ 51
pocketbooks 51
poin@@ 51
probiotics 51
pun@@ 51
puppies 51
realme3pro 51
rl@@ 51
rm-@@ 51
robin 51
s8plus 51
sak@@ 51
sandalwood 51
sauna 51
scope 51
scrapbook 51
sequence 51
shooter 51
sliding 51
ssion 51
stal@@ 51
statue 51
stocking 51
sw 51
t5@@ 51
take@@ 51
tie-@@ 51
transmission 51
two-tone 51
vital 51
waste 51
wea@@ 51
yah 51
yen 51
zumba 51
1.0 50
1.8l 50
11.@@ 50
12-18 50
16pcs 50
180g 50
189 50
2004 50
2ply 50
4n1 50
568 50
9.5 50
academy 50
adhesion 50
alcatel 50
aloha 50
altis 50
ameri@@ 50
appear@@ 50
biscuit 50
blaster 50
blending 50
cai@@ 50
cf 50
chy 50
civil 50
cowl 50
crash 50
d3@@ 50
defender 50
definition 50
derma@@ 50
des@@ 50
dg 50
donald 50
dose 50
dr.@@ 50
duos 50
e27 50
ead 50
education 50
elas@@ 50
enemy 50
enlar@@ 50
esp@@ 50
ew 50
fever 50
ffe@@ 50
fication 50
fm@@ 50
fragrances 50
fuschia 50
ga110 50
gamer 50
geforce 50
gig@@ 50
glaze 50
glycolic 50
grapefruit 50
hasbro 50
high-end 50
holly 50
hyperdunk 50
itive 50
j0@@ 50
jagger 50
jay@@ 50
jeffree 50
jen 50
jk@@ 50
k.@@ 50
k3 50
kc 50
kings 50
kinoki 50
kins 50
knits 50
legging 50
listing 50
long-lasting 50
loves 50
lower 50
lu 50
make@@ 50
mason 50
meiji 50
mh 50
monsters 50
myra 50
nake@@ 50
nath@@ 50
nau@@ 50
nes 50
nights 50
nongshim 50
oni 50
piercing 50
prom 50
qq 50
quad@@ 50
razer 50
refle@@ 50
rug 50
scene 50
signage 50
ske@@ 50
smi@@ 50
sni@@ 50
soles 50
somebymi 50
stevia 50
succulents 50
suga 50
supple 50
taste 50
temp 50
there 50
times 50
two@@ 50
venice 50
vibes 50
wonderline 50
ws-@@ 50
-04 49
-c@@ 49
-s@@ 49
1.4 49
125g 49
12in1 49
225 49
40w 49
40x@@ 49
5oz 49
6.6 49
7.1 49
add@@ 49
answer 49
anti-bacterial 49
anti-perspirant 49
appli@@ 49
benton 49
bga@@ 49
board@@ 49
bottled 49
brac@@ 49
brit@@ 49
c9 49
centella 49
chess 49
chew 49
chun@@ 49
claus 49
cook@@ 49
cruzer 49
deli 49
dictionary 49
digi@@ 49
disinfecting 49
drama 49
eb-@@ 49
elli@@ 49
empire 49
ents 49
eur 49
f0@@ 49
fb@@ 49
fen@@ 49
finder 49
fixed 49
flashing 49
fuse 49
grater 49
haikyuu 49
hello@@ 49
help 49
holo 49
ik@@ 49
inspi 49
intl 49
invitations 49
iv 49
ives 49
jum@@ 49
jumping 49
keyholder 49
kjm 49
kr@@ 49
less@@ 49
lla@@ 49
locket 49
looney 49
lopez 49
m4@@ 49
ma-@@ 49
madden 49
mania 49
march 49
mid-@@ 49
nd 49
nos 49
novo 49
nursery 49
offer 49
only.fashion 49
opening 49
para 49
paubos 49
pb@@ 49
perfu@@ 49
pk@@ 49
plier 49
popsicle 49
ras@@ 49
rei@@ 49
rette 49
rex 49
saucer 49
saudigold 49
share 49
should 49
siz@@ 49
skeleton 49
ski 49
skmei 49
spark@@ 49
sse@@ 49
stencil 49
stilton 49
studios 49
stuff@@ 49
style@@ 49
surge 49
taillight 49
tal 49
thunder 49
tiles 49
timberland 49
tles 49
ut@@ 49
versatile 49
weekly 49
wellness 49
whale 49
witness 49
yi@@ 49
yul 49
yy@@ 49
-34 48
-42 48
25-30 48
260 48
2yrs 48
333 48
340 48
4-5 48
4-5@@ 48
480 48
603 48
62@@ 48
6pairs 48
701 48
75g 48
810 48
aba 48
ange@@ 48
arm@@ 48
asahi 48
atx 48
baybayin 48
bed@@ 48
bigger 48
bold 48
boo 48
bott@@ 48
br 48
carat 48
card@@ 48
chevrolet 48
chicharon 48
chisel 48
chopstick 48
chris 48
ciao 48
clio 48
cozy 48
create 48
cruz 48
degrees 48
dio@@ 48
dj 48
doc 48
domin@@ 48
dpi 48
east 48
everpower 48
fair 48
farmstay 48
fatigue 48
fiesta 48
fjs@@ 48
gir@@ 48
goal 48
gp-@@ 48
gx 48
has@@ 48
hong 48
ic@@ 48
indonesia 48
jimin 48
jt5 48
kha@@ 48
kitkat 48
leafy 48
locking 48
loom 48
lx@@ 48
macro 48
mates 48
merrell 48
nc@@ 48
oats 48
od 48
ori 48
origin@@ 48
os@@ 48
pact 48
paisley 48
palmolive 48
pantulog 48
pers 48
pn@@ 48
pped 48
qc 48
quinn 48
reflectorized 48
regatta 48
rel 48
repack 48
rizoma 48
rocket 48
roshe 48
rows 48
rt 48
school@@ 48
sgp 48
shaping 48
shoulderbag 48
sili@@ 48
sj 48
smoothing 48
squeezer 48
starmobile 48
stunning 48
superfood 48
supp@@ 48
swanson 48
swivel 48
think 48
tunes 48
utensils 48
vac 48
vader 48
vention 48
veronica 48
ville 48
whey 48
xerox 48
y7@@ 48
012 47
1.3@@ 47
1001 47
12000mah 47
120mm 47
126 47
12mos 47
14.@@ 47
171 47
1996 47
1gb 47
2019-2020 47
24v 47
2b 47
2kl 47
300mbps 47
5pc 47
6,@@ 47
606 47
700ml 47
8cm 47
90-@@ 47
aci@@ 47
aga 47
aka 47
alli@@ 47
armored 47
arte@@ 47
arturo 47
ask 47
awa 47
ax@@ 47
axis 47
bee@@ 47
bestguard 47
bhw 47
booldeet 47
cane 47
caster 47
catch 47
cca 47
cel 47
cica 47
cked 47
cod. 47
creston 47
cular 47
cx@@ 47
dakki 47
darth 47
dau@@ 47
dazzling 47
delights 47
dicer 47
doorbell 47
doors 47
doughnut 47
draw 47
du 47
embossing 47
ener@@ 47
eros 47
ess@@ 47
evolution 47
fashionista 47
father 47
fel@@ 47
fengshui 47
floss 47
flower@@ 47
friendship 47
gc@@ 47
graffiti 47
grinding 47
grips 47
guards 47
holders 47
holographic 47
honor@@ 47
hours 47
hx@@ 47
imag@@ 47
inkjet 47
instrument 47
inten@@ 47
irene 47
ked 47
kir@@ 47
kra@@ 47
kumot 47
lal@@ 47
lamb 47
lands 47
ller 47
m4 47
mae 47
masturbator 47
mccormick 47
mcneil 47
meizu 47
mfsunnies 47
nets 47
nordic 47
ns@@ 47
nurse 47
odyssey 47
onia 47
options 47
pck 47
pendants 47
pixi 47
polishing 47
pulse 47
qfashion 47
queens 47
qw@@ 47
r150 47
rb@@ 47
rebonding 47
res@@ 47
ret 47
revo 47
rising 47
rubber@@ 47
severus 47
sheep 47
shy 47
small@@ 47
smart@@ 47
so.nice 47
sof 47
sport@@ 47
success 47
sulfur 47
supremo 47
tailored 47
tarpaulin 47
throne 47
ticket 47
tics 47
top-@@ 47
tty 47
velo@@ 47
wearable 47
wy@@ 47
xrm125 47
yan@@ 47
yaya 47
-100 46
1.4@@ 46
12g 46
140cm 46
140g 46
15.@@ 46
151 46
1d 46
2018-@@ 46
308 46
4c 46
720p 46
73@@ 46
7in1 46
8000 46
850@@ 46
alert 46
ality 46
amar@@ 46
apieu 46
asi@@ 46
bac 46
beat@@ 46
bezel 46
billi@@ 46
bles 46
bonne 46
brave 46
bumblebee 46
bushing 46
by-@@ 46
c4 46
career 46
careline 46
cashew 46
cathy 46
chairs 46
cham 46
cham@@ 46
charg@@ 46
charlie 46
clara 46
cn 46
col 46
condenser 46
cus 46
dong 46
double-sided 46
dough 46
dualpro 46
ellis 46
embroided 46
endgame 46
eyebag 46
fg 46
fie 46
flyman 46
folds 46
four@@ 46
g7@@ 46
generic 46
gibi 46
ginger@@ 46
grand@@ 46
hada 46
hanuman 46
hit@@ 46
hs@@ 46
idol 46
ining 46
isolation 46
ist 46
jasper 46
julia 46
kc@@ 46
kitchenware 46
kyla 46
lap 46
li-@@ 46
lits 46
liza 46
lj@@ 46
lona 46
lou 46
lr 46
management 46
mandala 46
mate20pro 46
memories 46
menthol 46
microsoft 46
mirac@@ 46
ml-@@ 46
moisturi@@ 46
momo 46
nex@@ 46
nipples 46
nk@@ 46
nutella 46
oat 46
occasions 46
oz. 46
p20pro 46
paints 46
pambata 46
papel 46
paul@@ 46
pee@@ 46
pel@@ 46
peso 46
poco 46
polybag 46
psi 46
reaction 46
redragon 46
reference 46
rel@@ 46
relax 46
relaxed 46
rella 46
rev@@ 46
roi@@ 46
scu@@ 46
seat@@ 46
sedan 46
skip 46
snack@@ 46
sole@@ 46
spir@@ 46
stapler 46
stark 46
stator 46
stepsill 46
stine 46
stit@@ 46
sto 46
strange 46
stret@@ 46
stru@@ 46
sum 46
surveillance 46
swit@@ 46
t2@@ 46
ted@@ 46
tensioner 46
textiles 46
thousand 46
tunic 46
ufw 46
uring 46
v5@@ 46
vg 46
w0@@ 46
wer@@ 46
wick 46
wra@@ 46
wraps 46
zie 46
zipped 46
-4 45
-b@@ 45
-l@@ 45
019 45
124 45
14cm 45
14t 45
1600@@ 45
160g 45
18cm 45
1997 45
20m 45
20mm 45
210@@ 45
30w 45
5-in-1 45
55ml 45
65g 45
702 45
7mm 45
802 45
9d 45
acker 45
allan 45
aman 45
ania 45
anti-fingerprint 45
anton 45
arena 45
asian 45
ath 45
august 45
b3 45
bare@@ 45
bene@@ 45
bibdana 45
bl-4@@ 45
blackheads 45
burt 45
carburator 45
celtics 45
changer 45
charming 45
chil@@ 45
clearing 45
cobra 45
connect 45
crackers 45
crist@@ 45
devices 45
dex@@ 45
document 45
dore@@ 45
dorothy 45
enchanteur 45
england 45
ening 45
enlarger 45
feelin 45
fem 45
flex@@ 45
fried 45
gameboy 45
gar 45
gard 45
ged 45
ggle 45
glit@@ 45
glutalipo 45
gold-tone 45
gr 45
handlebar 45
hera 45
hero@@ 45
hobby 45
huawie 45
impulse 45
inflator 45
ipega 45
jacquard 45
jasmin 45
jerry 45
jewel@@ 45
jewelries 45
justees 45
karat 45
kb 45
kgs 45
kili 45
l1r1 45
lippies 45
liver 45
lun@@ 45
made@@ 45
maganda 45
meg@@ 45
metric 45
mike 45
mini-@@ 45
mq 45
msmhk 45
muffin 45
mv@@ 45
nal 45
navara 45
np-@@ 45
oil-based 45
ole 45
omg 45
organza 45
pallete 45
peri@@ 45
phil 45
pinoy 45
pixel 45
pretend 45
pringles 45
qcy 45
quil@@ 45
r7 45
riders 45
rie 45
rudu 45
sac@@ 45
sas@@ 45
se-@@ 45
shrink 45
sies 45
silhouette 45
snapshot 45
social 45
spectra 45
spin@@ 45
stea@@ 45
stethoscope 45
stripped 45
sweet@@ 45
sweetener 45
swirl 45
taytay 45
timewise 45
tk@@ 45
toaster 45
trouble 45
trunks 45
umb@@ 45
ure@@ 45
variable 45
vee 45
ver. 45
vine 45
vity 45
with@@ 45
worm 45
worn 45
wrislet 45
ww@@ 45
yson 45
zers 45
zeus 45
-03 44
-23 44
016 44
1.7 44
12inch 44
142 44
16cm 44
1dozen 44
24cm 44
24mos 44
2k 44
3v 44
473ml 44
610 44
800g 44
809 44
9ml 44
absorption 44
ako@@ 44
aller@@ 44
amanda 44
anti-skid 44
armband 44
bff 44
blossoms 44
bobb@@ 44
botanical 44
bugs 44
ccml 44
cin 44
clever 44
clog 44
clogs 44
complexion 44
compound 44
cosmic 44
craw@@ 44
dang@@ 44
dest@@ 44
down@@ 44
emp@@ 44
ems 44
est@@ 44
fanny 44
fast@@ 44
full-@@ 44
garage 44
gospel 44
grease 44
hab@@ 44
harajuku 44
heli@@ 44
hips 44
holi@@ 44
hus@@ 44
hut 44
icing 44
idea 44
jc@@ 44
jjc 44
kang 44
kry@@ 44
ktees 44
kultura 44
l-carnitine 44
lak@@ 44
lake 44
leather@@ 44
leatherette 44
logy 44
long-@@ 44
luckycharm 44
mamala 44
martha 44
melamine 44
misumi 44
motorbike 44
mou@@ 44
mtp-v@@ 44
mule 44
muslim 44
newest 44
nyc 44
olympus 44
oo 44
optic 44
oy 44
peak 44
peptide 44
personalize 44
petit 44
pie@@ 44
playful 44
pn 44
ppr 44
prepack 44
preparation 44
puppet 44
ral@@ 44
ratchet 44
rmg 44
rolex 44
round@@ 44
rr@@ 44
s9plus 44
samgyupsal 44
sap@@ 44
scientific 44
shells 44
skk 44
sleeper 44
sley 44
smoo@@ 44
speedo 44
spinning 44
splashproof 44
ssions 44
staple 44
suki 44
sup 44
superior 44
synergy 44
tala 44
tc@@ 44
toblerone 44
tumblers 44
twins 44
uli 44
'gosh 43
-27 43
-33 43
-3xl 43
100mm 43
1100@@ 43
157 43
161 43
195 43
1999 43
2013-@@ 43
2020@@ 43
206 43
213 43
235@@ 43
2lite 43
3.5@@ 43
30000mah 43
300mm 43
3pairs 43
5000@@ 43
5inch 43
6d 43
a10@@ 43
activ 43
alie 43
also 43
aro 43
avdf 43
b5 43
badescu 43
bal 43
barefoot 43
blackbox 43
block@@ 43
blue-@@ 43
booty 43
border 43
buil@@ 43
bun 43
burgundy 43
cassette 43
cat6 43
chap@@ 43
chart 43
chas@@ 43
chevron 43
circo 43
cloudfone 43
coordinate 43
crest 43
dairy 43
dash@@ 43
defin@@ 43
delicate 43
design@@ 43
distressed 43
door@@ 43
electri@@ 43
eline 43
endless 43
equal 43
espadrilles 43
espresso 43
excel 43
expe@@ 43
explorer 43
festival 43
fitbit 43
fitting 43
folio 43
fw@@ 43
gimbal 43
gothic 43
gt-@@ 43
hag@@ 43
harvest 43
haw@@ 43
holic 43
hur@@ 43
imp@@ 43
imprint 43
io@@ 43
iphone11 43
j62018 43
jing@@ 43
juli@@ 43
kicks 43
koala 43
kotobukiya 43
lapel 43
legendary 43
license 43
lightness 43
luck@@ 43
lush 43
maldives 43
matchbox 43
mcg 43
micro-@@ 43
mist@@ 43
mizing 43
mmx@@ 43
mug@@ 43
myrrh 43
necktie 43
nonwire 43
offi@@ 43
p250 43
paracord 43
pass 43
peachy 43
peg 43
pleasure 43
plugs 43
polar 43
poo 43
purchase 43
rash@@ 43
rechargable 43
religious 43
rocher 43
roy@@ 43
rubi@@ 43
rubik 43
saffiano 43
sai 43
saiyan 43
seasons 43
sei@@ 43
shoes@@ 43
smu@@ 43
sus 43
syn@@ 43
t5 43
td@@ 43
telesin 43
the-@@ 43
thy 43
tim 43
tong 43
translucent 43
trends 43
tron@@ 43
uk@@ 43
unused 43
upto 43
user 43
uy 43
vhf 43
victory 43
wimpy 43
wink 43
woo@@ 43
writer 43
xpander 43
zoro 43
-6 42
......... 42
100w 42
108@@ 42
132 42
216 42
3-pack 42
30-@@ 42
35-40 42
3ft 42
3r 42
511 42
60pcs 42
60s 42
60x@@ 42
777 42
8,@@ 42
8s 42
8y 42
9-12 42
ables 42
access 42
aces 42
achi 42
adventures 42
alaska 42
api@@ 42
arduino 42
assi@@ 42
atomy 42
atos 42
authenti@@ 42
bailey 42
bianca 42
black-@@ 42
bmw 42
bny 42
boxers 42
brit 42
britney 42
bulgari 42
cecilia 42
chubby 42
code@@ 42
cold-@@ 42
contrast 42
cottony 42
customi@@ 42
damper 42
distance 42
divider 42
dre 42
drunk 42
dyn@@ 42
easy@@ 42
ef 42
ello 42
excess 42
faceshop 42
fair@@ 42
farrah 42
figma 42
firm 42
gels 42
gems 42
gla@@ 42
greek 42
groo@@ 42
haan 42
heartbeat 42
heather 42
hoddie 42
hotdog 42
humannature 42
icy 42
illuminator 42
inch@@ 42
itech 42
jang 42
jes 42
jlt 42
kang@@ 42
kineza 42
kissed 42
knotted 42
kp1 42
kyb 42
labels 42
ladys 42
lanbena 42
lc-@@ 42
lev@@ 42
lilo 42
literide 42
locks 42
lola 42
ls-@@ 42
m-xl 42
mal 42
mambi 42
marshmallow 42
medal 42
mental 42
microwavable 42
ming@@ 42
mitsu@@ 42
mock 42
moda 42
molded 42
motowolf 42
mudguard 42
natur@@ 42
navyblue 42
note10 42
novels 42
onic 42
panic 42
pegasus 42
perfumed 42
phar@@ 42
pops 42
postcards 42
prreti 42
puff@@ 42
queen@@ 42
reveal 42
ries 42
roger 42
rox 42
rsgw 42
ru 42
rx@@ 42
s20 42
sander 42
shimmering 42
shogun 42
sister 42
skorts 42
slu@@ 42
sos 42
spear@@ 42
sub 42
suspen@@ 42
swe@@ 42
t8@@ 42
tagalog 42
tation 42
tictac 42
timing 42
tinkerbell 42
trend@@ 42
tter@@ 42
ttes 42
tumblr 42
tus@@ 42
ultrathin 42
vc@@ 42
veins 42
vguc 42
vis@@ 42
volkswagen 42
western 42
wilson 42
x8 42
yrs. 42
yun 42
zza 42
-26 41
005@@ 41
020 41
025 41
1.3 41
100-@@ 41
100cm 41
12a 41
131 41
162 41
170ml 41
1990 41
19mm 41
2022 41
3-way 41
3.4a 41
3110 41
3d@@ 41
3oz 41
4.3 41
4u 41
500w 41
5pro 41
7t 41
90cm 41
a4@@ 41
aly@@ 41
aming 41
ando 41
anion 41
arabica 41
ast@@ 41
aven@@ 41
bag-@@ 41
beginners 41
bidet 41
bloo@@ 41
breakfast 41
burning 41
chewy 41
closer 41
common 41
crab 41
dar 41
daylight 41
ddr5 41
diana 41
disinfection 41
dtc 41
e-liquid 41
e.l.f. 41
eight 41
ejuice 41
epic 41
erie 41
escada 41
eureka 41
evvph 41
expiry 41
fairy@@ 41
fd@@ 41
fighting 41
fingerprint 41
fir@@ 41
flas@@ 41
flood 41
flowering 41
freshner 41
gai@@ 41
gardening 41
gatas 41
gn 41
hannah 41
hans 41
hin 41
hindi 41
illu@@ 41
inclusion 41
index 41
inger 41
interchangeable 41
jars 41
kak@@ 41
kinis 41
kurtina 41
kus@@ 41
l.a 41
l0@@ 41
lampin 41
lgts 41
lling 41
lube 41
lum 41
luv 41
lw 41
maxx 41
mexico 41
mink 41
monopad 41
moonlight 41
mosaic 41
must 41
nami 41
nav@@ 41
netbook 41
nz@@ 41
offset 41
only@@ 41
oxidi@@ 41
panoramic 41
paula 41
penny 41
photos 41
plus-size 41
positive 41
practice 41
pre-owned 41
presto 41
pw@@ 41
quiet 41
quotes 41
relumins 41
ross 41
rp 41
rusty 41
sandy 41
sanuk 41
scrat@@ 41
sele@@ 41
server 41
shopper 41
sign@@ 41
signed 41
simpson 41
since 41
skylanders 41
sling@@ 41
sn 41
sofitec 41
spea@@ 41
sticker@@ 41
storybook 41
straightening 41
stufftoy 41
sunnyware 41
t10 41
tiara 41
tp@@ 41
tren@@ 41
tubular 41
une 41
upgrade 41
vac@@ 41
vibration 41
vogue 41
volt 41
wave100 41
wer 41
whipped 41
xuping 41
yarns 41
yy 41
-9@@ 40
1.8kg 40
10.1 40
10inches 40
1100 40
12x@@ 40
184 40
2-pack 40
204 40
207 40
226g 40
2n@@ 40
4x4 40
530@@ 40
630 40
905 40
950 40
alite 40
aria 40
ation@@ 40
automotive 40
backpack@@ 40
battle@@ 40
beater 40
bf-@@ 40
blair 40
bones 40
buildmate 40
cad@@ 40
calling 40
camilla 40
carri@@ 40
causal 40
cious 40
cky 40
contouring 40
coords 40
cott@@ 40
cradle 40
creation 40
ctors 40
dec@@ 40
diagonal 40
dimmable 40
duvet 40
edible 40
egg@@ 40
eh 40
emer@@ 40
energi@@ 40
enfant 40
epi@@ 40
escape 40
fami@@ 40
fei@@ 40
fence 40
ffy 40
fitflops 40
flaws 40
fluorescent 40
freezer 40
ft. 40
fty 40
ganda 40
gener@@ 40
gia 40
goblin 40
grosgrain 40
guality 40
hc@@ 40
hdtv 40
headrest 40
heal 40
heal@@ 40
ht 40
igh@@ 40
inang 40
inche@@ 40
indicator 40
infallible 40
iope 40
jennifer 40
jjt 40
just@@ 40
jy. 40
kee 40
kni@@ 40
knuckle 40
laces 40
lang@@ 40
late 40
low-top 40
m6 40
mati@@ 40
maze 40
mber@@ 40
membrane 40
ml. 40
moisturising 40
mot@@ 40
nancy 40
nin@@ 40
ninjago 40
nl 40
old@@ 40
oli@@ 40
origami 40
originai 40
orth@@ 40
p10@@ 40
pag@@ 40
pao 40
pawnablesplcodgenuine100 40
pg@@ 40
pixar 40
playmat 40
playsuit 40
plunger 40
poop 40
preowned 40
prism 40
psicom 40
qualcomm 40
r8 40
raptors 40
rated 40
realme5pro 40
remove 40
rip 40
rollers 40
ros@@ 40
s10plus 40
scraper 40
sex@@ 40
shiel@@ 40
shirt@@ 40
sidebag 40
softener 40
space@@ 40
spec 40
sportswear 40
stan@@ 40
still 40
stro 40
supersale 40
superstay 40
sweets 40
thick@@ 40
tour@@ 40
toy@@ 40
transmitter 40
tropi@@ 40
tweezer 40
ue 40
upgraded 40
v-power 40
v10 40
valley 40
variants 40
vr@@ 40
vul@@ 40
weapon 40
week 40
wild@@ 40
wrist@@ 40
ws@@ 40
wu@@ 40
yrs.old 40
zg 40
α@@ 40
-31 39
.1 39
1-4@@ 39
1.8m 39
10cm 39
10oz 39
139 39
156 39
178 39
1800@@ 39
18x@@ 39
192 39
1989 39
20s 39
2tb 39
3,@@ 39
3-1 39
3-6m 39
310@@ 39
3in 39
5,@@ 39
7th 39
81@@ 39
9w 39
a00@@ 39
aba@@ 39
adam 39
addidas 39
akg 39
antiperspirant 39
ap24 39
aphrodisia 39
australian 39
avenger 39
awa@@ 39
bangtan 39
bau@@ 39
beachwear 39
bigbang 39
bija 39
bio-@@ 39
blouse@@ 39
cabana 39
calm 39
camshaft 39
canopy 39
celer@@ 39
clouds 39
comb@@ 39
condi@@ 39
containers 39
cosme@@ 39
cracker 39
cree 39
crystalline 39
daban 39
dahua 39
delay 39
det@@ 39
drag 39
dragon@@ 39
dt 39
electroplated 39
everest 39
every@@ 39
extra@@ 39
factor 39
fc@@ 39
fhd 39
fifi 39
filters 39
fin 39
fittings 39
flashdrive 39
floor@@ 39
forme 39
fp@@ 39
freesf 39
freeze 39
front@@ 39
grant 39
groom 39
habits 39
ham 39
hangers 39
hau@@ 39
hay 39
hits 39
hogwarts 39
imak 39
integrated 39
investment 39
iphone6s 39
jay 39
jm 39
joyride 39
jz118@@ 39
kasya 39
kris 39
large-@@ 39
laud 39
leader 39
lor 39
ltp-v@@ 39
lyn@@ 39
m6@@ 39
malaysia 39
mamypoko 39
maple 39
matchy 39
maya 39
meduim 39
milo 39
mma 39
monsta 39
moroccan 39
multi-color 39
mustache 39
mux 39
mw@@ 39
netflix 39
ngk 39
nicer 39
occasion 39
optimus 39
oring 39
over-@@ 39
oxide 39
pajero 39
panty@@ 39
pc-@@ 39
pentel 39
pineng 39
plaka 39
pldt 39
pores 39
predator 39
probiotic 39
pv@@ 39
qc3.0 39
qf 39
r15 39
rapunzel 39
reci@@ 39
rocking 39
rosemary 39
rubb@@ 39
samsun@@ 39
satellite 39
sds@@ 39
senka 39
serial 39
shave 39
sil 39
skinfit 39
sock@@ 39
spoke 39
static 39
sterili@@ 39
stle 39
suit@@ 39
tangerine 39
td 39
telescope 39
thai@@ 39
thumb 39
together 39
torani 39
tracing 39
tweeter 39
uag 39
ub 39
utp 39
uty 39
vapormax 39
vega 39
viva 39
w.@@ 39
warts 39
wears 39
whisk 39
wife 39
wigs 39
wjf 39
wy 39
yaiba 39
yazi 39
yd 39
yer 39
yk 39
zaful 39
ze55@@ 39
zoe 39
-00@@ 38
-12@@ 38
........@@ 38
014 38
015 38
1,000 38
1- 38
1-5 38
10000 38
1080 38
1300 38
136@@ 38
141 38
1800 38
182 38
1998 38
2-1 38
249 38
2in1@@ 38
2tone 38
30-35 38
313 38
480@@ 38
4x@@ 38
5-6 38
500grams 38
50w 38
6-18 38
602 38
6l 38
80-@@ 38
ado@@ 38
alkansya 38
aloevera 38
andra 38
anti-acne 38
antiseptic 38
bataan 38
bayo 38
belts 38
berg 38
blush@@ 38
break@@ 38
bru@@ 38
buck@@ 38
butterscotch 38
button-down 38
bw 38
cappuccino 38
cardfight 38
carton 38
catriona 38
celeteque 38
chainsaw 38
claiborne 38
classa 38
coca 38
coin@@ 38
coldshoulder 38
cook 38
cowboy 38
creamer 38
creamsilk 38
cus@@ 38
cyclo@@ 38
dam 38
dart 38
dea 38
degreaser 38
dinnerware 38
dion 38
dooney 38
doug 38
dragons 38
emperor 38
extr@@ 38
fat@@ 38
fds@@ 38
feed 38
filling 38
fiona 38
flesh 38
fore@@ 38
freesia 38
garnet 38
gasoline 38
gle 38
guilty 38
happiness 38
has 38
hei@@ 38
helmets 38
hue 38
i3 38
i9082 38
ight 38
immune 38
ind@@ 38
ited 38
j310 38
jig@@ 38
jimmy 38
jinju 38
jose 38
k2 38
kalamansi 38
kenzo 38
ket@@ 38
kg. 38
kim@@ 38
kimetsu 38
knitting 38
kz 38
lazel 38
les@@ 38
lett@@ 38
lle@@ 38
lli 38
lm@@ 38
lolita 38
madrid 38
marcus 38
maxine 38
middle 38
mio@@ 38
multivitamin 38
nasal 38
nature@@ 38
nhance 38
nike@@ 38
oddstickers 38
oppo@@ 38
paw@@ 38
pee 38
physical 38
piglet 38
planer 38
pochette 38
poe 38
prise 38
put 38
q3 38
qt 38
rasta 38
rd@@ 38
realistic 38
rene 38
respirator 38
ribb@@ 38
rk@@ 38
roche 38
seafood 38
secosana 38
sell@@ 38
shaving 38
shirt-@@ 38
sierra 38
sma 38
small-@@ 38
songs 38
soon 38
sophi@@ 38
spring@@ 38
starex 38
stor@@ 38
sung 38
swab 38
tel@@ 38
tele@@ 38
tg-@@ 38
thanos 38
thinkpad 38
thru 38
thunder@@ 38
tian 38
tn 38
tnt 38
totebag 38
tric 38
type@@ 38
von@@ 38
wai@@ 38
wolverine 38
x9@@ 38
xp@@ 38
y9s 38
................................@@ 37
11oz 37
136 37
1600 37
16inch 37
1993 37
1c 37
2008-@@ 37
223 37
233 37
3.1a 37
309 37
32017 37
325 37
35g 37
3cm 37
4.7 37
420 37
450g 37
6-7 37
60-@@ 37
63@@ 37
710 37
7l 37
906 37
a8plus 37
abel 37
addict 37
amu@@ 37
antioxidant 37
apo@@ 37
aquamarine 37
aries 37
arma@@ 37
ary@@ 37
assassin 37
autograph 37
bet 37
beverage 37
billiard 37
biotin 37
blackout 37
bral@@ 37
brownie 37
bub@@ 37
caddy 37
cand@@ 37
capshop 37
celebr@@ 37
chin@@ 37
cignus 37
clavicle 37
clay@@ 37
clothes@@ 37
comes 37
commuter 37
coolant 37
corn@@ 37
damaged 37
dea@@ 37
dead@@ 37
delta 37
density 37
digest 37
dress-@@ 37
dvi 37
eno 37
eno@@ 37
erase 37
essen@@ 37
expansion 37
farrar 37
feline 37
fig 37
finger@@ 37
furball 37
gfriend 37
ghter 37
gies 37
gli 37
grms 37
gudi 37
had@@ 37
hairclips 37
hanes 37
hd3 37
headed 37
headwear 37
hide 37
i8@@ 37
ial 37
immortal 37
inpods 37
instru@@ 37
interface 37
internet 37
j5pro 37
journey 37
jr. 37
july 37
jumpskirt 37
kilogram 37
kinds 37
ks-@@ 37
kw-@@ 37
lav@@ 37
leo 37
lf@@ 37
ling@@ 37
lipton 37
macaroon 37
magne@@ 37
main@@ 37
maxidress 37
mex 37
micky 37
moul@@ 37
move 37
nate 37
naturacentials 37
neu@@ 37
nick 37
nis 37
nitro 37
no-@@ 37
nt@@ 37
ntc 37
oil-@@ 37
oli 37
on7 37
original@@ 37
payless 37
pcs-@@ 37
peculiar 37
pekas 37
periwinkle 37
pink@@ 37
poker 37
polkadot 37
proble@@ 37
produ@@ 37
proof@@ 37
qnet 37
quar@@ 37
refresh 37
rein@@ 37
retina 37
rosa 37
roy 37
rusi 37
s-0@@ 37
saber 37
safe@@ 37
seed@@ 37
sega 37
sellers 37
send 37
sexy@@ 37
sill 37
simcard 37
simp@@ 37
skintone 37
sockets 37
speak 37
spon@@ 37
spout 37
stains 37
steel@@ 37
sticated 37
strada 37
submersible 37
tac 37
target 37
teardrop 37
temperd 37
tied 37
tique 37
touch@@ 37
tox 37
ttle@@ 37
tubes 37
uo 37
ux 37
vco 37
vel 37
video@@ 37
villa 37
village 37
virginity 37
volleyball 37
voltmeter 37
vooc 37
wb 37
weigh@@ 37
weight@@ 37
wing@@ 37
wipe 37
wm@@ 37
wns 37
wrapper 37
y3 37
yayamanin 37
yf 37
yield 37
-29 36
0.38mm 36
017 36
1-4 36
1.2m 36
1000w 36
10pcs. 36
135@@ 36
137 36
13cm 36
158 36
15x@@ 36
160ml 36
198@@ 36
1mm 36
2007-@@ 36
200mah 36
2012@@ 36
24mm 36
256 36
295ml 36
2oz 36
2ways 36
64g 36
680 36
6cm 36
70-@@ 36
730 36
888s 36
8th 36
900ml 36
9v 36
acai 36
acks 36
acle 36
acts 36
ador 36
ald 36
ank 36
ape 36
arch@@ 36
arpege 36
artisan 36
aur@@ 36
backs 36
bagonly 36
barber 36
bath@@ 36
believe 36
beyouthiful 36
biztree 36
bm 36
boardwalk 36
bowtie 36
bq@@ 36
cameo 36
camille 36
chang@@ 36
cheddar 36
chemical 36
cherrymobile 36
chers 36
classical 36
collectors 36
compaq 36
conne@@ 36
connecting 36
cont@@ 36
corelle 36
cork 36
crossbar 36
cruise 36
crushed 36
culti@@ 36
death@@ 36
divi@@ 36
dn@@ 36
dog@@ 36
doh 36
dreamer 36
e5@@ 36
equ@@ 36
extractor 36
fabri@@ 36
fabulous 36
flaw 36
formulas 36
friction 36
frnc 36
fying 36
g7106 36
gle@@ 36
glitz 36
greatest 36
guardian 36
gv 36
hardtop 36
hatchback 36
himalaya 36
homemade 36
hoppe 36
hub@@ 36
icosmetica 36
incre@@ 36
inno@@ 36
int@@ 36
ionic 36
iphone4 36
ishigaki 36
iso@@ 36
ivt 36
j8. 36
jac@@ 36
jd@@ 36
jpop 36
jz@@ 36
k-pads 36
kas 36
kies 36
knorr 36
kodak 36
konzert 36
l.a. 36
lead@@ 36
legacy 36
lei@@ 36
ln@@ 36
logic 36
lpg 36
macbeth 36
magni@@ 36
magnum 36
mark@@ 36
mbing 36
michelle 36
mists 36
mitch 36
mme@@ 36
movement 36
mper 36
mtrt 36
natures 36
nectarine 36
no. 36
nova3 36
novelty 36
nudes 36
ollie 36
ols 36
p150 36
p200 36
pageant 36
pantyliner 36
party@@ 36
paulo 36
perfor@@ 36
pid 36
pills 36
pipes 36
plasma 36
playtex 36
plex 36
pow@@ 36
prayer 36
pregnancy 36
props 36
psu 36
push-up 36
puzzles 36
quadcopter 36
r0@@ 36
rachel 36
rainy 36
recovery 36
revol@@ 36
rocks 36
rohto 36
s-xl 36
scales 36
sdxc 36
set-@@ 36
setter 36
shopp 36
shredder 36
simpsons 36
some@@ 36
something 36
spar@@ 36
spl@@ 36
spoons 36
srp 36
stable 36
step@@ 36
streetwear 36
stroke 36
sub-@@ 36
sulwhasoo 36
suspender 36
swa@@ 36
t110 36
tea@@ 36
then 36
thomson 36
tins 36
tl@@ 36
toast 36
tons 36
toothpick 36
typec 36
u.@@ 36
uc@@ 36
ug@@ 36
unlimited 36
updated 36
vas@@ 36
vey 36
vivi 36
voi@@ 36
was 36
wen@@ 36
wwfph 36
xs-@@ 36
zc554kl 36
zh@@ 36
zon 36
-22 35
-a 35
0-6@@ 35
0001 35
1.1 35
120cm 35
12yrs 35
13mm 35
16x@@ 35
170g 35
17cm 35
18mos 35
1994 35
1t 35
2017-@@ 35
20l 35
21st 35
221 35
245 35
252 35
265 35
3000@@ 35
32oz 35
390 35
401 35
45w 35
55-@@ 35
703 35
7b 35
8inches 35
909 35
achi@@ 35
adf 35
akes 35
alyn 35
angela 35
archie 35
armpit 35
armrest 35
asymmetrical 35
backup 35
bag. 35
bak@@ 35
bedside 35
ben10 35
bian 35
binlu 35
bleu 35
bodyworks 35
brook 35
btob 35
bumebime 35
butane 35
c24 35
cally 35
casino 35
cci 35
chick 35
chies 35
choco@@ 35
christie 35
ckers 35
co-@@ 35
conceal 35
condom 35
course 35
crankcase 35
cted 35
cuffed 35
cz 35
day6 35
diamante 35
direct@@ 35
discounted 35
dry@@ 35
embroid 35
emi@@ 35
enchanted 35
enhance 35
enzyme 35
eo@@ 35
esme 35
et-@@ 35
explo@@ 35
fleur 35
footsocks 35
framed 35
freshly 35
gee@@ 35
georgia 35
gger 35
ggy 35
ghi@@ 35
glutalight 35
graphy 35
gro 35
gunmetal 35
gy6 35
h4 35
half@@ 35
hama 35
harmony 35
havainas 35
hil@@ 35
hollywood 35
ico@@ 35
icons 35
ig 35
infan@@ 35
ingredients 35
instabright 35
iridium 35
iris 35
itzy 35
jdm 35
jeep 35
joseph 35
k8 35
kab@@ 35
kara 35
kelsey 35
kka 35
koko@@ 35
l.12.12 35
lady@@ 35
lamborghini 35
lana 35
lk 35
loaf 35
lucky@@ 35
mang@@ 35
marlboro 35
matte@@ 35
mbox 35
miss@@ 35
mme 35
momo@@ 35
monarch 35
mt-@@ 35
mugen 35
mura 35
murano 35
nies 35
nut@@ 35
nutrilite 35
nv@@ 35
oil@@ 35
opal 35
ornaments 35
pans 35
pas 35
patterns 35
pave 35
pedicure 35
petrol 35
pf 35
pickup 35
pique 35
pisonet 35
poison 35
pper@@ 35
price@@ 35
prima@@ 35
propeller 35
psy@@ 35
quart 35
quarter 35
rad 35
raffles 35
raz@@ 35
rebecca 35
repeater 35
restore 35
rinse 35
rite 35
rubbershoes 35
rustic 35
sds 35
servings 35
sew 35
shan 35
shoot 35
show@@ 35
sins 35
sla@@ 35
slam 35
slip@@ 35
snowflake 35
so-en 35
solotica 35
spears 35
stack 35
sucker 35
summer@@ 35
sunsilk 35
sweatshorts 35
tainer 35
teabags 35
tech@@ 35
textile 35
thrift 35
ths 35
tuner 35
ufc 35
uma 35
veg 35
vehicles 35
waistband 35
wika 35
windbreaker 35
wk@@ 35
woofer 35
xl-3xl 35
xs-s 35
xuebami 35
yale 35
yoyo 35
yuri 35
zel@@ 35
zoey 35
ᄋ@@ 35
』 35
𝐈@@ 35
-300@@ 34
-black 34
-g 34
-off 34
1-6 34
1.6@@ 34
1050 34
110g 34
14.2mm 34
18-24 34
2.5mm 34
255 34
2c 34
3.5g 34
306 34
355ml 34
36b 34
38mm 34
405 34
4cm 34
4ft 34
4pairs 34
51@@ 34
6000mah 34
6y 34
7inches 34
830 34
8m 34
946ml 34
a13@@ 34
abe 34
abs-cbn 34
ade@@ 34
adjuster 34
african 34
alle@@ 34
andre@@ 34
ante@@ 34
anti-scratch 34
astray 34
atmosphere 34
authorized 34
availa@@ 34
babyg 34
backlight 34
bacon 34
bae 34
bas 34
blast 34
bly 34
boards 34
cardholder 34
cause 34
chamois 34
checkerd 34
chole@@ 34
chrono 34
clasp 34
clau@@ 34
colla@@ 34
collage 34
costu@@ 34
cover-up 34
crisp 34
curvy 34
d1 34
ddy 34
denso 34
detective 34
dipbrow 34
dollhouse 34
dp@@ 34
dson 34
e7 34
earl 34
enne 34
enter@@ 34
ertiga 34
extendable 34
faber 34
foglight 34
fragrant 34
frill 34
fujidenzo 34
gain 34
garment 34
genic 34
genuine100 34
geronimo 34
gluta-@@ 34
glutax 34
gm@@ 34
gogh 34
graham 34
griffin 34
guit@@ 34
gym@@ 34
half-@@ 34
helicopter 34
hersheys 34
hi-cut 34
hion 34
hourglass 34
hrv 34
hstnn-@@ 34
hum@@ 34
hydrogel 34
i125 34
ido@@ 34
igo 34
iled 34
ing-@@ 34
inn 34
iphonexr 34
ique 34
irregular 34
iting 34
jaguar 34
je 34
jewellery 34
jim 34
jonaxx 34
julong 34
keepers 34
ket 34
kiehl 34
lara 34
leonard 34
lexi 34
lh 34
library 34
lust 34
magnolia 34
maii 34
manufactured 34
marga 34
maxglow 34
memo@@ 34
menstrual 34
mercier 34
miku 34
miller 34
miz@@ 34
moose 34
nacific 34
nal@@ 34
nouvo 34
nutri 34
o2 34
ob 34
occas@@ 34
off-@@ 34
oro 34
ort 34
oxi@@ 34
p20@@ 34
pals 34
pang@@ 34
papemelroti 34
patched 34
pawn@@ 34
physicians 34
pn-@@ 34
pong 34
portrait 34
prevent 34
protec 34
pudding 34
pull-out 34
punny 34
quinoa 34
rep@@ 34
repairing 34
rexona 34
rire 34
ris 34
rivet 34
rrj 34
runs 34
s9@@ 34
sa1e 34
sace 34
salve 34
selected 34
shopp@@ 34
shure 34
silverworks 34
sincerity 34
sion@@ 34
sippy 34
sk-@@ 34
smoothie 34
snu@@ 34
sonia 34
stance 34
stique 34
strengthening 34
stretch@@ 34
tail@@ 34
tali 34
teenage 34
teething 34
tft 34
thor@@ 34
toi@@ 34
tokidoki 34
toppers 34
true@@ 34
twopiece 34
ual 34
ull 34
units 34
unity 34
veil 34
vitam@@ 34
watchportal 34
weekender 34
whe@@ 34
wish@@ 34
woody 34
writ@@ 34
x-level 34
yon@@ 34
yours 34
yss 34
yz@@ 34
zzle 34
.......... 33
0.7mm 33
026 33
1151 33
12v@@ 33
16mm 33
179 33
187 33
193 33
2.2 33
200grams 33
20inches 33
232 33
234 33
237 33
24x@@ 33
2cm 33
307 33
31-3@@ 33
330ml 33
591ml 33
605 33
650ml 33
6pc 33
908 33
a14@@ 33
adore 33
adri@@ 33
ager 33
alchemist 33
alligator 33
alone 33
amer 33
angry 33
anie 33
anne@@ 33
antibac 33
anya 33
anycast 33
aper 33
ariana 33
asp@@ 33
attr@@ 33
auth@@ 33
baruan 33
batter@@ 33
beach@@ 33
beats 33
bells 33
billabong 33
blankets 33
blazers 33
blu-ray 33
bmx 33
bradley 33
braid 33
brothers 33
bucks 33
bumble 33
c.o.d 33
caseology 33
castell 33
cg125 33
chable 33
cheesecake 33
chief 33
chrome@@ 33
cial 33
cindy 33
cken 33
coke 33
compress 33
compu@@ 33
conan 33
cooper 33
crossing 33
cum 33
cw 33
dee 33
defen@@ 33
dermacol 33
designplus 33
dha 33
dimension 33
dle 33
dred 33
earring@@ 33
eco-friendly 33
effector 33
ego 33
ejm 33
electroplate 33
enclosure 33
engraved 33
entry 33
epoch 33
eun@@ 33
events 33
executive 33
f5@@ 33
fashi@@ 33
flange 33
fleer 33
freego 33
frixion 33
g-spot 33
g7 33
gamuza 33
gatsby 33
geek 33
gence 33
girly 33
glucose 33
godzilla 33
hc 33
hear@@ 33
henry 33
hl@@ 33
hou@@ 33
houston 33
ht-@@ 33
hua@@ 33
i12 33
impre@@ 33
ind 33
indigo 33
irl 33
iro 33
jennie 33
jun 33
jung 33
jx 33
karen 33
kittens 33
know 33
ktph 33
kyo@@ 33
l1 33
ladder 33
lattice 33
lds 33
lever@@ 33
lh@@ 33
lili@@ 33
litchi 33
logi@@ 33
longrich 33
lounge 33
macrame 33
magnifier 33
mara 33
mascot 33
mavic 33
meg 33
metro@@ 33
mickey@@ 33
microns 33
midoko 33
minimal 33
moti@@ 33
movable 33
mr.@@ 33
mrs 33
msh 33
much 33
n10 33
nak@@ 33
nano@@ 33
naturactor 33
near 33
neg@@ 33
noblekids 33
oily 33
oriental 33
ories 33
others 33
ou 33
oversea 33
p0@@ 33
p2 33
p30pro 33
park@@ 33
parking 33
pcx 33
pic@@ 33
pis 33
pix 33
pregnant 33
premi@@ 33
primary 33
pull-@@ 33
pulls 33
putty 33
qs 33
rail 33
ralliart 33
rayon 33
ream 33
recording 33
refills 33
reserve 33
russell 33
rx-@@ 33
ryzen 33
saga 33
samgy@@ 33
schoolbag 33
scooper 33
seasoned 33
shooting 33
shoul@@ 33
shrimp 33
singing 33
six@@ 33
skinlab 33
skintouch 33
snickers 33
sofi@@ 33
specialty 33
spokes 33
spotlight 33
squi@@ 33
stacking 33
stansmith 33
stefan 33
stila 33
suv 33
tease 33
thic 33
thickening 33
thief 33
thompson 33
tic@@ 33
tive 33
toning 33
toronto 33
turband 33
tv@@ 33
tx@@ 33
uchi@@ 33
unt 33
uses 33
v5-@@ 33
v5lite 33
vu@@ 33
watsons 33
watt 33
westbrook 33
wh 33
wishes 33
x125 33
yel@@ 33
z0@@ 33
zd55@@ 33
-07 32
0-3@@ 32
1288 32
159 32
15a 32
169 32
186 32
18pcs 32
19.5v 32
196 32
1992 32
2003-@@ 32
2005-@@ 32
2006-@@ 32
2016-2019 32
247 32
26-@@ 32
3-wick 32
3.42a 32
32-@@ 32
34b 32
45pcs 32
5000mah 32
50grams 32
552 32
600w 32
620 32
705 32
707 32
710@@ 32
80cm 32
903 32
abdomen 32
abund@@ 32
ac-@@ 32
airbrush 32
ake 32
alaric 32
aluminium 32
ande@@ 32
aqva 32
ar-@@ 32
aser 32
asha 32
ashi@@ 32
asymmetric 32
atin 32
ational 32
b1@@ 32
b4@@ 32
baker 32
balanced 32
baleno 32
banks 32
bedtime 32
beginner 32
blaze 32
blk@@ 32
bol@@ 32
bonbon 32
bor 32
bos 32
bour@@ 32
bowling 32
bracele@@ 32
buck 32
campus 32
caribbean 32
carol@@ 32
cassandra 32
cassie 32
center@@ 32
cerin 32
cers 32
chel@@ 32
chew@@ 32
coelho 32
colleen 32
connection 32
conver@@ 32
custo@@ 32
d4 32
dee@@ 32
dexe 32
diver 32
dn 32
donruss 32
dylan 32
e-juice 32
e5 32
econo@@ 32
editions 32
encore 32
ergonomic 32
etti 32
f. 32
fabcon 32
fai@@ 32
faito 32
falling 32
favorites 32
fibisco 32
fingers 32
fisher-price 32
gallery 32
gene@@ 32
gerry 32
gluten 32
gluth@@ 32
gone 32
guerisson 32
h. 32
hamper 32
hanna 32
hazeshop 32
hbd 32
hj@@ 32
horizon 32
hygiene 32
hyun 32
ibo 32
icm 32
impor@@ 32
infusion 32
insta 32
inte@@ 32
ista 32
iv@@ 32
ive 32
j330 32
jama 32
jibbitz 32
jojoba 32
jol@@ 32
justin 32
kei@@ 32
kose 32
koso 32
kuma 32
kyle 32
lamaze 32
leigh 32
lepin 32
lids 32
lier 32
lje 32
lose 32
lumi@@ 32
lunar 32
macadamia 32
madison 32
mage 32
maro@@ 32
master@@ 32
mate10 32
mauve 32
mech 32
medicinal 32
medium-@@ 32
mela 32
ment@@ 32
milkca 32
mis 32
mmies 32
mobile@@ 32
moistfull 32
mortal 32
muscletech 32
nemo 32
never@@ 32
nn 32
noki@@ 32
nova4 32
ntsc-@@ 32
omaga 32
omron 32
osmo 32
oud 32
p50 32
padding 32
patterson 32
paws 32
penta@@ 32
pg-@@ 32
piso 32
points 32
pop-up 32
poppy 32
prep 32
primark 32
private 32
promise 32
puffs 32
quantum 32
ramyun 32
reese 32
relx 32
resealable 32
rh 32
riley 32
ritz 32
riz@@ 32
roman@@ 32
rxr 32
ryxskin 32
sailormoon 32
sala 32
sale. 32
sanitizing 32
scrubber 32
scul@@ 32
september 32
shadows 32
similac 32
siren 32
skir@@ 32
sleveless 32
smashbox 32
span@@ 32
sq 32
ssam@@ 32
sterile 32
strand 32
swee@@ 32
tapioca 32
tera 32
terminal 32
theater 32
theo@@ 32
tightening 32
timex 32
tino 32
trees 32
triton 32
tul@@ 32
tuxedo 32
ulzzang 32
underarmour 32
usb-c 32
vein 32
velvetines 32
vivi@@ 32
voucher 32
vtech 32
warning 32
waves 32
west@@ 32
white-@@ 32
wii 32
willow 32
wol@@ 32
wp@@ 32
wre@@ 32
x75 32
xe 32
yema 32
yet 32
yj@@ 32
yon 32
yoyoso 32
zan 32
『 32
-cod 31
-fit 31
.5cm 31
0-3m 31
1.5mm 31
10,000mah 31
105@@ 31
10pc 31
150mm 31
152 31
153 31
176 31
1piece 31
2-5 31
200cm 31
2018-19 31
211 31
227 31
229 31
235 31
242 31
25-@@ 31
290 31
2p 31
326 31
32mm 31
375@@ 31
3pro 31
402 31
4d@@ 31
4g@@ 31
550kl 31
6-9@@ 31
7-1 31
93@@ 31
9x@@ 31
a12@@ 31
absolu 31
acu@@ 31
adjust 31
area 31
arr@@ 31
astro@@ 31
att@@ 31
atten@@ 31
aussie 31
azur 31
b4 31
bakeware 31
bangko@@ 31
beau 31
biking 31
bl-@@ 31
blake 31
blowout 31
brocade 31
butterflies 31
c10 31
c100 31
cameron 31
cello@@ 31
chimmy 31
chocol@@ 31
chon 31
choo@@ 31
chri@@ 31
cici 31
cms 31
cocoberry 31
coffe@@ 31
conversion 31
corned 31
coverup 31
covi@@ 31
crate 31
creator 31
cross-@@ 31
cup@@ 31
cutters 31
dic@@ 31
dk 31
draw@@ 31
dul@@ 31
e- 31
eeee@@ 31
ell@@ 31
enie 31
entrance 31
envelopes 31
excelsior 31
exchange 31
fav 31
fearless 31
fibre 31
fici@@ 31
fishnet 31
fl. 31
fl.oz 31
fleetmax 31
florence 31
fluoride 31
frank@@ 31
ga-110 31
geni@@ 31
going 31
gour@@ 31
gplus 31
graphite 31
greeting 31
guardians 31
hamilton 31
hara 31
hikari 31
impro@@ 31
infl@@ 31
intra 31
itas 31
ities 31
j42018 31
jar@@ 31
jd 31
jewelry@@ 31
jjs 31
js@@ 31
jvt 31
k001 31
kanken 31
kathryn 31
kindergarten 31
kiwi 31
komodo 31
ktv 31
kyo 31
l-2xl 31
lacy 31
lai@@ 31
laun@@ 31
lbb 31
lea@@ 31
lebelage 31
lence 31
lesportsac 31
lina 31
lint 31
lipp@@ 31
lite@@ 31
locker 31
looking 31
loops 31
luckin 31
lumens 31
luxcent 31
maca 31
maiden 31
maldita 31
manuka 31
matter 31
medium-large 31
mented 31
mio125 31
mit 31
mizuno 31
mona 31
monica 31
mtr 31
name@@ 31
negotiable 31
newyork 31
nik 31
nourish 31
ns-@@ 31
nuby 31
olaf 31
online@@ 31
origins 31
overwatch 31
p9@@ 31
paperang 31
paren@@ 31
pasjel 31
penelope 31
percy 31
perkins 31
pom 31
pos 31
prai@@ 31
presen@@ 31
projection 31
quality@@ 31
qube 31
quick-drying 31
quiksilver 31
r11s 31
raven 31
rb 31
ree@@ 31
regi@@ 31
resident 31
rid 31
rive@@ 31
robes 31
roblox 31
rockets 31
rollerball 31
rs100 31
s4@@ 31
sac 31
sad 31
sdf@@ 31
see-through 31
sf-@@ 31
shou@@ 31
silica 31
simpli@@ 31
slice 31
slimfit 31
softband 31
spen@@ 31
squareneck 31
stant 31
susan 31
tah 31
tb@@ 31
then@@ 31
thickened 31
thumbler 31
tiesides 31
totally 31
twenty 31
ubiquiti 31
uhs-i 31
underwater 31
unge 31
vct@@ 31
vegetarian 31
visible 31
vivo@@ 31
webcam 31
wed@@ 31
wei 31
wheel@@ 31
whisky 31
whole@@ 31
wj 31
x.@@ 31
x21 31
· 31
ᅡ@@ 31
𝐞@@ 31
-size 30
0.5@@ 30
028 30
030 30
034 30
036 30
039 30
118ml 30
143 30
16.@@ 30
173 30
18v 30
191 30
1oz 30
20000 30
202@@ 30
219 30
23.5l 30
2500 30
25l 30
28-34 30
299 30
3.4 30
3.7v 30
331 30
340@@ 30
35-39 30
370@@ 30
399 30
3color 30
5-1 30
50s 30
6ft 30
6oz 30
7000 30
7cm 30
803 30
818 30
818@@ 30
88ml 30
8inch 30
900g 30
90s 30
920 30
99.@@ 30
a62018 30
a70s 30
a91 30
aa-@@ 30
abe@@ 30
acce@@ 30
adhe@@ 30
adilette 30
agent 30
ahd 30
aler 30
all-natural 30
allergenic 30
along 30
alyssa 30
amor 30
anti-colic 30
apruva 30
aquatic 30
attached 30
b-0@@ 30
baf 30
bake 30
bani@@ 30
barcode 30
bigsize 30
bonnie 30
booklet 30
bourke 30
broad@@ 30
bustier 30
bv-@@ 30
camcorder 30
carla 30
carol 30
chapter 30
chilli 30
citizen 30
cke@@ 30
coachella 30
compre@@ 30
constru@@ 30
continental 30
cost@@ 30
cot 30
crane 30
cute@@ 30
dab@@ 30
dandelion 30
dashing 30
decool 30
despicable 30
diab@@ 30
dmc 30
dna 30
doi@@ 30
doll@@ 30
dor 30
drawers 30
dresser 30
drl 30
drypers 30
eliz@@ 30
embo@@ 30
energizer 30
enriched 30
eric 30
eve@@ 30
exfoli@@ 30
exfoliant 30
f3@@ 30
faber-castell 30
feathers 30
feeling 30
fine@@ 30
flirt 30
flouri@@ 30
flute 30
foglamp 30
found@@ 30
friday 30
furious 30
furla 30
fx@@ 30
g-string 30
g0@@ 30
gamosa 30
gd-@@ 30
geo@@ 30
gian@@ 30
gkk 30
gluco@@ 30
godox 30
gor@@ 30
groot 30
gsw 30
hairbows 30
haven 30
hh@@ 30
highlighters 30
hinges 30
holster 30
htt@@ 30
i. 30
illusion 30
individually 30
ise 30
ites 30
ivana 30
jak@@ 30
jeweled 30
jf 30
joggers 30
jordana 30
juan 30
jui@@ 30
jute 30
jw 30
kad@@ 30
kan 30
karadium 30
katrina 30
katsa 30
kie@@ 30
kimchi 30
kita 30
kne@@ 30
komine 30
kool 30
kul@@ 30
kuroko 30
ladladlandph 30
lala 30
lans@@ 30
lemongrass 30
lewis 30
lig@@ 30
louise 30
lulu 30
luncheon 30
m9 30
m9@@ 30
mae@@ 30
mai 30
mans 30
marmont 30
mediapad 30
mega@@ 30
metromanila 30
mf 30
mfjewelry 30
minimizer 30
mochi 30
mons 30
mori 30
morty 30
mps 30
mrc-@@ 30
mun 30
muse 30
mx-@@ 30
nan 30
naughty 30
nd@@ 30
necklace@@ 30
needles 30
nium 30
nn@@ 30
non-toxic 30
nova5i 30
nuo 30
octa@@ 30
oes 30
onlyyouth 30
ono 30
osram 30
outerwear 30
overun 30
palawan 30
papers 30
parallel 30
password 30
patri@@ 30
pba 30
pier@@ 30
pillowcases 30
pitta 30
ple 30
pms 30
pocketbook 30
primera 30
program@@ 30
puffed 30
rece@@ 30
reclin@@ 30
register 30
renewing 30
resi@@ 30
resurfacing 30
retinol 30
revi@@ 30
rich@@ 30
rj@@ 30
rox@@ 30
rs150 30
rta 30
ruched 30
rules 30
s10lite 30
s925 30
sausage 30
secure 30
see@@ 30
shabu 30
shapewear 30
shat@@ 30
short-@@ 30
sketch@@ 30
skins 30
slim@@ 30
small-large 30
smd 30
sooper 30
sor 30
spectrum 30
spf15 30
spyker 30
sri@@ 30
stack@@ 30
stealth 30
stitching 30
stone@@ 30
strobe 30
sunshield 30
tassels 30
tay@@ 30
techni@@ 30
television 30
thir@@ 30
throat 30
time@@ 30
tion@@ 30
tix 30
tongue 30
tracy 30
tsubaki 30
twice@@ 30
tyre 30
uki 30
ulity 30
umi 30
unsweetened 30
v.@@ 30
v5plus 30
vanessa 30
ventilation 30
vero 30
vina 30
vinci 30
voo@@ 30
washcloth 30
woods 30
x20 30
xqt-@@ 30
yaris 30
yle 30
zma 30
zoya 30
zu 30
-44 29
-t@@ 29
0-3mos 29
022 29
024 29
033 29
051 29
1.1@@ 29
1000pcs 29
1005 29
164 29
1991 29
20a 29
213@@ 29
218 29
240ml 29
28-@@ 29
282 29
28street 29
2colors 29
2inch 29
334 29
36-45 29
366 29
3usb 29
4-6@@ 29
410 29
430 29
45ml 29
5-piece 29
580 29
5pairs 29
7-in-1 29
8-10 29
858 29
8t 29
9s 29
able@@ 29
abo@@ 29
active@@ 29
adul@@ 29
aesop 29
affor@@ 29
aga@@ 29
again 29
aged 29
air-@@ 29
aller 29
alt 29
anas 29
anker 29
appro@@ 29
aquas@@ 29
astar 29
atom 29
b1t1 29
bai@@ 29
barebody 29
barely 29
bata 29
bebe@@ 29
beh@@ 29
beli@@ 29
bergam@@ 29
birken 29
bler 29
blu 29
bobson 29
bos@@ 29
brande@@ 29
brightest 29
bubblegum 29
bulldog 29
bund@@ 29
busy 29
buzz 29
cables 29
calorie 29
came@@ 29
camp 29
camry 29
carbonate 29
cath@@ 29
central 29
cerave 29
cere@@ 29
chest@@ 29
colourful 29
cond@@ 29
counting 29
croco 29
cu 29
cudd@@ 29
cuffs 29
cw@@ 29
d001 29
dale 29
davi@@ 29
ddle 29
decker 29
deodorizer 29
developer 29
diaries 29
digits 29
dinosaurs 29
divine 29
doo@@ 29
earloop 29
emboss 29
essie 29
exotic 29
exp@@ 29
exquisite 29
files 29
filipiniana 29
finest 29
finished 29
fiya 29
flounce 29
fpv 29
freak 29
freshwater 29
fudge 29
fujitsu 29
fullface 29
galactomyces 29
gand@@ 29
gate@@ 29
gigi 29
giving 29
glide 29
gods 29
gol 29
grizzly 29
gth 29
happywallph 29
hd-@@ 29
human@@ 29
incredible 29
ingo 29
intal 29
january 29
jelt 29
john@@ 29
joyo 29
k-pop 29
kath@@ 29
kiss@@ 29
knee-@@ 29
l-gluta 29
l.o.@@ 29
lamps 29
large@@ 29
latitude 29
layout 29
leak@@ 29
led-@@ 29
lettes 29
lex@@ 29
linda 29
liptints 29
livestreaming 29
mallows 29
mango@@ 29
masked 29
mature 29
meri@@ 29
meric 29
mess 29
metal@@ 29
micron 29
milli@@ 29
mind@@ 29
mirr@@ 29
mlb 29
mmy 29
model@@ 29
modeling 29
monte 29
motorcy@@ 29
mots 29
mounting 29
mummy 29
mus 29
mutarru 29
n-max 29
naturale 29
nica 29
nova5 29
olo 29
oscar 29
ote@@ 29
p. 29
packbag 29
personali@@ 29
pld 29
plusize 29
port@@ 29
pranela 29
pristine 29
push@@ 29
q1 29
quin@@ 29
rand@@ 29
refining 29
ress 29
rey 29
rier 29
rober@@ 29
rodeo 29
roof 29
sag@@ 29
sandugo 29
savers 29
secondhand 29
seconds 29
sentra 29
sequ@@ 29
serv@@ 29
serve 29
seven@@ 29
sh-@@ 29
shad@@ 29
shane 29
shei@@ 29
shirly 29
shiro 29
shment 29
shuta 29
slate 29
slay 29
slogan 29
slr 29
smashing 29
sp-@@ 29
spanish 29
spider@@ 29
squeaky 29
stin 29
stir@@ 29
ston 29
stor 29
straw@@ 29
stx 29
superheroes 29
supplements 29
sym 29
t-back 29
t-shir@@ 29
tain@@ 29
teats 29
tex@@ 29
tomat@@ 29
topp@@ 29
topps 29
track@@ 29
transfor@@ 29
triangular 29
tulip 29
tured 29
turtles 29
txt 29
urine 29
valiant 29
vd 29
velour 29
virtual 29
w125 29
whitener 29
write 29
wynn 29
xing 29
xmax 29
xo@@ 29
yor@@ 29
yummy 29
zx@@ 29
-10 28
-12 28
-5 28
002@@ 28
032 28
047 28
053 28
1.2l 28
13.@@ 28
146 28
14x@@ 28
166 28
18mm 28
2.8 28
258 28
260gsm 28
28mm 28
2pcs. 28
3310 28
3b 28
3e 28
3kl 28
4.0@@ 28
4.2 28
45mm 28
4d-@@ 28
5-6@@ 28
5.5@@ 28
50x@@ 28
512@@ 28
55g 28
570 28
6000@@ 28
609 28
61@@ 28
660@@ 28
6v 28
7,@@ 28
7-8 28
70x@@ 28
720@@ 28
7inch 28
820@@ 28
a11@@ 28
a20@@ 28
aape@@ 28
abelle 28
acc 28
aircraft 28
all-inclusive 28
amat@@ 28
amaz@@ 28
amp@@ 28
ange 28
anti-dust 28
antine 28
applique 28
asse@@ 28
aster 28
atlas 28
atv 28
aukey 28
bagoong 28
barbara 28
beachkins 28
beddings 28
belgi@@ 28
bennett 28
bers 28
bert 28
blen@@ 28
bloody 28
bnwot 28
bob@@ 28
bonus 28
bot@@ 28
breasted 28
brite 28
brushless 28
bury 28
c7@@ 28
cali 28
caly@@ 28
cavaliers 28
cellular 28
chal@@ 28
chay 28
checker 28
chekered 28
cherie 28
chok 28
cis 28
ciss 28
class10 28
cleanse 28
coast 28
codpawnable 28
collins 28
commander 28
concrete 28
constellation 28
corrugated 28
coupler 28
crafting 28
crank@@ 28
crimson 28
croc 28
ction@@ 28
d-0@@ 28
dermal 28
destash 28
dic 28
dmax 28
doz 28
due 28
dyo@@ 28
ebene 28
ecosport 28
edi@@ 28
eliminator 28
elo 28
endur@@ 28
erich 28
experia 28
fallen 28
fashionice 28
fier 28
financial 28
finn 28
flage 28
flair 28
flam@@ 28
follow 28
francesca 28
frequency 28
ga-110@@ 28
gers 28
ghoul 28
ght@@ 28
gk 28
glade 28
glutagen 28
gra 28
grandia 28
graph 28
grit 28
hak@@ 28
handles 28
hatsune 28
held 28
hemp 28
henne@@ 28
hex@@ 28
hf 28
high-waisted 28
hilar@@ 28
hugot 28
hui 28
hungry 28
in. 28
ined 28
insipio 28
isol@@ 28
ith@@ 28
jb@@ 28
jel@@ 28
jenner 28
kao 28
kari 28
kawhi 28
kickstand 28
kinder 28
kojic@@ 28
kuro@@ 28
lactation 28
laine 28
lander 28
lemon@@ 28
licensed 28
locked 28
loft 28
love11@@ 28
lucy 28
lunchbag 28
mak@@ 28
maxell 28
measure@@ 28
micari 28
mined 28
moist@@ 28
month@@ 28
narrow 28
neem 28
nip 28
nomad 28
nori 28
nothing 28
nova@@ 28
oc@@ 28
october 28
orginal 28
orious 28
outfits 28
outside 28
overalls 28
p8@@ 28
pay 28
phase 28
phat 28
pili 28
pinas 28
pir@@ 28
plan 28
polisher 28
popp@@ 28
poten@@ 28
pple 28
prewalker 28
printable 28
proce@@ 28
prosperity 28
psvita 28
pub 28
racks 28
reality 28
rectifier 28
relaxing 28
restocked 28
restor@@ 28
rg@@ 28
robo@@ 28
role 28
roll@@ 28
rucksack 28
s6edge 28
sabina 28
salt@@ 28
samplers 28
sandal@@ 28
sanji 28
satur@@ 28
saudigoldpawnable@@ 28
saya 28
screen@@ 28
scripture 28
seatcover 28
self@@ 28
sensational 28
sense4 28
sense6 28
sette 28
sheath 28
shf 28
sie@@ 28
singer 28
sman 28
smock 28
splen@@ 28
sportsbra 28
ssing 28
st.@@ 28
stiletto 28
strand@@ 28
super-@@ 28
superbklean 28
surround 28
symbol 28
t4@@ 28
tablea 28
tain 28
tca 28
tension 28
tes@@ 28
textbook 28
thy@@ 28
tica 28
trail@@ 28
trapal 28
tries 28
trip 28
tual 28
tubbies 28
ucc 28
ukelele 28
urs 28
vie@@ 28
vince 28
volcom 28
wata 28
wers 28
whiskas 28
xin 28
xinjia 28
xtra 28
xz 28
yakimoto 28
yun@@ 28
zc520tl 28
zenfone@@ 28
zero@@ 28
zf 28
's@@ 27
-06 27
-41 27
-it 27
-neck 27
-x@@ 27
0.7 27
0000@@ 27
001@@ 27
054 27
1-12 27
1.25 27
1.36kg 27
1.5kg 27
10kg 27
110ml 27
12-18m 27
125i 27
150cm 27
150i 27
163 27
18months 27
1k 27
2004-@@ 27
2009-@@ 27
2017-18 27
220g 27
230gsm 27
231 27
243 27
251 27
259 27
280ml 27
2x2 27
316l 27
328 27
32cm 27
411 27
45g 27
5-pack 27
507 27
509 27
5se 27
604 27
60mm 27
727 27
7i 27
7oz 27
8-12 27
80mm 27
820 27
90w 27
925silver 27
98-@@ 27
99.9 27
a-0@@ 27
a7-@@ 27
aceking 27
acidic 27
ad-@@ 27
agi 27
amin@@ 27
anger 27
animated 27
anti-dandruff 27
atar 27
aves 27
avr 27
ba-@@ 27
bagshop 27
becado 27
bh@@ 27
bia 27
bias 27
bieber 27
bikers 27
birkin 27
birth@@ 27
blisty 27
bluetoo@@ 27
botani@@ 27
bre 27
brief@@ 27
brigh@@ 27
bsn 27
bulbs 27
bumgenius 27
camou 27
canmake 27
canned 27
capo 27
cardcaptor 27
cate 27
ceci@@ 27
centrix 27
chafing 27
chakra 27
charm@@ 27
cheeks 27
chinkee 27
chua 27
cleveland 27
cm-13@@ 27
coas@@ 27
compon@@ 27
convenient 27
coq10 27
cora 27
cov@@ 27
cr 27
creams 27
crop@@ 27
dana 27
deoproce 27
dimen@@ 27
directional 27
division 27
dm 27
doggy 27
downlight 27
dress. 27
drift 27
dryfit 27
duction 27
dumbbell 27
dusk 27
dutche 27
eclipse 27
eee 27
eleven 27
elin 27
ellie 27
engrave 27
engraving 27
environmental 27
essences 27
essenti@@ 27
eternal 27
examination 27
explosive 27
f18 27
f7@@ 27
falcon 27
fantasies 27
faye 27
fect 27
fern-d 27
five-@@ 27
flags 27
fraiche 27
frontier 27
gang@@ 27
garanimals 27
geena 27
geo 27
ggie 27
ggs 27
gles 27
glutat@@ 27
greentea 27
hardness 27
heart-shaped 27
high-waist 27
hinge 27
hit 27
hn@@ 27
hobonichi 27
horror 27
ichiban 27
infused 27
inje@@ 27
ips 27
ital 27
jewels 27
kandp 27
kendall 27
kenko 27
kf@@ 27
kis 27
laurel 27
laz@@ 27
leen 27
lete 27
lifetime 27
line@@ 27
lio 27
logg 27
loloph 27
luke 27
luxxe@@ 27
mable 27
machines 27
madeca 27
malt 27
mamas 27
manufacturer 27
margar@@ 27
mbo 27
megui@@ 27
mela@@ 27
mers 27
metalic 27
meyer 27
micheal 27
might 27
milk@@ 27
mille@@ 27
milliliters 27
mini4 27
mise 27
miso 27
mission 27
mna 27
monitoring 27
mp-@@ 27
mq@@ 27
mtk 27
muddy 27
mustela 27
muster 27
n88 27
nac 27
neca 27
nectar 27
neil 27
nel@@ 27
net@@ 27
nh@@ 27
niacinamide 27
nib 27
nido 27
northface 27
november 27
nr 27
nutritional 27
obsidian 27
olymp@@ 27
ond 27
one68 27
onics 27
oper@@ 27
opy 27
organ@@ 27
ova 27
paramore 27
parfu@@ 27
parfums 27
pashmina 27
path 27
pera 27
person@@ 27
pistachi@@ 27
pito 27
pocke@@ 27
polly 27
polycotton 27
prize 27
protect@@ 27
pton 27
ptop 27
qualit@@ 27
quet 27
rement 27
restaurant 27
retailer 27
reve 27
riverdale 27
ryan 27
sabo 27
sak 27
salicylic 27
sang@@ 27
say@@ 27
scand@@ 27
script 27
scru@@ 27
sdd@@ 27
shirt- 27
shoes-@@ 27
shots 27
silverhan 27
single-@@ 27
sisters 27
skippy 27
skt 27
sm. 27
soleil 27
soul@@ 27
sparco 27
sses 27
stel@@ 27
stripper 27
sunvit- 27
sv@@ 27
sweatshirts 27
t230 27
tails 27
tang 27
template 27
tery 27
tessa 27
they 27
tifying 27
titans 27
tofu 27
treasures 27
tress 27
trinity 27
trust 27
twisting 27
ufo 27
uhd 27
uka@@ 27
ume 27
unde@@ 27
usborne 27
uso 27
ute 27
vermi@@ 27
vio@@ 27
violin 27
w10 27
wavy 27
wearing 27
weatherproof 27
weison 27
wf@@ 27
wholesaler 27
williams 27
wire@@ 27
y5-2 27
yalex 27
yco 27
your@@ 27
zai 27
zaku 27
zhi@@ 27
zombie 27
� 27
,000mah 26
-00 26
-b 26
-proof 26
0.6 26
070 26
1-5@@ 26
1.2kg 26
1000rpm 26
100pesos 26
10grams 26
10th 26
12pieces 26
12x12 26
134 26
14.5mm 26
147 26
148 26
14inches 26
18karat 26
20kg 26
236@@ 26
275 26
2xl-4xl 26
3-layer 26
318 26
322 26
323 26
338 26
35cm 26
36pcs 26
428 26
454g 26
4p 26
4ply 26
4s1m 26
4usb 26
503 26
50mah 26
512 26
518 26
6.0 26
678 26
775@@ 26
8-in-1 26
806 26
819@@ 26
8l 26
a11 26
a5000 26
abby 26
accen@@ 26
acupuncture 26
adjustment 26
af1 26
aira 26
aladdin 26
aline 26
alis 26
allo@@ 26
alter@@ 26
ample 26
ance@@ 26
ancient 26
anti-fall 26
anti-wrinkle 26
api 26
ardo 26
ascen@@ 26
assor@@ 26
astringent 26
astronaut 26
aud@@ 26
auth. 26
auto-@@ 26
aventurine 26
bacterial 26
bag- 26
bakery 26
bark 26
beth 26
binding 26
bj@@ 26
boar@@ 26
booth 26
bore 26
bras@@ 26
bratz 26
breastpump 26
brera 26
bridesmaid 26
bull@@ 26
buyer 26
c-0@@ 26
cardboard 26
cardstock 26
chandelier 26
cheeky 26
ckles 26
class-a 26
click@@ 26
closure 26
coloured 26
colu@@ 26
confe@@ 26
correcting 26
craf@@ 26
cting 26
cuticle 26
cv@@ 26
cz@@ 26
d-max 26
d5 26
dalandan 26
dandruff 26
danielle 26
decathlon 26
deco@@ 26
deepcool 26
dered 26
desi@@ 26
detoxifying 26
devo@@ 26
dew@@ 26
dick@@ 26
digit 26
direction 26
dive 26
dont 26
dowell 26
dra 26
drive@@ 26
duck@@ 26
duct 26
dust-proof 26
dx@@ 26
e5-@@ 26
eart 26
eb@@ 26
ebike 26
eg 26
embroider 26
eq@@ 26
er. 26
europe 26
expand@@ 26
experience 26
fashions 26
fierce 26
fir 26
flexi 26
frankincense 26
fren@@ 26
fructis 26
funnel 26
g6@@ 26
g9@@ 26
gadgets 26
gala@@ 26
gardenia 26
garments 26
gary 26
generator 26
germ 26
gets 26
gif@@ 26
girbaud 26
girlfriend 26
glassware 26
god@@ 26
grammar 26
granules 26
grat@@ 26
greencross 26
gtx@@ 26
guns 26
haze 26
hea 26
headsets 26
helper 26
highlighting 26
highly 26
hill@@ 26
hunt 26
ich@@ 26
ii@@ 26
illustrated 26
ilog 26
in1@@ 26
indo@@ 26
ito@@ 26
j5@@ 26
jackie 26
jap@@ 26
jerseys 26
jill 26
jto 26
julius 26
juniors 26
jurassic 26
kel 26
kev@@ 26
kevler 26
kigurumi 26
kihno 26
kily.ph 26
kitchen@@ 26
kitty@@ 26
knit@@ 26
kts-@@ 26
l300 26
labiotte 26
lac 26
lah 26
lamin@@ 26
lance@@ 26
language 26
lasercut 26
leave 26
leon 26
lexing 26
lipkit 26
lotions 26
lowback 26
lychee 26
lyne@@ 26
mako@@ 26
maru 26
masters 26
maui 26
maveri@@ 26
maxwell 26
mba 26
mcc@@ 26
mcdo 26
megalast 26
melimelo 26
melted 26
mendoza 26
midri@@ 26
mika@@ 26
misaki 26
mitt 26
mium 26
mk5@@ 26
monaco 26
monte@@ 26
mother@@ 26
motomo 26
mov@@ 26
murang 26
mxi 26
n5 26
nag@@ 26
nas 26
natal 26
nee 26
nen@@ 26
nightmare 26
nirvana 26
nord 26
nutr@@ 26
ola@@ 26
older 26
orocan 26
otterbox 26
overlay 26
p1000 26
p3 26
packaged 26
panla@@ 26
pantyhose 26
parti@@ 26
pasalubong 26
pcs@@ 26
pebble 26
pedi@@ 26
percent 26
perfectly 26
perm 26
phonecase 26
pixma 26
plain@@ 26
pleats 26
pneumatic 26
polar@@ 26
polit@@ 26
pompoms 26
position 26
preppy 26
prescription 26
pretty@@ 26
profe@@ 26
ption 26
publi@@ 26
r2 26
rag@@ 26
rakk 26
rapoo 26
realmex 26
reflex 26
reg 26
rejuven@@ 26
rence 26
reple@@ 26
rey@@ 26
ribs 26
ringlight 26
rm@@ 26
road@@ 26
rounds 26
rubi 26
s7562 26
sana 26
scoo@@ 26
sensation 26
sharpen@@ 26
shoelace 26
shun 26
sional 26
skn 26
skybox 26
snowflakes 26
snowman 26
society 26
soprano 26
soya 26
squee@@ 26
ssive 26
sso@@ 26
standar@@ 26
stap@@ 26
stimulator 26
strapped 26
stuffed@@ 26
t4k 26
tacti@@ 26
tad@@ 26
tara 26
techtrance 26
thigh 26
thology 26
thro@@ 26
tiered 26
tilt 26
tings 26
tinker 26
tis@@ 26
toasted 26
tobi 26
tote@@ 26
touchpad 26
trafaluc 26
travis 26
trek 26
trin@@ 26
tuffgear 26
tweed 26
twine 26
u. 26
using 26
uta 26
variation 26
vu 26
waikiki 26
waltz 26
whide 26
whit 26
wintermelon 26
wires 26
within 26
wok 26
workpro 26
wreath 26
xo-@@ 26
xt@@ 26
y- 26
y55s 26
yao 26
yeast 26
zc553kl 26
zealand 26
znb 26
zurc 26
ᅵ@@ 26
░ 26
-15@@ 25
-16@@ 25
-4a 25
-new 25
-s 25
-white 25
.shop 25
0.3 25
1-0@@ 25
1.5ml 25
10.2 25
1002 25
1004 25
1050@@ 25
10inch 25
11.5 25
11g 25
154 25
177 25
183 25
1970 25
1meter 25
1mp 25
2.4@@ 25
200pcs 25
2016-2020 25
214 25
217 25
230ml 25
24months 25
256@@ 25
2600mah 25
288 25
345 25
375 25
3pcs. 25
4000mah 25
40a 25
410@@ 25
5.8 25
500pcs 25
551 25
55mm 25
58mm 25
5inches 25
6-12mos 25
625 25
666 25
6i 25
760@@ 25
823@@ 25
88-@@ 25
8x11 25
9000mah 25
99-@@ 25
abbott 25
absorb@@ 25
activities 25
actor 25
ader 25
ae-@@ 25
agri 25
aker 25
akk7@@ 25
alized 25
alizer 25
already 25
ances 25
andriod 25
annual 25
ano@@ 25
arcade 25
assemble 25
assy@@ 25
asy 25
auxi@@ 25
b12 25
background 25
bacteria 25
bathtub 25
beas@@ 25
beeswax 25
beryl 25
bi-fold 25
bies 25
bikes 25
billie 25
bioline 25
bl-5@@ 25
blade@@ 25
blooms 25
bly@@ 25
bobs 25
breathe 25
broom 25
bud@@ 25
buffing 25
buldak 25
bus@@ 25
c7 25
capac@@ 25
capiz 25
carryall 25
carved 25
cas 25
casu@@ 25
cateye 25
cello 25
cellu@@ 25
ceramide 25
certificate 25
ceu@@ 25
chains 25
chargers 25
chat 25
chlorine 25
chocker 25
christ 25
cinnamoroll 25
citro@@ 25
ckey 25
clai@@ 25
cology 25
colorstay 25
columbia 25
content 25
corps 25
coup@@ 25
cry 25
cu.ft. 25
cua 25
cut-@@ 25
cx 25
cycles 25
d-1@@ 25
dallas 25
darci 25
davao 25
deadly 25
deformation 25
dess@@ 25
difference 25
dir-@@ 25
dir@@ 25
dney 25
dp-@@ 25
dura 25
e2 25
e7@@ 25
earbud 25
eczema 25
edens 25
elec@@ 25
ellen 25
embellished 25
engineer 25
equalizer 25
ew@@ 25
f5youth 25
fansite 25
fisher@@ 25
flared 25
flav@@ 25
flon 25
flux 25
focallure 25
fortified 25
fortun@@ 25
fury@@ 25
ga110@@ 25
gel-cream 25
geometry 25
given 25
gk@@ 25
glutamax 25
goodnight 25
graco 25
graduation 25
grande 25
grounds 25
guar@@ 25
guil@@ 25
gunpla 25
gw 25
handi@@ 25
handsoap 25
hao@@ 25
heartstrings 25
heimish 25
hele@@ 25
hh 25
hip@@ 25
holding 25
houseware 25
hoy 25
hurley 25
hz 25
i5-@@ 25
ical 25
ida 25
illuminated 25
imari 25
inga 25
install@@ 25
invictus 25
iphone8 25
iphonexs 25
iso 25
iwhite 25
j7plus 25
jan 25
jean@@ 25
jomalone 25
jour@@ 25
jovan 25
juni@@ 25
k.o 25
kag@@ 25
kapote 25
kathy 25
kaye 25
koji@@ 25
l- 25
laughing 25
lazypod 25
lc150 25
leak 25
leapfrog 25
legion 25
lev3 25
levit@@ 25
lexington 25
lime@@ 25
litre 25
lk@@ 25
looks 25
loud 25
lq 25
luci@@ 25
lure 25
lx-@@ 25
macy 25
manifold 25
masquerade 25
mct 25
meme 25
memor@@ 25
meteor 25
milkshake 25
miniatures 25
mirro@@ 25
mirrorless 25
mmi@@ 25
mmm 25
mping 25
nail@@ 25
names 25
napkins 25
neocell 25
neogen 25
nex 25
ng@@ 25
nishing 25
no6 25
note10@@ 25
np 25
o-neck 25
o-ring 25
ohm 25
onwards 25
opulent 25
organizers 25
oxidant 25
papa 25
papas 25
parent 25
passion@@ 25
peach@@ 25
peas 25
pere@@ 25
perfector 25
pg-90@@ 25
philipp@@ 25
phon 25
photopaper 25
pirates 25
pired 25
planter 25
plung@@ 25
polvoron 25
prone 25
puller 25
quat@@ 25
rado 25
rape 25
relic 25
repackage 25
replace 25
reser@@ 25
review 25
richard 25
rightpack 25
rihanna 25
rison 25
rockstud 25
rotatable 25
row@@ 25
rugs 25
rule 25
sable 25
sasha 25
scal@@ 25
scalar 25
scars 25
scrapbooking 25
sdcz@@ 25
sei 25
sens@@ 25
serena 25
shinee 25
shp 25
sic 25
sio 25
siopao 25
sletic 25
slingback 25
smacker 25
snakeskin 25
soybean 25
spld 25
sps 25
starfish 25
starting 25
string@@ 25
sugardolls 25
sumsung 25
supergirl 25
survi@@ 25
swag 25
sx 25
t285 25
t7@@ 25
tanktop 25
tanya 25
tapered 25
tbc 25
terminator 25
thayers 25
theraphy 25
third 25
thrasher 25
tical 25
tional 25
tnx 25
touri@@ 25
tracking 25
trekking 25
trumpet 25
truth 25
ts- 25
twee@@ 25
u.s.a 25
uling 25
until 25
upper@@ 25
urvan 25
v. 25
v4 25
vacation 25
vegeta 25
velvety 25
vida 25
w7 25
wahl 25
walle@@ 25
wanted 25
wily 25
wpf 25
wq@@ 25
wri@@ 25
xin@@ 25
xl-2xl 25
y6-2018 25
yin@@ 25
yna 25
yod 25
yopokki 25
ysp 25
zest 25
zl@@ 25
zoeva 25
zooey 25
zx 25
ᄉ@@ 25
● 25
＃ 25
-45 24
-j@@ 24
........... 24
0-12 24
004@@ 24
021 24
044 24
10-12 24
1015 24
1080@@ 24
10yrs 24
13pcs 24
15m 24
181 24
1960 24
1pc@@ 24
2000mah 24
20sheets 24
2200 24
238 24
2y 24
311 24
316@@ 24
336 24
370 24
3in1@@ 24
3inch 24
3layer 24
3yrs 24
4,@@ 24
4-8 24
4.74a 24
5v@@ 24
5xl 24
6-1 24
708 24
70mm 24
725 24
75mm 24
790@@ 24
80x@@ 24
910 24
910@@ 24
959 24
a9-@@ 24
abdominal 24
acer@@ 24
acey 24
achu@@ 24
ageless 24
agen@@ 24
ago 24
aichun 24
alluring 24
alphaland 24
alta 24
am4 24
ama@@ 24
andre 24
ante 24
anti-lost 24
antonio 24
apple@@ 24
aprilskin 24
arch 24
arthur 24
artistry 24
atures 24
avan@@ 24
bab 24
babyboy 24
babygirl 24
bandi@@ 24
batch@@ 24
bber 24
bc175 24
benz 24
bes 24
bga-@@ 24
bi-@@ 24
bil@@ 24
birken@@ 24
bnc 24
boa 24
boardshorts 24
boned 24
bounty 24
brazillian 24
bread@@ 24
breathing 24
broad 24
brush@@ 24
bs-@@ 24
builder 24
bundled 24
bx@@ 24
c-3@@ 24
cache 24
calendula 24
camou@@ 24
cancelling 24
cancer 24
caplets 24
carne@@ 24
case-@@ 24
caterpillar 24
cellowax 24
chari@@ 24
chel 24
chen@@ 24
child@@ 24
chinos 24
chu 24
circles 24
cjve 24
cko 24
clare 24
cockro@@ 24
cod12pieces 24
codnew 24
cole@@ 24
compressed 24
cond 24
condor 24
cooky 24
corsair 24
cracked 24
creat@@ 24
cto 24
d5@@ 24
daks 24
dashiki 24
definer 24
demi 24
dentist 24
descendants 24
detailed 24
dhendhenshop 24
dil@@ 24
dilis 24
dip@@ 24
dirt 24
discover 24
donal@@ 24
doterra 24
dres 24
driven 24
e.ph 24
ed-@@ 24
electr@@ 24
elisse 24
especial 24
etes 24
evapor@@ 24
exia 24
extras 24
eyebrows 24
f7youth 24
fading 24
fasion 24
fbt@@ 24
fiberglass 24
flavoring 24
fred 24
frogsuits 24
gato 24
gel-@@ 24
genesis 24
genius 24
gentle@@ 24
gi-@@ 24
gon@@ 24
grs 24
guc 24
gugo 24
gyro 24
hachi 24
hana 24
hawaii 24
heavy@@ 24
hexagonal 24
hon 24
hou 24
hq@@ 24
hu 24
hughes 24
hunger 24
hurricane 24
improved 24
inda 24
ini@@ 24
injection 24
inks 24
inspir@@ 24
intro 24
iron@@ 24
jagthug 24
jart 24
jas@@ 24
jenga 24
jergens 24
jetflash 24
jh-@@ 24
jord@@ 24
julie 24
kari@@ 24
kawa 24
kine@@ 24
klean 24
knapsack 24
knee@@ 24
kojie 24
korean-style 24
kori@@ 24
kyt 24
la-@@ 24
ladies@@ 24
laid 24
lao 24
latch 24
lax 24
leap 24
leds 24
lepuff 24
leur 24
lings 24
lington 24
lipz 24
lomo@@ 24
lx 24
ma-fra 24
macar@@ 24
maggie 24
mall@@ 24
margaret 24
marri@@ 24
matthe@@ 24
maybeline 24
mcfarlane 24
melan@@ 24
members 24
merrysun 24
metallica 24
mexican 24
miami 24
mies 24
milan 24
minidress 24
molds 24
molly 24
molten 24
momma 24
mond 24
monomola 24
montessori 24
motif 24
moulded 24
msa 24
mulberry 24
muslin 24
narciso 24
narnia 24
nickel 24
nish 24
nister 24
novel@@ 24
np300 24
numerals 24
nvidia 24
nx@@ 24
oak 24
oct@@ 24
offwhite 24
oliver 24
onlineshop 24
ono@@ 24
opaque 24
opi 24
option 24
organ 24
osaki 24
osh 24
outs 24
oyster 24
p1@@ 24
packet 24
packets 24
palazzo 24
pallet 24
pastillas 24
pellet 24
pendant@@ 24
pepero 24
petron 24
phoebe 24
pictures 24
plac 24
plus.@@ 24
plushies 24
pm2.5 24
porsche 24
preschool 24
procare 24
profession@@ 24
prun@@ 24
ps-@@ 24
psa 24
pulu@@ 24
pupp@@ 24
pusheen 24
pussy 24
px@@ 24
qoute 24
quelch 24
quen@@ 24
quicksilver 24
r001 24
raco@@ 24
rad@@ 24
rant 24
raven@@ 24
reel 24
rid@@ 24
roth 24
rubbing 24
sanchez 24
sanicare 24
saurus 24
scorpio 24
scrun@@ 24
seren@@ 24
serpentina 24
sharpie 24
shatterproof 24
shinny 24
shippuden 24
shirataki 24
shope@@ 24
shovel 24
showa 24
shu 24
slip-@@ 24
slipon 24
sliver 24
smash@@ 24
smoked 24
snowy 24
soo 24
sorting 24
spd 24
sphere 24
squash 24
squir@@ 24
ssss@@ 24
stimul@@ 24
strai@@ 24
stur@@ 24
subaru 24
subli@@ 24
sui@@ 24
sulfate 24
sv 24
t8 24
tally 24
taro 24
tarte@@ 24
tatcha 24
taz@@ 24
tears 24
thongs 24
threaded 24
tired 24
to0.@@ 24
toe@@ 24
tol@@ 24
tolda 24
tourmaline 24
tration 24
trucks 24
turbans 24
twinings 24
tyshop 24
ultraso@@ 24
unbreakable 24
unique@@ 24
ured 24
uro 24
us10k 24
v11@@ 24
v380 24
valentus 24
velve@@ 24
vene@@ 24
victor 24
voyager 24
vw@@ 24
w. 24
wade 24
walnut 24
weeks 24
whirlpool 24
wicked 24
workbooks 24
wx@@ 24
x155 24
xia 24
xii 24
xlarge 24
xlr 24
xp 24
young@@ 24
ypad 24
yurry 24
zable 24
zb60@@ 24
zhi 24
zipback 24
♚ 24
'beau 23
'issey 23
'l 23
'style 23
'z 23
-010 23
-08 23
-18@@ 23
-2019 23
-8 23
0.8@@ 23
0002 23
023 23
029 23
040 23
042 23
1.2to@@ 23
1.6kg 23
10,@@ 23
10mx45cm 23
1150 23
11pcs 23
11x@@ 23
12.9 23
130ml 23
158@@ 23
198 23
1987 23
19cm 23
1color 23
1inch 23
1yr 23
2-layer 23
2.5kg 23
2014-2018 23
2019@@ 23
250v 23
253 23
272 23
285 23
2ft 23
3-6months 23
3-6mos 23
3-pc 23
3200 23
33-@@ 23
354ml 23
36cm 23
3inches 23
3meters 23
40-45 23
428-@@ 23
430@@ 23
4ch 23
4in 23
4m 23
4pcs. 23
4v 23
50l 23
532ml 23
556 23
5e 23
5n1 23
6-7@@ 23
6-8 23
600g 23
610@@ 23
611 23
613 23
626 23
640@@ 23
670@@ 23
6inches 23
6w 23
704 23
711 23
7w 23
828@@ 23
850g 23
881 23
911 23
922 23
9l 23
a15@@ 23
a1k 23
a6000 23
abella 23
ability 23
abonne 23
accord 23
aches 23
aku 23
alangan 23
albom 23
alcoplus 23
aly 23
ampalaya 23
anastacia 23
anatomy 23
angelica 23
angled 23
annah 23
anti- 23
archer 23
asy@@ 23
attach@@ 23
audi 23
avai@@ 23
aways 23
b.b 23
babyland 23
badia 23
barbeque 23
barrier 23
base@@ 23
beep 23
bluehouse 23
blur@@ 23
boba 23
bodywash 23
bookshelf 23
boysen 23
boyz 23
branch 23
breath@@ 23
brighten 23
broadway 23
brun@@ 23
buckles 23
c- 23
c.o.@@ 23
cafe@@ 23
cana 23
carrie 23
cartridges 23
catholic 23
cedarwood 23
celestial 23
challen@@ 23
chateau 23
cheaper 23
chry@@ 23
cinema 23
cka 23
ckets 23
ckie 23
cling 23
cloths 23
cm-11@@ 23
coffe 23
comp 23
conve@@ 23
cor 23
cora@@ 23
cose 23
cove 23
cp-@@ 23
craft@@ 23
crafted 23
crossgrain 23
crossover 23
crypton 23
dare 23
dbz 23
de-@@ 23
deodorizing 23
detailing 23
dian 23
dianne 23
dipper 23
dis 23
discovery 23
dot@@ 23
dota2 23
dow 23
ds-2ce@@ 23
easysoft 23
egy@@ 23
elise 23
embelli@@ 23
emo@@ 23
enthusi@@ 23
eqt 23
eras@@ 23
evi@@ 23
eyel@@ 23
eyo@@ 23
f2 23
factorie 23
fah@@ 23
faj@@ 23
february 23
fern@@ 23
ff353 23
fh@@ 23
fia 23
fiber@@ 23
figh@@ 23
fjallraven 23
flowery 23
forehead 23
fort 23
fortn@@ 23
four-@@ 23
fra 23
frameless 23
fsl 23
gao 23
gb-@@ 23
gdplus 23
gemini 23
gery 23
ghts 23
gillette 23
glas 23
glass11 23
glazed 23
glutha 23
gly 23
got@@ 23
goya 23
granola 23
gutter 23
h1 23
halogen 23
handsome 23
hearing 23
here@@ 23
heroine 23
hey 23
hippo 23
hipseat 23
hua 23
huggable 23
hygi@@ 23
i7-@@ 23
ik 23
ilove@@ 23
inary 23
innov@@ 23
insole 23
instruments 23
ip65 23
iphone5g 23
iphonexsmax 23
j4@@ 23
jabra 23
janet 23
jaw 23
jf@@ 23
jg@@ 23
jig 23
joyce 23
ju-ju-be 23
kape 23
karl 23
katty 23
kidz 23
klean@@ 23
knock 23
koreanfashion 23
kou 23
kts-10@@ 23
laila 23
lamp@@ 23
laptops 23
lavatory 23
leche 23
leng 23
lico@@ 23
light-@@ 23
lighten@@ 23
liv 23
livestream 23
loaded 23
logical 23
lp-e@@ 23
lumbar 23
lumia 23
m3.0 23
m7@@ 23
magaz@@ 23
mailtank 23
maje@@ 23
mals 23
mane 23
marsh@@ 23
masturbation 23
mated 23
maure@@ 23
mbled 23
mechanism 23
medit@@ 23
megan 23
mercury 23
metrosunnies 23
microwaveable 23
mijia 23
milestone 23
milka 23
mine@@ 23
mitchell 23
mng 23
moccas@@ 23
mod@@ 23
modified 23
mont@@ 23
mothers 23
mulan 23
multimeter 23
mxr 23
n3 23
nac@@ 23
nata 23
naturally 23
navarros 23
negosyo 23
nesoberi 23
nipper 23
nuskin 23
nx 23
oasis 23
odor@@ 23
off-white 23
omo 23
ost 23
oster 23
outfitters 23
p500 23
pacifi@@ 23
paras@@ 23
parfois 23
patchwork 23
patricia 23
pea@@ 23
peel@@ 23
pered 23
phine 23
phonics 23
pilo@@ 23
pimp@@ 23
pleat 23
posed 23
pout 23
powerpuff 23
preci@@ 23
priz@@ 23
promil 23
protectant 23
pss 23
punching 23
pyrex 23
pyunkang 23
q6 23
ql 23
quila 23
quote 23
r11 23
r6 23
radeon 23
raff@@ 23
raider@@ 23
randomly 23
raptor 23
ras 23
rc-@@ 23
regen@@ 23
regg@@ 23
rei 23
renheit 23
retur@@ 23
revit@@ 23
rhea 23
ricci 23
ride@@ 23
rmk 23
rn@@ 23
rodriguez 23
roronoa 23
russe 23
s-free 23
sacred 23
sardines 23
seneck 23
sep 23
set- 23
shanta@@ 23
shap@@ 23
shepherd 23
shuttle@@ 23
shuya 23
signs 23
skye 23
skywalker 23
snaps 23
som@@ 23
sorry 23
spagetti 23
spareparts 23
sser 23
starts 23
stitched 23
stre 23
strontium 23
struck 23
struct@@ 23
suckle 23
sue 23
sulit 23
suppor@@ 23
sweeper 23
swipe 23
taehyung 23
talc 23
tali@@ 23
tamarind 23
tami@@ 23
tax@@ 23
tcg 23
temper 23
tener 23
testers 23
threads 23
thug 23
tig 23
tiger@@ 23
ting@@ 23
tions 23
tk 23
tneck 23
topic 23
traffic 23
trai@@ 23
trid 23
trident 23
trolly 23
ttl 23
turi@@ 23
turkey 23
twister 23
twotone 23
tz@@ 23
ultima 23
ultron 23
v11pro 23
vagina 23
vca 23
visi@@ 23
vit. 23
vol.2 23
vs1 23
w00@@ 23
waist@@ 23
wand@@ 23
wart 23
wbb@@ 23
wel 23
wet@@ 23
william 23
wilton 23
wirele@@ 23
world@@ 23
wx 23
xf@@ 23
xunod 23
y52 23
yaoi 23
yx 23
zc520kl 23
zippy 23
ｏ@@ 23
'fashion 22
've 22
-09 22
-11@@ 22
-46 22
-f@@ 22
-p@@ 22
-y@@ 22
............ 22
043 22
045 22
046 22
060 22
1-15 22
1-2yrs 22
1.5hp 22
1000mm 22
110l 22
115@@ 22
12-18mos 22
12pcs. 22
13.5 22
15w@@ 22
1996-@@ 22
1lb 22
1pairs 22
2-3t 22
2-6 22
2002-@@ 22
2016-@@ 22
210-@@ 22
224 22
226 22
22mm 22
24-29 22
240g 22
241 22
25x@@ 22
269 22
300m 22
317 22
324 22
325@@ 22
337 22
34a 22
368 22
38cm 22
3ab 22
3colors 22
4.5@@ 22
4000 22
40s 22
499 22
4tb 22
5.5mm 22
52-@@ 22
580@@ 22
5ft 22
5gs 22
5meters 22
5mp 22
6-9m 22
60caps 22
620@@ 22
621 22
6led 22
6mg 22
8000@@ 22
800w 22
804 22
80mb 22
80pcs 22
828 22
955 22
960@@ 22
a21 22
acay 22
adam@@ 22
aida 22
aio 22
alga@@ 22
alliance 22
alto 22
amazonian 22
ament 22
amon 22
amway 22
ander@@ 22
andi 22
anian 22
another 22
aplus 22
aqua@@ 22
aroma@@ 22
arrive 22
asu@@ 22
ateneo 22
ators 22
atory 22
aunthentic 22
author 22
avery 22
backlit 22
baekhyun 22
balloon@@ 22
bap 22
basahan 22
bca@@ 22
bing 22
blended 22
bli 22
blink 22
blit@@ 22
blitz 22
blues 22
bok 22
bonet 22
bosca 22
bottega 22
brazil 22
brooke 22
bros 22
bvq 22
c11p@@ 22
c8 22
c9@@ 22
caged 22
camp@@ 22
carab@@ 22
cavity 22
cco 22
centelli@@ 22
centrum 22
chalk@@ 22
chemica 22
cherry@@ 22
cheska 22
choi@@ 22
choo 22
chroma 22
clinical 22
cocos 22
cold@@ 22
coleen 22
composition 22
condura 22
cosmix 22
crash@@ 22
crewneck 22
ctr@@ 22
cuir 22
current 22
cyber 22
d2@@ 22
dant 22
day-@@ 22
daypack 22
dbs 22
dddd@@ 22
december 22
dedic@@ 22
deflector 22
depen@@ 22
dette 22
development 22
die-cast 22
dine 22
dire@@ 22
dok 22
doremi 22
drool 22
drop@@ 22
dub 22
dummy 22
duncan 22
earpick 22
ecotools 22
edc 22
eez 22
eled 22
elena 22
emoti@@ 22
enchan@@ 22
essensa 22
even 22
everlasting 22
f-0@@ 22
fairness 22
fern-@@ 22
fg@@ 22
fifth 22
flagship 22
flame@@ 22
flashcards 22
flavour 22
fleshlight 22
flipcover 22
float@@ 22
fn@@ 22
foreign 22
frame@@ 22
francisco 22
franco 22
freeshipping@@ 22
freya 22
ft-@@ 22
fx-@@ 22
g5@@ 22
gano@@ 22
gashapon 22
gbong 22
ghten@@ 22
gladking 22
glutapower 22
gthening 22
hailey 22
hairpins 22
hams 22
hematite 22
hers 22
high-grade 22
hir@@ 22
hjc 22
homes 22
honesty 22
howlite 22
huenicorn 22
hypoallergeni@@ 22
i-tech 22
ide@@ 22
illumin@@ 22
illustration 22
ilo@@ 22
ington 22
ip11 22
ipad2 22
irdy 22
iverson 22
izer 22
jani@@ 22
jarrow 22
jkysd 22
joan 22
juiced 22
kane@@ 22
kapeng 22
kaw 22
keling 22
keroppi 22
kets 22
kills 22
kinetic 22
kirei 22
kneepads 22
kristine 22
kuji 22
kursten@@ 22
l22 22
lab@@ 22
lace@@ 22
lactum 22
ladle 22
lalaloopsy 22
languages 22
lanolin 22
lie@@ 22
lil@@ 22
lipliner 22
loading 22
lockset 22
longsleev@@ 22
longsleve 22
longwear 22
lophone 22
lowe@@ 22
lumi 22
luxurious 22
lyla 22
lyra 22
lys@@ 22
m.2 22
maggi 22
magnus 22
mah@@ 22
mandy 22
mang 22
manipis 22
marshall 22
mation 22
maxxis 22
mbi 22
mefapo 22
meisons 22
mic@@ 22
mica 22
mici@@ 22
miguel 22
mikay@@ 22
milanos 22
millen@@ 22
milwaukee 22
mimosa 22
miner@@ 22
miya 22
mk6@@ 22
moby 22
moo@@ 22
morocco 22
moun@@ 22
mountaineering 22
msm-@@ 22
mu-x 22
mumu 22
naked3 22
navig@@ 22
nba@@ 22
need@@ 22
nestea 22
nickelodeon 22
niv 22
noble 22
noel 22
nrb 22
nuk 22
nun@@ 22
nutshell 22
ocean@@ 22
officewear 22
oia 22
ole@@ 22
on-ear 22
ordin@@ 22
oreg@@ 22
orial 22
orico 22
orient 22
orized 22
ous@@ 22
ow 22
p1z@@ 22
palo@@ 22
panyo 22
parade 22
parat@@ 22
pebbles 22
ped@@ 22
pedi 22
pediasure 22
perfect@@ 22
petroleum 22
phyto 22
picanto 22
planters 22
poli 22
pony@@ 22
pooch 22
pore@@ 22
porefessional 22
portal 22
position@@ 22
powerline 22
pray 22
presi@@ 22
pretzel 22
profile 22
promag 22
proven 22
pucca 22
purchas@@ 22
puree 22
purr 22
qual@@ 22
quality. 22
rack@@ 22
radial 22
rah 22
really 22
recommen@@ 22
recon 22
redmin@@ 22
reducing 22
repelling 22
research 22
rhino 22
ritual 22
rivets 22
robu@@ 22
roe 22
rous@@ 22
rt@@ 22
rxk 22
s530 22
saemmul 22
saf@@ 22
sal 22
saliva 22
sassa 22
saugwunder 22
savage 22
saw@@ 22
sc-@@ 22
scro@@ 22
scrubsuit 22
scrunchie 22
sculp@@ 22
seac@@ 22
seku@@ 22
sennheiser 22
shak@@ 22
sharing 22
shiba 22
shie 22
shion 22
shit 22
sidemirror 22
sight 22
sigma 22
sinu@@ 22
sissy 22
skate@@ 22
skyline 22
slam@@ 22
snailwhite 22
snsd 22
soli@@ 22
soulty 22
spain 22
spam 22
spellbinders 22
spro@@ 22
squares 22
stande@@ 22
starch 22
starlight 22
stol 22
ston@@ 22
store@@ 22
stripe@@ 22
styled 22
sus@@ 22
swap 22
sweaters 22
swiss@@ 22
sylv@@ 22
t350 22
tabletop 22
takoyaki 22
teach 22
tear@@ 22
than@@ 22
thr@@ 22
ticals 22
tik 22
tinapa 22
tista 22
tle@@ 22
toes 22
toha 22
tomorrow 22
toni 22
toro 22
transceiver 22
trenchcoat 22
tsa 22
tub@@ 22
tucson 22
turner 22
ui 22
ulta 22
ung@@ 22
unger 22
ury 22
usa-@@ 22
usb2.0 22
vaio 22
vation 22
vels 22
vert 22
vgod 22
vibr@@ 22
vices 22
victorian 22
vieve 22
vill@@ 22
vise 22
vn 22
vor 22
vw 22
wallsticker 22
warfare 22
wear-@@ 22
wed 22
wg 22
wgw 22
whiten@@ 22
windmill 22
worship 22
wrapping 22
x21@@ 22
xc@@ 22
yaki 22
yar@@ 22
yonex 22
yr@@ 22
yss. 22
yuki 22
¦ 22
♛ 22
𝐚@@ 22
-012 21
-28@@ 21
-37@@ 21
-inspired 21
0.50 21
0.75 21
031 21
035 21
050@@ 21
059 21
1006 21
1300@@ 21
14g 21
1816 21
185@@ 21
1pck 21
2- 21
2-5@@ 21
2.1@@ 21
2.3@@ 21
2.5d 21
2016-17 21
2016-2018 21
20180@@ 21
210g 21
21cm 21
257 21
260ml 21
27.5 21
28-36 21
283 21
292 21
2pillowcase 21
2xl@@ 21
3-6@@ 21
3-7 21
3.25a 21
3000mah 21
305@@ 21
315 21
316 21
332 21
36-@@ 21
37a 21
3for@@ 21
404 21
4kg 21
4y 21
510@@ 21
540@@ 21
550ml 21
578@@ 21
628 21
65w 21
662 21
675@@ 21
6color 21
6pcs. 21
6usb 21
706 21
728 21
8000mah 21
880 21
8d 21
920@@ 21
950@@ 21
9yrs 21
a50@@ 21
aal 21
absolu@@ 21
acia 21
act@@ 21
agua 21
airdots 21
airwalk 21
alternative 21
amelia 21
anni@@ 21
ant-@@ 21
aphrodite 21
argen@@ 21
ark 21
assn 21
assn. 21
atic 21
aval@@ 21
axel 21
axi@@ 21
bag.@@ 21
bam 21
bbi@@ 21
bc-@@ 21
beta 21
bey 21
bitter 21
blv 21
bobble 21
bootle@@ 21
borrowed 21
bound@@ 21
bourbon 21
boya 21
bp-@@ 21
breaking 21
brey@@ 21
bring 21
c6@@ 21
caffe@@ 21
cah 21
cf-@@ 21
champions 21
cheer@@ 21
chelle 21
chord 21
city@@ 21
clam@@ 21
clamps 21
clit@@ 21
colon 21
color-@@ 21
colorblock 21
concentr@@ 21
continuous 21
couple@@ 21
craze 21
crazy@@ 21
cricut 21
cry@@ 21
ctable 21
cushion@@ 21
cx-@@ 21
cynthia 21
dai 21
defying 21
dence 21
did 21
dobe 21
doo 21
dunge@@ 21
dunhill 21
dusty 21
dwarf 21
effici@@ 21
eliquid 21
en-el@@ 21
entertainment 21
enti@@ 21
enza 21
epsom 21
erasers 21
esti@@ 21
euni@@ 21
evangelion 21
event 21
expander 21
f2@@ 21
f4@@ 21
f9@@ 21
feel@@ 21
ffe 21
fifa 21
finding 21
fjs 21
food@@ 21
fp-@@ 21
frida 21
g- 21
gad@@ 21
georg@@ 21
gest 21
git@@ 21
gj@@ 21
glamorous 21
gn-@@ 21
goda 21
gordon 21
gras@@ 21
grom@@ 21
gt-r 21
gwen 21
gypsy 21
hairbrush 21
hearty 21
hee 21
hia 21
hippie 21
houndstooth 21
house@@ 21
hui@@ 21
hul@@ 21
hw@@ 21
hyg@@ 21
i11 21
i6 21
ifairies 21
iler 21
inas 21
indi@@ 21
infin@@ 21
intermediate 21
invicta 21
iphone5s 21
ish 21
ized 21
izumi 21
jaclyn 21
johnsons 21
jon 21
jr@@ 21
jul@@ 21
juvia 21
jz 21
k9 21
kalimba 21
kappa 21
kata 21
kathle@@ 21
katie 21
kilo@@ 21
klay 21
kosh 21
laboratory 21
laco@@ 21
ladybug 21
lamb@@ 21
landscape 21
lari@@ 21
lear@@ 21
leath@@ 21
liberty 21
lind@@ 21
lipstick@@ 21
liqui@@ 21
lis@@ 21
liv@@ 21
llo 21
loot@@ 21
lots 21
lows 21
ltd 21
m- 21
m7 21
mahogany 21
mason@@ 21
masque 21
mau@@ 21
mcdodo 21
meila 21
meiya 21
metis 21
mm-@@ 21
mma@@ 21
moonstone 21
morgan 21
motiv@@ 21
moyou 21
mph@@ 21
n00@@ 21
nch@@ 21
nec 21
nerdy 21
nett 21
nik@@ 21
ning@@ 21
noni 21
nora 21
not@@ 21
note7 21
nova2 21
nuit 21
oblique 21
ode 21
odon@@ 21
oil-free 21
oled 21
omega-3 21
once@@ 21
ose 21
oto@@ 21
ovo 21
pai 21
par 21
para@@ 21
pass@@ 21
pau@@ 21
pcie 21
penci@@ 21
peppapig 21
plug-@@ 21
poe@@ 21
pre-love 21
princesses 21
q8 21
qqq 21
rach@@ 21
radical 21
raion 21
rav@@ 21
rays 21
rede@@ 21
reindeer 21
remember 21
resist@@ 21
resto@@ 21
resun 21
rian 21
rio@@ 21
rip@@ 21
rita 21
roots 21
rot 21
rue 21
rush@@ 21
ruth 21
s1pro 21
saki 21
san-@@ 21
scan 21
scs 21
sean@@ 21
secon@@ 21
seuss 21
shallow 21
shana 21
shen@@ 21
sherlock 21
shia 21
shoebox 21
sim@@ 21
size-@@ 21
sma@@ 21
smocking 21
sne@@ 21
som 21
souls 21
soundbar 21
spel@@ 21
sper 21
spiced 21
spots 21
sthe@@ 21
stop@@ 21
storm@@ 21
street@@ 21
superb 21
superdry 21
sure@@ 21
sweatpants 21
swoosh 21
t6 21
taco 21
tart 21
tastic 21
taway 21
tels 21
tend 21
th-@@ 21
thenorth@@ 21
tigger 21
tok@@ 21
tones 21
totu 21
trical 21
tube@@ 21
twe@@ 21
ulti@@ 21
underpants 21
ural 21
utri@@ 21
vag@@ 21
valerie 21
vate 21
vden 21
vette 21
viper 21
visco@@ 21
vita@@ 21
vmi 21
voyage 21
wal 21
wallpapers 21
web@@ 21
weir@@ 21
whitelight 21
wide-@@ 21
wmns 21
yama 21
year@@ 21
ym 21
ys-@@ 21
yuan 21
zas@@ 21
zip@@ 21
ᅳ@@ 21
𝐀@@ 21
--- 20
-0.@@ 20
-250 20
-35@@ 20
-x 20
0-6m 20
0.25 20
027 20
055 20
101@@ 20
10t 20
1120 20
175g 20
17mm 20
1892 20
194 20
197 20
1975 20
1w 20
2.25 20
2.5l 20
21g 20
227g 20
238@@ 20
239 20
246 20
24hr 20
3-12 20
3.6 20
312 20
327 20
32a 20
36mm 20
38b 20
4-7 20
408 20
425g 20
435@@ 20
454 20
4in1@@ 20
5.0@@ 20
540 20
555@@ 20
560 20
562 20
5k 20
6-11 20
6-12m 20
612 20
621@@ 20
664 20
685 20
6colors 20
6yrs 20
7m 20
825 20
826@@ 20
8v 20
9005 20
955@@ 20
9months 20
abacus 20
absor@@ 20
access@@ 20
accor@@ 20
acing 20
adata 20
adel@@ 20
ades 20
adium 20
ads 20
adven@@ 20
after@@ 20
ais 20
alexander 20
alfred 20
alm 20
am-@@ 20
amara 20
amic 20
appa@@ 20
aquari@@ 20
arok 20
asher 20
asm 20
aste 20
aton@@ 20
atra 20
baby-@@ 20
baellerry 20
balan@@ 20
bart 20
bbs 20
bca 20
beg@@ 20
beginning 20
bj-@@ 20
blos 20
bobby 20
bona@@ 20
brassi@@ 20
broo@@ 20
butt@@ 20
bz 20
calf 20
canteen 20
canter 20
cbr@@ 20
cea@@ 20
chameleon 20
chanyeol 20
checked 20
chemistry 20
chico 20
chron@@ 20
church 20
citron 20
cm-4@@ 20
cobal@@ 20
coi@@ 20
colle 20
come@@ 20
companion 20
conce@@ 20
concepts 20
confidence 20
correct 20
cow@@ 20
crun@@ 20
cue 20
curity 20
dame 20
dare@@ 20
dasdas@@ 20
daw@@ 20
dc-@@ 20
dean 20
dennis 20
dere@@ 20
deskjet 20
diane 20
dimm 20
distor@@ 20
diver@@ 20
dolph@@ 20
dreamy 20
drin@@ 20
earth@@ 20
eilish 20
elly 20
ely@@ 20
ene@@ 20
epi 20
eria 20
fing 20
flaw@@ 20
for.@@ 20
forte 20
fundamentals 20
furi@@ 20
ga100 20
gabri@@ 20
ggies 20
ghao 20
gibson 20
gis 20
gmo 20
goji 20
goo 20
gou@@ 20
guerlain 20
h8@@ 20
hall 20
hate 20
hayabusa 20
her. 20
heuer 20
hibiscus 20
hione 20
hiphop 20
hokkaido 20
holmes 20
horse@@ 20
hss 20
hugger 20
i10 20
iam@@ 20
iko 20
imi 20
infer@@ 20
inse@@ 20
invit@@ 20
ipx 20
iri 20
jane@@ 20
jeff@@ 20
jh 20
jie 20
johnny 20
k- 20
k30 20
ka-@@ 20
kamen 20
kening 20
kg@@ 20
kham 20
kish 20
kn 20
know@@ 20
kre@@ 20
kung 20
kyocera 20
l6@@ 20
lage 20
lazy@@ 20
lena 20
loki 20
loving 20
lululun 20
m8 20
madel@@ 20
mademoiselle 20
majestic 20
mallow 20
maltesers 20
manhattan 20
margot 20
martens 20
mater@@ 20
maz@@ 20
mbs 20
mcdavid 20
mdr-@@ 20
me-@@ 20
megab@@ 20
megam@@ 20
menthol@@ 20
mercer 20
mez 20
michelin 20
microsdhc 20
mile 20
mk-@@ 20
mmt 20
mom@@ 20
mption 20
mud@@ 20
mudmaster 20
murakami 20
mustang 20
mv 20
my-@@ 20
n4@@ 20
naomi 20
nb-@@ 20
news 20
nio 20
nutra@@ 20
oakley 20
occ@@ 20
okin@@ 20
oleum 20
oooo@@ 20
opium 20
optics 20
oracle 20
ore@@ 20
ove@@ 20
p120 20
pana 20
pawnable@@ 20
pedia 20
petit@@ 20
pf@@ 20
ph-@@ 20
philosophy 20
plo@@ 20
poke@@ 20
polaris 20
pompompurin 20
pouch@@ 20
program 20
pull@@ 20
pump@@ 20
purple@@ 20
qkz 20
quin 20
rang@@ 20
rb-@@ 20
rear@@ 20
reef 20
reign 20
reno2 20
revenge 20
rk 20
rtx 20
rum 20
s-xxl 20
s.h.@@ 20
sa-@@ 20
sae 20
sala@@ 20
sama 20
sang 20
sas 20
sasuke 20
schedule 20
scot@@ 20
sday 20
selma 20
seri@@ 20
serpen@@ 20
shake@@ 20
shies 20
shop.@@ 20
shut 20
simul@@ 20
sket@@ 20
sl-@@ 20
smokey 20
smoking 20
smooth@@ 20
sniper@@ 20
soho 20
songbook 20
spagh@@ 20
spirit@@ 20
ssh 20
steam@@ 20
supermarket 20
swadd@@ 20
tables 20
tcm 20
tec@@ 20
tere@@ 20
tess 20
thalia 20
tio 20
tot 20
tribe 20
tton 20
tune 20
turn@@ 20
uhs-@@ 20
ultralight 20
uncommon 20
urban@@ 20
usb3.0 20
usb@@ 20
uto 20
v- 20
v4.2 20
veneta 20
venum 20
verus 20
villa@@ 20
vive 20
vs-@@ 20
vs. 20
wi 20
wonderful 20
xe@@ 20
xenon 20
xion 20
yee@@ 20
yl@@ 20
yu-@@ 20
yumi@@ 20
zee 20
𝐒@@ 20
'n 19
's-@@ 19
-13@@ 19
-30 19
-a@@ 19
-d 19
.3 19
0.2 19
0.9 19
0003 19
038 19
058 19
093 19
1060 19
1205 19
1420 19
1500w 19
1660 19
18g 19
1980 19
1p 19
2.7 19
2019-20 19
260g 19
264 19
298@@ 19
3.2 19
314@@ 19
345@@ 19
355@@ 19
35w 19
393 19
4-port 19
4.8 19
411@@ 19
43cm 19
504 19
514@@ 19
591 19
60p 19
790 19
807 19
811 19
9.9 19
929 19
a16@@ 19
absolute 19
aching 19
acs 19
adi 19
agnes 19
agu@@ 19
aiba 19
air2 19
airs 19
alist 19
alli 19
alo 19
amuse 19
anton@@ 19
apo 19
architecture 19
assa@@ 19
athle@@ 19
atoys 19
b7@@ 19
babyliss 19
bam@@ 19
bana 19
bean@@ 19
bei 19
bett@@ 19
boarding 19
bohe@@ 19
bomb@@ 19
boop 19
bps@@ 19
brai@@ 19
brandy 19
breast@@ 19
brembo 19
buff@@ 19
bulgar@@ 19
button-@@ 19
ca-@@ 19
calibur 19
camelbak 19
cani@@ 19
carnival 19
cass 19
cc-@@ 19
cd-@@ 19
chaos 19
char 19
coach@@ 19
coleman 19
colla 19
colo 19
compli@@ 19
corre@@ 19
cosmos 19
cost 19
crack@@ 19
cuddle 19
curi@@ 19
cut@@ 19
cv 19
cyclone 19
cylin@@ 19
danger 19
daphne 19
dazzle 19
dealer 19
debbie 19
deca@@ 19
deer@@ 19
denti@@ 19
dess 19
det 19
detai@@ 19
dete@@ 19
dewalt 19
die-@@ 19
diff@@ 19
disp@@ 19
e5-4@@ 19
eda 19
edu@@ 19
elitebook 19
ergobaby 19
erson 19
eta 19
euphoria 19
excellence 19
exerci@@ 19
exo@@ 19
faces 19
families 19
fau@@ 19
fc-@@ 19
fl-@@ 19
foli@@ 19
font 19
fro 19
fs-@@ 19
g360 19
g4-@@ 19
gap@@ 19
gears 19
gem@@ 19
gift@@ 19
gochu@@ 19
graph@@ 19
gree 19
gurashi 19
harman 19
heiress 19
helix 19
hguc 19
hk-@@ 19
hol 19
honeywell 19
how@@ 19
huawe@@ 19
hyperx 19
i8 19
iga 19
ike@@ 19
insul@@ 19
intelli@@ 19
inti@@ 19
inver@@ 19
ip6 19
ip67 19
iphone6plus 19
iphone8plus 19
j72016 19
jake 19
jb 19
jeanne 19
jil@@ 19
jm@@ 19
jyun 19
kaku 19
kanteen 19
kidd 19
kolin 19
kombat 19
kum 19
ladi@@ 19
lash@@ 19
leboy 19
ler@@ 19
lexus 19
lga@@ 19
limit@@ 19
loc 19
lubric@@ 19
lucent 19
m12 19
mace 19
mach 19
mack@@ 19
magsafe 19
mail@@ 19
major 19
malay@@ 19
mano@@ 19
mate20@@ 19
mck@@ 19
meo 19
miche@@ 19
microsdxc 19
mig 19
mila 19
milano 19
mill@@ 19
mming 19
mobius 19
moder@@ 19
mood@@ 19
mush@@ 19
myst@@ 19
mz 19
natrol 19
niac@@ 19
nw@@ 19
occitane 19
okay 19
oline 19
ome@@ 19
order@@ 19
owned 19
p30@@ 19
p40 19
pacsafe 19
pala@@ 19
pants@@ 19
pari@@ 19
patcho@@ 19
pdf 19
peo@@ 19
phon@@ 19
pico@@ 19
pierre 19
pla 19
plex@@ 19
prince@@ 19
psy 19
py 19
pyramid 19
qc@@ 19
rag 19
refined 19
remastered 19
renee 19
rent 19
rit 19
rix 19
rms 19
rol 19
roma 19
royal@@ 19
rs-@@ 19
s58@@ 19
scho@@ 19
scorpion 19
sean 19
search 19
secret@@ 19
selle 19
sensu@@ 19
sharp@@ 19
shine@@ 19
sho 19
showcase 19
sienna 19
sine@@ 19
sity 19
sixteen 19
slin@@ 19
sme@@ 19
smo 19
splcodgenuine100 19
sponge@@ 19
ssen@@ 19
strate@@ 19
stronger 19
stussy 19
sue@@ 19
tals 19
tama 19
taper 19
tart@@ 19
tempo 19
tney 19
toile@@ 19
tombow 19
topi@@ 19
tps 19
trace 19
unds 19
uri 19
usb-@@ 19
valkyrie 19
valu@@ 19
vam@@ 19
vio 19
visual 19
warehouse 19
wayfarer 19
wht 19
wie 19
wt@@ 19
x40@@ 19
yak@@ 19
yaki@@ 19
yt 19
zb551kl 19
zin@@ 19
zki 19
zon@@ 19
zte 19
zum 19
ᆫ@@ 19
✧ 19
✿ 19
＆ 19
-1a 18
-7 18
-d@@ 18
0.38 18
0000 18
006@@ 18
007@@ 18
057 18
085 18
1.0l 18
1.5g 18
1008 18
100a 18
10w-40 18
10y 18
117@@ 18
11a 18
1400 18
14mm 18
190g 18
1e 18
2001-@@ 18
20th 18
23cm 18
24h 18
262 18
312@@ 18
320g 18
324@@ 18
360ml 18
36w 18
3p 18
407 18
425 18
46-@@ 18
5-7 18
506 18
50h 18
516 18
531 18
54mm 18
556@@ 18
570@@ 18
5x7 18
618 18
626@@ 18
675 18
6900 18
6pro 18
700g 18
7kg 18
7x 18
8.5@@ 18
80s 18
883 18
a- 18
adv 18
aer@@ 18
aling 18
alou 18
amy@@ 18
ana@@ 18
anor 18
anu@@ 18
arrow@@ 18
artfx 18
asos 18
ather@@ 18
atherine 18
b11@@ 18
b2@@ 18
b5@@ 18
bage 18
ballon 18
bally 18
bao@@ 18
bari@@ 18
barre@@ 18
battlefield 18
bbc 18
bella@@ 18
belle@@ 18
beloved 18
bey@@ 18
bondage 18
bop 18
botto@@ 18
bourne 18
bright@@ 18
bud 18
buff 18
buffalo 18
buy1@@ 18
c10@@ 18
cable@@ 18
calci@@ 18
candice 18
carl 18
carto@@ 18
chur@@ 18
cloud@@ 18
cvi 18
cyber@@ 18
d-2@@ 18
dahlia 18
dap@@ 18
darts 18
deo@@ 18
descent 18
devi@@ 18
dit@@ 18
dium 18
dj@@ 18
dw-@@ 18
dw5600 18
eigh@@ 18
ele 18
eli 18
embroi@@ 18
end@@ 18
ends 18
eneloop 18
ense@@ 18
erin 18
erized 18
exit 18
f4 18
fashion-@@ 18
fetish 18
fill@@ 18
fini@@ 18
first@@ 18
floral@@ 18
fm2 18
folk 18
fourth 18
franc@@ 18
freestyle 18
gag@@ 18
garmin 18
gau@@ 18
gay 18
gei@@ 18
getz 18
gina 18
gosh 18
gst 18
hack@@ 18
hallmark 18
harris 18
hazard 18
heaven@@ 18
hed@@ 18
hedgren 18
hone@@ 18
hsm 18
hypno@@ 18
ide 18
inc. 18
iness 18
inkle 18
ip68 18
iqos 18
iser 18
itos 18
jacket@@ 18
jardin 18
jeremy 18
jhope 18
k.c 18
k4 18
karma 18
kd-@@ 18
keen 18
kemei 18
kewpie 18
kick@@ 18
kimi 18
kind@@ 18
kirin 18
kissy 18
kk-@@ 18
km-@@ 18
knights 18
knives 18
kr 18
kv@@ 18
labs 18
law@@ 18
leah 18
lei 18
lenci@@ 18
llian 18
ln 18
lop 18
lubri@@ 18
m3@@ 18
marcelo 18
maxim 18
mechani@@ 18
melo 18
mentary 18
midi@@ 18
mimi@@ 18
minator 18
mindy 18
missing 18
mister 18
modem 18
moh@@ 18
mole@@ 18
monochrome 18
mori@@ 18
mper@@ 18
mw 18
n9 18
nad@@ 18
naturehike 18
neutr@@ 18
nfl 18
nick@@ 18
nikki 18
nings 18
nitecore 18
nitro@@ 18
oe 18
on-the-go 18
oppa 18
orie 18
orize 18
otto 18
p300 18
pak@@ 18
palmer 18
papa@@ 18
partner 18
pei@@ 18
phan@@ 18
pio 18
plus-@@ 18
poo@@ 18
porcel@@ 18
pot@@ 18
powder@@ 18
prim@@ 18
principles 18
prive 18
pur 18
q9 18
ques 18
quick-@@ 18
resu@@ 18
retro@@ 18
revive 18
rogue 18
rosette 18
rosie 18
rus 18
rx-78-2 18
sandra 18
sani@@ 18
saudigold@@ 18
seam@@ 18
sivanna 18
skills 18
slick 18
smell 18
spa@@ 18
specific 18
spee@@ 18
spurs 18
sson 18
stal 18
stephanie 18
stra 18
strix 18
suite 18
sup@@ 18
surf@@ 18
swingman 18
sylvia 18
syo 18
t20 18
ta-@@ 18
tae@@ 18
tage 18
tao 18
tayo 18
tch@@ 18
thetic 18
tidy 18
tman 18
tone@@ 18
trader 18
tree@@ 18
tresor 18
tretta 18
trf 18
tribute 18
trol 18
tsu 18
tum 18
tures 18
uda 18
uke 18
uvc 18
v12 18
v6 18
vernis 18
vic@@ 18
vis 18
vortex 18
vp@@ 18
w-2@@ 18
wana 18
wander@@ 18
weng 18
whisper 18
wig@@ 18
wo 18
wr 18
x24 18
x30 18
xa2 18
xiao@@ 18
xv 18
yb@@ 18
yh@@ 18
yin 18
yong 18
zap@@ 18
zb6@@ 18
zeta 18
zhiyun 18
zipp@@ 18
zs@@ 18
½ 18
№ 18
𝐂@@ 18
𝐋@@ 18
-37 17
-g@@ 17
-i@@ 17
-m@@ 17
.k 17
010@@ 17
02-@@ 17
056 17
1-10 17
1.2g 17
1.75 17
1003 17
107@@ 17
1102 17
115g 17
1188 17
120x@@ 17
129@@ 17
14.5 17
140x@@ 17
144hz 17
155@@ 17
167 17
16a 17
172 17
174 17
18-24m 17
2017@@ 17
205@@ 17
21-@@ 17
311@@ 17
320ml 17
335 17
338@@ 17
340ml 17
352 17
356 17
359 17
4000@@ 17
420@@ 17
42mm 17
470 17
5.6 17
5050 17
508 17
54-@@ 17
558 17
561 17
565 17
571 17
574 17
57mm 17
616 17
655 17
6900@@ 17
70s 17
731 17
732 17
8-2 17
855 17
92-@@ 17
989 17
a-z 17
a12 17
a19@@ 17
ahi@@ 17
airpod 17
alina 17
alisa 17
amics 17
ampli@@ 17
andrew 17
anner 17
arabi@@ 17
aromat@@ 17
astr@@ 17
atlan@@ 17
atsu 17
aus 17
b8@@ 17
bait 17
begins 17
bg-@@ 17
bloks 17
c2@@ 17
camel@@ 17
capture 17
cb-@@ 17
cera 17
chao@@ 17
chet 17
chol@@ 17
cie 17
cite 17
cles 17
cony 17
cote 17
cr-v 17
creeper 17
d- 17
d-link 17
dc12v 17
derm@@ 17
destroy@@ 17
develo@@ 17
e1 17
ela@@ 17
elementary 17
eles 17
elli 17
emporio 17
envelo@@ 17
erica 17
eries 17
esse 17
ete 17
ety 17
expir@@ 17
fame 17
fang 17
fds 17
ffff@@ 17
flip-@@ 17
force1 17
fron@@ 17
fus@@ 17
fv@@ 17
g10 17
gba 17
gho@@ 17
ghouse 17
gic 17
giga 17
gogo 17
goyard 17
guaran@@ 17
gx-@@ 17
h2o 17
h7 17
haier 17
hamburger 17
hario 17
harle@@ 17
hb-@@ 17
henna 17
hf@@ 17
hypo@@ 17
ib@@ 17
ier 17
in-one 17
in2@@ 17
instinct 17
isabel 17
isopro@@ 17
ista@@ 17
it-@@ 17
izone 17
j6@@ 17
jamie 17
jeep@@ 17
jor@@ 17
jt@@ 17
juven@@ 17
kami@@ 17
kawa@@ 17
kiyo@@ 17
kki 17
kracie 17
kun@@ 17
l-4@@ 17
label@@ 17
lable 17
lali@@ 17
lap@@ 17
lent 17
leon@@ 17
leslie 17
letti 17
lif@@ 17
llers 17
lob@@ 17
lomo 17
lt-@@ 17
ltr 17
luc@@ 17
m14 17
maj@@ 17
mamamoo 17
mani 17
marley 17
mate30 17
mee@@ 17
melting 17
mercedes 17
metho@@ 17
mika 17
miles 17
mmi 17
mmmm@@ 17
moi@@ 17
moni@@ 17
mor 17
musi@@ 17
nap 17
neroli 17
nexus 17
nine@@ 17
nipp@@ 17
obi 17
oids 17
oma 17
ops 17
pac 17
palace 17
paro@@ 17
pati@@ 17
peli@@ 17
perpe@@ 17
pict@@ 17
piece@@ 17
pill@@ 17
pleasures 17
pment 17
potions 17
proto@@ 17
psal 17
puni@@ 17
pus 17
pz@@ 17
qposket 17
rabb@@ 17
rap 17
refre@@ 17
relax@@ 17
rena 17
rev 17
rico@@ 17
rosal@@ 17
rrrr@@ 17
russia 17
rv@@ 17
rw 17
ryo@@ 17
salomon 17
saniti@@ 17
saucony 17
sb-@@ 17
sca 17
scor@@ 17
screw@@ 17
sehun 17
shima 17
shred@@ 17
simon 17
sj4000 17
smoky 17
smy@@ 17
so-@@ 17
sour@@ 17
spra@@ 17
state@@ 17
steri@@ 17
stren@@ 17
sumikko 17
surfer 17
sweetened 17
t6@@ 17
tag@@ 17
tamar@@ 17
tanjun 17
tank@@ 17
tasty 17
tcl 17
tials 17
tol 17
tom@@ 17
toss 17
toxic 17
triu@@ 17
tsuki@@ 17
tsumtsum 17
ultraman 17
univers@@ 17
uskin 17
uv400 17
vali@@ 17
vcd 17
vector 17
vf 17
vienna 17
viola 17
w100 17
wav@@ 17
webber 17
went 17
who@@ 17
wj@@ 17
wolf@@ 17
wp 17
ww 17
xa1@@ 17
xis 17
xxx 17
xxx@@ 17
yah@@ 17
yc 17
yx@@ 17
z.@@ 17
z5x 17
zanne 17
zoids 17
zom@@ 17
zzles 17
𝐄@@ 17
𝐑@@ 17
𝐢@@ 17
𝐫@@ 17
-001 16
-17 16
-230@@ 16
-400@@ 16
-50@@ 16
-o 16
.7 16
0.4 16
0005 16
037 16
052 16
070@@ 16
1-9 16
1.9 16
102@@ 16
10c 16
12.12 16
120w 16
128g 16
1400@@ 16
140ml 16
15-5@@ 16
150w 16
15l 16
178@@ 16
17x@@ 16
18-55mm 16
1986 16
1988 16
2-3y 16
2.3 16
200m 16
230g 16
23g 16
248 16
2500@@ 16
25a 16
26mm 16
27-@@ 16
286 16
28g 16
295 16
2w 16
3. 16
304@@ 16
30a 16
31-@@ 16
314 16
40-44 16
403 16
407@@ 16
451 16
453 16
455 16
460 16
462 16
465 16
468 16
46cm 16
4w 16
5-8 16
525 16
53-@@ 16
6-2 16
619 16
650w 16
660 16
669 16
688 16
7-12 16
7-9 16
721 16
750g 16
751 16
767@@ 16
771 16
8001 16
813 16
817 16
824@@ 16
852 16
884 16
887 16
90x@@ 16
91@@ 16
980@@ 16
983 16
988 16
9th 16
a500@@ 16
a82018 16
ac1200 16
achable 16
adora 16
agi@@ 16
aj1 16
alan 16
amansi 16
amon@@ 16
anais 16
atelier 16
avene 16
aw-@@ 16
b12@@ 16
b6 16
b7 16
basi@@ 16
berry@@ 16
bing@@ 16
bishi 16
brad@@ 16
brick@@ 16
c5@@ 16
c8@@ 16
cami@@ 16
carry@@ 16
ccino 16
charged 16
cheer 16
cheri@@ 16
chlo@@ 16
choc 16
clone 16
club@@ 16
clyde 16
cmos 16
compart@@ 16
conden@@ 16
coolmax 16
cop@@ 16
corpor@@ 16
cran@@ 16
cture 16
d7 16
d7@@ 16
dac@@ 16
dami@@ 16
dden 16
ddr2 16
ddr@@ 16
dian@@ 16
diffe@@ 16
dodo 16
dona 16
dood@@ 16
dope 16
double@@ 16
duke 16
e.l.@@ 16
easter 16
eat@@ 16
edge@@ 16
edition@@ 16
elantra 16
equi@@ 16
ergo 16
eti@@ 16
exodus 16
exq 16
fairies 16
farm@@ 16
filip@@ 16
fizz 16
flax 16
forces 16
fore 16
fp 16
frp 16
fuck 16
g32@@ 16
g4@@ 16
gari 16
gelato 16
ggage 16
gged 16
gl-@@ 16
glare 16
glen@@ 16
goodies 16
grace@@ 16
gs-@@ 16
gusto 16
h2 16
hella 16
hero5 16
hf-@@ 16
hib@@ 16
hm@@ 16
hy 16
hype 16
inox 16
insp@@ 16
integr@@ 16
iran 16
itake 16
jacqu@@ 16
jag@@ 16
jas 16
jdi 16
jenny@@ 16
jima 16
jit@@ 16
jou 16
js-@@ 16
kenwood 16
kill@@ 16
kindle 16
kki@@ 16
ley@@ 16
liz@@ 16
log@@ 16
loo 16
lot@@ 16
luminarc 16
lz 16
mala@@ 16
manu@@ 16
meeting 16
melo@@ 16
mem@@ 16
midori 16
minu@@ 16
mizu@@ 16
mk3@@ 16
mm. 16
mmy@@ 16
moleskine 16
monday 16
moo 16
mosqu@@ 16
must@@ 16
n5@@ 16
nado 16
nam 16
naru@@ 16
nico@@ 16
nvme 16
nwb 16
nxt 16
officejet 16
orn 16
peed 16
perspirant 16
pillow@@ 16
pipe@@ 16
pocket@@ 16
poko 16
pororo 16
posket 16
qa@@ 16
quan@@ 16
rap@@ 16
reflect@@ 16
retin@@ 16
rhythm 16
rudy 16
s-26 16
s90@@ 16
safari@@ 16
sasa 16
seawe@@ 16
secre@@ 16
shabby 16
shoo@@ 16
shr@@ 16
sj5000 16
skat@@ 16
sn-@@ 16
spect@@ 16
spf40 16
sporti@@ 16
spy@@ 16
squared 16
ssor 16
stay@@ 16
steelseries 16
straighten@@ 16
summ@@ 16
technic 16
techno 16
teng 16
tenga 16
ti-@@ 16
titan@@ 16
toki 16
trophy 16
tvi 16
tweety 16
u1 16
u2 16
u3 16
ua@@ 16
uts 16
v20 16
very@@ 16
victorinox 16
vik@@ 16
virtu@@ 16
vivobook 16
vl 16
vv@@ 16
vx 16
w-30 16
w1 16
wb@@ 16
wee@@ 16
wid@@ 16
wm 16
won 16
wt-@@ 16
x27 16
xz@@ 16
yard@@ 16
yol@@ 16
yong@@ 16
yoo@@ 16
youtube 16
yuyu 16
ᄂ@@ 16
♔ 16
＋ 16
-120@@ 15
-20@@ 15
-2a 15
-48 15
.9 15
.h 15
1-20 15
1. 15
1018 15
11.6 15
11cm 15
137@@ 15
144@@ 15
180mm 15
1982 15
19v@@ 15
1f 15
1hp 15
2016@@ 15
20d 15
214@@ 15
218@@ 15
219@@ 15
228@@ 15
22g 15
23-@@ 15
25c 15
25s 15
267 15
275@@ 15
281 15
296 15
299@@ 15
2ds 15
3- 15
30l 15
3200@@ 15
321 15
360g 15
361 15
363 15
364 15
388 15
4-2@@ 15
413@@ 15
424 15
44-@@ 15
440 15
44mm 15
48-@@ 15
5.1 15
517 15
528 15
58cm 15
6.3 15
6.8 15
670 15
715 15
726 15
752 15
7c 15
8.4 15
822@@ 15
888@@ 15
889 15
9000 15
915 15
970 15
9b 15
9cm 15
a1@@ 15
aape 15
aco@@ 15
adjust@@ 15
adr 15
adver@@ 15
agv 15
aki@@ 15
alber@@ 15
alk@@ 15
amas 15
amen@@ 15
anpanman 15
aph 15
aritaum 15
asd 15
assi 15
asty 15
at-@@ 15
attitude 15
aus@@ 15
awg 15
b20 15
bandouliere 15
basa 15
bd 15
bei@@ 15
berger 15
berlin 15
bie@@ 15
bonjour 15
brilli@@ 15
brooks 15
bruce 15
c30@@ 15
calli@@ 15
catrice 15
charac@@ 15
cine@@ 15
circus 15
citi@@ 15
clou@@ 15
coca-cola 15
cock@@ 15
comfor@@ 15
concep@@ 15
cons 15
conta@@ 15
cosmo 15
cosmo@@ 15
cr2032 15
cree@@ 15
davidson 15
diag@@ 15
disneyland 15
displayport 15
dori@@ 15
dumbb@@ 15
dunlop 15
duo@@ 15
dxf 15
edo 15
ef-@@ 15
elastics 15
er- 15
erd 15
ere@@ 15
ex-@@ 15
exo-@@ 15
expl@@ 15
explore 15
fantas@@ 15
fen 15
fh 15
flies 15
formation 15
frey 15
fter 15
g2000 15
garden@@ 15
gav@@ 15
ge-@@ 15
ghost@@ 15
git 15
glitter@@ 15
gold-@@ 15
gran 15
grind 15
gtr 15
gucci@@ 15
h2@@ 15
handle@@ 15
hazel@@ 15
hp-@@ 15
hv@@ 15
ima@@ 15
infe@@ 15
inner@@ 15
iq@@ 15
iro@@ 15
iz@@ 15
jav@@ 15
jou@@ 15
jouer 15
juliet 15
jx@@ 15
k-on 15
k5@@ 15
kei 15
kiki 15
kiko 15
kout 15
kure@@ 15
l2 15
l8@@ 15
lace-@@ 15
laser@@ 15
lele 15
lem 15
lgb@@ 15
lide 15
lillard 15
limitless 15
lique 15
llll@@ 15
lq-@@ 15
m-a 15
marina 15
marke@@ 15
mastermind 15
menu 15
mideer 15
mil 15
mir 15
moc 15
money@@ 15
more@@ 15
mur 15
n7100 15
nah 15
ne-@@ 15
next@@ 15
nfc 15
nichi@@ 15
nier 15
no1 15
nouri@@ 15
nsw 15
oki 15
oll 15
omi 15
orchi@@ 15
orihiro 15
orland@@ 15
orted 15
oxy@@ 15
p6 15
phy 15
pilip@@ 15
ping@@ 15
pj@@ 15
pk-@@ 15
pome@@ 15
potat@@ 15
presario 15
proph@@ 15
psycho@@ 15
pt-@@ 15
ptor 15
px 15
pz 15
qr 15
regul@@ 15
rele@@ 15
repel@@ 15
replac@@ 15
replace@@ 15
rera 15
rf@@ 15
rhy@@ 15
rig 15
rina 15
rot@@ 15
ryo 15
s2@@ 15
sg-@@ 15
shuttle 15
sio@@ 15
skill 15
soci@@ 15
span 15
spawn 15
spoo@@ 15
sprint 15
status 15
stenci@@ 15
stics 15
str 15
stuart 15
succ@@ 15
swagger 15
swat 15
taku 15
tam 15
team@@ 15
teas@@ 15
terre 15
thern 15
toki@@ 15
toyo 15
trad@@ 15
treme@@ 15
try@@ 15
tte@@ 15
tuf 15
ture@@ 15
tyle 15
ub@@ 15
um-@@ 15
us10 15
us6 15
ux@@ 15
ve-@@ 15
vege@@ 15
vely 15
vement 15
vh 15
vil@@ 15
vines 15
vol.1 15
voy@@ 15
vv 15
wcf 15
wendy 15
wf-@@ 15
whisk@@ 15
win10 15
winter@@ 15
x100 15
x8@@ 15
xc 15
xen@@ 15
xh@@ 15
xl-4xl 15
xp-@@ 15
y.s 15
yankees 15
yeah 15
yellow@@ 15
yp 15
z00@@ 15
z4 15
z5@@ 15
zd551kl 15
zor@@ 15
zq@@ 15
⿻ 15
𝐍@@ 15
𝐎@@ 15
𝐓@@ 15
----@@ 14
---@@ 14
-006 14
-14@@ 14
-15 14
-230 14
-32@@ 14
0-1 14
0006 14
041 14
062 14
1000g 14
100l 14
1016 14
109@@ 14
1106 14
119@@ 14
12.5 14
12l 14
13g 14
1650 14
1701 14
19.5@@ 14
19.@@ 14
1966 14
2-8 14
2. 14
2023 14
20oz 14
211@@ 14
215@@ 14
2300 14
244 14
263 14
279 14
287 14
290@@ 14
294 14
33cm 14
3500 14
362 14
372 14
375ml 14
378@@ 14
391 14
392 14
409 14
40p 14
412 14
460@@ 14
4b 14
5208 14
526 14
560@@ 14
6-10 14
607 14
61-@@ 14
615 14
617 14
62-@@ 14
635 14
65-@@ 14
658 14
673 14
678@@ 14
69-@@ 14
690 14
693 14
6b 14
6kg 14
729 14
753 14
760 14
785 14
8003 14
812 14
8c 14
8kg 14
904 14
907 14
90mm 14
912 14
928 14
96-@@ 14
960 14
985 14
991 14
998 14
9c 14
9mm 14
a8-@@ 14
ada@@ 14
ahan 14
aime 14
alba 14
allu@@ 14
analy@@ 14
angan 14
apink 14
assass@@ 14
awe@@ 14
bab@@ 14
bahay 14
baile 14
bbit 14
bcbg 14
blood@@ 14
borne 14
brs 14
bubble@@ 14
bur 14
bv 14
c-4@@ 14
c01 14
c02 14
c3@@ 14
cai 14
capsu@@ 14
cash@@ 14
cavali@@ 14
champion@@ 14
chang 14
chat@@ 14
chic@@ 14
chl@@ 14
chlor@@ 14
choi 14
christopher 14
contigo 14
contr@@ 14
corona 14
cupid 14
cushi@@ 14
d-s@@ 14
dah 14
dazz@@ 14
derella 14
diam@@ 14
dispen@@ 14
dodge 14
dometer 14
dynam@@ 14
ei 14
electrolux 14
eliner 14
elo@@ 14
enix 14
ental 14
environ@@ 14
eri 14
ev 14
evol@@ 14
fad@@ 14
fam@@ 14
fang@@ 14
feed@@ 14
fiel@@ 14
flytrap 14
force@@ 14
forever@@ 14
fragr@@ 14
freak@@ 14
fy@@ 14
g50@@ 14
ga-100 14
garcia 14
gazelle 14
goose 14
goren@@ 14
gori@@ 14
gradu@@ 14
grown 14
hao 14
hawai@@ 14
hhhh@@ 14
horiz@@ 14
hoya 14
hx-@@ 14
hydra@@ 14
idol@@ 14
if@@ 14
igh 14
ign@@ 14
ille 14
iphone7plus 14
irt 14
italia 14
itor 14
j3@@ 14
jab@@ 14
jami@@ 14
japan@@ 14
jian 14
joh@@ 14
joi@@ 14
jordan@@ 14
k20@@ 14
k70@@ 14
keima@@ 14
kiehls 14
kko 14
kla@@ 14
kle 14
kx@@ 14
lg@@ 14
lica 14
logo@@ 14
loved@@ 14
lovey@@ 14
lumix 14
lw@@ 14
m-0@@ 14
m8@@ 14
madness 14
mand 14
marque@@ 14
mathemat@@ 14
max3 14
microusb 14
mira 14
miumiu 14
mized 14
mizer 14
moomin 14
motul 14
mpy 14
n. 14
nami@@ 14
nh 14
no.2 14
oi 14
onesi@@ 14
ool 14
oop 14
opp@@ 14
our@@ 14
pantone 14
patty 14
pebb@@ 14
phil@@ 14
pico 14
pix@@ 14
place@@ 14
play-@@ 14
prest@@ 14
primo 14
puffy 14
quer@@ 14
r4 14
rabeanco 14
rd-@@ 14
refe@@ 14
refin@@ 14
rela@@ 14
rem 14
remix 14
ricoh 14
rika 14
rival 14
robinson 14
rp@@ 14
ruff@@ 14
sain@@ 14
sass@@ 14
seph@@ 14
shang 14
spag@@ 14
spf20 14
sso 14
steady 14
sutton 14
swing@@ 14
tarot 14
thermal@@ 14
tissot 14
tm-@@ 14
towel@@ 14
tp-@@ 14
trapeze 14
triple@@ 14
trou@@ 14
trun@@ 14
u-1@@ 14
ulo 14
urus 14
us8 14
v30 14
veno@@ 14
ver.@@ 14
vixx 14
wc 14
wwww@@ 14
xiv 14
xl-@@ 14
xl-xxl 14
y91@@ 14
yankee 14
yvon@@ 14
z1@@ 14
zan@@ 14
zman 14
zp@@ 14
zs6@@ 14
£ 14
ᅩ@@ 14
▼ 14
◆ 14
♧ 14
𝐭@@ 14
-050 13
-08@@ 13
-3000 13
-3a 13
-r@@ 13
0011 13
01-0@@ 13
01-@@ 13
020@@ 13
03-@@ 13
080@@ 13
088 13
094 13
1.00 13
1.8g 13
1010@@ 13
1013 13
1024@@ 13
10w40 13
1130 13
116@@ 13
1200w 13
145@@ 13
160mm 13
165g 13
175@@ 13
1801 13
2-7 13
2.5g 13
2010@@ 13
2025 13
20w@@ 13
237ml 13
2400@@ 13
24g 13
255@@ 13
277 13
278@@ 13
284 13
288@@ 13
3-3@@ 13
3.8 13
3001 13
32b 13
349 13
35-@@ 13
357 13
35x@@ 13
373 13
382 13
398@@ 13
3k 13
406 13
415@@ 13
441 13
443 13
45-@@ 13
475@@ 13
5-10 13
5-7@@ 13
515 13
522 13
529 13
539 13
550w 13
55w 13
5600 13
564@@ 13
575 13
588 13
6.5@@ 13
630@@ 13
640 13
6500@@ 13
65mm 13
66-@@ 13
661 13
672 13
699 13
6c 13
709 13
740 13
768 13
780 13
826 13
860 13
860@@ 13
870 13
899 13
9-1 13
9-12m 13
9006 13
918 13
923 13
925@@ 13
951 13
978@@ 13
981 13
990 13
a18@@ 13
ache@@ 13
afri@@ 13
ahc 13
allstar 13
alpha@@ 13
alpine@@ 13
analysis 13
anna@@ 13
ap-@@ 13
apa 13
athering 13
ave 13
b10 13
babygap 13
belif 13
bell@@ 13
bever@@ 13
beyou@@ 13
biz@@ 13
blythe 13
br-@@ 13
bran@@ 13
braun 13
bushi@@ 13
butler 13
c-2@@ 13
c.c 13
cade 13
calculus 13
camer@@ 13
cdg 13
chach@@ 13
co2 13
colic 13
const@@ 13
continu@@ 13
cosbaby 13
coupe 13
cryst@@ 13
cutt@@ 13
d-up 13
d8 13
dary 13
derrick 13
deuter 13
dget 13
drew 13
dt-@@ 13
edifier 13
ergo@@ 13
evelyn 13
excel@@ 13
fantasia 13
flow@@ 13
fted 13
g-0@@ 13
gabrielle 13
geographic 13
ggay 13
glass@@ 13
glutam@@ 13
go-@@ 13
goes 13
gor 13
grandista 13
gsx-@@ 13
gta 13
h11 13
haha 13
hannah@@ 13
hc-@@ 13
hdr 13
hil 13
hoco 13
huang 13
husky 13
i3-@@ 13
ibm 13
ill@@ 13
incredi@@ 13
iner@@ 13
iq 13
ism 13
itek 13
kali@@ 13
kashi@@ 13
kira 13
kp@@ 13
l-2@@ 13
lad@@ 13
lada 13
leten 13
lett 13
lily@@ 13
lites 13
lolli@@ 13
lp-@@ 13
lulu@@ 13
lution 13
maison 13
martini 13
mata 13
mbal 13
medicin@@ 13
megap@@ 13
meli@@ 13
melville 13
mess@@ 13
mick@@ 13
mirror@@ 13
mistine 13
mlc 13
moi 13
moistu@@ 13
molle 13
mone@@ 13
mosa 13
munch@@ 13
na-@@ 13
nalgene 13
nero 13
nf 13
nismo 13
noo@@ 13
numer@@ 13
obey 13
oce@@ 13
og@@ 13
orion 13
osu@@ 13
otto@@ 13
p6@@ 13
pez 13
pharm@@ 13
philipp 13
pine@@ 13
plein 13
pokki 13
pp-@@ 13
projects 13
rec 13
refriger@@ 13
rell 13
restock@@ 13
resur@@ 13
rex@@ 13
rocky 13
rw@@ 13
s-3@@ 13
s100 13
s26 13
s3@@ 13
s90 13
sanit@@ 13
sao 13
sch 13
schwarzkopf 13
seba@@ 13
sene@@ 13
sent 13
shadow@@ 13
shampo@@ 13
sheen 13
shoel@@ 13
shoulder@@ 13
sible 13
snake@@ 13
solu@@ 13
sper@@ 13
sports@@ 13
square@@ 13
srp@@ 13
stat@@ 13
sten@@ 13
sti 13
strip@@ 13
suka 13
summit 13
sus304 13
symbo@@ 13
t3@@ 13
t4 13
tau@@ 13
tay 13
tbag 13
teach@@ 13
tefal 13
temper@@ 13
tha 13
thentic 13
thre@@ 13
thread@@ 13
treat@@ 13
ttle 13
tutu@@ 13
ud@@ 13
uniq@@ 13
ures 13
us-@@ 13
uss 13
vable 13
valentin@@ 13
vand@@ 13
verde 13
vicky 13
vict@@ 13
vii 13
vip@@ 13
vitara 13
vk 13
vn@@ 13
vocaloid 13
will@@ 13
x0@@ 13
x2@@ 13
xf 13
xiao 13
xiaomi@@ 13
yal 13
yang@@ 13
yaz@@ 13
ykk 13
zee@@ 13
zig@@ 13
€ 13
☞ 13
☼ 13
𝒆@@ 13
'est 12
-014 12
-240v 12
-47 12
-49 12
-9 12
-e@@ 12
-in 12
0.8 12
0008 12
030@@ 12
050 12
063 12
1-7 12
1007 12
1009 12
1024 12
1030 12
106@@ 12
1101 12
1170@@ 12
1250 12
140mm 12
175ml 12
1803 12
195@@ 12
1cm 12
1u 12
2019-@@ 12
2080 12
212@@ 12
220ml 12
224@@ 12
2400 12
261 12
26x@@ 12
271 12
273 12
27cm 12
280g 12
289 12
291 12
297 12
300w 12
315@@ 12
319 12
329 12
339 12
343 12
353 12
379 12
3f 12
4.7@@ 12
41-@@ 12
414 12
449 12
452 12
456 12
470@@ 12
473 12
49-@@ 12
5.3 12
505@@ 12
50a 12
51-@@ 12
513@@ 12
5200 12
5500 12
553 12
557 12
559 12
572 12
573 12
575@@ 12
617@@ 12
65cm 12
667 12
685@@ 12
733 12
75cm 12
770 12
8.1 12
810@@ 12
816@@ 12
819 12
840 12
8500 12
851 12
885 12
893 12
9-10 12
917 12
922@@ 12
930 12
933 12
946 12
980 12
986 12
997 12
a18 12
a32 12
a8s 12
af-@@ 12
ampo@@ 12
archi@@ 12
armor@@ 12
asonic 12
athletics 12
austr@@ 12
bagu@@ 12
baguette 12
bape 12
basket@@ 12
beri 12
betta 12
bis 12
bj 12
bloom@@ 12
bree@@ 12
bridge@@ 12
bruno 12
bry@@ 12
bubb@@ 12
calcul@@ 12
captor 12
carti@@ 12
ce-@@ 12
cen 12
chanel@@ 12
clarins 12
clemen@@ 12
cm. 12
cny 12
comme 12
condition@@ 12
cougar 12
cr-@@ 12
ctional 12
db-@@ 12
dece@@ 12
deep@@ 12
deto@@ 12
dior@@ 12
dl-@@ 12
dram@@ 12
ds-2@@ 12
dvd-@@ 12
e00@@ 12
e3 12
e6@@ 12
em-@@ 12
en-@@ 12
ener 12
ert 12
esc@@ 12
ett@@ 12
even@@ 12
fact@@ 12
fei 12
ferre@@ 12
festa 12
fing@@ 12
fk 12
fn 12
fou@@ 12
fox@@ 12
fum 12
fund@@ 12
fz@@ 12
galac@@ 12
gamma 12
gamo@@ 12
gene 12
ggles 12
gnc 12
gner 12
gram@@ 12
graphi@@ 12
gv@@ 12
hardy 12
hercules 12
hgb@@ 12
hgbf 12
hid 12
hound@@ 12
ic-@@ 12
intro@@ 12
intu@@ 12
inven@@ 12
ipo@@ 12
itional 12
itz 12
iw@@ 12
iwatch 12
jae@@ 12
java 12
jbj 12
jd-@@ 12
jessie 12
jie@@ 12
joie 12
jus@@ 12
k50@@ 12
k6 12
k8@@ 12
kanebo 12
kd10 12
konica 12
lala@@ 12
lilian 12
limit 12
lovetoy 12
lz@@ 12
m15 12
m20@@ 12
majo@@ 12
manufac@@ 12
mcgra@@ 12
melody@@ 12
mild@@ 12
minkoff 12
minolta 12
mks 12
ml.@@ 12
modi@@ 12
mony 12
mouse@@ 12
mpers 12
mph 12
n2 12
nana 12
nana@@ 12
nic@@ 12
nimbus 12
no.5 12
nr@@ 12
nw 12
olympic 12
orts 12
osprey 12
ott 12
pace 12
pam 12
pero 12
pg1 12
phen@@ 12
pher 12
poi@@ 12
powe@@ 12
powershot 12
ppee 12
prim 12
promax 12
protro 12
public 12
ray-ban 12
recharg@@ 12
repl@@ 12
repli@@ 12
rie@@ 12
running@@ 12
rus@@ 12
ryn 12
s55@@ 12
sae@@ 12
sax 12
scape 12
scrip@@ 12
season@@ 12
shado@@ 12
shen 12
ska 12
skull@@ 12
smas@@ 12
spf35 12
steph@@ 12
supre@@ 12
sur 12
syner@@ 12
tains 12
tao@@ 12
thie 12
thon@@ 12
tian@@ 12
tice 12
tility 12
tok 12
told 12
tonka 12
trainers 12
tre 12
turb@@ 12
turtle@@ 12
ue@@ 12
uemura 12
uler 12
ulous 12
us7 12
v3@@ 12
valen@@ 12
vanna 12
vapor@@ 12
ventil@@ 12
virgin@@ 12
viv@@ 12
vivienne 12
vol.4 12
vol.@@ 12
vt-@@ 12
wang@@ 12
weather@@ 12
week@@ 12
wen 12
westwood 12
wk-@@ 12
wool@@ 12
x50 12
xm 12
xr1 12
xs-xl 12
xzs 12
y2 12
yuasa 12
ᅮ@@ 12
ⅱ 12
❥ 12
ｗ@@ 12
𝐨@@ 12
𝗿@@ 12
-026 11
-1000 11
-220 11
-350 11
-m 11
-n@@ 11
-z@@ 11
.4 11
.6 11
0004 11
0007 11
1028 11
1107 11
1108 11
1155 11
1215@@ 11
1301 11
138@@ 11
139@@ 11
150m 11
150x@@ 11
16l 11
1807 11
1950 11
1r 11
208@@ 11
217@@ 11
21mm 11
258@@ 11
276 11
298 11
3.7 11
30000 11
313@@ 11
32x@@ 11
33mm 11
348 11
37-@@ 11
377 11
381 11
385 11
4.5g 11
414@@ 11
42cm 11
442 11
4kl 11
5-2 11
516@@ 11
52017 11
532 11
535@@ 11
5600@@ 11
579 11
590 11
5w@@ 11
5z 11
6-2018 11
60hz 11
665 11
665@@ 11
6r 11
717 11
719 11
735 11
773 11
778 11
788 11
7v 11
816 11
850ml 11
878@@ 11
8800 11
890 11
891 11
926 11
927 11
941 11
993 11
a13 11
a22@@ 11
a70@@ 11
a72017 11
aaaa@@ 11
ab6ix 11
aes 11
ake@@ 11
amazfit 11
amb@@ 11
amo 11
anas@@ 11
anium 11
anten@@ 11
applied 11
aprica 11
archite@@ 11
asdf@@ 11
aso@@ 11
athers 11
athon 11
atmo@@ 11
azz@@ 11
b8 11
bai 11
bak 11
baru 11
beck@@ 11
bern@@ 11
bha@@ 11
bian@@ 11
bill@@ 11
blox 11
boss@@ 11
branding 11
brown@@ 11
byredo 11
c11 11
c20 11
c9pro 11
camaro 11
capu@@ 11
carnitine 11
caudalie 11
centr@@ 11
cet 11
champs 11
cheng 11
chou 11
cigare@@ 11
cla 11
cleans@@ 11
d-1a 11
d6 11
da-@@ 11
danica 11
dario 11
daytona 11
ddings 11
dear@@ 11
desk@@ 11
dison 11
dman 11
docu@@ 11
dou 11
dow@@ 11
ducati 11
duel 11
duplo 11
durex 11
ece 11
eco-@@ 11
efr@@ 11
eleg@@ 11
elite@@ 11
emul@@ 11
enf@@ 11
enzy@@ 11
evangeli@@ 11
f1@@ 11
f6@@ 11
f8 11
facebook 11
fav@@ 11
fie@@ 11
figure-rise 11
fina 11
flexi@@ 11
formul@@ 11
foun@@ 11
franci@@ 11
g-2@@ 11
g12 11
gaga 11
garcons 11
garteri@@ 11
gelat@@ 11
geor@@ 11
givea@@ 11
gob@@ 11
gregory 11
gthen@@ 11
guan 11
h3 11
hank 11
haru 11
heart-@@ 11
hersh@@ 11
hing@@ 11
hitachi 11
hm-@@ 11
hr-@@ 11
i90@@ 11
igu@@ 11
ild 11
iners 11
inet 11
iny 11
irv@@ 11
ish@@ 11
iwatch@@ 11
j8@@ 11
jg 11
jing 11
jogg@@ 11
joy-con 11
jw@@ 11
k2@@ 11
kg-@@ 11
kini 11
kj 11
km@@ 11
kom 11
kut@@ 11
kx-@@ 11
laro@@ 11
lb-@@ 11
ld-@@ 11
lf 11
load@@ 11
lounge@@ 11
loz 11
lq@@ 11
lunarlon 11
manfrotto 11
marco 11
marj@@ 11
massa@@ 11
match@@ 11
maxi-@@ 11
mc-@@ 11
meow@@ 11
mh-@@ 11
mile@@ 11
minim@@ 11
misa 11
mm- 11
movi@@ 11
muscle@@ 11
napo@@ 11
nei@@ 11
neigh@@ 11
nf@@ 11
nixon 11
noble@@ 11
noe 11
nov 11
nova3@@ 11
nova5@@ 11
office@@ 11
olin 11
ours 11
p-up 11
p00@@ 11
p7 11
pa-@@ 11
paradi@@ 11
paragraph 11
pcb 11
peg@@ 11
phe 11
pillar 11
prem 11
purit@@ 11
q2 11
q5 11
quer 11
reads 11
reo 11
rever@@ 11
rine 11
romand 11
rt-@@ 11
s20@@ 11
sach@@ 11
sche@@ 11
scou@@ 11
select@@ 11
session 11
shal@@ 11
shooky 11
site 11
sko@@ 11
solar@@ 11
spalding 11
spec@@ 11
spectr@@ 11
spine 11
springs 11
sprouts 11
squa@@ 11
ss. 11
ssi 11
stabi@@ 11
staff 11
stampede 11
steven 11
stic@@ 11
studi@@ 11
stun@@ 11
suho 11
sunny@@ 11
t1@@ 11
tako 11
tango 11
tb-@@ 11
techno@@ 11
tek@@ 11
termin@@ 11
tero 11
text@@ 11
thers 11
thu@@ 11
till@@ 11
tough@@ 11
tr-@@ 11
tumbl@@ 11
tzu@@ 11
u11 11
uch 11
uns 11
us9 11
vage 11
vamp@@ 11
viet@@ 11
vivier 11
vt@@ 11
wannaone 11
warri@@ 11
wren@@ 11
x4@@ 11
xiii 11
xiumin 11
xl-5xl 11
xpe 11
y8@@ 11
yab@@ 11
yen@@ 11
yg@@ 11
yk@@ 11
yte 11
zam@@ 11
zard 11
zc55@@ 11
zenfone4 11
zenfone5 11
zinger 11
zs 11
² 11
ᄃ@@ 11
ᄇ@@ 11
ᆫ 11
╄ 11
■ 11
❀ 11
ｈ@@ 11
ｎ@@ 11
｜ 11
𝐄 11
𝐏@@ 11
𝗶@@ 11
-015 10
-150 10
-300 10
-30@@ 10
-43 10
-k@@ 10
-out 10
-style 10
.n 10
008@@ 10
011@@ 10
1010 10
1055 10
110-@@ 10
1112 10
149@@ 10
1601 10
1688 10
17.3 10
1700 10
18.5 10
1802 10
186@@ 10
19.5 10
1900 10
1910 10
1v 10
1x1 10
2-0@@ 10
2.6 10
2030 10
21.5 10
22-@@ 10
22.5 10
22.@@ 10
2280 10
23.5 10
24.@@ 10
28x@@ 10
293 10
2e 10
2v 10
3-2 10
3.3 10
339@@ 10
341 10
346 10
351 10
354 10
369 10
387 10
394 10
398 10
4- 10
40l 10
418 10
420ml 10
421 10
432 10
45x@@ 10
478 10
5.7 10
513 10
517@@ 10
519 10
528@@ 10
533 10
538@@ 10
545 10
55s 10
563 10
564 10
592 10
599 10
5b 10
5q 10
6.0@@ 10
605@@ 10
623 10
652 10
676 10
691 10
6sp 10
7.8 10
718 10
750w 10
767 10
779 10
782 10
799 10
7x@@ 10
8.8 10
815 10
856 10
8w 10
912@@ 10
917@@ 10
9300 10
970@@ 10
995 10
996 10
999@@ 10
a30@@ 10
a53 10
abo 10
achu 10
acry@@ 10
addiction 10
afternoon 10
akb48 10
anch@@ 10
arc@@ 10
aug@@ 10
aun@@ 10
b00@@ 10
baba 10
bali@@ 10
barbar@@ 10
beaute@@ 10
begin@@ 10
biz 10
bling@@ 10
bred 10
bw-@@ 10
c18@@ 10
cambo@@ 10
cardin 10
cator 10
cay@@ 10
clari@@ 10
climacool 10
cloudfoam 10
combin@@ 10
como 10
confi@@ 10
contin@@ 10
conveni@@ 10
dah@@ 10
dant@@ 10
dashi@@ 10
ddie 10
descen@@ 10
dh 10
distribu@@ 10
drag@@ 10
dresse@@ 10
dvi@@ 10
dwar@@ 10
dwel@@ 10
erial 10
eur@@ 10
evo@@ 10
f01 10
f07 10
f10 10
fal 10
fessi@@ 10
fk@@ 10
france@@ 10
friend@@ 10
furyu 10
future@@ 10
fuzzy 10
g9 10
genu@@ 10
given@@ 10
grandline 10
grin@@ 10
gucc@@ 10
hola 10
hong@@ 10
hoo 10
hori 10
hyalur@@ 10
immor@@ 10
ins@@ 10
inser@@ 10
inspi@@ 10
itude 10
j3pro 10
j52016 10
j7-@@ 10
jia 10
joanna 10
jour 10
kakao 10
keep@@ 10
keras@@ 10
kina 10
kokuyo 10
kom@@ 10
kon 10
koo@@ 10
kt-@@ 10
kun 10
kyrie@@ 10
lane@@ 10
leaf@@ 10
lego@@ 10
like@@ 10
lipse 10
lix 10
lous 10
loween 10
lunch@@ 10
lv8 10
lyte 10
m40@@ 10
mamon 10
mao 10
marga@@ 10
marjorie 10
mavis 10
mb-@@ 10
mbl@@ 10
micha@@ 10
micr@@ 10
minum 10
moc@@ 10
mouth@@ 10
mtr@@ 10
muse@@ 10
nay@@ 10
ncy 10
nile 10
north@@ 10
oak@@ 10
oku 10
ornam@@ 10
ote 10
oxo 10
pd-@@ 10
pei 10
pepp@@ 10
pepper@@ 10
pepti@@ 10
phop 10
pinn@@ 10
pippen 10
pita 10
plax 10
pont 10
porter 10
python 10
qd 10
qin 10
qua@@ 10
qz@@ 10
rascal 10
reali@@ 10
recei@@ 10
roland 10
roller@@ 10
ronin 10
s-2xl 10
s11 10
scallo@@ 10
scopic 10
scription 10
seal@@ 10
sebamed 10
shipping@@ 10
shka 10
sk0@@ 10
special@@ 10
splcod@@ 10
ssk 10
supreme@@ 10
syste@@ 10
t00@@ 10
t18@@ 10
t9@@ 10
taipei 10
tern 10
tesla 10
thia 10
tik@@ 10
todd@@ 10
tomi@@ 10
tory@@ 10
totolink 10
tpe 10
tq@@ 10
transpa@@ 10
troll 10
u.s.@@ 10
uary 10
ui@@ 10
undefeated 10
uptempo 10
users 10
v7@@ 10
vat@@ 10
vlog 10
waii 10
wards 10
x14 10
xd@@ 10
xz1 10
yst@@ 10
zal@@ 10
zelle 10
zilla 10
zur@@ 10
ø@@ 10
ᄒ@@ 10
ᆼ@@ 10
ℂ@@ 10
┍ 10
┘ 10
╢ 10
＊ 10
ｐ 10
ｓ@@ 10
ｔ@@ 10
ﾠ 10
𝐌@@ 10
𝐧@@ 10
𝗜@@ 10
𝗼@@ 10
𝙰@@ 10
-004 9
-005 9
-009 9
-011 9
-20 9
-210 9
-2xl 9
-360@@ 9
-40@@ 9
-e 9
-l 9
-v@@ 9
-xl 9
0010 9
014@@ 9
040@@ 9
100v 9
1011 9
1012 9
1020 9
10400 9
1103 9
1115 9
1201@@ 9
1202 9
1210 9
127@@ 9
1302 9
13w 9
1401 9
165@@ 9
166@@ 9
188@@ 9
1911 9
1970s 9
1985 9
1y 9
2100 9
22.5@@ 9
23.@@ 9
23l 9
24h@@ 9
254 9
266 9
278 9
29.@@ 9
2g@@ 9
2l@@ 9
3-0@@ 9
300s 9
309@@ 9
334@@ 9
335@@ 9
3500@@ 9
36.5 9
378 9
397 9
40-46 9
416 9
425@@ 9
448 9
455@@ 9
458 9
463 9
47-@@ 9
472 9
485 9
48mm 9
48v 9
490 9
4x6 9
5. 9
5002 9
5500@@ 9
567 9
5plus 9
622 9
627@@ 9
636 9
654 9
682 9
70a 9
728@@ 9
737 9
7500 9
764 9
775 9
811@@ 9
854 9
882 9
886 9
8k 9
9.1 9
919 9
940@@ 9
957@@ 9
982 9
a17 9
a300 9
a32-@@ 9
ael 9
alight 9
alog 9
alphab@@ 9
alpine 9
alter 9
ambassador 9
anese 9
ansa 9
aphy 9
arnold 9
arth@@ 9
aso 9
assembl@@ 9
athlon 9
athy 9
attipas 9
autu@@ 9
b- 9
b01 9
baja@@ 9
bena 9
blac@@ 9
brat@@ 9
brazi@@ 9
bridesm@@ 9
c12 9
c1@@ 9
cbn 9
charon 9
cheese@@ 9
chette 9
chopp@@ 9
co.@@ 9
collection@@ 9
colum@@ 9
constance 9
coste 9
croche@@ 9
cuisinart 9
cw-@@ 9
d10 9
dac 9
daily@@ 9
detoxi@@ 9
diorama 9
dol 9
domo 9
dq@@ 9
duffy 9
dula 9
dut@@ 9
dw-6900 9
elaine 9
engra@@ 9
eter@@ 9
etude@@ 9
euph@@ 9
exce@@ 9
exclu@@ 9
f15 9
f30 9
f8@@ 9
fate@@ 9
flake 9
forty 9
frog@@ 9
fz 9
gall@@ 9
glad@@ 9
gren@@ 9
gst@@ 9
gz 9
h3@@ 9
helen 9
hey@@ 9
hyun@@ 9
hz@@ 9
i6s 9
industri@@ 9
iph@@ 9
itan 9
ition@@ 9
itx 9
jef@@ 9
kate@@ 9
kati@@ 9
kj@@ 9
kobe@@ 9
kp 9
ktm 9
kymco 9
l3 9
lebron@@ 9
liar 9
licca 9
lightly 9
lion@@ 9
lithi@@ 9
ln-@@ 9
longsle@@ 9
lout 9
lover@@ 9
m-2xl 9
m-xxl 9
m22 9
m67@@ 9
mano 9
mariner 9
maybel@@ 9
mero 9
mini2 9
mk57@@ 9
mk8@@ 9
modu@@ 9
mpo@@ 9
muna@@ 9
naraya 9
natural@@ 9
nico 9
nini 9
nite 9
nity 9
oat@@ 9
oice 9
oris 9
oy@@ 9
p.o.@@ 9
p7@@ 9
paj@@ 9
pastil@@ 9
pb-@@ 9
perfe@@ 9
pipp@@ 9
pist@@ 9
pol 9
pola 9
pra 9
pran@@ 9
princess@@ 9
prophere 9
psv 9
qua 9
r7@@ 9
rav4 9
recor@@ 9
rect@@ 9
repri@@ 9
respir@@ 9
roberta 9
roche-posay 9
rosherun 9
rossi 9
rover 9
s80@@ 9
saudi@@ 9
sby 9
scream 9
sd-@@ 9
shipp@@ 9
sii 9
sk-ii 9
sk8 9
slender 9
sneak@@ 9
sneaker@@ 9
soldi@@ 9
stati@@ 9
stm 9
stopp@@ 9
story@@ 9
supra 9
suzu@@ 9
sy-@@ 9
syl@@ 9
syru@@ 9
taito 9
tarmac 9
tase 9
tella 9
therm 9
thing@@ 9
think@@ 9
tify 9
tout 9
tulog 9
tuning 9
twen@@ 9
tzu 9
u19 9
udf 9
usage 9
v60 9
vals 9
vas 9
velo 9
vessel 9
viii 9
vista 9
vk@@ 9
vor@@ 9
vou@@ 9
vy@@ 9
walt 9
whoo 9
x-trail 9
xa@@ 9
xon 9
xper@@ 9
xw@@ 9
yao@@ 9
yeti 9
yne 9
yoko@@ 9
yuan@@ 9
za5@@ 9
zd@@ 9
zj@@ 9
ø 9
ᄐ@@ 9
↑ 9
┌ 9
┼ 9
╙ 9
╚ 9
╠ 9
－ 9
𝐁@@ 9
𝐅@@ 9
𝐬@@ 9
𝒊@@ 9
𝗔@@ 9
𝗢@@ 9
𝚎@@ 9
-008 8
-020 8
-240@@ 8
-250@@ 8
-316 8
-39 8
-man 8
-q@@ 8
-w@@ 8
.0 8
.co 8
.fashion 8
.q 8
0-2 8
0.1 8
003@@ 8
022@@ 8
1-11 8
1-6@@ 8
1-8 8
10.8 8
1022 8
1110 8
1111 8
1156 8
1201 8
126@@ 8
1333 8
167@@ 8
1810 8
187@@ 8
1906 8
197@@ 8
1m@@ 8
200l 8
2015@@ 8
232@@ 8
25.@@ 8
2600 8
28-38 8
2800 8
2r 8
2z 8
300h 8
3100 8
318@@ 8
319@@ 8
31cm 8
32g@@ 8
332@@ 8
344 8
34cm 8
358 8
371 8
37mm 8
38-@@ 8
384 8
389 8
39-44 8
399@@ 8
3c@@ 8
3l@@ 8
413 8
415 8
427@@ 8
434 8
446 8
475 8
478@@ 8
495@@ 8
4e@@ 8
4i 8
5- 8
5001 8
500d 8
5100 8
534@@ 8
545@@ 8
557@@ 8
566 8
566@@ 8
578 8
5800 8
595@@ 8
6.2 8
6070@@ 8
616@@ 8
622@@ 8
646 8
651 8
659 8
686 8
6xl 8
7-11 8
700d 8
739@@ 8
741 8
756 8
761 8
763 8
772 8
780@@ 8
781 8
8010 8
814@@ 8
831 8
895 8
895@@ 8
914 8
916 8
921 8
928@@ 8
930@@ 8
931 8
97-@@ 8
987 8
992 8
9pro 8
a-one 8
a75 8
a80@@ 8
aan 8
acou@@ 8
adidas@@ 8
aesthe@@ 8
agility 8
amg 8
amiibo 8
angeli@@ 8
angler 8
ansi 8
antha 8
appy 8
apri@@ 8
aromather@@ 8
ascor@@ 8
atmos 8
avi 8
bake@@ 8
bdsm 8
budd@@ 8
bureau 8
button@@ 8
bvl@@ 8
bwfc 8
bz@@ 8
castle@@ 8
chop@@ 8
chor@@ 8
christi@@ 8
cls 8
cocon@@ 8
cola@@ 8
compati@@ 8
coni 8
copi@@ 8
ctis 8
cu.@@ 8
cuis@@ 8
d9 8
dants 8
dding 8
deodor@@ 8
deon 8
deter@@ 8
df-@@ 8
dino@@ 8
disinfe@@ 8
dix 8
dox 8
duramo 8
e14 8
economics 8
eld 8
eva@@ 8
exper@@ 8
fare 8
fb-@@ 8
fleming 8
fused 8
fw 8
g50 8
gator 8
gether 8
gladi@@ 8
gm-@@ 8
gma-s@@ 8
gna@@ 8
grape@@ 8
grocer@@ 8
gts 8
gurt 8
gw-@@ 8
gz@@ 8
h6@@ 8
h7@@ 8
h9@@ 8
haiky@@ 8
haku 8
haru@@ 8
hiro 8
hl-@@ 8
hour@@ 8
humidi@@ 8
hw-@@ 8
i5@@ 8
idolish7 8
inese 8
introduction 8
ional 8
ip7 8
irs 8
iti 8
jitsu 8
joe@@ 8
jordan1 8
katsu 8
kgh 8
kis@@ 8
lam 8
levi@@ 8
lh-@@ 8
liber@@ 8
lins 8
liss 8
loulou 8
m16 8
m2k 8
mainten@@ 8
maisto 8
mbo@@ 8
membr@@ 8
mk2 8
mk34@@ 8
mp5 8
mr-@@ 8
nct@@ 8
nds 8
nespresso 8
nl@@ 8
noah 8
ois 8
ophi@@ 8
ophidia 8
orange@@ 8
oride 8
orio 8
ots 8
oul 8
panor@@ 8
pean@@ 8
peau 8
pengu@@ 8
peti@@ 8
philo@@ 8
playmobil 8
pocky 8
ppt 8
prm 8
qw 8
r.u 8
r2@@ 8
re-ment 8
rese@@ 8
reve@@ 8
reven@@ 8
roid 8
rug@@ 8
ryx@@ 8
s-a 8
s1-@@ 8
s1@@ 8
sabon 8
sanyo 8
sche 8
schwar@@ 8
scoop@@ 8
sf9 8
shav@@ 8
shaw 8
shimm@@ 8
sium 8
skagen 8
smal 8
soy@@ 8
spat@@ 8
squea@@ 8
ssie 8
stina 8
structure 8
stry 8
sum@@ 8
sumi 8
sw-@@ 8
sweeth@@ 8
tant 8
tari@@ 8
tc-@@ 8
technica 8
tee-@@ 8
tens 8
tester@@ 8
tified 8
til 8
tium 8
tomford 8
toys@@ 8
tpu@@ 8
tr90 8
tura 8
uf@@ 8
ug 8
ule 8
uu@@ 8
v0@@ 8
veni@@ 8
veri@@ 8
vuit@@ 8
vx@@ 8
wardro@@ 8
wf 8
wth 8
wurth 8
xbox@@ 8
xd 8
xn@@ 8
xu@@ 8
xvi 8
xxl@@ 8
y-3 8
yd@@ 8
zak@@ 8
zl 8
zmi 8
¾ 8
ᄏ@@ 8
ᅧ@@ 8
┖ 8
┿ 8
╇ 8
╦ 8
╭ 8
□ 8
⚘ 8
✄ 8
✺ 8
／ 8
𝐇@@ 8
𝐔@@ 8
𝐝 8
𝒍@@ 8
𝓮@@ 8
𝗦@@ 8
-016 7
-05@@ 7
-200 7
-25 7
-38@@ 7
-4-@@ 7
-88@@ 7
-r 7
.c 7
0009 7
009@@ 7
1011@@ 7
1014 7
1015@@ 7
1017 7
10w@@ 7
1105 7
1109 7
1165@@ 7
12000 7
1204 7
1234 7
124@@ 7
135mm 7
156@@ 7
18650@@ 7
1900@@ 7
2.0l 7
20000@@ 7
2018.@@ 7
207@@ 7
245@@ 7
247@@ 7
3-2@@ 7
3002 7
3010 7
3150 7
342 7
34mm 7
35-45 7
367 7
368@@ 7
374 7
376 7
383 7
386 7
395 7
396 7
39mm 7
3y 7
416@@ 7
41mm 7
427 7
42a 7
43mm 7
440@@ 7
444 7
4500 7
459 7
466 7
479 7
488 7
495 7
527@@ 7
52mm 7
5503 7
55cm 7
590@@ 7
594 7
6- 7
611@@ 7
614 7
649 7
656 7
664@@ 7
687 7
688@@ 7
705@@ 7
712 7
713 7
716 7
754 7
755 7
757 7
765 7
789 7
792 7
812@@ 7
823 7
827 7
840@@ 7
864@@ 7
875@@ 7
878 7
899@@ 7
935 7
938 7
a100 7
a5-@@ 7
acade@@ 7
alar@@ 7
amiss 7
amos 7
anderson 7
annivers@@ 7
aorus 7
aten 7
atex 7
ati 7
b3@@ 7
baker@@ 7
bandou@@ 7
baobao 7
bcb@@ 7
benq 7
bisco 7
bjd 7
bk-@@ 7
blosso@@ 7
bobo@@ 7
brisk 7
calbee 7
catie 7
cezanne 7
cheap@@ 7
chroni@@ 7
cig@@ 7
clat 7
cm.@@ 7
coal 7
concord 7
corsa 7
ct-@@ 7
cucci 7
cullo@@ 7
d12 7
daikin 7
dents 7
dery 7
devil@@ 7
diap@@ 7
digit@@ 7
disne@@ 7
distri@@ 7
dum 7
dus 7
edison 7
emper@@ 7
ened 7
enri@@ 7
epo@@ 7
esp 7
este@@ 7
experi@@ 7
f30@@ 7
f6 7
festi@@ 7
figure@@ 7
fluore@@ 7
focus@@ 7
futura 7
gil 7
greg@@ 7
grizz@@ 7
gv-@@ 7
h6 7
happ@@ 7
happywall@@ 7
hepa 7
huahua 7
hud 7
hv 7
i7@@ 7
ida@@ 7
ige 7
ility 7
imit@@ 7
imo@@ 7
indivi@@ 7
ine100 7
instin@@ 7
iphone6splus 7
ishig@@ 7
isure 7
iton 7
jessi@@ 7
jog 7
jose@@ 7
jt-@@ 7
junior@@ 7
kc-@@ 7
keepall 7
kinder@@ 7
kook 7
kopf 7
l-5xl 7
labor@@ 7
leica 7
lish@@ 7
louboutin 7
lun 7
lunarglide 7
m-3@@ 7
m-3xl 7
m.l 7
m11 7
m50@@ 7
macaro@@ 7
magic@@ 7
makap@@ 7
makeup@@ 7
mami@@ 7
mandar@@ 7
manolo 7
mayday 7
mccartney 7
mech@@ 7
megahouse 7
merchan@@ 7
mez@@ 7
mfi 7
miffy 7
mk33@@ 7
mmd 7
mode@@ 7
montaigne 7
montblanc 7
mot 7
mp3@@ 7
n4 7
n7@@ 7
narci@@ 7
nca@@ 7
neonoe 7
nice@@ 7
ninja@@ 7
nm@@ 7
nnnn@@ 7
note4x 7
nou@@ 7
nove@@ 7
nr-@@ 7
ony@@ 7
ood 7
opa@@ 7
opu@@ 7
ora@@ 7
osh@@ 7
pallas 7
patter@@ 7
peggy 7
pentax 7
phen 7
pik@@ 7
privac@@ 7
pup 7
quart@@ 7
r20 7
ra-@@ 7
rayban 7
retrac@@ 7
rfi@@ 7
river@@ 7
rotat@@ 7
rou 7
rv 7
rx-78@@ 7
s75@@ 7
samson@@ 7
schu@@ 7
seni@@ 7
simi@@ 7
sou 7
spf25 7
splay 7
steen 7
stron@@ 7
stylu@@ 7
stylus3 7
superme 7
surve@@ 7
sut@@ 7
taps 7
te-@@ 7
tekno 7
tigo 7
timber@@ 7
titude 7
tk-@@ 7
tomytec 7
touring 7
trix 7
tul 7
turer 7
uji 7
undercover 7
usm 7
vacu@@ 7
vdl 7
victori@@ 7
vintage@@ 7
vm 7
vol.3 7
w11 7
wacom 7
x- 7
x23 7
x90 7
xiu 7
xrm@@ 7
xz2 7
y3@@ 7
yeh 7
yg 7
ze551ml 7
zir@@ 7
¡ 7
¥ 7
า@@ 7
ᄌ@@ 7
ᅳ 7
╀ 7
╅ 7
╆ 7
╉ 7
╛ 7
╪ 7
❝ 7
❞ 7
𝑬@@ 7
𝑺@@ 7
𝗘@@ 7
𝗡@@ 7
𝗲@@ 7
𝘀 7
𝙲@@ 7
---- 6
----- 6
--------@@ 6
-013 6
-017 6
-023 6
-17@@ 6
-39@@ 6
-45@@ 6
-50 6
-52 6
.8 6
.e 6
.s 6
001-@@ 6
012@@ 6
0918 6
1-7@@ 6
1029 6
110v 6
1122 6
114@@ 6
1199 6
1280 6
1314@@ 6
15.5 6
1502 6
169@@ 6
17.@@ 6
179@@ 6
18.@@ 6
189@@ 6
1941 6
2203 6
24v@@ 6
274 6
306@@ 6
308@@ 6
317@@ 6
3300 6
34-40 6
34-@@ 6
36.@@ 6
369@@ 6
390@@ 6
4100 6
419@@ 6
422@@ 6
423@@ 6
426 6
43-@@ 6
434@@ 6
439 6
445@@ 6
447 6
461 6
46mm 6
486 6
48x@@ 6
491 6
493 6
494 6
4e 6
502@@ 6
515@@ 6
519@@ 6
523@@ 6
526@@ 6
569 6
576 6
586 6
5d@@ 6
6.7 6
6.9 6
6500 6
663 6
695@@ 6
6p@@ 6
7-10 6
700c 6
712@@ 6
718@@ 6
722 6
724 6
736@@ 6
766 6
787 6
808@@ 6
817@@ 6
824 6
857 6
859 6
870@@ 6
890@@ 6
9. 6
9.8 6
911@@ 6
916@@ 6
936 6
95-@@ 6
990@@ 6
a200 6
acket 6
addi@@ 6
albu@@ 6
alcat@@ 6
alche@@ 6
amoto 6
anessa 6
annab@@ 6
aor@@ 6
april@@ 6
apu@@ 6
armo@@ 6
asis 6
atti@@ 6
audi@@ 6
ax5 6
b14@@ 6
bale@@ 6
balmain 6
banne 6
bapti@@ 6
bate 6
bby@@ 6
bime 6
blee@@ 6
bom 6
bonding 6
brook@@ 6
burton 6
c200 6
cabas 6
caesar 6
cancel@@ 6
caran 6
carhartt 6
carter@@ 6
cayenne 6
celesti@@ 6
cerami@@ 6
chev@@ 6
chica@@ 6
chun 6
civi@@ 6
cm- 6
cns 6
collecti@@ 6
constell@@ 6
coo 6
cooper@@ 6
cro 6
crystal@@ 6
culus 6
curry@@ 6
cyn@@ 6
date@@ 6
deet 6
deur 6
diamon@@ 6
dm-@@ 6
dmc-@@ 6
doki 6
doris 6
e9@@ 6
ecco 6
ep-@@ 6
erina 6
etu@@ 6
evera 6
expan@@ 6
f2.8 6
f28@@ 6
f36@@ 6
fa-@@ 6
favor@@ 6
femin@@ 6
fenix 6
ferra@@ 6
ferti@@ 6
find@@ 6
flan@@ 6
forester 6
g30 6
gham 6
gj 6
gry 6
gucc 6
gx3 6
h8 6
handker@@ 6
herit@@ 6
hilfig@@ 6
igen 6
igue 6
inci@@ 6
inclusive 6
indonesi@@ 6
indu@@ 6
inhal@@ 6
insi@@ 6
ipx7 6
ison 6
itane 6
jano@@ 6
jegg@@ 6
jenni@@ 6
judy 6
juku 6
jung@@ 6
k3@@ 6
karite 6
kenne@@ 6
kh 6
kip@@ 6
knigh@@ 6
kyrie3 6
lade@@ 6
lagerfeld 6
legen@@ 6
leo@@ 6
licen@@ 6
lles 6
lton 6
m1@@ 6
m60@@ 6
mama@@ 6
mare 6
mate9 6
max2 6
max97 6
mbus 6
meas@@ 6
melam@@ 6
messen@@ 6
mics 6
miki 6
mk32@@ 6
mk55@@ 6
mk59@@ 6
ml- 6
mobil 6
mous@@ 6
msm@@ 6
msp@@ 6
nie@@ 6
nite@@ 6
nrg 6
obd 6
obd2 6
olfa 6
omega@@ 6
orge@@ 6
osp@@ 6
outlander 6
own@@ 6
ozweego 6
p2@@ 6
p4 6
palladium 6
pci@@ 6
peace@@ 6
perspir@@ 6
phant 6
pharrell 6
polarstar 6
pound 6
pressor 6
propel@@ 6
putit@@ 6
qb@@ 6
quel@@ 6
qx@@ 6
rea@@ 6
receip@@ 6
refil@@ 6
repe@@ 6
revie@@ 6
rhine@@ 6
rhyton 6
richell 6
room@@ 6
ror 6
ror@@ 6
s60 6
sca@@ 6
see-@@ 6
sgs 6
shox 6
sip@@ 6
sly 6
smallrig 6
smit@@ 6
soft99 6
solo@@ 6
soni@@ 6
splash@@ 6
squish@@ 6
ssd@@ 6
ssel 6
ssey 6
station@@ 6
swar@@ 6
swarov@@ 6
switch@@ 6
t580 6
tane 6
taro@@ 6
tasia 6
tasse@@ 6
teco 6
tencel 6
thavasa 6
titi@@ 6
tmax 6
toyo@@ 6
trape@@ 6
trey 6
troo@@ 6
tupper@@ 6
ubi@@ 6
unc 6
uncaged 6
usable 6
usal 6
uten@@ 6
vea@@ 6
vest@@ 6
viral 6
vivian 6
vl@@ 6
vulc 6
w5 6
w8 6
weeken@@ 6
wester@@ 6
wifi@@ 6
willi@@ 6
wis@@ 6
wq 6
xq@@ 6
y0@@ 6
y9prime@@ 6
yamamoto 6
yaman@@ 6
z6 6
z6@@ 6
zenfone3 6
zojirushi 6
zr@@ 6
zumi 6
± 6
ஐ@@ 6
ᄅ@@ 6
ᄆ@@ 6
ᅦ@@ 6
ᆺ 6
↓ 6
≈ 6
ⓐ 6
ⓒ@@ 6
┑ 6
┓ 6
┻ 6
╂ 6
╃ 6
╈ 6
╊ 6
╋ 6
╧ 6
╨ 6
▲ 6
◢ 6
◤ 6
☬ 6
☻ 6
❈ 6
︵ 6
＂ 6
［ 6
𝐆@@ 6
𝐋 6
𝐖@@ 6
𝐞 6
𝐡@@ 6
𝐥@@ 6
𝐧 6
𝐬 6
𝑹@@ 6
𝒂@@ 6
𝒐@@ 6
𝒓@@ 6
𝓇@@ 6
𝓪@@ 6
𝓻@@ 6
𝕊@@ 6
𝗰@@ 6
𝗻@@ 6
𝙴@@ 6
𝙻@@ 6
-021 5
-11 5
-22@@ 5
-27@@ 5
-400 5
-500 5
-80@@ 5
-mi@@ 5
.com 5
.fly 5
028@@ 5
060@@ 5
1021 5
1025 5
1104 5
1113 5
11mm 5
123@@ 5
12h 5
1450@@ 5
1580 5
17-18 5
2008@@ 5
2019.@@ 5
227@@ 5
2288 5
22x@@ 5
24.5 5
25.5 5
336@@ 5
3800 5
3m@@ 5
3q 5
4. 5
4.4 5
4.6 5
40-4@@ 5
42-@@ 5
423 5
424@@ 5
433@@ 5
435 5
445 5
481 5
482 5
487 5
498@@ 5
4k@@ 5
50c 5
535 5
551kl 5
5w30 5
6-3 5
6-7-@@ 5
613@@ 5
623@@ 5
628@@ 5
633@@ 5
636@@ 5
645 5
647 5
657 5
677 5
692 5
7- 5
707@@ 5
70d 5
725@@ 5
774 5
786 5
791 5
799@@ 5
8- 5
806@@ 5
832@@ 5
835@@ 5
844@@ 5
876 5
8880 5
9- 5
9001 5
915@@ 5
948 5
952 5
996@@ 5
9999@@ 5
9se 5
a4-@@ 5
a45 5
ab0@@ 5
abu 5
acces@@ 5
adian 5
adida 5
adv@@ 5
alls 5
alviero 5
amia 5
amide 5
andri@@ 5
anita 5
aoc 5
apex@@ 5
apon 5
appa 5
aq 5
arn@@ 5
artifi@@ 5
ashes 5
assc 5
avant 5
aveng@@ 5
avoc@@ 5
aze 5
b28@@ 5
bade@@ 5
baell@@ 5
barba@@ 5
bbia 5
bbie 5
boni@@ 5
booking 5
bsk 5
c13 5
caco 5
canv@@ 5
cater@@ 5
chamb@@ 5
chee 5
childre@@ 5
chrono@@ 5
codi@@ 5
coor@@ 5
coordin@@ 5
cophone 5
copter 5
cules 5
cuti@@ 5
darwin 5
deod@@ 5
dient 5
diptyque 5
discoun@@ 5
disney@@ 5
display@@ 5
district 5
diy@@ 5
dk-@@ 5
doe 5
dota@@ 5
dr-@@ 5
duroy 5
e63 5
e9 5
eco-drive 5
educat@@ 5
elet 5
ema 5
engine@@ 5
enna 5
enta 5
erra 5
evel@@ 5
f20 5
fear@@ 5
fee@@ 5
fitch@@ 5
flavo@@ 5
frien@@ 5
furnit@@ 5
g2@@ 5
g8@@ 5
geek@@ 5
gior@@ 5
gogo@@ 5
gou 5
gree@@ 5
grl 5
gsi 5
gts@@ 5
hater 5
hcg 5
hei 5
heu@@ 5
hopp@@ 5
how.@@ 5
hoyo@@ 5
hugg@@ 5
hun 5
hyp@@ 5
ichi@@ 5
ight@@ 5
ign 5
impreza 5
infalli@@ 5
instab@@ 5
isu@@ 5
j7p 5
ja-@@ 5
jai 5
jewell@@ 5
jojo@@ 5
justi@@ 5
jy-@@ 5
k11 5
k12 5
k7@@ 5
kend@@ 5
kerastase 5
kirk@@ 5
knu@@ 5
koff 5
[...]
