] 94082
[ 93876
包 56379
鞋 48115
/ 47359
现货 46548
款 44625
小 41131
女 33192
男 32955
新款 30907
" 28606
版 28203
休闲 27895
- 25624
韩 25398
, 23958
大 23042
~ 22250
全新 22201
时尚 22129
(@@ 19858
手 18187
免 17905
简约 17746
可 17542
搭 16089
收纳 15805
日本 15671
的 15354
单 15244
用 15229
代购 15148
多 15111
百 14676
一 14493
运动 14424
nike 14214
短袖 14117
裤 14038
肩 13801
夹 13708
上衣 13145
家 13117
儿童 13041
正品 13034
美 12873
背包 12846
运 12637
式 12493
套装 11989
套 11921
. 11716
盒 11710
防 11576
长 11449
* 11373
三 11290
斜 11229
手机 11191
t恤 11180
+ 11060
外套 10986
全 10895
超 10874
创意 10770
白 10664
男士 10641
架 10628
红 10541
风 10511
新 10503
学生 10488
复古 10481
潮 10400
色 10378
经典 10314
网 10274
韩国 10179
情侣 10094
高 10061
机 10056
黑 10052
柜 9915
) 9863
蓝 9860
二手 9821
系列 9646
带 9578
adidas 9520
组 9238
潮流 9189
台湾 9160
! 9138
夏季 9129
黑色 8993
2 8991
件 8938
品 8887
中 8813
贴 8735
袋 8697
帽 8594
表 8532
现代 8481
可爱 8471
壳 8403
卡 8367
功能 8331
客厅 8284
短 8268
防水 8215
灯 8147
手表 8101
特价 7917
日 7874
不 7824
爱 7803
裙 7540
宝宝 7507
家用 7498
女鞋 7479
1 7463
玩具 7462
衣 7422
纹 7347
卧室 7300
lv 7266
水 7220
air 7158
/@@ 7137
车 7101
丝 7075
垫 7075
ml 7074
双 7034
精品 6988
头 6968
3 6929
宽松 6914
北欧 6903
人 6832
运动鞋 6809
装 6807
花 6769
原 6768
长袖 6764
椅 6700
棉 6621
gucci 6600
透气 6578
牛皮 6577
木 6544
金 6527
置 6497
挂 6458
#@@ 6454
牌 6412
两 6403
床 6364
纯棉 6279
正 6262
美国 6230
扣 6229
杯 6142
型 6125
板 6100
加厚 6047
慢跑 5948
物 5896
专用 5895
耳环 5867
送 5867
侧 5848
不锈钢 5837
码 5710
层 5697
女士 5695
猫 5654
古 5635
洋装 5625
代 5564
真皮 5541
桌 5534
男女 5534
货 5529
汽车 5515
同 5499
造型 5468
沙发 5432
显 5420
个性 5395
4 5386
装饰 5373
系 5371
秋 5352
包包 5331
有 5322
后 5308
宝 5307
短裤 5298
实 5277
无 5273
粉 5246
厨房 5242
-@@ 5239
印花 5237
新品 5227
爆 5224
t 5212
箱 5202
用品 5192
线 5174
玻璃 5167
四 5160
钱包 5159
下 5153
手提包 5142
元 5133
饰 5127
瘦 5114
拖鞋 5079
格 5061
礼物 5041
乐 5039
吊 4998
折 4998
蕾 4995
片 4979
迷你 4965
洗 4947
物架 4933
正版 4928
x 4918
5 4911
王 4904
冬 4888
ins 4863
袖 4861
预购 4848
卡通 4833
10 4827
女生 4818
夏 4808
保 4807
上 4758
修身 4750
二 4728
书 4696
圆领 4692
号 4681
米 4659
背心 4637
衬衫 4626
白色 4622
台 4594
热卖 4592
便 4575
服 4571
实拍 4548
户外 4544
入 4532
店 4520
2020 4519
100 4493
发 4491
# 4485
性感 4464
皮 4421
布 4388
限定 4372
热销 4367
厂 4357
男生 4352
充电 4349
制 4318
之 4307
杀 4290
面 4264
分 4243
家居 4236
组合 4235
好 4205
笔 4204
生活 4193
长裤 4188
6 4179
2019 4176
气质 4173
拿 4145
商务 4143
连 4138
电 4126
简易 4125
电脑 4124
出清 4123
钻 4120
折叠 4109
拉链 4097
娃娃 4088
logo 4069
牛仔 4067
跑步 4059
针织 4042
婴儿 4011
出货 3996
衣服 3986
透明 3969
手工 3961
内 3953
刷 3946
保护 3918
狗 3910
香 3899
欧 3897
背 3895
容量 3890
附 3882
神器 3869
公司 3844
皮带 3844
进口 3834
口 3829
耳 3796
薄 3793
通用 3793
盘 3780
懒人 3760
』 3749
馆 3744
满 3743
腰 3743
『 3738
苹果 3724
黑白 3724
胶 3719
舒适 3689
2017 3686
化妆 3671
贴纸 3642
子 3629
绿 3626
油 3608
成人 3606
盖 3602
耐 3602
max 3599
马 3582
光 3571
.@@ 3551
游戏 3547
chanel 3536
coach 3535
led 3520
防滑 3518
棒 3511
脚 3509
储 3500
提 3490
耳机 3467
8 3462
香水 3462
2018 3453
湿 3451
毛 3446
编织 3444
专柜 3436
公仔 3433
限量 3431
金属 3425
12 3424
设计 3423
字 3415
篮球 3406
电动 3396
软 3392
边 3383
小@@ 3376
无线 3375
买 3369
眼镜 3369
袜 3359
球 3348
项链 3337
五 3331
居家 3309
镜 3308
小型 3306
30 3303
熊 3295
配件 3293
霜 3286
必备 3273
饰品 3265
迪达 3238
凉鞋 3235
挎包 3224
保暖 3212
: 3199
驰 3190
玫瑰 3181
携 3180
银 3162
条 3160
穿 3154
优 3151
轻 3150
茶 3146
购 3138
吉 3136
商品 3132
迪士尼 3130
? 3116
你 3110
气垫 3107
> 3082
个 3082
挎 3080
支架 3074
9 3071
摆件 3058
7 3055
女装 3033
卫 3023
防晒 3019
春 3009
茶几 3006
下标 2994
腕 2991
刺绣 2983
欧式 2980
宠物 2968
限时 2961
情趣 2948
女童 2938
液 2936
黄 2936
客 2926
条纹 2926
天然 2905
工具 2899
铁 2897
连衣裙 2894
旅行 2884
迪 2877
半 2875
diy 2870
最 2870
欧美 2869
立体 2853
龙 2849
保护套 2847
卖场 2846
水晶 2842
t@@ 2841
cm 2834
成 2823
牛仔裤 2819
绳 2816
瓶 2806
护 2795
牙 2794
手链 2793
蛋 2786
直 2781
摔 2776
底 2771
拉 2770
开 2766
眼 2766
心 2750
香奈儿 2747
奇 2742
含 2736
下单 2735
本 2730
与 2725
寸 2725
清新 2721
冰 2720
20 2712
墙 2712
户型 2705
11 2699
选 2698
纸 2694
公主 2692
大@@ 2692
优惠 2684
链条 2684
内衣 2672
年 2670
连身 2670
iphone 2666
模型 2663
宿舍 2656
纯 2648
纯银 2646
大号 2643
s 2642
跟 2631
宽 2623
少女 2615
皮革 2614
咖啡 2594
字母 2584
方 2580
品质 2541
红色 2539
pro 2536
压 2536
标 2525
框 2522
］ 2518
屋 2511
_ 2508
前 2505
陶瓷 2505
x@@ 2490
帮 2487
假 2480
usb 2468
a 2462
珍珠 2457
钉 2457
浴室 2456
兔 2453
亮 2451
圈 2448
桶 2432
门 2428
50 2427
家具 2426
蓝色 2426
零钱 2424
自动 2421
室内 2417
罩 2411
凳 2399
跑鞋 2397
轮 2397
枕 2390
两用 2389
粉色 2384
自 2375
艺 2371
领 2368
s@@ 2360
甲 2358
拼接 2352
皮夹 2347
速 2347
_@@ 2346
c@@ 2343
外 2340
天 2340
细 2340
［ 2339
器 2337
童 2332
快速 2331
胸 2325
地 2324
低 2317
和 2313
特 2312
双人 2306
巴 2299
路易威登 2292
刀 2289
高腰 2281
我 2277
梦 2276
15 2274
露 2271
画 2258
罐 2255
适用 2253
定制 2251
m@@ 2249
a@@ 2248
灰 2247
落地 2247
kitty 2245
联名 2234
健身 2214
回 2210
圆 2208
出 2200
配 2196
卫生间 2195
区 2191
岁 2191
内裤 2185
e@@ 2184
g@@ 2184
品牌 2183
锅 2183
碗 2181
促销 2180
坠 2177
铺 2177
沙滩 2175
智能 2174
双层 2172
plus 2171
周边 2168
毛衣 2160
阳台 2158
18 2151
珠 2150
吊带 2145
帆布 2145
厚底 2142
蝴蝶结 2142
批发 2141
拆 2141
夜 2140
感 2137
动漫 2135
干 2134
雪纺 2134
m 2131
对 2131
作 2130
未 2125
餐厅 2120
桌面 2118
专业 2116
拼 2114
短t 2109
jordan 2105
桌子 2101
精华 2101
b@@ 2100
＊ 2099
f@@ 2095
童装 2095
纯色 2094
面膜 2090
拍 2088
钢 2088
单人 2087
礼盒 2081
迷 2076
d@@ 2072
特惠 2072
只 2070
打底 2067
5@@ 2066
椅子 2059
七 2056
淡 2054
专属 2053
角 2053
质 2050
张 2040
音 2038
空 2036
塑料 2033
弹 2017
运费 2017
new 2009
g 2008
星 2008
冬季 2003
着 2003
美式 1995
< 1991
尺码 1989
真 1985
按摩 1983
k@@ 1982
补 1981
架子 1979
电池 1976
跨 1970
电视 1964
石英 1963
座 1961
布艺 1959
办公 1955
彩色 1955
办公室 1952
2016 1935
卷 1934
l 1933
售 1925
尺 1907
3@@ 1904
清洁 1901
c 1897
绑带 1895
加 1894
价 1891
弹力 1890
点 1889
burberry 1884
车载 1880
三叶草 1875
太阳 1871
皮套 1870
抽 1869
插 1866
8@@ 1865
手环 1862
200 1859
纱 1856
2@@ 1855
百货 1854
小舖 1853
双面 1850
mk 1848
格子 1848
链 1848
材料 1843
杆 1842
猫咪 1842
篮 1842
撞 1839
爱心 1838
金色 1838
极 1836
鱼 1835
口袋 1833
6@@ 1832
电源 1831
月 1828
日式 1826
(现货) 1825
小米 1823
快 1823
书桌 1821
质感 1820
4@@ 1819
礼 1818
公分 1816
六 1814
16 1813
克 1810
19 1809
michael 1809
静音 1805
the 1804
圆形 1803
德国 1803
随身 1803
双肩包 1801
机械 1796
7@@ 1791
h@@ 1791
相机 1789
锁 1789
体 1788
束 1788
钱夹 1788
明星 1787
生 1784
动物 1783
耐克 1781
腿 1781
mm 1780
非 1779
吸 1778
腰带 1773
秒 1772
&@@ 1770
女孩 1762
500 1761
学院 1761
卖 1739
飞 1739
l@@ 1736
v@@ 1735
彩 1734
原装 1727
0@@ 1725
石 1723
戒指 1721
斯 1717
生日 1717
餐桌 1716
风扇 1711
i@@ 1706
去 1706
超薄 1705
米奇 1704
925 1702
紫 1702
整理 1700
推荐 1699
镂空 1693
勾 1690
种 1689
kors 1688
清 1687
24 1685
矽胶 1684
帆布鞋 1683
n@@ 1682
风格 1681
海贼 1677
平 1673
% 1670
达 1668
防尘 1667
安 1662
充 1660
安全 1650
3d 1647
p@@ 1644
抗 1642
睡衣 1641
礼品 1640
盆 1639
boost 1638
w@@ 1638
10@@ 1625
300 1624
奢 1623
电子 1623
w 1622
转 1620
书架 1619
男童 1617
环保 1616
17 1610
金@@ 1607
手套 1604
增高 1602
平底 1601
英伦 1594
秋季 1593
雾 1588
玄关 1584
推 1583
绣 1579
60 1577
力 1575
厚 1573
来 1573
控 1572
b 1569
伸缩 1568
12@@ 1560
零 1559
ck 1556
短款 1553
灰色 1547
q@@ 1545
学习 1544
全自动 1543
滤 1543
精 1541
制造 1540
精致 1540
到 1537
全馆 1536
加大 1536
帽子 1536
墨镜 1535
80 1533
轻便 1532
u@@ 1530
钥匙 1530
书包 1529
春秋 1529
i 1528
万 1527
z@@ 1526
餐 1526
裤子 1522
文 1521
展示 1519
衣柜 1518
13 1517
雅 1516
puma 1514
壁挂 1512
louis 1510
玩 1509
立 1508
雪 1508
订 1507
机车 1506
mini 1505
海 1501
卡@@ 1499
唇膏 1499
抱枕 1496
*@@ 1495
经济型 1495
甜美 1490
排 1489
拖 1487
流苏 1487
伞 1485
喷雾 1484
围巾 1483
男装 1483
抓 1480
是 1477
林 1476
鞋子 1476
顶级 1476
90 1475
14 1474
hello 1474
originals 1474
厂家 1473
9@@ 1472
请 1471
千 1470
+@@ 1469
v领 1467
材质 1467
尺寸 1464
防风 1464
香港 1459
慢 1457
蛋糕 1456
战 1455
dior 1454
耐磨 1451
芽 1451
r@@ 1449
被 1445
财 1445
华 1444
蜜 1443
行 1443
ysl 1440
40 1437
世界 1437
台式 1437
大学 1437
固 1435
收 1435
y@@ 1432
管 1431
招 1430
20@@ 1429
合 1429
夏天 1429
脸 1429
春季 1428
针 1423
微 1422
训练 1422
限 1421
& 1419
1@@ 1418
包装 1417
猪 1417
n 1416
花@@ 1416
在 1415
水@@ 1412
支 1409
英国 1404
armani 1403
@@@ 1402
森 1401
环 1401
夏装 1399
阿 1399
小孩 1395
小熊 1393
奶 1392
利 1391
西装 1391
炉 1389
碎 1388
笔记本 1386
打孔 1385
仿真 1384
房 1384
北 1383
25 1381
tee 1381
vuitton 1379
玩偶 1379
孔 1378
直销 1373
衣架 1373
喇叭 1372
印 1371
粗 1371
哥 1370
黑@@ 1365
晶 1359
床头 1356
水果 1356
海外 1355
团 1353
剂 1352
打 1352
泰国 1352
票 1352
风衣 1352
图案 1350
漆 1350
^ 1347
购物 1347
柜子 1346
图 1344
钥匙圈 1344
餐具 1344
度 1342
次 1341
钢化 1341
丽 1340
反光 1339
都 1339
具 1335
旋转 1334
车用 1334
全场 1333
宝莉 1331
抖 1331
塑胶 1329
轻量 1329
四季 1326
妈妈 1325
植物 1325
几 1322
100% 1321
魔 1321
圣诞 1320
d 1319
绘 1319
镶 1317
v 1316
16@@ 1314
坐 1312
神 1312
翻盖 1312
素 1309
热 1307
贝壳 1306
304 1305
情人节 1304
o@@ 1301
棉麻 1301
菱 1301
叶 1298
小号 1298
携式 1295
法国 1295
福 1295
妈咪 1291
铜 1291
陈 1290
仪 1289
器@@ 1289
羊皮 1289
洁 1286
佛 1285
吋@@ 1285
粉红 1283
气 1282
保温 1281
便宜 1280
水钻 1278
礼服 1278
钱 1277
浴 1271
白@@ 1268
鬼 1268
九 1267
改装 1266
臀 1266
火 1265
亚 1264
吊灯 1264
空气 1262
hermes 1260
扭 1259
老 1259
滑板 1258
f 1256
行动 1255
30@@ 1254
木质 1252
刮 1251
无袖 1251
shop 1250
仿 1250
酒 1250
莉 1245
阿玛尼 1245
起 1241
佳 1236
东 1234
透 1234
15@@ 1232
优质 1231
包@@ 1231
萌 1231
13@@ 1229
14@@ 1229
积木 1227
泳衣 1226
one 1225
加绒 1225
袜子 1225
保证 1224
11@@ 1223
balance 1223
音乐 1222
水桶 1221
泡泡 1220
活 1220
官方 1219
模 1218
沐浴 1217
配色 1217
水杯 1214
圣 1213
绝版 1211
e 1209
八 1208
润 1208
u 1206
三星 1206
服装 1206
女性 1205
宅 1205
硅胶 1205
1000 1204
baby 1204
特卖 1203
孩 1201
性 1201
零食 1201
会 1199
持久 1199
手书 1198
美@@ 1196
集 1196
颜 1195
粘 1194
prada 1191
浅 1190
中式 1188
36@@ 1187
一@@ 1187
40@@ 1185
星星 1185
无痕 1183
肩带 1183
芯 1179
遮 1177
麂皮 1177
ultra 1176
原宿 1176
生日礼物 1176
胶带 1176
青年 1176
19@@ 1174
烤 1172
眼影 1172
糖果 1172
迷彩 1172
孕妇 1171
水壶 1171
波 1171
活动 1171
李 1170
英文 1169
赠 1168
罗 1166
玉 1165
可折叠 1164
游 1163
绿色 1162
艾 1162
学 1161
老爹 1161
50@@ 1160
办 1160
花朵 1159
球鞋 1155
$@@ 1153
泡 1152
弹性 1149
套头 1147
j@@ 1146
pvc 1145
工作 1144
素面 1144
自行车 1144
移动 1142
奥 1141
毛巾 1139
儿 1138
国际 1136
枕头 1136
等 1136
工业 1135
烫 1135
腰包 1133
荔枝 1133
60@@ 1132
道具 1132
18@@ 1130
柔软 1130
铝合金 1130
欧洲 1127
中@@ 1126
素色 1125
红@@ 1125
150 1124
nmd 1124
糖 1124
电脑桌 1123
36 1122
精油 1122
共 1121
实用 1119
直播 1115
全套 1113
净 1112
老花 1111
优雅 1109
平板 1109
比 1108
空调 1106
k 1105
威 1105
装饰品 1105
70@@ 1102
25@@ 1101
味 1099
尾 1097
巴黎 1097
裙子 1097
伦 1094
代理 1093
德 1093
机壳 1092
舒 1091
女神 1090
尼 1090
证 1090
颗 1089
长裙 1088
路 1087
= 1086
sony 1086
坊 1086
牛 1086
盒装 1086
子@@ 1082
桌椅 1082
00@@ 1081
美容 1081
窗 1079
隐形 1079
24@@ 1077
强力 1077
流行 1077
购物袋 1077
尚 1076
zoom 1074
音响 1073
港 1072
国 1071
遥控 1071
婚礼 1069
级 1069
star 1068
街 1067
dvd 1066
酒店 1066
靠背 1066
青 1065
亲子 1064
夹克 1064
草 1063
蚊 1063
修 1061
挂件 1061
90@@ 1060
漫画 1057
重 1057
lego 1055
化 1055
空间 1055
麦 1053
17@@ 1051
樱花 1049
软壳 1048
鸟 1047
睡 1046
文具 1044
滑 1044
磨 1044
五金 1043
坐垫 1040
碟 1040
站 1040
除 1038
毛绒 1034
vans 1030
凯 1028
高档 1028
饼干 1027
超级 1026
apple 1024
史 1024
风@@ 1024
果 1022
山 1021
法 1021
短裙 1020
取 1018
阿@@ 1017
系带 1016
oppo 1015
三角 1013
商用 1013
r 1012
21 1011
converse 1011
深蓝 1011
田 1008
萤幕 1007
角落 1007
牙刷 1006
高@@ 1006
磨砂 1005
餐椅 1003
polo衫 1002
华为 1002
宝贝 1001
｜ 999
充气 998
膜 998
for 997
彩虹 997
翻领 997
茶具 997
asus 995
换 995
料 992
高筒 992
flyknit 991
皮鞋 991
约 991
者 991
p 990
洋气 989
变 988
怪 988
原创 987
发饰 987
粒 987
钻石 986
长方形 986
品@@ 984
做 981
就 979
拉杆 979
炼 978
艺术 978
旧 976
秀 976
供应 975
尼龙 975
豆豆 975
阿迪达斯 975
鸡 975
十 974
座椅 974
versace 972
派对 970
放 969
食 969
80@@ 967
布@@ 967
35@@ 966
casio 966
z 962
口罩 961
兰 960
干燥 959
卡片 957
能 956
计时 956
发夹 955
force 954
@ 953
扇 953
易 951
街头 951
闪 951
紫外线 949
行李箱 949
已 948
高跟鞋 948
32 945
32@@ 945
大理石 945
无@@ 945
饼 945
包邮 944
吃 943
戴 943
房间 943
省 943
胖 943
香@@ 943
h 939
效 939
菜 939
多色 938
键盘 937
22@@ 936
书房 936
组装 936
中国 935
乔丹 935
冰箱 935
冷 935
剪 935
小脚 935
／ 935
1.5 934
壁 934
350 933
升降 933
手提 930
棒球帽 930
益智 930
背带 930
尖头 929
树 929
贝 929
充电器 927
哈 927
天@@ 927
蝴蝶 927
巧克力 926
枪 925
镜子 925
手@@ 923
版) 922
露营 922
豆 921
书柜 920
紫色 920
露肩 918
fendi 917
青少年 917
38@@ 916
跑 914
机@@ 913
55@@ 912
口红 912
连体 911
手包 910
泰 910
台灯 909
舞 909
26 908
收藏 908
表带 908
supreme 907
洋 907
钓鱼 907
景 906
-0@@ 904
小说 903
拼图 903
搭配 903
柔 903
窗帘 903
厕所 901
另 901
gg 900
凳子 898
结婚 897
3m 895
周年 895
进 895
夏日 894
浪漫 894
中文版 893
摩托车 893
女包 889
简 889
samsung 888
初学者 888
通 888
把 887
档 887
芬 887
银色 887
75@@ 885
70 883
商 883
新@@ 882
烘焙 882
动 881
拉@@ 881
面包 881
少年 880
化妆品 879
泳装 879
一字 876
梳妆台 876
连线 876
杯子 875
款) 874
饮 874
便当 873
盒子 873
串 872
了 872
旅游 872
| 871
托 870
西 870
合金 869
吧台 869
灯具 869
钩 869
黄色 869
基本 868
米妮 866
登 865
超人 865
35 864
挂钩 864
魔法 864
0 863
\n 863
飞机 863
乔 862
夜光 862
斯@@ 861
杂货 861
母 861
入) 858
持 858
致 858
bb 857
登山 857
三@@ 856
双色 856
安全帽 856
童鞋 856
赏 854
镜头 854
授权 853
减 851
粉底 851
自然 851
超大 851
\ 850
康 850
布置 849
23 848
ps4 848
独家 848
范 848
85 847
思 847
骑士 847
魔术 847
手镯 846
海报 846
400 845
真品 845
太阳镜 844
季 844
97 843
航海 843
订制 842
3c 841
disney 838
虎 838
木@@ 837
健康 835
宝@@ 835
明 835
衬衣 834
长@@ 834
喷 833
外出 833
深 833
朵 832
转卖 832
生物 831
身 831
22 830
劲 829
发@@ 829
相 829
o 828
安卓 828
最新 828
28 827
cd 827
马桶 827
初 826
拍照 826
特@@ 826
得 824
智慧 824
发货 823
修护 822
可@@ 822
时 822
切 818
范思哲 818
虾皮 818
间 818
复 817
-2@@ 816
上市 816
堂 816
妹 816
衣物 816
丹 814
九分 813
平底鞋 813
鞋架 813
polo 812
仙女 812
托特 812
骑 811
xs 810
国@@ 810
塑 810
斗 810
遮阳 810
圣诞节 809
里 809
不@@ 806
保鲜 806
床头柜 805
道 805
颜色 805
地毯 803
pp 802
紧 802
人@@ 801
吧 801
数位 801
形 799
高端 799
(附 797
\@@ 797
变频 797
嘴 797
车@@ 797
交叉 796
心@@ 796
海@@ 796
翻 796
走 796
隔断 796
点点 795
半身 794
短靴 794
's 793
600 793
凉 793
强 793
纸巾 792
cos 790
单@@ 789
95 788
海绵 788
大衣 786
洗澡 785
28@@ 784
乐@@ 784
段 784
la 783
low 783
26@@ 781
360 781
义 781
彩绘 781
色) 781
摄影 779
方形 779
神奇宝贝 779
装饰画 779
密封 778
折扣 778
松紧 778
草莓 778
88@@ 777
电@@ 777
米@@ 777
love 776
家庭 776
模具 776
戒 775
版@@ 775
switch 774
卫衣 774
奢华 774
幼儿 774
服饰 774
钢带 774
24h 773
文艺 773
阔 773
三色 772
擦 772
兔子 771
近 771
yeezy 769
军 769
几何 769
摆 768
感应 767
破 767
罗兰 767
披肩 766
流 766
go 765
女@@ 765
抱 765
直筒 765
看 765
窄 765
绒毛 765
足 765
麦克风 765
吸管 764
克@@ 762
-3@@ 761
7-11 761
刘 760
科技 759
冲 758
y 756
光@@ 756
完美 756
雨 756
65@@ 755
志 755
送礼 754
多肉 753
竹 753
伊 752
真空 752
立式 752
抽屉 751
酒吧 751
飘 751
购买 750
普拉达 749
爱@@ 748
创 747
娃 746
精灵 745
胡 745
乐器 744
双肩 744
严 743
文化 742
万用 741
超值 741
99 740
紧身 740
乳 739
全身 739
幼儿园 739
瑜伽 739
先生 738
掌 738
漫 738
睫毛 738
新娘 737
笼 737
处 736
靠垫 736
and 735
皮@@ 735
} 734
办公桌 733
工 733
恐龙 733
欧风 733
黄金 731
剑 730
款@@ 730
法式 730
部 730
良 729
乳@@ 728
立领 728
官 727
榻榻米 727
cc 726
{ 726
塔 726
大型 726
泥 726
250 725
羊毛 725
ar@@ 724
制作 724
吋 724
小学生 724
梦幻 724
册 723
凡 723
衫@@ 723
要 723
开关 722
队 722
隔热 722
发光 721
铅笔 721
陶 721
af 720
使用 720
彪 720
慕 720
沙 720
男子 719
种子 719
门口 719
洗衣机 718
高级 718
竞 716
run 715
固定 715
番 715
偶 713
叠 713
精选 713
37@@ 712
东京 712
清仓 712
45 711
中性 711
海洋 711
34@@ 710
倍 710
日常 710
漾 709
徽章 708
45@@ 707
免运 705
椰子 705
(全新) 704
照片 704
烧 703
卡西欧 702
器材 701
分装 700
吸顶灯 700
围 700
七龙珠 699
虾 699
原价 698
完 698
(二手) 697
位 696
第一 696
后背 695
掀 695
衣@@ 695
马@@ 695
膏 693
(现货 692
刻 692
手动 692
柠檬 692
渔夫 692
bts 691
嘻哈 691
款式 690
安装 689
神@@ 689
柱 688
购入 688
公 687
刺 687
城 687
墙壁 687
涂鸦 687
保养 686
食品 686
垂 685
手提袋 684
棒球 684
香氛 684
工厂 683
男性 683
于 682
92@@ 681
电影 681
印章 680
多@@ 680
章 680
竿 680
针织衫 680
震动 680
也 679
帅气 679
期 679
雪花 679
缩 678
螺丝 678
-4@@ 677
in 676
交换 676
写字 676
数 676
比基尼 676
灭 676
设计师 676
墙面 675
开发 675
森林 675
洗发精 674
量 674
指 673
仙 672
q 671
优选 671
剪刀 671
床垫 671
衫 671
骨 671
23@@ 670
制@@ 670
名媛 670
沥水 670
墙上 669
新生儿 669
橡胶 669
羊 669
(良好) 668
冷气 668
居 668
标准 668
武士 668
单车 667
松 667
美妆 667
all 666
垃圾桶 666
宁 666
旅行包 666
窝 666
三件 665
乳液 665
史努比 665
德@@ 665
秋装 665
ipad 664
万圣节 664
梳 664
耳针 664
太 663
必 663
莎 663
游泳 662
田园 662
台北 661
顶 661
38 660
主机 660
公文包 660
定 660
高跟 660
xl 659
低筒 659
名牌 659
头@@ 659
手袋 659
// 658
劳力士 658
名 658
小姐 658
机能 658
谷 658
88 657
吸水 657
$ 656
27@@ 656
家@@ 656
店铺 656
拉拉 656
摆饰 655
果冻 655
牛奶 655
数字 654
暖 654
现 654
怪兽 652
鸭舌帽 652
大气 651
小童 651
磁铁 651
过 651
垫子 650
毛孔 650
液晶 650
滋润 650
a字 649
加长 649
1-@@ 648
二代 648
2.0 647
南 647
艾@@ 646
阁 646
by 645
再 645
安@@ 645
智 645
罗马 645
htc 644
re@@ 644
天使 644
携带 644
破洞 644
网布 644
超@@ 644
1/2 643
桃 643
34 642
亮片 642
山@@ 642
背景墙 642
英雄 642
防护 642
奶瓶 641
挂钟 641
澳洲 641
衣着 641
内@@ 640
文@@ 640
时钟 640
油@@ 640
粉饼 640
48 639
及 639
床单 639
纪念 639
茶杯 639
云 638
黑红 638
110 637
可调 637
聊聊 637
31 636
kg 636
s925 636
小巧 636
青春 636
师 635
33 634
规则 634
white 633
制服 633
小时 633
钥匙扣 633
先 632
花园 632
香精 632
吹 631
背景 631
运) 631
防弹 631
33@@ 630
战士 630
硕 630
出版 629
女款 629
敏 629
蒸 629
蜡烛 629
星空 628
植 628
遮阳帽 628
钢圈 628
(含 626
gb 626
渐 625
蛇 625
降价 625
专辑 624
很 624
简单 624
上@@ 623
硬 623
nb 622
of 622
帆 622
询问 622
妈 621
给 621
-- 620
black 620
亚@@ 620
周 620
on 619
色@@ 619
｜@@ 619
(可 617
子女 617
早 617
民族 617
版百 617
罩衫 617
音箱 617
64@@ 616
羽绒 615
保温杯 614
歌 614
门帘 614
s-@@ 613
※@@ 613
拆封 613
莫 613
薇 613
衣橱 613
邮差 613
零件 613
鳄鱼 613
1/@@ 612
27 612
nba 612
中文 612
联 612
雨伞 611
chic 610
首饰 610
(2 609
2020年 609
6s 609
79 609
双@@ 609
婴幼儿 609
老@@ 609
英 609
xr 608
帐 608
an@@ 607
健 607
卸妆 607
700 606
发带 606
柄 605
调 605
总动员 604
机器人 604
男用 604
全@@ 603
幸福 603
mi@@ 602
野 602
摆设 601
雅@@ 601
house 600
tomica 600
太空 600
星巴克 600
格@@ 600
遮光 599
底座 597
欢迎 597
琳 597
雷 597
当 596
第二 596
mo@@ 595
日历 595
纹身 595
维修 595
角色 595
踢 594
ua 593
可以 593
槽 593
步 593
绑 593
肉 593
之@@ 592
小店 592
杀价 592
清@@ 592
珠宝 592
记 592
专 591
帽t 591
茶壶 591
趴 591
(全新 590
维尼 590
老人 589
信封 588
壁灯 588
抽屉式 588
果汁 587
鹿 587
偏光 586
屁衣 586
ac@@ 585
ml@@ 585
园 585
荷叶 585
修复 584
室 584
帐篷 584
球衣 584
vintage 583
护理 583
理 583
皱 583
诱惑 583
se 582
主 582
宫 582
水龙头 581
黄@@ 581
under 580
t-@@ 579
杂志 579
37 578
cm) 578
世家 578
床边 578
01 577
毛线 577
uv 576
指甲 576
44@@ 575
og 575
拍摄 575
挂衣 575
洛 575
运@@ 575
as@@ 574
m号 574
头饰 574
毛呢 574
税 574
99@@ 573
classic 573
co@@ 573
superstar 573
翡翠 573
39 572
66@@ 572
专区 572
功夫 572
教 572
装@@ 572
高领 572
108 571
利@@ 571
j 570
吸盘 570
奶油 570
花束 570
香风 570
bag 569
婚纱 569
柏 569
1) 568
to@@ 568
岛 568
抗菌 568
科 568
隔离 568
鼠 567
95@@ 566
gap 566
汗 566
浴巾 566
生@@ 566
直送 566
精美 566
雨衣 566
缘 565
101 564
躺椅 564
本@@ 563
120 562
in@@ 562
碳纤维 562
75 560
尔@@ 560
方便 560
服装店 560
止 560
调节 560
麋鹿 560
咖啡厅 559
喜 559
微波炉 559
wmns 557
29 556
塞 556
班 556
船 556
me@@ 555
二@@ 555
台中 555
度假 554
饭 554
染 553
汤 553
胶囊 553
no.@@ 552
午睡 552
排汗 552
牛津 552
聚拢 552
萤光 552
凝胶 551
最爱 551
肚 551
实体 549
罗@@ 549
镜面 549
t恤@@ 548
|@@ 548
尔 548
跳 548
bf 547
wifi 547
文胸 547
联盟 547
面交 547
bv 546
cm@@ 546
ml) 546
向 546
打底衫 546
瑞 546
电镀 546
皮质 546
耳饰 546
85@@ 545
cosplay 545
le@@ 545
一次性 545
魂 545
armour 544
专卖店 544
书@@ 544
公斤 544
宝石 544
新年 544
温 544
资料 544
ba@@ 543
华@@ 543
74@@ 542
平安 542
益 542
身体 542
靠枕 542
吸尘器 541
松糕 541
酷@@ 541
ss 540
原版 540
吴 540
手推车 540
蓝@@ 540
西@@ 540
粉@@ 539
花边 539
加@@ 538
基 538
改 538
根 538
甘 538
肌@@ 538
饮料 538
de@@ 537
写真 537
男鞋 537
类 537
3.5 536
reebok 536
乡村 536
开衫 536
筒@@ 536
li@@ 535
me 535
毯 535
花卉 535
钟表 535
面@@ 535
125 534
free 534
pu 534
平衡 534
斤 534
男@@ 534
bb@@ 533
の@@ 533
余 533
升 533
赛 533
蜜蜂 532
铁@@ 532
奇@@ 531
泡沫 531
滴 531
犬@@ 531
9h 530
声 530
巧 530
挡 530
爆米花 530
花架 530
菲 530
被子 530
防潮 529
g-shock 528
to 528
丽@@ 528
凝 528
客订 528
寄 528
旗舰店 528
76@@ 527
冠军 527
洗漱 527
自由 527
被套 527
42 526
calvin 526
士 526
盆栽 526
享 525
电动车 525
露背 525
airpods 524
偶像 524
材 524
皂 524
纤维 524
220v 523
dw 523
压花 523
女用 523
为 522
派 522
瑞士 522
春装 521
玉@@ 521
靠 521
bmw 520
壁画 520
接 520
膜@@ 520
' 519
ii 519
明信片 519
se@@ 518
分@@ 518
富 518
民 518
疗 518
5/@@ 517
丝@@ 517
奶茶 517
诗 517
野餐 517
city 516
五@@ 516
恋 516
缅甸 516
麻 516
型号: 515
煮 515
双g 514
反 514
彩@@ 514
梅 514
表盘 514
适合 514
黑灰 514
黛 514
29@@ 513
3-@@ 513
一个 513
口味 513
林@@ 513
空运 513
包) 512
奶嘴 512
砂 512
铆钉 512
龙头 512
啦 511
躺 511
al@@ 510
丝绒 510
pro@@ 509
st@@ 509
龙@@ 509
ma@@ 508
smith 508
惠 508
诺 508
银针 508
三合一 507
驱 507
tory 506
情 506
料理 506
mit 505
女式 505
村 505
桌上 505
随机 505
1.2 504
kl 504
吉@@ 504
节 504
灯饰 503
茶@@ 503
轻薄 503
鞋@@ 503
马甲 503
180 502
按摩器 502
特别 502
赛车 502
包头 501
古典 501
大师 501
夹子 501
组@@ 501
装备 501
酥 501
附发 501
la@@ 500
retro 500
典 500
化妆台 500
小屋 500
打火机 500
白金 500
综合 500
7-@@ 499
大门 499
旗袍 499
日@@ 499
木制 499
气球 499
肤@@ 499
记忆 499
马仕 499
证件 498
照 497
裤裙 497
line 496
出售 496
女表 496
娜 496
眼睛 496
!! 495
98 495
galaxy 495
勿 495
挑 495
比@@ 495
美丽 495
贝@@ 495
锂 495
65 494
· 494
巴@@ 494
日货 494
屏风 493
花盆 493
酵素 493
风水 493
众 492
君 492
工装 492
友 491
司 491
室外 491
巾@@ 491
樱桃 491
车贴 491
38-44 490
pandora 490
付款 490
场 490
搞 490
旗 490
赞 490
阳 490
55 489
eqt 489
klein 489
锭 489
at@@ 488
の 488
清洗 488
温泉 488
缝 488
补充 488
s号 487
咖啡色 487
3/@@ 486
39@@ 486
趣 486
饲料 486
balenciaga 485
rolex 485
us@@ 485
下@@ 485
庭院 485
普@@ 485
脚踏 485
嘉 484
打@@ 484
mm@@ 483
梯 483
毛毛 483
ns 482
大象 482
开@@ 482
线@@ 482
兴 481
川 481
有@@ 481
权 481
毛@@ 481
皮卡丘 481
绿@@ 481
衣帽架 481
78@@ 480
a4 480
十字 480
图腾 479
家居服 479
食物 479
270 478
299 478
供 478
压纹 478
晒 478
用@@ 478
纳 478
64 477
am@@ 477
克杯 477
杂物 477
a-@@ 476
价格 475
低价 475
卡位 475
原木 475
布料 475
御 475
狼 475
－ 475
kobe 474
v2 474
旅 474
源 474
莱 474
行车 474
burch 473
挂架 473
潜水 473
磁性 473
信 472
展 472
毕业 472
高雄 472
ch@@ 471
电线 471
青@@ 471
(预购) 470
池 470
高脚 470
why 469
}@@ 469
串珠 469
仅 469
容 469
布包 469
更 469
水保 469
消毒 469
砖 469
这 469
意 468
拆洗 468
管理 468
老虎 468
靴@@ 468
life 467
super 467
体恤 467
接头 467
朋友 467
胎 467
panasonic 466
养生 466
机器 466
琴 466
绒@@ 466
pc 465
外@@ 465
快乐 465
有线 465
自慰 465
荷叶边 465
63 464
g) 464
午休 464
经 464
120@@ 463
传输线 463
好市多 463
波浪 463
潮@@ 463
4-@@ 462
58@@ 462
扮演 462
洞 462
落 461
面料 461
--@@ 460
98@@ 460
ko@@ 460
mk@@ 460
stan 460
勺 460
化妆水 460
琪 460
蛋白 460
酒柜 460
^@@ 459
头盔 459
尼@@ 459
玛@@ 459
黏土 459
书籍 458
内里 458
土 458
妆@@ 458
巾 458
整 458
56@@ 457
妮 457
幸运 457
指环 457
杰 457
透视 457
蚊帐 456
转接 456
连身衣 456
my 455
从 455
恶 455
气@@ 455
烧烤 455
2015 454
71 454
77@@ 454
so@@ 454
双头 454
国风 454
托盘 454
骷髅 454
女友 453
有机 453
混 453
滑板车 453
睡眠 453
腹 453
调料 453
huarache 452
le 452
灵 452
花花 452
蹬 452
36-44 451
发箍 451
加热 450
星@@ 450
亲 449
壁挂式 449
浮雕 449
瑞@@ 449
87 448
ai@@ 448
各 448
气垫鞋 448
苏 448
表演 448
豪华 448
02 447
47@@ 447
人气 447
冰雪 447
签名 447
002 446
兽 446
围裙 446
捷 446
点心 446
筐 446
篇 446
触 446
钟 446
霸 446
er@@ 445
{@@ 445
丰 445
水槽 445
纸盒 445
车内 445
001 444
96@@ 444
gd 444
丝巾 444
丝袜 444
太阳能 444
浓 444
深蓝色 444
old 443
仕@@ 443
吉他 443
外贸 443
平角 443
棋盘格 443
耐用 443
计 443
迪@@ 443
鸭 443
a&f 442
vivo 442
又 442
6-@@ 441
脏 441
2/@@ 440
50ml 440
si@@ 440
t-shirt 440
产 440
任选 440
图@@ 440
助 439
墨 439
杨 439
滑鼠 439
玫瑰花 439
茶桌 439
表@@ 439
防@@ 439
雨鞋 439
学步 438
灯泡 438
虫 438
蛋黄 438
即 437
同步 437
壶 437
沙发床 437
爱丽丝 437
足球 437
刃 436
好@@ 436
插座 436
横 436
火@@ 436
男孩 436
短袜 436
uniqlo 435
世 435
养 435
开叉 435
练习 435
缓震 435
镜片 435
门厅 435
en@@ 434
块 434
橱柜 434
锯 434
龄 434
66 433
古@@ 433
天天 433
棉@@ 433
语 433
<@@ 432
升级 432
变色 432
灯@@ 432
筷子 432
纪 432
配方 432
入门 431
喔 431
姿 431
定做 431
树脂 431
电风扇 431
硬壳 431
采 431
ep 430
库 430
户 430
皆 430
蔬菜 430
首 430
ss@@ 429
吃饭 429
婚 429
指甲油 429
橘@@ 429
颗粒 429
61 428
72 428
园艺 428
大人 428
2-@@ 427
po@@ 427
出@@ 427
壁纸 427
异 427
维 427
议价 427
资生堂 427
配饰 427
香皂 427
ol 426
影 426
红酒 426
ce@@ 425
结 425
胜 425
舖 425
购证 425
银@@ 425
锁骨 425
(已 424
1.8 424
清爽 424
织 424
脸盆 424
闺蜜 424
6/@@ 423
基础 423
奇缘 423
抹 423
王@@ 423
绣花 423
肌 423
44 422
公事包 422
匡威 422
封 422
当天 422
怀旧 422
瓷 422
社 422
‧@@ 421
棉衣 421
豹 421
买家 420
事 420
剧 420
想 420
过敏 420
近视 420
怡 419
早餐 419
粉红色 419
200@@ 418
× 418
力@@ 418
开车 418
手柄 418
晚宴 418
晾 418
波@@ 418
转角 418
香薰 418
-1 417
snoopy 417
围栏 417
花纹 417
菌 417
过道 417
雪@@ 417
开口 416
洗手 416
润滑 416
磁 416
线条 416
中号 415
杂货铺 415
爬 415
纸@@ 415
黑金 415
champion 414
两件式 414
公升 414
四@@ 414
机芯 414
桌布 414
烟 414
盾 414
福@@ 414
避震 414
coach蔻 413
ki@@ 413
vi@@ 413
克力 413
婷 413
战靴 413
爽 413
鱼@@ 413
(一 412
46 412
sp@@ 412
压@@ 412
合@@ 412
妍 412
庭 412
棉裤 412
正@@ 412
美女 412
雕花 412
64g 411
be@@ 411
后@@ 411
落地式 411
认证 411
赠品 411
铃 411
飞利浦 411
4g 410
kt 410
法@@ 410
泼水 410
牙膏 410
物@@ 410
玻璃杯 410
缤纷 410
能量 410
自己 410
g/ 409
ro@@ 409
夫 409
挖 409
测 409
福袋 409
羽 409
踏 409
饭盒 409
魔鬼 409
lin 408
ralph 408
橘色 408
百@@ 408
靴 408
lo@@ 407
te@@ 407
古风 407
寝室 407
最后 407
火锅 407
热@@ 407
钢琴 407
长条 407
an 406
·@@ 406
娘 406
宴会 406
组) 406
龟 406
fb 405
saint 405
su@@ 405
故事 405
石@@ 405
腮红 405
过滤 405
g-@@ 404
城市 404
时光 404
闹钟 404
48@@ 403
di@@ 403
二合一 403
如 403
阅读 403
(不 402
x-@@ 402
瑜珈 402
皇冠 402
舖@@ 402
龙猫 402
(3 401
78 401
功率 401
油画 401
象 401
靴子 401
双耳 400
大牌 400
平@@ 400
贴膜 400
风行 400
7/@@ 399
ao@@ 399
传 399
冰@@ 399
洞洞 399
目 399
(1 398
aj@@ 398
honda 398
亚麻 398
代@@ 398
弯 398
极致 398
桃红 398
泉 398
93 397
96 397
g/@@ 397
地@@ 397
家家 397
导航 397
把手 397
提@@ 397
空军 397
100@@ 396
de 396
zara 396
全家 396
八@@ 396
台@@ 396
四件 396
好货 396
宜家 396
杯垫 396
频 396
首选 396
42@@ 395
lg 395
卫生 395
水机 395
海边 395
茶叶 395
辣 395
41 394
c-@@ 394
文字 394
浮 394
盐 394
秘密 394
蜡 394
超长 394
sb 393
乐园 393
左 393
彩妆 393
自@@ 393
舒缓 393
酱 393
d-@@ 392
以 392
扶手 392
明@@ 392
除臭 392
鼓 392
co 391
toyota 391
女王 391
膏@@ 391
8-@@ 390
减震 390
分体 390
口@@ 390
施华洛世奇 390
汤匙 390
甜 390
角质 390
雕刻 390
饭店 390
ap@@ 389
汉服 389
货到 389
05@@ 388
凉@@ 388
汉 388
翘 388
800 387
付 387
围兜 387
妙 387
批 387
真@@ 387
豹纹 387
革 387
工艺品 386
玻尿酸 386
m4@@ 385
万向 385
工艺 385
带@@ 385
广告 385
月@@ 385
说 385
贴片 385
门@@ 385
魅力 385
犬 384
电磁 384
第三 384
速发 384
钛 384
'@@ 383
46@@ 383
68@@ 383
benz 383
凉席 383
恩 383
梳妆 383
贴@@ 383
遥控器 383
货) 382
锆石 382
长t 382
仿古 381
光疗 381
姬 381
店面 381
护发 381
水管 381
薄荷 381
高尔夫 381
0.@@ 380
201@@ 380
91 380
ad@@ 380
korea 380
lauren 380
tubular 380
宠 380
密码 380
枚 380
设备 380
达@@ 380
隔 380
81 379
go@@ 379
m-@@ 379
一般 379
原@@ 379
成品 379
手电筒 379
熊猫 379
脚踏车 379
达菲 379
雏菊 379
coco 378
伤 378
冬天 378
掉 378
方巾 378
漆皮 378
盒) 378
自取 378
5.0 377
da@@ 377
喂 377
型@@ 377
时间 377
睡觉 377
酸 377
保温瓶 376
入耳 376
到货 376
宇 376
文件 376
空@@ 376
5-@@ 375
77 375
ci@@ 375
cortez 375
jo 375
r1 375
万能 375
二手书 375
出租 375
唐 375
存 375
2.5 374
94 374
pk 374
厨 374
订单 374
54@@ 373
b-@@ 373
cd@@ 373
off 373
sh@@ 373
丽鸥 373
代尔 373
摩 373
筷 373
维@@ 373
轻松 373
适 373
降 373
香炉 373
(免 372
平价 372
远 372
雕 372
box 371
仔@@ 371
伊@@ 371
商店 371
指纹 371
白黑 371
磅 371
飞@@ 371
97@@ 370
do@@ 370
m-3xl 370
ri@@ 370
扩 370
时代 370
漏 370
电话 370
疯 370
藏 370
蜂蜜 370
趣味 370
fila 369
ptcg 369
roshe 369
优惠价 369
摇 369
淑女 369
田@@ 369
科比 369
秤 369
防盗 369
a3@@ 368
tb 368
刀剑 368
地板 368
工作服 368
拼装 368
提单 368
水器 368
独角兽 368
眼线 368
让 368
顺 368
ck@@ 367
u型 367
依 367
保@@ 367
标签 367
笑脸 367
laurent 366
七彩 366
全球 366
博@@ 366
卧 366
卷发 366
夏@@ 366
弹簧 366
波士顿 366
烤箱 366
煞 366
花瓶 366
护眼 365
深层 365
温馨 365
版本 365
袜套 365
刷卡 364
哈@@ 364
学@@ 364
泵 364
皇家 364
鲨鱼 364
marmont 363
ta@@ 363
•@@ 363
买一送一 363
商城 363
或 363
缎带 363
蔻驰 363
薰衣草 363
4/@@ 362
43 362
pe@@ 362
东@@ 362
考 362
耐热 362
公路 361
数据线 361
晴 361
诚 361
轮胎 361
酷 361
风口 361
102 360
变形 360
星际 360
橙 360
欣 360
清洁剂 360
紫@@ 360
行李 360
"@@ 359
ab@@ 359
us 359
密 359
希 359
玛瑙 359
现货) 359
耳朵 359
st 358
别墅 358
轻巧 358
94@@ 357
皮面 357
神奇 357
货@@ 357
货架 357
超强 357
ma 356
ni@@ 356
‧ 356
写 356
卡其 356
套餐 356
显示器 356
棕色 356
贩 356
静电 356
2.@@ 355
乐蒂 355
仓库 355
副 355
录 355
悠游 355
泡茶 355
男友 355
系统 355
老板 355
转@@ 355
台南 354
史密斯 354
宏 354
箱子 354
肤色 354
调理 354
运动服 354
pop 353
净化 353
握 353
ne@@ 352
vapormax 352
加湿器 352
耳坠 352
03 351
boy 351
人物 351
海滩 351
篓 351
精@@ 351
蔡 351
隔板 351
馨 351
黄铜 351
士@@ 350
曲 350
枕套 350
烫金 350
特殊 350
筒 350
营养 350
貔貅 350
lv@@ 349
上架 349
战斗 349
板@@ 349
淋浴 349
潘朵拉 349
ho@@ 348
儿@@ 348
圆@@ 348
墙纸 348
布丁 348
盘子 348
铁艺 348
blue 347
f-@@ 347
前@@ 347
双人床 347
后现代 347
大码 347
500g 346
57@@ 346
man 346
娜@@ 346
摇摇 346
电玩 346
脚垫 346
茶店 346
钓具 346
110v 345
~@@ 345
会议 345
孩子 345
新货 345
爆款 345
闪电 345
防爆 345
9-@@ 344
92 344
on@@ 344
产品 344
值 344
壹@@ 344
大学生 344
宫廷 344
最低价 344
洗车 344
茶盘 344
里@@ 344
金刚 344
靠背椅 344
86 343
hp 343
outlet 343
‼@@ 343
企鹅 343
兰@@ 343
唇釉 343
用具 343
皂@@ 343
网@@ 343
网路 343
美容院 343
镀 343
页 343
5.5 342
ku@@ 342
mid 342
no@@ 342
名@@ 342
月亮 342
游泳衣 342
私 342
自制 342
草@@ 342
踏板 342
重@@ 342
68 341
high 341
凉感 341
少 341
春秋季 341
柯 341
窗户 341
羽毛 341
react 340
sa@@ 340
公@@ 340
婚庆 340
安抚 340
意大利 340
21@@ 339
a0@@ 339
mah 339
ti@@ 339
tommy 339
乳胶 339
复仇者 339
留 339
走廊 339
音@@ 339
pink 338
卡娜 338
夯 338
套@@ 338
活力 338
电器 338
130 337
exo 337
v-@@ 337
中古 337
可穿 337
头发 337
强化 337
纱裙 337
耳塞 337
袋子 337
跟鞋 337
邮@@ 337
鲜 337
199 336
3.0 336
83 336
bo@@ 336
下杀 336
微型 336
悟空 336
本田 336
极度 336
缸 336
老师 336
2000 335
tw 335
大小 335
小汽车 335
屏 335
新版 335
福利 335
鱼尾 335
bi@@ 334
久 334
悦 334
族 334
欧@@ 334
法兰绒 334
蚕丝 334
超高 334
顿 334
gs 333
小马 333
床头灯 333
杀菌 333
玛 333
皮包 333
职 333
花洒 333
防震 333
削 332
加肥 332
圣@@ 332
对称 332
杜 332
选择 332
kenzo 331
低音 331
宜 331
断 331
方@@ 331
橘 331
笔记 331
纳@@ 331
绅士 331
至 331
行@@ 331
分类 330
吹风机 330
大战 330
扳手 330
美少女 330
脱 330
郎 330
铝@@ 330
; 329
@新品 329
下摆 329
兵 329
姜 329
应 329
录音 329
水滴 329
片@@ 329
球@@ 329
网眼 329
蒂@@ 329
镇 329
900 328
canon 328
dc 328
ex@@ 328
令 328
妮@@ 328
宝蓝 328
希@@ 328
整套 328
机油 328
野@@ 328
闪亮 328
马达 328
bl 327
任天堂 327
冷热 327
升级版 327
型号 327
清净 327
诺@@ 327
陀螺 327
专卖 326
夹@@ 326
尿布 326
情人 326
护@@ 326
流@@ 326
澎 326
珊瑚 326
调味 326
赫拉 326
通@@ 326
110@@ 325
49 325
adv 325
it@@ 325
内饰 325
变@@ 325
品) 325
数码 325
松@@ 325
祛 325
臂 325
钢笔 325
鹰 325
＋ 325
8/@@ 324
82 324
999 324
marc 324
外壳 324
嫩 324
幻 324
灰白 324
签 324
职业 324
负离子 324
隆 324
好看 323
科@@ 323
150@@ 322
兄弟 322
妆 322
帘@@ 322
满额 322
爱马仕 322
asics 321
q版 321
云@@ 321
亚克力 321
兜 321
宝马 321
替换 321
泰@@ 321
雷射 321
＊@@ 321
86@@ 320
cc@@ 320
丰田 320
优@@ 320
元素 320
奥@@ 320
慵懒 320
显示 320
解 320
丝光 319
体@@ 319
圆桌 319
捕 319
桃园 319
楼梯 319
毛帽 319
灰@@ 319
琉璃 319
脸部 319
读 319
迷妳 319
67 318
home 318
※ 318
冰淇淋 318
家族 318
未来 318
每 318
点@@ 318
真丝 318
禾 318
筒袜 318
脚@@ 318
鲁 318
ct@@ 317
休闲椅 317
刻字 317
境 317
宿 317
无限 317
矮 317
超市 317
003 316
105 316
face 316
使 316
便利 316
冠 316
合身 316
教学 316
早春 316
津 316
火爆 316
甜心 316
秋冬季 316
米色 316
纸袋 316
绒 316
血 316
马丁 316
store 315
支撑 315
茶道 315
葡萄 315
🏻 315
180@@ 314
3.@@ 314
84@@ 314
celine 314
ms@@ 314
保留 314
吸湿 314
幅 314
胸针 314
lu@@ 313
zenfone 313
压缩 313
图书 313
折叠桌 313
春夏 313
73 312
lv包包 312
sc@@ 312
书店 312
传说 312
毛毯 312
眼@@ 312
符 312
规 312
防雨 312
costco 311
cu@@ 311
ds 311
mar@@ 311
凤梨 311
奶粉 311
封口 311
木工 311
熊熊 311
爱情 311
物柜 311
联系 311
视 311
style 310
tt 310
份 310
成@@ 310
插头 310
梦@@ 310
狮 310
肉@@ 310
32g 309
51 309
m6@@ 309
将 309
手把 309
无毒 309
曼@@ 309
红茶 309
阳光 309
齐 309
1.@@ 308
43@@ 308
450 308
伴娘 308
哺乳 308
收缩 308
星球 308
特大 308
盘@@ 308
而 308
辅助 308
316 307
bu@@ 307
iphone@@ 307
咬 307
壶@@ 307
撕 307
男表 307
童@@ 307
臻 307
赛斯 307
邦 307
160 306
runner 306
女子 306
姐 306
威@@ 306
微笑 306
版潮 306
面板 306
500@@ 305
62 305
aq@@ 305
ca@@ 305
un@@ 305
丁 305
主播 305
前后 305
尘 305
耐高温 305
草本 305
韩妞 305
52 304
sm@@ 304
tomy 304
ulzzang 304
yamaha 304
zero 304
代步 304
六角 304
唯美 304
娇 304
布鞋 304
战@@ 304
板鞋 304
果@@ 304
梨 304
武器 304
糖@@ 304
纱布 304
韩@@ 304
马克 304
(大 303
5ml 303
or@@ 303
宇宙 303
激光 303
盖@@ 303
菊 303
裤@@ 303
bvlgari 302
学园 302
满天星 302
男式 302
稀有 302
第@@ 302
max@@ 301
miss 301
散 301
百货店 301
红外线 301
胶@@ 301
项圈 301
58 300
iphone11 300
pokemon 300
刚 300
单人床 300
嘉@@ 300
实战 300
布袋 300
思@@ 300
短@@ 300
索 300
舞台 300
蝙蝠 300
-5@@ 299
jo@@ 299
§@@ 299
景观 299
洗手间 299
洛@@ 299
温和 299
起子 299
钢铁 299
10/@@ 298
201 298
l号 298
博 298
朗 298
洽谈 298
深@@ 298
烤盘 298
请勿 298
领带 298
食@@ 298
香蕉 298
鱼缸 298
2) 297
ps@@ 297
sp 297
下标) 297
原味 297
工@@ 297
轨道 297
附@@ 297
圆盘 296
电压 296
相@@ 296
绒布 296
装) 296
面霜 296
56 295
67@@ 295
mp@@ 295
抢购 295
暗 295
竹@@ 295
绿茶 295
肌肤 295
还 295
my@@ 294
可移动 294
坑 294
孙 294
高中 294
#爆 293
1.8m 293
87@@ 293
chen 293
el@@ 293
hco 293
kyrie 293
别针 293
号@@ 293
女人 293
摇滚 293
贴画 293
钢@@ 293
76 292
a3 292
rose 292
价@@ 292
像 292
小小 292
幼 292
照明 292
牙音 292
盒@@ 292
软糖 292
防寒 292
000@@ 291
04@@ 291
car@@ 291
yuanroro 291
书本 291
人体 291
传统 291
便器 291
保健 291
散热 291
素@@ 291
编号 291
话筒 291
鞋垫 291
69 290
lebron 290
malone 290
大全 290
婴儿床 290
手感 290
直邮 290
细@@ 290
见 290
防臭 290
鞋套 290
59 289
sm 289
加强 289
头套 289
方向盘 289
旺 289
母亲节 289
没 289
炸 289
讯 289
鼠标 289
#爆品 288
11/@@ 288
89 288
刺激 288
同款 288
干@@ 288
标志 288
毫安 288
滋养 288
羊绒 288
质量 288
... 287
130@@ 287
monogram 287
play 287
台制 287
场景 287
强光 287
戏 287
煎 287
玉石 287
用途 287
藤@@ 287
蜡@@ 287
软@@ 287
阀 287
53 286
ka@@ 286
工程 286
黑头 286
(全 285
47 285
is 285
人生 285
名片夹 285
基@@ 285
大灯 285
宾士 285
摩@@ 285
新) 285
校园 285
身@@ 285
铲 285
面纸 285
aa@@ 284
aj1 284
a货 284
cat 284
red 284
丸子 284
发票 284
喷头 284
导 284
帕@@ 284
影音 284
游戏机 284
牌@@ 284
舞蹈 284
静 284
hd@@ 283
skool 283
倒 283
免费 283
入@@ 283
扫地 283
瘦身 283
臭 283
节能 283
边框 283
boss 282
两@@ 282
循环 282
方块 282
红包 282
颈椎 282
106 281
12v 281
250@@ 281
4k 281
er 281
mini@@ 281
ya 281
南瓜 281
厨师 281
客服 281
洗手盆 281
眉@@ 281
约会 281
织带 281
过膝 281
铜@@ 281
随 281
07 280
m-xxl 280
mp3 280
sha 280
中型 280
写字台 280
木头 280
管@@ 280
52@@ 279
bandai 279
yu@@ 279
书) 279
低音炮 279
六@@ 279
拖把 279
样 279
棉t 279
海军 279
物语 279
秘 279
营 279
蜡笔小新 279
衩 279
3) 278
chi@@ 278
igo 278
mi 278
xperia 278
出口 278
大头 278
奇迹 278
按 278
电热 278
艺@@ 278
蒙 278
饭桌 278
05 277
ar 277
s/@@ 277
superdry 277
万@@ 277
中心 277
促 277
冷@@ 277
吸@@ 277
唇@@ 277
套筒 277
播放器 277
春夏季 277
曼 277
汇 277
猫窝 277
美人 277
金链 277
104 276
79@@ 276
leather 276
乱 276
保护膜 276
古装 276
屏@@ 276
日期 276
氧 276
激 276
调整 276
超亮 276
飞行 276
餐盒 276
air@@ 275
ford 275
l-@@ 275
中华 275
华丽 275
卡龙 275
后视镜 275
泡面 275
浦 275
董 275
野营 275
da 274
i7 274
仁 274
典雅 274
哦 274
均 274
塔@@ 274
实物 274
床罩 274
微@@ 274
忍者 274
治 274
湖 274
玲 274
胸罩 274
裤袜 274
车身 274
钛钢 274
雷@@ 274
lite 273
三丽鸥 273
业 273
卷@@ 273
恒温 273
惊喜 273
绝对 273
编 273
草帽 273
藤 273
裤带 273
闪光 273
(台湾 272
4.0 272
loft 272
右 272
售出 272
定@@ 272
指定 272
排@@ 272
日记 272
条@@ 272
珠光 272
立@@ 272
绵 272
胶水 272
首饰盒 272
cp@@ 271
givenchy 271
发乳 271
妹妹 271
平光 271
才 271
普 271
标@@ 271
水波 271
求 271
浓缩 271
科学 271
许 271
转换器 271
速@@ 271
), 270
9/@@ 270
gi@@ 270
king 270
pp@@ 270
sn@@ 270
沾 270
泳 270
萱 270
越 270
越野 270
轻@@ 270
高压 270
04 269
fi@@ 269
fit 269
南@@ 269
头皮 269
奈@@ 269
愈 269
接@@ 269
毡@@ 269
特级 269
界 269
(有 268
160@@ 268
49@@ 268
54 268
75ml 268
a5@@ 268
pu@@ 268
德玛 268
慧 268
欢乐 268
武 268
沙发套 268
磁吸 268
肤 268
超低价 268
需 268
53@@ 267
ny 267
ra@@ 267
woc 267
公克 267
可可 267
痕 267
繁体 267
虎头 267
鹦鹉 267
140 266
ga@@ 266
stussy 266
up 266
中筒 266
丸 266
佳@@ 266
大方 266
底@@ 266
式@@ 266
摊 266
猫头鹰 266
直@@ 266
翔 266
芳 266
／@@ 266
-100 265
2019年 265
72@@ 265
h&m 265
pi@@ 265
sk@@ 265
tsum 265
万代 265
四轮 265
帅 265
收腹 265
沙@@ 265
翼 265
赋 265
跳跳 265
须 265
aj 264
hollister 264
support 264
仓鼠 264
冷冻 264
加拿大 264
印@@ 264
干湿 264
潮牌 264
珠@@ 264
甜品 264
荣 264
袋@@ 264
赖 264
转运 264
雅诗兰黛 264
雨靴 264
高尔夫球 264
(黑) 263
09@@ 263
a7@@ 263
zakka 263
三脚架 263
冬装 263
厂商 263
太阳帽 263
春@@ 263
视频 263
豆@@ 263
韵 263
170@@ 262
400@@ 262
bq@@ 262
ke@@ 262
m5@@ 262
低腰 262
加宽 262
古奇 262
支持 262
炫彩 262
线器 262
莲 262
高潮 262
e-@@ 261
代言 261
减肥 261
回@@ 261
护肤品 261
施 261
橱窗 261
洗@@ 261
海鸥 261
老式 261
耳@@ 261
航空 261
超轻量 261
隔音 261
雨@@ 261
高速 261
240 260
k歌 260
专利 260
去污 260
护肤 260
眼罩 260
笔@@ 260
药 260
雨刷 260
霸气 260
friends 259
ml/@@ 259
尺码: 259
拍卖 259
梵希 259
登机 259
莲花 259
逸 259
面部 259
600@@ 258
ak@@ 258
as 258
bd@@ 258
mizuno 258
tr@@ 258
变压器 258
水泥 258
腾 258
规格 258
贤 258
马车 258
麻花 258
123 257
84 257
av@@ 257
br@@ 257
fu@@ 257
博士 257
双向 257
筒裤 257
a5 256
do 256
dr.@@ 256
power 256
保守 256
卖家 256
士尼 256
夜@@ 256
客人 256
帘 256
激情 256
琦 256
聚 256
草编 256
郑 256
防霉 256
面具 256
190@@ 255
ah@@ 255
av 255
chuck 255
day 255
分期 255
北@@ 255
周岁 255
接待 255
朴 255
水族 255
童车 255
软皮 255
锤 255
镭射 255
队长 255
鸡肉 255
(4 254
220 254
he@@ 254
iphone7 254
pa@@ 254
philips 254
premium 254
不锈 254
专@@ 254
主题 254
同@@ 254
唐老鸭 254
备 254
完整 254
战术 254
来@@ 254
楼 254
江 254
群 254
詹姆斯 254
随行 254
麦@@ 254
128 253
cr@@ 253
qs 253
xl@@ 253
亲肤 253
仔 253
凯@@ 253
半@@ 253
叶子 253
女中 253
小狗 253
尺寸: 253
提包 253
日文 253
早期 253
板凳 253
猫@@ 253
睡袋 253
荣耀 253
采用 253
三角裤 252
参 252
平滑 252
手腕 252
收@@ 252
永 252
滚筒 252
灯笼 252
熏 252
美颜 252
藤原浩 252
藤编 252
08@@ 251
20cm 251
chloe 251
以上 251
冲击 251
剧场 251
独特 251
直接 251
缎面 251
透光 251
雷霆 251
.5 250
06 250
ed 250
gu@@ 250
mac 250
roots 250
w-@@ 250
保罗 250
卸 250
围脖 250
圈圈 250
坚果 250
小朋友 250
弹@@ 250
杯@@ 250
棉被 250
正常 250
永生 250
猴 250
社团 250
站立 250
素t 250
美术 250
路@@ 250
马鞍 250
06@@ 249
50g 249
af1 249
d2 249
ktv 249
nac 249
仪器 249
化@@ 249
售) 249
岩 249
扎 249
新手 249
旅行袋 249
梅@@ 249
练 249
脚架 249
辉 249
#下 248
es@@ 248
hi@@ 248
k-@@ 248
世@@ 248
中年 248
制化 248
日立 248
洗面乳 248
演唱会 248
片) 248
画@@ 248
索尼 248
蓬蓬 248
血@@ 248
逛 248
300@@ 247
cp 247
mu@@ 247
tpu 247
土@@ 247
多功能 247
护栏 247
翅膀 247
钓@@ 247
雯 247
预 247
餐@@ 247
鸡@@ 247
(小 246
bl@@ 246
lin@@ 246
more 246
one@@ 246
叶@@ 246
对折 246
工作室 246
市 246
年@@ 246
旗舰 246
棉花糖 246
渐变 246
玉米 246
称 246
螺纹 246
袋装 246
128g 245
书法 245
动@@ 245
单件 245
可拆卸 245
唇 245
商@@ 245
性@@ 245
恶魔 245
水饺 245
汤锅 245
洗碗 245
电钻 245
碗柜 245
花瓣 245
萨 245
89@@ 244
9.5 244
du@@ 244
en 244
书宝 244
仓 244
座垫 244
打包 244
改良 244
方包 244
智@@ 244
水性 244
笑 244
绒面 244
茉莉 244
hdmi 243
sport 243
ㄧ@@ 243
井 243
亮@@ 243
亿 243
修@@ 243
其他 243
千@@ 243
店长 243
惠@@ 243
挺 243
粉刺 243
英语 243
颈@@ 243
10000 242
jacobs 242
伦敦 242
可放 242
小小兵 242
康@@ 242
樱@@ 242
焦糖 242
牧 242
相片 242
芳香 242
那 242
1500 241
p-@@ 241
个人 241
侧边 241
凭证 241
可乐 241
护照 241
景品 241
枝 241
椅垫 241
白底 241
盛 241
阴阳 241
ge@@ 240
girl 240
note 240
presto 240
杀@@ 240
杏仁 240
永久 240
硬碟 240
纯白 240
老年 240
菜@@ 240
隐藏 240
57 239
gk 239
hm 239
original 239
九@@ 239
书签 239
加固 239
员 239
国小 239
尖 239
技 239
煞车 239
皮肤 239
竖 239
蒸汽 239
西米 239
非@@ 239
餐巾纸 239
黏@@ 239
(限 238
350@@ 238
cf 238
gt 238
iphone6 238
包皮 238
历 238
坪 238
所 238
桃花 238
泡澡 238
童话 238
莱@@ 238
蛋@@ 238
证明 238
轴 238
钱筒 238
83@@ 237
ai 237
sock 237
传@@ 237
叉@@ 237
帽@@ 237
庄 237
库存 237
抢 237
毯@@ 237
白粉 237
维他命 237
重复 237
鱼子酱 237
07@@ 236
b0@@ 236
ca 236
ka 236
pr@@ 236
sd 236
庆 236
恩@@ 236
树@@ 236
滑鼠垫 236
皮衣 236
纽 236
色系 236
荷 236
西班牙 236
解@@ 236
话 236
谢 236
附发票 236
16g 235
ds@@ 235
fe@@ 235
pc@@ 235
sd@@ 235
丸@@ 235
出货) 235
华莱士 235
单层 235
木纹 235
本舖 235
橡木 235
狮王 235
瓷砖 235
紫水晶 235
铁盒 235
7.5 234
750 234
man@@ 234
内置 234
净@@ 234
十字绣 234
叮当 234
工具箱 234
广 234
建 234
烤肉 234
补@@ 234
裸 234
车门 234
辅 234
逼真 234
长袜 234
魔力 234
鼻 234
speedy 233
th@@ 233
ve@@ 233
yu 233
丹@@ 233
古董 233
滑@@ 233
白铁 233
离子 233
纤 233
纳米 233
美人鱼 233
辑 233
边@@ 233
造景 233
钳 233
-01 232
cf@@ 232
ex 232
fitch 232
you 232
丝绸 232
休 232
小吃 232
布偶 232
席 232
弥月 232
折@@ 232
支@@ 232
氏 232
疯狂 232
碗碟 232
美食 232
艳 232
花色 232
葫芦 232
防身 232
(客 231
140@@ 231
74 231
i8 231
kids 231
qq 231
r11 231
top 231
元@@ 231
冻 231
取货 231
字@@ 231
实木 231
岚 231
枫 231
此 231
王者 231
电瓶车 231
考试 231
肥 231
调@@ 231
送@@ 231
键 231
suede 230
〔 230
〕 230
企业 230
刀架 230
发热 230
桃@@ 230
灿 230
环球 230
甲@@ 230
竹节 230
精准 230
精梳 230
美甲 230
蝶@@ 230
馒头 230
驾车 230
0.5 229
佛@@ 229
号) 229
各种 229
开始 229
恋爱 229
拼贴 229
时@@ 229
欧文 229
砧板 229
秀@@ 229
绘画 229
蒂猫 229
168 228
59@@ 228
ikea 228
north 228
size: 228
yo@@ 228
上班族 228
作@@ 228
家电 228
心机 228
情@@ 228
感@@ 228
火影忍者 228
灯光 228
苗 228
西瓜 228
警示 228
贴身 228
配@@ 228
黑板 228
12/@@ 227
7plus 227
swarovski 227
tt@@ 227
七@@ 227
产后 227
峰 227
您 227
护具 227
柳 227
毛巾架 227
瓶@@ 227
碳@@ 227
粮 227
选@@ 227
防漏 227
陈@@ 227
饺子 227
麻@@ 227
-010 226
618 226
fury 226
mon@@ 226
可动 226
安娜 226
时髦 226
漂亮 226
牙@@ 226
特产 226
睫毛膏 226
禅意 226
秋千 226
笼子 226
试用 226
退 226
镀金 226
长夹 226
鞋带 226
(共 225
fk 225
lady 225
ms 225
tw@@ 225
一生 225
传奇 225
响 225
墨@@ 225
实@@ 225
抽象 225
甩 225
第四 225
curry 224
ed@@ 224
lx 224
na@@ 224
ph@@ 224
刷@@ 224
卡地亚 224
国旗 224
垫@@ 224
幼稚园 224
径 224
斑马 224
水彩 224
泥@@ 224
独立 224
王子 224
铃铛 224
马丁靴 224
ee@@ 223
iphonex 223
mlb 223
neo 223
强@@ 223
打磨 223
散装 223
柜@@ 223
滚轮 223
眉笔 223
粉嫩 223
自慰器 223
载 223
除@@ 223
.tw 222
320@@ 222
bottega 222
ha@@ 222
ty@@ 222
丹尼尔 222
伯@@ 222
保存 222
哈娜 222
多多 222
头巾 222
女单 222
总@@ 222
批发价 222
攻 222
法拉利 222
爪 222
电扇 222
美好 222
走光 222
随手 222
预定 222
鸳鸯 222
(无 221
220@@ 221
36-45 221
by@@ 221
mg 221
ps 221
pump 221
rx@@ 221
sr@@ 221
包装袋 221
厅 221
扇子 221
指@@ 221
控制 221
方向 221
汉@@ 221
珊 221
理@@ 221
蝙蝠侠 221
袖套 221
调式 221
赠送 221
车灯 221
钛@@ 221
集@@ 221
高低 221
103 220
8plus 220
huawei 220
innisfree 220
little 220
love@@ 220
sun@@ 220
买@@ 220
名品 220
售完 220
型) 220
多种 220
抛光 220
提花 220
杂货店 220
森@@ 220
比赛 220
消 220
电瓶 220
英@@ 220
转椅 220
降温 220
风味 220
＞ 220
(二手 219
69@@ 219
golf 219
全能 219
冒险 219
别 219
售价 219
坠子 219
增 219
懒 219
手指 219
按压 219
摇摆 219
毒 219
水瓶 219
润@@ 219
渔具 219
笔筒 219
精工 219
肚子 219
背@@ 219
茶水 219
赛@@ 219
赤足 219
起@@ 219
阿曼 219
type-c 218
二手@@ 218
偏 218
减压 218
刀@@ 218
创@@ 218
奥运 218
小鸟 218
意@@ 218
毛料 218
洁@@ 218
狐狸 218
男裤 218
精度 218
纪念品 218
经@@ 218
课 218
魔鬼毡 218
//@@ 217
004 217
off-white 217
三星@@ 217
信@@ 217
前台 217
割 217
文学 217
晾衣 217
橘子 217
气动 217
电子表 217
畅销 217
荧光 217
长柄 217
面盆 217
min@@ 216
出版社 216
双c 216
张@@ 216
抗@@ 216
撑 216
晨 216
梳子 216
第五 216
裸@@ 216
西服 216
过年 216
遮阳伞 216
震 216
下杀$ 215
云朵 215
分离式 215
原子笔 215
夜视 215
小卡 215
护膝 215
护颈 215
杏色 215
浴缸 215
演出 215
牛@@ 215
现@@ 215
菲利普 215
蘑菇 215
跳舞 215
高效 215
(10 214
×@@ 214
伟 214
保固 214
冲浪 214
刮胡刀 214
吐司 214
小鸡 214
抹茶 214
支援 214
斑@@ 214
棉布 214
爸爸 214
瑕@@ 214
蔬果 214
面罩 214
baby@@ 213
体验 213
咖@@ 213
技术 213
电工 213
礼@@ 213
蜜@@ 213
透@@ 213
野生 213
长发 213
香草 213
魔@@ 213
鸿 213
)) 212
2017年 212
ag@@ 212
beauty 212
ko 212
loewe 212
l型 212
shadow 212
size 212
wa@@ 212
主@@ 212
信用卡 212
初学 212
加粗 212
小鱼 212
晚礼服 212
珍 212
磁@@ 212
茜 212
115 211
520 211
550 211
gl@@ 211
light 211
next 211
we@@ 211
x1 211
三菱 211
下杀# 211
切割 211
味@@ 211
圆点 211
尿 211
挂@@ 211
摄影机 211
晓 211
泽 211
潜 211
熟 211
胸前 211
花茶 211
试 211
达人 211
道@@ 211
dx 210
no 210
th 210
体育 210
光碟 210
关 210
富士 210
寿司 210
建筑 210
成长 210
挂脖 210
晶@@ 210
服@@ 210
水箱 210
狂 210
纽约 210
胖子 210
诗@@ 210
败 210
购@@ 210
过滤器 210
颜料 210
62@@ 209
978986@@ 209
bk@@ 209
es 209
for@@ 209
ga 209
m) 209
pegasus 209
philipp 209
tech 209
ts@@ 209
中长 209
乌@@ 209
假面 209
小麦 209
抛 209
新鲜 209
月光 209
棒棒糖 209
水池 209
液@@ 209
白灰 209
艾米 209
莉@@ 209
酱@@ 209
210 208
40-46 208
fo@@ 208
mo 208
制冷 208
卫生纸 208
印刷 208
参考 208
巨 208
游@@ 208
潘 208
移 208
羽绒服 208
连@@ 208
遮瑕 208
野外 208
铝箔 208
非常 208
109 207
plein 207
taylor 207
三轮车 207
券 207
圆圈 207
如@@ 207
摄像头 207
星座 207
死 207
狗窝 207
甜点 207
生活馆 207
缝隙 207
老鼠 207
蒂 207
订) 207
贸易 207
闺 207
麻将 207
112@@ 206
3d@@ 206
8g 206
hot 206
pure 206
xx@@ 206
上班 206
中) 206
凉拖 206
包装盒 206
城堡 206
妖怪 206
扁@@ 206
手摇 206
托@@ 206
炫 206
率 206
瓦@@ 206
直条 206
肠 206
蛤蟆镜 206
通话 206
霹雳 206
香槟 206
香香 206
高清 206
﹞ 206
5.@@ 205
g点 205
oo@@ 205
or 205
seiko 205
ts 205
watch 205
体重 205
切@@ 205
十二 205
变形金刚 205
名片 205
定位 205
尤 205
效果 205
桌上型 205
永@@ 205
渡假 205
火车 205
炸锅 205
然 205
肥皂 205
芦荟 205
英寸 205
蝶 205
通勤 205
(黑色) 204
107 204
18k 204
2018年 204
cb@@ 204
ly@@ 204
pe 204
sanrio 204
space 204
tretta 204
交@@ 204
京 204
便携式 204
关@@ 204
况 204
地中海 204
山茶花 204
平面 204
开门 204
弓 204
扬 204
投 204
教室 204
灯芯绒 204
状 204
监控 204
观音 204
豪 204
费 204
陆 204
饰@@ 204
鸡蛋 204
(单 203
(送 203
1a 203
coach@@ 203
dc@@ 203
li 203
s.@@ 203
y3 203
丁字 203
下杀#@@ 203
伴手 203
台面 203
延长线 203
挡风 203
摇椅 203
珍@@ 203
皇@@ 203
矫正 203
肌肉 203
6.@@ 202
bv@@ 202
isbn: 202
kate 202
micro 202
net 202
sw@@ 202
veneta 202
亚瑟 202
依@@ 202
坡跟 202
夹缝 202
定型 202
尾牙 202
广角 202
店@@ 202
手册 202
星辰 202
曜 202
母乳 202
犀牛 202
素材 202
茶色 202
跑车 202
酒精 202
长筒 202
a.@@ 201
i-@@ 201
live 201
和@@ 201
哥@@ 201
斗篷 201
棕 201
浪 201
演出服 201
漱口 201
特色 201
狂欢 201
甜蜜 201
破坏 201
紫砂 201
肯 201
花草 201
表情 201
铺子 201
anna 200
wcf 200
〗 200
佛教 200
剩 200
印度 200
学校 200
战马 200
放@@ 200
梯子 200
满月 200
烟灰缸 200
硬@@ 200
部落 200
000 199
5000 199
h-@@ 199
spa 199
sy@@ 199
‼ 199
典藏 199
含@@ 199
媚 199
存钱 199
宋 199
快干 199
手臂 199
折叠床 199
教育 199
暗黑 199
有盖 199
毛边 199
汉堡 199
泼墨 199
浴盆 199
温柔 199
滚 199
爬行 199
玩家 199
私密 199
腋下 199
舒服 199
透肤 199
青蛙 199
靠墙 199
领结 199
齿 199
ab 198
benassi 198
ya@@ 198
交 198
仙人掌 198
任 198
兔@@ 198
出国 198
刷子 198
听 198
外接 198
客@@ 198
小车 198
引擎 198
忆 198
搅拌 198
特大号 198
珐瑯 198
相容 198
磁力 198
美美 198
耳罩 198
苏@@ 198
露趾 198
etude 197
shiseido 197
yy 197
刹 197
动画 197
小美人鱼 197
晚安 197
暖手 197
油烟 197
社会 197
秋@@ 197
翻@@ 197
螺丝刀 197
订@@ 197
豆腐 197
93@@ 196
dickies 196
era 196
is@@ 196
rs 196
作品 196
巴西 196
母@@ 196
滚边 196
满@@ 196
猪@@ 196
绿萝 196
薄@@ 196
蜘蛛人 196
褶皱 196
贵 196
软管 196
露@@ 196
颈链 196
(两 195
1200 195
700@@ 195
acer 195
macbook 195
made 195
mr.@@ 195
skechers 195
ze@@ 195
一盒 195
仕 195
南极 195
咖 195
喷@@ 195
天下 195
妞@@ 195
客制 195
小铺 195
巨@@ 195
快@@ 195
提供 195
教师 195
整@@ 195
新店 195
智慧型 195
杀手 195
柴 195
环@@ 195
语音 195
货号 195
酒@@ 195
防水布 195
(二 194
(大) 194
.. 194
03@@ 194
abs 194
sl@@ 194
下单) 194
不易 194
元) 194
全网 194
其 194
卡其色 194
叉 194
工作鞋 194
手帕 194
拉丝 194
无敌 194
星光 194
柜组 194
柴犬 194
水手 194
烈 194
米茄 194
羽球 194
节日 194
货车 194
逆 194
镜@@ 194
防晒霜 194
750@@ 193
baby-g 193
gg@@ 193
gt@@ 193
专家 193
加高 193
增@@ 193
小鹿 193
府 193
抹布 193
泰迪熊 193
涵 193
淑@@ 193
瓦 193
直径 193
石头 193
碗盘 193
芙@@ 193
莫@@ 193
越南 193
软毛 193
轻盈 193
镀膜 193
4.5 192
5) 192
cartier 192
cq@@ 192
elite 192
hu@@ 192
m/@@ 192
nissan 192
pl@@ 192
porter 192
skin 192
starbucks 192
口水巾 192
圆脸 192
坐姿 192
安全带 192
定版 192
实惠 192
帝@@ 192
挂布 192
美肌 192
落地灯 192
葵 192
蜂巢 192
风潮 192
鲁@@ 192
). 191
-001 191
574 191
<< 191
cs 191
gucci@@ 191
mb@@ 191
mm) 191
zx@@ 191
太@@ 191
手工皂 191
按键 191
摇篮 191
数学 191
水鬼 191
洗菜盆 191
猴子 191
碧 191
竹炭 191
第 191
羊@@ 191
耀 191
联@@ 191
蓬 191
识别 191
转换 191
风景 191
007 190
990 190
ef@@ 190
l) 190
mt@@ 190
omega 190
ver@@ 190
丽婴 190
冲@@ 190
十字架 190
咖啡豆 190
喵@@ 190
壹 190
帖 190
挂包 190
昌 190
清凉 190
独 190
蔻 190
运费) 190
雪纺衫 190
399 189
r15 189
te 189
timberland 189
way 189
伞架 189
军事 189
即期 189
压力 189
对@@ 189
小物 189
打造 189
斑 189
毯子 189
溜溜 189
牛角 189
珊瑚绒 189
用) 189
穴 189
翻新 189
萨@@ 189
评价 189
调光 189
辰 189
过@@ 189
题 189
骨@@ 189
02@@ 188
09 188
6.5 188
800@@ 188
abercrombie& 188
dg 188
k金 188
moschino 188
他 188
低@@ 188
刨 188
动力 188
发圈 188
发财 188
套) 188
布娃娃 188
干花 188
当日 188
拍杆 188
挡板 188
援 188
搬家 188
水冷 188
粥 188
角@@ 188
轩 188
铅笔盒 188
颈 188
ad 187
amg 187
body 187
louisvuitton 187
queen 187
world 187
作战 187
工装裤 187
开业 187
核 187
磨@@ 187
织布 187
职员 187
蒸气 187
螺旋 187
谱 187
重磅 187
零@@ 187
项 187
--- 186
-6@@ 186
hi 186
lee 186
longchamp 186
pet 186
studio 186
u盘 186
yi 186
一起 186
下杀@ 186
乐乐 186
五色 186
单宁 186
小丑 186
扫 186
灰黑 186
炒 186
烘培 186
男款 186
精品店 186
转售 186
铝 186
餐饮 186
麦当劳 186
(5 185
08 185
601 185
m.@@ 185
东方 185
乡 185
医 185
史@@ 185
子星 185
年级 185
广场 185
海军蓝 185
深灰 185
精萃 185
纺 185
计划 185
111 184
ac 184
et 184
eva 184
fr@@ 184
hd 184
it 184
ke 184
nike@@ 184
slip 184
y-3 184
俊 184
俏皮 184
墨水 184
尊 184
扮 184
教@@ 184
杰@@ 184
榨汁机 184
沐浴乳 184
液体 184
烂 184
热门 184
眼镜框 184
统 184
背后 184
训 184
长效 184
风情 184
(黑 183
b.@@ 183
ch 183
club 183
mc@@ 183
nikon 183
pazzo 183
shop@@ 183
star@@ 183
tu@@ 183
仙@@ 183
内胆 183
单个 183
史莱姆 183
吊饰 183
命 183
善 183
天鹅 183
山地车 183
店) 183
志@@ 183
懒懒 183
数量 183
时装 183
极@@ 183
核心 183
横条 183
洋@@ 183
消光 183
温@@ 183
焦 183
牛排 183
矮凳 183
码表 183
程 183
联想 183
辣椒 183
12-@@ 182
73@@ 182
blazer 182
fw 182
magic 182
mr@@ 182
nb@@ 182
tissot 182
佐@@ 182
作者: 182
供佛 182
冲锋 182
反@@ 182
团体 182
天空 182
宽@@ 182
小样 182
晴雨 182
泳裤 182
海苔 182
滚珠 182
火焰 182
网络 182
菱形 182
衫女 182
袖短 182
4.7 181
5g 181
color 181
dream 181
fly 181
mb 181
n-@@ 181
sf@@ 181
xsmax 181
佩@@ 181
分钟 181
原液 181
喜欢 181
喷漆 181
复@@ 181
投影 181
护士 181
独@@ 181
眼部 181
磁扣 181
租房 181
空姐 181
纹@@ 181
钻@@ 181
－@@ 181
2020@@ 180
???? 180
ball 180
book 180
set 180
x/@@ 180
刀具 180
加密 180
式) 180
机架 180
白光 180
胸章 180
萃@@ 180
蓝宝石 180
铂金 180
cl@@ 179
cs@@ 179
ff@@ 179
happy 179
kd 179
monster 179
分隔 179
天堂 179
女潮 179
安心 179
小猫 179
急 179
总 179
松紧带 179
棍 179
气囊 179
深v 179
炎 179
炫@@ 179
烟@@ 179
甜甜 179
美发 179
菲@@ 179
闪耀 179
除毛 179
鞋面 179
## 178
0p 178
15-@@ 178
240@@ 178
au@@ 178
bear 178
eg@@ 178
ing@@ 178
r17 178
toy 178
一体机 178
产@@ 178
合一 178
奈 178
巴斯 178
幽灵 178
歌@@ 178
添加 178
穿@@ 178
自用 178
造 178
邮票 178
钓 178
风车 178
cool 177
dr@@ 177
sa 177
wang 177
wanna 177
互动 177
出游 177
十@@ 177
垫片 177
塞@@ 177
复古@@ 177
姓名 177
子弹 177
尾@@ 177
尾灯 177
床@@ 177
木耳 177
术 177
架@@ 177
正方形 177
流沙 177
淡化 177
炒锅 177
理发店 177
破@@ 177
系@@ 177
绝 177
花生 177
记事本 177
豪@@ 177
酒杯 177
锅盖 177
飞人 177
1-3@@ 176
40-44 176
bt 176
dunk 176
s-xxl 176
佩佩猪 176
俏 176
出差 176
华硕 176
各式 176
唱歌 176
姐姐 176
我们 176
房子 176
拖@@ 176
洗发 176
爆@@ 176
玻璃@@ 176
禅 176
箱@@ 176
纽扣 176
舍 176
芒果 176
适用于 176
门后 176
靴女 176
预购) 176
飞行器 176
501 175
af@@ 175
carter's 175
logo@@ 175
win@@ 175
们 175
全新) 175
厨具 175
去@@ 175
哑光 175
夜灯 175
定时 175
室内外 175
师@@ 175
检 175
概论 175
油漆 175
燕麦 175
百褶裙 175
研 175
粘贴 175
糕 175
脱毛 175
金证 175
镶嵌 175
附赠 175
隔层 175
预订 175
360@@ 174
900@@ 174
cy@@ 174
danielwellington 174
focus 174
shoes 174
tiffany 174
x2 174
y-@@ 174
上海 174
会@@ 174
健身房 174
单色 174
如意 174
守 174
完全 174
小凳子 174
托架 174
服务 174
炮 174
瑜 174
碗筷 174
纯天然 174
花器 174
若 174
西餐 174
迪士尼@@ 174
重机 174
集中 174
风琴 174
8.5 173
9999 173
design 173
fate 173
mks 173
san@@ 173
t1／ 173
twice 173
刺青 173
勺子 173
匠 173
原色 173
声光 173
大款 173
大陆 173
天梭 173
女仆 173
总成 173
恒 173
成功 173
报 173
披风 173
拇指 173
新竹 173
栏 173
椭圆 173
活@@ 173
特价) 173
男人 173
经济 173
锁头 173
额 173
齐全 173
1-3 172
4) 172
al 172
cat@@ 172
ig@@ 172
冠希 172
凌 172
商场 172
富@@ 172
富贵 172
屋@@ 172
拍@@ 172
未使用 172
杜兰特 172
棋 172
烤炉 172
珍藏 172
矿 172
脆 172
财@@ 172
锐 172
领@@ 172
风铃 172
(6 171
00 171
10-@@ 171
35-40 171
365 171
ap 171
care 171
ji@@ 171
kelly 171
melody 171
party 171
ps3 171
ro 171
zi@@ 171
不沾 171
人缘 171
修饰 171
剪@@ 171
喝 171
奥迪 171
密@@ 171
小伙伴 171
小妹 171
平底锅 171
扩充 171
拨 171
挂表 171
松饼 171
正宗 171
洁净 171
烧@@ 171
节@@ 171
药@@ 171
蜂@@ 171
轮@@ 171
采@@ 171
音乐盒 171
190 170
3月 170
550@@ 170
720 170
9.9 170
adidas@@ 170
m2k 170
一直 170
光学 170
内衬 170
发廊 170
壁饰 170
大众 170
宝可 170
心形 170
皆可 170
皇 170
胶条 170
荷兰 170
蜜桃 170
诱 170
销价 170
锻炼 170
门市 170
鼎 170
(日本 169
angel 169
el 169
中童 169
冷藏 169
副食品 169
匙 169
周@@ 169
女郎 169
实心 169
幼童 169
当@@ 169
投影机 169
晒衣架 169
月子 169
梨花 169
爪@@ 169
轴@@ 169
金银 169
除湿 169
霸王 169
香味 169
齿@@ 169
006 168
5s 168
dh@@ 168
ip@@ 168
primeknit 168
凯蒂猫 168
名&优 168
呼吸 168
奶@@ 168
容@@ 168
巴特 168
帽衫 168
效@@ 168
易@@ 168
桑 168
武@@ 168
润肤 168
牛皮纸 168
现货@@ 168
瓦斯 168
瓶) 168
甜@@ 168
米兰 168
耳环@@ 168
谷@@ 168
进化 168
01@@ 167
giorgio 167
je@@ 167
takara 167
type 167
公分) 167
刮皮 167
勇士 167
吻 167
外销 167
好吃 167
婴儿车 167
屏幕 167
折叠椅 167
桌@@ 167
河 167
法兰 167
海马 167
瓜 167
私人 167
穿鞋 167
钙 167
问 167
防辐射 167
风火轮 167
鹿@@ 167
20000 166
280 166
fl@@ 166
m44@@ 166
事@@ 166
何 166
供奉 166
双门 166
发售 166
合作 166
售@@ 166
接口 166
暖@@ 166
杏@@ 166
桃红色 166
梁 166
棕@@ 166
沉 166
液态 166
璀璨 166
福特 166
简@@ 166
蜗牛 166
订做 166
课本 166
财神 166
赤 166
马尾 166
-b@@ 165
005 165
6plus 165
a梦 165
bt@@ 165
dart 165
db@@ 165
essential 165
han@@ 165
大眼 165
小鸭 165
座@@ 165
悬挂 165
拖地 165
提升 165
搭扣 165
木雕 165
松木 165
檀香 165
气泡 165
汤@@ 165
燃气 165
红绿 165
花苞 165
记录 165
车牌 165
高温 165
🏻@@ 165
(三 164
10.5 164
118@@ 164
2016年 164
230 164
31@@ 164
4.@@ 164
agnes 164
gs@@ 164
ok 164
世纪 164
义大利 164
亲@@ 164
冷淡 164
唷 164
圣诞树 164
培@@ 164
川@@ 164
币 164
待机 164
掉色 164
水枪 164
牡丹 164
玫@@ 164
画家 164
纤@@ 164
纯@@ 164
花架子 164
裤头 164
需要 164
(限定 163
40-45 163
5d 163
a6@@ 163
jacket 163
ki 163
so 163
wd 163
三联 163
佛珠 163
侧@@ 163
包#@@ 163
医生 163
台上 163
哆啦a 163
外卖 163
大地 163
小兔 163
市场 163
扣头 163
折叠式 163
整装 163
柜台 163
梦想 163
流浪 163
狗头 163
病 163
碳 163
红豆 163
网格 163
蓬松 163
车架 163
遮挡 163
郭 163
铸铁 163
驼色 163
鸟@@ 163
1.5m 162
15.6 162
256 162
ax@@ 162
ll 162
ml/ 162
super@@ 162
tods 162
交通 162
反折 162
叫 162
唇彩 162
夕 162
得@@ 162
没有 162
电锅 162
画画 162
碳素 162
罩杯 162
舞@@ 162
观 162
顶@@ 162
120ml 161
1:@@ 161
2014 161
a4@@ 161
backpack 161
cg@@ 161
green 161
ve 161
wi@@ 161
光泽 161
回馈 161
堡 161
大功率 161
机电 161
样板房 161
楠竹 161
沐@@ 161
王国 161
精装 161
细致 161
茶树 161
衣帽 161
销 161
食品级 161
301 160
530 160
711 160
chi 160
gold 160
gucci/ 160
r-@@ 160
shi@@ 160
vr 160
ys@@ 160
低胸 160
农 160
冷暖 160
击 160
初@@ 160
制) 160
劳保 160
吉祥 160
哆 160
喜@@ 160
奖 160
帝 160
幸 160
彭 160
徐 160
搓 160
新加坡 160
毛笔 160
气压 160
滑轮 160
爆裂 160
省力 160
粉扑 160
绝地 160
蕊 160
袋) 160
走路 160
陈列 160
鹤 160
﹝@@ 160
170 159
3000 159
big 159
bws 159
dvd- 159
ea7 159
fa@@ 159
hilfiger 159
mazda 159
os 159
ta 159
ー@@ 159
假花 159
关节 159
卖@@ 159
只要 159
台桌 159
司机 159
垃圾袋 159
寻 159
庞 159
悟 159
扣@@ 159
拆@@ 159
拳击 159
损 159
插画 159
散热器 159
模@@ 159
润泽 159
祥 159
红木 159
翠 159
胡@@ 159
虎@@ 159
裹 159
连接 159
钢针 159
首尔 159
骑车 159
-7@@ 158
fashion 158
japan 158
lo 158
na 158
note@@ 158
ny@@ 158
shirt 158
spf50 158
toys 158
t桖 158
军@@ 158
分享 158
刻度 158
北海道 158
吊床 158
喵 158
垫脚 158
小站 158
手作 158
最高 158
枕芯 158
洗头 158
爸 158
痛 158
白板 158
睡袍 158
碳纤 158
结@@ 158
脱@@ 158
蓝) 158
袖珍 158
议 158
酒器 158
锋 158
黑曜石 158
(小) 157
(小@@ 157
0-@@ 157
1970s 157
ea@@ 157
hy@@ 157
marvel 157
mt 157
ng 157
s) 157
tekno 157
tiger 157
ur@@ 157
vo@@ 157
乌龟 157
代购@@ 157
分离 157
剥 157
剪裁 157
变速 157
大耳 157
子) 157
巨人 157
扑克牌 157
拔 157
智力 157
桃木 157
模拟 157
正生 157
浆 157
眉 157
篮子 157
美味 157
质@@ 157
邮 157
针@@ 157
钳@@ 157
长靴 157
650 156
6吋 156
82@@ 156
dhc 156
gb@@ 156
ge 156
gr@@ 156
oversize 156
sega 156
vip 156
丰@@ 156
俱乐部 156
博柏利 156
咪@@ 156
喜糖 156
回收 156
局 156
早秋 156
柜门 156
检测 156
棒@@ 156
民@@ 156
泽@@ 156
珍品 156
甜甜圈 156
盖布 156
真人 156
花艺 156
试题 156
购) 156
资 156
踩 156
防汗 156
｛ 156
6) 155
alice 155
be 155
ce 155
gm 155
gps 155
ks 155
lightning 155
ru@@ 155
va@@ 155
世代 155
全面 155
唯 155
大大 155
宏@@ 155
屁股 155
扣环 155
方桌 155
球员 155
百搭 155
眼膜 155
私@@ 155
脑 155
舰 155
贺 155
迎宾 155
途 155
道教 155
-1@@ 154
1970 154
20ml 154
330 154
aa 154
b5 154
bally 154
gopro 154
hitachi 154
iphone6s 154
levis 154
pt@@ 154
rc 154
rn 154
x5 154
三洋 154
上衣@@ 154
佛像 154
古铜 154
坤 154
墙角 154
嫁接 154
孔雀 154
射 154
手饰 154
投影仪 154
摇头 154
旋 154
无缝 154
极限 154
梅花 154
猫眼 154
用款 154
电容 154
留言 154
绕 154
羊羔 154
考@@ 154
胸@@ 154
藤椅 154
补丁 154
购价 154
进@@ 154
遇见 154
铺@@ 154
面乳 154
高贵 154
(超 153
11100@@ 153
260@@ 153
41@@ 153
ba 153
brown 153
case 153
chrome 153
ff 153
kt@@ 153
s10 153
smart 153
steam 153
wu 153
下午茶 153
伯 153
便条纸 153
充@@ 153
决 153
刺猬 153
单眼 153
叉子 153
台风 153
吊@@ 153
哑铃 153
夹层 153
干果 153
惠灵顿 153
拖车 153
挤 153
换@@ 153
推@@ 153
摩登 153
朱 153
桧 153
毛毡 153
溜冰鞋 153
玻璃瓶 153
箱包 153
索@@ 153
网状 153
芝@@ 153
钮扣 153
125@@ 152
9.@@ 152
two 152
• 152
〖 152
人鱼 152
医疗 152
地球 152
培训 152
好运 152
姐妹 152
敏感 152
敷 152
期限 152
木板 152
樱 152
洗发水 152
浩 152
满意 152
生儿 152
相册 152
眠 152
研磨 152
管道 152
育 152
脸@@ 152
荣@@ 152
蓝光 152
钞 152
防虫 152
雄 152
风机 152
100g 151
18-@@ 151
altis 151
combi 151
gh@@ 151
j-@@ 151
kose 151
phone 151
ray 151
royal 151
zx 151
俄罗斯 151
光阳 151
兜兜 151
具@@ 151
兹 151
冰块 151
剃 151
包覆 151
厚@@ 151
去除 151
咪 151
团@@ 151
增压 151
夜间 151
妃 151
彩膜 151
手持式 151
找 151
木色 151
木马 151
机柜 151
机箱 151
生肖 151
知 151
竞技 151
籽 151
绮 151
美学 151
菜刀 151
裙@@ 151
记忆体 151
语@@ 151
都市 151
钢管 151
铁皮 151
阴 151
除尘 151
＆@@ 151
(直 150
+1 150
a/@@ 150
ben@@ 150
collection 150
dv@@ 150
heart 150
led@@ 150
mj 150
navy 150
nu@@ 150
s-xl 150
vs 150
wave 150
ン 150
不可 150
便捷 150
唱片 150
因 150
国外 150
处理 150
巨无霸 150
布衣 150
异味 150
探索 150
物品 150
结单 150
罐头 150
衬@@ 150
认明 150
设 150
过家家 150
金箔 150
钢丝 150
零售 150
高手 150
** 149
112 149
36-39 149
63@@ 149
7.@@ 149
978@@ 149
bo 149
ju@@ 149
m-2xl 149
mas@@ 149
note8 149
xx 149
乔治 149
公园 149
农@@ 149
刀片 149
化学 149
姆 149
曾 149
最佳 149
望远镜 149
水果盘 149
洗面奶 149
白) 149
直出 149
种植 149
空白 149
聚会 149
莲蓬头 149
赔 149
酸@@ 149
鲜@@ 149
麻辣 149
401 148
996 148
g*@@ 148
rs@@ 148
主食 148
八五 148
升@@ 148
发卡 148
启动 148
奶奶 148
小个子 148
手办 148
手掌 148
护套 148
整组 148
狮子 148
瑞典 148
绳@@ 148
腰@@ 148
萃 148
路由器 148
锁扣 148
(大@@ 147
\n\ 147
a8 147
app 147
con@@ 147
cw@@ 147
funko 147
gogoro 147
guess 147
her@@ 147
jk 147
lativ 147
promax 147
s0@@ 147
ssd 147
sun 147
§ 147
吗 147
哇 147
国家 147
如图 147
安德玛 147
宴 147
插@@ 147
攻略 147
浮@@ 147
绷带 147
美睫 147
脖@@ 147
莎@@ 147
蛋卷 147
蜡笔 147
裂 147
装潢 147
贵妃 147
迷人 147
选) 147
锡 147
领劵 147
-02 146
118 146
am 146
bape 146
bw@@ 146
citizen 146
cj@@ 146
fm 146
gel 146
gp 146
hp@@ 146
s8 146
smax 146
ト@@ 146
伦@@ 146
健@@ 146
全屏 146
圆型 146
场@@ 146
天鹅绒 146
小舖@@ 146
插花 146
收银台 146
模特 146
永恒 146
注@@ 146
温度 146
猎人 146
猛 146
玩@@ 146
琥珀 146
瑕疵 146
端子 146
米老鼠 146
细节 146
罐装 146
脖子 146
迷@@ 146
邱 146
重型 146
锅@@ 146
除湿机 146
480 145
art 145
court 145
ipad@@ 145
levi's 145
pony 145
x3 145
净水 145
准 145
列 145
原矿 145
口径 145
图解 145
夸张 145
宫崎骏 145
手推 145
挑战 145
染发剂 145
柔@@ 145
桃色 145
步@@ 145
淘 145
生命 145
穿衣镜 145
菊花 145
萝 145
蔻@@ 145
记录器 145
试@@ 145
过滤网 145
鸣 145
黑) 145
8mm 144
90cm 144
bobo 144
f1 144
fc 144
ig 144
iu 144
ly 144
racer 144
tri@@ 144
uni@@ 144
wa 144
z-@@ 144
会员 144
保时 144
倒@@ 144
先@@ 144
可伸缩 144
夹心 144
属 144
常 144
床边柜 144
彩灯 144
恋人 144
控制器 144
改@@ 144
数@@ 144
枣 144
水光 144
玄@@ 144
良好 144
调情 144
跟单 144
锦 144
鞋底 144
飞行员 144
鱼骨 144
135 143
3.8 143
6月 143
bon@@ 143
fun 143
m-xl 143
secret 143
ღ@@ 143
册) 143
功 143
双排扣 143
声控 143
封@@ 143
尾巴 143
打印机 143
抓@@ 143
报@@ 143
方格 143
未@@ 143
浅灰 143
溢 143
热敷 143
睡@@ 143
祖 143
穆勒 143
精英 143
莱卡 143
蔷薇 143
行家 143
贴花 143
银楼 143
鱼竿 143
((@@ 142
3ce 142
4d 142
\n@@ 142
a) 142
ddr@@ 142
gu 142
jp@@ 142
kiss 142
lolita 142
son 142
ti 142
tom 142
uptempo 142
中大 142
伏 142
劳@@ 142
女帝 142
妳@@ 142
心率 142
性爱 142
成年 142
最@@ 142
杨幂 142
松鼠 142
棉外套 142
楠 142
湖水 142
漂 142
热销# 142
童趣 142
绝@@ 142
缇 142
罐@@ 142
自行 142
院 142
音频 142
117 141
5a 141
ace 141
chu@@ 141
dior迪奥@@ 141
ferragamo 141
hg 141
ice 141
ing 141
ophidia 141
pa 141
son@@ 141
va 141
valentino 141
ン@@ 141
五角星 141
圆珠 141
大叔 141
姆@@ 141
宣传 141
小飞象 141
库里 141
斗@@ 141
无瑕 141
无纺布 141
春天 141
桥 141
毛器 141
海豚 141
淡斑 141
特价$@@ 141
由 141
电机 141
画板 141
购物车 141
走@@ 141
超越 141
迈 141
野兽 141
36-40 140
aw@@ 140
bk 140
cnc 140
men 140
miu 140
xi 140
仰卧 140
养@@ 140
土耳其 140
墨绿 140
壳@@ 140
战神 140
手提式 140
提篮 140
新生 140
日版 140
枕头套 140
混合 140
清水 140
漫@@ 140
物理 140
碧@@ 140
维尼@@ 140
脂 140
言 140
论 140
轩@@ 140
金边 140
锂电池 140
随意 140
(m@@ 139
(原 139
ana 139
az@@ 139
game 139
kk 139
op@@ 139
ow 139
qc@@ 139
r9s 139
tv 139
zo@@ 139
传输 139
号码 139
妃@@ 139
学步车 139
实务 139
帮手 139
幼@@ 139
快感 139
护目镜 139
披 139
搭@@ 139
晴雨伞 139
染发 139
氛@@ 139
汽@@ 139
沉香 139
烛台 139
理发 139
瑶 139
箭 139
缇花 139
胖胖 139
色彩 139
菁 139
薄纱 139
讲义 139
鑫@@ 139
钓竿 139
预@@ 139
魅@@ 139
-00@@ 138
-8@@ 138
10.@@ 138
14-@@ 138
cap 138
desire 138
ga-110 138
nokia 138
s9 138
sui 138
zz@@ 138
乌 138
兰芝 138
卷边 138
国制 138
大量 138
应用 138
建@@ 138
影@@ 138
文乐 138
旭 138
木床 138
栅栏 138
水晶球 138
汤碗 138
沙龙 138
河@@ 138
澳 138
痘@@ 138
白雪公主 138
窑 138
简洁 138
腕带 138
莓 138
萝@@ 138
重工 138
闪灯 138
降噪 138
马自达 138
鼠年 138
(c@@ 137
(白) 137
1-2 137
260 137
320 137
650@@ 137
710@@ 137
a7 137
bar@@ 137
core 137
epson 137
msi 137
rgb 137
t短 137
三角形 137
个@@ 137
刹车 137
吕 137
多彩 137
实验 137
少量 137
房@@ 137
方框 137
普通 137
极品 137
梵@@ 137
棚 137
正货 137
活性 137
灵@@ 137
狗@@ 137
红) 137
维生素 137
萝卜 137
薯条 137
通讯 137
避震器 137
钻戒 137
铭 137
鲤鱼 137
﹝ 137
120g 136
128@@ 136
2a 136
380 136
40mm 136
gx 136
jojo 136
just 136
kin@@ 136
ty 136
侠@@ 136
便利店 136
修补 136
凉被 136
半透明 136
妞 136
射@@ 136
布朗 136
底裤 136
延长 136
开花 136
慧@@ 136
托特包 136
拎 136
接收器 136
机手 136
树叶 136
棉鞋 136
檀 136
母婴 136
求婚 136
活页 136
湿巾 136
线香 136
贝儿 136
足@@ 136
轨 136
遥控车 136
链带 136
音质 136
餐垫 136
(2@@ 135
580 135
a9 135
ht@@ 135
ja@@ 135
nintendo 135
t.@@ 135
usa 135
亚洲 135
倒流 135
净化器 135
刻@@ 135
司@@ 135
吊篮 135
唐@@ 135
夫妻 135
奇奇蒂蒂 135
岁月 135
左@@ 135
帮@@ 135
年终 135
开幕 135
摆@@ 135
朝 135
极光 135
柑 135
百货@@ 135
码@@ 135
碗@@ 135
神秘 135
祭 135
禁 135
私处 135
等级 135
舒@@ 135
装修 135
订购 135
试衣 135
长度 135
马拉松 135
鼻@@ 135
(30 134
280@@ 134
30g 134
atf 134
dd@@ 134
fgo 134
keith 134
mk5@@ 134
san-x 134
small 134
tf 134
x6 134
→ 134
书套 134
佩 134
储存 134
刮痧 134
勇者 134
包巾 134
单面 134
圆凳 134
塑钢 134
填 134
娜娜 134
微波 134
愿 134
盛@@ 134
精密 134
美杜莎 134
航 134
行销 134
诚信 134
赞@@ 134
超取 134
鉴赏 134
锦@@ 134
镜框 134
雪茄 134
马上 134
｝ 134
(买 133
(保留 133
-10@@ 133
1-2@@ 133
116 133
3g 133
80g 133
9) 133
cpu 133
nano 133
oz 133
paul 133
ス@@ 133
一体式 133
三角架 133
义@@ 133
五斗柜 133
历史 133
启蒙 133
塑@@ 133
大马 133
密码锁 133
影片 133
恤衫 133
搜 133
无法 133
曲面 133
柔光 133
檐 133
消@@ 133
熨斗 133
续航 133
蓝黑 133
财务 133
购价) 133
轮子 133
远程 133
静@@ 133
顺@@ 133
魔方 133
黎 133
(公司 132
buy 132
dvd@@ 132
jeans 132
mk6@@ 132
pack 132
sky 132
丘 132
侠 132
保险柜 132
倒车 132
元气 132
兔毛 132
兰蔻 132
净水器 132
助@@ 132
及膝 132
台式机 132
同学 132
奇诺 132
寿 132
常@@ 132
平民 132
手写 132
接线 132
柏@@ 132
框@@ 132
横@@ 132
檀木 132
洪 132
浅@@ 132
煮锅 132
瓷杯 132
的@@ 132
直排 132
离@@ 132
网球 132
许愿 132
靓@@ 132
鞭 132
食堂 132
-c@@ 131
a1 131
a8@@ 131
a9@@ 131
edition 131
ol@@ 131
plus/@@ 131
time 131
x5@@ 131
√@@ 131
保险箱 131
刷色 131
台布 131
唱 131
地图 131
大童 131
妻 131
工具包 131
工坊 131
弹跳 131
忍 131
悬挂式 131
抛弃 131
无味 131
晶片 131
暗@@ 131
本子 131
核桃 131
模组 131
燕 131
生存 131
电子秤 131
素描 131
缪 131
网卡 131
藏@@ 131
袖@@ 131
被@@ 131
跑@@ 131
银行 131
闪@@ 131
防疫 131
阴@@ 131
韩版 131
!) 130
(100 130
1l 130
1ml 130
250g 130
7) 130
c.@@ 130
dd 130
dy 130
dy@@ 130
gx@@ 130
mat@@ 130
spf@@ 130
t0@@ 130
wars 130
中学生 130
乳霜 130
代购) 130
伞状 130
侃爷 130
停车 130
儿童节 130
决战 130
合奏 130
多媒体 130
尖端 130
形@@ 130
影城 130
影楼 130
景@@ 130
沛@@ 130
碧玺 130
腰部 130
量@@ 130
钉@@ 130
钮 130
隐@@ 130
音量 130
鸟笼 130
1100 129
11月 129
24k 129
520@@ 129
ay@@ 129
gp@@ 129
knit 129
les 129
m40@@ 129
pre@@ 129
ul@@ 129
严选 129
事业 129
出清) 129
划痕 129
卡特 129
合售 129
妖@@ 129
宠爱 129
山地 129
快递 129
护发素 129
收音机 129
斜纹 129
枸杞 129
根@@ 129
水乳 129
油性 129
海盗 129
滑雪 129
现场 129
百年 129
皇后 129
盖子 129
短筒 129
终极 129
莓@@ 129
蛙 129
蛙@@ 129
触摸 129
证@@ 129
跳@@ 129
输出 129
速度 129
颈枕 129
黏 129
*2 128
---@@ 128
009 128
20/@@ 128
audi 128
di 128
hoodie 128
i6 128
jc 128
m60@@ 128
nsw 128
rebecca 128
tamiya 128
ten@@ 128
tote 128
一体 128
光感 128
全部 128
公文 128
分析 128
剃须刀 128
圆筒 128
圈@@ 128
天线 128
奇异 128
好好 128
小推车 128
工程车 128
帆船 128
承@@ 128
拉力 128
放大镜 128
暖暖 128
有效 128
朗@@ 128
椭圆形 128
汽油 128
浓密 128
玩具店 128
皮筋 128
石英钟 128
胶鞋 128
良品 128
计算机 128
那@@ 128
铁板 128
雷朋 128
首@@ 128
驾驶 128
(1) 127
-2 127
2.4 127
200g 127
2013 127
70-@@ 127
crv 127
emporio 127
ll@@ 127
ls 127
missha 127
nms 127
sc 127
ys 127
乃 127
五代 127
初中 127
励志 127
包膜 127
回弹 127
套头衫 127
开襟 127
弦 127
微电脑 127
总代理 127
提袋 127
框架 127
流水 127
渡 127
现金 127
甲醛 127
电源线 127
神域 127
等身 127
粉白 127
芝麻 127
芝麻街 127
莫斯 127
菜板 127
蒙古包 127
虫@@ 127
表面 127
装饰灯 127
酒神 127
铁架 127
链子 127
销售 127
防水@@ 127
(新 126
ct 126
iii 126
kit 126
l/@@ 126
lexus 126
w/@@ 126
乐高积木 126
价) 126
假@@ 126
十足 126
喵喵 126
圆球 126
备注 126
宜@@ 126
廖 126
忧 126
念 126
抑菌 126
抽取 126
排水 126
昆 126
晚 126
杏 126
熊@@ 126
熊本 126
现货# 126
疲劳 126
知名 126
芸芸 126
落@@ 126
袜@@ 126
运中 126
运动@@ 126
黑眼圈 126
1/144 125
126 125
16-@@ 125
236@@ 125
\n\n 125
]@@ 125
alexander 125
ber@@ 125
chang 125
gd@@ 125
god 125
lucky 125
ml+ 125
oshkosh 125
ou@@ 125
triple 125
xs@@ 125
五件 125
光年 125
克兰 125
出门 125
切片 125
制品 125
十一 125
厂@@ 125
哄 125
坂 125
复合 125
巧@@ 125
差 125
开瓶器 125
徒步 125
得力 125
折起 125
擦拭 125
机身 125
果蔬 125
棉袄 125
浣熊 125
炭@@ 125
牙齿 125
玛莎拉蒂 125
矿物 125
硫化 125
粗@@ 125
脂@@ 125
触屏 125
资讯 125
黑黑 125
008 124
2018@@ 124
60ml 124
beats 124
ku 124
qu@@ 124
丁@@ 124
三明治 124
人份 124
人体工学 124
仪表 124
凤 124
卓 124
发膜 124
咖啡壶 124
囊 124
增强 124
声@@ 124
夏威夷 124
大王 124
幕 124
底片 124
弘 124
挂毯 124
指甲剪 124
捧 124
望 124
柚子 124
桂 124
深海 124
狐 124
礼券 124
窗@@ 124
章鱼 124
育@@ 124
解析 124
贝雷帽 124
赤@@ 124
铅 124
领巾 124
鲁夫 124
(四 123
136@@ 123
15ml 123
2g 123
3a 123
ft@@ 123
ir@@ 123
jp0@@ 123
piece 123
reno 123
・@@ 123
以@@ 123
全民 123
全集 123
共@@ 123
凉爽 123
喷雾器 123
垃圾 123
崎@@ 123
拆卸 123
拉面 123
果酱 123
涂层 123
涂料 123
潘多拉 123
潮t 123
火山 123
猎@@ 123
畅 123
研磨机 123
立体声 123
良@@ 123
蓝绿 123
蚊器 123
蝶古 123
装扮 123
警@@ 123
调味料 123
谈 123
账 123
量贩 123
钓鱼竿 123
镀铬 123
随便 123
雕像 123
(新款 122
(男 122
(蓝 122
1.6 122
247 122
8) 122
a& 122
c/@@ 122
f/@@ 122
mix 122
pg 122
下杀@@@ 122
丢 122
兰花 122
冬@@ 122
包子 122
咖哩 122
商业 122
布贴 122
折叠伞 122
掌柜 122
摇杆 122
教材 122
李@@ 122
杜@@ 122
浅色 122
测试 122
海棉 122
电视机 122
白白 122
盆@@ 122
硬度 122
示 122
维多利亚 122
编号: 122
聚宝盆 122
苏菲 122
证书 122
货到付款 122
趾@@ 122
车手 122
追@@ 122
配送 122
金牌 122
158 121
2019/@@ 121
20g 121
512 121
701 121
bra 121
ine 121
mei 121
pan@@ 121
s5@@ 121
下巴 121
亚马逊 121
优惠) 121
会议桌 121
偏光镜 121
农场 121
刮@@ 121
加压 121
动能 121
劳 121
印尼 121
即食 121
发器 121
名器 121
名字 121
呢 121
太子 121
女网 121
女靴 121
干洗 121
异@@ 121
文具盒 121
梦网 121
毛刷 121
注 121
浴@@ 121
海盐 121
激@@ 121
照镜 121
牛皮@@ 121
电吉他 121
砸 121
紫罗兰 121
茶叶罐 121
螃蟹 121
超声波 121
追 121
长方 121
阵 121
魏 121
麻绳 121
#新品 120
(简体 120
-h@@ 120
150g 120
202 120
3/4 120
estee 120
f5@@ 120
g6 120
good 120
gsc 120
insta 120
james 120
lv/ 120
pd 120
s7 120
swoosh 120
tab 120
usb@@ 120
wh 120
克斯 120
内外 120
印象 120
号: 120
同名 120
吾 120
奈米 120
奴比 120
妃包 120
季@@ 120
完成 120
宣言 120
层次 120
工场 120
开学 120
录@@ 120
拓 120
捞 120
收纳@@ 120
无烟 120
果干 120
民谣 120
灯管 120
牵引 120
电力 120
男学生 120
离合器 120
聪明 120
肤宝水 120
草坪 120
贵妇 120
超硬 120
车皮 120
限@@ 120
鞋盒 120
): 119
390 119
ape 119
diamond 119
epic 119
ha 119
moto 119
rb@@ 119
sx@@ 119
t男 119
公仔@@ 119
出品 119
刀头 119
取@@ 119
口水 119
合成 119
呆 119
啤酒 119
夫@@ 119
夹板 119
女裤 119
导@@ 119
尖@@ 119
展@@ 119
巴士 119
扭扭 119
投@@ 119
晓@@ 119
曲@@ 119
检验 119
汗衫 119
沙包 119
泡@@ 119
洗面 119
浪琴 119
淡@@ 119
焕 119
玻璃膜 119
白银 119
目@@ 119
着@@ 119
知@@ 119
窗台 119
纱窗 119
耐@@ 119
舞会 119
虾@@ 119
辛 119
邦@@ 119
钻头 119
长型 119
防晒乳 119
附录 119
顶上 119
＜ 119
!@@ 118
's@@ 118
(9 118
(近 118
at 118
bobbi 118
bs 118
id 118
j7 118
lab 118
lauder 118
mei@@ 118
platform 118
re 118
s1 118
si 118
sw 118
wh@@ 118
|| 118
丝带 118
中小学生 118
全省 118
其@@ 118
凸 118
区) 118
卡卡 118
发泡 118
喷枪 118
固@@ 118
工作台 118
幻@@ 118
异形 118
忘 118
文书 118
晕染 118
染@@ 118
汁 118
烟盒 118
熙 118
监视器 118
稳定 118
纹路 118
自慰杯 118
衣裤 118
试管 118
酷奇 118
重力 118
鑫 118
错 118
闪光灯 118
问题 118
阿赞@@ 118
颖 118
飞镖 118
馆@@ 118
￥@@ 118
10月 117
380@@ 117
ae@@ 117
ec@@ 117
edge 117
fw@@ 117
ii@@ 117
mate 117
par@@ 117
porsche 117
sampo 117
su 117
usb3.0 117
with 117
za 117
主持人 117
主机板 117
亦 117
便@@ 117
冰凉 117
冷风 117
勋 117
包围 117
厘米 117
原料 117
呢子 117
园@@ 117
地靴 117
坎肩 117
声卡 117
大容量 117
妞妞 117
手工艺 117
排气管 117
探 117
无糖 117
曲线 117
本) 117
板桥 117
果盘 117
派@@ 117
溜 117
理论 117
用品. 117
眼镜架 117
祝福 117
稳 117
红枣 117
纪念版 117
网购 117
背巾 117
芙 117
薰@@ 117
裤腰带 117
读@@ 117
转盘 117
金丝绒 117
霜@@ 117
领口 117
高雅 117
7p 116
ci 116
double 116
dyson 116
em@@ 116
huang 116
lip 116
ml- 116
print 116
seventeen 116
sgs 116
shimano 116
sl 116
slim 116
summer 116
ter@@ 116
tl@@ 116
yoyo 116
井@@ 116
佳能 116
全方位 116
减@@ 116
包包包 116
哈利波特 116
市@@ 116
市集 116
手电 116
承重 116
抽奖 116
指针 116
携带型 116
摇@@ 116
杉 116
椅@@ 116
止痒 116
死皮 116
污 116
灰姑娘 116
烘@@ 116
画册 116
百货公司 116
穿过 116
纱@@ 116
练字 116
老爷 116
胶底 116
航@@ 116
莹 116
蜘蛛 116
袖短t 116
裁 116
金盏花 116
闻 116
验 116
骚 116
鬼@@ 116
魔女 116
(非 115
...... 115
1- 115
113 115
13-@@ 115
2012 115
2020/@@ 115
24cm 115
3-6 115
4月 115
60cm 115
760@@ 115
902 115
aape 115
bc 115
bt21 115
gtr 115
ix 115
js 115
mac@@ 115
master 115
md@@ 115
note5 115
ori@@ 115
r9 115
shf 115
ter 115
x7 115
シ@@ 115
仙境 115
供应器 115
光面 115
冠@@ 115
勇 115
印字 115
变焦 115
吊椅 115
品味 115
商品@@ 115
埃及 115
太极 115
密度 115
密码箱 115
布面 115
开刃 115
摩洛哥 115
播 115
改善 115
整箱 115
明日 115
测量 115
火星 115
煲 115
牛仔布 115
珠子 115
男包 115
登@@ 115
百搭@@ 115
眼皮 115
离 115
空瓶 115
纯净 115
胡子 115
装饰@@ 115
西点 115
赵 115
醉 115
醒 115
阳@@ 115
阳具 115
食用 115
(b@@ 114
+/@@ 114
145 114
303 114
450@@ 114
7月 114
ahc 114
c0@@ 114
crystal 114
d.@@ 114
daniel 114
day@@ 114
ic 114
joy 114
m3 114
mercci22 114
muji 114
t/@@ 114
vol.@@ 114
ye@@ 114
一键 114
上课 114
仙气 114
力量 114
发行 114
妳 114
帘子 114
快手 114
抢先 114
日杂 114
校 114
欣@@ 114
油壶 114
火烈鸟 114
神话 114
粉) 114
赫@@ 114
轮滑鞋 114
金丝 114
钢架 114
颈部 114
饭碗 114
155 113
5cm 113
6-12 113
d0@@ 113
et@@ 113
gen@@ 113
har@@ 113
mg@@ 113
nice 113
sh 113
t- 113
togo 113
ultraboost 113
ven@@ 113
x手机 113
yo 113
吊扇 113
售出) 113
季节 113
客户 113
尚@@ 113
悠@@ 113
成犬 113
打蜡 113
捆 113
搅拌机 113
每日 113
沟 113
焊 113
煤油 113
男t 113
监测 113
缓冲 113
老年人 113
背斜 113
船型 113
袖口 113
视觉 113
驱车 113
鲸鱼 113
a6 112
dm@@ 112
kitty@@ 112
laneige 112
lte 112
maserati 112
note10 112
tr 112
t型 112
vga 112
vivo@@ 112
x10 112
フ@@ 112
ー 112
今日 112
会场 112
作业 112
六月 112
兼容 112
初版 112
到@@ 112
动物园 112
发露 112
围@@ 112
大摆 112
定妆 112
彼 112
恐怖 112
成型 112
战争 112
戴@@ 112
拆卖 112
探险 112
教具 112
文件柜 112
标示 112
橄榄 112
汽机 112
沙漏 112
浏海 112
渍 112
游泳池 112
滑滑 112
玫 112
盐@@ 112
经济学 112
续 112
耶诞 112
股 112
肥@@ 112
自助 112
角度 112
部@@ 112
门窗 112
马卡龙 112
*1 111
15/@@ 111
17-@@ 111
256g 111
808 111
ax 111
bi 111
charles& 111
fossil 111
hellokitty 111
kakao 111
london 111
mcqueen 111
ml*@@ 111
mm/@@ 111
n\ 111
paris 111
pochette 111
r2 111
s6 111
tb@@ 111
tee@@ 111
下铺 111
久@@ 111
伴 111
保险 111
分层 111
单鞋 111
员工 111
国画 111
套装@@ 111
封面 111
惠普 111
手巾 111
更换 111
更新 111
椅背 111
水母 111
沙袋 111
爵士 111
瘦脸 111
白熊 111
石榴 111
神仙 111
缝线 111
腻 111
芭@@ 111
贵宾 111
身体乳 111
软软 111
轴承 111
远@@ 111
透亮 111
｝@@ 111
(12 110
(8 110
(白 110
1.0 110
aj4 110
dsquared2 110
lol 110
mf@@ 110
oo 110
pin 110
い@@ 110
中空 110
亲笔 110
会客 110
元宝 110
化妆盒 110
吊柜 110
国文 110
契尔氏 110
宣 110
小人 110
小子 110
居家家 110
州 110
急速 110
打折 110
扩@@ 110
末 110
枪@@ 110
海鲜 110
涂 110
滤@@ 110
班@@ 110
瘦长 110
筑 110
羽毛球 110
老二 110
薄款 110
蚂蚁 110
视@@ 110
釉 110
铲子 110
随身听 110
面) 110
题库 110
风力 110
鱼眼 110
鹅 110
黑面 110
齿轮 110
＄@@ 110
(中 109
(预购 109
ep@@ 109
gundam 109
mickey 109
nike/ 109
np@@ 109
sho@@ 109
不同 109
乔@@ 109
五月天 109
人像 109
体感 109
保洁 109
凤凰 109
切菜 109
剑@@ 109
加工 109
勒@@ 109
卡包 109
名侦探柯南 109
大阪 109
套鞋 109
射灯 109
小提琴 109
心灵 109
打气 109
打结 109
拳 109
排球 109
探@@ 109
日制 109
桃子 109
桑@@ 109
母子 109
溪 109
灯罩 109
玖 109
电话机 109
盥洗 109
硬币 109
纽西兰 109
苏打 109
酒瓶 109
飘逸 109
餐车 109
(满 108
1+@@ 108
11-@@ 108
24v 108
b37@@ 108
chanel@@ 108
forever 108
grey 108
ho 108
io 108
mitsubishi 108
momo 108
nova 108
rd@@ 108
school 108
story 108
tester 108
ton 108
丝器 108
书坊 108
今 108
价$@@ 108
低调 108
克拉 108
军装 108
包组 108
匹 108
双子 108
坏 108
头) 108
娜美 108
寇 108
山居 108
弥 108
必@@ 108
成套 108
扣子 108
摩托 108
断@@ 108
旋风 108
旧@@ 108
杀价@ 108
柔顺 108
汝 108
浴衣 108
潮鞋 108
照@@ 108
瓶装 108
生态 108
神明 108
竹制 108
米桶 108
美工 108
艾草 108
节庆 108
薰香 108
衣袋 108
裸色 108
计时器 108
软垫 108
适用) 108
通风 108
铝圈 108
首发 108
高街 108
(2) 107
165 107
225@@ 107
3s 107
402 107
90ml 107
bd 107
cafe 107
chicco 107
fb@@ 107
gucci包包 107
jy 107
kiki 107
md 107
mh@@ 107
plus@@ 107
rl 107
suzuki 107
sweet 107
ver 107
you@@ 107
ア@@ 107
一样 107
个) 107
亏本 107
包机 107
半圆 107
哈雷 107
喷水 107
地区 107
大堂 107
妮妮 107
家) 107
小米@@ 107
尺@@ 107
工地 107
带线 107
干爽 107
开心 107
彼得 107
抄 107
挑逗 107
摆台 107
散打 107
施工 107
早@@ 107
果果 107
格斗 107
概念 107
橡皮擦 107
氨基酸 107
汽 107
浅蓝 107
温控 107
渲染 107
烤@@ 107
玫瑰@@ 107
盈 107
看@@ 107
瞬间 107
筱@@ 107
细腻 107
缺 107
背带裤 107
能力 107
蜡线 107
豆浆 107
重量 107
金) 107
铁塔 107
随@@ 107
风暴 107
(蓝) 106
1/ 106
114 106
350v2 106
36-@@ 106
3c@@ 106
3m@@ 106
5月 106
6g 106
?? 106
a2@@ 106
bh 106
carhartt 106
cd) 106
cm-@@ 106
g5 106
hero 106
ina 106
iris 106
men@@ 106
mx@@ 106
pam@@ 106
per@@ 106
pg@@ 106
prime 106
ting 106
乙 106
人类 106
人造 106
免税 106
公牛 106
切割机 106
划 106
刷牙 106
前灯 106
勒 106
卖场; 106
变身 106
古龙 106
合格 106
吋) 106
商品) 106
四轴 106
垒 106
宝盒 106
居@@ 106
崎 106
年会 106
扁 106
新颖 106
日用 106
时刻 106
曲奇 106
测@@ 106
灶 106
炖锅 106
玩具@@ 106
秘书 106
统一 106
绿) 106
背包@@ 106
背袋 106
能@@ 106
自留 106
莲@@ 106
萍 106
蒙@@ 106
蚊@@ 106
认知 106
运送 106
远射 106
连裤袜 106
餐桌布 106
魔幻 106
麦克 106
黑水 106
119 105
202@@ 105
ban@@ 105
can@@ 105
dj 105
duffy 105
eye 105
iphone8 105
lancome 105
land 105
mit@@ 105
mn@@ 105
pro/@@ 105
sneaker 105
speed 105
vivi 105
wo@@ 105
yi@@ 105
上色 105
亮度 105
似 105
住 105
佳人 105
八卦 105
农用 105
力士 105
史迪奇 105
城@@ 105
境内 105
墨绿色 105
大口 105
大同 105
婷婷 105
字体 105
尾翼 105
幻想 105
扭结 105
承 105
拾 105
挡风板 105
普洱茶 105
有限 105
来自 105
水草 105
泊 105
浴袍 105
渔 105
煎锅 105
电表 105
皮裤 105
盆架 105
纸箱 105
葛 105
蒜@@ 105
裕 105
说话 105
门锁 105
雕塑 105
雪糕 105
颂 105
驼背 105
高度 105
﹞@@ 105
(全) 104
42mm 104
8.@@ 104
bc@@ 104
best 104
bn@@ 104
bra@@ 104
cl 104
eslite 104
f0@@ 104
ft 104
gear 104
jp 104
kaws 104
mark 104
new@@ 104
pm 104
v领@@ 104
xl) 104
一) 104
东西 104
云南 104
件) 104
兴@@ 104
冰河 104
功夫茶 104
单冷 104
受 104
后备箱 104
吸乳器 104
图片 104
奇妙 104
婆@@ 104
完@@ 104
小衫 104
引@@ 104
戈 104
断电 104
月饼 104
来电 104
模式 104
汀 104
河马 104
渣 104
温暖 104
灌 104
爆乳 104
珮@@ 104
球球 104
百折 104
矽@@ 104
社@@ 104
端 104
缇@@ 104
羽@@ 104
肖 104
色料 104
芭蕾舞 104
萧 104
藻 104
觉 104
讲机 104
谊 104
连续 104
遇 104
钞票 104
长颈鹿 104
鞋店 104
(3@@ 103
499 103
602 103
8p 103
bur@@ 103
e.@@ 103
evo 103
kipling 103
lacoste 103
play@@ 103
prm 103
s/ 103
sam@@ 103
sb@@ 103
tf@@ 103
xxl 103
zippo 103
七夕 103
专用) 103
保湿 103
各@@ 103
国语 103
基本款 103
大腿 103
失@@ 103
奔驰 103
妆前乳 103
字帖 103
宽袖 103
少@@ 103
屋顶 103
山水 103
年轻 103
待 103
手链@@ 103
折) 103
替 103
杂 103
格丽 103
档案 103
椰 103
橡皮 103
沈 103
油瓶 103
点缀 103
烧水壶 103
热水器 103
盒带 103
秘@@ 103
老花镜 103
警 103
赫本 103
转印 103
钟@@ 103
锯齿 103
长桌 103
魅 103
-10 102
10) 102
1028 102
11100 102
2.1 102
2018/@@ 102
38mm 102
aj11 102
bu9@@ 102
cor@@ 102
ferrari 102
iv 102
lt@@ 102
m2 102
nars 102
nature 102
oppo@@ 102
pin@@ 102
spade 102
top@@ 102
wei 102
丑 102
什么 102
任意 102
作者 102
冲洗 102
包屁 102
叶草 102
吸附 102
妇 102
巴利 102
弯头 102
抱抱 102
指尖 102
捏 102
摄 102
料@@ 102
新春 102
梦游 102
汽修 102
油箱 102
烘干机 102
焕肤 102
爱上 102
爱恋 102
瓜子 102
男朋友 102
百合 102
益@@ 102
直升机 102
礼品盒 102
纸尿裤 102
绳子 102
脚底 102
菜瓜 102
蒸笼 102
衬 102
褥子 102
警察 102
计@@ 102
谜 102
赫 102
迪奥@@ 102
遮阳板 102
酱油 102
钱@@ 102
长卷 102
长短 102
风云 102
饵@@ 102
麦片 102
＆ 102
,@@ 101
2l 101
608 101
6mm 101
888 101
\\\ 101
abc 101
cuxi 101
max90 101
may@@ 101
q-@@ 101
s- 101
shu 101
sugar 101
up@@ 101
wen 101
x4 101
xt 101
休息 101
公鸡 101
军规 101
制作人 101
单排扣 101
卡) 101
宇@@ 101
宝剑 101
小香 101
开店 101
影视 101
政@@ 101
无双 101
束缚 101
桐 101
汤姆 101
灯座 101
照明灯 101
牛肉 101
玉a 101
画笔 101
盆景 101
真爱 101
睫@@ 101
第六 101
膝盖 101
自在 101
自带 101
芥末 101
荷花 101
贝亲 101
货铺 101
贵族 101
进击 101
邮寄 101
铁灰 101
阴蒂 101
阶 101
＃@@ 101
-45 100
211@@ 100
30/@@ 100
330@@ 100
:: 100
ani@@ 100
cm/@@ 100
cream 100
free@@ 100
ga-@@ 100
intel 100
iphone6/@@ 100
ky@@ 100
maybelline 100
mon 100
s2 100
s8@@ 100
t/ 100
tour 100
whoo 100
wish 100
亭 100
休眠 100
做@@ 100
六色 100
出清@@ 100
刘@@ 100
前卫 100
友@@ 100
启 100
堆 100
声波 100
壹湾 100
外置 100
夫人 100
女朋友 100
嫁 100
嫩白 100
小心 100
工具车 100
席子 100
库@@ 100
弦@@ 100
形状 100
心情 100
息 100
想@@ 100
戴尔 100
抽@@ 100
推车 100
暴@@ 100
杨@@ 100
杰克 100
案 100
桦 100
椅套 100
橘红 100
欢 100
欣欣 100
沉@@ 100
泛 100
浅蓝色 100
湾 100
炫酷 100
生产 100
电子琴 100
皮具 100
种@@ 100
系列) 100
翻斗 100
茵 100
菠萝 100
营@@ 100
蔓越莓 100
薄型 100
螨@@ 100
豆子 100
银河 100
风大 100
香菇 100
(内 99
ang 99
black@@ 99
cho@@ 99
cn@@ 99
fx@@ 99
ling 99
mer@@ 99
mimi 99
p30 99
pet@@ 99
pop@@ 99
por@@ 99
racing 99
realme 99
select 99
tea 99
trainer 99
wr@@ 99
xb@@ 99
→@@ 99
件@@ 99
全新@@ 99
初秋 99
加湿 99
单字 99
双重 99
命运 99
四月 99
园林 99
奖杯 99
奶器 99
小鞋 99
新书 99
最低 99
木炭 99
朵@@ 99
栗 99
水泵 99
洛克 99
流量 99
测验 99
父亲节 99
番茄 99
祈福 99
童袜 99
羊肉 99
船@@ 99
越野车 99
适配器 99
钢珠 99
闪闪 99
鞋内 99
鲑鱼 99
#4@@ 98
(a@@ 98
-6 98
213@@ 98
ali@@ 98
br 98
che@@ 98
civic 98
element 98
fs@@ 98
hb@@ 98
jet 98
re: 98
rock 98
sr 98
丝质 98
五月 98
京@@ 98
人形 98
儿童@@ 98
八角 98
再@@ 98
创作 98
前置 98
加温 98
卖场) 98
周年庆 98
和平 98
咖啡@@ 98
固体 98
坠饰 98
堂@@ 98
娟 98
宾馆 98
巡 98
弗@@ 98
得标 98
暴龙 98
机场 98
杂@@ 98
榨汁 98
正规 98
步机 98
毛领 98
洗澡盆 98
浴帘 98
液压 98
源@@ 98
炼@@ 98
留@@ 98
短发 98
笔芯 98
笛 98
籽@@ 98
纸杯 98
绵羊 98
编@@ 98
舍@@ 98
艺品 98
芬@@ 98
芭 98
范冰冰 98
蜂胶 98
蜘蛛侠 98
裁剪 98
裸妆 98
触感 98
说@@ 98
起来 98
超级@@ 98
链@@ 98
防静电 98
雪靴 98
馅 98
香料 98
(4@@ 97
131 97
1kg 97
25mm 97
370@@ 97
b4@@ 97
dr 97
hu 97
j.@@ 97
kh@@ 97
life@@ 97
m2@@ 97
out 97
taiwan 97
tm@@ 97
u11 97
xbox 97
zu@@ 97
上下 97
不二 97
仁@@ 97
代买 97
北极熊 97
单孔 97
发声 97
名款 97
吹@@ 97
响@@ 97
坚 97
大圆 97
孕@@ 97
孙悟空 97
寿@@ 97
应急 97
慈@@ 97
懂 97
拍拍 97
摄像机 97
救援 97
敬酒 97
新疆 97
春节 97
束带 97
杠@@ 97
板式 97
每@@ 97
水上 97
汪 97
沁 97
沃@@ 97
法器 97
深度 97
添 97
温度计 97
熨烫 97
环绕 97
琴@@ 97
研究 97
穿戴 97
织@@ 97
美体 97
翻译 97
耐穿 97
苦 97
跳台 97
车模 97
这样 97
逍遥 97
逢 97
避光 97
邪 97
马戏团 97
魔王 97
黄水晶 97
(5@@ 96
(6@@ 96
(s) 96
(特价 96
-s@@ 96
1-0@@ 96
1300 96
1s 96
410 96
430 96
530@@ 96
5l 96
[@@ 96
a2 96
cdg 96
der 96
des 96
fc@@ 96
hang 96
kd@@ 96
lenovo 96
moon 96
ox 96
playboy 96
po 96
pvc@@ 96
ren@@ 96
series 96
show 96
v/@@ 96
刻版 96
勤 96
勾@@ 96
卡车 96
喇叭裤 96
坐椅 96
大力 96
套组 96
宗 96
层@@ 96
张) 96
打印 96
支) 96
放松 96
敏@@ 96
文件夹 96
日语 96
曼谷 96
毅 96
清洁器 96
滑步 96
濑@@ 96
牙签 96
牵 96
珠珠 96
琪琪 96
甘@@ 96
留言板 96
瘦@@ 96
矫正器 96
确认 96
祖@@ 96
程@@ 96
舰队 96
菌@@ 96
螺@@ 96
行者 96
覆盖 96
谁 96
输 96
适@@ 96
金属@@ 96
长巾 96
雾@@ 96
风镜 96
香膏 96
髪@@ 96
龟@@ 96
(0@@ 95
(h@@ 95
(m) 95
1g 95
2010 95
203 95
305 95
50/@@ 95
5吋 95
9.7 95
]: 95
amy 95
bear@@ 95
christian 95
coco@@ 95
com@@ 95
dream@@ 95
g.@@ 95
gtx@@ 95
kiehl's 95
ni 95
rav4 95
s3 95
sf 95
sk 95
touch 95
xr1 95
仙子 95
伞@@ 95
凉垫 95
午餐 95
卡带 95
土豆 95
大厅 95
太太 95
套套 95
宾@@ 95
寺 95
小咪 95
广@@ 95
心理学 95
思思 95
意威 95
戒子 95
战国 95
朋克 95
机) 95
束腰 95
柑橘 95
泡菜 95
洗衣 95
海钓 95
消防 95
滋 95
满满 95
炭 95
电锯 95
积 95
竹编 95
等@@ 95
紧@@ 95
纪@@ 95
胖@@ 95
胸花 95
致@@ 95
蛮 95
裙裤 95
高阶 95
黛@@ 95
鼓@@ 95
() 94
(黑色 94
-03 94
.1 94
230@@ 94
310 94
420 94
5mm 94
6s/@@ 94
70g 94
990@@ 94
are 94
basic 94
camry 94
dw@@ 94
head 94
i7@@ 94
jack 94
kg@@ 94
miumiu 94
mm*@@ 94
ph 94
s7@@ 94
toshiba 94
为@@ 94
倩 94
储水 94
克星 94
公寓 94
写@@ 94
凤@@ 94
压克力 94
可口可乐 94
吊挂 94
后座 94
嘉班纳 94
地漏 94
垂钓 94
够 94
天蓝 94
头带 94
妙@@ 94
婴幼 94
寒 94
屈 94
手霜 94
投资 94
拼@@ 94
无人机 94
日用品 94
桌球 94
棉花 94
水笔 94
泳帽 94
洗脚 94
清香 94
烘干 94
甲虫 94
皮箱 94
碳粉匣 94
窗纱 94
站@@ 94
签字笔 94
粘@@ 94
系小 94
缝纫机 94
罗纹 94
肩@@ 94
脚趾 94
腊 94
草机 94
葡萄酒 94
蒸@@ 94
蚊香 94
蛇头 94
褶 94
赏@@ 94
超级英雄 94
跟@@ 94
车轮 94
遗@@ 94
韩流 94
#爆款 93
(50 93
-a@@ 93
1/6 93
108@@ 93
10mm 93
122 93
169 93
20吋 93
210@@ 93
270@@ 93
850 93
9月 93
bon 93
bre@@ 93
jr 93
king@@ 93
ky 93
lovelive 93
vit@@ 93
wl@@ 93
xi@@ 93
乌克丽丽 93
伍 93
凹凸 93
医用 93
发簪 93
喜庆 93
坦克 93
头绳 93
宗@@ 93
宫@@ 93
年货 93
底盘 93
扩音器 93
按摩@@ 93
挑@@ 93
揹巾 93
搞笑 93
摔壳 93
敲 93
新型 93
景德镇 93
栏杆 93
洲 93
涡轮 93
演奏 93
潜航 93
火辣 93
烟斗 93
猿人 93
玛丽 93
理疗 93
瑕膏 93
直立 93
粉彩 93
线圈 93
缺货 93
背面 93
脚凳 93
芭蕾 93
袋鼠 93
西裤 93
触@@ 93
许@@ 93
运动表 93
造形 93
酸奶 93
针织@@ 93
锐步 93
间@@ 93
鱿鱼 93
(粉 92
.0 92
1000@@ 92
121 92
28cm 92
310@@ 92
35-39 92
599 92
60g 92
844@@ 92
8cm 92
:@@ 92
basket 92
birkin 92
con 92
earth 92
kai@@ 92
lunar 92
m1 92
sisley 92
squishy 92
too 92
t短t 92
vc 92
wd@@ 92
we 92
zoo 92
イ@@ 92
介 92
传动 92
伯爵 92
但 92
值得 92
包保 92
午后 92
卢 92
卷发器 92
吋/@@ 92
器具 92
域 92
大家 92
小品 92
屁屁 92
层板 92
工房 92
广告牌 92
怪物 92
挂帘 92
搁板 92
放置 92
教练 92
无声 92
杀) 92
校服 92
正式 92
水电 92
沃 92
波希米亚 92
浪@@ 92
照相机 92
燕窝 92
爷 92
玉髓 92
电焊 92
疏通 92
码数 92
磨牙 92
老鹰 92
脖围 92
花圈 92
落地镜 92
蓁 92
言情小说 92
费雪 92
辅助器 92
辐射 92
进阶 92
降@@ 92
除螨 92
预售 92
飞翔 92
饮品 92
饱 92
骨头 92
麻布 92
黑暗 92
*10 91
-40 91
152 91
2015年 91
214@@ 91
2色 91
a30 91
adidas/ 91
and@@ 91
a字裙 91
df@@ 91
dxf 91
hi-@@ 91
junior 91
lisa 91
m-xxl码 91
mc 91
open 91
power@@ 91
r.@@ 91
sharp 91
t3／ 91
turbo 91
um 91
war@@ 91
wellington 91
woven 91
xdr 91
xr@@ 91
zen@@ 91
zip 91
专科 91
丹麦 91
为止 91
乐团 91
书局 91
人工 91
佳丽 91
俗 91
免@@ 91
别@@ 91
古巴 91
君@@ 91
咖啡店 91
地垫 91
垢 91
基地 91
夏新 91
年代 91
开拓者 91
怪@@ 91
效期 91
新鲜货 91
旺@@ 91
橱 91
死@@ 91
毛毛虫 91
油污 91
浮标 91
灶台 91
焊接 91
焦点 91
究 91
缘子 91
耗材 91
葱@@ 91
蜂 91
贴耳 91
路易 91
通道 91
部分 91
靶 91
食指 91
(约 90
/3 90
1-4 90
880@@ 90
adi@@ 90
b. 90
df 90
dz@@ 90
lb@@ 90
mama 90
mp 90
sup 90
ugg 90
women 90
zero@@ 90
カ@@ 90
一番 90
中秋 90
伪 90
光盘 90
兽@@ 90
卡夹 90
卡钳 90
告白 90
啾啾 90
喜帖 90
嘟嘟 90
器) 90
国产 90
堤 90
备@@ 90
娱乐 90
孕 90
宽裤 90
小学 90
小金 90
拆) 90
捷@@ 90
斜@@ 90
春日 90
普普 90
机动 90
枕@@ 90
柚@@ 90
查 90
栖 90
毫升 90
汤勺 90
火箭 90
狂@@ 90
玻璃门 90
画框 90
痘印 90
穗 90
粉碎机 90
素食 90
罪 90
肥皂盒 90
胃 90
英文版 90
营业 90
蔡依林 90
袖子 90
译 90
距 90
金钢 90
锁@@ 90
镜架 90
露脐 90
风尚 90
鲜花 90
#-no.t1 89
(中) 89
.2 89
2- 89
2b 89
3ds 89
3mm 89
603 89
cam@@ 89
english 89
fun@@ 89
l.@@ 89
mina 89
nana 89
ne 89
np-@@ 89
o-@@ 89
rc@@ 89
subaru 89
vita 89
wn@@ 89
不倒翁 89
做工 89
分子 89
动感 89
势 89
半截 89
单手 89
厚实 89
口腔 89
和风 89
哑 89
喜宴 89
圣经 89
坐@@ 89
声音 89
如约 89
婴@@ 89
宝缇 89
应@@ 89
弟 89
技@@ 89
拆装 89
拟 89
操 89
散@@ 89
无损 89
显白 89
核@@ 89
棘轮 89
水平仪 89
江@@ 89
海尔 89
淘宝 89
渗透 89
湿@@ 89
炒菜 89
点烟器 89
热售 89
瓷器 89
盘香 89
砂@@ 89
簿 89
结构 89
绞肉机 89
背光 89
脉 89
脚蹬 89
航拍 89
若@@ 89
蒂芙尼 89
蓉 89
被单 89
谭 89
迪士尼乐园 89
釉@@ 89
铁人 89
锥@@ 89
防腐 89
雀 89
雷神 89
&no.t1 88
(l) 88
1.5@@ 88
124 88
1800 88
19-@@ 88
502 88
candy 88
chan@@ 88
e27 88
falcon 88
fm@@ 88
fujifilm 88
key 88
lancome兰蔻 88
leboy 88
m6 88
night 88
nmd_r1 88
race 88
size@@ 88
slide 88
soft 88
soul 88
tg@@ 88
ton@@ 88
tree 88
wild 88
xa 88
优惠@@ 88
伤@@ 88
内衣裤 88
列印 88
卡拉 88
双排 88
发油 88
可选) 88
吊顶 88
国王 88
坛 88
大礼包 88
室@@ 88
小桌 88
川久保玲 88
幻影 88
延@@ 88
开岔 88
往 88
把@@ 88
改造 88
效能 88
晾晒 88
样式 88
汪汪 88
波兰 88
海蓝 88
漆@@ 88
点烟 88
画架 88
皮靴 88
磁石 88
秋衣 88
竹子 88
简体 88
经络 88
背部 88
蜥蜴 88
贝尔 88
超重 88
车业 88
钛合金 88
钳子 88
铝框 88
锥 88
雪人 88
饭团 88
魅惑 88
鲁夫@@ 88
.5@@ 87
/2 87
137 87
1600 87
2ml 87
325 87
36mm 87
801 87
american 87
apple@@ 87
cas@@ 87
chen@@ 87
edp 87
fila斐 87
flex 87
flight 87
g家 87
i6s 87
ios 87
kk@@ 87
ld 87
montblanc万 87
oi@@ 87
ten 87
x9 87
东芝 87
乐天 87
俏丽 87
关公 87
关键 87
古铜色 87
可调整 87
善@@ 87
奇幻 87
姿@@ 87
婴 87
宅@@ 87
寒@@ 87
小百货 87
岸 87
帝国 87
帽檐 87
弧形 87
影像 87
恋@@ 87
振 87
揉 87
施华 87
显@@ 87
晶晶 87
样板 87
梯形 87
橡皮筋 87
淡水 87
滴@@ 87
璇 87
瓷碗 87
用带 87
管家 87
紧身衣 87
罐) 87
胜利 87
萌@@ 87
表皮 87
装小 87
裴 87
话@@ 87
语言 87
调教 87
豆沙 87
身高 87
车库 87
输入 87
运动型 87
铁制 87
鞋#@@ 87
颗) 87
颜@@ 87
飞轮 87
高山 87
#免 86
(保留) 86
(白色) 86
-p@@ 86
.... 86
/1 86
161 86
302 86
4000 86
4l 86
901 86
age 86
diy@@ 86
f7@@ 86
fa 86
hc@@ 86
hydro 86
kiehl's契尔氏 86
look 86
m0@@ 86
note4 86
otg 86
pad 86
pocket 86
polo衫@@ 86
rihanna 86
room 86
tp@@ 86
wood 86
ysl包包 86
と@@ 86
三轮 86
主义 86
主管 86
仔店 86
会计学 86
北美 86
卫@@ 86
吃@@ 86
吊绳 86
启@@ 86
哈士奇 86
固态 86
图鉴 86
填充 86
奶昔 86
孝 86
屁衣@@ 86
平台 86
序号 86
强磁 86
徽 86
态 86
手幅 86
打蛋器 86
折屏 86
按摩棒 86
摘 86
收口 86
政 86
救@@ 86
日光 86
旺旺 86
朝@@ 86
杆@@ 86
枝@@ 86
柜边 86
树枝 86
棋盘 86
植萃 86
水族箱 86
水柜 86
水蜜桃 86
海底 86
淇 86
爱迪生 86
狗狗 86
现在 86
生长 86
盖板 86
立牌 86
章@@ 86
粉丝 86
粉刷 86
红猪 86
绿水 86
肯@@ 86
胡须 86
臭@@ 86
芝 86
菩萨 86
覆 86
议价) 86
象@@ 86
足部 86
蹲 86
车儿 86
门票 86
难 86
霞 86
鸡翅 86
鼠@@ 86
鼠标垫 86
ｍ@@ 86
(女) 85
(红 85
(黄 85
127 85
133 85
18650 85
22cm 85
25g 85
2月 85
316l 85
40g 85
420@@ 85
6.0 85
6cm 85
apm 85
art@@ 85
a款 85
chu 85
der@@ 85
eh@@ 85
em 85
fe 85
google 85
i11 85
j7@@ 85
jordan@@ 85
ken@@ 85
koso 85
moncler 85
natural 85
nylon 85
psv 85
w) 85
√ 85
ラ@@ 85
一卡通 85
不凋花 85
云端 85
人员 85
便盆 85
倩碧 85
凝@@ 85
出行 85
刺客 85
勾勾 85
印表机 85
卷纸 85
圆弧 85
复活节 85
宗教 85
寄送 85
对开 85
床笠 85
推拉门 85
故 85
朵朵 85
枫叶 85
柱@@ 85
梨子 85
气氛 85
洋芋 85
爬@@ 85
片式 85
猫爪 85
珍藏版 85
病@@ 85
短上衣 85
礼帽 85
纪念@@ 85
绣@@ 85
胆 85
脚链 85
腹带 85
英式 85
草写 85
蜜糖 85
赛斯@@ 85
选物 85
造@@ 85
阻@@ 85
限时.特价 85
非洲 85
项链@@ 85
预约 85
食器 85
(8@@ 84
-101 84
-l@@ 84
116@@ 84
129 84
154 84
2.7 84
315@@ 84
526@@ 84
528@@ 84
all@@ 84
ami@@ 84
ann 84
bp@@ 84
cle@@ 84
cy 84
f.@@ 84
gm@@ 84
hardy 84
irving 84
issey 84
ita 84
lily 84
m5 84
m9@@ 84
p1 84
pm2.5 84
pri@@ 84
tiffany& 84
z1 84
zb@@ 84
ㄧ 84
一定 84
与@@ 84
乌龙 84
亮眼 84
任何 84
佑@@ 84
保健品 84
制冰 84
十二生肖 84
卫星 84
厚度 84
古筝 84
只为 84
呵护 84
品の 84
外观 84
婚宴 84
孔@@ 84
定价: 84
幼犬 84
底板 84
心理 84
扇形 84
拐杖 84
提手 84
擦@@ 84
教程 84
栓 84
桂花 84
榉木 84
牛油 84
程式 84
粉橘 84
约@@ 84
耶诞节 84
肤乳 84
芳@@ 84
茶花 84
蒸锅 84
虚拟 84
蜂窝 84
见@@ 84
贞 84
贵@@ 84
费@@ 84
起泡 84
跃 84
针管 84
钢制 84
铃@@ 84
阅 84
雾化 84
音效 84
鸭嘴 84
(20 83
(60 83
(请 83
(高 83
1/2@@ 83
115@@ 83
12mm 83
153 83
188 83
2017@@ 83
204 83
20mm 83
235 83
25/@@ 83
414@@ 83
44mm 83
490@@ 83
680@@ 83
819@@ 83
8吋 83
a&@@ 83
apieu 83
ar24@@ 83
ar5@@ 83
bee 83
dl@@ 83
dn@@ 83
easy 83
ez 83
fv@@ 83
ga-100 83
ia 83
jh@@ 83
jy@@ 83
ker@@ 83
l'occitane 83
m10 83
make 83
mal@@ 83
ob@@ 83
oil 83
pd@@ 83
sg@@ 83
t) 83
x9@@ 83
专案 83
临时 83
买卖 83
低温 83
关于 83
刺@@ 83
包/@@ 83
卡/@@ 83
原理 83
向@@ 83
嗨 83
夜市 83
夹) 83
子实 83
学t 83
安德森 83
帘布 83
拱 83
救星 83
文豪 83
斗士 83
木腿 83
朱@@ 83
柴@@ 83
段式 83
民俗 83
沙漠 83
沛纳海 83
泫雅 83
活肤 83
浓@@ 83
狐@@ 83
璐 83
甄 83
电暖器 83
电热水壶 83
男外套 83
皮卡 83
皮纹 83
盖) 83
筋膜 83
级@@ 83
纪录器 83
罗宾 83
翻转 83
背心@@ 83
臣 83
花样 83
苍@@ 83
茂 83
谦 83
贵人 83
还有 83
钛晶 83
镇@@ 83
阶@@ 83
驾 83
黑格 83
(原价 82
11.@@ 82
126@@ 82
15cm 82
2000@@ 82
206 82
2xl 82
3-4 82
30*@@ 82
680 82
699 82
6splus 82
ah 82
android 82
cx@@ 82
ei@@ 82
fre@@ 82
iphone7plus 82
jd 82
jdi 82
len@@ 82
longines 82
mil@@ 82
nm 82
over@@ 82
pen@@ 82
re-ment 82
rr 82
ste@@ 82
t5／ 82
tra@@ 82
vw 82
z5 82
ღ 82
か@@ 82
ル@@ 82
上网 82
丛林 82
书: 82
优生 82
内装 82
军刀 82
单一 82
发现 82
右@@ 82
听@@ 82
吸血鬼 82
哲 82
喔) 82
圆饼 82
士兵 82
复习 82
好评 82
如何 82
存@@ 82
守@@ 82
宝龙 82
布套 82
庙 82
引 82
惊@@ 82
戳 82
打击 82
护耳 82
拌 82
控@@ 82
斐乐 82
时尚@@ 82
木瓜 82
机顶盒 82
柚木 82
没@@ 82
润色 82
烘 82
牛轧糖 82
瓜@@ 82
眼唇 82
矿@@ 82
砂纸 82
稀@@ 82
线组 82
绘图 82
缝纫 82
联合 82
自黏 82
萃取 82
蝇 82
货号: 82
起坐 82
踏板车 82
踝靴 82
避邪 82
防护栏 82
陆@@ 82
预购@@ 82
麦饭石 82
黑檀 82
龙婆 82
/adidas 81
0.9 81
050@@ 81
1.4 81
1/100 81
1/64 81
144 81
15g 81
2.5d 81
2019@@ 81
235@@ 81
24-@@ 81
35-44 81
4mm 81
610 81
7/8plus 81
950 81
950@@ 81
997 81
aq 81
avent 81
bag@@ 81
bal@@ 81
bar 81
baseus 81
bio@@ 81
dai@@ 81
dji 81
ele@@ 81
h.@@ 81
ink 81
io@@ 81
jd@@ 81
like 81
miyake 81
p.@@ 81
q10 81
rog 81
silver 81
t4／ 81
tc@@ 81
td@@ 81
t短袖 81
ハ@@ 81
下杀@@ 81
业@@ 81
丽塔 81
信箱 81
冲绳 81
出) 81
刊 81
列@@ 81
刮刀 81
吴@@ 81
命@@ 81
商行 81
啊 81
喝水 81
国内 81
奥地利 81
威力 81
小樱 81
屁@@ 81
师傅 81
延时 81
强度 81
惊 81
技嘉 81
捆绑 81
操作 81
整人 81
晏 81
果树 81
模仿 81
正品) 81
沙发巾 81
海螺 81
淋雨 81
热带 81
焕@@ 81
燃 81
物流 81
甘菊 81
盾牌 81
硬盘 81
福音 81
箭头 81
精粹 81
绞@@ 81
统@@ 81
肤水 81
胀气 81
胜@@ 81
脱色 81
腿部 81
艳@@ 81
花王 81
苑 81
荒野 81
莉玫 81
表壳 81
装置 81
评@@ 81
豆浆机 81
贴纸@@ 81
赔本 81
跨年 81
车厢 81
酒壶 81
酱料 81
金冠 81
铁三角 81
高音 81
魔道 81
鱼鳞 81
齐@@ 81
-12 80
20ss 80
3l 80
50-@@ 80
510 80
^^ 80
air2 80
belt 80
bf@@ 80
bm@@ 80
card 80
cv@@ 80
got7 80
lala 80
lbj 80
lux 80
order 80
poli 80
real 80
ry@@ 80
the@@ 80
tor@@ 80
wings 80
y.@@ 80
三通 80
三重 80
主打 80
事务 80
二色 80
京都 80
侦探 80
保障 80
信号 80
修剪 80
入/@@ 80
兵器 80
冲泡 80
副乳 80
动人 80
劲@@ 80
区@@ 80
压壳 80
发射器 80
发酵 80
叔叔 80
地瓜 80
天地 80
婉 80
小包 80
屎 80
工业级 80
弓形 80
彤 80
御@@ 80
恤 80
收集 80
教益 80
新郎 80
无盖 80
本命年 80
村@@ 80
柒@@ 80
椒 80
水墨 80
水溶性 80
泰迪 80
流星 80
深色 80
混@@ 80
滑液 80
点数 80
燕@@ 80
球裤 80
瘦小 80
瘾 80
眉毛 80
矿石 80
码) 80
红花 80
纪录 80
肌粹 80
脖 80
臭氧 80
花蕾 80
觉醒 80
试衣间 80
询价 80
远投 80
迪奥 80
钢板 80
门铃 80
集线器 80
霖 80
马来西亚 80
10g 79
171 79
198 79
212 79
225 79
23.5 79
2mm 79
3/ 79
40-@@ 79
6/6s 79
717@@ 79
917@@ 79
bikini 79
canmake 79
cb 79
den 79
ef 79
eos 79
g. 79
g1 79
h0@@ 79
ino 79
jm 79
lock 79
low@@ 79
lp 79
mam@@ 79
n.@@ 79
od@@ 79
oem 79
rv 79
w.@@ 79
ws 79
z3 79
ze 79
zz 79
丝棉 79
书橱 79
休闲服 79
倪 79
停 79
先锋 79
兵@@ 79
凸@@ 79
包装) 79
参@@ 79
古代 79
名产 79
嘴@@ 79
嚼 79
地面 79
坡 79
堵 79
壮 79
夜场 79
天气 79
妖 79
小可 79
巷 79
怡@@ 79
感谢 79
抚 79
故障 79
文玩 79
明子 79
显瘦 79
止@@ 79
汁@@ 79
泼 79
溅 79
演@@ 79
灯架 79
灰尘 79
烫@@ 79
爆炸 79
玉镯 79
环境 79
生理 79
电冰箱 79
疏油 79
白钢 79
盗 79
睡裤 79
破损 79
碱 79
秋天 79
童女 79
箱) 79
绑@@ 79
膝上 79
艺术品 79
芳香剂 79
苦@@ 79
茹 79
荷@@ 79
裤) 79
记@@ 79
读书 79
轮毂 79
辛巴 79
钢化膜 79
闵 79
音乐@@ 79
飞碟 79
骚@@ 79
鸟巢 79
鼻子 79
龙泉 79
(只 78
(赠 78
..@@ 78
/6 78
12月 78
14cm 78
166 78
1m 78
20-@@ 78
20年 78
38-45 78
3t 78
4t 78
678 78
9789864@@ 78
bigbang 78
brother 78
cap@@ 78
crew 78
dr.wu 78
duo 78
dvd) 78
ers 78
eu@@ 78
flower 78
gc@@ 78
jin 78
john 78
k1 78
kai 78
kn@@ 78
kolin 78
miss@@ 78
mor@@ 78
note9 78
p20 78
pa+++ 78
project 78
republic 78
rm 78
sel@@ 78
sv@@ 78
un 78
works 78
xz 78
y) 78
⃣@@ 78
乔迁 78
二用 78
做饭 78
凡赛斯 78
划@@ 78
初中生 78
压机 78
原价$@@ 78
吨 78
封闭 78
开孔 78
抓绒 78
捏捏 78
搁 78
映 78
晒@@ 78
晚@@ 78
植绒 78
欲 78
毛发 78
池@@ 78
油箱盖 78
浇花 78
爬爬 78
爵 78
版大 78
电棒 78
町 78
票夹 78
线衣 78
练功 78
网袋 78
美观 78
花布 78
苹果x 78
蒂芬妮 78
蓝蓝 78
螨虫 78
蟹@@ 78
裙装 78
裤衩 78
裱 78
谢@@ 78
足银 78
车窗 78
辟邪 78
迷你型 78
邮局 78
醋 78
银灰 78
陀 78
陪护 78
隔@@ 78
集合 78
香气 78
高倍 78
鱼子 78
**@@ 77
1400 77
199@@ 77
23cm 77
314@@ 77
3500 77
60-@@ 77
6m 77
805 77
850@@ 77
aw 77
carbon 77
color@@ 77
elle 77
first 77
fresh 77
g0@@ 77
garmin 77
hademu 77
hyper@@ 77
idolish7 77
jogger 77
oc@@ 77
sea 77
seed 77
special 77
tokyo 77
uemura 77
vi 77
walk 77
wallet 77
wireless 77
乐高 77
九折 77
亚曼尼 77
众@@ 77
会计 77
典@@ 77
医院 77
半帘 77
协@@ 77
咖啡馆 77
啰 77
喉 77
固定器 77
圣物 77
墙体 77
小床 77
招牌 77
捷克 77
摔@@ 77
日本语 77
桶@@ 77
毒@@ 77
民国 77
洽询 77
清晰 77
灰) 77
熬 77
牛筋 77
特典 77
电流 77
画集 77
磨砂皮 77
糕点 77
绒卫衣 77
绒毯 77
罩@@ 77
群@@ 77
老佛爷 77
腿@@ 77
膝 77
自来水 77
落地扇 77
蒜 77
行李袋 77
装水 77
轻跑 77
退@@ 77
钢木 77
钨钢 77
银耳 77
键@@ 77
阿迪 77
马蹄 77
黏贴 77
黑人 77
黑子 77
(k@@ 76
(多 76
(路易威登) 76
14k 76
156 76
185 76
325@@ 76
366@@ 76
3cm 76
3吋 76
400g 76
405 76
51@@ 76
580@@ 76
6000 76
a73 76
alo@@ 76
bas@@ 76
cm*@@ 76
cos@@ 76
crocs 76
hid 76
hr@@ 76
kr@@ 76
m-4xl 76
max/@@ 76
muse 76
music 76
n4@@ 76
n\n 76
nine 76
pw@@ 76
qq@@ 76
ra 76
sm-@@ 76
ster 76
tc 76
tfboys 76
toy@@ 76
tx 76
typec 76
victoria's 76
〃 76
し@@ 76
ル 76
丝边 76
五行 76
佛堂 76
便签 76
偏@@ 76
军靴 76
刷白 76
剪发 76
十月 76
半盔 76
单杠 76
卡通@@ 76
后跟 76
味道 76
噗@@ 76
图) 76
大黄蜂 76
妖精 76
嫩@@ 76
实验室 76
尿@@ 76
岛@@ 76
布帘 76
彰化 76
影印 76
情绪 76
扇@@ 76
手珠 76
扫把 76
拉伸 76
拔@@ 76
推拿 76
揹@@ 76
收藏品 76
施@@ 76
日志 76
日记本 76
时空 76
来袭 76
栽 76
求@@ 76
洗碗池 76
活塞 76
海藻 76
消毒器 76
物盒 76
特价@@ 76
玻璃罩 76
珍珠@@ 76
疏水 76
百褶 76
知道 76
空中 76
窝@@ 76
糖果盒 76
红外 76
结缘 76
翁 76
股东会 76
腰围 76
自学 76
英吋 76
菩提 76
葡 76
虹 76
表白 76
衫m-3xl 76
讲@@ 76
货款 76
选购 76
邓 76
防水表 76
音波 76
高亮 76
麝香 76
(红) 75
(金 75
1.8@@ 75
105@@ 75
12.5 75
2016@@ 75
2way 75
316@@ 75
340@@ 75
aqua 75
bs@@ 75
d&g 75
d3@@ 75
essence 75
golden 75
ju 75
kevin 75
lc@@ 75
m3@@ 75
mamaway 75
n6@@ 75
ong 75
pigeon 75
sen@@ 75
sky@@ 75
stone 75
sunny 75
tv@@ 75
vii 75
wy 75
キ@@ 75
ク@@ 75
コ@@ 75
中老年人 75
今年 75
伶 75
住宿 75
你@@ 75
佬 75
僵尸 75
克罗心 75
准@@ 75
出货@@ 75
动手 75
卖) 75
双层床 75
双边 75
发票) 75
壁@@ 75
声道 75
外墙 75
外带 75
妹@@ 75
宾 75
寝具 75
小布 75
尽 75
带头 75
弹弓 75
律 75
我& 75
手书) 75
扎@@ 75
打气筒 75
招@@ 75
振兴 75
昕 75
木门 75
桔@@ 75
桶装 75
梦梦 75
棍@@ 75
欢@@ 75
毒液 75
比亚 75
氛围 75
氟 75
水果刀 75
治@@ 75
注音 75
洽 75
浓香 75
深灰色 75
清风 75
滑行 75
热水瓶 75
燃脂 75
特效 75
玻@@ 75
电信 75
电饭煲 75
砂锅 75
碳粉 75
聚合物 75
艾斯@@ 75
葳 75
蓝莓 75
薇@@ 75
虾米 75
衣帽间 75
观@@ 75
资@@ 75
蹦迪 75
蹭 75
速食 75
铆 75
铝制 75
门牌 75
雄狮 75
雨披 75
鲫鱼 75
＃ 75
#6@@ 74
(e@@ 74
(s@@ 74
-05 74
1# 74
1/4 74
139 74
146 74
18v 74
2.4g 74
2014年 74
25cm 74
403 74
6l 74
704 74
911 74
aux 74
bor@@ 74
bwsr 74
c) 74
creuset 74
dior@@ 74
dk@@ 74
dog 74
don@@ 74
fish 74
gr 74
i5-@@ 74
ji 74
kl@@ 74
mio 74
nk 74
nt@@ 74
ou 74
perfect 74
pk@@ 74
psp 74
ring 74
tsu@@ 74
urban 74
v3 74
v8 74
vs@@ 74
zr@@ 74
一流 74
不晕 74
中央 74
乌龙茶 74
书写 74
今天 74
付@@ 74
佑 74
储蓄罐 74
八音盒 74
划算 74
初级 74
包被 74
包退 74
华伦天奴 74
卷轴 74
变色龙 74
喷壶 74
四脚 74
奶锅 74
小腿 74
小资 74
帕 74
度@@ 74
开封 74
思考 74
截 74
手工@@ 74
扭蛋 74
护身符 74
挂牌 74
指南 74
挖@@ 74
排气 74
推理 74
文法 74
方法 74
明治 74
果实 74
橙色 74
水星 74
求生 74
混纺 74
滚@@ 74
漏斗 74
灸@@ 74
烟熏 74
电波 74
电灯 74
电熨斗 74
画眉 74
痘痘 74
百元 74
租 74
笠@@ 74
绗缝 74
编着 74
聚@@ 74
腹肌 74
自动伞 74
范@@ 74
薄棉 74
蜻蜓 74
血压 74
裸靴 74
评 74
资源 74
赠@@ 74
车壳 74
车顶 74
辞典 74
遮脸 74
铃木 74
门槛 74
闲 74
防止 74
防磨 74
霸@@ 74
面碗 74
高田 74
鹰@@ 74
(r@@ 73
(古 73
(正 73
(限时 73
-9@@ 73
/4 73
0.3 73
107@@ 73
151 73
2.2 73
208 73
222 73
365@@ 73
540@@ 73
5m 73
6.1 73
604 73
708 73
80-@@ 73
810 73
a50 73
a级 73
bosch 73
del@@ 73
dm 73
eyes 73
furylite 73
goo@@ 73
hui 73
iphone7@@ 73
jump 73
keyway 73
lb 73
ld@@ 73
light@@ 73
lx@@ 73
mega 73
model 73
oh 73
oh@@ 73
ot@@ 73
swift 73
team 73
uni 73
wu@@ 73
yang 73
不要 73
亮丽 73
会所 73
佩戴 73
保管 73
保鲜膜 73
免运# 73
免运@@ 73
凡@@ 73
击@@ 73
割破 73
半价 73
单板 73
吸吮 73
和服 73
咸蛋 73
哲@@ 73
垃圾筒 73
复制 73
头像 73
姑娘 73
娅 73
宝适 73
害 73
将军 73
小刀 73
床尾 73
床架 73
弯曲 73
录影 73
慢@@ 73
手) 73
技巧 73
掌上 73
斩 73
无极 73
旱冰鞋 73
杠 73
柯@@ 73
样@@ 73
梅子 73
正义 73
死神 73
沙拉 73
沙拉碗 73
烤架 73
热卖# 73
猫耳 73
瑄 73
瓷盘 73
白发 73
真皮@@ 73
算 73
绸缎 73
缠绕 73
罐子 73
网吧 73
羽毛球拍 73
花莲 73
蓝绿色 73
蚊子 73
蜜饯 73
蟑螂 73
规@@ 73
记事 73
路灯 73
转接器 73
迎@@ 73
迪卡侬 73
逗猫 73
链式 73
闷烧 73
阴茎 73
阶梯 73
雕@@ 73
雷根 73
餐券 73
鸣@@ 73
黑豆 73
｛@@ 73
----@@ 72
..... 72
1. 72
1050 72
135@@ 72
164 72
2t 72
327 72
39-44 72
50mm 72
8000 72
97898@@ 72
ada 72
ang@@ 72
bio 72
brand 72
c200 72
canvas 72
dragon 72
eau 72
hs 72
ite 72
jimmy 72
lu 72
mars 72
may 72
polo@@ 72
pt 72
r3 72
rac@@ 72
rose@@ 72
sy 72
vc@@ 72
ytl 72
不补 72
临摹 72
交流 72
亨 72
光圈 72
全职 72
冻膜 72
则 72
原文 72
发型师 72
唇膜 72
坠@@ 72
垫被 72
墙@@ 72
大妈 72
她 72
家用电脑 72
家饰 72
小小@@ 72
小方包 72
小猪 72
带扣 72
延 72
异色 72
心动 72
愤怒 72
所有 72
按扣 72
捷运 72
暴力 72
机台 72
校@@ 72
灭@@ 72
版小 72
牙线 72
琪@@ 72
瓢 72
瓶子 72
生锈 72
皮绳 72
真的 72
知识 72
砂轮 72
礼袋 72
紫砂壶 72
缓 72
罗斯 72
胸口 72
腊@@ 72
视讯 72
设定 72
车头 72
近@@ 72
迹 72
金鱼 72
锡@@ 72
长绒 72
防污 72
靓 72
饵 72
骆 72
鹿角 72
黑框 72
(t@@ 71
(预 71
-3 71
-5 71
13.3 71
132 71
136 71
15) 71
1b 71
2011 71
205@@ 71
236 71
30-@@ 71
404 71
504 71
555 71
6a 71
7ml 71
8x 71
ate 71
bonbon 71
chanel/ 71
charms 71
class 71
cool@@ 71
fan 71
fenty 71
gentle 71
grand 71
gymboree 71
han 71
iphone6@@ 71
kar@@ 71
kinyo 71
lcd 71
makita 71
metis 71
ob 71
palace 71
pei 71
ppsu 71
pretty 71
puzzle 71
saber 71
se2 71
ser@@ 71
street 71
t6／ 71
t9／ 71
t恤衫 71
vo 71
yy@@ 71
ᄋ@@ 71
き@@ 71
く@@ 71
な@@ 71
ト 71
于@@ 71
人机 71
光纤 71
农村 71
冰袋 71
创见 71
加州 71
半自动 71
吹风 71
品汇 71
售楼 71
增加 71
大钞 71
宁@@ 71
安妮 71
容器 71
屏东 71
岁@@ 71
康乃馨 71
微风 71
战场 71
扩大 71
护脊 71
抽真空 71
拜 71
指套 71
换季 71
救 71
智旻 71
暴 71
木桶 71
板材 71
检@@ 71
止汗 71
正反 71
毡 71
源氏 71
滋@@ 71
烟器 71
玩乐 71
球杆 71
瑶瑶 71
电烤箱 71
电量 71
痘 71
登场 71
百科 71
盅 71
盖毯 71
真实 71
碰 71
移动式 71
粒@@ 71
紧实 71
红心 71
缀 71
脚踝 71
腮 71
芭比 71
茶器 71
莱恩 71
蒲团 71
行军床 71
要@@ 71
讯号 71
请@@ 71
超弹性 71
达摩 71
遮@@ 71
金卡 71
锌 71
镖@@ 71
限定@@ 71
难@@ 71
颜色: 71
骏 71
鱼油 71
(l@@ 70
-011 70
1.3 70
120cm 70
134 70
138 70
2007 70
45mm 70
5.1 70
574@@ 70
606 70
9mm 70
a70 70
ax7 70
camo 70
cs-@@ 70
dk 70
gar@@ 70
garden 70
glow 70
gtx 70
hearts 70
ino@@ 70
joe 70
k5@@ 70
kan@@ 70
kb@@ 70
l'@@ 70
lt 70
mm/ 70
montblanc 70
ms-@@ 70
of@@ 70
olympus 70
pr 70
smile 70
sol 70
t7／ 70
t8@@ 70
tai@@ 70
thrasher 70
tn@@ 70
uv@@ 70
v- 70
vin@@ 70
vios 70
vivi@@ 70
wal@@ 70
win 70
xz@@ 70
yes 70
young 70
zc@@ 70
zebra 70
あ@@ 70
ス 70
上身 70
世界杯 70
亮光 70
倒挂 70
像@@ 70
光) 70
全景 70
六甲 70
内径 70
冰晶 70
券@@ 70
加深 70
匠@@ 70
原子 70
商铺 70
嘉义 70
垫高 70
女夏 70
妈@@ 70
定价 70
实拍) 70
导入 70
屑 70
巴洛克 70
席梦思 70
年度 70
彦 70
志龙 70
念珠 70
急@@ 70
戒@@ 70
提醒 70
改变 70
晗 70
曦 70
木材 70
楼@@ 70
概要 70
氏@@ 70
水帘 70
汗@@ 70
滤纸 70
热水袋 70
犬猫 70
状况 70
玩水 70
玳瑁 70
疗@@ 70
皮夹@@ 70
短外套 70
研究所 70
筛@@ 70
糖糖 70
纱帘 70
美国制 70
胡椒 70
艾伦 70
芙蓉 70
蔓@@ 70
贷 70
走失 70
趾 70
跆拳道 70
距离 70
迷宫 70
随机) 70
雀巢 70
面粉 70
飞鼠 70
香辣 70
#超 69
(f@@ 69
*3 69
111008@@ 69
12) 69
12.@@ 69
181 69
186 69
323 69
35cm 69
40*@@ 69
7.1 69
7/8 69
703 69
711@@ 69
90g 69
acs 69
ae 69
bh@@ 69
bling 69
cal@@ 69
choo 69
cm/ 69
co. 69
craft 69
es-@@ 69
fear 69
i5@@ 69
iphone7/@@ 69
lan@@ 69
long 69
lulu 69
m&@@ 69
m4 69
mag@@ 69
mj@@ 69
o.@@ 69
o型 69
p0@@ 69
rayban 69
ron@@ 69
s5 69
sil@@ 69
sports 69
xp@@ 69
三阳 69
中老年 69
主人 69
之恋 69
产妇 69
光电 69
克斯@@ 69
内搭 69
冈山 69
创新 69
包金 69
匙@@ 69
单耳 69
发货) 69
叶黄素 69
咨询 69
唇蜜 69
噜噜米 69
圆柱 69
地理 69
套子 69
奢侈 69
寝 69
小兔子 69
平头 69
庄园 69
庆@@ 69
庭@@ 69
建议 69
微距 69
扩展 69
拖布 69
指示牌 69
捕鱼 69
揹包 69
斯特 69
无色 69
星期 69
期@@ 69
杂志架 69
条码 69
桌巾 69
棉线 69
欲望 69
沙金 69
油压 69
注水 69
洋装@@ 69
海星 69
润滑油 69
漏水 69
环扣 69
琳@@ 69
百万 69
盘式 69
睡美人 69
祛痘 69
神偷 69
种籽 69
精巧 69
紫光 69
线) 69
自然@@ 69
花梨木 69
花环 69
茶桶 69
菜篮 69
葱 69
蛋蛋 69
西藏 69
视窗 69
警车 69
订下 69
边角 69
郁 69
鉴 69
锥形 69
镯 69
长直 69
阴道 69
雄@@ 69
音源 69
饭厅 69
饼@@ 69
马克杯 69
鸽 69
齿器 69
#0@@ 68
(500 68
(7 68
(双 68
-04 68
-4 68
-46 68
-d@@ 68
163 68
2003 68
2005 68
205 68
2cm 68
35-@@ 68
3色 68
620 68
6p 68
7a 68
8月 68
a+ 68
ar14@@ 68
c300 68
cg 68
che 68
ez@@ 68
factory 68
far@@ 68
fit@@ 68
grace 68
hel@@ 68
house@@ 68
key@@ 68
lc 68
mate@@ 68
mer 68
neverfull 68
note3 68
p10 68
pants 68
pb 68
princess 68
ram 68
rosherun 68
sch@@ 68
t+ 68
tta 68
u-@@ 68
una 68
vr@@ 68
white@@ 68
x/xs 68
xy 68
y6@@ 68
三四 68
中小型 68
中药材 68
丰盈 68
串@@ 68
五谷杂粮 68
介面 68
以下 68
休@@ 68
会社 68
低帮 68
关系 68
冷光 68
医@@ 68
历@@ 68
吐 68
噪@@ 68
国度 68
地摊 68
外挂 68
天窗 68
头箍 68
奥利奥 68
妤 68
宽边 68
山水画 68
帐号 68
平日 68
平行 68
开式 68
当当 68
彩条 68
忠@@ 68
慕@@ 68
战车 68
手工制 68
打卡 68
拜@@ 68
拥有 68
挽 68
播放机 68
旗@@ 68
显示卡 68
本色 68
杖 68
桌边 68
桩 68
次@@ 68
油纸 68
炖@@ 68
煮壶 68
特种兵 68
猪年 68
理想 68
瓷@@ 68
直销@@ 68
短途 68
磨粉机 68
笔袋 68
精神 68
系列@@ 68
绘@@ 68
维纳斯 68
肽@@ 68
背板 68
舖棉 68
芝加哥 68
芬迪 68
芮@@ 68
葡萄@@ 68
薛 68
补货 68
衫潮 68
训练器 68
货柜 68
转蛋 68
转转 68
轮滑 68
辣味 68
醇 68
释@@ 68
重生 68
钩针 68
铁板烧 68
险 68
露露 68
食谱 68
餐巾 68
鱼网 68
$100 67
(全@@ 67
(粉) 67
(经典 67
++ 67
162 67
2013年 67
24.5 67
2500 67
253 67
2k 67
306 67
390@@ 67
4a 67
7000 67
702 67
818@@ 67
90-@@ 67
97-@@ 67
ari@@ 67
b款 67
cherry 67
den@@ 67
dress 67
dvz 67
dx@@ 67
excel 67
exq 67
fu 67
gabrielle 67
gn@@ 67
good@@ 67
hair 67
hifi 67
ine@@ 67
ix@@ 67
jj 67
kymco 67
lomo 67
lr@@ 67
mp4 67
n9@@ 67
note7 67
oni@@ 67
qc3.0 67
r9@@ 67
roo@@ 67
sim 67
snow 67
tennis 67
toreba 67
tre@@ 67
tws 67
ww@@ 67
xa1 67
は@@ 67
三角@@ 67
上下铺 67
专用@@ 67
乳酸菌 67
优选# 67
佩佩 67
傲 67
全盔 67
写作 67
初恋 67
制冰机 67
加油 67
包潮 67
匣@@ 67
单边 67
县 67
合页 67
吸力 67
啦啦 67
喷射 67
回力 67
地狱 67
大肠 67
大脚 67
奇奇蒂蒂@@ 67
字) 67
宜兴 67
家居の 67
小红帽 67
嵌入式 67
平纹 67
恶@@ 67
惑 67
手作@@ 67
护肩 67
拆封) 67
拎包 67
招财进宝 67
摇床 67
敬 67
整体 67
晴天 67
束身 67
标识 67
桔梗 67
植@@ 67
比利时 67
澄@@ 67
火速 67
炉@@ 67
爬虫 67
瓢虫 67
着妳 67
研@@ 67
第七 67
签@@ 67
索隆 67
约定 67
纯正 67
统计学 67
绷 67
网球鞋 67
老公 67
老婆 67
脂肪 67
茶漏 67
蒜器 67
蔬@@ 67
藕粉 67
裁@@ 67
西餐厅 67
词 67
试穿 67
贞@@ 67
达) 67
连接线 67
钰 67
铁锅 67
锅铲 67
闭 67
非本 67
饮食 67
饰板 67
马桶盖 67
骰子 67
高中生 67
(15 66
(新货 66
/a@@ 66
228 66
25*@@ 66
3.1 66
4吋 66
5w 66
605 66
640@@ 66
745@@ 66
7cm 66
__@@ 66
a'pieu 66
a57 66
abercrombie 66
ant 66
ato@@ 66
coach/蔻 66
d) 66
d/@@ 66
dan@@ 66
dear 66
edt 66
f3@@ 66
flux 66
future 66
hub 66
j2@@ 66
joy@@ 66
metal 66
mt-@@ 66
oppor@@ 66
palette 66
pi 66
powder 66
qi 66
s6@@ 66
s9@@ 66
ski@@ 66
stage 66
t5 66
v7 66
yonex 66
さ@@ 66
フ 66
七件 66
不褪色 66
专车 66
丝网 66
乐家 66
乐金 66
人) 66
仪@@ 66
伯奇 66
依依 66
元祖 66
光滑 66
写生 66
几@@ 66
制化@@ 66
占 66
吟 66
呼 66
唇釉@@ 66
在@@ 66
垫板 66
壁柜 66
妆前 66
宣纸 66
宾士@@ 66
寻@@ 66
寻宝 66
尼康 66
懒得 66
扣手 66
抽抽 66
握力 66
效率 66
无痛 66
无线电 66
日夜 66
是否 66
木桌 66
枫木 66
柳@@ 66
正确 66
殿 66
母女 66
毫米 66
水平 66
水粉 66
洁面乳 66
消毒柜 66
涉水 66
湖@@ 66
环形 66
监@@ 66
盟 66
祖师 66
精雕 66
红格 66
细菌 66
缘@@ 66
耳钉 66
胜肽 66
脚踏板 66
腕表 66
色卡 66
芒@@ 66
花子 66
装饰柜 66
触媒 66
贝恩 66
软体 66
速干 66
遮盖 66
酷炫 66
金融 66
钱包@@ 66
铬 66
银白 66
银魂 66
长腿 66
防伪 66
防锈 66
集) 66
领子 66
饭@@ 66
驰) 66
(完) 65
++@@ 65
-25 65
1-3-6 65
1-4@@ 65
100/@@ 65
157 65
192 65
1tb 65
2-3@@ 65
208@@ 65
216@@ 65
22mm 65
246 65
3+@@ 65
312 65
322 65
600g 65
720@@ 65
802 65
a- 65
armani亚曼尼 65
ation 65
ban 65
car 65
denim 65
dt 65
eq@@ 65
fg 65
food 65
fragment 65
gal@@ 65
gaming 65
girls 65
gra@@ 65
gucc@@ 65
hr 65
iw@@ 65
j0@@ 65
k0@@ 65
kanye 65
kg/@@ 65
kobe@@ 65
lit@@ 65
lp@@ 65
ls@@ 65
m8 65
ml+@@ 65
nx 65
nyx 65
only 65
pm@@ 65
red@@ 65
s. 65
sanlux 65
sha@@ 65
suv 65
sym 65
thunder 65
tl 65
tod's 65
well 65
yaris 65
your 65
イ 65
上手 65
下单@@ 65
专营 65
乱@@ 65
仿@@ 65
企划 65
众多 65
佛经 65
八哥 65
冈@@ 65
切菜器 65
史迪奇@@ 65
同志 65
喷墨 65
回忆 65
国宝 65
土城 65
垂直 65
复方 65
奇美 65
女宝 65
奴 65
好玩 65
导轨 65
希腊 65
幕布 65
干贝 65
恒@@ 65
我@@ 65
折扇 65
护垫 65
护头 65
护肘 65
指甲刀 65
按钮 65
搅 65
放心 65
故事书 65
新奇 65
新生婴儿 65
新茶 65
月) 65
期间 65
木器 65
木地板 65
条) 65
柴油 65
桨 65
每个 65
油管 65
渔网 65
漂@@ 65
漏@@ 65
爱美 65
症 65
监听 65
盖巾 65
眼袋 65
着色 65
稳定器 65
空心 65
童帽 65
笑@@ 65
红发 65
纹眉 65
缎@@ 65
缕空 65
缝@@ 65
网红 65
翻页 65
肉干 65
育儿 65
胸部 65
臂章 65
芸 65
药盒 65
菓 65
蒲公英 65
蕾@@ 65
藻@@ 65
蚊虫 65
赚 65
踏@@ 65
轻柔 65
辛普森 65
达尔 65
运动装 65
追加 65
逗 65
钱币 65
铁丝 65
锻@@ 65
镀银 65
镜台 65
集市 65
面交) 65
香肠 65
高脚杯 65
#5@@ 64
#创意 64
&儿 64
(全场 64
(另 64
(颜色 64
(黑@@ 64
-35 64
12m 64
142 64
2008 64
249 64
2s 64
345@@ 64
366 64
3ml 64
40/@@ 64
4cm 64
6.3 64
666 64
cross 64
ex-@@ 64
field 64
gi 64
handle 64
hc 64
homme 64
hx@@ 64
kao 64
kawasaki 64
lesportsac 64
nx@@ 64
oro 64
os@@ 64
out@@ 64
p/@@ 64
pcs 64
peanuts 64
plu@@ 64
que@@ 64
salvatore 64
shi 64
t5@@ 64
t长 64
ultra@@ 64
ux@@ 64
vcd 64
ver. 64
vt 64
wheels 64
zoo@@ 64
一箱 64
下午 64
下垂 64
主角 64
丽芙 64
乳房 64
作坊 64
光影 64
关注 64
内容 64
冈 64
凹@@ 64
利亚 64
制造) 64
前列腺 64
剧@@ 64
博物馆 64
厕纸 64
图形 64
坊@@ 64
坦@@ 64
墨水匣 64
处@@ 64
备用 64
大豆 64
头花 64
嫩肤 64
宏碁 64
家具@@ 64
小叶 64
废@@ 64
形象 64
影响 64
所@@ 64
手提箱 64
投射 64
折叠车 64
抱@@ 64
振@@ 64
摄影棚 64
放大 64
斋 64
斗牛犬 64
方式 64
方舟 64
春联 64
晚霜 64
暮 64
曹 64
机型 64
机械式 64
楔型 64
榛 64
此款 64
清理 64
渍@@ 64
滑梯 64
热感 64
爽@@ 64
狐仙 64
球拍 64
石榴石 64
碟片 64
竞@@ 64
篮@@ 64
粉盒 64
粘胶 64
繁殖 64
繁花 64
红光 64
结发 64
绪 64
缓解 64
罗拉 64
肚脐 64
肝@@ 64
脉冲 64
臣氏 64
艾玛@@ 64
苍蝇 64
萨尔 64
蓓@@ 64
薰 64
蛋器 64
衣裙 64
规划 64
讲 64
调味瓶 64
贞德 64
贡 64
贩卖 64
贾 64
资料柜 64
车) 64
软壳@@ 64
软木 64
辣@@ 64
避@@ 64
金饰 64
鉴定 64
镁@@ 64
鞋器 64
顾 64
预订) 64
马夹 64
驱@@ 64
高铁 64
(200 63
-44 63
/10 63
/20 63
0-1 63
1-5 63
1/8 63
30mm 63
480@@ 63
60*@@ 63
6d 63
906 63
978957@@ 63
??? 63
alpha 63
authentic 63
a梦@@ 63
b5@@ 63
bask 63
big@@ 63
c3 63
clarins 63
c型 63
doll 63
dry 63
fan@@ 63
g*2 63
girl@@ 63
gw@@ 63
hon@@ 63
hyundai 63
i7/@@ 63
il 63
ir 63
k.@@ 63
kg) 63
l2 63
mcm 63
mix@@ 63
n0@@ 63
no.1 63
oreo 63
outdoor 63
phone@@ 63
rg@@ 63
rider 63
rx 63
sata 63
sen 63
shin@@ 63
t2 63
tcg 63
tl-@@ 63
t素t 63
water 63
wtaps 63
ℊℴℴ₫ 63
リ@@ 63
三月 63
下) 63
举 63
五号 63
人家 63
介绍 63
仕女 63
休闲@@ 63
会区 63
伽@@ 63
俊@@ 63
储@@ 63
光板 63
六一 63
勃@@ 63
单品 63
南非 63
卯钉 63
即@@ 63
卷尺 63
原生 63
发音 63
口交 63
吉利 63
后排 63
含运 63
品家 63
哟 63
唯一 63
喜乐 63
埃@@ 63
壁钟 63
太空舱 63
夹头 63
婚@@ 63
子代 63
子多 63
孟 63
守护 63
宽度 63
小) 63
尼斯 63
嵌 63
巡@@ 63
弱@@ 63
征 63
扑 63
扒 63
抢手 63
挑选 63
挤压 63
掌@@ 63
推出 63
收据 63
收音 63
昆虫 63
杀人 63
格) 63
桥@@ 63
母亲 63
比例 63
毛皮 63
水印 63
沐 63
消除 63
湘@@ 63
火龙 63
烫发 63
猪猪 63
猫眼石 63
玄 63
电磨 63
皱褶 63
盲@@ 63
真书 63
碳化 63
筒靴 63
红色) 63
绝色 63
翠@@ 63
舌@@ 63
花语 63
茗@@ 63
菜单 63
蛇皮 63
计时表 63
订婚 63
调酒 63
谢谢 63
贤@@ 63
超人力 63
超级赛亚 63
足底 63
达特 63
连结 63
适用: 63
邂逅 63
配对 63
醒@@ 63
钱袋 63
阶段 63
霉@@ 63
饮@@ 63
馨@@ 63
驱动 63
鼻毛 63
龙虾 63
(下标 62
(仅 62
(海外 62
(男) 62
(随机 62
-m@@ 62
.3 62
1112 62
178 62
189 62
195 62
234 62
3-001 62
32mm 62
34-40 62
575@@ 62
7/8/@@ 62
8.0 62
923 62
955@@ 62
boy@@ 62
co.@@ 62
daybreak 62
fas@@ 62
fin@@ 62
gabbana 62
gogoro2 62
guerlain 62
hana 62
jill 62
ken 62
laura 62
m64@@ 62
mango 62
mel@@ 62
modern 62
mv@@ 62
pgm 62
pink@@ 62
reno@@ 62
sandisk 62
sat@@ 62
sexy 62
shine 62
sin@@ 62
spf50@@ 62
stella 62
t8／ 62
thea 62
tony 62
velvet 62
vintage@@ 62
ws@@ 62
zy 62
上网卡 62
下水道 62
乳酪 62
人间 62
伙伴 62
供@@ 62
八分 62
内含 62
剂@@ 62
力学 62
功@@ 62
务 62
单机 62
卖场@@ 62
卡纸 62
双语 62
只@@ 62
吊兰 62
后盖 62
呎码 62
咬咬 62
咸 62
喜字 62
四层 62
固定架 62
圣诞老人 62
壹号 62
娇@@ 62
它 62
官@@ 62
富士山 62
序 62
总裁 62
手部 62
扭力 62
拉线 62
排水管 62
摄像 62
旋转木马 62
昂 62
显示屏 62
普卡 62
杀$ 62
桂圆 62
梦境 62
水貂 62
浸 62
游戏@@ 62
湘 62
烤面 62
烫衣板 62
热熔 62
男仕 62
百褶@@ 62
皇室 62
皮带@@ 62
盖碗 62
睿@@ 62
瞬 62
穿) 62
竖条 62
筋 62
纯黑 62
纱巾 62
纸篓 62
纾困 62
耳线 62
菇 62
说明 62
调色 62
调速 62
赚到 62
车子 62
迈克 62
道路 62
锌合金 62
锻造 62
防风衣 62
雨天 62
雷达 62
青花瓷 62
鞋汇 62
马赛克 62
马龙 62
驰@@ 62
鸥@@ 62
(20@@ 61
(7@@ 61
(上) 61
(下) 61
(九 61
(五 61
(特价) 61
(附@@ 61
-r@@ 61
010@@ 61
1'07 61
12v@@ 61
1:1 61
24/@@ 61
25-@@ 61
290 61
308 61
315 61
470 61
50% 61
545@@ 61
6/6s/@@ 61
706 61
ax5 61
creeper 61
disruptor 61
dou@@ 61
e0@@ 61
eagle 61
fire 61
gel-@@ 61
giant 61
gy@@ 61
kappa 61
lego@@ 61
m8@@ 61
mask 61
micro@@ 61
mvp 61
nd 61
nex 61
opp 61
oz@@ 61
prophere 61
sk-ii 61
sv 61
t2／ 61
tan@@ 61
tec 61
toeic 61
tp 61
vault 61
v型 61
west 61
winnie 61
三宝 61
二轮 61
光灯 61
全国 61
兹@@ 61
凌@@ 61
凑 61
包装纸 61
北京 61
午夜 61
卤@@ 61
发套 61
可移 61
咒 61
圆桶 61
外传 61
奇奇 61
好奇 61
威利 61
宽楦 61
小甜甜 61
小花 61
尤@@ 61
岩@@ 61
崔 61
工具@@ 61
市区 61
御寒 61
微软 61
思维 61
悠 61
悬浮 61
托里 61
抗震 61
折纸 61
接受 61
数据 61
旅@@ 61
日文版 61
昊 61
晴@@ 61
木框 61
束@@ 61
条文 61
梨@@ 61
椰@@ 61
橡@@ 61
气机 61
活性炭 61
海水 61
漂浮 61
熟@@ 61
燃气灶 61
狗屋 61
球迷 61
理发器 61
皮草 61
盘) 61
目录 61
硬笔 61
碎纸机 61
空盒 61
端@@ 61
红唇 61
纲 61
绝缘 61
绿叶 61
腰身 61
舱 61
芯@@ 61
花式 61
芸@@ 61
茉@@ 61
蚁@@ 61
西洋 61
解构 61
调温 61
贝拉 61
越@@ 61
跳绳 61
都@@ 61
长洋 61
门把手 61
雨棚 61
页@@ 61
馆) 61
黑橘 61
龙凤 61
ａ@@ 61
(出清) 60
(蓝色) 60
1.1 60
149 60
183 60
191 60
2.5吋 60
2001 60
211 60
258@@ 60
3- 60
3-4@@ 60
3.4 60
32cm 60
331 60
375@@ 60
392@@ 60
3xl 60
7g 60
980 60
a+@@ 60
ace@@ 60
ain 60
alphabounce 60
ate@@ 60
base 60
bike 60
blue@@ 60
buff 60
col@@ 60
colourpop 60
cre@@ 60
dar@@ 60
dell 60
ea 60
ever 60
ey@@ 60
f2.8 60
family 60
fleece 60
fly@@ 60
gap@@ 60
hg@@ 60
honey 60
i.@@ 60
ic@@ 60
iphonexs 60
ips 60
ja 60
kin 60
liu 60
mistine 60
ml-@@ 60
nt 60
pat@@ 60
petit 60
qposket 60
remax 60
rimowa 60
s75@@ 60
spa@@ 60
sportswear 60
sta@@ 60
sto@@ 60
t恤女 60
van@@ 60
work 60
yy. 60
zi 60
zippy 60
中坜 60
临 60
乐谱 60
乳垫 60
亚丝娜 60
任@@ 60
优先 60
保险套 60
修枝 60
公尺 60
公车 60
养殖 60
军工 60
冻@@ 60
刀锋 60
刷洗 60
割草机 60
午@@ 60
单只 60
单身 60
卷帘 60
厨@@ 60
受@@ 60
咒@@ 60
咪咪 60
嘴唇 60
团队 60
圆片 60
土地 60
地砖 60
失 60
子网 60
孩@@ 60
开裆 60
彩屏 60
影院 60
急救 60
戽斗 60
扬@@ 60
据 60
放大器 60
无暇 60
显微镜 60
月历 60
村风 60
架) 60
栗子 60
格格 60
棠 60
死亡 60
泳池 60
消音 60
游乐园 60
炸鸡 60
焰 60
猪肉 60
电饭锅 60
研磨器 60
碧儿 60
笔套 60
筛 60
精品屋 60
组合式 60
经文 60
经理 60
绵@@ 60
罗马数字 60
腰垫 60
腾@@ 60
至尊 60
莱尔 60
蜂王 60
蟹 60
袍 60
裤脚 60
貂 60
车套 60
较 60
酵母 60
金表 60
隆@@ 60
鞋鞋 60
香) 60
骆驼 60
(上 59
(保 59
-f@@ 59
/30 59
1080@@ 59
16mm 59
198@@ 59
2+@@ 59
217@@ 59
24hr 59
24mm 59
3+ 59
326 59
333 59
335@@ 59
40-4@@ 59
505 59
506 59
5t 59
710 59
a14@@ 59
action 59
ao 59
bathing 59
bb6@@ 59
beauty@@ 59
betty 59
bg 59
chanel包包 59
com 59
cushion 59
deluxe 59
diptyque 59
dot 59
fd@@ 59
fil@@ 59
in-@@ 59
k8 59
kangol 59
lan 59
let's 59
ln 59
los 59
m-xxxl码 59
moc 59
monaco 59
money 59
nude 59
oli@@ 59
om 59
p2 59
q3 59
sal@@ 59
sale 59
social 59
speed@@ 59
sta 59
sti@@ 59
tro@@ 59
tx@@ 59
ua@@ 59
um@@ 59
u领 59
v2@@ 59
vol.2 59
wear 59
wei@@ 59
xc@@ 59
ᴇ@@ 59
つ@@ 59
ㄚ@@ 59
乳器 59
五十 59
伟@@ 59
佐 59
余@@ 59
假日 59
党 59
军训 59
冷水 59
凝乳 59
切肉 59
剑麻 59
剪纸 59
加价 59
卡组 59
向日葵 59
咏 59
喷泉 59
器. 59
土豪 59
培 59
奶酪 59
好帮手 59
威尔 59
寸@@ 59
导游 59
小舖) 59
小说@@ 59
小镇 59
小雨 59
干净 59
并 59
弹珠 59
影子 59
怎么 59
手提@@ 59
手枪 59
技师 59
排档 59
斑马纹 59
旋转式 59
标准型 59
标签纸 59
标语 59
橙@@ 59
款#@@ 59
洒 59
洛杉矶 59
照相 59
狼@@ 59
猛@@ 59
猜 59
白色@@ 59
直角 59
确 59
票@@ 59
纬 59
线钳 59
练@@ 59
继电器 59
缩@@ 59
罩子 59
肚皮舞 59
芽@@ 59
茶罐 59
菜篮子 59
螺母 59
诺基亚 59
贝母 59
贝瑞 59
超导 59
轰 59
轻型 59
这个 59
追逐 59
速溶 59
遮阳帘 59
部品 59
野炊 59
金粉 59
镀@@ 59
阪@@ 59
防晒衫 59
陶@@ 59
雅芳 59
韦@@ 59
风气 59
鱼钩 59
黑发 59
#虾皮 58
(p@@ 58
*6 58
-42 58
-s 58
.4 58
1.2m 58
10.2 58
1200@@ 58
13) 58
1x@@ 58
2.0@@ 58
209 58
216 58
22.5 58
233 58
238 58
275@@ 58
307 58
537@@ 58
5v 58
9428@@ 58
99% 58
a51 58
a77 58
ak 58
arashi 58
biore 58
bone 58
cars 58
clot 58
dmv 58
dr.martens 58
fs 58
gogo 58
gore-tex 58
gt-@@ 58
human 58
hyperdunk 58
i6@@ 58
lam@@ 58
las@@ 58
marcelo 58
medi@@ 58
met-@@ 58
mic 58
molly 58
mos 58
mr 58
neo@@ 58
ner@@ 58
pad@@ 58
remix 58
rr@@ 58
s4@@ 58
sacai 58
simple 58
skoda 58
stars 58
stayreal 58
suqqu 58
t恤t恤 58
vape 58
w205 58
wen@@ 58
wifi@@ 58
wm@@ 58
y5@@ 58
zs@@ 58
た@@ 58
一千 58
一百 58
丙级 58
串灯 58
为什么 58
乳头 58
亚瑟士 58
享@@ 58
人格 58
伴侣 58
伸 58
佰@@ 58
修正 58
克力@@ 58
凌志 58
列车 58
刚@@ 58
剑桥 58
助力 58
勃 58
包含 58
午 58
单靴 58
厕@@ 58
古奇@@ 58
可洗 58
四川 58
圣保罗 58
堵漏 58
大包 58
太空铝 58
威化 58
字样 58
宅女 58
寄@@ 58
干透 58
快门 58
快餐 58
懒@@ 58
户@@ 58
抛光机 58
挪 58
摇铃 58
播放 58
新房 58
旅游鞋 58
日规 58
朋@@ 58
材@@ 58
杯杯 58
横杆 58
橡树 58
武术 58
气息 58
水水 58
沟通 58
油桶 58
沿帽 58
法规 58
泰拳 58
浴帽 58
海神 58
温热 58
满分 58
灯头 58
灯笼裤 58
热卖#@@ 58
燕子 58
牌) 58
珀 58
珍妮 58
疆 58
白瓷 58
石材 58
私房 58
简约@@ 58
篇@@ 58
繁 58
纯钛 58
纹理 58
经营 58
罩衣 58
耀@@ 58
肉片 58
胎@@ 58
膳魔师 58
芦@@ 58
苹果绿 58
莉莉 58
蓁@@ 58
藤蔓 58
裂@@ 58
褶@@ 58
詹 58
计步器 58
负 58
货源 58
赛季 58
超音波 58
辛@@ 58
达尔@@ 58
运动衫 58
配套 58
酷咕 58
金士顿 58
销@@ 58
阳伞 58
零嘴 58
雷姆 58
风范 58
飘带 58
鱼口 58
鸡腿 58
#现货 57
&超 57
-ez 57
1-10 57
1-2-3@@ 57
1-6 57
1111 57
14mm 57
168@@ 57
2.5@@ 57
2009 57
218 57
238@@ 57
24吋 57
428@@ 57
445@@ 57
5-6 57
5.5吋 57
5c 57
7吋 57
826@@ 57
957@@ 57
998 57
9s 57
@@ 57
a60 57
accessories 57
ag 57
balance@@ 57
cec 57
char@@ 57
clinique 57
drive 57
e/@@ 57
f1s 57
fog 57
fur@@ 57
fz@@ 57
goyard 57
gy 57
ip 57
j5 57
jbl 57
jing 57
kv@@ 57
l0@@ 57
labo 57
lei@@ 57
lf@@ 57
lion 57
lon@@ 57
maru@@ 57
mia 57
nu 57
om@@ 57
pdd 57
ps2 57
ras@@ 57
run@@ 57
s&@@ 57
san 57
shoulder 57
shu@@ 57
sneakers 57
sonic 57
t. 57
three 57
t大 57
uag 57
ver.@@ 57
vivienne 57
v字 57
xr/@@ 57
york 57
z0@@ 57
こ@@ 57
ん@@ 57
タ@@ 57
七色 57
三门 57
不怕 57
中药 57
主动 57
主场 57
乃@@ 57
二手机 57
保龄球 57
值@@ 57
偷@@ 57
前线 57
单位 57
单间 57
卡尔 57
卡纳赫拉 57
历届 57
台) 57
合体 57
后厢 57
哥哥 57
圆角 57
坚@@ 57
型车 57
墩 57
夏普 57
外盖 57
大三 57
大海 57
太空@@ 57
奖励 57
妈祖 57
字画 57
客房 57
巢 57
左手 57
市面 57
幽 57
延伸 57
德式 57
怕 57
感情 57
慈 57
手摇铃 57
手杖 57
执@@ 57
执事 57
抢@@ 57
旦 57
有氧 57
板) 57
染发膏 57
标志性 57
案板 57
残 57
淘@@ 57
港@@ 57
港式 57
灵魂 57
热卖) 57
煤气 57
物) 57
玛士 57
玛莉@@ 57
生机 57
睿 57
禄 57
种菜 57
秦 57
移@@ 57
穴位 57
米饭 57
粉笔 57
精品@@ 57
糊 57
纠正 57
红宝石 57
线材 57
组合柜 57
维斯 57
翰@@ 57
老北京 57
耶@@ 57
肌因 57
肛塞 57
脸巾 57
腰果 57
芙妮 57
花花世界 57
花鸟 57
苹果@@ 57
菊花茶 57
蓝色) 57
薰机 57
藏青 57
螺丝@@ 57
被罩 57
读卡机 57
逗@@ 57
逼 57
量杯 57
锁匙 57
阿尔法 57
阿甘 57
阿迪达 57
陵 57
雅致 57
震@@ 57
题@@ 57
额@@ 57
馥@@ 57
高校 57
鸿@@ 57
麟 57
黑桃 57
(附赠 56
...@@ 56
0.7 56
167 56
175 56
176 56
197 56
20*@@ 56
21-@@ 56
231 56
29-42 56
340 56
36-46 56
399@@ 56
750ml 56
80) 56
a10 56
a10@@ 56
airpods2 56
ano 56
bit@@ 56
blaze 56
cha@@ 56
code 56
cover 56
dkny 56
fer@@ 56
g4 56
hearts克罗心 56
ht 56
hy 56
i5 56
icash 56
im@@ 56
internationalist 56
jets 56
koko 56
ler 56
lindy 56
lq@@ 56
lun@@ 56
lunarepic 56
mari@@ 56
market 56
min 56
nail 56
noki@@ 56
pearl 56
pharrell 56
pon@@ 56
p助 56
q5 56
ryz 56
sarah 56
shinee 56
sk2 56
skater 56
skin@@ 56
s型 56
t4@@ 56
town 56
ts-@@ 56
tshirt 56
us10 56
utility 56
vespa 56
vn@@ 56
wing 56
xin 56
∣@@ 56
三开门 56
下水 56
不用 56
专门 56
乙@@ 56
从@@ 56
倾 56
健美 56
充线 56
几乎 56
凯文 56
创造 56
加码 56
北面 56
单) 56
友人 56
发烧 56
叠加 56
听力 56
啫喱 56
团子 56
圆珠笔 56
土司 56
增长 56
大悲咒 56
天珠 56
奥德赛 56
姆斯 56
婆婆 56
婴儿鞋 56
学: 56
宝藏 56
家居) 56
小台灯 56
希望 56
帝王 56
当代 56
录音带 56
影集 56
恬@@ 56
报纸 56
抵 56
收纳包 56
攻@@ 56
日清 56
晚会 56
晶亮 56
有趣 56
柠檬@@ 56
柾国 56
栀子 56
桂@@ 56
橙子 56
歌曲 56
油机 56
泉@@ 56
洛洛 56
洞@@ 56
灯箱 56
热卖@@ 56
热情 56
牧@@ 56
玺 56
生姜 56
用于 56
电车 56
百分百 56
皙@@ 56
监控器 56
盗@@ 56
相簿 56
筋@@ 56
米奇@@ 56
糖霜 56
结合 56
羊羔绒 56
翔@@ 56
聚宝 56
肉肉 56
花园) 56
荳@@ 56
蒋 56
蓝水 56
藏版 56
藤条 56
螺 56
蟒蛇 56
裤内 56
认@@ 56
课程 56
负@@ 56
踝@@ 56
迈@@ 56
运# 56
退换 56
配) 56
钩@@ 56
限定) 56
验货 56
麻糬 56
＋@@ 56
ｔ@@ 56
(3) 55
(中@@ 55
(艾 55
-00 55
-24 55
/二手 55
0000 55
10*@@ 55
10.1 55
100-@@ 55
10w 55
14/@@ 55
144@@ 55
1450@@ 55
15.@@ 55
15mm 55
165@@ 55
18m 55
243 55
24m 55
300g 55
355 55
363 55
50cm 55
6-100 55
6s@@ 55
789 55
9吋 55
__ 55
ama 55
amd 55
ami 55
boo@@ 55
bri@@ 55
burlon 55
cla 55
cup 55
daiwa 55
dolce& 55
eco 55
extreme 55
footscape 55
gba 55
ger 55
ger@@ 55
gf@@ 55
he 55
holika 55
home@@ 55
jj@@ 55
l-4xl 55
lv8 55
m-xxxl 55
nova@@ 55
nt$@@ 55
ons 55
padlock 55
pig 55
qx@@ 55
s/s 55
s79@@ 55
scottish 55
t7@@ 55
tank 55
tex 55
track 55
travel 55
true 55
tte 55
twist 55
ur 55
van 55
ye 55
り@@ 55
ん 55
乞丐 55
亲爱 55
佳佳 55
兜@@ 55
八代 55
养成 55
冬瓜 55
冲孔 55
切片机 55
卫衣@@ 55
厂) 55
口盖 55
吉祥物 55
唇露 55
啾@@ 55
四面 55
国大 55
垮 55
头部 55
奖品 55
女儿 55
女板 55
女警 55
姓 55
存储 55
客制化 55
客服) 55
尺寸) 55
山羊皮 55
座机 55
弹簧夹 55
微积分 55
惊奇 55
戏@@ 55
扁平 55
批@@ 55
拚@@ 55
搭衫 55
敬@@ 55
新安 55
旅行@@ 55
早安 55
显色 55
普考 55
晶洞 55
服务@@ 55
木鞋 55
梳@@ 55
歌手 55
永远 55
沛 55
洋洋 55
清爽型 55
潮流@@ 55
牌照 55
狐貍 55
玮 55
理财 55
用餐 55
电击 55
瘦瘦 55
盲盒 55
瞬@@ 55
石膏 55
磁砖 55
立得 55
竹席 55
粹 55
精细 55
纺纱 55
老公公 55
而@@ 55
肌密 55
背侧 55
舌 55
色/@@ 55
葡萄牙 55
蜜蜡 55
触摸屏 55
车车 55
软硬 55
逆@@ 55
醋@@ 55
释 55
野犬 55
量化 55
钢扣 55
钧 55
锯片 55
长凳 55
非凡 55
革命 55
靶@@ 55
鸭@@ 55
#新款 54
(300 54
(加 54
(每 54
+2 54
/r@@ 54
11) 54
147 54
148 54
1620@@ 54
2.8 54
299@@ 54
2x@@ 54
336 54
338@@ 54
45cm 54
490 54
4s 54
503 54
535@@ 54
590 54
5cgo 54
804 54
806 54
996@@ 54
9h@@ 54
a20 54
ara 54
benq 54
bg@@ 54
chris 54
clean 54
coffee 54
diesel 54
ev@@ 54
eye@@ 54
george 54
hario 54
heart@@ 54
hunter 54
i8@@ 54
il@@ 54
infinite 54
legends 54
m440@@ 54
m7@@ 54
mh-@@ 54
mont 54
o. 54
op 54
ora 54
robot 54
s20@@ 54
signature 54
slip-on 54
sou@@ 54
tescom 54
ura 54
wii 54
xp 54
xw 54
リ 54
丁丁 54
三角巾 54
不修 54
丽儿 54
书报 54
争@@ 54
二胡 54
人手 54
介@@ 54
代售 54
价钱 54
兔兔 54
全智贤 54
军旅 54
冷饮 54
切片器 54
削皮 54
压器 54
厚外套 54
反向 54
发牌 54
口裤 54
可用 54
名家 54
味) 54
圣衣 54
大学t 54
大白 54
大眼睛 54
大网 54
女外套 54
尼泊尔 54
巨大 54
帐本 54
座套 54
彬 54
恶灵 54
惟 54
战斗机 54
找@@ 54
报警器 54
拉链@@ 54
振动 54
掏 54
摸 54
撒 54
撒@@ 54
有限公司 54
柴犬@@ 54
橄榄油 54
水车 54
沙发椅子 54
泪 54
洗洁 54
浮动 54
淋@@ 54
清除 54
渔@@ 54
漫步 54
澎湖 54
热风 54
煎蛋 54
爱用 54
生意 54
男士@@ 54
疤痕 54
皮套@@ 54
盏 54
盒装) 54
砂轮机 54
神器@@ 54
福神 54
第1 54
籍 54
粘土 54
紫檀 54
繁@@ 54
红潮 54
美发店 54
美梦 54
色带 54
艺术家 54
花花公子 54
蓝橘 54
螺丝起子 54
行政 54
言@@ 54
谷物 54
超短 54
轻质 54
运#@@ 54
运输 54
还原 54
进场 54
迷雾 54
遮阳网 54
酒具 54
金葱 54
销量 54
阁楼 54
队@@ 54
阻力 54
除草机 54
隐 54
霓@@ 54
面试 54
鞋柜 54
顺丰 54
飘@@ 54
飞天 54
饭菜 54
鳞 54
鹿皮 54
默@@ 54
＿ 54
￥ 54
(4) 53
(出货 53
(单@@ 53
(日 53
(橘@@ 53
(白@@ 53
-y@@ 53
0.4 53
0000@@ 53
1-2-3 53
182 53
184 53
207 53
219 53
224 53
232 53
30) 53
324 53
460 53
512@@ 53
97895@@ 53
986@@ 53
aj5 53
anderson 53
au 53
ay 53
banana 53
bin 53
bird 53
book@@ 53
c250 53
cny 53
cotton 53
d'@@ 53
ee 53
foundation 53
gts 53
heran 53
hobo 53
hotwheels 53
ie@@ 53
j2 53
jan@@ 53
kw@@ 53
lancer 53
ld-@@ 53
luna 53
madness 53
major 53
mall 53
minkoff 53
monarch 53
naraya 53
pure@@ 53
queen@@ 53
rainbow 53
revolution 53
running 53
saddle 53
sandal 53
scott 53
sk8-hi 53
soho 53
tanjun 53
tas@@ 53
vapor 53
venus 53
victor 53
vol@@ 53
wet 53
woo@@ 53
お@@ 53
一拖 53
专营店 53
中级 53
丽人 53
之宝 53
乐乐@@ 53
书画 53
书立 53
乳油 53
亮色 53
人造花 53
仓@@ 53
伊伊 53
倾@@ 53
免税店 53
公家 53
公馆 53
养护 53
农家 53
农药 53
创业 53
利器 53
剃@@ 53
包包@@ 53
医师 53
即溶 53
卵磷脂 53
及@@ 53
发射 53
吋盆 53
哑光@@ 53
唤 53
啰@@ 53
喔@@ 53
噪音 53
垫) 53
天空之城 53
宝利 53
宽带 53
小孩子 53
市价 53
布) 53
带子 53
店家 53
悟@@ 53
戚 53
手排 53
抽水 53
描述 53
搅拌棒 53
搓澡 53
故宫 53
旺角 53
星期五 53
最终 53
梵 53
民众 53
水陆 53
汇@@ 53
法师 53
泳@@ 53
洋娃娃 53
洗菜 53
活性碳 53
流线 53
消防车 53
灯壳 53
点火 53
热裤 53
煎饼 53
牛奶糖 53
狠 53
狼人 53
王鲁夫 53
珂@@ 53
电缆 53
电阻 53
画质 53
皇帝 53
直筒@@ 53
真正 53
碟子 53
碧蓝 53
磨刀器 53
神像 53
秸秆 53
立柱 53
童年 53
米格 53
素) 53
紧急 53
级别 53
翼@@ 53
耐晒 53
肽 53
脸器 53
腹器 53
舞鞋 53
蒟蒻 53
该 53
贰@@ 53
超合金 53
车上 53
轮圈 53
辣妹 53
这里 53
金字 53
镁 53
长条桌 53
闹铃 53
雪儿 53
青瓷 53
面条 53
面皮 53
鞋粉 53
顽皮 53
风沙 53
风管 53
马鞭 53
鲨 53
鸡精 53
鸭子 53
黑巧克力 53
ｏ@@ 53
#爆款# 52
&全场 52
(120@@ 52
-e@@ 52
002@@ 52
007@@ 52
1+1 52
1/43 52
11.5 52
143 52
159 52
18/@@ 52
1:18 52
2/ 52
20190@@ 52
220v@@ 52
256@@ 52
30x@@ 52
43mm 52
511 52
540 52
615 52
690 52
705@@ 52
809 52
910 52
921826@@ 52
a00@@ 52
ach@@ 52
ar0@@ 52
ariel 52
back 52
bm 52
c5 52
cabas 52
chan 52
chic@@ 52
cooper 52
d. 52
dj@@ 52
doris 52
e's 52
f10 52
faye 52
g+ 52
g3 52
g5@@ 52
gl 52
hsu 52
jam 52
ley 52
link 52
lm 52
logitech 52
long@@ 52
m20@@ 52
men's 52
miku 52
moon@@ 52
native 52
per 52
posh 52
s-2xl 52
sana 52
she@@ 52
solo 52
sq@@ 52
suga 52
t1 52
tm 52
tough 52
type-c@@ 52
uncaged 52
v15 52
vdl 52
waffle 52
万年历 52
上托 52
专场 52
中信 52
中网 52
乌拉圭 52
伐木 52
优优 52
何@@ 52
侧面 52
充充 52
共用 52
冥@@ 52
冰激凌 52
制药 52
加仑 52
加强型 52
加热器 52
加绒卫衣 52
勇@@ 52
卤味 52
厄文 52
压线 52
双胞胎 52
古着 52
吉斯 52
告 52
咖色 52
唯@@ 52
囍@@ 52
地方 52
地球仪 52
地铺 52
块@@ 52
塑型 52
塑封 52
塑料袋 52
处方 52
大眼仔 52
天平 52
奏@@ 52
奔 52
套房 52
奥特曼 52
始 52
娘娘 52
宇航员 52
家务 52
小钱 52
岳 52
己 52
巴伦 52
年) 52
年华 52
幸@@ 52
废 52
廷 52
弥勒佛 52
微微 52
恢复 52
情侣@@ 52
惜 52
慕斯 52
扫描 52
投篮 52
折价 52
指手 52
换装 52
排队 52
文房四宝 52
斧 52
明天 52
晚餐 52
染色 52
标签机 52
桔 52
榴@@ 52
次方 52
毕 52
水靴 52
油封 52
泡器 52
浮力 52
涮 52
淋 52
渔轮 52
满屋 52
灰橘 52
特价品 52
特选 52
瑟@@ 52
用品@@ 52
电光 52
男青年 52
皱折 52
盔 52
直上 52
真金 52
矢@@ 52
矽 52
砍 52
福气 52
福鞋 52
童书 52
笛@@ 52
练习@@ 52
结束 52
编制 52
网线 52
腹部 52
膳 52
芒星 52
芭比@@ 52
花篮 52
芷@@ 52
药妆 52
萨斯 52
虹@@ 52
行事历 52
行装 52
街机 52
议) 52
识 52
车带 52
车队 52
软式 52
道士 52
遛 52
郡 52
部队 52
鎏金 52
错过 52
镊子 52
长明灯 52
防螨 52
飞侠 52
飞飞 52
饰品@@ 52
香水@@ 52
马来貘 52
高桥 52
高空 52
髪 52
黑色@@ 52
(24 51
(韩国 51
-43 51
/12 51
1+ 51
1.8米 51
117@@ 51
12.9 51
187 51
1月 51
2012年 51
2020.@@ 51
258 51
28-@@ 51
309 51
334@@ 51
354 51
35mm 51
370 51
4.1 51
45x@@ 51
4g/@@ 51
5x 51
61@@ 51
620@@ 51
718@@ 51
728@@ 51
775@@ 51
790@@ 51
8-10 51
903 51
910@@ 51
995 51
::: 51
a/ 51
a40 51
a80@@ 51
amissa 51
anpanman 51
banila 51
bebe 51
bjd 51
boost@@ 51
cc- 51
cel@@ 51
cer@@ 51
ch-@@ 51
chin@@ 51
cla@@ 51
climacool 51
crazy 51
dio 51
dna 51
e. 51
effect 51
farm 51
ferragamo菲拉格 51
fh@@ 51
formula 51
g- 51
gle 51
id@@ 51
if@@ 51
iron 51
jf 51
k2@@ 51
kirkland 51
laser 51
mann 51
mol@@ 51
moo@@ 51
mouse 51
msp 51
ness 51
p9 51
parker 51
pig@@ 51
pw 51
q7 51
r20 51
ruby 51
ryan 51
s20 51
sentra 51
short 51
sogo 51
t365 51
t6@@ 51
tg 51
undefeated 51
u凸 51
v9 51
volvo 51
wood@@ 51
wt 51
x.@@ 51
xa2 51
xiaomi 51
ᄉ@@ 51
两相宜 51
乒乓球 51
乘@@ 51
习@@ 51
乱斗 51
亲亲 51
优美 51
传感器 51
使用) 51
保护@@ 51
候 51
册@@ 51
冰冰 51
冰棒 51
冷气机 51
凉风 51
减负 51
刮伤 51
医学 51
卓@@ 51
占卜 51
卡莉 51
双肩背 51
发丝 51
古曼@@ 51
吸尘 51
吸收 51
堵塞 51
多孔 51
大) 51
太空人 51
奕迅 51
女大 51
女巫 51
奴@@ 51
如果 51
妆蛋 51
妮维雅 51
婉@@ 51
学会 51
实价 51
对) 51
小伙 51
小型@@ 51
布防 51
弯@@ 51
当家 51
手环@@ 51
手袋@@ 51
拐角 51
挡水 51
捡 51
旅人 51
无铅 51
日月 51
杀￥ 51
松本 51
染料 51
查@@ 51
棉花棒 51
樱花@@ 51
残@@ 51
气泵 51
水胶 51
水银 51
波斯 51
波波@@ 51
波纹 51
泰迪@@ 51
浓郁 51
海岸 51
海豹 51
漂白 51
火腿 51
焦@@ 51
牧场 51
物箱 51
独一无二 51
田玉 51
男单 51
番@@ 51
疏 51
白紫 51
皮件 51
知性 51
砲 51
磅@@ 51
穿衣 51
窥@@ 51
立体@@ 51
签筒 51
篷 51
簇 51
米) 51
米粒 51
粉尘 51
精制 51
红鹤 51
纯水 51
线板 51
终@@ 51
绚@@ 51
继@@ 51
缎 51
网兜 51
老帽 51
脊椎 51
脱妆 51
自身 51
色素 51
芭比娃娃 51
花果 51
菲律宾 51
菲菲 51
萝莉 51
蓉@@ 51
蔻驰@@ 51
薏米 51
蝴蝶@@ 51
行为 51
行李箱@@ 51
袖扣 51
詹姆士 51
订金 51
财神爷 51
超q 51
超大号 51
蹦蹦 51
载@@ 51
辟 51
郁@@ 51
酪 51
酵@@ 51
酿 51
金属框 51
铁链 51
铝材 51
锐@@ 51
长辈 51
闲@@ 51
飞马 51
香榭 51
麒麟 51
$200 50
(#@@ 50
(剩 50
(红色) 50
(长 50
(限量 50
)@@ 50
.7 50
.黑 50
/925 50
/百 50
0001 50
0507 50
1/18 50
10吋 50
15w 50
1600@@ 50
1c 50
2-3 50
2.3 50
2020ss 50
2021/@@ 50
20l 50
237 50
245 50
247@@ 50
25) 50
265 50
2k@@ 50
3.5@@ 50
369 50
39-45 50
3w 50
406 50
4764@@ 50
4d@@ 50
6xl 50
7-11@@ 50
820 50
8l 50
929 50
93/17 50
95-@@ 50
_k@@ 50
a20@@ 50
a75 50
aj6 50
apparel 50
b) 50
bell 50
bucket 50
bwfc 50
chain 50
d3 50
diva 50
dresseum 50
fen@@ 50
fox 50
gift 50
hey 50
home&living 50
hor@@ 50
hot@@ 50
hun@@ 50
ion 50
iroo 50
j&@@ 50
jk@@ 50
kaishi 50
kt-@@ 50
lh@@ 50
m- 50
mh 50
moma 50
neighborhood 50
nite 50
nn@@ 50
pillow 50
pixel 50
qi@@ 50
rilakkuma 50
rx-@@ 50
shield 50
solar 50
stick 50
sunshine 50
tina 50
type@@ 50
t百 50
x2@@ 50
ying 50
yt 50
yun@@ 50
zone 50
˙@@ 50
ラ 50
ロ@@ 50
之前 50
之子 50
九尾狐 50
产地 50
亨@@ 50
伪装 50
伴郎 50
修脚 50
光明 50
关东 50
刀叉 50
切切 50
加长型 50
北仓 50
北方 50
博古 50
卡式 50
卡龙@@ 50
原声 50
去屑 50
发条 50
名匠 50
后灯 50
咬@@ 50
哭 50
啤酒杯 50
喷火 50
国民 50
大蒜 50
天幕 50
太平洋 50
奇奇@@ 50
奕@@ 50
婆 50
字型 50
孩儿 50
宠@@ 50
小便 50
小宜 50
小苏打 50
小铺@@ 50
小鬼 50
尺) 50
山包 50
岑 50
幽@@ 50
度数 50
廉@@ 50
异性 50
归 50
彩笔 50
微光 50
忠 50
悍将 50
悠悠 50
成为 50
手卷 50
扑满 50
打孔器 50
抽气 50
持续 50
捣@@ 50
探照灯 50
断裂 50
新干线 50
本土 50
松下 50
格尔 50
格雷 50
桌游 50
桑拿 50
检定 50
楷书 50
残疾人 50
比特 50
水货 50
油门 50
泫 50
活口 50
派克 50
流明 50
淋浴器 50
满版 50
漂流 50
炸弹 50
烟灰 50
焖 50
爵@@ 50
牛蒡 50
猿@@ 50
玮@@ 50
现实 50
玺@@ 50
瑟 50
疤 50
病毒 50
白面 50
皮毛 50
省钱 50
秀款 50
竞标 50
笔架 50
管理学 50
簿@@ 50
纺车 50
绳) 50
翰林 50
翻毛 50
老板桌 50
联网 50
肚兜 50
肥佬 50
腊肠 50
舟 50
花) 50
药师 50
薯 50
衬衫@@ 50
衬裙 50
袭 50
译@@ 50
误 50
说明书 50
课@@ 50
财经 50
轿车 50
追求 50
配合 50
酒吧台 50
采购 50
金字塔 50
锦鲤 50
键鼠 50
镀钛 50
长项 50
雀斑 50
雪地 50
露台 50
韵律 50
顾客 50
飞龙 50
香水瓶 50
骨架 50
黑手 50
黑管 50
黑线 50
黑色) 50
鼠尾草 50
!!@@ 49
(2018) 49
(下单 49
(灰) 49
(白色 49
(粉色) 49
-06 49
-g@@ 49
0-3 49
1.5l 49
10a 49
13/@@ 49
1t 49
223 49
229 49
242 49
277 49
3*@@ 49
308@@ 49
351 49
36-4@@ 49
505@@ 49
508 49
612 49
630 49
708@@ 49
7s 49
81@@ 49
830 49
905 49
a. 49
a71 49
ala 49
asos 49
auto@@ 49
ava 49
b/@@ 49
bao 49
bel@@ 49
bot 49
cc. 49
cheng 49
cindy 49
d& 49
doom 49
dora 49
ds-@@ 49
fl 49
fp@@ 49
fro@@ 49
g7@@ 49
glc 49
hero@@ 49
hf@@ 49
hk@@ 49
iope 49
iphone8plus 49
lunar@@ 49
m9 49
maison 49
many 49
mdns 49
mk3@@ 49
nn 49
p3 49
planet 49
rex 49
ride 49
rock@@ 49
sense 49
shin 49
sj@@ 49
sk-@@ 49
sofina 49
st-@@ 49
studio@@ 49
s~@@ 49
thermos膳 49
txt 49
uma 49
undercover 49
united 49
v.@@ 49
vol.1 49
wip 49
women's 49
x8 49
ykk 49
ま@@ 49
カ 49
ㄉ@@ 49
下载 49
业务 49
丛书 49
两侧 49
乐趣 49
五星 49
价值 49
位@@ 49
作文 49
保护垫 49
修剪器 49
停车场 49
兆 49
光临 49
光采 49
公共 49
公司级 49
切面 49
制造@@ 49
包内 49
化妆舞会 49
十三 49
危机 49
厕 49
参考书 49
发电机 49
古驰 49
另类 49
台塑 49
后裔 49
告示牌 49
周刊 49
唇萃 49
嘉年华 49
团购 49
垒球 49
培林 49
堡@@ 49
外罩 49
姊妹 49
姜@@ 49
尊@@ 49
尹 49
属@@ 49
崁 49
差@@ 49
幔 49
床帘 49
底部 49
度度 49
开发票 49
开放式 49
忍@@ 49
志祥 49
惯性 49
感恩 49
戈@@ 49
战机 49
房屋 49
扶 49
抽水机 49
拉链式 49
拭@@ 49
拼图@@ 49
持妆 49
推子 49
摇控 49
撞@@ 49
散步 49
新婚 49
无线@@ 49
权@@ 49
杯) 49
杵 49
构造 49
桌脚 49
检测仪 49
椒@@ 49
水剂 49
污@@ 49
汽材 49
油炸 49
油炸锅 49
油膏 49
沿 49
涛 49
港仔 49
湾@@ 49
满足 49
演 49
灌@@ 49
火热 49
牙骨 49
特定 49
狄@@ 49
猪排 49
珂 49
珉 49
疮 49
疾风 49
皮夹克 49
盔甲 49
矶钓 49
破壁 49
神龙 49
票据 49
禁@@ 49
禧 49
税) 49
策略 49
算@@ 49
米妮@@ 49
糖蛋白 49
紫红 49
组织 49
终局 49
结实 49
绣球 49
肝 49
肾 49
胶布 49
胺 49
脏@@ 49
腰椎 49
腻子 49
茂@@ 49
茶托 49
荞麦 49
蒜泥 49
蔓 49
蔻超 49
表器 49
表现 49
裁缝 49
裆@@ 49
角川 49
课桌 49
象牙 49
辅料 49
运动衣 49
进口@@ 49
野狼 49
钉枪 49
钩子 49
铰链 49
锤子 49
键帽 49
防火 49
驻 49
高点 49
(1@@ 48
(25 48
(美 48
(适用 48
-x@@ 48
106@@ 48
12*@@ 48
12v24v 48
14吋 48
16/@@ 48
173 48
18ss 48
2011年 48
212@@ 48
255 48
281 48
33-@@ 48
335 48
3p 48
408 48
41-@@ 48
5x@@ 48
6-001 48
6/26 48
655 48
7mm 48
909 48
988 48
9t 48
adilette 48
board 48
c. 48
cbr@@ 48
co2 48
compact 48
dior迪奥 48
durant 48
eni@@ 48
fang 48
fi 48
full 48
gam@@ 48
hol@@ 48
hoo@@ 48
hs@@ 48
i/@@ 48
icash2.0 48
ins@@ 48
ipsa 48
ito 48
kanebo 48
keds 48
kon@@ 48
l/ 48
land@@ 48
last 48
legend 48
lov@@ 48
lovfee 48
ma-@@ 48
neonoe 48
olivia 48
pal@@ 48
percent 48
pouch 48
r11s 48
rouge 48
rs-@@ 48
s'@@ 48
shock 48
silver@@ 48
sp-@@ 48
tattoo 48
teco 48
tn 48
tnf 48
tr70 48
ul 48
u形 48
way@@ 48
z2 48
zoe 48
ᅩ 48
ᅳ 48
ᅵ@@ 48
➋@@ 48
て@@ 48
东海 48
丶 48
乐蒂@@ 48
互@@ 48
五合一 48
仲 48
俐落 48
倾心 48
六字真言 48
凹槽 48
前叉 48
副@@ 48
加水 48
加绒@@ 48
十八 48
单筒 48
原厂 48
双星 48
发展 48
口臭 48
口钳 48
叶片 48
哈特 48
喊 48
国标 48
圆顶 48
坚固 48
奥特 48
女佣 48
好友 48
婕 48
婕@@ 48
字典 48
完结 48
宜兰 48
宝典 48
客场 48
宥@@ 48
导线 48
小仓 48
小毛 48
小气 48
座钟 48
引擎盖 48
归@@ 48
心) 48
悬疑 48
手枪钻 48
护板 48
拉拉@@ 48
揪 48
摆放 48
攀爬 48
敦@@ 48
新居 48
方盒 48
映@@ 48
木偶 48
朱砂 48
机票 48
梭 48
榨@@ 48
死角 48
殿堂 48
水培 48
水头 48
永不 48
沐沐 48
泡芙 48
海洋@@ 48
润滑剂 48
溯溪 48
溶@@ 48
滨 48
潜@@ 48
潜行 48
火线 48
热缩 48
熔@@ 48
爽肤 48
牛牛 48
物袋 48
猎 48
球形 48
痒 48
白领 48
皱纹 48
直线 48
砲@@ 48
碎@@ 48
祛斑 48
私藏 48
秋裤 48
称重 48
稳固 48
空专 48
类@@ 48
纪念日 48
终 48
绫@@ 48
耳机@@ 48
脚器 48
自家 48
自我 48
舔@@ 48
色粉 48
艾玛 48
莜莜 48
莱特 48
行器 48
街@@ 48
衣舖 48
裂缝 48
褐色 48
襦裙 48
西西 48
谱架 48
贼 48
路线 48
踝 48
车间 48
转动 48
转向 48
辰@@ 48
边防 48
远近 48
送人 48
选手 48
选择) 48
通过 48
道家 48
郁金香 48
配备 48
金金 48
錬@@ 48
钢印 48
钥@@ 48
钵 48
钻孔 48
铅笔@@ 48
铜板 48
阿尔@@ 48
阿拉丁 48
阿泰 48
阿玛@@ 48
隔水 48
雪白 48
露乳 48
风刺 48
风干 48
香吉士 48
马铃薯 48
鲇鱼 48
鲨@@ 48
默 48
ｉ@@ 48
(保证 47
(陈 47
-07 47
-12@@ 47
10l 47
141 47
15*@@ 47
158@@ 47
18) 47
18w 47
1st 47
2002 47
2006 47
2019.@@ 47
215 47
226 47
252 47
2m 47
31-@@ 47
318@@ 47
321 47
349 47
361 47
40cm 47
411@@ 47
434@@ 47
5.2 47
6*@@ 47
610@@ 47
660 47
675@@ 47
705 47
777 47
8a 47
908 47
9789865@@ 47
>@@ 47
_q@@ 47
age@@ 47
ant@@ 47
aro@@ 47
ashlee's 47
a赏 47
b00@@ 47
b1 47
bred 47
b赏 47
can 47
colors 47
d2@@ 47
dri-fit 47
eh-@@ 47
eng@@ 47
epi 47
f36@@ 47
fac@@ 47
fen 47
final 47
fuji 47
fuji@@ 47
g+@@ 47
green@@ 47
happy@@ 47
h扣 47
icon 47
ie 47
impact 47
intex 47
j1 47
jin@@ 47
jun 47
kit@@ 47
kw 47
legacy 47
lux@@ 47
magi@@ 47
mod 47
mw 47
nex@@ 47
oblique 47
pant 47
peppa 47
point 47
qc 47
rich 47
s4 47
sg 47
shorts 47
slp 47
storm 47
surface 47
t6 47
totoro 47
tsumtsum 47
v10 47
via 47
zeus 47
〖@@ 47
レ@@ 47
上下床 47
不再 47
东北 47
中间 47
久坐 47
亮泽 47
便条 47
信纸 47
光碟) 47
具) 47
凉拖鞋 47
凝膜 47
切换 47
半高 47
卡套 47
原始 47
厨卫 47
双筒 47
口服 47
可变 47
右手 47
吊车 47
后置 47
吸睛 47
呼@@ 47
品: 47
哥伦比亚 47
哲学 47
圣母 47
在家 47
壹体 47
外星人 47
外送 47
太阳@@ 47
姊姊 47
姐@@ 47
嫣 47
孟@@ 47
安抚巾 47
定时器 47
宝丽来 47
宣@@ 47
家生 47
宸 47
小东西 47
小米米家 47
工具袋 47
席@@ 47
弧@@ 47
御用 47
德曼 47
手术 47
手脚 47
打蛋 47
托德斯 47
折叠凳 47
披@@ 47
拜拜 47
拥抱 47
推杆 47
描 47
搏击 47
收款 47
斌 47
新色 47
旅馆 47
时报 47
春酒 47
晋 47
晕 47
晶石 47
更@@ 47
杂货舖 47
果香 47
柏林 47
标价 47
桌灯 47
欢喜 47
毛绒绒 47
水温 47
水溶 47
水质 47
油光 47
洋葱 47
洪@@ 47
浩@@ 47
消磁 47
淇淋 47
淑 47
湿气 47
滤清器 47
灌篮高手 47
灵动 47
炒菜锅 47
焊工 47
牡蛎 47
特惠@@ 47
犬用 47
玫红 47
玻璃球 47
珍宝 47
癌 47
白星 47
白花 47
皮革@@ 47
看板 47
睫 47
稀少 47
粉红@@ 47
紫) 47
纯棉@@ 47
缤@@ 47
翘板 47
耶 47
职业装 47
胸围 47
脑@@ 47
脖式 47
臂力 47
自信 47
芮&美 47
花香 47
苏格兰 47
萤@@ 47
虚@@ 47
行星 47
补色 47
装机 47
裤管 47
视野 47
认 47
论@@ 47
贺卡 47
超紧 47
车锁 47
辉@@ 47
迅@@ 47
迎 47
送客 47
速效 47
郊游 47
部曲 47
配戴 47
配电 47
重要 47
金莎 47
针孔 47
钉书机 47
铁灰色 47
铅@@ 47
银弹 47
青柠 47
面机 47
面积 47
风筝 47
鲜食 47
鸵鸟 47
鸽子 47
麻辣烫 47
#款 46
(10@@ 46
(80 46
(d@@ 46
(w@@ 46
(未 46
(爱 46
....... 46
/// 46
0.2 46
0.8 46
005@@ 46
11/11 46
138@@ 46
16) 46
18*@@ 46
275 46
311@@ 46
319 46
35-41 46
37-@@ 46
384 46
409 46
555088@@ 46
6-8 46
709 46
747@@ 46
8*@@ 46
848@@ 46
_y@@ 46
a50@@ 46
angel@@ 46
ar18@@ 46
arduino 46
arts 46
ba-@@ 46
batman 46
bella 46
box@@ 46
brembo 46
brush 46
cen@@ 46
cro@@ 46
das 46
dionysus 46
diva's 46
dp@@ 46
dt@@ 46
dv 46
d赏 46
ec 46
edifice 46
egg 46
ek@@ 46
flash 46
g2 46
gazelle 46
gh 46
gre@@ 46
hand@@ 46
hola 46
jt 46
kikilala 46
kiwi 46
kyosho 46
lon 46
mart 46
mavic 46
mk58@@ 46
mq@@ 46
nan@@ 46
nd@@ 46
nfc 46
nor@@ 46
ok@@ 46
olive 46
origins 46
oz/@@ 46
park 46
people 46
ping 46
polly 46
prada/ 46
qasa 46
r7 46
rain@@ 46
real@@ 46
rg 46
ry 46
spf50+ 46
str@@ 46
t3 46
tar@@ 46
tic 46
tom@@ 46
ut 46
vans万 46
walker 46
westwood 46
wf@@ 46
x12 46
x21 46
xy@@ 46
za@@ 46
zy@@ 46
ᆫ 46
∮ 46
ふ@@ 46
ク 46
下册 46
临@@ 46
乘 46
乡@@ 46
二手) 46
些 46
交易 46
亮亮 46
任选) 46
伊丽莎白 46
伍@@ 46
保温壶 46
俱 46
光头 46
全家福 46
公民 46
养颜 46
冰柜 46
切割器 46
印泥 46
发泄 46
只) 46
名人 46
君子 46
品# 46
哆@@ 46
哈密瓜 46
哩 46
唇膏#@@ 46
回礼 46
图样 46
墨西哥 46
大卫 46
奔腾 46
奢侈品 46
女婴 46
女帽 46
女段 46
子长 46
字幕 46
审@@ 46
家居@@ 46
小楷 46
小球 46
尘@@ 46
屑@@ 46
屯 46
帐@@ 46
干裂 46
彩带 46
待@@ 46
怀孕 46
恤@@ 46
感光 46
感应器 46
手机@@ 46
打孔机 46
护发膜 46
护罩 46
抽水器 46
拉长 46
拉长石 46
挖土机 46
挖掘机 46
捉 46
捣蒜 46
揹 46
搜@@ 46
搜寻 46
撕@@ 46
文具@@ 46
方程式 46
旅行用 46
明亮 46
晨光 46
暂 46
月份 46
服贴 46
札@@ 46
束发带 46
板架 46
果绿 46
柳丁 46
标) 46
格林 46
梭织 46
橄榄绿 46
次) 46
氧@@ 46
泄 46
消费 46
淘气 46
漏勺 46
潜水表 46
澡盆 46
灾 46
热狗 46
焖烧 46
爽身粉 46
珈@@ 46
用电 46
皿 46
矿泉水 46
磁吸式 46
磨刀 46
秀气 46
稻 46
稻@@ 46
穿越 46
童装@@ 46
笑笑 46
类似 46
纶 46
纽@@ 46
绯@@ 46
缇嘉 46
羞@@ 46
者@@ 46
聚光 46
背负式 46
膨胀 46
膳@@ 46
至@@ 46
航模 46
船锚 46
艾米粒 46
花型 46
苔藓 46
莎莎 46
藻土 46
螺旋@@ 46
衣夹 46
袍@@ 46
裆 46
裤. 46
证) 46
调味品 46
贴心 46
车箱 46
软膜 46
边毯 46
醇@@ 46
金泰亨 46
错@@ 46
门门 46
队服 46
阴毛 46
附送 46
韩超 46
飞盘 46
魔神 46
麂皮绒 46
(二@@ 45
(台中 45
(现 45
(银 45
-004 45
-15 45
/5 45
/b@@ 45
1.25 45
1080 45
124@@ 45
13.@@ 45
130g 45
14) 45
1x 45
2.4a 45
215@@ 45
263 45
3-100 45
3.3 45
345 45
4.2 45
4xl 45
552 45
609 45
670@@ 45
6x@@ 45
820@@ 45
830@@ 45
834@@ 45
960@@ 45
99-@@ 45
aero 45
amigo 45
be@rbrick 45
bhm 45
bir@@ 45
blade 45
brita 45
bro@@ 45
bz@@ 45
care@@ 45
cci 45
cd-@@ 45
coin 45
d5@@ 45
din@@ 45
dvd-@@ 45
edc 45
emilie 45
epsom 45
ever@@ 45
f30 45
fendi/ 45
fy@@ 45
gb/@@ 45
gio 45
gk@@ 45
gti 45
gunze 45
harden 45
heat 45
heritage 45
hf 45
hl 45
hop 45
hybrid 45
ice@@ 45
line@@ 45
lm@@ 45
lou@@ 45
m-5xl 45
m. 45
m435@@ 45
march 45
marjorie 45
mbs 45
ml574 45
nerf 45
nillkin 45
onitsuka 45
pa++ 45
panerai沛纳海 45
paul& 45
pf 45
pilot百 45
pooh 45
rabbit 45
rpm 45
s-l 45
sakura 45
se/@@ 45
simba 45
t10 45
tab@@ 45
tam@@ 45
thom 45
tiida 45
tin@@ 45
tit@@ 45
tonymoly 45
tru@@ 45
t恤百 45
t连 45
versace@@ 45
wb 45
wow 45
wx@@ 45
xv 45
yam@@ 45
yan@@ 45
yun 45
ᅡ 45
∣ 45
∮@@ 45
▷蔡 45
专供 45
专注 45
世界@@ 45
主板 45
习 45
亦@@ 45
产业 45
人造@@ 45
仪表板 45
企管 45
体积 45
体脂 45
佳品 45
保留) 45
偏远 45
克里里 45
全书 45
内部 45
冲击钻 45
凝冻 45
分体式 45
利率 45
刷) 45
功放 45
变化 45
古玩 45
只能 45
各类 45
吸铁石 45
吸音 45
咖啡因 45
器械 45
因为 45
垫圈 45
域@@ 45
墬 45
壳) 45
外衣 45
大沿 45
大米 45
大逃杀 45
大野 45
大马士革 45
头牌 45
娃娃@@ 45
宋@@ 45
家◁ 45
容易 45
小丸 45
小头 45
小户 45
小鹿斑比 45
山羊 45
岁) 45
师大 45
开放 45
弱 45
得意 45
怀@@ 45
性价比 45
患 45
手串 45
手工艺品 45
才@@ 45
抗氧化 45
报警 45
拆售 45
拧 45
拳击手套 45
捕@@ 45
提琴 45
收银机 45
教科书 45
斑点 45
族@@ 45
旷野 45
枣@@ 45
柒 45
框) 45
档@@ 45
棋@@ 45
模块 45
每天 45
水盆 45
沙盘 45
滋味 45
滑地 45
漂移 45
演讲台 45
澎@@ 45
特技 45
狂野 45
玧其 45
珪 45
球星 45
电脑@@ 45
画本 45
白纱 45
白起 45
百宝箱 45
目前 45
相框 45
矮@@ 45
磨刀石 45
租@@ 45
积雪草 45
立即 45
符号 45
等) 45
米缸 45
纯金 45
纸质 45
细胞 45
绮@@ 45
绿豆 45
聚财 45
肩颈 45
自动@@ 45
艾斯 45
艾灸@@ 45
药局 45
营养@@ 45
薄膜 45
蜜妮 45
装甲 45
西雅图 45
观光 45
解题 45
议价: 45
诚@@ 45
负重 45
财运 45
路亚@@ 45
软性 45
软骨 45
连接器 45
遥 45
镜箱 45
长毛 45
闪烁 45
鞋) 45
领针 45
颗@@ 45
饰) 45
骑士@@ 45
骑士队 45
高频 45
魔芋 45
鲜肉 45
鲸 45
黄) 45
黄绿 45
黏胶 45
(亮 44
(米 44
-22 44
006@@ 44
1-001 44
1-100 44
114@@ 44
1150 44
14.5 44
17) 44
193 44
194 44
20) 44
218@@ 44
3-0@@ 44
305@@ 44
32/@@ 44
328 44
334 44
367 44
38-@@ 44
3kg 44
415@@ 44
48-@@ 44
4g@@ 44
4ml 44
6.6 44
60/@@ 44
607 44
693 44
780 44
80/@@ 44
803 44
90/@@ 44
991 44
9m 44
aa3@@ 44
ale 44
ane 44
arden 44
balance新百 44
bandai@@ 44
bit 44
c2 44
campus 44
cha 44
cube 44
dance 44
dark 44
days 44
dm-@@ 44
dre@@ 44
e) 44
easy@@ 44
elantra 44
eri@@ 44
fast 44
fifty 44
gogo@@ 44
goods 44
hand 44
i7-@@ 44
ini 44
iphone6plus 44
iq@@ 44
j4@@ 44
joyride 44
juice 44
juicy 44
lady@@ 44
med 44
mis@@ 44
miu@@ 44
mm-@@ 44
monkey 44
mv 44
nat@@ 44
peach 44
pick 44
ple@@ 44
s+ 44
say 44
shopping 44
stay 44
strap 44
tape 44
td 44
tu 44
ub@@ 44
unt 44
v6 44
w204 44
wan 44
why&1/2 44
x_plr 44
xs/@@ 44
yves 44
ᅵ 44
み@@ 44
ら@@ 44
一对一 44
丈 44
上线 44
下标@@ 44
串串 44
乳牛 44
人民 44
仙鹤 44
份@@ 44
保暖@@ 44
假发 44
偷窥 44
光控 44
光源 44
冬日 44
净肤 44
凉感@@ 44
出生 44
凿 44
刮刮 44
制作@@ 44
剁 44
剥@@ 44
包户 44
包装@@ 44
化机 44
南方 44
卢@@ 44
原住民 44
去毛 44
取) 44
变成 44
变速箱 44
古堡 44
台下 44
台东 44
告知 44
咕叽 44
品木 44
哪 44
围嘴 44
地铁 44
壹字 44
处理器 44
夏凉 44
夹心饼干 44
奇兵 44
奈米@@ 44
妤@@ 44
妮子 44
安装) 44
宝格 44
实木@@ 44
实际 44
家具城 44
封闭式 44
小卡@@ 44
小和尚 44
小时候 44
小毛巾 44
巫师 44
带) 44
康宁 44
引体向上 44
彩印 44
感觉 44
房门 44
挡泥板 44
排风扇 44
文昌 44
方圆 44
晨曦 44
替代 44
月球 44
服务员 44
木椅 44
本月 44
杂货) 44
条形 44
标本 44
棉纱 44
椰子油 44
模特儿 44
款/@@ 44
永和 44
油脂 44
泡汤 44
涂@@ 44
润发 44
湖南 44
灭菌 44
烛@@ 44
烟酰胺 44
煤@@ 44
煮@@ 44
熨衣 44
熨衣板 44
爷爷 44
猫薄荷 44
珀@@ 44
生化 44
生活@@ 44
画布 44
登山杖 44
破裂 44
科克兰 44
窗花 44
竞赛 44
篮球架 44
糯米 44
终结 44
经书 44
绽放 44
羊毛衫 44
美版 44
美金 44
肌底 44
脚踏式 44
脱落 44
舌头 44
舒丹 44
舒适@@ 44
艾莉丝 44
茶艺 44
落叶 44
薯@@ 44
蜂箱 44
蝉 44
衣帽钩 44
记号 44
课桌椅 44
贝蒂 44
购物@@ 44
软膏 44
过夜 44
这@@ 44
送给 44
速器 44
邮政 44
重点 44
金光 44
金沙 44
金龙 44
钢弹 44
铁道 44
铜线 44
防护网 44
阴影 44
阻 44
陪 44
隐扣 44
靴男 44
项@@ 44
飙@@ 44
飞沫 44
香氛@@ 44
鲔鱼 44
ｓ@@ 44
ｔ 44
#1 43
#3 43
#7@@ 43
#下杀 43
$新品 43
(gs) 43
(黄) 43
-08 43
-28 43
/s 43
0.0 43
0.6 43
10% 43
1166@@ 43
196 43
2-001 43
2. 43
2.6 43
224@@ 43
2400 43
278@@ 43
285 43
312@@ 43
362 43
410@@ 43
417@@ 43
4e 43
523@@ 43
5547@@ 43
570 43
5xl 43
6.2 43
626@@ 43
70/@@ 43
718 43
806@@ 43
816 43
8plus/@@ 43
921 43
999@@ 43
=@@ 43
@秒 43
ale@@ 43
alex 43
amo@@ 43
astone 43
axis 43
boots 43
bow@@ 43
brick 43
camera 43
chimei 43
ching 43
constance 43
cut 43
dor@@ 43
dsq 43
e5@@ 43
ear@@ 43
eb@@ 43
elf 43
evisu 43
evo@@ 43
excelsior 43
fine 43
flyknit@@ 43
gla@@ 43
goose 43
her 43
high@@ 43
hugo 43
iphone6/6s 43
iphonexr 43
kf@@ 43
kor@@ 43
lia 43
limited 43
lotto 43
mar 43
mate20 43
mcq 43
medium 43
mercedes 43
ml*2 43
monsta 43
moonstar 43
mx 43
m~@@ 43
ner 43
nina 43
now 43
nr-@@ 43
oa 43
orange 43
p20@@ 43
rd 43
rilakkuma拉拉 43
roxy 43
rt 43
shark 43
store@@ 43
suit 43
swingman 43
uv400 43
vomero 43
wan@@ 43
wwe 43
y/ 43
{{ 43
⃣ 43
ミ@@ 43
レ 43
ロ 43
三环 43
下杀&@@ 43
丞@@ 43
丢@@ 43
人人 43
今@@ 43
仓储 43
代谢 43
佩奇 43
使@@ 43
供应) 43
停车牌 43
全长 43
公式 43
公益 43
冢虎 43
凛@@ 43
几何图形 43
分解 43
切菜板 43
刮痕 43
匣 43
午安 43
卡子 43
卡尺 43
卡斯@@ 43
印第安 43
卷心 43
双) 43
双杠 43
叠@@ 43
口味) 43
口袋@@ 43
古巴特 43
可梦 43
可能 43
呎 43
员@@ 43
品名 43
品茗杯 43
回来 43
国棉 43
地缚 43
埠 43
壹家 43
多样 43
大v 43
大幅 43
天蓝色 43
妇幼 43
媛 43
存放 43
孝@@ 43
学生装 43
封条 43
封膜 43
将@@ 43
小晴 43
小票 43
小香@@ 43
属于 43
平板电脑 43
彩妆@@ 43
徕@@ 43
恨 43
悬@@ 43
想想 43
成形 43
扬声器 43
拌面 43
拳套 43
挎@@ 43
接触 43
收购 43
旅程 43
旋钮 43
晨@@ 43
有间 43
材料@@ 43
杓 43
查理布朗 43
桐@@ 43
楦@@ 43
氧气 43
汤姆福特 43
治疗 43
泉水 43
洁肤 43
流行色 43
测试仪 43
渊 43
游标卡尺 43
湿控 43
漫游 43
炉子 43
烟嘴 43
焊@@ 43
焗@@ 43
照灯 43
牙器 43
牡丹花 43
玩具狗 43
珠帘 43
甘草 43
电笔 43
矿物质 43
积@@ 43
稿 43
空气@@ 43
绕@@ 43
缺@@ 43
网咖 43
翡 43
耐吉 43
肤霜 43
肩部 43
自卫 43
自取) 43
芊@@ 43
芦洲 43
茗 43
葵@@ 43
蒲 43
薄饼 43
藕色 43
裕@@ 43
裸睡 43
角钢 43
誉 43
足贴 43
车尾 43
逻辑 43
郎@@ 43
野马 43
钉子 43
铜管 43
铸 43
门板 43
防噪音 43
限量@@ 43
院@@ 43
雅轩 43
青铜 43
韩东 43
顺畅 43
颜霜 43
验@@ 43
魔兽 43
鱼儿 43
鲸@@ 43
鹅@@ 43
麦芽 43
黑芝麻 43
#可 42
(出清 42
(勿 42
(女 42
(正版 42
-28@@ 42
/nike 42
/三 42
010 42
1-1 42
1/12 42
12.3 42
16cm 42
1700 42
22-@@ 42
22/@@ 42
228@@ 42
266 42
28mm 42
292@@ 42
2c 42
2p 42
30日 42
3200 42
332 42
355@@ 42
368 42
3x@@ 42
5.7 42
555@@ 42
6. 42
60x 42
616@@ 42
7/7@@ 42
774 42
9a 42
als 42
anti@@ 42
armani/ 42
cd+@@ 42
cob 42
coo@@ 42
c纹 42
daisy 42
edwin 42
elizabeth 42
energy 42
f3 42
fate/@@ 42
forever21 42
friend 42
gildan 42
gold@@ 42
hao@@ 42
hud 42
it's 42
j3 42
j4 42
just@@ 42
kc@@ 42
kingston 42
lamigo 42
m/ 42
m612@@ 42
mate10 42
mate30 42
melissa 42
mesh 42
mir@@ 42
mom 42
mono 42
odyssey 42
ozweego 42
pa++++ 42
pets 42
ps4@@ 42
qw@@ 42
redmi 42
s10@@ 42
s8+@@ 42
shot 42
socks 42
stephen 42
ster@@ 42
sz@@ 42
t8 42
tag 42
tenga 42
th-@@ 42
tiguan 42
tiny 42
u12 42
v1 42
v11 42
voyage 42
w8 42
what 42
wk@@ 42
xl-@@ 42
xmart 42
z4 42
¥@@ 42
る@@ 42
マ@@ 42
丁香 42
上学 42
丨 42
中青年 42
义大利@@ 42
书_ 42
二手车 42
仕皮带 42
代客 42
任务 42
俗@@ 42
健身器 42
克力立牌 42
免邮 42
养蜂 42
决@@ 42
办@@ 42
加重 42
勃肯 42
化石 42
占@@ 42
发根 42
发蜡 42
受损 42
口琴 42
可) 42
可穿) 42
吉他弦 42
名画 42
呀 42
周杰 42
咩咩 42
哈哈 42
哨 42
嘎@@ 42
器皿 42
坏@@ 42
埋 42
处女 42
外文 42
大和 42
大鱼 42
大麦 42
天王 42
头短 42
安然 42
宪 42
小天使 42
小天鹅 42
小白兔 42
小苍兰 42
小钢炮 42
尺寸@@ 42
干货 42
康复 42
廊 42
异端 42
彩蛋 42
念佛 42
怀 42
怀表 42
恒久 42
恰 42
悦@@ 42
打光 42
抠 42
拳@@ 42
挑色 42
损@@ 42
接收 42
描金 42
揹带 42
搬运车 42
播@@ 42
救生衣 42
斐 42
新潮 42
暖炉 42
有弹性 42
机上 42
柔肤 42
查理 42
案@@ 42
梓@@ 42
橄榄@@ 42
毛茸茸 42
汉字 42
沙拉@@ 42
沥@@ 42
油) 42
泛@@ 42
海夹 42
涂色 42
清夜 42
清洁@@ 42
滋补 42
炖 42
炸@@ 42
烊千玺 42
烘烤 42
烯 42
猪皮 42
猿 42
环卫 42
生鲜 42
甲壳 42
电吹风 42
男t恤 42
白米 42
相关 42
码器 42
磨砂膏 42
祛@@ 42
神脑 42
禁止 42
第八 42
篆刻 42
粉底霜 42
粉灰 42
素雅 42
纤长 42
纯净水 42
绿色) 42
置地 42
老花眼镜 42
职@@ 42
肚@@ 42
肛门 42
肤露 42
胎盘 42
胭脂 42
腹@@ 42
膜) 42
色块 42
色调 42
芥@@ 42
花仙子 42
茶室 42
菈 42
菲拉格慕 42
蓝天 42
薏仁 42
融 42
西柚 42
贡缎 42
资材 42
跟着 42
跨@@ 42
路卡 42
车型 42
车组 42
转生 42
轮椅 42
迷你@@ 42
适配 42
逃@@ 42
通通 42
道会 42
那些 42
里面 42
金币 42
铁路 42
铭@@ 42
锹 42
闷 42
阿拉@@ 42
阿曼尼 42
阿里山 42
陌@@ 42
雅痞 42
青花 42
鞋凉 42
音符 42
预防 42
颈圈 42
频道 42
骷颅 42
魔女宅急便 42
鳕鱼 42
鹏 42
＜@@ 42
ｃ@@ 42
ｄ@@ 42
🏼 42
#下杀# 41
(21@@ 41
(40 41
(下 41
(宅 41
(盒装) 41
(绿 41
(预@@ 41
-1a 41
-30 41
-t@@ 41
-w@@ 41
1+2 41
1-5@@ 41
1001 41
125g 41
139@@ 41
14k金 41
1500@@ 41
16吋 41
179 41
213 41
217 41
221 41
248 41
288 41
29) 41
2d 41
3.0@@ 41
3.2 41
318 41
338 41
413@@ 41
45/@@ 41
460@@ 41
474@@ 41
525@@ 41
640 41
707 41
8-12 41
875@@ 41
955 41
_j@@ 41
any@@ 41
atomy 41
banpresto 41
bu 41
bun@@ 41
bus 41
buy@@ 41
c&@@ 41
cab@@ 41
clear 41
couture 41
d/ 41
die@@ 41
disney@@ 41
ear 41
ei 41
elsa 41
ew 41
eyeshadow 41
fantasy 41
fendi@@ 41
gle@@ 41
h7@@ 41
hal@@ 41
ham@@ 41
ih 41
ins百 41
jun@@ 41
kat@@ 41
kb 41
kpu 41
lai 41
lai@@ 41
lanvin 41
let 41
lipstick 41
lv-@@ 41
master@@ 41
ment 41
miyuki 41
ml/100 41
moire 41
montaigne 41
nasa 41
nc@@ 41
ns@@ 41
ola 41
peak 41
pra@@ 41
rayban雷朋 41
sa-@@ 41
sc-@@ 41
shell 41
sigma 41
soldier 41
sq 41
sulwhasoo 41
syn@@ 41
toto 41
ue 41
uk@@ 41
und@@ 41
use 41
val@@ 41
vans@@ 41
vuitton/ 41
v纹 41
williams 41
wonder 41
wp@@ 41
xt@@ 41
x型 41
y. 41
y9@@ 41
yn@@ 41
zenpad 41
ひ@@ 41
シ 41
テ@@ 41
一壶 41
七星 41
三叶 41
三孔 41
三峡 41
三段式 41
下床 41
不良 41
书夹 41
书屋 41
乳牙 41
亭@@ 41
亲自 41
人力 41
会议室 41
低脂 41
修眉 41
倾城 41
儿时 41
全日 41
公职 41
兼 41
再见 41
军用 41
军风 41
凹 41
制版 41
加速 41
博文 41
卡牌 41
卷) 41
压力锅 41
压缩机 41
双倍 41
变形虫 41
叫@@ 41
吉他@@ 41
吊架 41
同轴 41
名片盒 41
咕咕 41
唇笔 41
因@@ 41
塞斯 41
增大 41
士林 41
大底 41
天花板 41
宝儿 41
宰 41
寒流 41
尊贵 41
小区 41
小羊皮 41
小豆 41
小龙 41
年底 41
底乳 41
弹力@@ 41
当季 41
徒 41
意见箱 41
成本 41
打草 41
批发) 41
抑@@ 41
护腿 41
抬头 41
拉筋 41
掌上型 41
握@@ 41
摩天 41
收纳筒 41
攻击 41
教师节 41
敢 41
日晒 41
旱冰 41
月牙 41
有缘 41
望@@ 41
机工 41
机械@@ 41
材质: 41
杠铃 41
极地 41
柔滑 41
柯瑞 41
标记 41
桂格 41
樟@@ 41
款款 41
毛巾@@ 41
汀@@ 41
泪@@ 41
洗剂 41
洗手乳 41
涂装 41
消防@@ 41
淳@@ 41
澄 41
炎@@ 41
炮@@ 41
热销) 41
焙 41
燕麦片 41
爆款# 41
爱马仕@@ 41
狼牙 41
猩猩 41
献 41
玉米@@ 41
玩物 41
玫瑰色 41
珍珠粉 41
瑰@@ 41
生酮 41
用车 41
申 41
电子@@ 41
画像 41
畔 41
白条 41
白菜 41
白蜡 41
省@@ 41
矽灵 41
科大 41
称@@ 41
笔电 41
籐@@ 41
米茄@@ 41
糕@@ 41
紫藤 41
红款 41
红萝卜 41
纪念册 41
细条纹 41
绿化 41
胶片 41
胶膜 41
胸肌 41
脏污 41
脸型 41
芋@@ 41
药材 41
落地窗 41
葡萄柚 41
蒂蒂 41
蕙@@ 41
蚕 41
蛤蟆 41
蟾蜍 41
行) 41
补习 41
袋鼯 41
裂纹 41
褐@@ 41
褪色 41
视听 41
解锁 41
详@@ 41
诱@@ 41
质地 41
资料架 41
赖@@ 41
透明@@ 41
酷酷 41
金银花 41
金门 41
钥 41
钥匙@@ 41
铁片 41
镯子 41
附小 41
霏 41
鞋潮 41
韦 41
韶涵 41
香粉 41
马克@@ 41
驼@@ 41
高飞 41
魔法@@ 41
鸭舌 41
黎@@ 41
黏贴@@ 41
龙眼 41
#秒 40
(150 40
(g@@ 40
(中文版) 40
(售 40
(手 40
(第二 40
(美国 40
).@@ 40
-z@@ 40
1.00 40
1101 40
12-18m 40
137@@ 40
160g 40
180g 40
18mm 40
1900 40
2006年 40
2010年 40
214 40
22*@@ 40
25.5 40
273 40
3.7v 40
313@@ 40
32-@@ 40
35/@@ 40
36--44 40
373 40
395@@ 40
407 40
496@@ 40
4x@@ 40
5*@@ 40
5v@@ 40
5w@@ 40
630@@ 40
780@@ 40
8d 40
916@@ 40
920@@ 40
9789866@@ 40
\\\\\ 40
_o@@ 40
acg 40
aj12 40
aki 40
alano 40
amiibo 40
anello 40
armani@@ 40
balmain 40
browne 40
cd+dvd 40
cell 40
charlotte 40
chicago 40
chloe@@ 40
choker 40
cicily 40
crossbody 40
d&@@ 40
damier 40
discovery 40
ek 40
exchange 40
f2 40
flap 40
force@@ 40
frozen 40
fy 40
gol@@ 40
h&@@ 40
hip 40
hw@@ 40
integrate 40
ite@@ 40
jl 40
k3@@ 40
ker 40
klein@@ 40
lbj@@ 40
led灯 40
ltd 40
mu 40
nes 40
note4x 40
oni 40
osmo 40
pentel 40
platinum 40
pro-@@ 40
puku 40
pur@@ 40
r11@@ 40
reading 40
ren 40
rf 40
ros 40
rou@@ 40
rucksack 40
s-3xl 40
sheturwx881 40
show@@ 40
snapback 40
supreme@@ 40
t-arts 40
tan 40
tim 40
tint 40
toe 40
toms 40
tra 40
t韩 40
ure 40
us9 40
vjr 40
wind 40
winflo 40
xz1 40
yuri 40
๑@@ 40
ღ唯一 40
う@@ 40
ち@@ 40
ヒ@@ 40
七号 40
万用@@ 40
万用表 40
不断 40
且 40
两瓶 40
中原 40
之钥 40
乳清蛋白 40
享受 40
代) 40
代理@@ 40
仪式 40
价款 40
侦测 40
假人 40
停@@ 40
健身车 40
储物 40
充头 40
光华 40
克) 40
八宝 40
公交 40
删减 40
十字@@ 40
单张 40
南洋 40
卿 40
双开 40
双龙 40
发发 40
发电 40
古曼 40
另@@ 40
台阶 40
品种 40
唇部 40
喜爱 40
均衡 40
坦 40
复刻 40
大声 40
婷@@ 40
小文 40
小火 40
岭 40
巅峰 40
工作@@ 40
巫婆 40
庆典 40
底价 40
店舖 40
开水 40
彻 40
忘@@ 40
成语 40
扎染 40
抵@@ 40
抹@@ 40
拉环 40
拉货 40
拿@@ 40
挂锁 40
排骨 40
攀岩 40
新式 40
日子 40
木箱 40
本式 40
本草 40
机座 40
杀价@@ 40
染色剂 40
柚 40
棱@@ 40
橱@@ 40
正牌 40
步摇 40
武海 40
死侍 40
氛 40
水解 40
清洁工具 40
港版 40
游泳裤 40
烟管 40
烹饪 40
爆款@@ 40
爬梯 40
爬藤 40
爱玛仕 40
牛仔@@ 40
猫猫 40
玉兰 40
王牌 40
玩具枪 40
珊@@ 40
电弧 40
电影票 40
男中 40
男篮 40
白鞋 40
盲 40
真心 40
瞳@@ 40
短袖@@ 40
石磨 40
砖@@ 40
磨砂玻璃 40
神灯 40
章) 40
童床 40
童舖 40
童裤 40
笔笔 40
管理@@ 40
米诺@@ 40
纸筒 40
缠@@ 40
老姜 40
肠@@ 40
脚印 40
脱水 40
脸盆架 40
舒柔 40
艇 40
色版 40
芬迪@@ 40
花椒 40
花蜜 40
范儿 40
草皮 40
荡 40
莓果 40
萨克斯 40
葡萄干 40
详细 40
详解 40
贱 40
赢 40
超微 40
车票 40
辣椒酱 40
还愿 40
连帽@@ 40
逸@@ 40
遮风 40
避 40
酥油 40
酥油灯 40
铂@@ 40
铝膜 40
铱 40
铺) 40
问@@ 40
防盗门 40
防窥 40
陆龟 40
雨具 40
雾霾 40
露得清 40
青山 40
青鸟 40
靠椅 40
面巾 40
领花 40
饲养 40
香吉士@@ 40
马靴 40
驾驶证 40
驿站 40
鱼片 40
黑豹 40
ｘ@@ 40
#2 39
&co 39
(32@@ 39
(739) 39
(90@@ 39
(三色 39
(普卡) 39
(正品) 39
(深 39
(纯 39
-012 39
-09 39
-20 39
-adidas 39
0002 39
1.7 39
1/7 39
1109 39
120/@@ 39
14.@@ 39
175@@ 39
2-3-@@ 39
2004 39
204@@ 39
27cm 39
2kg 39
3100 39
356 39
364 39
388 39
4-0@@ 39
4000@@ 39
45*@@ 39
453 39
456 39
475@@ 39
48v 39
5.8 39
55-@@ 39
60mm 39
665@@ 39
685@@ 39
7-100 39
75g 39
763 39
799 39
8+@@ 39
8s 39
9- 39
9-001 39
920 39
948@@ 39
992 39
9cm 39
^臻 39
a18@@ 39
agv 39
ao3108-@@ 39
ard 39
a货@@ 39
bat@@ 39
bbq 39
blythe 39
bounce 39
bow 39
bridge 39
bright 39
c9 39
cal 39
cam 39
cc-@@ 39
cd0@@ 39
cm- 39
coleman 39
curry@@ 39
dia 39
die 39
doraemon 39
dou 39
epoch 39
ery 39
g&g 39
gla 39
gro@@ 39
gym 39
hepa 39
hiphop 39
i7plus 39
ignite 39
instax 39
ity 39
jay@@ 39
jen@@ 39
jtc 39
jw 39
k5 39
kiki@@ 39
kinaz 39
l'oreal 39
luxgen 39
m-j 39
mah@@ 39
mai@@ 39
messenger 39
mfi 39
mine 39
mini2 39
mmx@@ 39
mur@@ 39
niki 39
non 39
nuk 39
pand@@ 39
panda 39
panerai 39
performance 39
pod 39
port 39
pos@@ 39
ram@@ 39
res 39
rl@@ 39
ron 39
sad@@ 39
smart@@ 39
solution 39
splus 39
standard 39
sur@@ 39
taito 39
tho@@ 39
tz@@ 39
ub 39
uc 39
ufo 39
under@@ 39
visee 39
wil@@ 39
wt@@ 39
ybw 39
ysl@@ 39
ᅡ@@ 39
ᆫ@@ 39
〗@@ 39
タ 39
一下 39
一切 39
三节 39
主厨 39
乖乖 39
争 39
五彩 39
人偶 39
侍@@ 39
倒翁 39
偏小 39
儿子 39
免烫 39
公牛队 39
刨冰 39
到期 39
削皮器 39
半透 39
卧式 39
即时 39
压条 39
厨柜 39
反复 39
发饰品 39
句 39
号/@@ 39
吉/nike 39
咏@@ 39
喝茶 39
回) 39
回旋 39
圈) 39
地板@@ 39
基隆 39
夺 39
奖牌 39
套环 39
娃@@ 39
存卡 39
孩童 39
守护神 39
安德玛@@ 39
实习 39
实拍@@ 39
家具店 39
家用@@ 39
家里 39
对话 39
小提 39
小松 39
小舖- 39
小苍 39
尝 39
尿盆 39
山本@@ 39
崇 39
巢@@ 39
带走 39
干燥剂 39
平顶 39
底托 39
总统 39
慰器 39
我# 39
手表@@ 39
托运 39
折刀 39
抛@@ 39
护甲 39
拉姆 39
捂 39
授 39
搞定 39
撑杆 39
擕式 39
擦车 39
散货 39
文) 39
新机 39
旋@@ 39
有声 39
有妳 39
朋堂 39
期: 39
柑@@ 39
柜橱 39
株 39
样品 39
档板 39
梯@@ 39
正面 39
水果@@ 39
油墨 39
法律 39
注意 39
洗浴 39
浆@@ 39
浸@@ 39
混凝土 39
溜@@ 39
漩涡 39
烙 39
烟具 39
烟花 39
烟雾 39
煮饭 39
煲汤 39
爱妳 39
版v 39
版日 39
版衣 39
牌手 39
特价: 39
环游 39
现货#@@ 39
珍爱 39
甜筒 39
用型 39
电子钟 39
疤@@ 39
白色) 39
短柄 39
矶 39
硬挺 39
磨头 39
符@@ 39
索尔 39
紫蓝 39
红米@@ 39
纸牌 39
纾压 39
细腰 39
络 39
罗利 39
美洲 39
美肤 39
花粉 39
苗@@ 39
菁英 39
菓子 39
蕉@@ 39
装裱 39
裤潮 39
裸粉 39
视镜 39
解答 39
触控式 39
询问) 39
贴布 39
踢@@ 39
逊 39
重计 39
野蛮 39
量子 39
金属色 39
铜色 39
银灰色 39
长城 39
长耳 39
闹 39
闺蜜@@ 39
阿姨 39
霍@@ 39
霓净思 39
鞋# 39
鞋袜 39
食品@@ 39
马力欧 39
高蛋白 39
魂@@ 39
鸡尾酒 39
麦田 39
黑花 39
ｎ@@ 39
(i@@ 38
(上@@ 38
(二手@@ 38
(深@@ 38
(适合 38
*5 38
-200 38
-2a 38
-300 38
-36 38
-38@@ 38
/g@@ 38
0-3@@ 38
0.38 38
1002 38
13.5 38
16.@@ 38
1970@@ 38
2008年 38
2200 38
251 38
259 38
26mm 38
304@@ 38
319@@ 38
329 38
350ml 38
35g 38
36/@@ 38
375 38
382 38
4-6 38
4.3 38
40x@@ 38
4x 38
5200 38
6x 38
70s 38
9g 38
_i@@ 38
aid 38
aj7@@ 38
ance 38
ata 38
b2 38
bang 38
ber 38
blossom 38
bold 38
books 38
c6 38
ciao 38
city@@ 38
cle 38
cri@@ 38
daiso 38
dimotiv 38
dl 38
don 38
doo@@ 38
ess 38
feel 38
fiesta 38
fila@@ 38
fish@@ 38
fri@@ 38
fx 38
grandline 38
gri@@ 38
grip 38
h7 38
h8@@ 38
hat 38
hd-@@ 38
hello@@ 38
hh@@ 38
hoda 38
hood 38
infinity 38
inter@@ 38
j.house 38
k6 38
karl 38
kid 38
kore@@ 38
ks@@ 38
l- 38
lee@@ 38
les@@ 38
live@@ 38
lock@@ 38
louis@@ 38
lovely 38
m+ 38
m-xx@@ 38
ma-1 38
matte 38
meier.q 38
mk32@@ 38
moshi 38
mothercare 38
mountain 38
mus@@ 38
nct 38
ng@@ 38
ovo 38
palm 38
pen 38
peter 38
place 38
playmobil 38
pliage 38
ray@@ 38
rcp 38
rv@@ 38
sis 38
skii 38
snidel 38
stuart 38
switch@@ 38
tac@@ 38
tk@@ 38
tnt 38
t男女 38
ultimate 38
v4 38
v60 38
viral 38
vogue 38
wor@@ 38
x8@@ 38
xbox360 38
xc 38
yard 38
yellow 38
yoga 38
y型 38
zne 38
zo 38
zx700 38
⋯ 38
ウ@@ 38
ッ@@ 38
ㄉ 38
ㄧ字 38
万事 38
三越 38
不点 38
世勋 38
中低 38
主线 38
举重 38
乐芬 38
事件 38
五金@@ 38
亚克力@@ 38
伊姆斯 38
低糖 38
侨 38
便鞋 38
俐 38
充充电 38
免持 38
入手 38
冉 38
凛 38
割@@ 38
包. 38
包女 38
千斤顶 38
卖完 38
印记 38
口头 38
召唤 38
合金钢 38
吊环 38
名著 38
和谐 38
咖啡粉 38
哺 38
啾 38
四分 38
园丁 38
固定式 38
圆头 38
地下 38
增量 38
士顿 38
外框 38
大哥大 38
大盘 38
天坛 38
夹具 38
奏 38
套潮 38
妇@@ 38
姬@@ 38
宝宝@@ 38
导演 38
小兵 38
小帽 38
小物@@ 38
小玩意 38
屋) 38
展柜 38
岱@@ 38
崴 38
左旋 38
帮助 38
干胶 38
平均 38
平装 38
年糕 38
年节 38
床褥 38
弧 38
弹片 38
德玛库里 38
心跳 38
情境 38
情趣@@ 38
愈小 38
扫@@ 38
护脚 38
拐 38
拼盘 38
挡@@ 38
挺@@ 38
换新 38
掉@@ 38
掌握 38
描@@ 38
擦擦 38
敌 38
新人 38
方凳 38
明星赛 38
晃 38
暴风 38
曼秀雷敦 38
有人 38
梅森 38
棉绒 38
棒垒球 38
棚@@ 38
植物@@ 38
水中 38
水绿 38
江户 38
沙滩椅 38
波波 38
游艇 38
湿乳 38
湿洗 38
滑冰鞋 38
滚滚 38
瀑布 38
焕白 38
煤气灶 38
版型 38
牧马 38
独立筒 38
球花 38
生物学 38
电热水器 38
疏@@ 38
白霜 38
皂模 38
皮) 38
硫@@ 38
确认) 38
碟@@ 38
穹 38
竖@@ 38
童男 38
端午 38
竹木 38
米/@@ 38
米粉 38
米黄 38
粉条 38
精华乳 38
精彩 38
约翰 38
纪念币 38
绊 38
网上 38
老光 38
耍 38
肉球 38
肥料 38
肩膀 38
胡萝卜 38
胸衣 38
臀@@ 38
自选 38
色笔 38
芭乐@@ 38
花店 38
花灯 38
荞@@ 38
菇@@ 38
菱@@ 38
蕃茄 38
蜜粉 38
裱@@ 38
襟 38
觉@@ 38
讨@@ 38
训@@ 38
识@@ 38
询 38
详阅 38
豆花 38
象棋 38
貂@@ 38
贝贝@@ 38
趣@@ 38
路虎 38
返@@ 38
远端 38
逐 38
酮 38
酷奇@@ 38
铁艺@@ 38
银光 38
银币 38
键盘膜 38
防磁 38
附带 38
陈列柜 38
陪伴 38
雷姆@@ 38
霸王龙 38
顶尖 38
风量 38
飘飘 38
饲@@ 38
香道 38
驾驶镜 38
高容量 38
鬼怪 38
鱼池 38
鲍@@ 38
鼓风机 38
#特价 37
(0 37
(1000 37
(12@@ 37
(n@@ 37
(一@@ 37
(居家家) 37
(绿色) 37
(降价) 37
(需 37
---- 37
/m@@ 37
018 37
0918 37
1100@@ 37
1234 37
127@@ 37
12l 37
145@@ 37
166@@ 37
1980 37
1995 37
2# 37
2007年 37
20w 37
23-@@ 37
2400@@ 37
27-@@ 37
278 37
290@@ 37
292 37
295@@ 37
3-1 37
317 37
332@@ 37
368@@ 37
377 37
398@@ 37
4+@@ 37
450g 37
50) 37
5千 37
645 37
70cm 37
7号店 37
890 37
8x@@ 37
9*@@ 37
907 37
airpods@@ 37
alice@@ 37
amber 37
ar17@@ 37
are@@ 37
ash@@ 37
asus@@ 37
auto 37
ba-110 37
bass 37
blush 37
butterfly 37
casio@@ 37
circle 37
date 37
db 37
deep 37
desert 37
dobe 37
elmo 37
emma 37
equipment 37
essentials 37
fancy 37
fd 37
fhd 37
flow 37
fortis 37
france 37
furyu 37
g1@@ 37
g7 37
gfriend 37
hb 37
hermes/ 37
hl@@ 37
iphone8/@@ 37
island 37
iv@@ 37
jb@@ 37
jenny 37
jimin 37
jtc-@@ 37
k9 37
kir@@ 37
l1 37
lane@@ 37
large 37
lay 37
line: 37
ling@@ 37
liquid 37
ln@@ 37
metallic 37
minnie 37
mk5896 37
news 37
nie 37
no.t1 37
orbis 37
ot 37
over 37
p) 37
pa+++@@ 37
pb@@ 37
peace 37
pf@@ 37
pride 37
qm 37
rh@@ 37
rt-@@ 37
sab@@ 37
sai@@ 37
sin 37
stri@@ 37
sx 37
t-shir@@ 37
t9@@ 37
tc-@@ 37
tone 37
tp-@@ 37
t卫 37
t长袖 37
u/@@ 37
vac@@ 37
vy 37
v脸 37
wang@@ 37
war 37
wi-fi 37
wolf 37
xiii 37
xz2 37
years 37
一博 37
三生三世 37
三能 37
东南亚 37
主持 37
九宫 37
乳霜@@ 37
今生 37
代用 37
伦裤 37
伴@@ 37
保安 37
保持 37
修改 37
修脸 37
倍@@ 37
公道 37
兴隆 37
冲壶 37
决定 37
刃@@ 37
分割 37
刨@@ 37
割爱 37
力车 37
动态 37
勋章 37
包圆 37
包裹 37
华夫 37
单独 37
原汁 37
参考) 37
发罩 37
口感 37
叮@@ 37
合法 37
呈 37
哑@@ 37
喇叭@@ 37
喜舖 37
四星 37
园区 37
国中 37
国防 37
圆圆 37
地平线 37
备品 37
大脑 37
天竺葵 37
头顶 37
奇肌 37
奇趣 37
套袖 37
奥克斯 37
女t 37
姗姗 37
威士忌 37
娃娃衫 37
娜妞 37
媲美 37
子弹头 37
孙@@ 37
安全@@ 37
实感 37
射击 37
小宝宝 37
小房子 37
小雪 37
尖嘴 37
崁灯 37
巷@@ 37
幕@@ 37
广东 37
广播 37
广角镜 37
开槽 37
录像 37
影碟机 37
徐@@ 37
念@@ 37
成熟 37
手表带 37
打包机 37
批发@@ 37
把握 37
抓破 37
抗痘 37
披巾 37
择 37
拷贝 37
按摩椅 37
挚爱 37
换式 37
插销 37
搂 37
搪瓷 37
文物 37
斐@@ 37
方型 37
昱@@ 37
普洱 37
月刊 37
期) 37
末@@ 37
条杠 37
果味 37
果园 37
柔和 37
柔美 37
标用 37
棉服 37
棕榈 37
槌 37
槽@@ 37
樟木 37
步骤 37
武装 37
段@@ 37
氨@@ 37
氩 37
水洗 37
沸@@ 37
油器 37
油腻 37
泫雅风 37
济@@ 37
淡雅 37
清洁用品 37
湿润 37
溶解 37
滑面 37
滴水 37
漱@@ 37
潮包 37
澡巾 37
灯眉 37
灰黑色 37
热水 37
片/@@ 37
物业 37
瓶盖 37
瓷花瓶 37
电池) 37
电路 37
畅销书 37
白皙 37
百科@@ 37
皮皮@@ 37
盘组 37
直营 37
直购 37
相思 37
眉膏 37
真我 37
眼睫毛 37
眼霜 37
短t@@ 37
硬质 37
碁峰 37
礼物) 37
神力 37
稳@@ 37
穿搭 37
突破 37
窗器 37
笛子 37
第4 37
笼@@ 37
管) 37
米娜 37
粒) 37
粗细 37
糖果屋 37
索尼@@ 37
纠@@ 37
纱门 37
线衫 37
绑腿 37
结帐 37
结晶 37
绢花 37
继 37
缴费 37
网架 37
美品 37
美眉 37
耀眼 37
老爸 37
考级 37
肖@@ 37
脚丫 37
膳食 37
自封 37
芋头 37
花插 37
苍兰 37
茄@@ 37
茉 37
茶楼 37
茶碗 37
荒 37
葛根 37
蓄 37
蓓 37
蕙 37
蛋壳 37
行政学 37
衍 37
衣饰 37
补习班 37
衫百 37
解决 37
讲台 37
调色盘 37
账本 37
跳蛋 37
边柜 37
速成 37
金钱 37
钓虾 37
铜扣 37
锈@@ 37
锯子 37
长期 37
门店 37
阀门 37
队#@@ 37
际 37
集团 37
雪松 37
面额 37
音器 37
风筒 37
饰边 37
饿 37
香槟色 37
鱼杆 37
龙王 37
龟头 37
#304 36
#二手 36
(16 36
(90 36
(优 36
(新版) 36
(浅 36
(玫瑰 36
(绿) 36
(韩 36
-26 36
-32 36
-44@@ 36
.nike 36
0.1 36
0w 36
1/10 36
1/4@@ 36
1000g 36
100m 36
100w 36
116610 36
12h 36
177 36
18-24m 36
19) 36
19*@@ 36
195@@ 36
2% 36
2+ 36
2015@@ 36
24) 36
272 36
28*@@ 36
2800 36
282 36
2代 36
3.5g 36
346 36
46-@@ 36
470@@ 36
507 36
55/@@ 36
740@@ 36
755@@ 36
7c 36
8-001 36
818 36
825 36
85g 36
90*@@ 36
918 36
a12@@ 36
aero@@ 36
amazing 36
apollo 36
app@@ 36
ar-@@ 36
back@@ 36
bags 36
bandouliere 36
beach 36
biotherm 36
bj@@ 36
bkk 36
boite 36
bottle 36
boys 36
bunny 36
b群 36
c6@@ 36
chia 36
chou 36
cli@@ 36
clio 36
daily 36
dg@@ 36
dual 36
flora 36
freak 36
ful@@ 36
g6@@ 36
gin@@ 36
gshock 36
have 36
herschel 36
i8plus 36
infocus 36
iqos 36
isport 36
kuku 36
lamborghini 36
lemon 36
liao 36
linda 36
logo短t 36
loo@@ 36
loop 36
m-3@@ 36
m415@@ 36
m7 36
maker 36
mary 36
mc-@@ 36
medicom 36
michaelkors 36
ming 36
momo@@ 36
mrl@@ 36
n5 36
ngk 36
nikeair@@ 36
nrg 36
nuby 36
pc-@@ 36
pencil 36
q弹 36
re-@@ 36
ree@@ 36
s.g 36
saffiano 36
sar@@ 36
sas@@ 36
serpenti 36
seven 36
sos 36
squad 36
ta-@@ 36
tat@@ 36
ther@@ 36
travis 36
t恤m-3xl 36
t潮t 36
us11 36
v5 36
victorine 36
vuitton@@ 36
v牌 36
w0@@ 36
wannaone 36
winter 36
x/xs/xr/@@ 36
y12 36
z5p 36
zenfone3 36
い 36
す@@ 36
セ@@ 36
・ 36
万花筒 36
三世 36
上方 36
下雨 36
不可@@ 36
东立 36
严@@ 36
义勇 36
五千 36
代订 36
份) 36
住@@ 36
体内 36
佛牌 36
作家 36
促销$ 36
偷 36
催眠 36
克莱 36
军帽 36
凡士林 36
前导 36
力强 36
努@@ 36
博美 36
卡拉@@ 36
卡贴 36
卸@@ 36
发型 36
取代 36
台北市 36
台大 36
吉普 36
后面 36
含税 36
囍 36
埔@@ 36
塑料@@ 36
复活 36
外型 36
大厂 36
女家 36
好事 36
孔) 36
安瓶 36
对策 36
小妞 36
小队 36
崛起 36
工学 36
巴尔曼 36
布鲁@@ 36
幼教 36
底) 36
廷@@ 36
开张 36
开窗 36
异国 36
式样 36
征@@ 36
徐坤 36
微晶 36
意义 36
戒指@@ 36
战将 36
打坐 36
打扫 36
折叠@@ 36
抽油烟机 36
拓@@ 36
挤@@ 36
提示 36
摩根 36
文创 36
日葵 36
星之卡比 36
普拉 36
曼尼 36
木架 36
果子 36
果然 36
栈@@ 36
梗 36
梗@@ 36
橘黄 36
欧根 36
款人 36
歌词 36
步伐 36
步步 36
气门 36
水垢 36
水雾 36
汽水 36
泰山 36
洗刷 36
津@@ 36
洲@@ 36
活化 36
消化 36
涤纶 36
淫@@ 36
深夜 36
湿器 36
溪@@ 36
滢 36
澡@@ 36
灯) 36
灵感 36
烈@@ 36
烟缸 36
烧杯 36
热火 36
热血 36
照) 36
爱神 36
父亲 36
牛乳 36
牧牧家 36
牧草 36
特卖@@ 36
特工 36
狮子座 36
玄凤 36
玉珮 36
玛丽@@ 36
现货: 36
玲珑 36
珠串 36
琵琶 36
甩棍 36
疼 36
白武士 36
百灵 36
百达翡丽 36
盎司 36
眉刀 36
眉粉 36
眼泪 36
眼镜@@ 36
短衫 36
砖石 36
硕@@ 36
碎冰机 36
碧玉 36
筒式 36
米线 36
红星 36
红皮 36
纤维@@ 36
纯粹 36
纹) 36
终身 36
绵绵 36
绸 36
罗勒 36
美容美发 36
美语 36
翻翻 36
聊 36
脚部 36
腋毛 36
腕@@ 36
自然色 36
花火 36
苏苏 36
荷包蛋 36
菈@@ 36
菜园 36
营养素 36
蒙田 36
蚁 36
蛇@@ 36
行政法 36
行李车 36
衣包 36
衣钩 36
表/@@ 36
衫卫衣 36
衬垫 36
袖衫 36
观赏 36
触碰 36
警报器 36
认识 36
访 36
试吃 36
贝克 36
贝贝 36
质料 36
贾@@ 36
赔钱 36
蹈 36
车站 36
输@@ 36
辫 36
迪士尼史迪奇 36
迷幻 36
退色 36
遇@@ 36
避孕套 36
配全 36
野战 36
量) 36
针) 36
铁床 36
铁血 36
铁质 36
铃兰 36
铠甲 36
铲@@ 36
锁具 36
锋利 36
镀锌 36
长形 36
长裤@@ 36
闭@@ 36
闻@@ 36
防冻 36
陈情 36
限购 36
随心 36
顾@@ 36
领券 36
领取 36
饶舌 36
马卡龙@@ 36
驴@@ 36
高架 36
高浓度 36
麻油 36
麻麻 36
黄斑 36
＠ 36
🏻🏻 36
#8@@ 35
#m 35
(j@@ 35
(v@@ 35
(六 35
(好 35
(实拍) 35
+s10 35
-16@@ 35
-v@@ 35
01-@@ 35
174 35
178@@ 35
185@@ 35
2-4@@ 35
2016/@@ 35
21/@@ 35
227 35
240ml 35
26*@@ 35
261 35
32吋 35
35ml 35
38/@@ 35
38cm 35
3b 35
40ml 35
425 35
440 35
455 35
464@@ 35
4c 35
50*@@ 35
50x@@ 35
560 35
58mm 35
5kg 35
6+@@ 35
722@@ 35
80s 35
813 35
840 35
860 35
870@@ 35
880 35
91@@ 35
930 35
930@@ 35
aaa 35
act 35
alma 35
anastasia 35
ani 35
anti 35
ash 35
asi@@ 35
avene 35
a字@@ 35
b&@@ 35
ba7@@ 35
brazza 35
c1 35
c63 35
charm 35
cher@@ 35
cq23@@ 35
cr 35
cx 35
cz@@ 35
c字 35
dp 35
dr.cink 35
dri@@ 35
eb-@@ 35
eco@@ 35
fate/grand 35
figma 35
fj@@ 35
fle@@ 35
ghz 35
heroes 35
hills 35
i8/@@ 35
jam@@ 35
jeep 35
jf@@ 35
k2 35
kan 35
kia 35
kiehls 35
kobe11 35
l3 35
lala@@ 35
lar@@ 35
lauren@@ 35
lm汽 35
loreal 35
lulu@@ 35
map 35
mark@@ 35
mary@@ 35
max/xr/@@ 35
mercer 35
multi 35
n3 35
newbalance 35
nini 35
note2 35
oakley 35
onepiece 35
ore 35
oro@@ 35
petite 35
phi@@ 35
poke@@ 35
prem 35
pt-@@ 35
quest 35
q饼 35
r7@@ 35
rody 35
roger 35
s.h 35
sam 35
samantha 35
shan 35
sim@@ 35
sk6 35
sn 35
sty@@ 35
thomas 35
tm-@@ 35
toki 35
tomica@@ 35
trefoil 35
two@@ 35
t潮 35
v20 35
vn0a3@@ 35
vol.3 35
watch@@ 35
wjlp 35
wol@@ 35
x20 35
xf@@ 35
xsg 35
xxxl 35
y7 35
yourself 35
z/@@ 35
z00 35
zen 35
z生活 35
∥@@ 35
➊@@ 35
の店 35
る 35
チ@@ 35
ㄇ型 35
一件式 35
一组) 35
七月 35
三部曲 35
下杀& 35
不对称 35
东风 35
丰富 35
乎 35
乐队 35
九号 35
乳清 35
予 35
事机 35
五帝 35
亲笔签名 35
人中之龙 35
人仔 35
代理版 35
以色列 35
仰 35
仲基 35
仿生 35
优儿 35
伸展 35
允 35
元/@@ 35
冒 35
军人 35
军品 35
冲凉 35
刑法 35
创世 35
刺穿 35
前轮 35
加装 35
劵 35
包m4@@ 35
包壳 35
包装机 35
十五 35
卜力 35
卧@@ 35
卫生@@ 35
厚道 35
吋笔 35
吸引 35
味觉 35
嘎 35
回家 35
国手 35
国潮 35
堆@@ 35
堆叠 35
塔克 35
塘 35
复兴 35
夜晚 35
大c 35
大中小 35
天河石 35
天高 35
太宰治 35
头家 35
夹克衫 35
如来 35
姊 35
始@@ 35
娴 35
孤@@ 35
宝箱 35
小乖 35
小公仔 35
小型犬 35
小家电 35
尔斯 35
尚好 35
就@@ 35
尾款 35
展览 35
崁@@ 35
崖 35
帮鞋 35
平衡@@ 35
年轻人 35
延迟 35
开罐器 35
引力 35
微调 35
怒@@ 35
恩善 35
愿@@ 35
或@@ 35
手足 35
打字 35
技法 35
抖@@ 35
护肤膏 35
报表 35
拉姆@@ 35
拉门 35
拍器 35
挂绳 35
推荐) 35
搅拌器 35
摄@@ 35
撑@@ 35
整蛊 35
普拉@@ 35
暖水袋 35
朋 35
木屋 35
木杆 35
机种 35
杉木 35
果器 35
柒柒 35
柔肤水 35
柠檬黄 35
格丽@@ 35
格拉芙 35
梭@@ 35
棉质 35
榆木 35
横滨 35
横纹 35
橘红色 35
欧阳 35
比得 35
民法 35
水下 35
水巾 35
油刷 35
法学 35
洛可可 35
测器 35
济州 35
海浪 35
深紫 35
淳 35
清降噪 35
游乐场 35
湛蓝 35
潮人 35
炕桌 35
炸机 35
热压 35
热饮 35
煎@@ 35
爆款-@@ 35
物篮 35
玖@@ 35
电板 35
畅@@ 35
痛@@ 35
白字 35
白水 35
皂液 35
盆花 35
真空@@ 35
睡床 35
瞬洁 35
矫@@ 35
石面 35
祈 35
祭@@ 35
种花 35
空调毯 35
穿法 35
管子 35
篱笆 35
粒绒 35
精纯 35
练习生 35
绢@@ 35
绽 35
绿松石 35
缩小 35
置@@ 35
胶皮 35
胺基酸 35
脚位 35
膝@@ 35
舜 35
般 35
节水 35
花生@@ 35
茎 35
草本@@ 35
菲拉格 35
虎眼石 35
行李架 35
补发 35
补给 35
袋. 35
西德 35
西施 35
课外 35
贝斯 35
贩@@ 35
赫拉@@ 35
跟凉 35
路路 35
蹦 35
身材 35
车床 35
软q 35
运动会 35
违 35
迦@@ 35
造型@@ 35
钢索 35
铁观音 35
锁边 35
锈钢 35
阻燃 35
阿波@@ 35
随心所欲 35
震动器 35
露娜 35
面条机 35
韩语 35
韵@@ 35
领收 35
风光 35
饼铛 35
马口铁 35
驼 35
高画质 35
高考 35
鱼饵 35
龙波 35
龙门 35
ｅ@@ 35
ｌ@@ 35
ｐ 35
##@@ 34
(x@@ 34
(今日 34
(日@@ 34
(深蓝) 34
(灰 34
(粉@@ 34
(蓝色 34
(首 34
-007 34
-20@@ 34
-39 34
-he 34
-l 34
-m 34
.lv 34
030@@ 34
1107 34
1108 34
15x@@ 34
17.5 34
170g 34
1:24 34
1a@@ 34
1d 34
2-0@@ 34
200/@@ 34
2017/@@ 34
2100 34
24*@@ 34
24h@@ 34
250ml 34
34-39 34
352 34
372 34
383 34
3a@@ 34
4-001 34
4k@@ 34
5.6 34
570@@ 34
595@@ 34
6-7-@@ 34
6.7 34
658 34
65w 34
660@@ 34
6t 34
712@@ 34
730@@ 34
766 34
790 34
810@@ 34
897@@ 34
898@@ 34
9. 34
9ss 34
?@@ 34
_p@@ 34
a80 34
aesop 34
aibo 34
ame@@ 34
amour 34
animal 34
ann's 34
ann@@ 34
ato 34
blo@@ 34
bonnie 34
boot 34
burst 34
call 34
camp 34
carters 34
cin@@ 34
clip 34
cute 34
devil 34
dewalt 34
diy/ 34
dolly 34
duck 34
foamposite 34
freestyle 34
gaoria 34
get 34
gia 34
godox 34
gros 34
gt-r 34
gucc 34
g扣 34
h6@@ 34
hawk 34
hdr 34
hk 34
huahua 34
ik@@ 34
ikids 34
iphone5 34
j6 34
jason 34
jb 34
jean 34
jersey 34
jessica 34
jt-@@ 34
kr 34
kuo 34
l. 34
lac@@ 34
let@@ 34
lh 34
living 34
lunarglide 34
majestic 34
meme 34
mis 34
ms.@@ 34
music&ecology 34
myprotein 34
nikelab 34
nixon 34
nv@@ 34
nxt 34
ov@@ 34
passat 34
pla@@ 34
pn@@ 34
ptt 34
razer 34
rin 34
ripndip 34
rit@@ 34
rm@@ 34
room@@ 34
ru 34
sandy 34
shelliemay 34
solarsoft 34
spf30 34
spring 34
sse 34
t10@@ 34
t2@@ 34
ted 34
tpe 34
trail 34
w&@@ 34
woo 34
wrx 34
x4@@ 34
y- 34
y9 34
ysl/ 34
yz@@ 34
}} 34
~) 34
ʀ@@ 34
˙ 34
ᴏ@@ 34
⊙@@ 34
⋯⋯ 34
に@@ 34
ゆ@@ 34
ア 34
エ@@ 34
キ 34
ッ 34
ナ@@ 34
マ 34
ム 34
举@@ 34
二维 34
五斗橱 34
五星级 34
人脸 34
伸缩式 34
低卡 34
侏㑩纪 34
侏罗纪 34
促销) 34
假期 34
像素 34
兮 34
再现 34
冯 34
冰温 34
冷媒 34
分离器 34
制图 34
刷头 34
半导体 34
半球 34
华为p30 34
南部 34
卯 34
印花@@ 34
压印 34
厘@@ 34
厢 34
双缸 34
反转 34
口哨 34
名模 34
商标 34
回到 34
回头客 34
回转 34
固) 34
垃圾箱 34
基因 34
基本@@ 34
壁贴 34
外用 34
多边形 34
大童@@ 34
大补 34
天上 34
天竺鼠 34
姻缘 34
媒体 34
字汇 34
宁宁 34
定量 34
家事 34
密宗 34
对表 34
小衣橱 34
小贝 34
小键盘 34
尿不湿 34
屁 34
展场 34
山楂 34
巴克 34
帆布@@ 34
平盘 34
年末 34
座) 34
开立 34
强震 34
思域 34
战队 34
截止 34
手提包包 34
扰 34
折合 34
拉力器 34
拓展 34
拚 34
拜佛 34
挂轴 34
接单 34
提盒 34
摇马 34
摔角 34
敲打 34
文件架 34
旁 34
旅行者 34
无头 34
无忧 34
无花果 34
时尚达人 34
昆@@ 34
晒衣夹 34
木业 34
术@@ 34
杀虫剂 34
杆子 34
束胸 34
极佳 34
果茶 34
柔嫩 34
栈 34
梁@@ 34
梦工厂 34
梵文 34
检查 34
款# 34
款潮 34
毛膏 34
氧机 34
水) 34
水分 34
汉考克 34
沙发@@ 34
油罐 34
油蜡 34
法莱绒 34
泽泽 34
洋行 34
浓厚 34
海南 34
海龟 34
涉 34
淘淘 34
滋补品 34
激战 34
火红 34
灯台 34
灰灰 34
烧石 34
焊机 34
焙@@ 34
物美 34
特优 34
狐臭 34
珐瑯@@ 34
瑞兴 34
生) 34
由@@ 34
电子手表 34
疯马 34
百花 34
皮制 34
石墨 34
硅@@ 34
碰@@ 34
磁场 34
祢 34
空机 34
童颜 34
笔器 34
符咒 34
等待 34
精心 34
糊涂 34
红粉 34
绿绿 34
缠 34
罪@@ 34
老化 34
耳勺 34
聚酯 34
肉色 34
肌精 34
肤仪 34
腕力 34
节奏 34
芒 34
芮 34
花籽 34
草地 34
药用 34
葛@@ 34
蒙娜丽莎 34
蔡@@ 34
藕@@ 34
虐恋 34
蚀 34
衣) 34
衣领 34
补给站 34
被褥 34
西门 34
覆@@ 34
觅 34
读卡器 34
读物 34
豆乳 34
豆腐@@ 34
贰 34
跳蚤 34
车体 34
车种 34
轮式 34
边缘 34
达人@@ 34
连身@@ 34
遮阳棚 34
重庆 34
金水 34
鑚@@ 34
钉鞋 34
银白色 34
银饰 34
锉刀 34
长版 34
间隙 34
阳极 34
雪尼尔 34
零配件 34
霏慕 34
露天 34
鞋-@@ 34
韩) 34
颊 34
风平 34
飞鸟 34
饭勺 34
香器 34
马达@@ 34
骑@@ 34
骨骼 34
黄白 34
黑熊 34
黑陶 34
黛安芬 34
#360 33
#全场 33
#台湾 33
&新品 33
(5.@@ 33
(宽 33
(数位 33
(桃@@ 33
-23 33
-40@@ 33
-47 33
-500 33
-c 33
/8@@ 33
/f@@ 33
0.9m 33
020 33
1-3-5 33
100) 33
1060@@ 33
110-220v 33
1113 33
155@@ 33
15日 33
180*@@ 33
1吋 33
2021 33
220ml 33
23) 33
2nd 33
306@@ 33
311 33
33*@@ 33
341 33
35) 33
353 33
391 33
3e 33
40) 33
42-@@ 33
510@@ 33
525 33
564@@ 33
599@@ 33
6-7 33
611@@ 33
612@@ 33
628@@ 33
664 33
695@@ 33
6plus/@@ 33
7.0 33
7.2 33
744@@ 33
788 33
7p@@ 33
8.1 33
822@@ 33
840@@ 33
881 33
888@@ 33
921733-@@ 33
941 33
966@@ 33
992@@ 33
?????? 33
a01 33
a1@@ 33
ach 33
aka 33
angela 33
annie 33
ar19@@ 33
ar46@@ 33
arai 33
army 33
ast@@ 33
ath@@ 33
bandai万代 33
beast 33
bee@@ 33
best@@ 33
blackpink 33
blend 33
bp 33
bul@@ 33
chane 33
cherry@@ 33
cho 33
cola 33
crown 33
cx-@@ 33
duo@@ 33
dz 33
edge@@ 33
ef-@@ 33
ella 33
emp@@ 33
eva@@ 33
extra 33
f5 33
fairy 33
fal@@ 33
fei@@ 33
feng 33
fighter 33
fr 33
gnc 33
hoody 33
hrv 33
huf 33
ingni 33
ion@@ 33
ivy 33
iz* 33
jadior 33
je 33
k88 33
kel@@ 33
km 33
kuga 33
kun 33
luminor 33
l夹 33
m414@@ 33
m45@@ 33
makeup 33
megahouse 33
met 33
mexico 33
mid@@ 33
mk60@@ 33
ml. 33
mrt580 33
n1 33
n2 33
n60@@ 33
nas@@ 33
nautica 33
nba@@ 33
nc 33
nereides 33
nine@@ 33
noe 33
not 33
opi 33
ori 33
p30@@ 33
penny 33
plan@@ 33
ple 33
qb@@ 33
queenshop 33
r/@@ 33
rain 33
rb 33
revenge 33
richell 33
ricoh 33
rin@@ 33
river 33
ros@@ 33
rt@@ 33
s80@@ 33
sevenfriday 33
side 33
sion 33
sleeve 33
sneaker@@ 33
sof@@ 33
spectra 33
square 33
ssa 33
ston 33
swiss 33
sylvie 33
t3@@ 33
tata 33
test 33
tp-link 33
train 33
type-c转 33
t字 33
t恤潮 33
ung 33
uu 33
view 33
vv@@ 33
w/ 33
water@@ 33
whirlpool 33
wmf 33
xf 33
xl号 33
yxs 33
zg 33
ᄋ 33
이 33
↓ 33
∞@@ 33
コ 33
一点 33
三轴 33
不破 33
丞琳 33
丫头 33
丶@@ 33
乳胶漆 33
二战 33
互 33
亚培 33
人头 33
仟@@ 33
仲夏 33
价廉 33
休闲馆 33
优派 33
传真 33
供电 33
信义 33
元年 33
公爵 33
公转 33
冷却 33
刀割 33
判@@ 33
加护 33
华语 33
压褶 33
压面机 33
友情 33
取暖器 33
变型 33
古驰@@ 33
另外 33
吸入 33
呆@@ 33
周周 33
品免运 33
哒 33
哪@@ 33
啡 33
喵星 33
嘿 33
四季@@ 33
土机 33
培养 33
塌 33
大仙 33
大夫 33
大班 33
天文 33
奖@@ 33
婚纱照 33
嫣儿 33
宁静 33
安德@@ 33
宝芙 33
寄卖 33
富豪 33
对流 33
导向 33
封袋 33
小文$ 33
小野 33
层层 33
履@@ 33
崩坏 33
工具书 33
巨星 33
巴巴 33
帅哥 33
年历 33
庭园 33
弃 33
弯弯 33
强劲 33
彩图 33
心心相印 33
忧郁 33
总共 33
总部 33
成分 33
手纸 33
扭蛋@@ 33
拐棍 33
拜年 33
挂画 33
指南针 33
按@@ 33
挤奶器 33
挪威 33
换) 33
捶 33
接听 33
支付 33
整块 33
料架 33
斜角 33
新车 33
旁@@ 33
晴空 33
月相 33
服饰店 33
木屑 33
木木 33
杀价# 33
杂粮 33
松果 33
构 33
枕巾 33
柔润 33
柳编 33
格纹 33
楼顶 33
榨汁器 33
模型) 33
欲@@ 33
比克 33
毛球 33
毛躁 33
气体 33
气管 33
水晶@@ 33
汐 33
泊尔 33
法则 33
洗澡间 33
活动) 33
涵@@ 33
深绿 33
滑动 33
漫漫 33
烙饼 33
烤鱼 33
然@@ 33
燃@@ 33
父母 33
王一 33
玥@@ 33
珑 33
生铁 33
甩@@ 33
电热锅 33
画墙 33
画线 33
痕迹 33
白洁 33
的) 33
皮球 33
眼仔 33
瞬效 33
短裤@@ 33
硝 33
碳钢 33
礼仪 33
福士 33
秦@@ 33
窄@@ 33
窑变 33
笔刀 33
管器 33
系列: 33
红莲 33
练习本 33
美军 33
羚 33
老山 33
联府 33
肉泥 33
肿 33
背包#@@ 33
背椅 33
自销 33
自驾游 33
艺术@@ 33
艾米@@ 33
芝士 33
花栗鼠 33
范特西 33
菊@@ 33
街景 33
补妆 33
视力 33
解剖 33
计算 33
订书机 33
记者 33
评量 33
试卷 33
诞生 33
赌@@ 33
超纤 33
车把 33
轨迹 33
载重 33
辨识 33
运动器材 33
这么 33
迦 33
迹@@ 33
逻@@ 33
郭@@ 33
配件@@ 33
酒桶 33
酵 33
金发 33
金证@@ 33
钥匙环 33
钦 33
钧@@ 33
钻) 33
铜制 33
银杏 33
长) 33
门把 33
防暴 33
防毒 33
防蛀 33
阿弥陀佛 33
除锈 33
雪莉玫 33
霍 33
青轴 33
静物 33
革@@ 33
鞋女 33
颈挂 33
风雪 33
风靡 33
飞溅 33
香茅 33
马扎 33
马桶@@ 33
马桶圈 33
高产 33
高筒靴 33
鲜奶 33
黑/@@ 33
#2@@ 32
#韩国 32
(一般 32
(厂家 32
(台@@ 32
(台北 32
(带 32
(新@@ 32
(水 32
(粉色 32
(紫 32
+++ 32
-210 32
-400@@ 32
.8 32
/e@@ 32
/led 32
004@@ 32
03-@@ 32
070@@ 32
090@@ 32
12000 32
1280 32
15吋 32
18.5 32
18年 32
20v 32
23/@@ 32
232@@ 32
287 32
295 32
30w 32
314 32
324@@ 32
339 32
344 32
348@@ 32
358 32
4-5 32
424@@ 32
449 32
499@@ 32
551 32
55吋 32
6/20 32
668 32
739@@ 32
799@@ 32
8-100 32
816@@ 32
858 32
878@@ 32
8k 32
904 32
928 32
928@@ 32
944@@ 32
965@@ 32
^) 32
_n@@ 32
_x@@ 32
a's 32
a11@@ 32
acc 32
active 32
ade@@ 32
animate 32
ans@@ 32
ar5905 32
aspire 32
athle 32
ati@@ 32
avi@@ 32
ax5s 32
band@@ 32
bbia 32
bc-@@ 32
beams 32
bears 32
ben 32
benefit 32
bumbag 32
bw 32
cable 32
chiu 32
christmas 32
cipu 32
claire 32
cloud 32
consortium 32
control 32
cosme 32
cou@@ 32
cq2@@ 32
cr-v 32
creator 32
c级@@ 32
d9 32
dan 32
disco 32
drg 32
eli@@ 32
ell 32
eng 32
eve 32
ferragamo菲拉格慕 32
fk@@ 32
fran@@ 32
ft-@@ 32
ful 32
game@@ 32
giordano 32
graphic 32
gurashi 32
h4 32
hape 32
has@@ 32
healthy 32
hill@@ 32
hn 32
hs-@@ 32
ht-@@ 32
i6/@@ 32
ire 32
j'adior 32
jaguar 32
k&@@ 32
kak@@ 32
kas@@ 32
kicks 32
kl) 32
lab@@ 32
lazy@@ 32
leten 32
lip@@ 32
lockme 32
m-3xl@@ 32
m68@@ 32
mazda3 32
ment@@ 32
mit-@@ 32
mk33@@ 32
mma 32
mode 32
ms249 32
naked 32
nf@@ 32
nh@@ 32
nizza 32
nm@@ 32
org@@ 32
p40 32
pac@@ 32
palladium 32
pam00@@ 32
pass 32
photo 32
pilot 32
pippen 32
puma@@ 32
r88@@ 32
rer 32
road 32
sabon 32
sher@@ 32
sne@@ 32
spray 32
structure 32
sui@@ 32
sweatshirt 32
swim 32
taipei 32
tal@@ 32
teana 32
tempo 32
tus@@ 32
t米家) 32
ure@@ 32
usb-@@ 32
usb-c 32
usb3.1 32
vel@@ 32
very 32
vetements 32
vie 32
viv@@ 32
volkswagen 32
window 32
wow@@ 32
x27@@ 32
xs/ 32
yang@@ 32
z5@@ 32
zb63 32
ze620 32
ɴ@@ 32
∼ 32
サ@@ 32
ター 32
ㄇ@@ 32
专人 32
丛 32
中古@@ 32
丽丽 32
也@@ 32
习惯 32
了@@ 32
人性 32
亿@@ 32
令@@ 32
以及 32
伦理 32
侧标 32
保密 32
停电 32
偶@@ 32
储蓄 32
光碟@@ 32
全世界 32
全开 32
公里 32
六角@@ 32
再版 32
冰镇 32
凯蒂 32
凯里 32
刨刀 32
利达 32
别致 32
刷卡) 32
剩@@ 32
勤@@ 32
北大 32
北市 32
匠心 32
匹@@ 32
单排 32
卡卡@@ 32
卡布奇诺 32
卡斯 32
卧房 32
却 32
卷筒 32
反应 32
发动机 32
发片 32
取物 32
变脸 32
台湾@@ 32
吉它 32
吋手机 32
后轮 32
呦 32
哆啦a梦 32
哔 32
喆 32
图书馆 32
圃 32
土黄 32
地带 32
垂吊 32
复古格 32
大毛 32
大码@@ 32
大谦 32
天生 32
女内裤 32
女篮 32
奴比@@ 32
姵@@ 32
姿势 32
嫁@@ 32
安神 32
定妆@@ 32
定座 32
宝坚 32
客订@@ 32
宿@@ 32
小吃店 32
小喇叭 32
小王子 32
小瓶 32
尘螨 32
尸@@ 32
尽@@ 32
尿布垫 32
屋子 32
工作证 32
干粮 32
彰 32
往@@ 32
微米 32
忙 32
忧伤 32
恬廊 32
憨@@ 32
打击@@ 32
打洞 32
打猎 32
扣扣 32
扣款 32
抗压 32
抗寒 32
抵用 32
拱门 32
挂灯 32
捡便宜 32
捷安特 32
搭载 32
放电 32
文房 32
斯坦 32
旋律 32
昆布 32
春茶 32
普卡@@ 32
晶体 32
机关 32
杜邦 32
条案 32
果脯 32
柜) 32
柯尔斯 32
桔红 32
棉t恤 32
楷 32
模板 32
歪 32
水润 32
汽球 32
沙丁鱼 32
活用 32
浓汤 32
液) 32
混装 32
源头 32
漫画@@ 32
潜水衣 32
潭 32
潮酷 32
灵芝 32
炫光 32
爆棚 32
爆款#@@ 32
爱买 32
爵士鼓 32
版女 32
牵@@ 32
特斯拉 32
狮子王 32
猴@@ 32
玉器 32
王公仔 32
王冠 32
珍贵 32
球棒 32
琉@@ 32
瑛 32
电包 32
电筒 32
白兔 32
白茶 32
皂液器 32
皂盒 32
皓 32
盈@@ 32
盗墓 32
眉刷 32
硅藻土 32
碎肉 32
空版 32
突@@ 32
立方 32
第2 32
粉粉 32
红薯 32
级) 32
纾 32
组/@@ 32
经销商 32
绕线 32
绕颈 32
维特 32
绿篱 32
编码 32
美国队 32
老天 32
肌活 32
肛交 32
股@@ 32
肤皂 32
背) 32
胖丁 32
胶垫 32
脆@@ 32
脆饼 32
腔 32
自然光 32
花花@@ 32
茄子 32
茶炉 32
荧幕 32
药水 32
莲子 32
菲尔 32
萤石 32
薪 32
藕 32
藜 32
蝎子 32
螺帽 32
行包 32
补助 32
袖上 32
褐 32
议@@ 32
谱@@ 32
象牙白 32
贴) 32
超过 32
身衣 32
车位 32
车盘 32
软木塞 32
还@@ 32
远东 32
连网 32
迷迭香 32
通信 32
酪@@ 32
金丝@@ 32
金行 32
针织衣 32
钛金 32
钢瓶 32
钢精 32
铁壶 32
铜钱 32
锄@@ 32
锰钢 32
镯@@ 32
阻尼 32
除臭剂 32
隐形磁 32
隼 32
霆 32
霜) 32
靖@@ 32
鞍@@ 32
韩蕾 32
音速 32
风凉 32
餐杯 32
饱腹 32
香烟 32
马灯 32
鲨鱼鳍 32
黑胡椒 32
ｐ@@ 32
!!! 31
(34@@ 31
(6) 31
(75@@ 31
(no.@@ 31
(rolex) 31
(s-@@ 31
(z@@ 31
(三色) 31
(双@@ 31
(城邦 31
(整 31
(赠送 31
))) 31
*4 31
-11@@ 31
........ 31
.9 31
/s@@ 31
001@@ 31
10-12 31
1008 31
1010 31
10m 31
134@@ 31
1mm 31
2-100 31
200w 31
2010@@ 31
2021.@@ 31
2021年 31
20cm@@ 31
239 31
257 31
264 31
271 31
31512@@ 31
33mm 31
393 31
39mm 31
3: 31
440@@ 31
4434@@ 31
5.3 31
670 31
6b 31
6sp 31
712 31
730 31
7日 31
832@@ 31
84955@@ 31
855 31
886 31
8c 31
911@@ 31
922 31
977@@ 31
9l 31
@全场 31
_j005d 31
accord 31
aj13 31
aj3 31
albion 31
allpop 31
anda 31
anne 31
ans 31
ass 31
astro 31
ator 31
b.toys 31
bea@@ 31
beat@@ 31
berry 31
blanc 31
boutique 31
braun 31
burberry/ 31
business 31
c- 31
c4@@ 31
chenn 31
chukka 31
chun 31
cover@@ 31
cv 31
dol@@ 31
du 31
d型 31
eclipse 31
ena 31
esp@@ 31
f20 31
faced 31
first@@ 31
flip 31
fn@@ 31
fo 31
fol@@ 31
foo@@ 31
gmt 31
gogoro@@ 31
gui@@ 31
hard@@ 31
hat@@ 31
hey@@ 31
hh 31
inomata 31
iphone5s 31
ipod 31
ix35 31
j&y 31
jelly 31
k) 31
kc 31
kimi 31
lace 31
liz 31
lowrys 31
luxe 31
m.2 31
m54@@ 31
mand@@ 31
maz@@ 31
mazda@@ 31
miki 31
mini4 31
mini5 31
miniso 31
mmj 31
mw@@ 31
nk@@ 31
nmd@@ 31
no. 31
ob11 31
oc 31
ocean 31
open@@ 31
opp@@ 31
ox@@ 31
pan 31
pap@@ 31
pei@@ 31
pl 31
pv@@ 31
rement 31
rick 31
rm-@@ 31
rmk 31
r·h· 31
s+@@ 31
sac 31
sand@@ 31
sdi 31
sephora 31
sf-@@ 31
ske@@ 31
sl-@@ 31
sound 31
sound@@ 31
spirit 31
sport@@ 31
stanley 31
steel 31
stop 31
t00@@ 31
think 31
tie 31
tin 31
tool 31
tou@@ 31
u2 31
u6 31
vtech 31
w.lab 31
x23 31
xii 31
year 31
yeezy@@ 31
ze554 31
¥ 31
ღ先 31
‼现货 31
∞ 31
ホ@@ 31
ム@@ 31
ャ@@ 31
不规则 31
丑@@ 31
世绘 31
业务员 31
中华民国 31
中青 31
中音 31
丹丹 31
亨利 31
伊曼 31
会馆 31
伯贤 31
伸缩@@ 31
佐料 31
体乳 31
你家 31
信报箱 31
傅 31
克林 31
公母 31
典礼 31
农会 31
农庄 31
冲水 31
冷藏箱 31
冻干 31
切尔西 31
利制 31
制冷器 31
刷刷 31
剃头刀 31
前掌 31
加厚@@ 31
勇气 31
包布 31
包饭 31
化工 31
卡匣 31
卡尔@@ 31
卫生衣 31
即发 31
压克力@@ 31
压头 31
厚片 31
原型 31
叉勺 31
台钟 31
品. 31
品乐家 31
哉 31
喔喔 31
喜鹊 31
噢 31
圭@@ 31
坐骑 31
垂@@ 31
堆堆 31
墩布 31
声宝 31
大宝 31
大帝 31
大赛 31
套件 31
女裙 31
好物 31
妈咪) 31
始祖鸟 31
娜美@@ 31
子筒 31
安东尼 31
宙@@ 31
对子 31
寻找 31
小将 31
小美 31
小钻 31
小颗 31
尼克@@ 31
展厅 31
布鲁斯 31
带电 31
幺 31
开光 31
开箱 31
弄 31
强悍 31
彩云 31
微缩 31
心意 31
必败 31
悲@@ 31
感恩节 31
手编 31
扶梯 31
折伞 31
折扣@@ 31
护身 31
抽风机 31
拉紧 31
拼音 31
接环 31
提高 31
插线 31
搓@@ 31
救生 31
救生圈 31
教养 31
文化@@ 31
新乐 31
新款) 31
无后 31
日日 31
日系 31
旭@@ 31
时来运转 31
旻@@ 31
昌@@ 31
是@@ 31
普利@@ 31
暖暖@@ 31
木柜 31
木片 31
枕边 31
椎@@ 31
楚 31
榨 31
欧斯 31
款-@@ 31
每组 31
氙气 31
汪喵 31
沫@@ 31
沾@@ 31
法斗 31
泡茶器 31
浅绿 31
海杆 31
海盗船 31
消暑 31
滑凉 31
漫步者 31
火山@@ 31
火柴 31
火鸡 31
灰指甲 31
炫耀 31
烤肉架 31
热气球 31
热量 31
焊枪 31
爱心@@ 31
牙套 31
物件 31
狱 31
玉山 31
玩具反斗城 31
玻 31
玻璃钢 31
甚 31
生气 31
甩卖 31
电) 31
电吹风机 31
男靴 31
疾@@ 31
登山@@ 31
白天 31
白点 31
白酒 31
百货@ 31
皮克斯 31
皮器 31
督 31
砚 31
破解 31
碱性 31
神经 31
票) 31
福寿 31
立农 31
第九 31
簪子 31
粗线 31
紫红色 31
纯绵 31
美乐蒂 31
老大 31
耐力 31
耕 31
肌轮 31
脸谱 31
舖ღ 31
航线 31
艺人 31
艾灸 31
茱@@ 31
茶) 31
草席 31
薄片 31
藏式 31
藜@@ 31
蝎 31
行程 31
褥@@ 31
览 31
设计@@ 31
请在 31
豌豆 31
财富 31
货物 31
走道 31
辫子 31
过期 31
运费@@ 31
酒精@@ 31
醋瓶 31
金石 31
金黄色 31
钛晶@@ 31
银) 31
锁链 31
镭@@ 31
长椅 31
除氯 31
陨石 31
陶艺 31
障 31
雅马哈 31
雪花@@ 31
靠@@ 31
鞋/@@ 31
韦德 31
颈带 31
颐 31
风t恤 31
飞旋 31
食品袋 31
饵料 31
香奈@@ 31
香花 31
骨干 31
魔法师 31
鸦@@ 31
麻吉@@ 31
麻将桌 31
黄花 31
黏袋 31
鼻器 31
︵@@ 31
(18@@ 30
(2016) 30
(70 30
(优) 30
(半 30
(特@@ 30
(第三 30
(金) 30
****@@ 30
-002 30
-006 30
-2色 30
-50@@ 30
.6 30
.s 30
/4@@ 30
/c@@ 30
0003 30
011 30
03/@@ 30
1090@@ 30
10k 30
10x@@ 30
1102 30
1212 30
1350 30
1400@@ 30
172 30
2-3-4-@@ 30
20x@@ 30
21cm 30
226@@ 30
254 30
274 30
283 30
286 30
3-12 30
3-2@@ 30
3-5 30
3-6m 30
33cm 30
348 30
34mm 30
35*@@ 30
360ml 30
385 30
3v 30
446 30
534@@ 30
550ml 30
590@@ 30
673 30
686 30
7*@@ 30
7-001 30
741 30
800g 30
899@@ 30
8w 30
9000 30
9006 30
945 30
970 30
??@@ 30
\\\@@ 30
_z@@ 30
a13@@ 30
a_@@ 30
ah8050@@ 30
aj7 30
allure 30
and1/2 30
ari 30
ass@@ 30
assc 30
atm 30
basketball 30
betta 30
bie@@ 30
blk 30
botani@@ 30
brisk 30
brit@@ 30
bryant 30
chance 30
cmx@@ 30
comme 30
comp@@ 30
coo 30
cosply 30
coupe 30
cra@@ 30
craftholic 30
cru@@ 30
cx5 30
diana 30
digital 30
din 30
doremi 30
ducati 30
dun@@ 30
e1 30
edison 30
er-@@ 30
ey 30
f) 30
f11 30
find 30
find@@ 30
flo@@ 30
flor@@ 30
fs1@@ 30
gen 30
gucci双g 30
guccl 30
havaianas 30
hguc 30
hobby 30
hsieh 30
hype 30
hyper 30
h家 30
igo@@ 30
infiniti 30
iphone/@@ 30
j12 30
j6@@ 30
jack@@ 30
k10 30
k7 30
kitchen 30
kur@@ 30
lazy 30
livina 30
lla 30
lotte 30
luggage 30
ly00@@ 30
m.a.c 30
m11 30
m12 30
m67@@ 30
mamba 30
mercedes-benz 30
mercier 30
mind 30
mlx@@ 30
mm200 30
moomin 30
moomin@@ 30
moto@@ 30
nar@@ 30
nas 30
nb-@@ 30
nds 30
nest 30
nicole 30
no: 30
novo 30
official 30
olay 30
online 30
pai@@ 30
pallas 30
pcs) 30
pho@@ 30
pods 30
poe 30
prius 30
proct@@ 30
rca 30
ree 30
s-max 30
satchel 30
satin 30
season 30
sele@@ 30
selfie 30
sj 30
sli@@ 30
start 30
stitch 30
su: 30
superme 30
sus@@ 30
swi@@ 30
ta/@@ 30
tailwind 30
tak@@ 30
talk 30
terra 30
thinkpad 30
tilbury 30
tk 30
tomytec 30
tto 30
tucson 30
twice@@ 30
t大学 30
t恤m-xxl 30
t恤男 30
t素t素 30
uk 30
uno 30
usb2.0 30
v5@@ 30
vapor@@ 30
venomenon 30
ville 30
x-trail 30
x27 30
xmax 30
xo@@ 30
y-3@@ 30
y0@@ 30
yaya 30
yohji 30
your@@ 30
yozu 30
yuan 30
zb602 30
ze552 30
zeta 30
zp 30
ᄀ@@ 30
ᴀ@@ 30
の家 30
め@@ 30
ㄇ 30
ㄇ字 30
一律 30
一组 30
三叉 30
三合一@@ 30
上蜡 30
下杀^@@ 30
专属) 30
丝衫 30
丫买买铺 30
中统 30
五谷 30
亚版 30
交锋 30
交错 30
亮肤 30
代购. 30
企 30
伊人 30
休闲装 30
优惠券 30
体操 30
供桌 30
促销@@ 30
俏@@ 30
保健食品 30
保湿乳 30
保证卡 30
保险丝 30
信誉 30
俪@@ 30
修理 30
倒数 30
倒立 30
储存罐 30
儿童文学 30
公务 30
公斤) 30
兰香 30
共有 30
其它 30
典) 30
养生@@ 30
冷兵器 30
分开 30
初夏 30
前戏 30
包# 30
包.@@ 30
包车 30
北斗 30
半裙 30
南投 30
卜 30
卡其@@ 30
印制 30
危险 30
卵@@ 30
厂牌 30
压气 30
厝 30
去油 30
双人@@ 30
双心 30
双拍 30
发绳 30
可触 30
合并 30
吮吸 30
呎@@ 30
哨子 30
唱机 30
啃咬 30
回归 30
围棋 30
国) 30
国学 30
图案@@ 30
土星 30
坐卧 30
塞尔 30
墬@@ 30
壮@@ 30
复杂 30
大孔 30
大披肩 30
大棚 30
天下@@ 30
天竺 30
头层 30
奎 30
女星 30
妇婴 30
妊娠 30
娃娃) 30
媛@@ 30
媳妇 30
孕期 30
字母@@ 30
安全套 30
安全门 30
安安 30
家乐 30
寸: 30
导论 30
小卖 30
小巷 30
小栈 30
小跑 30
展会 30
巫 30
巴斯夫 30
带宽 30
平板车 30
年前 30
年年 30
幽默 30
彩球 30
径@@ 30
快艇 30
恐 30
惊魂 30
战地 30
所以 30
手铐 30
打褶 30
扭伤 30
扶桑 30
抢眼 30
报告 30
拆卖) 30
拉斯@@ 30
拟@@ 30
择@@ 30
拯救 30
按摩棒@@ 30
挤牙膏 30
挥 30
推推 30
援@@ 30
摩儿 30
撸@@ 30
操作台 30
收藏版 30
效果器 30
新包 30
新增 30
方案 30
无影 30
日落 30
星球大战 30
晟 30
暗扣 30
曼尼@@ 30
曾@@ 30
朔 30
朗基 30
木心 30
本命 30
机智 30
材质) 30
村上隆 30
村秀 30
束发 30
枚) 30
架子@@ 30
柄@@ 30
柜角 30
标贴 30
桌下 30
桑葚 30
楠木 30
樱木花道 30
橡 30
檀@@ 30
正方 30
水网 30
水道 30
汽座 30
沙发毯 30
沙棘 30
油灯 30
泊@@ 30
法棍 30
洒水壶 30
洗衣盆 30
洛特 30
浇@@ 30
浇水 30
测距仪 30
浪板 30
涤@@ 30
添加剂 30
港风 30
湖人队 30
澈 30
澳门 30
火神 30
炙@@ 30
炭治郎 30
烛光 30
熔 30
爱国者 30
爱小 30
爱玩 30
版画 30
牌底 30
猫熊 30
玟@@ 30
现货. 30
现货_ 30
现货丶 30
玻璃窗 30
球类 30
瓶/@@ 30
电梯 30
电池@@ 30
电焊机 30
疫@@ 30
白云 30
百合@@ 30
百货) 30
皂机 30
皙 30
监狱 30
直板 30
短帘 30
短毛 30
矿灯 30
码头 30
研究室 30
磁贴 30
祐@@ 30
祝 30
票券 30
祯 30
福冈 30
福斯 30
税@@ 30
空军一号 30
窈窕 30
答@@ 30
策 30
箔@@ 30
篷@@ 30
系绳 30
红袍 30
纤细 30
练习器 30
组合@@ 30
绒被 30
编程 30
羔羊 30
耗@@ 30
肆 30
肉感 30
肌板 30
肌研 30
肠胃 30
胡椒粉 30
胶) 30
腌@@ 30
臻品 30
舞蹈鞋 30
色泽 30
艺兴 30
艾尔 30
节棍 30
花枝 30
芹@@ 30
苹 30
苹@@ 30
萨波 30
萱@@ 30
葆 30
薯片 30
蛋) 30
行走 30
衔扣 30
补水 30
补胎 30
西华 30
西式 30
西方 30
观察 30
证照 30
调音器 30
豹@@ 30
貍@@ 30
货品 30
购入) 30
贷款 30
赠品) 30
起毛 30
超人@@ 30
趟 30
趴@@ 30
轮盘 30
轴心 30
辉煌 30
返 30
连线@@ 30
迪达@@ 30
迷恋 30
退货 30
透气@@ 30
配线 30
酿酒 30
重奏 30
重建 30
量: 30
金曲 30
鉴定@@ 30
钻钻 30
锅子 30
镜头@@ 30
长款 30
门号 30
门边 30
问号 30
防御 30
阿信 30
陪@@ 30
集美 30
雷诺 30
霖@@ 30
须@@ 30
顿@@ 30
领夹 30
领导 30
颜乳 30
风速 30
飘香 30
餐馆 30
饱满 30
香火 30
香片 30
香甜 30
香脆 30
驴 30
骄@@ 30
高帮 30
鱼具 30
鸡汤 30
黄瓜 30
黏贴式 30
黑色素 30
＄ 30
🏼@@ 30
#\n 29
( 29
(11@@ 29
(150@@ 29
(22 29
(22@@ 29
(25@@ 29
(5) 29
(f) 29
(u@@ 29
(专属 29
(专柜 29
(全馆 29
(台 29
(实 29
(实拍 29
(尺 29
(有@@ 29
(正@@ 29
(版 29
(精装) 29
(红色 29
(自 29
(香奈儿) 29
-300@@ 29
-600 29
-k 29
/usb 29
/三民 29
02/@@ 29
1-6@@ 29
1.5g 29
1/2/@@ 29
110/@@ 29
1155 29
12v24v@@ 29
154@@ 29
1950 29
2-6 29
2300 29
2600 29
265@@ 29
268 29
28-36 29
298 29
3# 29
3.5吋 29
308364 29
3三 29
40-47 29
40l 29
411 29
430@@ 29
448 29
497@@ 29
50w 29
516 29
554@@ 29
55mm 29
560@@ 29
569 29
578@@ 29
5q 29
5th 29
661 29
690@@ 29
6ml 29
70*@@ 29
748 29
751 29
764 29
7d 29
7plus/@@ 29
845@@ 29
860@@ 29
876 29
8g/@@ 29
918@@ 29
942842-@@ 29
960 29
9c 29
:00 29
addict 29
airmax 29
alan 29
alien 29
b& 29
bai@@ 29
bel 29
beverly 29
blackmores 29
ble@@ 29
bose 29
butter 29
bye 29
c4 29
c8 29
calvinklein 29
cc霜 29
cher 29
cit@@ 29
co-@@ 29
crocodile 29
crt300 29
d7@@ 29
dc-@@ 29
ddr3 29
deer 29
dur@@ 29
electrolux 29
ettusais 29
f. 29
f3.5 29
f4 29
f8@@ 29
fb: 29
figure 29
fire@@ 29
fix 29
fleur 29
flu@@ 29
form 29
f赏 29
gao 29
gate 29
gd-@@ 29
georg 29
gn-@@ 29
guard 29
gucci/@@ 29
gx2 29
halo 29
hdmi@@ 29
hill 29
hit@@ 29
hooded 29
hua 29
i'm 29
ifme 29
impreza 29
iphone6/6s/@@ 29
iphone6s/@@ 29
iphonex/@@ 29
j5@@ 29
jensen 29
jie 29
joi@@ 29
kd-@@ 29
keepall 29
kinloch 29
kuma 29
lar 29
lbj13 29
life&entertainment 29
lr 29
lw-@@ 29
m40156 29
m60017 29
mania 29
martin 29
mate9 29
max2 29
milk 29
mivue 29
mm- 29
more@@ 29
mun@@ 29
mx-@@ 29
noname 29
octavia 29
ops 29
pack@@ 29
papa 29
pas@@ 29
pentax 29
phy@@ 29
pod-s3.1 29
premi@@ 29
rd-@@ 29
rene 29
retina 29
rj 29
rn@@ 29
sao 29
sco@@ 29
sd-@@ 29
slo@@ 29
so-@@ 29
some 29
spi@@ 29
ssk 29
stu@@ 29
tek 29
tsai 29
tube 29
u3 29
ultr@@ 29
une 29
vichy 29
vip@@ 29
vu@@ 29
wit@@ 29
wn 29
woman 29
world@@ 29
wr 29
x30 29
xu@@ 29
xxx 29
yan 29
zara@@ 29
ze550 29
ω@@ 29
ღ*玛琪朵 29
∼@@ 29
≡@@ 29
➌@@ 29
し 29
ノ@@ 29
万斯@@ 29
三千 29
三彩 29
三日 29
三脚 29
下杀$@@ 29
不对 29
不锈钢@@ 29
丧 29
中山 29
中秋节 29
乐福 29
乱乱 29
亚历山大 29
仆@@ 29
他人 29
代币 29
优品 29
优惠# 29
优胜 29
伤口 29
伯伦 29
估价 29
侬侬转蛋屋 29
保真 29
俱@@ 29
充满 29
光小语 29
光帘 29
光彩 29
入组 29
再生 29
凉水壶 29
函@@ 29
分享器 29
切换器 29
剥皮 29
力器 29
功能@@ 29
势不可挡 29
勇敢 29
化妆@@ 29
单人@@ 29
单向 29
博基尼 29
卸除 29
双勾 29
双钩 29
发出 29
发网 29
口内 29
口香糖 29
各色 29
吉尔 29
吊牌 29
同时 29
后街 29
吐@@ 29
周末 29
哪里 29
售后 29
喜气 29
回购 29
团团 29
圆满 29
地下室 29
场合 29
垦丁 29
壹家壹 29
处理@@ 29
复合式 29
外汇 29
外翻 29
夜行 29
大头@@ 29
天神 29
太古 29
奇葩 29
女百 29
妮可 29
嬉皮 29
子. 29
孔雀@@ 29
孤 29
宝岛 29
家俱 29
寥寥 29
小公 29
小摆设 29
小版 29
小盒 29
小锅 29
展板 29
展示板 29
山田 29
峰@@ 29
布质 29
布鲁托 29
希尔思 29
帕玛@@ 29
帽加绒 29
平底凉 29
平锅 29
建构 29
开启 29
弓@@ 29
弹力布 29
律师 29
怪手 29
惹 29
战舰 29
房顶 29
托鞋 29
扶手椅 29
技g@@ 29
技能 29
拉丁舞 29
持@@ 29
挂机 29
挂饰 29
接地 29
提灯 29
插板 29
播种 29
收涎 29
收纳袋 29
改版 29
整型 29
敷@@ 29
文版) 29
斯特@@ 29
新闻 29
方便面 29
无名 29
明火 29
星星@@ 29
晓晓 29
晨露 29
更衣室 29
有型 29
未用 29
机洗 29
杀$@@ 29
果仁 29
果酸 29
梦想家 29
棒球手套 29
棕) 29
次氯酸 29
歇@@ 29
殿下 29
水晶绒 29
水面 29
汉方 29
油条 29
油水 29
泡泡@@ 29
洗) 29
洗发@@ 29
洗衣粉 29
活泼 29
测量仪 29
浮夸 29
海草 29
深绿色 29
添@@ 29
清单 29
湿度 29
滑冰 29
潘@@ 29
潘朵拉@@ 29
潜水艇 29
灰黄 29
炊具 29
热爱 29
焕采 29
爬山 29
爷@@ 29
版t 29
牙粉 29
牛头 29
犄角 29
犬泰迪 29
献@@ 29
猴年 29
玛莎拉蒂@@ 29
珍藏@@ 29
球器 29
瑞拉 29
瓜果 29
生日蛋糕 29
电话线 29
略@@ 29
痕@@ 29
白巧克力 29
百伦@@ 29
百叶 29
盒/@@ 29
盔@@ 29
盘大 29
相纸 29
石) 29
磷 29
示@@ 29
示范 29
神社 29
祥@@ 29
私讯 29
秘诀 29
立坽 29
第6 29
等等 29
篇) 29
米白 29
粉黄 29
糖罐 29
红人 29
红盘 29
纱布巾 29
纸) 29
纸板 29
线路 29
绚丽 29
网球拍 29
羊羊 29
美) 29
美容师 29
翅 29
翊@@ 29
肩宽 29
胚@@ 29
脱皮 29
自创 29
节能灯 29
芋 29
芬兰 29
花儿 29
芹 29
英汉 29
荳荳 29
菜盆 29
菜菜 29
蓝黑色 29
藏传 29
蚤 29
袁 29
装订 29
装饰布 29
裕隆 29
观世音 29
言情 29
训练@@ 29
设@@ 29
诊所 29
语文 29
豚@@ 29
象征 29
贝缇 29
负担 29
财金 29
贯通 29
贴纸) 29
贴膜@@ 29
贺@@ 29
过膝靴 29
运用 29
迪奇 29
送) 29
速写 29
邮筒 29
郑@@ 29
郝 29
配件) 29
酷乐 29
重新 29
金玉 29
钓箱 29
钙@@ 29
铝镁合金 29
铺床 29
锯@@ 29
阁@@ 29
降落伞 29
限制级 29
除垢 29
除霉 29
隔断帘 29
集梦 29
雕刻刀 29
青梅 29
青金石 29
靠得住 29
鞋跟 29
鞘 29
颜色) 29
飞行@@ 29
飨宴 29
餐台 29
饱@@ 29
香浓 29
马毛 29
鱼) 29
鱼丸 29
鱼水族 29
鲔 29
鲜艳 29
鲤 29
鸡皮 29
黄蜂 29
黑米 29
!!) 28
#4 28
$500 28
$新货 28
(30@@ 28
(y@@ 28
(一盒 28
(八 28
(内含 28
(卡 28
(售出) 28
(圣 28
(左 28
(林 28
(灰色) 28
(种子 28
(红@@ 28
(臻 28
(银) 28
(黄色) 28
*12 28
-005 28
-05@@ 28
-29 28
-41 28
-50 28
-k@@ 28
-n@@ 28
.g 28
/1000 28
011@@ 28
017 28
07/@@ 28
1% 28
1.8l 28
1011@@ 28
109@@ 28
1119 28
1360@@ 28
13mm 28
16a 28
17*@@ 28
1900@@ 28
1: 28
2022@@ 28
23c 28
241 28
244 28
24v@@ 28
26) 28
291 28
2: 28
3-6@@ 28
30l 28
3300 28
37) 28
3780@@ 28
4.7吋 28
40w 28
45) 28
4500 28
451 28
463 28
468 28
5% 28
538@@ 28
559 28
566 28
567 28
6.4 28
6.9 28
621 28
66-@@ 28
662 28
663 28
669 28
6v 28
7.3 28
7.9 28
723@@ 28
752 28
756 28
778@@ 28
7p/@@ 28
7x 28
812@@ 28
839@@ 28
8450@@ 28
8524@@ 28
864@@ 28
8v 28
9-100 28
90% 28
900g 28
912@@ 28
987 28
@@@@ 28
a&m 28
a39 28
a92018 28
aco 28
addiction 28
adr 28
album 28
anna@@ 28
ao292@@ 28
apink 28
b375@@ 28
balance/nb 28
balea 28
battle 28
bau@@ 28
bdsm 28
beetle 28
boo 28
bq415@@ 28
build 28
burberry@@ 28
c/ 28
c10 28
cafe@@ 28
captain 28
cca 28
celine@@ 28
champion@@ 28
clo@@ 28
coat 28
company 28
ct-@@ 28
custom 28
c款 28
daytona 28
defiant 28
diet 28
dio@@ 28
dior/迪奥 28
dr-@@ 28
echo 28
fei 28
flower@@ 28
forester 28
fusion 28
g10 28
g2000 28
gie 28
gn 28
got@@ 28
grandista 28
group 28
hallmark 28
hoo 28
hq@@ 28
hsi@@ 28
instapump 28
international 28
irene 28
irobot 28
ista伊士达 28
jewelry 28
js@@ 28
jumbo 28
jur@@ 28
kamera 28
katze 28
keep 28
kiko 28
kiss@@ 28
lagerfeld 28
lg@@ 28
lim 28
lou 28
lover@@ 28
lthr 28
lv零 28
m2r 28
ma1 28
mamonde 28
mani@@ 28
marukan 28
maxi 28
mf 28
mini-@@ 28
mkb 28
ml/50 28
mobile 28
mondeo 28
mp5 28
multiple 28
no.5 28
note8pro 28
offwhite 28
omega@@ 28
our 28
p8@@ 28
pocky 28
py@@ 28
que 28
r&@@ 28
retro@@ 28
revlon 28
ris 28
rita 28
rogue 28
s-m 28
s76@@ 28
saem 28
sain@@ 28
sas 28
seagate 28
seoul 28
sfc 28
shm 28
shoe 28
simply 28
soft99 28
sou 28
stan@@ 28
stock 28
swisse 28
tas 28
time@@ 28
trunk 28
ttbooks 28
tun@@ 28
ture 28
t爱 28
uf@@ 28
ui 28
v30 28
var@@ 28
veer 28
whi@@ 28
wind@@ 28
work@@ 28
wt-@@ 28
xa@@ 28
zar@@ 28
zenfone@@ 28
zmi 28
zp* 28
zs-@@ 28
zu 28
zx750 28
ᄅ@@ 28
ᄇ@@ 28
ᅳ@@ 28
う 28
え@@ 28
も@@ 28
ツ@@ 28
ナ 28
ニ@@ 28
メ@@ 28
一拳 28
万能@@ 28
丝雪肌 28
丫@@ 28
中医 28
主妇 28
什锦 28
仑@@ 28
他@@ 28
众星 28
会员卡 28
会话 28
伯特 28
低压 28
促销&@@ 28
假山 28
催 28
儿) 28
儿歌 28
元件 28
光光 28
克莱@@ 28
公主@@ 28
公开 28
六分 28
六折 28
兰仕 28
军团 28
冲刺 28
凋 28
出售) 28
出版) 28
函 28
初见 28
前进 28
剪剪 28
剪子 28
加厚型 28
加藤 28
匀@@ 28
升降机 28
单单 28
单条 28
博世 28
卡龙色 28
发明 28
发束 28
发膏 28
古巴@@ 28
句@@ 28
可食用 28
台卡 28
台历 28
吊袜带 28
吞 28
吧@@ 28
呐 28
品格 28
唤醒 28
喇 28
圆领t 28
坎@@ 28
坛子 28
塞尔@@ 28
壹号店@@ 28
复式 28
夏天@@ 28
大便 28
大富翁 28
大意 28
大树 28
大鼻子 28
天丝@@ 28
太妃糖 28
套书 28
套裙 28
女伶 28
好莱坞 28
妇女 28
姨妈 28
婴儿@@ 28
守护者 28
安全网 28
官网 28
宝贝@@ 28
实力 28
宾士w@@ 28
寄) 28
寄送) 28
密语 28
对照 28
小y 28
小菜 28
小虾 28
小黄瓜 28
局部 28
层) 28
屠@@ 28
岗@@ 28
工笔 28
已经 28
币@@ 28
布书 28
帆@@ 28
希尔顿 28
带板 28
常用 28
平方 28
床头板 28
序@@ 28
弓箭 28
录音@@ 28
心手 28
心电图 28
必备@@ 28
必读 28
性能 28
息@@ 28
恶名昭彰 28
悍@@ 28
悬 28
戟 28
扁头 28
手写板 28
手机游戏 28
打开 28
扭@@ 28
投币 28
折现 28
担@@ 28
招考 28
拨@@ 28
指甲钳 28
排水孔 28
插手 28
插页 28
揭 28
搬运 28
摄影@@ 28
收到 28
效应 28
敏镐 28
斑霜 28
新星 28
日间 28
易峰 28
星河 28
显影 28
晒网 28
晟@@ 28
暑 28
暖意 28
暗影 28
暴雨 28
月付 28
有点 28
本体 28
术后 28
机防 28
松露 28
柔情 28
树德 28
树林 28
株式会社 28
梧桐 28
椅) 28
植物性 28
椰子@@ 28
椰子树 28
楦 28
榜 28
正韩 28
毛) 28
气功 28
水牌 28
江湖 28
污垢 28
油膜 28
泡椒 28
泰亨 28
泰勒 28
活体 28
浦@@ 28
深棕色 28
灌溉 28
炒@@ 28
炒面 28
炖盅 28
烛 28
牙科 28
环氧树脂 28
琳瑯 28
瑯@@ 28
璃@@ 28
生物@@ 28
申@@ 28
电烙铁 28
电视剧 28
电通 28
略 28
登高 28
白兰氏 28
百日 28
盆子 28
益生菌 28
盐味 28
盘点 28
直通 28
眼圈 28
矽藻土 28
砗磲 28
砚台 28
碎片 28
碳酸 28
社区 28
社长 28
秀美 28
秒@@ 28
租屋 28
积木@@ 28
穿墙 28
笋 28
第十 28
筑@@ 28
签到 28
简报 28
管钳 28
箭@@ 28
簸箕 28
粉末 28
粉色) 28
粒子 28
粪 28
精典 28
糙米 28
繁星 28
红鞋 28
纳福 28
组合) 28
细长 28
织物 28
结石 28
绘本 28
绫 28
绿蓝 28
缇花@@ 28
美人@@ 28
美甲@@ 28
翠玉 28
老茧 28
耕@@ 28
耳套 28
耽美 28
肤) 28
胺@@ 28
脆皮 28
脉@@ 28
脊@@ 28
脐@@ 28
脱水机 28
脸池 28
舌舔 28
般若 28
苍 28
苔@@ 28
苦瓜 28
荒@@ 28
菁@@ 28
蒜头 28
蓝牙 28
蓝白 28
蔚蓝 28
蜡皮 28
融@@ 28
袋泡茶 28
裸妆@@ 28
裸石 28
观念 28
计划@@ 28
讲课 28
话梅 28
诠@@ 28
调整器 28
贝印 28
贝吉@@ 28
财源 28
货币 28
质) 28
超霸 28
足印 28
车垫 28
车辆 28
转身 28
软布 28
辑@@ 28
输) 28
连帽帽t 28
迪斯@@ 28
选择@@ 28
遇见妳 28
遮瑕@@ 28
郡@@ 28
酥@@ 28
酸辣 28
量级 28
量身 28
金/@@ 28
金钟 28
金黄金 28
钢丝钳 28
钢刀 28
钢铁侠 28
铁柜 28
铠@@ 28
铬@@ 28
锡纸 28
镍 28
镶@@ 28
长寿 28
门器 28
防雨布 28
阿卡将 28
附件 28
隔间 28
震撼 28
青草 28
青轴@@ 28
面筋 28
顶天立地 28
预定) 28
颈项 28
香木 28
马裤 28
马里奥 28
高背 28
鬃毛 28
鲁鲁@@ 28
鸦 28
鹅卵石 28
︱ 28
＂ 28
ｄ 28
"遇见 27
$50 27
&& 27
&g 27
(14 27
(armani) 27
(中文 27
(欢迎 27
(紫) 27
(编号 27
(迪 27
-008 27
-009 27
-013 27
-32@@ 27
-37@@ 27
-p 27
/100 27
/7 27
/组 27
012 27
05070 27
1/24 27
1167@@ 27
12w 27
15.5 27
16.5 27
1tb@@ 27
2.1a 27
20200@@ 27
2022 27
2500@@ 27
255@@ 27
269 27
284 27
28吋 27
29*@@ 27
298@@ 27
2z 27
3-3@@ 27
3.6 27
30000 27
337 27
38-46 27
386 27
394 27
45-@@ 27
452 27
458 27
5/6 27
515 27
611 27
66s 27
678@@ 27
7.8 27
740 27
758 27
760 27
765 27
7l 27
8- 27
8000@@ 27
828@@ 27
882 27
883 27
885 27
8m 27
8ml 27
8t 27
9-12 27
925@@ 27
946 27
980@@ 27
989 27
9d 27
a19@@ 27
a75s 27
ack 27
adata 27
af/hco) 27
agf 27
andy 27
ape@@ 27
aqu@@ 27
ar16@@ 27
ar59@@ 27
ath-@@ 27
atx 27
audio 27
aura 27
bao@@ 27
beaute 27
beige 27
bloom 27
bv007@@ 27
c12 27
c8@@ 27
ces 27
chapeau 27
cky 27
continental 27
cz 27
czmmsn54 27
d+@@ 27
dailo 27
dashing 27
deco 27
derma@@ 27
duplo 27
dvd9 27
e5 27
e90 27
eds 27
eg 27
emily 27
ere 27
escape 27
esprit 27
ew@@ 27
e赏 27
f8 27
fashion- 27
fc-@@ 27
flair 27
foot 27
french 27
from 27
furla 27
g4@@ 27
g9@@ 27
gf 27
gj@@ 27
global 27
hai@@ 27
here 27
holic 27
how 27
hsin 27
iniki 27
innisfree@@ 27
iphonexsmax 27
j000@@ 27
j1@@ 27
jet@@ 27
jewel 27
jl@@ 27
jn 27
jol@@ 27
justin 27
k2g@@ 27
k8@@ 27
kal@@ 27
kanahei 27
kc-@@ 27
kg/ 27
ler@@ 27
less 27
lie 27
lips 27
little@@ 27
m18 27
m62@@ 27
maggie 27
max95 27
memo 27
moony 27
motor@@ 27
move 27
mtg 27
mul@@ 27
napolex 27
nb247 27
nice@@ 27
non@@ 27
nr@@ 27
off@@ 27
p&g 27
pa++++@@ 27
pa++@@ 27
peugeot 27
philipp@@ 27
pit@@ 27
plr 27
prince 27
purple 27
qqbow 27
rika 27
rivalry 27
rol@@ 27
round 27
rowa 27
s-3@@ 27
s-xx@@ 27
s11 27
salad 27
sau@@ 27
see 27
shir@@ 27
shop- 27
sol@@ 27
sole 27
sor@@ 27
spf 27
spm 27
springs 27
ss-@@ 27
sti 27
sup@@ 27
superman 27
t&@@ 27
tarte 27
thebuy-@@ 27
thi@@ 27
think@@ 27
this 27
toro 27
toryburch 27
tr-@@ 27
transcend 27
tree@@ 27
trey 27
twin@@ 27
t圆领 27
t宽松 27
t帽t 27
u.@@ 27
usm 27
ut@@ 27
vicky 27
victoria 27
viii 27
vin 27
vision 27
vk 27
warm 27
wat@@ 27
wc 27
wel@@ 27
xzs 27
y17 27
ym 27
z.@@ 27
~~ 27
ⅱ 27
⊙ 27
➏@@ 27
け@@ 27
の小铺 27
一罐 27
七七 27
三元 27
三四@@ 27
丝缎 27
中部 27
主演 27
之梦 27
之间 27
乐儿 27
乐芙 27
书斋 27
书豪 27
云豹 27
仗 27
代理商 27
价: 27
伤发 27
伪@@ 27
伺服器 27
体恤衫 27
便利商店 27
修补膏 27
修订 27
儒 27
元旦 27
光片 27
免提 27
兔兔@@ 27
全员 27
共和国 27
关门 27
养身 27
内胎 27
内藏 27
冒@@ 27
农夫 27
冲量 27
冲锋@@ 27
冷感 27
凯撒 27
凯蒂猫@@ 27
刀具架 27
分线器 27
划线 27
刷毛 27
剂) 27
剔@@ 27
剧院 27
动动 27
劵@@ 27
北极@@ 27
华为@@ 27
华尔@@ 27
单相 27
博柏利巴 27
卡包@@ 27
卡林@@ 27
卡片@@ 27
厂件 27
厌 27
双f 27
双拼 27
反光镜 27
反派 27
发叉 27
发女 27
可口 27
可混 27
可选 27
合式 27
吉娃娃 27
吋大 27
吐血 27
含水 27
呆呆 27
告@@ 27
周转 27
哥吉拉@@ 27
哥特 27
啡@@ 27
器/@@ 27
固定@@ 27
图画 27
坜@@ 27
垂耳 27
培育 27
增发 27
壁扇 27
多用途 27
夜钓 27
大姨妈 27
大礼 27
大肚 27
夺@@ 27
奈奈 27
奔跑 27
女衬衫 27
妍@@ 27
威威 27
娜赫拉 27
子家 27
字贴 27
孵@@ 27
完/@@ 27
定) 27
实践 27
家居馆 27
寂寞 27
富丽 27
寸衫 27
寺庙 27
小喵 27
小柜 27
尤加 27
尺子 27
尺码) 27
尼亚 27
尼克斯 27
层架 27
山口 27
巡回 27
工匠 27
工程@@ 27
巨型 27
帮套 27
幸福@@ 27
床子 27
度计 27
弹簧@@ 27
心脏 27
心面 27
恕 27
意者 27
戏服 27
战利品 27
房客 27
手势 27
扑克 27
扫帚 27
扯 27
抗风 27
拼板 27
捕手 27
探测 27
揉面 27
揭@@ 27
搬 27
搭裤 27
摩斯 27
摸@@ 27
收录 27
整合 27
文明 27
斯图西 27
斯摩@@ 27
新款式 27
方枕 27
无羡 27
日月潭 27
普罗旺斯 27
暗红 27
有余 27
木凳 27
木木@@ 27
末日 27
本: 27
机械手 27
机组 27
杀人鲸 27
杓@@ 27
杯器 27
杰拉 27
板子 27
板手 27
果糖 27
架式 27
柿 27
格力 27
栽@@ 27
桌儿 27
桑蚕 27
棉针织 27
棒. 27
欧意 27
毛巾被 27
气密 27
氧化 27
水族馆 27
汰 27
汽车蜡 27
沧海 27
法会 27
泡泡糖 27
洁面@@ 27
洗涤 27
测温 27
润肌 27
涵涵 27
炫彩@@ 27
烘碗机 27
热转印 27
燕尾 27
燥 27
牌子 27
牢 27
牧牧 27
状@@ 27
玉佩 27
王妃 27
玛丽珍 27
玛利欧 27
玩具) 27
班服 27
琼 27
瑜@@ 27
瑞克 27
瑞克@@ 27
瓦楞纸 27
瓶罐 27
用品) 27
男m-3xl 27
男段 27
留学 27
登月 27
皓@@ 27
皮皮 27
皿@@ 27
益菌 27
盒饭 27
相遇 27
短袖t 27
砖墙 27
硅藻 27
硕珍 27
磨砂@@ 27
礼物@@ 27
穹@@ 27
笙@@ 27
符合 27
筷@@ 27
算盘 27
米其林 27
糖浆 27
糯 27
糯@@ 27
红米 27
红红 27
红铜 27
约克 27
纯钢 27
组-@@ 27
绅@@ 27
绍@@ 27
经销 27
绞 27
续@@ 27
绸@@ 27
网) 27
网友 27
罗兰@@ 27
羊奶 27
美商 27
翅@@ 27
老牌 27
耐热玻璃 27
耳环s925 27
耶稣 27
背带) 27
胖mm 27
胶粘 27
脐带 27
脱发 27
脱毛机 27
脾@@ 27
膨@@ 27
自爱器 27
自由@@ 27
舒丹@@ 27
舔 27
艺妓 27
艾米丽 27
花盒 27
苏拉 27
药品 27
菇菇 27
蕨@@ 27
藏书 27
蛋白@@ 27
蛋糕@@ 27
蝙蝠衫 27
螺栓 27
衣舍 27
表_ 27
衫m-2xl 27
衫男 27
裁判 27
裸装 27
西洋@@ 27
计量 27
记忆@@ 27
词@@ 27
详 27
谎言 27
豪迈 27
貂毛 27
贸 27
费) 27
赵@@ 27
起源 27
超薄型 27
躲猫猫 27
边) 27
遮阴 27
针头 27
针线盒 27
钢门 27
铁环 27
铁锹 27
铠 27
银红 27
长夹@@ 27
防护@@ 27
阵@@ 27
阿卡@@ 27
阿拉伯 27
阿胶 27
阿飞 27
除毛器 27
除草 27
陷 27
难度 27
雁 27
雷电 27
霏@@ 27
霾@@ 27
靡 27
面包@@ 27
面漆 27
靴潮 27
顽@@ 27
领袖 27
马可 27
马尔@@ 27
鬼脸 27
魔术师 27
麋@@ 27
麻豆 27
黎明 27
黑茶 27
(19@@ 26
(201@@ 26
(9@@ 26
(a) 26
(for 26
(三@@ 26
(促 26
(促销 26
(原@@ 26
(多色 26
(时尚 26
(最 26
+) 26
-250 26
-35@@ 26
-38 26
-925 26
-lv 26
.) 26
.5x 26
.gucci 26
0k 26
1-12 26
1/2/3 26
1009 26
1011 26
1050@@ 26
110g 26
1110088@@ 26
1165@@ 26
12.7 26
120*@@ 26
125/@@ 26
150mm 26
17/@@ 26
196@@ 26
1:64 26
2/1 26
2/3 26
2003年 26
2022年 26
279 26
288@@ 26
2r 26
2w 26
2吋 26
313 26
317@@ 26
357 26
3600 26
378@@ 26
395 26
3dwoo 26
40--@@ 26
422@@ 26
43-@@ 26
445 26
459 26
495@@ 26
5-17 26
5.8吋 26
5050 26
527@@ 26
565@@ 26
5z 26
6-10 26
6.13 26
6000@@ 26
613 26
649 26
65/@@ 26
674 26
715 26
717 26
728 26
75% 26
761 26
762 26
80*@@ 26
811@@ 26
88-@@ 26
938 26
940 26
958 26
9ml 26
????@@ 26
@^ 26
abo@@ 26
ado 26
agete 26
aldo 26
angeles 26
angle 26
anth@@ 26
artist 26
aw-@@ 26
babygap 26
bal 26
baobao 26
bin@@ 26
birkenstock 26
bla@@ 26
body@@ 26
bour@@ 26
bre 26
bx@@ 26
c11 26
c180 26
carol 26
cath 26
cb-@@ 26
cell@@ 26
cf-@@ 26
check 26
chien 26
chin 26
cl-@@ 26
closet 26
cole 26
cologne 26
concert 26
cookie 26
cross@@ 26
darphin 26
db-@@ 26
decay 26
deli@@ 26
desire@@ 26
dior包包 26
doll@@ 26
dsq2 26
d扣 26
earth@@ 26
eh 26
fashion@@ 26
fc789 26
forest 26
four 26
g*10 26
g*3 26
godzilla 26
goomea 26
grain 26
grand@@ 26
halloween 26
hammer 26
hanna 26
hco) 26
head@@ 26
hung 26
hz 26
if 26
j'code 26
j8 26
jabra 26
jct 26
joyce 26
k/@@ 26
kam@@ 26
kim 26
kumamon 26
l/xl 26
lamy 26
leadcat 26
leica 26
lj@@ 26
m-2@@ 26
m10@@ 26
marshall 26
mat 26
merrell 26
microsoft 26
mira 26
mk2 26
mk54@@ 26
moda 26
motion 26
movie 26
mrl247@@ 26
mustela 26
n412@@ 26
n5@@ 26
na-v@@ 26
nak@@ 26
nano@@ 26
nb574 26
nel 26
neogence霓 26
nie@@ 26
nyc 26
oguma 26
path 26
peau 26
pg1 26
pos 26
posket 26
pureboost 26
q2 26
rb-@@ 26
rich@@ 26
rio 26
s& 26
s9/@@ 26
s_ 26
sac@@ 26
safe 26
santa 26
second 26
skinny 26
skyline 26
sle@@ 26
sml 26
song 26
spao 26
ssi@@ 26
style@@ 26
sw-@@ 26
swagger 26
swee@@ 26
tang 26
tcl 26
tid@@ 26
tro 26
tur@@ 26
t情侣 26
ulker_@@ 26
us9.5 26
v17 26
vene@@ 26
vers@@ 26
vis 26
vuit@@ 26
v格 26
was@@ 26
wild@@ 26
wl574 26
wp 26
wy@@ 26
x- 26
x00 26
xz3 26
y's 26
y/@@ 26
ys-@@ 26
zett 26
ᅦ 26
∴ 26
▷@@ 26
➒@@ 26
〖小桃美衣 26
〞 26
そ@@ 26
オ@@ 26
一罚十 26
一见钟情 26
不可思议 26
东区 26
丞丞 26
中考 26
丽丝尔 26
义卖 26
之语 26
乌木 26
乐购 26
乳/@@ 26
乳酸 26
五指 26
介意 26
仰@@ 26
伶@@ 26
供应@@ 26
俊雅 26
保修 26
保护剂 26
俞 26
信仰 26
假饵 26
光波 26
六边形 26
冠霖 26
冥想 26
冰山 26
冷热水 26
冷藏柜 26
分配器 26
制订 26
化剂 26
半成品 26
华人 26
协会 26
卓越 26
单售 26
卜@@ 26
卫裤 26
即将 26
压板 26
去火 26
友友 26
双料 26
反射 26
反绒 26
发亮 26
发胶 26
发言台 26
叔 26
变态 26
台币 26
台钓 26
呛 26
味精 26
哈佛 26
售完) 26
啵@@ 26
喽 26
噗 26
国家队 26
地柜 26
均@@ 26
垒@@ 26
培根 26
增订 26
处) 26
天伯伦 26
天龙 26
委@@ 26
委托 26
威尼斯 26
嬉@@ 26
孑 26
孤儿 26
学家 26
完工 26
宛@@ 26
宝瓶 26
客栈 26
客满 26
射手 26
小b 26
小女孩 26
小蚁 26
少见 26
尼尔 26
屁屁@@ 26
岔@@ 26
峻 26
川崎 26
巾/@@ 26
布/@@ 26
布纹 26
布置@@ 26
带柄 26
帮板鞋 26
帽沿 26
庄@@ 26
庆祝 26
录音机 26
彩旗 26
彩珠 26
态@@ 26
性酷 26
恋恋 26
房地 26
手灯 26
扣) 26
抗过 26
报童 26
拉娜 26
拒绝 26
拔罐 26
拳皇 26
拾音器 26
指挥@@ 26
指示 26
换气扇 26
掀@@ 26
排气扇 26
探险@@ 26
控制@@ 26
掸子 26
描红 26
提示牌 26
操@@ 26
擎 26
放气 26
散件 26
斯) 26
旋转@@ 26
无尽 26
无脚 26
无障碍 26
星矢 26
春游 26
昭@@ 26
昼@@ 26
暑假 26
暖壶 26
有底 26
朝日 26
本人 26
机构 26
架车 26
柠 26
格拉 26
梓 26
棉棉 26
樟 26
橡胶@@ 26
款式) 26
歌剧 26
比较 26
民宿 26
气色 26
氧化@@ 26
水球 26
江南 26
汤包 26
油精 26
泓 26
活水 26
流光 26
流苏@@ 26
海关 26
海尼根 26
海陆 26
润肤霜 26
深紫色 26
滑雪@@ 26
澳@@ 26
灭火器 26
灰色) 26
灰蓝色 26
灵性 26
灿@@ 26
灿烂 26
炽 26
烘衣机 26
烽火 26
熊) 26
爪子 26
特种 26
犯 26
狗狗@@ 26
狙击 26
狮@@ 26
狼毫 26
猪头 26
王) 26
王源 26
玥 26
玻璃水瓶 26
理台 26
瑕 26
瓣@@ 26
甄@@ 26
甘蔗 26
生医 26
甫 26
电话卡 26
町@@ 26
矩@@ 26
矮人 26
硬派 26
硼@@ 26
碎石 26
祈愿 26
祺儿 26
福斯@@ 26
禧@@ 26
种) 26
稍 26
穿线 26
童子 26
筠 26
篷布 26
米勒 26
米米 26
红玉 26
纯度 26
纳帕 26
纸包 26
纸张 26
绞肉 26
绣花鞋 26
缸@@ 26
网站 26
网通 26
美娜 26
翘@@ 26
老爷车 26
聪 26
肉包 26
肉桂 26
胶囊@@ 26
脚裤 26
自杀 26
臭味 26
色#@@ 26
节省 26
菁萃 26
菲斯 26
营地 26
蒂芬 26
蒜泥器 26
蘸 26
虎皮 26
蛙式 26
行款 26
衣. 26
衣刷 26
衰@@ 26
装下 26
裤# 26
计算器 26
讯) 26
记得 26
证日 26
诗风 26
诱饵 26
请问 26
貍 26
贝比@@ 26
败家 26
货运 26
赐福 26
超时空 26
超级玛利欧 26
超自然 26
足膜 26
转速 26
软绵绵 26
辛巴@@ 26
运输车 26
进水 26
速寄 26
配方) 26
酥脆 26
金牛 26
金鸡 26
鑚 26
钛金@@ 26
铁管 26
镍氢 26
长白山 26
门缝 26
防卫 26
防尘@@ 26
阿朗 26
除雾 26
雷霆s 26
霓虹 26
静静 26
鞋业 26
鞋油 26
颜皂 26
风流 26
餐盘 26
香珍 26
骨传导 26
高人 26
高压锅 26
高大 26
鬼屋 26
鬼火 26
魁 26
鲜果 26
麦穗 26
黑莓 26
#便宜 25
#日本 25
(110 25
(14@@ 25
(18 25
(50@@ 25
(b11@@ 25
(q@@ 25
(y-) 25
(任选 25
(优惠 25
(卷 25
(尺寸 25
(居家 25
(效 25
(袋装) 25
(香奈儿 25
+plus 25
-13@@ 25
-30@@ 25
-3d 25
-3色 25
-4-6 25
-48 25
.c 25
/橘 25
01/@@ 25
040@@ 25
1-8 25
1.5m1.8 25
1005 25
1026@@ 25
108年 25
110v@@ 25
11mm 25
12345@@ 25
12g 25
1512 25
1650 25
16ss 25
179@@ 25
1998年 25
2004年 25
2009年 25
2025 25
21) 25
22.5@@ 25
240g 25
245@@ 25
267 25
296 25
2tb 25
2x 25
3-6-12 25
3. 25
32) 25
354@@ 25
378 25
3way 25
4/ 25
40-50 25
454 25
462 25
474 25
4760@@ 25
488@@ 25
4s店 25
4色 25
5.4 25
5/5s 25
524@@ 25
565 25
568 25
6.8 25
60w 25
60x@@ 25
626 25
653 25
695 25
698 25
7100 25
725 25
749 25
7500 25
7x@@ 25
807471-@@ 25
80x@@ 25
828 25
899 25
917 25
929@@ 25
940@@ 25
983 25
_g@@ 25
a15@@ 25
a180 25
about 25
ade 25
adore 25
af-@@ 25
airpods1/2 25
amp 25
ane@@ 25
anni@@ 25
anniversary 25
arena 25
arm@@ 25
armor 25
ated 25
az 25
bay 25
block 25
bp-@@ 25
calculus 25
cc.@@ 25
chimmy 25
colt 25
corolla 25
cp9@@ 25
cq240@@ 25
cr-@@ 25
cur@@ 25
cx-5 25
c家 25
c赏 25
d' 25
dal@@ 25
dash 25
dea 25
dis@@ 25
down 25
duramo 25
e-books 25
e27@@ 25
e63 25
eat 25
ebay 25
eco-drive 25
enjoy 25
ero 25
fami@@ 25
fresh@@ 25
fs-@@ 25
g&@@ 25
gaga 25
gb-@@ 25
gentlemonster 25
gigabyte 25
glo@@ 25
gma-s110 25
guilty 25
handmade 25
hard 25
hay@@ 25
huang@@ 25
i. 25
i/ 25
ide@@ 25
ings 25
ink@@ 25
iti@@ 25
j7prime 25
j7pro 25
j8@@ 25
jane 25
jdm 25
jessie 25
jordan1 25
jx@@ 25
k/ 25
k12 25
k2g27@@ 25
k3 25
kid@@ 25
kitan 25
kitty/ 25
lc-@@ 25
le-@@ 25
lea@@ 25
levi@@ 25
limit 25
ls-@@ 25
lucy 25
lulus 25
lumix 25
lush 25
l码 25
m1.5 25
m30@@ 25
m43@@ 25
m44022 25
macbook@@ 25
made@@ 25
management 25
mccartney 25
miffy 25
miz@@ 25
mono@@ 25
mother 25
mp3) 25
multi@@ 25
n626@@ 25
nav@@ 25
ncc 25
nh 25
ning 25
nit@@ 25
note8t 25
nz@@ 25
on-@@ 25
ory 25
outlander 25
playstation 25
pper 25
press 25
pul@@ 25
purcell 25
px@@ 25
qind 25
qp 25
quot; 25
r. 25
rav@@ 25
rb3025 25
rda 25
relax 25
reno2 25
rhino 25
rival 25
s10e 25
schwarzkopf 25
seeds 25
self 25
sennheiser 25
ste 25
stream 25
sub@@ 25
sumikko 25
tencel 25
trainers 25
tuning 25
tus 25
t女 25
t裤 25
ula 25
unc 25
us13 25
us8.5 25
v-220v 25
v-gucci 25
v7@@ 25
v8@@ 25
ven 25
virgil 25
windcheater 25
won@@ 25
ws-@@ 25
xq@@ 25
y7@@ 25
yamamoto 25
yeh 25
yl 25
yts 25
zenfone2 25
zer@@ 25
ᆯ 25
―@@ 25
≡ 25
ケ 25
スタ 25
ット 25
テ 25
ハ 25
ース 25
三十 25
三百 25
上市) 25
上帝 25
上床 25
不失 25
丙烯 25
中裤 25
乐器. 25
书人 25
乳晕 25
乳木果 25
云台 25
京剧 25
亮晶晶 25
仿真丝 25
优良 25
伟士 25
佐罗 25
体位 25
佛手 25
侧睡 25
侬 25
便利@@ 25
促销& 25
信用 25
健步 25
催@@ 25
僧@@ 25
元山 25
克仿 25
克杯@@ 25
克洛伊 25
全黑 25
公制 25
兵马俑 25
兼@@ 25
冰球 25
冲程 25
凯西 25
凯迪@@ 25
凰 25
出入 25
切断 25
列传 25
初春 25
初榨 25
利斯 25
刮水器 25
前方 25
剪影 25
加倍 25
务@@ 25
北海 25
十分 25
半拉 25
华泰 25
卫队 25
印鉴 25
即插即用 25
卵 25
历险记 25
双带 25
双模 25
发) 25
变身器 25
号手 25
吋4k 25
吋八 25
后卫 25
后土 25
后脚 25
和合 25
咲@@ 25
哀@@ 25
品#@@ 25
品客 25
品蓝 25
哺乳@@ 25
唇膏@@ 25
唇蜜@@ 25
器# 25
土豆泥 25
坪@@ 25
基德 25
境界 25
墓 25
复古风 25
夕阳 25
外野 25
大兔兔 25
大哥 25
大褂 25
天) 25
天花 25
头罩 25
夹趾 25
套挂 25
妲@@ 25
嫚@@ 25
字长 25
孵 25
安迪 25
宙斯 25
宝塔 25
客订-@@ 25
宵@@ 25
家教 25
密封圈 25
富冈 25
小公主 25
小如 25
小店@@ 25
小林 25
小玩具 25
小象 25
少女@@ 25
尖叫 25
屁屁裤 25
居室 25
屏屋 25
山姆 25
山茶 25
左边 25
巫@@ 25
已@@ 25
布幕 25
布条 25
幅@@ 25
干燥@@ 25
平躺 25
并@@ 25
底妆 25
异想 25
归来 25
形态 25
彤彤 25
彩虹@@ 25
彭@@ 25
往复 25
徕 25
心房 25
忧@@ 25
恭喜 25
恰恰 25
愈小物 25
懒骨头 25
房车 25
手套@@ 25
打发 25
扭曲 25
扭转 25
抚@@ 25
报刊架 25
拍打 25
挂链 25
指示灯 25
挖耳 25
挡车 25
挤牙膏器 25
挽回 25
掀翻 25
排水口 25
推荐# 25
插孔 25
搜寻: 25
摩擦 25
故事@@ 25
教条 25
敦 25
文儿@ 25
斯卡@@ 25
新光 25
新品) 25
旗帜 25
无度 25
日剧 25
日本@@ 25
早午餐 25
星级 25
昭 25
普普风 25
暖气 25
暨 25
曙光 25
曼黛玛琏 25
月经 25
有机@@ 25
期货 25
木底 25
机头 25
杜蕾斯 25
林心如 25
林氏 25
栏@@ 25
格林@@ 25
桂冠 25
桦@@ 25
梢 25
棉絮 25
楔形 25
榻 25
横须贺 25
樱井 25
欧盟 25
气大 25
气筒 25
氢 25
水床 25
污渍 25
汤面 25
沃克 25
油彩 25
波特 25
泥膜 25
泽言 25
洁肤@@ 25
洛克@@ 25
活宝 25
浓度 25
海绵垫 25
润润 25
添加@@ 25
清纯 25
温室 25
滴管 25
潜水@@ 25
濑 25
灰白色 25
点子 25
炼金 25
烫手 25
熙@@ 25
燃油 25
爆膜 25
爱子 25
牙龈 25
牧羊@@ 25
物罐 25
牵念 25
特务 25
犀利 25
犬宠物 25
狩猎 25
玉米须 25
玛德@@ 25
玲儿 25
玻璃纤维 25
班长 25
球手 25
瑄@@ 25
瑕盘 25
瑞斯 25
瑾 25
生日卡 25
用家 25
用心 25
男馆 25
留声机 25
痔@@ 25
痞@@ 25
白晶 25
皮克 25
目鱼 25
相架 25
看护 25
睛@@ 25
矶@@ 25
矿泉 25
砖块 25
硅油 25
硬板 25
磁疗 25
社会@@ 25
空调衫 25
端午节 25
第3 25
箫 25
箴言 25
米亚@@ 25
米纳 25
米菈 25
粤语 25
精油@@ 25
素体 25
红石榴 25
红糖 25
纤体 25
约: 25
纪梵希 25
纳海姆 25
纸笔 25
纾@@ 25
细软 25
经济@@ 25
绒球 25
结婚礼 25
统计 25
绢 25
绿豆糕 25
罂@@ 25
羊绒衫 25
翡翠@@ 25
老王 25
耗 25
耳夹 25
股东 25
肤质 25
胃@@ 25
背包包 25
胭@@ 25
胶印 25
脖圈 25
脚后跟 25
脚气 25
脱毛膏 25
自助餐 25
自律 25
舍利 25
舵@@ 25
艺匠 25
芙莎 25
芯片 25
花溪 25
芳芳 25
茉莉@@ 25
茯苓 25
茶香 25
草绿 25
药箱 25
荷重 25
莱姆@@ 25
莹@@ 25
菜籽 25
萤 25
营养液 25
蒜蓉 25
薇薇 25
藤席 25
虐 25
虹吸 25
蚀刻 25
蚊液 25
蛋白质 25
蜂蜡 25
蜜柚 25
行军 25
行灯 25
衍生 25
衣女 25
衰 25
裙) 25
裱花 25
裸光 25
试验 25
详情 25
调理器 25
谋 25
貌 25
贡@@ 25
货单 25
购买) 25
起夜 25
超时 25
超频 25
路易斯 25
转让 25
轮) 25
软水 25
轰@@ 25
迷你裙 25
追踪 25
途@@ 25
遥@@ 25
邮箱 25
酸性 25
醋酸 25
重金属 25
金牛座 25
钓虾@@ 25
钓鱼@@ 25
钨 25
钱箱 25
铁杆 25
铁网 25
铁门 25
铣刀 25
长虹 25
阅@@ 25
防腐剂 25
阿嬷 25
阿甘鞋 25
除尘器 25
隐密 25
隔音@@ 25
集点 25
雨罩 25
青岛 25
静心 25
靛蓝 25
鞋壹 25
鞣@@ 25
鞭@@ 25
韧@@ 25
顽 25
风儿 25
风雨 25
风雨衣 25
饭锅 25
饮料机 25
马丁@@ 25
马力 25
马斯 25
驯鹿 25
骑士靴 25
骨折 25
鲁士@@ 25
麦斯 25
黄昏 25
黑字 25
龄犬 25
#11@@ 24
$300 24
(13@@ 24
(15@@ 24
(16@@ 24
(28@@ 24
(35@@ 24
(600 24
(上衣 24
(二色 24
(宝 24
(平 24
(最后 24
(本 24
(盛 24
(金色) 24
(阿 24
*30 24
-15@@ 24
-250@@ 24
-27 24
-52 24
-x 24
.e 24
/6@@ 24
001-@@ 24
08-@@ 24
1-7 24
1-7@@ 24
1.8/@@ 24
1/72 24
100*@@ 24
101@@ 24
102@@ 24
1210 24
167@@ 24
1701 24
188@@ 24
19.5 24
1m@@ 24
1p 24
1三 24
1年 24
20% 24
2000年 24
2005年 24
200u 24
219@@ 24
227@@ 24
257@@ 24
26/@@ 24
27.5 24
297 24
2980 24
2入 24
300h 24
30年 24
336@@ 24
359 24
36) 24
374 24
392 24
419@@ 24
425@@ 24
433@@ 24
435@@ 24
456@@ 24
465@@ 24
466 24
4664@@ 24
48v@@ 24
4p 24
5-001 24
5-15 24
507@@ 24
6.14 24
605@@ 24
613@@ 24
625 24
646 24
6500 24
688 24
7-10 24
70ml 24
725@@ 24
747 24
75/@@ 24
755 24
768 24
8+ 24
811 24
812 24
82-@@ 24
846@@ 24
889 24
8\ 24
90x@@ 24
926 24
944 24
95% 24
951 24
9527 24
978 24
a-kay0 24
a59 24
a92020 24
accessory 24
aime 24
allen 24
anny 24
apeach 24
ar2448 24
ar60@@ 24
arc'teryx 24
aro 24
aroma 24
asa 24
aya 24
b4 24
b6 24
babycare 24
bang@@ 24
bbgo/ 24
birthday 24
bleu 24
bob 24
bonjour 24
brit 24
bs-@@ 24
byredo 24
c-0@@ 24
c7@@ 24
cc) 24
charming 24
cj 24
classic@@ 24
clima 24
clu@@ 24
cn 24
cosplay@@ 24
cph@@ 24
cq24@@ 24
d1 24
dam@@ 24
david 24
derma 24
dp-@@ 24
drive@@ 24
dunlop 24
dvd~ 24
e- 24
e60 24
e7 24
ego 24
epo@@ 24
eq 24
er/ 24
evi@@ 24
f7 24
felicie 24
ffy@@ 24
fg@@ 24
figuarts 24
g00@@ 24
gb) 24
gel@@ 24
givench@@ 24
glitter 24
gozo 24
grl 24
gun 24
gv@@ 24
h/@@ 24
h2 24
happ@@ 24
heal@@ 24
heron 24
hsgcsreg 24
hstnn-@@ 24
hsu@@ 24
ib@@ 24
imos 24
ingo 24
iwc万国 24
japan@@ 24
jen 24
jou@@ 24
kong 24
kwazi 24
label 24
lei 24
leo 24
lj 24
llon 24
lumin@@ 24
m20 24
m445@@ 24
m50@@ 24
m616@@ 24
maxi@@ 24
mbm@@ 24
mee 24
merry 24
miui 24
mk3 24
mk56@@ 24
moun@@ 24
mr530 24
mug 24
mus 24
naruto 24
nature's 24
nbhd 24
ncy 24
omron 24
ordinary 24
organic 24
oxo 24
p1@@ 24
p4 24
paradise 24
phantom 24
please 24
poli@@ 24
proctsbe 24
protro 24
ps-@@ 24
r18 24
ra-@@ 24
raw 24
rc-@@ 24
rel 24
renew 24
rocket 24
royale 24
rs-x 24
s9+ 24
samsonite 24
sea@@ 24
see@@ 24
sh-@@ 24
shar@@ 24
sk8 24
slime 24
soap 24
some@@ 24
spigen 24
spo@@ 24
sr-@@ 24
stam@@ 24
stand 24
sticker 24
strix 24
sum@@ 24
swatch 24
system 24
t063.61 24
tech@@ 24
tiger@@ 24
too@@ 24
trinomic 24
ttl 24
t棉t 24
underarmour 24
unicorn 24
uq 24
us12 24
vf 24
viva 24
vivier 24
vor@@ 24
w1 24
wall 24
wash 24
well@@ 24
whe@@ 24
wk 24
wonder@@ 24
word 24
xon 24
xq-3c 24
yabbi 24
yd 24
yr@@ 24
yzf-@@ 24
z6 24
ze520 24
zenfone5 24
zoeva 24
ᄌ@@ 24
ᅥ 24
ᅮ@@ 24
ᆼ@@ 24
‖@@ 24
⋆ 24
ほ@@ 24
ㄚ 24
ㄧ组 24
一体@@ 24
三星s10 24
不见不散 24
两用) 24
义乳 24
二哥 24
云集 24
五角 24
交响@@ 24
人士 24
什@@ 24
仅@@ 24
仔机 24
仙草 24
伊莱克斯 24
优惠价: 24
优然 24
体质 24
你好 24
例 24
侣@@ 24
侧灯 24
促进 24
傻瓜 24
充大 24
克/@@ 24
克拉@@ 24
兑换券 24
全实木 24
公子 24
养生壶 24
内建 24
军绿 24
凉靴 24
凯蒂@@ 24
出击 24
出包 24
判 24
剩下 24
加入 24
加购 24
包包) 24
包屁衣 24
匡 24
升级@@ 24
升级版) 24
半熟 24
华美 24
协调 24
单价 24
单方 24
单日 24
单组 24
南阳 24
南风 24
卤 24
原产 24
双侧 24
双核 24
变声器 24
叭@@ 24
可携带 24
台网 24
吉儿 24
同色 24
名师 24
吼 24
呼噜 24
哆啦a梦@@ 24
哦) 24
唐尼 24
唢呐 24
售价: 24
唱@@ 24
唷) 24
喂奶 24
喜剧 24
喵の 24
四方 24
回头 24
围墙 24
坞 24
壁架 24
壸 24
壹脚蹬 24
外设 24
大促 24
天堂t 24
太岁 24
奇特 24
套票 24
女武神 24
女鞋#@@ 24
奶油色 24
奶牛 24
好喝 24
好棒 24
好走 24
妏 24
妖妖 24
妙妙@@ 24
妮丝 24
姥@@ 24
娘子 24
孚 24
安利美特 24
安居 24
宠物@@ 24
宵 24
宽松@@ 24
宽腰带 24
寄出 24
寓@@ 24
寿命 24
小议 24
小雅 24
少儿 24
展现 24
展示台 24
干燥机 24
年限 24
幻境 24
开闭 24
异型 24
弹头 24
强力胶 24
彩金 24
彼@@ 24
怀孕期 24
态度 24
悠闲 24
戏剧 24
成员 24
所罗门 24
手球 24
打印纸 24
打手 24
打水 24
扣锁 24
折抵 24
拉车 24
拍卖@@ 24
捆扎 24
换货 24
捷豹 24
排挡 24
探测器 24
接器 24
摇钱树 24
收藏家 24
收钱 24
放松器 24
敌@@ 24
教主 24
数控 24
斋@@ 24
料) 24
斜边 24
无边 24
无骨 24
日版@@ 24
星期@@ 24
晶莹 24
曼哈顿 24
有) 24
有度 24
服) 24
木乃伊 24
木子@@ 24
木板床 24
木林森 24
本周 24
术: 24
机. 24
杀戮 24
权力 24
来往 24
柏油 24
格子@@ 24
档案夹 24
梵克雅@@ 24
棉条 24
棋洛 24
棒) 24
横线 24
步枪 24
毛笔字 24
毛裤 24
民用 24
氯@@ 24
水产 24
水口 24
水带 24
水杨酸 24
汇款 24
汽缸 24
汽车) 24
沐浴@@ 24
油亮 24
法: 24
流行@@ 24
浪漫@@ 24
消失 24
消音器 24
淡紫 24
深情 24
温器 24
温莎 24
满身 24
滢@@ 24
滴剂 24
瀚@@ 24
火柴盒 24
炮台 24
烂@@ 24
烈焰 24
烧水 24
烨 24
热带鱼 24
烯@@ 24
煌 24
爱丽思 24
牙具 24
牵引器 24
特卖) 24
特惠# 24
犯@@ 24
犯罪 24
状态 24
狸 24
猫咪@@ 24
猫猫@@ 24
獭 24
玉兔 24
现代@@ 24
玻璃纸 24
珍珠奶茶 24
球队 24
琼@@ 24
瑕保 24
瓣 24
用地 24
田径 24
电子书 24
电木 24
电池组 24
电版 24
男潮 24
盒玩 24
盖器 24
盛夏 24
直尺 24
相宜 24
相扑 24
真空包装 24
硅 24
祯@@ 24
福尔摩斯 24
禹@@ 24
科幻 24
科目 24
稳压 24
穿孔 24
突 24
竿@@ 24
笔杆 24
笔记@@ 24
箍 24
米家 24
类比 24
粮@@ 24
紫金 24
纯. 24
纸品 24
纺织 24
组$@@ 24
维度 24
缆@@ 24
编辑 24
罗威 24
羊皮@@ 24
美媒 24
美瞳 24
美能 24
群组 24
羽绒衣 24
考勤机 24
耿 24
聚氨酯 24
股票 24
肤水@@ 24
脂机 24
脚轮 24
臂力器 24
自然风 24
舖* 24
船长 24
艾莉@@ 24
茉莉花 24
茶包 24
茶茶 24
茶袋 24
草绿色 24
莱姆 24
莺歌 24
菈菈 24
菲儿 24
菲比 24
葫芦@@ 24
蕾姆 24
薰炉 24
蛇形 24
蜗@@ 24
蜡油 24
衣橱の 24
表表 24
袜) 24
装饰家 24
褂 24
西亚 24
西卡 24
览@@ 24
诉讼法 24
试用品 24
试纸 24
质保 24
贩售 24
贪@@ 24
路易@@ 24
踩@@ 24
软化 24
辅导 24
辣椒@@ 24
迅 24
这边 24
邮原厂 24
酷玩街 24
重装 24
野人 24
金品汇 24
金标 24
钢炮 24
铜器 24
铝管 24
铨 24
银子 24
销售: 24
锋@@ 24
锌@@ 24
长枕 24
长袖@@ 24
长途 24
闷热 24
防盗器 24
防雨罩 24
阿富汗 24
陆军 24
雯@@ 24
青春@@ 24
青龙 24
预付 24
领带夹 24
颊@@ 24
风情@@ 24
风灯 24
风馆 24
食尸鬼 24
饭桶 24
驻颜 24
驾照 24
高雄市 24
魅族 24
鱼干 24
鸥美乐蒂 24
麻雀 24
黄杨 24
黏性 24
龄@@ 24
ｓ 24
#- 23
#14@@ 23
#2019 23
#adidas 23
$$@@ 23
($@@ 23
(120 23
(180 23
(2017 23
(2019年 23
(b) 23
(s号) 23
(下@@ 23
(二) 23
(全新品) 23
(卖场 23
(女@@ 23
(杏@@ 23
(正品 23
(紫色) 23
(绝版 23
(色 23
(蓝@@ 23
(降价 23
(高雄 23
,,,,@@ 23
-5.6 23
.figuarts 23
/1.8 23
/9 23
/三@@ 23
00) 23
008@@ 23
015 23
019 23
051 23
060@@ 23
0g 23
1.9 23
1021 23
1199 23
120x@@ 23
1401 23
150/@@ 23
157@@ 23
1680 23
170ml 23
186@@ 23
1:12 23
1mp3) 23
2018.@@ 23
2022.@@ 23
2088 23
22.@@ 23
220g 23
26cm 23
28) 23
28-38 23
29cm 23
2g/@@ 23
2n@@ 23
320ml 23
35x@@ 23
36cm 23
380v 23
381 23
396 23
397 23
3ctown 23
3x 23
3y 23
4. 23
41mm 23
426 23
429@@ 23
464 23
481 23
482 23
500w 23
5118@@ 23
528 23
553 23
555088-@@ 23
556@@ 23
558 23
5plus 23
6+/@@ 23
6- 23
6-12m 23
628 23
641 23
647 23
667 23
70d 23
716@@ 23
75cm 23
778 23
779 23
7b 23
7pro 23
7t 23
807 23
817@@ 23
819686-@@ 23
890@@ 23
892@@ 23
90) 23
962 23
970@@ 23
9789578@@ 23
981 23
984 23
9w 23
@新货 23
\\@@ 23
a31 23
a32-@@ 23
agi@@ 23
ahd 23
aikatsu 23
ail 23
alasha 23
alph@@ 23
alpha@@ 23
alter 23
api@@ 23
ashley 23
ations 23
atmos 23
avon 23
b7@@ 23
balenciaga@@ 23
beautiful 23
bebe@@ 23
ble 23
blst 23
blu@@ 23
bluetooth 23
brown@@ 23
bull 23
bullet 23
bulls 23
c10@@ 23
cad 23
canada 23
candle 23
carmate 23
carter 23
chy 23
come@@ 23
cook 23
cooky 23
cosi 23
cp-@@ 23
crazylight 23
d's 23
d4 23
dad 23
daks 23
dra@@ 23
dress@@ 23
drew 23
dvz' 23
d家 23
e6@@ 23
e9@@ 23
elephant 23
er. 23
est 23
est@@ 23
ew-@@ 23
f35@@ 23
f4@@ 23
face@@ 23
five 23
fore@@ 23
frame 23
g8@@ 23
ges 23
ghost 23
gift@@ 23
gir@@ 23
glasslock 23
god@@ 23
gray 23
great 23
gudetama 23
guy 23
gx3 23
g±@@ 23
h2o 23
health& 23
hei@@ 23
hermes@@ 23
holi@@ 23
hong 23
hui@@ 23
hv@@ 23
ic-@@ 23
iphone7/8plus 23
isbn 23
isneakers 23
ista 23
jelly@@ 23
jia 23
jom 23
k- 23
k1@@ 23
k30 23
kang 23
ket@@ 23
kids@@ 23
kith 23
kl/@@ 23
km@@ 23
kors/@@ 23
kors@@ 23
kyrie@@ 23
ladies 23
li-@@ 23
lillard 23
liu@@ 23
lla@@ 23
logo/ 23
l钛 23
m419@@ 23
mastermind 23
max/xr 23
meiji 23
mes 23
microsd 23
mix2 23
mk-@@ 23
motul 23
nacnac 23
necklace 23
nin@@ 23
note6 23
notebook 23
npg 23
o'@@ 23
ode 23
office 23
ong@@ 23
ore@@ 23
oria 23
oxford 23
p& 23
parfum 23
peggy 23
peko 23
polar 23
pon 23
pour 23
ppt 23
pp短t 23
pro11 23
pt950 23
r15@@ 23
r698 23
rfid 23
ri 23
roberta 23
roland 23
s/m/@@ 23
s7edge 23
sco 23
serum 23
seven@@ 23
shan@@ 23
shox 23
sing 23
sing@@ 23
ski 23
smar@@ 23
smash 23
spexial 23
ssr 23
starwars 23
staub 23
stripe 23
superb 23
tap@@ 23
tesla 23
tex@@ 23
things 23
tiffany@@ 23
ting@@ 23
tor 23
toyroyal 23
tretta@@ 23
triple-s 23
try 23
tti 23
twinkle 23
t运动 23
u1 23
uf 23
us8 23
ux 23
vera 23
vir@@ 23
vista 23
vlog 23
vol.4 23
volu@@ 23
wheath- 23
wide 23
wonderland 23
x/xs/xr 23
x3@@ 23
x450 23
xin@@ 23
xs-@@ 23
y6 23
yao 23
yin 23
yn 23
z01 23
zf 23
zl 23
zza 23
~~~~~~@@ 23
ɪ@@ 23
ᄂ@@ 23
ᄉ 23
⁎@@ 23
ⅱ@@ 23
∬@@ 23
∵@@ 23
➎@@ 23
ィ@@ 23
ケ@@ 23
ュ@@ 23
万象 23
专卖@@ 23
专用车 23
世一 23
世达 23
个性化 23
丫丫 23
中小 23
中筒@@ 23
丰润 23
久久 23
义大利制 23
乌鱼子 23
九把刀 23
书挡 23
亩 23
人: 23
人大 23
件$@@ 23
企业@@ 23
优利 23
传记 23
伦铁诺 23
位器 23
佐雅 23
体验@@ 23
佛龛 23
作; 23
作品集 23
供水 23
供货 23
侬@@ 23
侯 23
保卡 23
保水 23
保险杠 23
修护@@ 23
修长 23
俯卧撑 23
倒车镜 23
儒@@ 23
克里@@ 23
全功能 23
内墙 23
内野 23
农机 23
冰川 23
冰棍 23
冷袋 23
凡赛斯@@ 23
出租@@ 23
出道 23
分析@@ 23
利其尔 23
刻花 23
前盖 23
剖@@ 23
剖腹产 23
劈@@ 23
动器 23
助手 23
包蔻 23
化油器 23
十四 23
千万 23
卡文克莱 23
印染 23
印花布 23
即用 23
厄 23
厌@@ 23
原价: 23
去污@@ 23
各款 23
合壹 23
吉士@@ 23
吉普@@ 23
吋防 23
名表 23
后宫 23
呱呱 23
咕@@ 23
咚咚 23
咨@@ 23
哈伦裤 23
哔@@ 23
商事 23
喂食器 23
喜洋洋 23
园) 23
国旅 23
图文 23
土色 23
地上 23
地形 23
场地 23
坎 23
坐月子 23
坡@@ 23
培罗娜 23
填缝 23
墨盒 23
墬子 23
外貌 23
多益 23
大会 23
大吉 23
大田 23
大福 23
大道 23
大门口 23
大飞 23
天官 23
天鹅堡 23
央 23
奇怪 23
奉 23
奕奕 23
套头@@ 23
套车 23
奶杯 23
奶糖 23
嫁衣 23
孔器 23
字拖 23
守望 23
安可 23
完) 23
定位器 23
定做@@ 23
宣传单 23
害@@ 23
家私 23
容量: 23
密集 23
富力 23
察@@ 23
寡妇 23
封口@@ 23
小不点 23
小桃 23
小燕子 23
小盒子 23
小粉 23
小舖-@@ 23
小馆 23
小鼠 23
尚头 23
尼禄 23
尿片 23
屌@@ 23
山本耀 23
岗 23
巅 23
巡逻 23
工业用 23
工兵 23
工坊@@ 23
巧思 23
布拉@@ 23
布朗@@ 23
帘杆 23
帽) 23
幔@@ 23
广州 23
库存品 23
康轩 23
建材 23
开荒 23
强制 23
强大 23
强韧 23
彦@@ 23
德斯 23
徽@@ 23
心爱 23
必须 23
思莲恩 23
恩典 23
恭@@ 23
恭喜发财 23
悠活 23
悸动 23
情书 23
情怀 23
惊悚 23
惹火 23
憩 23
房事 23
手抓包 23
手膜 23
手锯 23
扑@@ 23
扒@@ 23
扩音 23
护踝 23
抬@@ 23
抽烟 23
拉手 23
拉架 23
指压 23
指标 23
按动 23
捐@@ 23
接送 23
提神 23
搭) 23
携手 23
摆地摊 23
文青 23
斯/@@ 23
新作 23
新品# 23
施华蔻 23
无接缝 23
日出 23
日程 23
时区 23
时装表 23
星期四 23
昭和 23
景轩 23
月季 23
木屐 23
木盘 23
来到 23
松石 23
板车 23
极客 23
极轻 23
枕心 23
林俊杰 23
林内 23
果) 23
枣红 23
枫@@ 23
柜: 23
柠檬味 23
格调 23
栽培 23
桃红@@ 23
棉帽 23
棕垫 23
椒盐 23
橘) 23
款加绒 23
款号 23
武者 23
殿@@ 23
每本 23
气潮 23
水仪 23
沥青 23
沫 23
波器 23
注明 23
洛斯 23
浩瀚 23
海外版 23
海岛 23
海报) 23
涨 23
清心 23
清洗器 23
清高 23
渗@@ 23
渠道 23
漾@@ 23
灰狼 23
炊@@ 23
焗 23
照套 23
爆丸 23
爵士舞 23
父 23
片语 23
牌桌 23
牙缸 23
牛尔 23
牧田 23
犬/@@ 23
猎鹰 23
猫舍 23
王乔 23
玛莎 23
现货& 23
玲玲 23
珮 23
球) 23
球馆 23
琳娜 23
璃 23
甲器 23
电台 23
电灯泡 23
电磁@@ 23
电磁阀 23
畜牧 23
疯@@ 23
痘痘@@ 23
痴@@ 23
白兰 23
百分百@@ 23
盅@@ 23
直插 23
相信 23
相间 23
眠@@ 23
眼妆 23
睡椅 23
知恩 23
矫姿 23
短篇 23
码数: 23
砂石 23
确定 23
碳刷 23
碳纤@@ 23
磁王 23
磊 23
礼) 23
礼品@@ 23
祐 23
秋冬 23
科尔 23
科普 23
秒针 23
秘笈 23
穆@@ 23
穆勒鞋 23
穿洞 23
立柜 23
童) 23
端庄 23
竹片 23
竹篮 23
笔管 23
笙 23
笨 23
米亚 23
紧肤 23
紫铜 23
红参 23
纤纤 23
纹银 23
纽曼 23
线型 23
线网 23
细条 23
细毛 23
结单) 23
绕脖 23
络@@ 23
缝制 23
罐罐 23
网孔 23
网页 23
罗汉 23
罚 23
羊角 23
美特 23
翡@@ 23
翻滚 23
老物 23
聚焦 23
聿 23
肢 23
肥胖 23
背影 23
胶圈 23
腰带@@ 23
自修 23
自动机 23
舒芙 23
色板 23
艾迪 23
花台 23
花种 23
芸莎 23
英制 23
茶油 23
药丸 23
获 23
莹莹 23
菓@@ 23
著@@ 23
蓝花 23
薄板 23
虱 23
蚤@@ 23
蛋白石 23
血滴 23
衣裳 23
表女 23
衫t恤 23
装袋 23
装闺 23
裤#@@ 23
西部 23
解码 23
让@@ 23
设计) 23
说明@@ 23
调音 23
负压 23
贵州 23
赚钱 23
赤道 23
超美 23
超骚 23
跪 23
身长 23
轮组 23
达尔文 23
过滤@@ 23
连锁 23
逃 23
选用 23
通用@@ 23
邓@@ 23
酒水 23
酸甜 23
酸痛 23
释出 23
野性 23
量多 23
金山 23
金星 23
金黄 23
鉴@@ 23
铁器 23
铁甲 23
铁线 23
铁锤 23
铸造 23
锯机 23
长大衣 23
防晒@@ 23
降低 23
陶瓷器 23
陷阱 23
隧道 23
青色 23
靠山 23
面纱 23
韩方 23
频率 23
风华 23
风景画 23
飞船 23
飨 23
馄饨 23
馆长 23
香体 23
马仕@@ 23
驱动器 23
驱虫 23
骗人 23
高龄 23
鸟窝 23
鸟笼子 23
鸭绒 23
鸭鸭 23
麦精 23
麻纱 23
黑天 23
鼎@@ 23
鼬 23
齐胸 23
］@@ 23
￥爆 23
### 22
#20@@ 22
#5 22
#telethi 22
#满 22
$1000 22
$全场 22
(((@@ 22
(0.@@ 22
(11 22
(23@@ 22
(250 22
(4.@@ 22
(45 22
(东 22
(厚 22
(厚) 22
(原价$@@ 22
(夹 22
(无@@ 22
(爆 22
(特 22
(福利 22
(第一 22
(耐 22
(花 22
(订单 22
(银色) 22
*** 22
-100% 22
-1000 22
-18@@ 22
-400 22
-mi@@ 22
-nike 22
/500 22
/ck 22
/cosplay 22
003@@ 22
047 22
09/@@ 22
092@@ 22
1-002 22
1.5m1.8m 22
1/144@@ 22
1006 22
100v 22
1017 22
1030 22
1103 22
12-15 22
1250 22
12s 22
13000 22
1380 22
140g 22
156@@ 22
1580 22
17.3 22
1941 22
197@@ 22
1996 22
1997 22
1:32 22
1f 22
2-4 22
2090 22
20a 22
22) 22
23.@@ 22
28/@@ 22
2l@@ 22
2手 22
30/ 22
307@@ 22
33*33cm 22
33x@@ 22
34-@@ 22
342 22
35-45 22
37.00 22
377@@ 22
387 22
388@@ 22
3rd 22
4*@@ 22
4.6 22
400% 22
407@@ 22
45g 22
46mm 22
48h 22
48mm 22
498@@ 22
5- 22
5001 22
511@@ 22
518 22
531 22
5500 22
55cm 22
55s 22
598 22
5s/@@ 22
5代 22
6.35 22
6/ 22
6/7 22
6/7/8 22
60) 22
617 22
619 22
636@@ 22
697 22
6sp@@ 22
7-1 22
7/2 22
7/7 22
70mm 22
726@@ 22
743 22
745 22
757 22
758@@ 22
767 22
782 22
8.8 22
859 22
8637@@ 22
884 22
91835@@ 22
961 22
977 22
98-178 22
997@@ 22
9999@@ 22
\n\n@@ 22
_0@@ 22
_l@@ 22
a.tw 22
a200 22
a72018 22
adventure 22
aga@@ 22
akb48 22
aki@@ 22
anker 22
antonio 22
ar58@@ 22
ar5920 22
ary 22
ata@@ 22
b12@@ 22
b28@@ 22
b8 22
ball@@ 22
bearbrick 22
belle 22
bershka 22
beyond 22
bio-@@ 22
blood 22
bosch博 22
brick@@ 22
byo 22
c7 22
cake 22
carolina 22
case@@ 22
ching@@ 22
chocolate 22
choice 22
cia 22
cker 22
cns 22
colour 22
combo 22
coni 22
connect 22
conver@@ 22
corona 22
cosmetics 22
cosmos 22
cu 22
cw 22
d- 22
dead 22
deal 22
descen@@ 22
destiny 22
dha 22
dona 22
dos 22
dreams 22
driver 22
dro@@ 22
eg74@@ 22
egf 22
ela@@ 22
eo@@ 22
ergo@@ 22
exo@@ 22
fancl 22
favorite 22
fjallraven 22
flb 22
fr100 22
frando 22
g*5 22
garcons 22
gc 22
gelato 22
glc@@ 22
gs-@@ 22
gtx9@@ 22
g赏 22
h) 22
h3 22
hanman 22
hardrace 22
hf-@@ 22
honeywell 22
hp-@@ 22
hyperx 22
ico@@ 22
im 22
iphone7/8 22
jc@@ 22
jer@@ 22
joan 22
jr@@ 22
jvc 22
k20 22
k8880 22
kanken 22
kd10 22
kidston 22
kiehls契尔氏 22
kings 22
kl-@@ 22
kyrie3 22
kyt 22
legend@@ 22
lex 22
lex@@ 22
liberty 22
lie@@ 22
limi 22
liner 22
lite@@ 22
lites 22
lle 22
lli@@ 22
lt-@@ 22
luxury 22
lᵒ 22
m.a.s.h 22
m/l 22
m37 22
m434@@ 22
m53@@ 22
m998 22
macan 22
marco 22
mate20pro 22
max3 22
max97 22
mimi@@ 22
mise 22
mismatch 22
mk59@@ 22
ml# 22
ml*5 22
ml/瓶 22
mn 22
model@@ 22
mori 22
motogp 22
n. 22
n415@@ 22
neoflam 22
nespresso 22
never 22
noir 22
osim 22
our@@ 22
ous 22
p20pro 22
pcie 22
phy 22
pic@@ 22
pie 22
pizza 22
play& 22
poly 22
powersync 22
pre 22
qr 22
qz@@ 22
ring@@ 22
rj@@ 22
rk@@ 22
roche-posay 22
rode 22
s-xxl码 22
s1@@ 22
s3@@ 22
s999 22
s: 22
sai 22
sale@@ 22
scotch 22
season@@ 22
sei@@ 22
shop) 22
sienta 22
silk 22
sj4000 22
sleep 22
smd 22
snoop@@ 22
soni@@ 22
sonny 22
soo@@ 22
spring@@ 22
st.@@ 22
step 22
steph@@ 22
stm 22
stray 22
stre@@ 22
strike 22
sub 22
sue@@ 22
swan 22
t's 22
tcy@@ 22
tek@@ 22
tg-@@ 22
tion 22
to-@@ 22
top3c 22
tre 22
tumi 22
twm 22
u7 22
ucc 22
ud 22
uhd 22
v1@@ 22
vero 22
vest 22
warriors 22
who@@ 22
win10 22
x0@@ 22
x1x@@ 22
xo 22
yengee 22
yoyo@@ 22
yy.@@ 22
z.mo 22
zj 22
zor@@ 22
zs620 22
zyy 22
zzy 22
ᄃ@@ 22
ᆨ@@ 22
ᆼ 22
ᴀ 22
ᵛᵉ 22
↓@@ 22
❶@@ 22
み 22
や@@ 22
ら 22
ウ 22
ヒ 22
ミ 22
一万 22
一字@@ 22
一级 22
七龙珠@@ 22
三七 22
不二@@ 22
不锈钢管 22
丘@@ 22
东洋 22
丝线 22
丞 22
中仑 22
中筒靴 22
丹利 22
主编 22
丽丝 22
丽儿采家 22
丽克特 22
丽莎 22
之一 22
乌金石 22
习作 22
云谷 22
五芒星 22
亚曼尼@@ 22
亚特兰@@ 22
些@@ 22
人文 22
代表 22
伊藤@@ 22
伏@@ 22
优选@@ 22
依然 22
侦@@ 22
便宜@@ 22
保护器 22
俩 22
修罗 22
倒钩 22
假货 22
做爱 22
储藏 22
催情 22
兄 22
兄妹 22
兆@@ 22
光亮 22
光大 22
克拉克 22
克洛@@ 22
入门@@ 22
全包 22
全新&二手 22
公事 22
内存 22
内层 22
冥 22
冰器 22
冰点 22
凉帽 22
减脂 22
出来 22
分类@@ 22
刊@@ 22
到底 22
功能) 22
动作 22
努 22
包$@@ 22
包容 22
包正 22
包舖 22
北极 22
十一大 22
十六 22
半开 22
南亚 22
南美 22
博客 22
卡丁车 22
卡卡片 22
卡菲娅 22
卢卡 22
卧床 22
卫浴 22
印台 22
历年 22
厉害 22
原力 22
去污剂 22
去角 22
叉叉 22
叉奇 22
双肩@@ 22
双飞 22
叙 22
古典吉他 22
古物 22
古钱 22
只有 22
可爱@@ 22
吉米@@ 22
名器@@ 22
后脑勺 22
吸奶器 22
味噌 22
呼吸@@ 22
呼啦 22
咸菜 22
品居 22
哈衣 22
哭@@ 22
唐嫣 22
唷@@ 22
商代 22
喉@@ 22
喷嘴 22
喷绘 22
嘟@@ 22
嘻@@ 22
噜噜 22
器家用 22
[...]
