/ 76780
( 58537
) 58026
for 54409
dress 23192
with 23099
- 23053
bag 22088
case 21192
and 20960
set 19952
's 18398
cod 17230
& 17185
! 16955
# 15460
women 15091
black 13328
new 13317
1 13174
top 12882
men 12781
korean 12229
size 11988
fashion 11022
shoes 10960
in 10939
plus 10615
kids 10408
2 10386
3 10046
authentic 9941
white 9827
original 9795
baby 9665
shirt 9541
preloved 9484
the 9241
: 7918
mini 7841
of 7814
by 7733
sale 7716
+ 7138
gold 7123
samsung 7015
blue 6795
cotton 6778
high 6743
. 6742
4 6599
quality 6513
watch 6450
w 6373
sling 6322
to 6269
[ 6237
ladies 6217
] 6216
iphone 6202
free 6192
shorts 6190
terno 6003
\ 5924
pants 5875
5 5855
design 5812
6 5757
x 5729
pro 5632
long 5556
cream 5510
silver 5384
glass 5375
on 5301
short 5296
floral 5228
a 5205
box 5205
soap 5168
blouse 5149
red 5135
pink 5085
mask 5073
body 4999
100 4986
shoulder 4903
cover 4894
hard 4886
light 4722
7 4686
% 4614
8 4430
nike 4377
leather 4364
unisex 4364
color 4295
tempered 4224
backpack 4171
* 4158
10 4118
face 4087
hair 4076
usb 4056
| 3981
denim 3950
oil 3947
one 3925
hand 3877
green 3863
skin 3845
small 3805
pack 3760
phone 3748
led 3747
live 3723
necklace 3721
m 3691
casual 3684
t-shirt 3610
oppo 3559
car 3488
wallet 3483
brand 3457
ring 3457
hello 3447
sandals 3438
stainless 3430
matte 3389
skirt 3347
polo 3315
lip 3253
kitty 3248
back 3203
pcs 3192
soft 3184
huawei 3172
s 3169
up 3142
battery 3133
piece 3111
printed 3109
holder 3108
girl 3105
bluetooth 3065
plain 3050
bracelet 3027
earrings 3011
cute 3002
water 2986
style 2983
jacket 2978
sexy 2971
all 2964
perfume 2911
socks 2901
girls 2895
only 2875
gel 2863
large 2845
charger 2828
air 2825
off 2779
kit 2772
mobile 2766
powder 2757
12 2750
cable 2729
full 2725
-@@ 2705
waterproof 2687
old 2659
2018 2655
i 2611
sleeve 2603
jeans 2596
power 2585
steel 2577
lotion 2573
rubber 2570
t 2565
super 2562
vivo 2550
summer 2548
pouch 2536
max 2535
portable 2524
c 2500
whitening 2491
toy 2487
h 2480
e 2464
us 2460
medium 2459
premium 2458
bags 2439
card 2439
bottle 2433
lace 2425
wireless 2414
big 2403
beauty 2402
couple 2400
out 2394
l 2391
magic 2363
travel 2336
book 2316
brush 2309
tshirt 2309
secret 2308
100ml 2299
selling 2294
sports 2290
from 2285
series 2275
tops 2258
motorcycle 2251
g 2232
bath 2231
' 2227
assorted 2210
bundle 2210
strap 2183
print 2172
good 2167
sticker 2166
e@@ 2165
d 2137
per 2131
love 2129
lite 2101
no 2098
galaxy 2094
adidas 2079
mens 2075
cap 2071
20 2034
belt 2021
heart 2004
inspired 2003
stand 1992
or 1990
bra 1982
3d 1972
star 1964
mouse 1962
speaker 1951
coach 1947
care 1945
fit 1931
neck 1927
rose 1927
sleeveless 1927
de 1926
home 1926
n 1923
k@@ 1912
universal 1908
ml 1902
ultra 1898
flower 1896
hot 1891
waist 1887
2019 1885
b 1884
japan 1881
double 1878
clear 1876
lipstick 1855
flat 1853
18k 1850
s@@ 1843
toys 1837
fan 1833
made 1833
character 1829
sleeves 1826
g@@ 1821
round 1820
9 1816
plastic 1812
my 1810
organizer 1809
brown 1807
note 1806
2016 1805
onhand 1805
pen 1801
tote 1799
tea 1790
swimsuit 1788
j7 1784
crop 1767
italy 1767
o 1767
apple 1765
camera 1762
2017 1751
adult 1750
6s 1733
milk 1733
pocket 1733
victoria 1722
2in1 1718
candy 1717
edition 1706
tee 1703
p@@ 1698
tpu 1695
classic 1688
dark 1687
spray 1681
best 1680
jewelry 1679
natural 1675
romper 1671
organic 1670
wall 1665
x@@ 1663
liquid 1661
prime 1653
re@@ 1639
t@@ 1636
collection 1632
take 1627
paper 1624
boys 1621
11 1620
coffee 1616
stripe 1616
boy 1613
30 1611
type 1603
shampoo 1601
two 1597
yellow 1593
mist 1591
accessories 1590
metal 1589
tint 1578
trendy 1576
gray 1574
electric 1573
pure 1573
branded 1572
d@@ 1565
headset 1562
y@@ 1560
bar 1558
storage 1557
doll 1555
slim 1550
b@@ 1549
clothes 1548
dual 1547
facial 1541
pad 1530
y 1525
game 1520
n@@ 1515
l@@ 1512
arrival 1511
cut 1511
protector 1507
eye 1506
wash 1505
r 1503
pendant 1497
i@@ 1493
skinny 1492
colors 1488
chain 1485
check 1481
casio 1475
sando 1475
m@@ 1473
cartoon 1469
laptop 1469
a@@ 1468
k 1468
side 1468
cat 1467
50 1466
checkout 1464
o@@ 1457
makeup 1452
nature 1448
party 1447
dog 1439
c@@ 1428
f@@ 1427
food 1417
maxi 1416
glow 1409
panty 1409
hoodie 1406
21 1402
shockproof 1400
vintage 1399
pillow 1397
school 1395
knitted 1393
screen 1393
92.5 1386
a7 1386
pop 1385
korea 1384
u 1383
clip 1380
cup 1376
gift 1375
smart 1375
swimwear 1372
16 1371
bikini 1369
buy 1368
h@@ 1368
silicone 1367
saudi 1365
me 1363
serum 1360
little 1358
navy 1357
mickey 1356
xiaomi 1348
charm 1344
unicorn 1341
costume 1338
wear 1336
tees 1335
" 1334
j@@ 1329
towel 1328
pencil 1327
inches 1325
michael 1321
2020 1319
v@@ 1317
lv 1316
stripes 1316
works 1316
12pcs 1309
head 1308
nova 1308
handbag 1307
u@@ 1305
z@@ 1303
bear 1302
r@@ 1298
v 1296
10@@ 1290
grams 1289
bts 1283
anti 1282
mirror 1282
disney 1271
digital 1269
3in1 1267
low 1265
foam 1258
man 1257
pc 1255
lens 1251
xl 1251
shipping 1247
15 1242
sport 1238
happy 1236
vitamin 1236
xs 1236
cherry 1228
collagen 1219
lacoste 1218
square 1215
18 1213
shop 1213
fast 1209
kors 1209
orange 1209
elegant 1207
sneakers 1207
basketball 1206
gucci 1205
oem 1205
genuine 1198
overruns 1197
toner 1197
2@@ 1192
mk 1190
fresh 1188
single 1184
shirts 1183
kitchen 1179
5@@ 1172
3@@ 1170
ball 1167
handle 1166
keychain 1164
w@@ 1164
.@@ 1161
frame 1160
z 1158
pre-loved 1157
chocolate 1152
tie 1146
8@@ 1140
bangkok 1139
tape 1139
2015 1134
5s 1134
go 1134
nba 1134
ink 1132
4@@ 1131
in@@ 1127
redmi 1127
jumpsuit 1126
stick 1123
pajama 1121
crystal 1120
1@@ 1118
asus 1117
fashionable 1117
womens 1117
_ 1114
formal 1114
jordan 1108
nail 1103
6@@ 1102
you 1102
way 1101
adapter 1100
60 1095
apparel 1095
pet 1092
board 1089
button 1080
f 1080
mio 1080
as 1078
zipper 1078
de@@ 1076
sun 1074
canvas 1068
lamp 1065
slippers 1064
sony 1062
tube 1061
front 1058
360 1054
leggings 1054
powerbank 1054
forever 1048
sold 1046
as@@ 1045
figure 1041
running 1040
inch 1038
kid 1031
se@@ 1030
12@@ 1029
shoe 1026
p 1023
wooden 1019
years 1019
se 1013
bavin 1010
charging 1009
statement 1008
velvet 1008
table 1004
eau 1000
washable 998
coin 997
children 996
cross 996
heels 992
it 992
24 988
earphone 988
le@@ 987
lucky 986
limited 985
essential 976
christmas 974
pearl 974
purse 974
shock 970
house 968
jelly 968
li@@ 967
10pcs 963
14 961
diamond 960
al@@ 955
an 955
to@@ 954
office 951
blush 950
filter 950
cleansing 949
personalized 949
13 946
fragrance 943
special 942
925 939
pre 938
adjustable 933
palette 933
jogger 931
conditioner 930
king 930
funko 928
50ml 927
micro 927
mix 927
night 926
ribbon 925
ing 918
ph 917
balloon 916
aloe 914
eyebrow 914
stone 914
thailand 914
wallpaper 913
fabric 912
@ 911
7@@ 910
album 909
band 908
jersey 907
perfect 907
stretchable 904
j2 903
can 901
cloth 901
touch 900
zenfone 900
oz 899
a37 898
day 898
outdoor 896
door 895
her 894
price 894
mat 893
hd 890
tool 890
code 889
tester 887
android 885
a3s 884
available 884
birthday 884
40 883
guard 883
pair 883
time 883
bank 880
f5 880
princess 880
slip 880
es 879
beach 878
kate 878
150 874
bed 873
j5 873
rechargeable 873
human 872
an@@ 871
curtain 870
f7 870
hp 870
switch 870
mi@@ 869
art 866
diy 866
version 866
mi 864
machine 863
me@@ 862
wrap 858
tv 857
proof 856
la 855
longsleeve 852
grey 851
make 851
seller 851
cheek 850
chanel 849
wedge 849
keyboard 848
.. 847
key 847
zara 847
foundation 846
6pcs 845
armor 845
di@@ 844
edge 844
juice 844
mate 844
ro@@ 844
blazer 843
cleanser 842
is 841
ar@@ 838
clay 838
dry 837
f9 835
headband 834
bike 833
scrub 832
lock 830
foil 829
protection 829
jumper 828
overrun 827
ice 826
pieces 826
tank 825
co@@ 823
purple 822
j 821
ti@@ 821
basic 820
mo@@ 818
spade 817
gaming 814
stickers 813
lego 812
toyota 812
a5 811
2pcs 809
books 809
25 807
marvel 807
lady 806
16@@ 805
0@@ 804
bb 804
brandnew 804
suit 804
a71 803
class 803
string 803
er 799
bodycon 797
19@@ 796
earring 796
30@@ 793
a83 792
honda 792
drive 791
guess 791
colored 790
plated 790
used 790
woman 790
months 789
official 789
plate 789
chiffon 788
diaper 787
rejuvenating 787
flash 786
le 785
play 785
core 782
y53 782
logo 781
v7 779
y6 779
customized 778
ed 777
stud 777
9@@ 776
‼ 776
15@@ 775
st@@ 774
avon 773
foldable 772
halter 772
hat 771
pump 771
250ml 770
ipad 768
semi 764
toddler 764
f1s 763
am@@ 762
rack 762
flip 761
iron 761
polka 761
your 761
20@@ 760
sweater 760
adhesive 759
at 759
18@@ 757
eyeshadow 757
v11 752
order 751
30ml 747
50@@ 745
pawnable 745
real 745
louis 744
coat 742
sweet 740
decor 738
disposable 737
life 736
• 736
co 735
essence 735
tumbler 732
wood 731
gluta 730
70 729
al 729
xr 729
foot 728
er@@ 727
magnetic 727
photo 727
underwear 727
flats 726
mesh 725
vuitton 724
animal 722
living 722
5g 721
lo@@ 721
ba@@ 720
be 720
colourpop 720
ri@@ 720
125 719
f3 718
mall 718
pro@@ 718
mac 716
v9 716
balm 714
capsules 714
pull 714
mg 710
bedsheet 709
striped 709
ac@@ 708
complete 708
s-@@ 708
data 707
3pcs 705
t-@@ 705
half 704
acrylic 703
multi 703
13@@ 702
500ml 702
brake 702
pvc 702
professional 701
notebook 698
a59 697
17 696
en@@ 696
s6 696
1pc 695
luxxe 695
14@@ 693
cutter 691
~ 691
00@@ 689
un@@ 688
mic 687
s8 687
cushion 685
frozen 685
queen 684
usa 684
cold 683
package 683
po@@ 683
ukay 683
v5 683
wedding 682
be@@ 681
dream 681
32 680
vera 680
infant 679
ear 677
world 676
cake 675
fruit 675
transparent 675
cellphone 674
butterfly 673
remover 673
female 671
s7 671
personal 670
pesos 670
sh@@ 670
items 668
cm 666
car@@ 665
control 665
pandora 665
stock 664
cool 662
offshoulder 662
pads 662
10ml 661
j4 661
vinyl 661
seeds 660
4in1 659
automatic 659
60@@ 658
ers 657
replica 657
line 656
cosmetics 655
lcd 655
ma@@ 655
pan 655
6g 654
j6 653
y71 653
microphone 652
16gb 651
bow 651
q@@ 651
sheet 651
marikina 650
cleaner 649
innisfree 649
loved 649
stereo 648
honey 647
clutch 646
action 645
minnie 645
babies 643
converse 642
first 641
onesie 641
... 640
11@@ 639
longsleeves 639
paint 639
sp@@ 639
gathering 638
tag 637
te@@ 636
tree 636
speed 633
seat 632
urban 632
19 631
plush 631
si@@ 631
deep 630
extra 629
p20 628
block 627
sugar 624
dc 623
folding 623
wholesale 623
slingbag 622
25@@ 621
safety 621
carter 620
layer 620
glutathione 619
500 618
90 618
ch@@ 618
down 618
bi@@ 617
ms 617
simple 617
we 617
heavy 616
'@@ 615
wild 615
crochet 614
self 614
snail 614
17@@ 613
mar@@ 613
wifi 613
01 612
fits 612
gundam 612
la@@ 612
ma 612
moisturizing 612
rainbow 612
acid 611
imported 611
sunglasses 611
200 610
a6 609
motor 609
f11 607
rice 607
dresses 606
mug 606
not 606
wire 606
checkered 605
tools 605
40@@ 602
su@@ 602
bo@@ 601
uv 601
hanging 600
7g 599
loose 599
health 598
model 598
ready 598
80 597
newborn 597
lg 596
paris 596
spring 596
mascara 595
rear 595
aluminum 593
kojic 593
net 592
nylon 592
planner 592
ts 592
barbie 591
cardigan 591
longchamp 591
mm 591
thick 591
cards 590
highwaist 590
nursing 590
glitter 589
pin 589
silicon 588
bangle 586
embroidered 586
colorful 585
shape 584
ho@@ 583
sis 583
lenovo 582
port 582
drink 581
mango 581
turban 581
35 580
36 579
it@@ 579
v11i 579
fila 578
jansport 578
legends 578
maroon 578
peach 578
random 577
ne@@ 575
tone 575
vans 574
display 573
quick 573
helmet 572
24@@ 571
el 571
so@@ 571
a8 569
flare 569
grade 569
kylie 569
city 568
classy 568
cosmetic 568
family 568
lights 566
crossbody 565
graphic 565
grip 565
each 564
money 564
80@@ 563
ko@@ 563
y91 563
ac 562
slimming 562
at@@ 560
100@@ 559
polish 559
slipper 559
a50 558
ceramic 558
100g 557
solar 557
32gb 556
do@@ 556
panda 556
pore 556
racing 556
clean 555
boots 554
bowl 554
bracket 554
lemon 554
shower 554
gown 553
luxury 553
duty 552
japanese 552
shield 552
silk 551
yrs 551
ki@@ 550
maong 550
spoon 550
brow 549
y81 549
1kg 548
pony 548
el@@ 547
daily 546
my@@ 546
roller 546
neoprene 545
spaghetti 544
bagpack 543
etude 543
5.5 542
sd 542
freesize 541
gear 541
ly 541
remote 541
scent 541
ootd 540
s9 540
croptop 539
anime 538
gap 538
g-shock 536
pot 536
ab@@ 535
sealed 535
pi@@ 533
ds 531
romoss 531
5pcs 530
music 530
like 529
tutu 529
non 528
stitch 526
angel 525
retro 525
y69 525
sa 524
28 522
realme 522
umbrella 522
on@@ 521
or@@ 521
pattern 521
magnet 520
charcoal 519
link 519
q 519
hk 518
protective 518
sizes 518
snap 518
blanket 517
carbon 517
letter 517
200ml 516
gloves 515
neo 515
8g 514
a5s 514
cc 514
2.0 513
hero 513
visor 513
miracle 512
sleepwear 512
pe@@ 511
roll 510
caps 509
do 509
prints 509
ankle 508
ni@@ 508
beads 506
cord 506
onesies 505
c-@@ 504
ine 504
republic 504
23 503
j1 502
ation 501
bu@@ 501
moon 501
souvenir 501
stuffed 501
charge 500
shine 500
ang 499
clothing 499
film 499
rashguard 499
35@@ 498
60ml 498
treatment 497
v-neck 497
g-@@ 496
alloy 495
contact 495
ps4 495
thin 495
a39 493
baking 493
sa@@ 493
chair 492
replacement 492
28@@ 491
aqua 491
repair 491
ii 490
pig 490
breathable 489
golden 489
mint 489
quartz 489
dragon 488
facemask 488
knee 488
master 488
y9 488
candle 487
lee 487
open 487
cars 486
earphones 486
jade 486
jumpshort 486
now 486
batman 485
egg 485
mount 485
plug 485
teens 485
zip 485
22@@ 484
hi@@ 484
infinity 484
no@@ 484
ss 484
games 483
na 483
sponge 479
j8 478
lu@@ 478
mermaid 478
patch 478
ver 478
violet 478
5d 477
acne 477
anello 477
rain 476
use 476
-0@@ 475
26@@ 475
6plus 475
auto 475
bamboo 475
d-@@ 475
st 475
tablet 475
designs 474
pa 474
push 474
crocs 473
crown 473
royal 473
vi@@ 473
yo 473
100pcs 472
alcohol 472
beige 472
socket 472
yamaha 471
collar 470
how 470
lunch 470
window 470
analog 469
based 469
brief 469
dsn 469
fiber 469
metallic 469
v15 469
mother 468
baseball 467
250 466
wax 466
3i 465
ar 464
cd 464
ls 463
fairy 462
year 462
base 461
butter 460
ce@@ 460
parfum 460
pastel 460
solid 460
uniqlo 459
50pcs 458
kpop 458
nintendo 458
support 458
1.@@ 457
ad@@ 457
ca 457
iconic 457
150ml 456
26 456
boss 456
wars 455
padded 454
sim 454
tommy 454
a-@@ 453
carrier 453
drawstring 453
glossy 453
sets 453
64gb 452
blade 452
en 452
privacy 452
22 451
a30 451
avengers 451
sandal 451
slit 451
street 451
pre@@ 450
90@@ 449
a10 449
balloons 449
rare 449
ta 449
factory 448
ryx 448
signature 448
th@@ 448
mosquito 447
ra@@ 447
washi 447
5a 446
ai@@ 446
ps 446
wheel 446
male 445
easy 444
pokemon 444
ap@@ 443
maybelline 443
da@@ 442
3-@@ 441
99 441
anti-@@ 441
get 440
plant 440
herbal 439
regular 439
alibaba 438
soothing 438
tri@@ 438
dispenser 437
f1 437
lauren 437
bare 436
dolphin 436
drop 436
fi@@ 436
marc 436
mtg 436
under 436
02 435
300 435
32@@ 435
id 435
incipio 435
orig 435
satin 435
delivery 434
meter 434
nmax 434
xa 433
salt 432
4pcs 431
a33 431
cartridge 431
ch 431
ta@@ 431
fish 429
ins 429
moisture 429
so 429
spandex 429
starbucks 429
vest 429
tattered 428
therapy 428
-2@@ 427
70@@ 427
avent 427
nude 427
age 426
duo 426
strawberry 426
supreme 425
bulb 424
gun 424
pa@@ 424
php 424
poster 424
3.0 423
con@@ 423
for@@ 423
wave 423
boho 422
capsule 422
guitar 422
instant 422
less 422
-3@@ 421
item 421
luggage 421
zoom 421
88@@ 420
glue 420
fine 419
36@@ 418
pc@@ 418
winter 418
001 417
spf 417
sun@@ 417
45 416
liner 416
pullover 416
5ml 415
vape 415
wonder 415
grand 413
jo 413
lightning 413
th 413
american 412
bt21 412
edt 412
l-@@ 412
seamless 412
toothpaste 412
1-@@ 411
handmade 411
melissa 411
s5 411
stuff 411
hood 410
27 409
a4 409
finger 409
memory 409
sex 409
sneaker 409
wet 409
38 408
am 408
laneige 408
midi 408
7plus 407
a57 407
arm 407
stretch 407
boxer 406
canon 406
shell 406
tablets 406
vacuum 406
15ml 405
awei 405
elite 405
clearance 404
m-@@ 404
min@@ 404
papaya 404
promo 404
scale 404
standard 404
starter 404
stylus 404
tassel 404
pairs 403
2i 402
purpose 402
2-@@ 401
bsco 401
s3 401
tail 401
120 400
snow 400
solution 400
a20 399
bright 399
coconut 399
puff 399
he@@ 398
ra 398
swimming 398
38@@ 397
air@@ 397
audio 397
da 397
hook 397
liptint 397
toilette 397
110 396
acer 396
cash 396
computer 396
garden 396
knit 396
massage 396
p9 396
suede 396
50g 395
kiss 395
bucket 394
combo 394
cs 394
s4 394
bubble 393
creative 393
e-@@ 393
flavor 393
ke@@ 393
keratin 393
cycling 392
daughter 392
heat 392
son 392
straw 392
ya 392
33 391
ag@@ 391
bicycle 391
more 391
tu@@ 391
ver@@ 391
wide 391
55@@ 390
gas 390
go@@ 390
hub 390
missha 390
brilliant 389
chrome 389
clock 389
puzzle 389
sc@@ 389
selfie 389
ss@@ 389
blossom 388
ralph 388
tripod 388
sleeping 387
active 386
bvlgari 386
concealer 386
toe 386
jo@@ 385
peeling 385
products 385
75 384
burberry 384
army 383
drill 383
extension 383
headphone 382
j7pro 382
reusable 382
sf 382
vita 382
, 381
aha 381
electronic 381
legit 381
sea 381
sheets 381
ty 381
affordable 380
over 380
ripped 380
sm 380
young 380
31 379
4g 379
bible 379
headphones 379
ka 379
pan@@ 379
34@@ 378
dust 378
ve@@ 378
12v 377
bl@@ 377
disc 377
just 377
leaf 377
supplies 377
ter 377
tray 377
bears 376
cu@@ 376
eyeliner 376
10k 375
2.@@ 375
3.@@ 375
jack 375
days 374
gu@@ 374
stain 374
system 374
a9 373
bottom 373
exo 373
j3 373
klein 373
pipe 373
ck 372
comfortable 372
ka@@ 372
packaging 372
per@@ 372
container 371
outfit 371
s10 371
y55 371
trend 370
choco 369
scarf 369
p30 367
camouflage 366
j2prime 366
tire 366
yoga 366
are 365
manual 365
protect 365
refill 365
vanilla 364
y95 364
1st 363
400 363
bottles 363
product 363
tamiya 363
tribal 363
turtle 363
a31 362
force 362
havaianas 362
makapal 362
pretty 362
spa 362
vs 362
america 361
captain 361
flowers 361
gen 361
gym 361
hdmi 361
stylish 361
approx 360
bleaching 360
ex@@ 360
laser 360
75@@ 359
anne 359
dove 359
flashlight 359
x-@@ 359
ko 358
overlap 358
ship 358
ve 358
plaid 357
t-shirts 357
xundd 357
8plus 356
dr. 356
ph@@ 356
toothbrush 356
500g 355
basket 355
mary 355
twice 355
a70 354
kg 354
te 354
tomato 354
blocks 353
bnew 353
charms 353
dvd 353
s1 353
gi@@ 352
number 352
primer 352
radio 352
sporty 352
mu@@ 351
prada 351
29 350
bass 350
floor 350
knife 350
blend 349
coco 349
0.@@ 348
34 348
45@@ 348
hellokitty 348
peel 348
chinese 347
honor 347
htp 347
ram 347
sweat 347
27@@ 346
decoration 346
end 346
jbl 346
lavender 346
mitsubishi 346
mom 346
nova3i 346
24k 345
ana 345
cargo 345
straight 345
ak@@ 344
ford 344
jar 344
magical 344
p10 344
rock 344
spiderman 344
banana 343
drifit 343
watches 343
bar@@ 342
gloss 342
inflatable 342
xsmax 342
essentials 341
shadow 341
ge@@ 340
harry 340
miss 340
shopee 340
cologne 339
glasses 339
lebron 339
tiger 339
tory 339
cropped 338
gshock 338
decal 337
formula 337
grill 337
hooded 337
rosegold 337
14k 336
controller 336
man@@ 336
meters 336
sterling 336
we@@ 336
woven 336
auth 335
bathroom 335
fe@@ 335
jacobs 335
sauce 335
cases 334
kobe 334
rope 334
wired 334
128gb 333
cleaning 333
mon@@ 333
ong 333
ons 333
s-m 333
hu@@ 332
massager 332
otg 332
sm@@ 332
surgical 332
swim 332
03 331
kipling 331
malone 331
mat@@ 331
microfiber 331
triple 331
wrist 331
die 330
fire 330
fork 330
les 330
nokia 330
stationery 330
super@@ 330
choker 329
mah 329
no.@@ 329
236ml 328
6-@@ 328
cabinet 328
dial 328
muscle 328
sakura 328
stamp 328
him 327
ted 327
y17 327
ace 326
ig@@ 326
ku@@ 326
pu 326
raincoat 326
ref 326
space 326
-4@@ 325
bench 325
elastic 325
feeding 325
inner 325
lasting 325
name 325
os 325
potter 325
room 325
sachet 325
sky 325
b-@@ 324
berry 324
desk 324
eyeglasses 324
ks 324
leaves 324
nyx 324
pool 324
sandisk 324
nose 323
olive 322
rush 322
-1 321
dish 321
volume 321
chi@@ 320
deodorant 320
kyrie 320
39 319
ge 319
highlighter 319
pcs. 319
ru@@ 319
seed 319
underarm 319
ed@@ 318
g21 318
hanger 318
headlight 318
j7prime 318
let 318
aerox 317
cam 317
soul 317
sunflower 317
wrench 317
1l 316
8gb 316
g4 316
rash 316
; 315
aztec 315
balance 315
ce 315
ga@@ 315
part 315
s. 315
sk@@ 315
ter@@ 315
extract 314
ing@@ 314
sound 314
ios 313
wipes 313
37 312
4s 312
a35 312
ashley 312
banner 312
smooth 312
um 312
20ml 311
eyelash 311
ate 310
coordinates 310
invitation 310
rabbit 310
satchel 310
comb 309
cups 309
deluxe 309
dots 309
video 309
y15 309
burch 308
ler 308
maternity 308
5in1 307
88 307
bal@@ 307
cas@@ 307
deo 307
fu@@ 307
cupcake 306
modern 306
puma 306
cat@@ 305
curler 305
fragrances 305
pambahay 305
tech 305
v2 305
120ml 304
cosrx 304
ity 304
mp@@ 304
multifunctional 304
neon 304
nice 304
pu@@ 304
4x 303
5-@@ 303
je@@ 303
removal 303
thermal 303
desktop 302
gh@@ 302
hermes 302
men@@ 302
tab 302
4-@@ 301
blender 301
der 301
dot 301
humidifier 301
ling 301
tan 301
42 300
bralette 300
photocard 300
ca@@ 299
ci@@ 299
gr@@ 299
masks 299
ms. 299
nova2i 299
watts 299
wheels 299
> 298
cooler 298
forever21 298
liter 298
pleated 298
sense 298
three 298
1000 297
200@@ 297
booster 297
gra@@ 297
maker 297
player 297
sample 297
sunscreen 297
du@@ 296
mold 296
10g 295
fitness 295
monster 295
superman 295
ultimate 295
7-@@ 294
bell 294
dangling 294
hilfiger 294
m1 294
mid 294
pockets 294
bohemian 293
friends 293
james 293
lovely 293
rattan 293
backless 292
dior 292
english 292
hydrating 292
ordinary 292
painting 292
po 292
pre-order 292
us@@ 292
mineral 291
sign 291
tr@@ 291
very 291
adults 290
comics 290
fm 290
bumper 289
ft 289
hose 289
perfumes 289
resistant 289
supplement 289
swarovski 289
0 288
1m 288
85@@ 288
garlic 288
hand@@ 288
ina 288
panel 288
charles 287
compact 287
ly@@ 287
monitor 287
playstation 287
studio 287
ys 287
dye 286
educational 286
joy 286
training 286
300ml 285
clips 285
cooling 285
custom 285
fantasy 285
lips 285
mas@@ 285
press 285
180 284
48 284
breast 284
cr@@ 284
ju@@ 284
23@@ 283
65@@ 283
a10s 283
building 283
click 283
nails 283
sock 283
uni@@ 283
bee 282
chest 282
dogs 282
edp 282
giveaways 282
length 282
smiggle 282
cube 281
monkey 281
ply 281
pod 281
shades 281
1080p 280
200g 280
33@@ 280
es@@ 280
handheld 280
pressure 280
sn@@ 280
ting 280
ur@@ 280
500@@ 279
99@@ 279
bib 279
bodysuit 279
boost 279
champion 279
faux 279
y85 279
cor@@ 278
herschel 278
in-ear 278
rings 278
sy 278
ton 278
20000mah 277
55 277
har@@ 277
messenger 277
paperback 277
true 277
valve 277
zero 277
66@@ 276
eco 276
organics 276
passport 276
pressed 276
relief 276
sheer 276
y51 276
ah 275
beautiful 275
mos 275
sofa 275
3m 274
64@@ 274
ali@@ 274
cami 274
che@@ 274
knot 274
trimmer 274
chicken 273
christian 273
ic 273
k-@@ 273
kimono 273
story 273
ir@@ 272
tin 272
ated 271
ballpen 271
fake 271
marble 271
twin 271
type-c 271
cal@@ 270
decals 270
kiddie 270
mark 270
shade 270
armour 269
au@@ 269
cooker 269
dash 269
et 269
mixed 269
pens 269
scented 269
can@@ 268
ck@@ 268
fitted 268
legend 268
skincerity 268
v-@@ 268
ben@@ 267
leopard 267
nlighten 267
reversible 267
sticky 267
sunnies 267
tic 267
tokong 267
002 266
business 266
camping 266
gentle 266
ion 266
nu@@ 266
ps3 266
37@@ 265
8-@@ 265
92 265
ant 265
lining 265
merry 265
mo 265
rhinestone 265
tissue 265
vneck 265
anastasia 264
detergent 264
flex 264
lo 264
london 264
moisturizer 264
screw 264
slide 264
stars 264
bestseller 263
comfy 263
k10 263
packs 263
peplum 263
skin@@ 263
strip 263
1pcs 262
95@@ 262
comfort 262
exclusive 262
garterized 262
par@@ 262
seal 262
br@@ 261
coloring 261
feminine 261
hybrid 261
wi@@ 261
101 260
a20s 260
alarm 260
learning 260
29@@ 259
club 259
cocktail 259
fun 259
multicolor 259
stroller 259
tip 259
u.s 259
y67 259
bs 258
diffuser 258
f11pro 258
geneva 258
oversized 258
safe 258
sweatshirt 258
ty@@ 258
ah@@ 257
blackpink 257
monopod 257
theme 257
wa@@ 257
wristlet 257
y-@@ 257
2.4a 256
20pcs 256
4gb 256
fur 256
mustard 256
printer 256
supply 256
xrm 256
72 255
bento 255
buttons 255
calamansi 255
cctv 255
ha@@ 255
hyundai 255
naked 255
xperia 255
cetaphil 254
cutting 254
faucet 254
fo@@ 254
indoor 254
lever 254
lte 254
philips 254
raider 254
270 253
cy@@ 253
french 253
lingerie 253
multi-@@ 253
plains 253
10000mah 252
110@@ 252
39@@ 252
56@@ 252
a50s 252
boutique 252
karaoke 252
tupperware 252
65 251
85 251
able 251
actual 251
angle 251
bunny 251
circle 251
ella 251
hole 251
snapback 251
tela 251
41 250
bb@@ 250
garter 250
parts 250
san@@ 250
ang@@ 249
colour 249
heel 249
included 249
lol 249
macbook 249
slime 249
stay 249
sublimation 249
144 248
beat 248
center 248
clinique 248
extreme 248
focus 248
gr5 248
ite 248
lot 248
manila 248
mixer 248
off-shoulder 248
chic 247
leg 247
matting 247
rc 247
sh 247
bosch 246
brightening 246
halloween 246
kay 246
laundry 246
star@@ 246
step 246
ul@@ 246
versace 246
3.5mm 245
92@@ 245
flamingo 245
pl@@ 245
pp@@ 245
pr@@ 245
ringer 245
skater 245
sleep 245
wine 245
amazing 244
anna 244
ballet 244
doctor 244
dy@@ 244
healing 244
last 244
mine 244
moly 244
sanitizer 244
95 243
98 243
adventure 243
carters 243
cell 243
land 243
robot 243
ruffled 243
sensor 243
suzuki 243
tony 243
y7 243
ze@@ 243
44@@ 242
98@@ 242
around 242
eyes 242
keith 242
liliw 242
marker 242
mc@@ 242
ng 242
qu@@ 242
seventeen 242
4a 241
ff@@ 241
natasha 241
season 241
york 241
9-@@ 240
= 240
alpha 240
cookie 240
der@@ 240
dy 240
engine 240
ex 240
loop 240
nissan 240
photocards 240
rich 240
tent 240
300@@ 239
48@@ 239
batch 239
c2 239
di 239
hy@@ 239
ribbed 239
skirts 239
spongebob 239
blood 238
contour 238
ct@@ 238
msm 238
pointed 238
tshirts 238
xa1 238
almond 237
four 237
sti@@ 237
tattoo 237
tom 237
150@@ 236
3w 236
a30s 236
chips 236
fossil 236
horse 236
lin@@ 236
pin@@ 236
see 236
sen@@ 236
sparkle 236
west 236
2xl 235
400@@ 235
400ml 235
con 235
energy 235
flexible 235
ment 235
mp 235
ol@@ 235
spicy 235
av@@ 234
bo 234
born 234
cactus 234
combination 234
cooking 234
power@@ 234
resin 234
sofia 234
surprise 234
verse 234
ban@@ 233
child 233
chopper 233
intense 233
soda 233
straightener 233
taylor 233
58@@ 232
z1 232
lightweight 231
ny 231
re 231
ruffle 231
toilet 231
ws 231
xxl 231
{ 231
43 230
68 230
? 230
ard 230
bag@@ 230
chili 230
f-@@ 230
ke 230
pen@@ 230
} 230
aid 229
als 229
birkenstock 229
bleach 229
hi 229
horn 229
lc 229
loot 229
luna 229
sy@@ 229
the@@ 229
track 229
v15pro 229
.00 228
04 228
black@@ 228
buckle 228
coral 228
era 228
ha 228
hg 228
morning 228
nine 228
250g 227
2nd 227
ever 227
jeju 227
linen 227
000 226
76@@ 226
bri@@ 226
cheese 226
corner 226
ga 226
gb 226
hardcover 226
hearts 226
jag 226
puppy 226
read 226
sticks 226
sw@@ 226
underwire 226
za 226
24pcs 225
cookies 225
eraser 225
gs 225
mari@@ 225
mega 225
sam@@ 225
syrup 225
78@@ 224
belle 224
ber@@ 224
detox 224
insert 224
shi@@ 224
tinted 224
blouses 223
bur@@ 223
dri-fit 223
h-@@ 223
han@@ 223
j4plus 223
ocean 223
penshoppe 223
peppa 223
slot 223
y91c 223
yo@@ 223
.... 222
64 222
elf 222
omni 222
right 222
shaped 222
unlocked 222
bershka 221
console 221
emblem 221
g530 221
ms@@ 221
sho@@ 221
spigen 221
too 221
trolley 221
flawless 220
healthy 220
may 220
peanut 220
printing 220
s.@@ 220
sole 220
tawas 220
av 219
craft 219
eyeglass 219
grinder 219
naturals 219
paw 219
pooh 219
prelove 219
run 219
vegetable 219
y12 219
advanced 218
and@@ 218
ct 218
envelope 218
fi 218
sophie 218
yu@@ 218
barley 217
cacao 217
ear@@ 217
heroes 217
kilo 217
m20 217
mini@@ 217
ne 217
panties 217
saw 217
tin@@ 217
view 217
w-@@ 217
5.0 216
adaptor 216
assembly 216
cats 216
cl@@ 216
embroidery 216
frosted 216
is@@ 216
mario 216
size@@ 216
souvenirs 216
store 216
student 216
350 215
ag 215
animals 215
dell 215
total 215
2a 214
600 214
66 214
creme 214
dome 214
fitflop 214
ll@@ 214
trial 214
10-@@ 213
6.5 213
6in1 213
a3@@ 213
aa 213
any 213
globe 213
m10 213
multifunction 213
scents 213
sided 213
2.5 212
char@@ 212
ings 212
material 212
ste@@ 212
stove 212
without 212
bolt 211
bt 211
chia 211
clinic 211
connector 211
elle 211
em@@ 211
gopro 211
hair@@ 211
liters 211
med 211
park 211
pas@@ 211
work 211
3g 210
< 210
armani 210
back@@ 210
bat@@ 210
crib 210
dishwashing 210
ds@@ 210
finish 210
security 210
sunblock 210
teddy 210
warm 210
wool 210
zi@@ 210
ad 209
bloom 209
dvr 209
luminous 209
panini 209
pe 209
rgb 209
sl@@ 209
96 208
ba 208
bandai 208
cc@@ 208
cre@@ 208
mer@@ 208
n-@@ 208
one@@ 208
p-@@ 208
003 207
125ml 207
85ml 207
combi 207
don 207
drawer 207
glitters 207
li 207
lin 207
sd@@ 207
1a 206
col@@ 206
mal@@ 206
r17 206
restock 206
san 206
thai 206
this 206
warranty 206
5t 205
airmax 205
ance 205
coil 205
creamy 205
daisy 205
in1 205
jujube 205
point 205
royale 205
120@@ 204
250@@ 204
30g 204
44 204
argan 204
beautederm 204
bella 204
bt@@ 204
clipper 204
fs 204
gamepad 204
nano 204
pour 204
sewing 204
smartphone 204
airpods 203
label 203
look 203
mam 203
patches 203
1.5 202
backcase 202
capacity 202
invisible 202
jogging 202
lily 202
lip@@ 202
mb@@ 202
shaper 202
synthetic 202
tiny 202
war 202
yugioh 202
135 201
ator 201
comforter 201
intensive 201
kingdom 201
m2 201
mor@@ 201
na@@ 201
rs 201
sniper 201
vision 201
wal@@ 201
x9 201
10m 200
bio@@ 200
cm-@@ 200
earings 200
fox 200
hi-@@ 200
ikea 200
john 200
lash 200
precious 200
ten@@ 200
tower 200
05 199
97 199
eagle 199
flap 199
jv 199
monogram 199
res 199
washing 199
75ml 198
bearing 198
cam@@ 198
copy 198
deck 198
hammer 198
ji@@ 198
js 198
ll 198
multi-function 198
nut 198
180@@ 197
4.@@ 197
52 197
bas@@ 197
beaded 197
bre@@ 197
feet 197
ja@@ 197
rx 197
spl 197
spot 197
ti 197
tsum 197
tws 197
ze 197
135g 196
45cm 196
champ 196
condition 196
dr 196
insulated 196
lan@@ 196
layered 196
owl 196
picture 196
streaming 196
water@@ 196
wind 196
46 195
74@@ 195
aeropostale 195
baby@@ 195
bit 195
by@@ 195
cb@@ 195
f21 195
gar@@ 195
great 195
junior 195
ombre 195
plussize 195
stones 195
walker 195
amplifier 194
elephant 194
etc 194
fa@@ 194
fold 194
league 194
milky 194
miner 194
php@@ 194
tmx 194
tor@@ 194
ts@@ 194
× 194
71 193
81 193
aquarium 193
ating 193
az@@ 193
benefit 193
bricks 193
driver 193
frontrow 193
function 193
ky@@ 193
nipple 193
team 193
valentino 193
21@@ 192
ay@@ 192
bird 192
bon@@ 192
cylinder 192
dryer 192
kirkland 192
lazy 192
msm.hk 192
oven 192
shark 192
topper 192
v5s 192
57@@ 191
800@@ 191
cloud 191
cordless 191
fl 191
ginger 191
gsm 191
luxe 191
opener 191
shelf 191
46@@ 190
bl 190
channel 190
cucumber 190
ele@@ 190
eyewear 190
fl@@ 190
gallon 190
naruto 190
triangle 190
truck 190
6.@@ 189
drawing 189
her@@ 189
kn95 189
ky 189
mm@@ 189
platinum 189
rosary 189
sand@@ 189
toddlers 189
activity 188
alphabet 188
boxes 188
compatible 188
den@@ 188
god 188
homme 188
notes 188
teeth 188
weight 188
78 187
away 187
bakuna 187
cho@@ 187
non-@@ 187
ou@@ 187
revolution 187
speedy 187
wo@@ 187
bangles 186
dolls 186
guide 186
hugo 186
ki 186
pilaten 186
ware 186
wing 186
54 185
8pcs 185
autumn 185
bullet 185
gri@@ 185
hoodies 185
journal 185
multipurpose 185
played 185
tough 185
wings 185
cp 184
fr@@ 184
match 184
op@@ 184
stocks 184
1pair 183
68@@ 183
ani@@ 183
big@@ 183
daiso 183
different 183
lid 183
paste 183
sanrio 183
sli@@ 183
spark 183
transfer 183
vehicle 183
1-2 182
130 182
130@@ 182
30cm 182
62 182
amber 182
ble 182
bone 182
clamp 182
flo@@ 182
jet 182
mild 182
noodles 182
santa 182
smith 182
tra@@ 182
va 182
whole 182
wig 182
07 181
cosplay 181
curry 181
elizabeth 181
fix 181
freebies 181
myphone 181
oval 181
pajamas 181
pm 181
replaceable 181
shopping 181
thrones 181
twist 181
win@@ 181
1000ml 180
150g 180
18inches 180
4k 180
5m 180
degree 180
drops 180
feather 180
kawaii 180
layers 180
mk@@ 180
op 180
vit@@ 180
^ 179
ampoule 179
cap@@ 179
color@@ 179
file 179
free@@ 179
gr3 179
max@@ 179
p8 179
piston 179
post 179
pride 179
sk 179
slides 179
tg@@ 179
well 179
155 178
96@@ 178
amour 178
blackhead 178
dolce 178
emergency 178
eu 178
overall 178
pillowcase 178
play@@ 178
simply 178
-5@@ 177
47@@ 177
700 177
bronze 177
calculator 177
curtains 177
handy 177
head@@ 177
ley 177
playboy 177
snack 177
sprocket 177
sr@@ 177
y5 177
5mm 176
63 176
a1 176
april 176
bbq 176
jumbo 176
movie 176
ryxskincerity 176
soup 176
spf50 176
tw@@ 176
v8 176
virgin 176
77 175
collectible 175
dried 175
ip 175
mechanical 175
ride 175
sand 175
straps 175
teen 175
yourself 175
2-in-1 174
600@@ 174
diapers 174
earbuds 174
eye@@ 174
generation 174
killer 174
pets 174
prestige 174
purifier 174
reseller 174
tropical 174
5c 173
compression 173
giant 173
lion 173
micro@@ 173
nivea 173
oatmeal 173
output 173
pineapple 173
plu@@ 173
sachets 173
shiseido 173
advance 172
cri@@ 172
ded 172
keto 172
pacifier 172
rom 172
ruffles 172
seiko 172
tt@@ 172
vol 172
2000 171
2pc 171
77@@ 171
description 171
gen@@ 171
glam 171
kar@@ 171
mac@@ 171
non-slip 171
ol 171
peripera 171
por@@ 171
shot 171
teal 171
things 171
top@@ 171
trainer 171
triumph 171
walking 171
y66 171
42@@ 170
5.@@ 170
800 170
91 170
9h 170
a3 170
characters 170
corn 170
diary 170
fashion@@ 170
five 170
glutamansi 170
intel 170
pedal 170
ren@@ 170
ua 170
2way 169
burner 169
d. 169
fat 169
hd@@ 169
hiking 169
left 169
mer 169
midnight 169
military 169
philippines 169
pins 169
spider 169
spiral 169
ten 169
500mg 168
beachkin 168
but 168
everyday 168
ken@@ 168
khaki 168
on-hand 168
stan 168
trending 168
watermelon 168
25pcs 167
3ply 167
61 167
bling 167
bonnet 167
chi 167
disk 167
dri@@ 167
ip@@ 167
medical 167
ns 167
numbers 167
pain 167
quaff 167
sal@@ 167
taiwan 167
thermometer 167
toshiba 167
wh@@ 167
x2 167
xt 167
y62018 167
ao@@ 166
assy 166
bel@@ 166
blue@@ 166
boyleg 166
briefs 166
dozen 166
durable 166
exercise 166
hobbies 166
len@@ 166
napkin 166
youth 166
..... 165
2014 165
3-in-1 165
30pcs 165
6p 165
beans 165
bra@@ 165
choice 165
christening 165
effect 165
ger@@ 165
ingco 165
lanyard 165
ous 165
patrol 165
pilot 165
retractable 165
s2 165
skechers 165
strechable 165
test 165
volcanic 165
51 164
aspire 164
calvin 164
collections 164
comic 164
derma 164
drinking 164
false 164
goggles 164
madre 164
morphe 164
nm 164
pomade 164
raider150 164
shea 164
tf 164
titanium 164
uno 164
y11 164
1x 163
67@@ 163
ap 163
dre@@ 163
fab 163
inverter 163
maam 163
pri@@ 163
prince 163
rectangular 163
swing 163
tactical 163
11pro 162
boo@@ 162
cole 162
dear 162
direct 162
fall 162
foaming 162
george 162
ger 162
lime 162
mommy 162
mossimo 162
sb 162
trousers 162
1tb 161
boat 161
brassiere 161
designer 161
doraemon 161
jasmine 161
mop 161
never 161
paul 161
peppermint 161
place 161
red@@ 161
strong 161
tre@@ 161
unique 161
vanity 161
vga 161
wiper 161
256gb 160
2t 160
3xl 160
4t 160
7.@@ 160
7p 160
93 160
cy 160
gg@@ 160
grid 160
hydro@@ 160
kin@@ 160
knight 160
lighting 160
melody 160
optical 160
pam@@ 160
romantic 160
saver 160
war@@ 160
win 160
writing 160
82 159
8mm 159
ari@@ 159
bead 159
bean 159
converter 159
doctors 159
et@@ 159
fendi 159
fer@@ 159
gingersnaps 159
here 159
new@@ 159
nova2lite 159
scissors 159
spinner 159
theft 159
wa 159
102 158
2012 158
baptismal 158
dr@@ 158
ea@@ 158
grower 158
hip 158
household 158
novel 158
ok 158
powered 158
ry@@ 158
sesame 158
twisted 158
20g 157
aromatherapy 157
castor 157
drum 157
fuel 157
instax 157
j710 157
kill 157
nmd 157
pepper 157
ports 157
shake 157
strength 157
vo@@ 157
12-@@ 156
activated 156
ara 156
changing 156
copper 156
farm 156
fre@@ 156
hardbound 156
ker 156
kettle 156
lan 156
las@@ 156
ml@@ 156
mp3 156
ori@@ 156
our 156
piyao 156
reserved 156
under@@ 156
ans 155
disinfectant 155
gingham 155
gt@@ 155
holiday 155
lab 155
luffy 155
native 155
nendoroid 155
nuts 155
renew 155
shimmer 155
wallets 155
1set 154
b0@@ 154
beef 154
call 154
fog 154
ful 154
initial 154
j2pro 154
jc 154
keds 154
motors 154
mr. 154
remax 154
via 154
105 153
40ml 153
79 153
89 153
baby-g 153
beverly 153
co. 153
crew 153
df@@ 153
epson 153
ethyl 153
foods 153
global 153
hills 153
ito 153
latest 153
lipo 153
lowest 153
makita 153
nourishing 153
of@@ 153
ps@@ 153
superstar 153
ven@@ 153
vibrator 153
wardrobe 153
xbox 153
zircon 153
120g 152
160@@ 152
anti@@ 152
bio 152
braided 152
eva 152
ff 152
figures 152
j6plus 152
lift 152
mag@@ 152
mouth 152
onepiece 152
raw 152
ro 152
rotating 152
roundneck 152
rubberized 152
ters 152
turmeric 152
08 151
69 151
anchor 151
antibacterial 151
balls 151
hanabishi 151
heng 151
ine@@ 151
ken 151
lla 151
m-l 151
make-up 151
munafie 151
road 151
tat@@ 151
unit 151
vios 151
6x 150
ata 150
boyfriend 150
cs@@ 150
impact 150
international 150
italian 150
manga 150
mj 150
musical 150
ry 150
sol@@ 150
tata 150
3.5 149
58 149
aux 149
coated 149
elsa 149
frogsuit 149
high@@ 149
leisure 149
moist 149
ni 149
omega 149
over@@ 149
phones 149
smile 149
softgels 149
spin 149
trio 149
witch 149
3t 148
54@@ 148
86 148
accent 148
ash 148
candles 148
catcher 148
cro@@ 148
date 148
dra@@ 148
jin 148
johnson 148
lit@@ 148
mules 148
online 148
repacked 148
sec 148
thor 148
vit 148
yarn 148
0-@@ 147
73 147
accessory 147
attire 147
calendar 147
dickies 147
ep 147
hoop 147
m3 147
multi@@ 147
ointment 147
projector 147
semi-@@ 147
snake 147
ways 147
2.1a 146
201@@ 146
300g 146
binder 146
bro@@ 146
dv@@ 146
fancy 146
flow 146
fusion 146
hq 146
hunter 146
pampers 146
reno 146
shiny 146
spread 146
xi@@ 146
ys@@ 146
004 145
005 145
2gb 145
76 145
83 145
a79 145
before 145
carpet 145
cuff 145
empty 145
evening 145
fly 145
harness 145
himalayan 145
hobo 145
mb 145
mr 145
performance 145
scooter 145
sf@@ 145
skincare 145
ves 145
zer 145
bad 144
chance 144
closet 144
fantech 144
flavored 144
hold 144
hollow 144
il@@ 144
kw@@ 144
lbc 144
lightstick 144
minifigure 144
ors 144
parisian 144
pat@@ 144
reader 144
rod 144
silky 144
sto@@ 144
thermos 144
v3 144
06 143
10mm 143
20cm 143
53 143
ay 143
bali 143
dead 143
gal@@ 143
gi 143
gs@@ 143
jackets 143
klairs 143
miniature 143
module 143
repriced 143
st. 143
t- 143
through 143
trading 143
tt 143
uniform 143
y92019 143
09 142
15-@@ 142
94 142
a.@@ 142
bedroom 142
bomb 142
cage 142
cur@@ 142
dri 142
fortuner 142
geometric 142
melon 142
nikon 142
painted 142
pick 142
rub 142
sin@@ 142
sleeved 142
sp 142
strapless 142
throw 142
y6pro 142
008 141
1000@@ 141
115 141
67 141
8p 141
ab 141
ami@@ 141
cast 141
des 141
ini 141
ita 141
project 141
router 141
she@@ 141
si 141
snoopy 141
train 141
ax 140
bioaqua 140
cal 140
dress@@ 140
drying 140
folded 140
gb@@ 140
grass 140
highquality 140
ja 140
justice 140
lantern 140
memo 140
month 140
mtb 140
once 140
padlock 140
signal 140
000@@ 139
25ml 139
49 139
6splus 139
aircon 139
brass 139
exfoliating 139
eyelashes 139
multimedia 139
oshkosh 139
pinky 139
screwdriver 139
shawl 139
shift 139
v7plus 139
walk 139
90ml 138
ceiling 138
chronograph 138
clo@@ 138
cutie 138
dar@@ 138
dollshoes 138
latex 138
luck 138
md@@ 138
mushroom 138
pigment 138
ponytail 138
rejuvinating 138
salon 138
sc 138
scar 138
splash 138
thread 138
van@@ 138
160 137
400g 137
blooming 137
brushes 137
carb 137
don@@ 137
elbow 137
footwear 137
glu@@ 137
intex 137
kl 137
levi 137
los 137
magazine 137
minimalist 137
needs 137
ninja 137
olay 137
pal@@ 137
plan@@ 137
solo 137
tan@@ 137
vr 137
'oreal 136
't 136
140 136
750 136
ai 136
aldo 136
ano 136
artificial 136
cath 136
detachable 136
dinosaur 136
dynamic 136
giveaway 136
got7 136
han 136
herb 136
hypoallergenic 136
iphonex 136
kai 136
level 136
long@@ 136
miners 136
mountain 136
oils 136
other 136
p30lite 136
razor 136
scoop 136
state 136
tour 136
v17 136
watercolor 136
006 135
3pc 135
6.1 135
amp 135
ati@@ 135
brother 135
c1 135
canvass 135
civic 135
cle@@ 135
com@@ 135
donut 135
express 135
faith 135
flowy 135
gradient 135
ground 135
ino 135
its 135
ku 135
outlet 135
punch 135
skull 135
tags 135
unsealed 135
ye@@ 135
zebra 135
zen@@ 135
0.5mm 134
240 134
7a 134
94@@ 134
close 134
cm@@ 134
duck 134
huggies 134
isuzu 134
jan@@ 134
kid@@ 134
mc 134
palm 134
penguin 134
platform 134
s- 134
sil@@ 134
six 134
split 134
ties 134
tro@@ 134
waisted 134
15g 133
3ds 133
52@@ 133
celebrity 133
cha@@ 133
del@@ 133
eri@@ 133
gabbana 133
gre@@ 133
gt 133
lac@@ 133
marine 133
meat 133
min 133
nat@@ 133
nestle 133
perry 133
poloshirt 133
skinfood 133
slip-on 133
some 133
steamer 133
tam@@ 133
turtleneck 133
von 133
wn 133
zodiac 133
220 132
53@@ 132
a73 132
auto@@ 132
badge 132
breaker 132
c6 132
charlotte 132
cks 132
daniel 132
earth 132
ery 132
fleece 132
gifts 132
hw 132
j-@@ 132
lie 132
map 132
sink 132
specs 132
tar@@ 132
tiffany 132
treats 132
uk 132
3-6 131
ariel 131
banpresto 131
blower 131
boston 131
cartier 131
couture 131
ding 131
ee@@ 131
external 131
insect 131
inside 131
jump 131
kidston 131
mil@@ 131
ore 131
swiss 131
titan 131
up@@ 131
warmer 131
zone 131
'kitty 130
1pack 130
2x 130
9oz 130
ages 130
anniversary 130
arts 130
breastfeeding 130
cart 130
chunky 130
future 130
lettuce 130
maintenance 130
mcm 130
mt@@ 130
permanent 130
pullout 130
radiator 130
second 130
ster 130
tal@@ 130
tier 130
van 130
x3 130
1box 129
350ml 129
8.@@ 129
a5@@ 129
c.@@ 129
cli@@ 129
convertible 129
dan@@ 129
eli@@ 129
emoji 129
freshener 129
fujifilm 129
ghz 129
hs-@@ 129
hush 129
innova 129
jam 129
lbs 129
letters 129
loreal 129
minions 129
mono 129
mousse 129
ness 129
plates 129
powdered 129
reading 129
receiver 129
ren 129
rise 129
sailor 129
ssd 129
swift 129
tas@@ 129
tennis 129
thrifted 129
topshop 129
56 128
beatle 128
curl 128
enhancer 128
gm 128
hidden 128
j730 128
juicer 128
lotus 128
montero 128
rescue 128
ser@@ 128
sharpener 128
tarte 128
wattpad 128
wrangler 128
1liter 127
2013 127
220@@ 127
ae@@ 127
arbutin 127
aurora 127
bestway 127
calming 127
ches 127
embossed 127
fe 127
fondant 127
fun@@ 127
hel@@ 127
island 127
kisses 127
menow 127
multi-purpose 127
omnia 127
pots 127
pre-@@ 127
ramen 127
shi 127
sodium 127
sprayer 127
station 127
sunny 127
t.@@ 127
tur@@ 127
what 127
yn 127
z3 127
18-@@ 126
4d 126
7pcs 126
antenna 126
baofeng 126
bha 126
blk 126
bul@@ 126
chef 126
hawk 126
joystick 126
king@@ 126
loss 126
pro-@@ 126
race 126
transcend 126
ure 126
yunteng 126
1-3 125
450 125
57 125
97@@ 125
bay 125
better 125
break 125
defense 125
fu 125
hyaluronic 125
joni 125
k7 125
kraft 125
kri@@ 125
lene 125
mud 125
police 125
rider 125
smocked 125
son@@ 125
sparkling 125
strips 125
that 125
transformers 125
tub 125
venus 125
47 124
6a 124
750ml 124
80g 124
ack 124
bars 124
bouquet 124
che 124
d.@@ 124
fluid 124
fruits 124
gourmet 124
il 124
ker@@ 124
kim 124
people 124
saint 124
sampler 124
skort 124
toms 124
transformer 124
trouser 124
wyi 124
-01 123
-2 123
3n1 123
74 123
bread 123
davis 123
gildan 123
gl@@ 123
ia 123
io 123
kia 123
mx@@ 123
nct 123
nillkin 123
north 123
panasonic 123
pc. 123
piano 123
plum 123
rick 123
science 123
steering 123
str@@ 123
strappy 123
takal 123
teether 123
valentine 123
winnie 123
$ 122
absorbent 122
autolight 122
bat 122
david 122
doormat 122
fas@@ 122
ferrari 122
gang 122
glo@@ 122
i-@@ 122
mr@@ 122
pole 122
preorder 122
ray 122
studded 122
wor@@ 122
y19 122
2n1 121
350@@ 121
43@@ 121
59 121
a40 121
arrow 121
cj 121
device 121
fro@@ 121
iii 121
jazz 121
lar@@ 121
loafers 121
marie 121
pk 121
plushie 121
radiation 121
sensual 121
smoke 121
squishy 121
val@@ 121
ysl 121
.ph 120
210 120
900 120
a72018 120
aroma 120
bomber 120
bombshell 120
bracelets 120
grow 120
ignition 120
motion 120
noir 120
sensitive 120
spice 120
spy 120
stri@@ 120
trench 120
trim 120
wheat 120
x10 120
2-3 119
40g 119
5.2 119
700@@ 119
90g 119
acoustic 119
artwork 119
beer 119
beltbag 119
blu@@ 119
ces 119
ci 119
crazy 119
dd@@ 119
fx 119
gro@@ 119
industrial 119
ir 119
isopropyl 119
seduction 119
soaps 119
stop 119
wanna 119
welding 119
x1 119
zu@@ 119
36-40 118
4wd 118
alice 118
bond 118
caramel 118
carry 118
dam@@ 118
dance 118
diesel 118
ey@@ 118
faced 118
form 118
hal@@ 118
hollister 118
home@@ 118
huda 118
jesus 118
lipcream 118
mia 118
mono@@ 118
onyx 118
qui@@ 118
refrigerator 118
retail 118
shopkins 118
surf 118
tires 118
tokyo 118
vertical 118
y.o 118
zed 118
🏻 118
007 117
168 117
170@@ 117
3rd 117
8.5 117
87@@ 117
a60 117
a77 117
a7@@ 117
abs 117
anti-theft 117
barako 117
baymax 117
bridal 117
db@@ 117
den 117
fy 117
kat@@ 117
mama 117
maria 117
sl 117
styling 117
suction 117
t. 117
themed 117
upper 117
zinc 117
304 116
3ml 116
900@@ 116
ale 116
aveeno 116
blusher 116
bug 116
chip 116
cla@@ 116
cow 116
decorative 116
dis@@ 116
dz 116
equipment 116
fan@@ 116
feng 116
icon 116
indian 116
jeggings 116
key@@ 116
lakers 116
manicure 116
mattress 116
may@@ 116
milktea 116
photo@@ 116
polyester 116
prepaid 116
racer 116
rest 116
saving 116
sb@@ 116
scato 116
setting 116
stre@@ 116
stu@@ 116
tai@@ 116
terranova 116
tints 116
wr@@ 116
y75 116
ya@@ 116
yard 116
05@@ 115
123 115
ascorbate 115
bands 115
chu@@ 115
complex 115
dangle 115
dessert 115
flakes 115
hol@@ 115
hs 115
juicy 115
ner@@ 115
ning 115
np@@ 115
ny@@ 115
pie 115
placenta 115
potato 115
regulator 115
sky@@ 115
sunshine 115
tes 115
u-@@ 115
wolf 115
ada 114
ado 114
ail 114
blo@@ 114
buds 114
care@@ 114
cdi 114
chibi 114
ction 114
decay 114
france 114
guaranteed 114
holes 114
hot@@ 114
ipaky 114
iphone6 114
kin 114
lam@@ 114
lon@@ 114
ltb 114
marks 114
mode 114
piggy 114
please 114
rompers 114
tonymoly 114
vent 114
vin@@ 114
y79 114
yi 114
2011 113
3a 113
balenciaga 113
divided 113
drone 113
girdle 113
hb@@ 113
jane 113
lc@@ 113
making 113
molder 113
note2 113
own 113
pp 113
pping 113
r-@@ 113
repellent 113
roasted 113
sam 113
sch@@ 113
shaver 113
stream 113
trash 113
varsity 113
vinegar 113
wel@@ 113
'm 112
450@@ 112
501 112
84@@ 112
a0@@ 112
a80 112
ala 112
anti-aging 112
ash@@ 112
bbw 112
c3 112
cf@@ 112
covers 112
customize 112
dh@@ 112
diecast 112
ears 112
fidget 112
fisher 112
flops 112
friendly 112
lashes 112
mags 112
oo@@ 112
playing 112
ruby 112
rushguard 112
samyang 112
sha@@ 112
sol 112
stamps 112
va@@ 112
vial 112
warriors 112
z5 112
1.5m 111
19v 111
25g 111
canadian 111
cha 111
dkny 111
drain 111
femme 111
forest 111
funny 111
high-@@ 111
ironman 111
kingston 111
nova5t 111
oh 111
operated 111
pack@@ 111
plants 111
quilted 111
reflective 111
release 111
rouge 111
sata 111
scratch 111
squarepants 111
stage 111
stephen 111
storm 111
sty@@ 111
tide 111
y6ii 111
z2 111
zh 111
zo@@ 111
zz@@ 111
-c 110
103 110
3s 110
bi 110
bryant 110
burst 110
chloe 110
choose 110
citrus 110
crepe 110
deer 110
designed 110
diet 110
fin@@ 110
floater 110
garnish 110
green@@ 110
hazel 110
kelly 110
kh@@ 110
leash 110
miniso 110
pant 110
que@@ 110
sage 110
slacks 110
slicer 110
smash 110
spi@@ 110
tb 110
unlock 110
180ml 109
86@@ 109
bangladesh 109
built-in 109
cafe 109
cinderella 109
cker 109
combined 109
concentrate 109
dental 109
em 109
fighter 109
filler 109
hem 109
hor@@ 109
kd 109
keimav 109
kidswear 109
kit@@ 109
lt@@ 109
neo7 109
pulley 109
south 109
toycastle3 109
u.s. 109
v1 109
vp 109
washer 109
zing 109
170 108
5v 108
72@@ 108
82@@ 108
add 108
aging 108
aqu@@ 108
ate@@ 108
brooch 108
cocoa 108
correction 108
delight 108
driving 108
euro 108
evil 108
extender 108
flyknit 108
inter@@ 108
jenna 108
jigsaw 108
kawasaki 108
li-ion 108
lil 108
market 108
measuring 108
medicine 108
mit@@ 108
mto 108
oxford 108
oxygen 108
pizza 108
rectangle 108
rust 108
sanitary 108
ses 108
steam 108
wand 108
wd 108
windproof 108
y5ii 108
...... 107
69@@ 107
87 107
about 107
ane 107
blank 107
bolts 107
buy1take1 107
california 107
details 107
feel 107
firefly 107
folder 107
fur@@ 107
grape 107
heads 107
hotel 107
hulk 107
kan@@ 107
lon 107
lyn 107
matt 107
pimple 107
re-@@ 107
sized 107
sonic 107
ssa 107
swan 107
temp@@ 107
universe 107
abstract 106
ach 106
after 106
ass@@ 106
ats 106
bandage 106
ble@@ 106
capri 106
cookware 106
corset 106
cutlery 106
dildo 106
eu@@ 106
grab 106
infrared 106
kat 106
kevin 106
lipsticks 106
load 106
neo9 106
non-wire 106
nutri@@ 106
popular 106
sha 106
shimano 106
sjcam 106
stem 106
thong 106
y6pro2019 106
yeezy 106
00mah 105
106 105
9.@@ 105
aaa 105
absorber 105
ami 105
bale 105
book@@ 105
castle 105
chuck 105
compartment 105
discount 105
dw 105
euc 105
fender 105
fri@@ 105
goo@@ 105
herbs 105
in-@@ 105
levis 105
lia 105
network 105
petite 105
pi 105
pj 105
protein 105
pt 105
seasoning 105
sel@@ 105
seven 105
stent 105
thi@@ 105
wave125 105
zoo 105
230 104
2g 104
8oz 104
aidelai 104
ani 104
buttoned 104
case@@ 104
collapsible 104
coverage 104
er-@@ 104
espadrille 104
excellent 104
fc 104
flag 104
flour 104
freeship 104
friend 104
growth 104
holika 104
hooks 104
laminating 104
love@@ 104
mazda 104
ms-@@ 104
mugs 104
note8 104
precision 104
py@@ 104
r1 104
ram@@ 104
rejuv 104
removable 104
tg 104
tips 104
united 104
ur 104
whip 104
-40 103
000mah 103
9t 103
ale@@ 103
arden 103
bang 103
bn@@ 103
ders 103
df 103
dw@@ 103
e.@@ 103
final 103
gps 103
joe 103
loafer 103
m.@@ 103
mai@@ 103
md 103
micromatic 103
puritan 103
rm 103
sed 103
sharp 103
sion 103
starry 103
sur@@ 103
touchscreen 103
vitamins 103
y91i 103
₱ 103
220v 102
a2 102
abc 102
amethyst 102
ann 102
ations 102
beyblade 102
bob 102
bor@@ 102
c. 102
calcium 102
cd@@ 102
citronella 102
detail 102
earing 102
european 102
flask 102
gem 102
goddess 102
ink@@ 102
jin@@ 102
lancome 102
lippie 102
local 102
longback 102
mass 102
mothercare 102
mt 102
pearls 102
ping 102
pit@@ 102
pper 102
que 102
show 102
sing 102
stanley 102
stix 102
t1 102
tm@@ 102
trunk 102
turbo 102
two-piece 102
uni 102
value 102
yan 102
yu 102
108 101
49@@ 101
4oz 101
79@@ 101
89@@ 101
a-line 101
all-@@ 101
athletic 101
belly 101
bn 101
brazilian 101
cel@@ 101
cer 101
count 101
cpu 101
crafts 101
dota 101
ent 101
gam@@ 101
grace 101
hershey 101
hotwheels 101
keeper 101
lenses 101
m. 101
nu 101
pillows 101
pul@@ 101
pur@@ 101
rain@@ 101
rj 101
runner 101
shui 101
superhero 101
sync 101
tac@@ 101
tec 101
tiktok 101
tulle 101
xx@@ 101
280 100
8in1 100
a. 100
anklet 100
ates 100
bandana 100
beast 100
buy1 100
clover 100
dd 100
huarache 100
ipanema 100
joy@@ 100
keep 100
keys 100
kyowa 100
mol@@ 100
oral 100
p1 100
polymer 100
postcard 100
rocker 100
secrets 100
shir@@ 100
smok 100
stress 100
tingi 100
vault 100
yes 100
02@@ 99
03@@ 99
140@@ 99
3000 99
4.0 99
6mm 99
bf 99
booties 99
cannon 99
colourette 99
decorations 99
dor@@ 99
effective 99
evo 99
fully 99
gladiator 99
handkerchief 99
hb 99
hipster 99
kasoy 99
macaron 99
mystery 99
nia 99
originals 99
peeler 99
purposes 99
sta 99
ton@@ 99
un 99
118 98
2-way 98
201 98
320 98
3mm 98
550 98
ace@@ 98
backpacks 98
body@@ 98
circular 98
damage 98
derm 98
emulsion 98
esprit 98
ever@@ 98
far@@ 98
felt 98
firming 98
gasket 98
giordano 98
glittery 98
hon@@ 98
ines 98
ji 98
joker 98
katerina 98
lightening 98
lover 98
non-stick 98
nutrition 98
ok@@ 98
olivia 98
out@@ 98
pencils 98
poreless 98
rac@@ 98
safari 98
squeeze 98
techniques 98
tick 98
tion 98
ut 98
wat@@ 98
will 98
wrinkle 98
009 97
11-@@ 97
16-@@ 97
5x 97
7ml 97
9g 97
abaca 97
aura 97
bc 97
bk 97
bp@@ 97
cameras 97
dip 97
gg 97
give 97
incense 97
jojo 97
k1 97
kong 97
laguna 97
le-@@ 97
low@@ 97
minion 97
ot 97
picks 97
propolis 97
quad 97
revlon 97
rim 97
sig@@ 97
spider-man 97
takara 97
tap 97
thomas 97
topsider 97
twinkle 97
whistle 97
-free 96
09@@ 96
175 96
188 96
6-12 96
alo@@ 96
ane@@ 96
bentonite 96
birth 96
bite 96
brick 96
bride 96
bun@@ 96
champagne 96
chocolates 96
crayon 96
creations 96
curved 96
dashboard 96
engineering 96
eos 96
expert 96
feeder 96
fiction 96
fountain 96
gn@@ 96
gum 96
hyper 96
iu 96
ivory 96
jean 96
laced 96
lines 96
lux 96
magenta 96
many 96
martin 96
materials 96
modular 96
mx 96
ora 96
panther 96
rat 96
sushi 96
trap 96
tz 96
vapor 96
vary 96
vaseline 96
whi@@ 96
width 96
wit@@ 96
08@@ 95
113 95
12m 95
1g 95
4ml 95
alex 95
alma 95
apron 95
avail 95
bookmark 95
buttondown 95
cadbury 95
crocodile 95
dai@@ 95
deli@@ 95
ela 95
fishing 95
giorgio 95
grain 95
have 95
headbands 95
hifi 95
laminated 95
lar 95
lootbag 95
multi-functional 95
multivitamins 95
nel 95
pikachu 95
samsonite 95
sante 95
she 95
stories 95
tracker 95
tri-color 95
utility 95
111 94
16oz 94
360@@ 94
41-45 94
600ml 94
af@@ 94
allen 94
amulet 94
amy 94
atomizer 94
beaute 94
cereal 94
china 94
ching 94
comp@@ 94
dro@@ 94
eyelet 94
ft@@ 94
fury 94
g1 94
hen@@ 94
his 94
hydro 94
j5prime 94
jumpshorts 94
kt 94
l.@@ 94
lp 94
pages 94
pond 94
r.@@ 94
recorder 94
romance 94
rose@@ 94
shop@@ 94
shoulders 94
sj@@ 94
skydrive 94
sm-@@ 94
speakers 94
tru@@ 94
turquoise 94
worth 94
y67v5s 94
zen 94
00 93
60cm 93
aesthetic 93
alkaline 93
amore 93
approved 93
aw@@ 93
b.@@ 93
ban 93
basics 93
bit@@ 93
caliper 93
candies 93
casing 93
chan@@ 93
cit@@ 93
collared 93
cone 93
cortez 93
credit 93
dad 93
disruptor 93
diva 93
ee 93
fol@@ 93
g.@@ 93
glittered 93
groceries 93
hawaiian 93
ideal 93
infinix 93
intelligent 93
lean 93
lost 93
mighty 93
mirage 93
ner 93
prin@@ 93
r9 93
ranger 93
recipe 93
rock@@ 93
s7@@ 93
save 93
sle@@ 93
standee 93
sword 93
tomy 93
torch 93
ultrasonic 93
vie 93
x4 93
x5@@ 93
128 92
1ml 92
1s 92
59@@ 92
adi@@ 92
andrea 92
australia 92
babe 92
cnc 92
dining 92
eat 92
faded 92
flight 92
fluffy 92
fubu 92
got 92
gp@@ 92
gummy 92
i.@@ 92
invoice 92
jj@@ 92
light@@ 92
mel@@ 92
mocha 92
mod 92
navarro 92
organix 92
pg 92
pr 92
pt@@ 92
pumps 92
purifying 92
rio 92
saem 92
spencer 92
starwars 92
subwoofer 92
suitcase 92
talkie 92
tomica 92
tri 92
weighing 92
ye 92
0-3 91
04@@ 91
14-@@ 91
2008 91
3-4 91
60g 91
73@@ 91
academia 91
anti-spy 91
bathing 91
bnwt 91
clarifying 91
cover@@ 91
crush 91
d3 91
dustbag 91
eng@@ 91
flu@@ 91
gauge 91
goku 91
hdd 91
heist 91
ht@@ 91
irving 91
kes 91
kie 91
lacey 91
mamba 91
matcha 91
mhz 91
mimi 91
need 91
neo5 91
neutrogena 91
oni@@ 91
petal 91
philippine 91
pls 91
poly@@ 91
ppe 91
quicksand 91
robe 91
ron 91
study 91
take1 91
tummy 91
xi 91
y62 91
127 90
190 90
190@@ 90
5cm 90
888 90
aw 90
bilena 90
birthstone 90
bremod 90
cer@@ 90
cin@@ 90
ct100 90
davidoff 90
deco 90
dies 90
dubai 90
effects 90
eni@@ 90
ero 90
ga-@@ 90
gram 90
hats 90
kenneth 90
lifting 90
list 90
ments 90
metro 90
mousepad 90
muffler 90
next 90
pap@@ 90
passion 90
patent 90
pear 90
penis 90
rai@@ 90
sequins 90
shaker 90
soy 90
tell 90
tolsen 90
tuff 90
vel@@ 90
white@@ 90
125@@ 89
2010 89
212 89
agate 89
airplane 89
alive 89
art@@ 89
artist 89
axle 89
beard 89
burn 89
cee 89
cheap 89
colgate 89
couples 89
cru@@ 89
curling 89
dainty 89
emerald 89
engagement 89
fern 89
freeshipping 89
fridge 89
frog 89
givenchy 89
live@@ 89
lle 89
logitech 89
one-piece 89
pad@@ 89
poly 89
premiere 89
reborn 89
reebok 89
riding 89
sarah 89
stabilizer 89
sunday 89
sunglass 89
supplier 89
surface 89
swaddle 89
swim@@ 89
tales 89
ther@@ 89
toiletry 89
who 89
wow 89
10.@@ 88
25cm 88
5000 88
50mm 88
a8@@ 88
ao 88
balancing 88
beetle 88
bundles 88
change 88
cmx@@ 88
corporate 88
cubic 88
dashcam 88
early 88
ering 88
gin@@ 88
hairpin 88
heeled 88
hilux 88
hoody 88
iphone5 88
j510 88
kai@@ 88
lipbalm 88
lubricant 88
lululemon 88
message 88
onion 88
patrick 88
persona 88
phi@@ 88
pioneer 88
psp 88
pure@@ 88
realme3 88
roses 88
rotary 88
short@@ 88
slots 88
spf30 88
studs 88
surplus 88
tu 88
twinning 88
workout 88
104 87
1200 87
650 87
arti@@ 87
bought 87
brilliance 87
cider 87
clu@@ 87
dji 87
garcinia 87
greetings 87
grooming 87
gy 87
hongkong 87
ideapad 87
induction 87
kon@@ 87
lang 87
loo@@ 87
moringa 87
msi 87
mur@@ 87
onitsuka 87
pic 87
piping 87
puregold 87
record 87
samurai 87
sie 87
sub@@ 87
tab@@ 87
ung 87
voice 87
yam@@ 87
-6@@ 86
199 86
3-piece 86
30m 86
63@@ 86
6m 86
880@@ 86
9.7 86
banila 86
bg@@ 86
boy@@ 86
bs@@ 86
buddha 86
butt 86
coinpurse 86
crayola 86
dancing 86
del 86
ez 86
flora 86
foot@@ 86
ghost 86
handbags 86
hex 86
ikon 86
ite@@ 86
jmaxx 86
kick 86
lacquer 86
let@@ 86
liners 86
matic 86
mattel 86
mes 86
mid@@ 86
mse 86
multiple 86
nest 86
o-@@ 86
pb 86
pliage 86
raglan 86
rastaclat 86
rl 86
salted 86
sephora 86
shoppe 86
shortsleeve 86
skool 86
sleek 86
spell 86
spf@@ 86
sta@@ 86
stra@@ 86
stray 86
tankini 86
temperature 86
vol@@ 86
x6 86
yards 86
zy 86
107 85
18650 85
303 85
4.5 85
9a 85
arctic 85
are@@ 85
beanie 85
ben 85
bin 85
bosny 85
cl-@@ 85
crissa 85
dia 85
fd 85
fire@@ 85
fries 85
furniture 85
gorgeous 85
infinite 85
katespade 85
lava 85
meal 85
mn@@ 85
monokini 85
mounted 85
nars 85
oreo 85
paper@@ 85
perfecting 85
pia 85
pliers 85
roll-on 85
rolls 85
rotate 85
salmon 85
senior 85
slightly 85
spacer 85
succulent 85
sunset 85
tai 85
tapes 85
tommee 85
tta 85
v2s 85
vip 85
wall@@ 85
workbook 85
xrm110 85
yasen 85
yl 85
yoobao 85
118@@ 84
16inches 84
270@@ 84
2x@@ 84
80ml 84
a750 84
bedsheets 84
chen 84
chopping 84
company 84
cycle 84
dotted 84
eve 84
expandable 84
ferragamo 84
ght 84
gtx 84
he 84
hydration 84
kor@@ 84
len 84
lipgloss 84
liveselling 84
mcqueen 84
meet 84
ms.@@ 84
nan@@ 84
ola 84
one-@@ 84
organi@@ 84
p.@@ 84
pang 84
pl 84
sar@@ 84
seen 84
self-@@ 84
soft@@ 84
superbreak 84
tabs 84
tippee 84
tm 84
trans@@ 84
trd 84
vampire 84
wang 84
y5@@ 84
z-@@ 84
112 83
20-@@ 83
2009 83
2m 83
31@@ 83
3mg 83
4mm 83
5x@@ 83
a92020 83
animation 83
anti-slip 83
app@@ 83
bronzer 83
celine 83
concentrated 83
demon 83
downy 83
ea 83
ell 83
fit@@ 83
flat@@ 83
freebie 83
gmate 83
gold@@ 83
hands 83
hop 83
iphone7 83
jh@@ 83
jump@@ 83
k20 83
kikay 83
math 83
mga 83
mittens 83
nb 83
nor@@ 83
ot@@ 83
person 83
poncho 83
s-l 83
scallop 83
seaweed 83
sg 83
soil 83
splitter 83
spo@@ 83
stabilo 83
today 83
town 83
undies 83
vegan 83
xtreme 83
yn@@ 83
3l 82
ak 82
aki 82
alvin 82
brushed 82
cen@@ 82
chassis 82
colo@@ 82
concert 82
eco@@ 82
extended 82
fa 82
find 82
group 82
hamster 82
hbw 82
j. 82
joint 82
kabuki 82
keychains 82
lancer 82
microwave 82
minis 82
mixes 82
noise 82
noodle 82
ona 82
phoenix 82
r17pro 82
range 82
relay 82
rer 82
s5@@ 82
say 82
scissor 82
sealer 82
set@@ 82
shutter 82
slider 82
std 82
t3 82
victorias 82
walkie 82
wl@@ 82
xy 82
'am 81
06@@ 81
165 81
2005 81
205 81
240@@ 81
ade 81
ae 81
ama 81
arrivals 81
astro 81
badminton 81
bargain 81
bir@@ 81
bm@@ 81
box@@ 81
brows 81
bulk 81
canister 81
chalk 81
chamomile 81
chill 81
collector 81
crisscross 81
day@@ 81
dew 81
duster 81
elmo 81
estee 81
full@@ 81
garnier 81
gummies 81
hight 81
kas@@ 81
kb@@ 81
liz 81
lovers 81
magnesium 81
mf@@ 81
minifigures 81
moto 81
note9 81
obsession 81
paco 81
planet 81
processor 81
radiance 81
roxy 81
rs@@ 81
runway 81
sen 81
stamping 81
stranger 81
sutla 81
tights 81
tooth 81
tou@@ 81
traveling 81
vibe 81
wealth 81
y7pro 81
12ml 80
12oz 80
17-@@ 80
2.5@@ 80
2000@@ 80
260@@ 80
330@@ 80
365 80
4th 80
555 80
abercrombie 80
amd 80
apex 80
ari 80
artifact 80
avocado 80
blessed 80
blind 80
blueberry 80
bows 80
bradshaw 80
certified 80
collectibles 80
crayons 80
frying 80
gemstone 80
glossier 80
grapeseed 80
ham@@ 80
ho 80
housing 80
i5 80
ino@@ 80
j.@@ 80
j82018 80
keypad 80
las 80
mats 80
mix@@ 80
moana 80
negative 80
octopus 80
packed 80
pha 80
pigeon 80
ponds 80
rugged 80
scen@@ 80
sebum 80
service 80
silver@@ 80
small-medium 80
strainer 80
tos 80
try 80
vibrating 80
vo 80
xx 80
yang 80
yogurt 80
aj@@ 79
alva 79
bedding 79
beyond 79
blemish 79
boom 79
breeze 79
c0@@ 79
chicco 79
construction 79
dm@@ 79
dol@@ 79
eh@@ 79
electrical 79
elujai 79
fra@@ 79
fruity 79
gas@@ 79
gelpen 79
hikvision 79
if 79
in-1 79
jr 79
june 79
lauder 79
lucas 79
mill 79
neo@@ 79
night@@ 79
paperbag 79
perfection 79
picnic 79
pol@@ 79
pop@@ 79
prepacked 79
punk 79
rebranding 79
s0@@ 79
sale@@ 79
sour 79
terry 79
tf@@ 79
than 79
thank 79
three-@@ 79
tra 79
tte 79
tylex 79
uc 79
ultra-thin 79
ups 79
windows 79
word 79
40mm 78
50-@@ 78
aero 78
aj 78
alexa 78
angels 78
b2 78
battle 78
blanc 78
cape 78
cl 78
claw 78
d0@@ 78
fee 78
fla@@ 78
gadget 78
gat@@ 78
glas@@ 78
hard@@ 78
height 78
isa 78
k0@@ 78
l-glutathione 78
l. 78
mam@@ 78
measure 78
medi@@ 78
mind 78
ottogi 78
pomegranate 78
pumpkin 78
ran@@ 78
rapid 78
raspberry 78
rolling 78
rouser 78
self-adhesive 78
smiley 78
spyder 78
ster@@ 78
tex 78
textured 78
tle 78
towels 78
tp-link 78
trilogy 78
volts 78
vy 78
wafer 78
wan 78
wish 78
y.@@ 78
yr 78
-1@@ 77
-36 77
-7@@ 77
-up 77
12.@@ 77
2kg 77
2s 77
40pcs 77
750@@ 77
a-2@@ 77
airbag 77
asia 77
bac@@ 77
barong 77
bathrobe 77
berries 77
best@@ 77
bong 77
bp 77
cob 77
criss 77
cubes 77
dal@@ 77
dc@@ 77
dreams 77
droplets 77
duffle 77
eg@@ 77
ekel 77
element 77
eng 77
es-@@ 77
flyball 77
gms 77
golf 77
highcut 77
hill 77
hotpot 77
i7 77
im 77
incanto 77
inhaler 77
l-xl 77
lane 77
lic 77
lithium 77
malunggay 77
matching 77
mylar 77
od@@ 77
odor 77
orders 77
p20lite 77
paddle 77
paradise 77
pho@@ 77
pig@@ 77
pubg 77
puncher 77
rca 77
refreshing 77
rosehip 77
row 77
sell 77
sons 77
sterilizer 77
tc 77
throttle 77
travelling 77
twin@@ 77
two-way 77
union 77
unisilver 77
various 77
whipp 77
....... 76
........ 76
100m 76
2ml 76
3-ply 76
35ml 76
5w 76
7s 76
above 76
ain 76
airy 76
ala@@ 76
ava 76
batik 76
benetton 76
bibs 76
bites 76
bu 76
carolina 76
check@@ 76
cia 76
cq@@ 76
creed 76
dent 76
dhc 76
eclat 76
ev@@ 76
flavors 76
football 76
fuchsia 76
gf 76
halo 76
heart@@ 76
hijab 76
hp@@ 76
injoy 76
jen@@ 76
marian 76
mei 76
ming 76
mir@@ 76
musk 76
normal 76
radiant 76
receipt 76
rilakkuma 76
ruler 76
safeguard 76
shing 76
sin 76
squ@@ 76
stretchy 76
suitable 76
swimsuits 76
sz 76
velcro 76
wigo 76
wn@@ 76
x12 76
1200@@ 75
168@@ 75
18m 75
208 75
280@@ 75
6x@@ 75
advantage 75
alphabounce 75
ase 75
asstd 75
barbecue 75
benedict 75
bon 75
bull 75
cab@@ 75
cambogia 75
cher 75
cod@@ 75
corolla 75
court 75
cra@@ 75
dal 75
ddr4 75
dex 75
dge 75
doom 75
els 75
enhanced 75
filipino 75
footrest 75
fran@@ 75
good@@ 75
hardcase 75
hnj 75
hoops 75
j7@@ 75
kal@@ 75
km 75
mart 75
mixing 75
neck@@ 75
nerf 75
ory 75
pancake 75
passenger 75
playset 75
purederm 75
rattle 75
rg 75
steps 75
stool 75
tuna 75
x18 75
y93 75
zaxy 75
-3 74
07@@ 74
1-3@@ 74
10400mah 74
12pairs 74
21k 74
5th 74
7.5 74
720 74
83@@ 74
anda 74
becca 74
blonde 74
bust 74
combat 74
crispy 74
deadpool 74
decant 74
dual-@@ 74
duyan 74
fb 74
field 74
fortune 74
game@@ 74
gie 74
glowing 74
gravity 74
griller 74
hg@@ 74
hiace 74
honeycomb 74
ie 74
iring 74
issue 74
lb@@ 74
lies 74
medicated 74
mh@@ 74
mi9 74
micellar 74
missy 74
mon 74
note5 74
oi@@ 74
om@@ 74
on-@@ 74
origin 74
pcs.@@ 74
pirate 74
polarized 74
pouches 74
ppy 74
prote@@ 74
saddle 74
salvatore 74
scarlet 74
shifter 74
sketch 74
stockings 74
tap@@ 74
tender 74
text 74
timer 74
ukulele 74
ura 74
vic 74
vietnam 74
virus 74
xoxo 74
10.5 73
10a 73
330 73
always 73
arc 73
bandeau 73
bebe 73
bits 73
bounce 73
canada 73
celina 73
compressor 73
conditioning 73
db 73
eb 73
ebook 73
eternity 73
fac@@ 73
fillers 73
flop 73
flush 73
fr 73
frames 73
gpp 73
gw@@ 73
hammock 73
hope 73
j7core 73
jug 73
kits 73
latte 73
lp@@ 73
mani@@ 73
moon@@ 73
moto@@ 73
multicolored 73
nar@@ 73
needle 73
optimum 73
oria 73
pal 73
pill 73
pocketbac 73
powdery 73
r. 73
r3 73
rat@@ 73
rcb 73
rit@@ 73
shapes 73
song 73
spare 73
ssy 73
stein 73
stirring 73
tr 73
tresemme 73
trigger 73
ts-@@ 73
twi@@ 73
uratex 73
variant 73
vase 73
wu 73
-10@@ 72
10x 72
117 72
15.6 72
2l 72
ant@@ 72
avanza 72
babydoll 72
baked 72
belo 72
camo 72
ched 72
cou@@ 72
cs-@@ 72
curly 72
dan 72
das 72
daster 72
delicious 72
ena 72
f3plus 72
flannel 72
ful@@ 72
functional 72
gd 72
giraffe 72
goat 72
goods 72
gue 72
gymboree 72
imd 72
iti@@ 72
jackson 72
jj 72
keyring 72
laura 72
lay 72
lead 72
litter 72
media 72
non@@ 72
overnight 72
pacific 72
react 72
rosy 72
scarlett 72
scoopback 72
ser 72
sr 72
st-@@ 72
tale 72
twilly 72
ved 72
vs@@ 72
washed 72
wl 72
wwe 72
y6@@ 72
zo 72
zzy 72
01@@ 71
1.5@@ 71
112@@ 71
2.1 71
230@@ 71
301 71
5l 71
601 71
65ml 71
680@@ 71
70ml 71
a52020 71
amazon 71
ary 71
axe 71
birds 71
biscuits 71
bliss 71
boot 71
boxed 71
build 71
built 71
bus 71
butter@@ 71
canin 71
chronicles 71
cigarette 71
com 71
crime 71
ctive 71
disco 71
domino 71
dora 71
drainer 71
e-buy 71
ec@@ 71
elegance 71
enamel 71
everything 71
fenty 71
g. 71
gp 71
gu 71
id@@ 71
iphone11pro 71
jewel 71
jollibee 71
knob 71
lai 71
lm 71
lord 71
merah 71
milani 71
mnl 71
nation 71
non-woven 71
opti@@ 71
ov@@ 71
pitcher 71
powerful 71
rate 71
realmec2 71
ree 71
renewal 71
revitalizing 71
sales 71
same 71
sassy 71
scout 71
skateboard 71
ski@@ 71
sof@@ 71
standing 71
steve 71
stopper 71
strike 71
students 71
tina 71
torque 71
und@@ 71
varicose 71
variety 71
words 71
x-men 71
y9prime 71
-- 70
-24 70
-h@@ 70
-on 70
109 70
1kilo 70
320@@ 70
8ml 70
a510 70
ach@@ 70
act 70
anal 70
anthony 70
aoa 70
au 70
bao 70
barrel 70
betty 70
bh 70
blades 70
bodybag 70
bulls 70
coaster 70
couch 70
death 70
digitizer 70
dongle 70
filled 70
flip-flops 70
gab@@ 70
gh 70
gol@@ 70
gon 70
hoyoma 70
ideas 70
iz 70
jungle 70
kn@@ 70
koko 70
m5 70
mel 70
nb@@ 70
nina 70
no.1 70
pantene 70
pet@@ 70
pinkish 70
rearview 70
rookie 70
sco@@ 70
sealant 70
shelves 70
sor@@ 70
sounds 70
source 70
speed@@ 70
sq@@ 70
stand@@ 70
strings 70
tmx155 70
to-@@ 70
tor 70
totoro 70
where 70
wi-fi 70
windshield 70
xmas 70
1.8@@ 69
10s 69
185 69
2007 69
24m 69
3gb 69
62@@ 69
70cm 69
84 69
999 69
aero@@ 69
arms 69
aro@@ 69
atm 69
ballerina 69
bose 69
cac@@ 69
cock 69
cola 69
cp@@ 69
damier 69
dressing 69
dx 69
ei@@ 69
erasable 69
fate 69
fil@@ 69
floating 69
foodaholic 69
g5 69
gel@@ 69
gifo 69
givi 69
glove 69
happy@@ 69
highwaisted 69
hk@@ 69
iced 69
infants 69
j2@@ 69
jumpsuits 69
k. 69
laptops 69
lotte 69
mangosteen 69
michaela 69
million 69
motherboard 69
mvp 69
n0@@ 69
om 69
oneplus 69
outer 69
page 69
polkadots 69
popcorn 69
potty 69
roast 69
rpm 69
rr 69
sack 69
scott 69
sel 69
sequin 69
shor@@ 69
short-sleeved 69
siwa 69
spag 69
stain@@ 69
sunrise 69
telescopic 69
tine 69
ttgr 69
types 69
ultra@@ 69
wedges 69
when 69
why 69
wise 69
yumi 69
zz 69
2mm 68
500gb 68
8a 68
a6@@ 68
accesories 68
alien 68
ardeur 68
ative 68
bea@@ 68
below 68
benassi 68
carrot 68
chan 68
cinnamon 68
crunch 68
cul@@ 68
cuyi 68
darling 68
detector 68
dg@@ 68
din 68
dl@@ 68
dutch 68
ep@@ 68
ess 68
ethernet 68
fied 68
gal 68
gd@@ 68
general 68
glory 68
gold-plated 68
graded 68
gy@@ 68
harden 68
hat@@ 68
imarflex 68
individual 68
insulation 68
ipod 68
law 68
lemonade 68
lli@@ 68
mad 68
mar 68
orchid 68
petals 68
philip 68
photobook 68
ple@@ 68
posters 68
rabanne 68
riordan 68
ron@@ 68
sg@@ 68
sleev@@ 68
slique 68
sperry 68
spirulina 68
spor@@ 68
tableware 68
tak@@ 68
technology 68
tight 68
treat 68
uhf 68
v17pro 68
waistline 68
wrapped 68
y7pro2019 68
yves 68
zi 68
″ 68
-02 67
0-6 67
1.8 67
100grams 67
12mm 67
13-@@ 67
133 67
16g 67
2006 67
305 67
310 67
340g 67
355 67
a51 67
acqua 67
almonds 67
anti-glare 67
anti-radiation 67
apricot 67
ath@@ 67
band@@ 67
bby 67
bk@@ 67
both 67
bv@@ 67
bw@@ 67
cabin 67
ch-@@ 67
challenge 67
chin 67
chro@@ 67
classics 67
crystals 67
dawn 67
ddr3 67
dinner 67
dslr 67
ec 67
ek@@ 67
est 67
ez@@ 67
fans 67
figurine 67
flea 67
foo@@ 67
gerber 67
gli@@ 67
guyabano 67
hai@@ 67
herrera 67
highlight 67
hilton 67
hm 67
howru 67
image 67
jp@@ 67
kam@@ 67
ligh@@ 67
meow 67
moments 67
national 67
ney 67
notepad 67
o.@@ 67
off@@ 67
parker 67
pastry 67
patterned 67
pd 67
pods 67
pra@@ 67
ribbons 67
rou@@ 67
s6@@ 67
shin 67
tear 67
wonders 67
x5 67
116 66
225@@ 66
3.1 66
302 66
5kg 66
aegis 66
albums 66
alia 66
allure 66
ascorbic 66
baller 66
breastmilk 66
cg@@ 66
check-out 66
chee@@ 66
chopsticks 66
cj@@ 66
coco@@ 66
colourtint 66
ctor 66
curve 66
ely 66
fal@@ 66
freedom 66
gigabyte 66
gio 66
gudetama 66
gui@@ 66
harley 66
how.r.u 66
input 66
ju 66
katy 66
kno@@ 66
ks@@ 66
kw 66
lay@@ 66
leg@@ 66
lollipop 66
madam 66
main 66
mn 66
moschino 66
pea 66
plas@@ 66
plat@@ 66
powe 66
press@@ 66
qi@@ 66
roman 66
rtw 66
scanner 66
shock@@ 66
soccer 66
soldering 66
soldier 66
sound@@ 66
tial 66
tti 66
vice 66
winner 66
women@@ 66
-8@@ 65
119 65
11promax 65
121 65
122 65
202 65
203 65
60w 65
801 65
808 65
all@@ 65
antique 65
antiskid 65
avenue 65
bear@@ 65
blends 65
bottoms 65
broken 65
buah 65
claire 65
crusher 65
culottes 65
dawning 65
decorating 65
desire 65
dv 65
eiffel 65
ens 65
fda 65
gan 65
gan@@ 65
gc 65
gigabit 65
hoo@@ 65
inspirational 65
iphone@@ 65
ire 65
kaws 65
kitten 65
kk@@ 65
land@@ 65
lb 65
m0@@ 65
magnets 65
mand@@ 65
monopoly 65
nic 65
note3 65
nworld 65
openline 65
ounce 65
qi 65
quick@@ 65
refillable 65
reli@@ 65
rh@@ 65
ring@@ 65
sai@@ 65
samantha 65
select 65
su 65
t0@@ 65
tang@@ 65
tas 65
tit@@ 65
treasure 65
tricolor 65
tw 65
valentines 65
vi 65
waffle 65
wind@@ 65
wristband 65
-28 64
1.5l 64
222 64
380 64
502 64
668 64
6t 64
a710 64
a92018 64
athena 64
ato 64
baseus 64
ber 64
bowknot 64
boxing 64
bro 64
bt-@@ 64
bum 64
burger 64
camisole 64
challis 64
cheapest 64
cullotes 64
cyan 64
drip 64
exhaust 64
ey 64
favors 64
glamour 64
gowoori 64
hairband 64
hand-@@ 64
hazelnut 64
heritage 64
horizontal 64
hyper@@ 64
internal 64
jenny 64
lr@@ 64
lus 64
mach@@ 64
mj@@ 64
most 64
mould 64
n.@@ 64
nationwide 64
necklaces 64
ob@@ 64
pest 64
peter 64
phantom 64
powerhouse 64
prima 64
q-@@ 64
rd 64
realme5 64
resistance 64
ri 64
ringke 64
sey 64
shel@@ 64
side@@ 64
stackable 64
sugar@@ 64
talk 64
tch 64
telephone 64
thailook 64
timeless 64
ving 64
water-@@ 64
winder 64
xy@@ 64
ziplock 64
zirconia 64
0.5 63
2-piece 63
2021 63
225 63
236 63
2usb 63
428@@ 63
512gb 63
650@@ 63
7.0 63
aa@@ 63
ack@@ 63
aim 63
audrey 63
aya 63
ballpoint 63
batwing 63
bill 63
bla@@ 63
blackberry 63
blur 63
camel 63
cara 63
casa 63
century 63
childrens 63
circuit 63
clean@@ 63
clear@@ 63
computers 63
cour@@ 63
diameter 63
dunk 63
far 63
favorite 63
flame 63
flash@@ 63
g2 63
gorilla 63
handsfree 63
headlamp 63
hr@@ 63
imports 63
inspiron 63
irish 63
jun@@ 63
kamiseta 63
kids@@ 63
ladie 63
lanvin 63
mus@@ 63
ners 63
overuns 63
palda 63
pavilion 63
pla@@ 63
present 63
redmi@@ 63
repellant 63
rf 63
rimmel 63
salad 63
sco 63
selena 63
shapers 63
shin@@ 63
softgel 63
sts 63
survival 63
thing 63
tilbury 63
trade 63
unbranded 63
vers@@ 63
vet 63
wan@@ 63
work@@ 63
y6s 63
zr 63
-38 62
1.6 62
100s 62
138 62
15cm 62
180cm 62
2.4ghz 62
201804@@ 62
20v 62
30mm 62
3c 62
510 62
a4tech 62
airforce 62
ashi 62
asics 62
ato@@ 62
aviator 62
awesome 62
bc@@ 62
bendix 62
bou@@ 62
brooklyn 62
cell@@ 62
citrine 62
clippers 62
cod-@@ 62
crunchy 62
dream@@ 62
eas@@ 62
exp 62
fix@@ 62
german 62
headdress 62
holy 62
hour 62
hug 62
into 62
j2core 62
jet@@ 62
jolly 62
lette 62
lov@@ 62
lovecorner 62
medela 62
nebulizer 62
nescafe 62
nighties 62
orig@@ 62
peep 62
pes 62
phr 62
prizm 62
r9s 62
recollections 62
ric 62
rotor 62
sabrina 62
seagate 62
seoul 62
serving 62
sher@@ 62
sir 62
sit@@ 62
sniper150 62
soaplada 62
soen 62
spe@@ 62
squad 62
start 62
stella 62
straws 62
suits 62
tp 62
ukay-ukay 62
university 62
veggie 62
ven 62
√ 62
'pieu 61
-05 61
-32 61
1500 61
15pcs 61
2002 61
235@@ 61
2mp 61
380@@ 61
3x 61
550@@ 61
850 61
8x 61
9m 61
a520 61
all-in-one 61
ally 61
ass 61
attack 61
az 61
banderitas 61
bin@@ 61
brallete 61
cans 61
cardigans 61
carrying 61
cho 61
clar@@ 61
cti@@ 61
devil 61
dino 61
ef@@ 61
eq 61
fade 61
fear 61
fly@@ 61
garterize 61
gate 61
grendha 61
h0@@ 61
heaven 61
hin@@ 61
j210 61
j530 61
jessica 61
k5 61
kissproof 61
kl@@ 61
kur@@ 61
lers 61
lighten 61
lighter 61
lt 61
mag 61
mann 61
motocross 61
og 61
oid 61
oversize 61
pak 61
phy@@ 61
pixie 61
plane 61
poccophone 61
rin@@ 61
rog 61
s10e 61
sab@@ 61
sandwich 61
semi@@ 61
singapore 61
soak 61
ssi@@ 61
stradivarius 61
swi@@ 61
trucker 61
vt 61
wacoal 61
weave 61
whiteboard 61
xl@@ 61
y83 61
're 60
013 60
10in1 60
10meters 60
15w 60
18inch 60
3-5 60
4-in-1 60
4pc 60
4xl 60
805 60
901 60
age@@ 60
angeles 60
bang@@ 60
basin 60
biker 60
bookmarks 60
boro 60
cg 60
chase 60
chewable 60
copier 60
culture 60
dissipation 60
dou@@ 60
dtv 60
enjoy 60
envy 60
euro@@ 60
fj@@ 60
fringe 60
frost 60
ginseng 60
goody 60
herbalife 60
igprints 60
inc 60
inst@@ 60
int 60
janoski 60
jp 60
kind 60
laserjet 60
lavander 60
lou@@ 60
lv@@ 60
mansi 60
masking 60
matrix 60
member 60
minecraft 60
models 60
neckline 60
oilbased 60
ong@@ 60
org@@ 60
pamela 60
papaw 60
pax 60
pedigree 60
pocophone 60
pompom 60
ps2 60
q7 60
quest 60
racket 60
rebel 60
rel 60
resist 60
root 60
s7edge 60
selection 60
sense@@ 60
shu@@ 60
sia 60
skinpotions 60
slayer 60
tee@@ 60
tie@@ 60
tn@@ 60
tonic 60
tran@@ 60
tsu@@ 60
turn 60
twilight 60
ultraboost 60
ungrip 60
vc 60
way@@ 60
wisdom 60
x7 60
128@@ 59
12inches 59
15mm 59
19-@@ 59
1995 59
3-4@@ 59
4r 59
50cm 59
520 59
520@@ 59
6-9 59
8x@@ 59
a90 59
andy 59
ater 59
autofocus 59
baguio 59
ball@@ 59
bees 59
bubbles 59
coming 59
coo@@ 59
cross@@ 59
cutout 59
dio 59
doodle 59
dxn 59
eless 59
emb@@ 59
emma 59
ere 59
eucalyptus 59
every 59
explosion 59
flying 59
georgette 59
guava 59
gun@@ 59
hairclip 59
indoplas 59
ition 59
kentucky 59
kk 59
lace-up 59
ld@@ 59
learn 59
lisa 59
lowcut 59
maine 59
marketing 59
mars 59
maximum 59
mpo 59
mtp-@@ 59
mumuso 59
nappy 59
packing 59
peanuts 59
pm@@ 59
posted 59
reju@@ 59
rn 59
royu 59
sally 59
sara 59
scotch 59
skate 59
snow@@ 59
temptation 59
ther 59
tus 59
ula 59
uni-@@ 59
verdon 59
vitality 59
xo 59
y81i 59
zc@@ 59
zoo@@ 59
zy@@ 59
.5@@ 58
1-2@@ 58
129 58
12months 58
136@@ 58
2012-@@ 58
210@@ 58
25mm 58
3way 58
3x@@ 58
8.0 58
9pcs 58
a01 58
abi@@ 58
af 58
amino 58
angel@@ 58
ans@@ 58
any@@ 58
basil 58
beam 58
beau@@ 58
belted 58
bihaku 58
bot 58
brew 58
buddy 58
cation 58
cb 58
chicago 58
corrector 58
cos 58
cream@@ 58
earpods 58
ence 58
epoxy 58
ette 58
fab@@ 58
faceshield 58
fino 58
flare@@ 58
fresh@@ 58
fryer 58
furry 58
gadgets 58
genie 58
harem 58
hexagon 58
hydraulic 58
ian 58
illuminating 58
interior 58
ith 58
ivy 58
jason 58
jl@@ 58
jy@@ 58
kore@@ 58
lined 58
lj 58
lock@@ 58
ls@@ 58
markers 58
monthly 58
nadine 58
nasa 58
nk 58
ox 58
parka 58
pd@@ 58
peacock 58
ped 58
peri 58
pob 58
potion 58
q10 58
rib 58
rin 58
s8@@ 58
scar@@ 58
scion 58
singles 58
spatula 58
spirit 58
styler 58
suspension 58
sweety 58
talking 58
tel 58
tri-@@ 58
ture 58
ultra-@@ 58
whit@@ 58
wil@@ 58
y9prime2019 58
you@@ 58
za@@ 58
10l 57
10w 57
114 57
12s 57
2-4@@ 57
25-32 57
2in 57
35mm 57
3x3 57
41@@ 57
5i 57
6gb 57
70g 57
activewear 57
alada 57
amo@@ 57
aq@@ 57
ather 57
b. 57
baao 57
baptism 57
batteries 57
bea 57
beauche 57
bie 57
botton 57
bpa 57
breath 57
brownies 57
buster 57
cakes 57
caremask 57
cashmere 57
catherine 57
cing 57
cket 57
coats 57
college 57
crocheted 57
deals 57
dice 57
dock 57
dos 57
dp 57
elements 57
epsa 57
fantastic 57
flipflops 57
flo 57
fo 57
fuji 57
germany 57
goodquality 57
google 57
gx@@ 57
hairbow 57
hang 57
high-quality 57
im@@ 57
import 57
ion@@ 57
ira 57
itch 57
j120 57
kay@@ 57
kt@@ 57
laurent 57
ld 57
lets 57
lish 57
lit 57
ls2 57
mei@@ 57
melasma 57
merch 57
merchandise 57
minute 57
mizon 57
moss 57
mu 57
neverfull 57
nhk 57
notebooks 57
nozzle 57
oc 57
photography 57
prime@@ 57
resellers 57
rl-@@ 57
rotation 57
run@@ 57
sau@@ 57
scalp 57
shortsleeves 57
sides 57
silent 57
simulation 57
smartphones 57
smo@@ 57
speedometer 57
stufftoys 57
tassle 57
technomarine 57
temporary 57
tl-@@ 57
trifold 57
two-@@ 57
und 57
vanguard 57
vari@@ 57
vibrant 57
weather 57
zel 57
zer@@ 57
zippered 57
1-1 56
1x@@ 56
268 56
26cm 56
350g 56
6ml 56
7d 56
7yrs 56
800ml 56
93@@ 56
a9@@ 56
almost 56
amethyste 56
anth@@ 56
apollo 56
ayesha 56
bad@@ 56
bay@@ 56
bayong 56
beauty@@ 56
bic 56
blow 56
brand@@ 56
buffet 56
busha 56
capacitor 56
caviar 56
cebu 56
ceramics 56
clas@@ 56
cln 56
colle@@ 56
cotton@@ 56
counter 56
crank 56
cure 56
dark@@ 56
dca 56
desert 56
dirty 56
diving 56
dreamcatcher 56
durant 56
dustproof 56
electro@@ 56
ethnic 56
favor 56
fill 56
fs@@ 56
g3 56
garbage 56
gauze 56
h.@@ 56
heat@@ 56
hr 56
issey 56
jk 56
life@@ 56
lootbags 56
m2@@ 56
mas 56
mont 56
motorcycles 56
muji 56
nautica 56
neutral 56
nissin 56
note4 56
nt 56
orly 56
oz@@ 56
pay@@ 56
pine 56
placemat 56
posh 56
ppers 56
rda 56
receiving 56
reflector 56
rj45 56
russian 56
sdhc 56
seater 56
sequined 56
skid 56
slow 56
sph 56
stick@@ 56
suave 56
texture 56
til@@ 56
tile 56
too@@ 56
traveler 56
tumi 56
turmask 56
unofficial 56
unscented 56
voltage 56
warrior 56
was@@ 56
wee 56
xie 56
--@@ 55
011 55
10x@@ 55
13.3 55
130g 55
145 55
2-4 55
2-pc 55
2001 55
2003 55
209 55
30x@@ 55
32g 55
3ce 55
40cm 55
450ml 55
4l 55
6th 55
85g 55
a6plus 55
acb 55
aco 55
aff@@ 55
against 55
ander 55
annie 55
app 55
applicator 55
arizona 55
biore 55
bound 55
breed 55
carburetor 55
chelsea 55
closed 55
coins 55
confetti 55
costumes 55
covergirl 55
cranberry 55
crv 55
din@@ 55
dl 55
dun@@ 55
e. 55
e0@@ 55
edifice 55
emily 55
extensions 55
ferrero 55
frank 55
gil@@ 55
glam@@ 55
graphics 55
grocery 55
guy 55
hang@@ 55
hay@@ 55
history 55
htc 55
imperial 55
jacob 55
jon@@ 55
jt 55
kpads 55
kutkutin 55
labo 55
liniment 55
long-sleeved 55
lysol 55
m30 55
mandarin 55
mannequin 55
maru@@ 55
mis@@ 55
n95 55
nicholas 55
peace 55
peony 55
premier 55
racerback 55
real@@ 55
return 55
rho@@ 55
sagmit 55
samples 55
sealing 55
sembo 55
shaft 55
shines 55
sider 55
sisley 55
snacks 55
soap@@ 55
sophia 55
ste 55
sting 55
swatch 55
sz@@ 55
t2 55
tl 55
toned 55
tter 55
ul 55
uv@@ 55
vegetables 55
vir@@ 55
wear@@ 55
wellington 55
woo 55
wristwatch 55
y. 55
yoko 55
1.2 54
12w 54
149 54
200mm 54
200w 54
28cm 54
6000 54
902 54
agatha 54
alu@@ 54
blinds 54
bobbi 54
bolero 54
bowls 54
brow@@ 54
budget 54
calligraphy 54
chambray 54
cloth@@ 54
corduroy 54
cts 54
daddy 54
dietary 54
dolly 54
double-@@ 54
dragonball 54
dropper 54
ds-@@ 54
duffel 54
elixir 54
ets 54
famous 54
garfield 54
garland 54
gbb 54
ging 54
gtw 54
hell 54
hi-fi 54
inspire 54
intimate 54
jack@@ 54
jam@@ 54
koi 54
lense 54
lifter 54
lilac 54
low-@@ 54
mate20 54
met 54
momoland 54
mouthwash 54
mul@@ 54
mum 54
mun@@ 54
natura 54
ord@@ 54
p100 54
pac@@ 54
pai@@ 54
pit 54
playpen 54
pork 54
puri@@ 54
ria 54
ros 54
sapphire 54
sit 54
soluble 54
solutions 54
speaks 54
spoiler 54
sss 54
stationary 54
sweat@@ 54
sweetheart 54
tall 54
thermo@@ 54
tool@@ 54
trail 54
uf 54
use@@ 54
uva 54
vivid 54
want 54
wk 54
wonderland 54
-25 53
018 53
108@@ 53
1b 53
2015-@@ 53
3.75 53
30s 53
acetate 53
adorable 53
alberto 53
angelus 53
anti-fog 53
beatles 53
bodysuits 53
british 53
bys 53
candy@@ 53
cartoons 53
casserole 53
cayler 53
cle 53
clip-on 53
cn@@ 53
coating 53
colours 53
compass 53
concept 53
coun@@ 53
cruiser 53
dable 53
debut 53
destiny 53
distributor 53
dom 53
ek 53
enzo 53
erie 53
export 53
face@@ 53
fer 53
fertilizer 53
float 53
fru@@ 53
fry 53
geekvape 53
gus 53
hardware 53
i7s 53
imitation 53
inclusions 53
india 53
iphones 53
ipon 53
kilos 53
lunchbox 53
mathematics 53
megapro 53
melt 53
minimum 53
miu 53
mood 53
movies 53
moving 53
nas@@ 53
ned 53
nov@@ 53
ornament 53
ox@@ 53
porcelain 53
posture 53
rfid 53
robert 53
rough 53
s10@@ 53
sad@@ 53
scrap 53
sculpting 53
shar@@ 53
shining 53
sing@@ 53
sizzix 53
smartwatch 53
sparks 53
spike 53
sx@@ 53
t5@@ 53
taupe 53
teen@@ 53
trolls 53
tto 53
tubeless 53
tx 53
ube 53
ultr@@ 53
unk 53
ust 53
utensil 53
venom 53
wd@@ 53
web 53
weekend 53
wizard 53
y7prime 53
ying 53
zia 53
zigzag 53
'eau 52
11.@@ 52
12cm 52
1pc. 52
2.4 52
2018@@ 52
22cm 52
2d 52
4-6 52
50m 52
608 52
aire 52
b1 52
bajaj 52
been 52
bel 52
brain 52
chino 52
cir@@ 52
come 52
costumized 52
covered 52
crash 52
deal 52
diamonds 52
drinks 52
dust@@ 52
eden 52
eo 52
fight 52
finishing 52
fitch 52
fli@@ 52
gagage 52
gentleman 52
harper 52
hologram 52
hung 52
hydra 52
jagger 52
jelly@@ 52
jones 52
jungkook 52
leather@@ 52
little@@ 52
loves 52
m5@@ 52
mamonde 52
mantra 52
midwaist 52
mie 52
minerals 52
moment 52
munchkin 52
mystic 52
n9@@ 52
nap@@ 52
nc 52
nicole 52
ninewest 52
o. 52
omni@@ 52
onal 52
ones 52
pale 52
papi 52
pasta 52
pilipinas 52
plier 52
pocketbooks 52
puppies 52
reverse 52
reviewer 52
rhinestones 52
river 52
rl@@ 52
rm-@@ 52
rorec 52
sandalwood 52
sauna 52
scope 52
scrapbook 52
sea@@ 52
sele@@ 52
senza 52
sse 52
statue 52
stocking 52
sui 52
teacher 52
terra 52
therapeutic 52
transmission 52
tuyo 52
two-tone 52
una 52
vers 52
wash@@ 52
watery 52
welcome 52
wonder@@ 52
xxxl 52
zalora 52
zar@@ 52
zevy 52
zumba 52
................@@ 51
010 51
1000mg 51
126 51
2.4g 51
2004 51
20w 51
3.0@@ 51
340 51
40-@@ 51
530 51
568 51
a6s 51
academy 51
accounting 51
al-@@ 51
alcatel 51
ali 51
ank@@ 51
apido 51
bg 51
bifold 51
biscuit 51
bkk 51
blending 51
bossini 51
boxy 51
brands 51
bras 51
cai@@ 51
cherokee 51
ckle 51
commercial 51
corp 51
country 51
cut-out 51
d2 51
das@@ 51
deni@@ 51
desig@@ 51
dg 51
droplet 51
dur@@ 51
echo 51
education 51
eggs 51
eon 51
f.@@ 51
f0@@ 51
fic 51
fifty 51
fixed 51
fuschia 51
g6 51
gin 51
girl@@ 51
gl 51
handcrafted 51
hansen 51
hasbro 51
heater 51
heating 51
holly 51
inserts 51
ix 51
jeffree 51
jen 51
jy 51
k.@@ 51
kap@@ 51
kc 51
kings 51
kkw 51
kuku 51
lea 51
led@@ 51
lee@@ 51
legging 51
legs 51
lex 51
listing 51
lower 51
lun@@ 51
maxi@@ 51
mediheal 51
meiji 51
microsd 51
mina 51
miyake 51
motorola 51
mutant 51
nautical 51
nightwear 51
opp 51
pat 51
polaroid 51
polo@@ 51
probiotics 51
quilt 51
realme3pro 51
realme@@ 51
robin 51
rug 51
s8plus 51
sequence 51
shoe@@ 51
sliding 51
ssion 51
stic 51
supple 51
sw 51
tie-@@ 51
traditional 51
vibes 51
vital 51
waste 51
yaya 51
-c@@ 50
1.0 50
1.8l 50
12-18 50
12in1 50
12pieces 50
16pcs 50
18w 50
215 50
2ply 50
40x@@ 50
480 50
4n1 50
5oz 50
606 50
802 50
9.5 50
ache 50
adhesion 50
aloha 50
altis 50
answer 50
anti-bacterial 50
asahi 50
bangs 50
bf@@ 50
blaster 50
but@@ 50
centella 50
chicharon 50
chy 50
civil 50
cowl 50
cruz 50
cx@@ 50
defender 50
definition 50
die@@ 50
disinfecting 50
dose 50
dr.@@ 50
duos 50
e27 50
enemy 50
esp@@ 50
everpower 50
ew 50
finder 50
fle@@ 50
fm@@ 50
ga110 50
gamer 50
geforce 50
gig@@ 50
glaze 50
glycolic 50
help 50
high-end 50
hl 50
hyperdunk 50
ipad@@ 50
jay@@ 50
k3 50
kinoki 50
kins 50
kjm 50
knits 50
korean@@ 50
kr@@ 50
lifestyle 50
locket 50
long-lasting 50
lu 50
m4@@ 50
ma-@@ 50
mason 50
mh 50
monsters 50
myra 50
nake@@ 50
nes 50
nights 50
nongshim 50
oni 50
opening 50
paubos 50
piercing 50
pollution 50
popsicle 50
pos@@ 50
pou@@ 50
practical 50
prom 50
qq 50
ray@@ 50
razer 50
scene 50
section 50
signage 50
skeleton 50
sni@@ 50
somebymi 50
stevia 50
stock@@ 50
succulents 50
suga 50
taillight 50
tal 50
tar 50
temp 50
temperament 50
there 50
thunder 50
times 50
twill 50
venice 50
volu@@ 50
watch@@ 50
wellness 50
whale 50
wonderline 50
ws-@@ 50
xl-3xl 50
yan@@ 50
yen 50
yi@@ 50
yy@@ 50
-s@@ 49
120mm 49
180g 49
2.0@@ 49
260 49
4-5 49
40w 49
5r 49
6.6 49
603 49
7.1 49
810 49
850@@ 49
add@@ 49
anti-perspirant 49
baybayin 49
benton 49
bga@@ 49
bhw 49
blan@@ 49
bolster 49
bottled 49
br 49
brac@@ 49
cf 49
chess 49
chevrolet 49
chew 49
claus 49
cruzer 49
d3@@ 49
deli 49
dictionary 49
digi@@ 49
dt@@ 49
eb-@@ 49
emp@@ 49
empire 49
ered 49
eur 49
fen@@ 49
fever 49
ffe@@ 49
fjs@@ 49
fuse 49
grapefruit 49
grater 49
gul@@ 49
haikyuu 49
hea@@ 49
hello@@ 49
holo 49
inspi 49
intl 49
invitations 49
iv 49
ives 49
j0@@ 49
jt5 49
jumping 49
kc@@ 49
keyholder 49
kha@@ 49
looney 49
lopez 49
madden 49
mania 49
mid-@@ 49
ml-@@ 49
nd 49
nos 49
nursery 49
offer 49
only.fashion 49
ori 49
os@@ 49
pact 49
pb@@ 49
phone@@ 49
pk@@ 49
rex 49
saucer 49
share 49
sher 49
should 49
sian 49
sili@@ 49
ski 49
skmei 49
snap@@ 49
stencil 49
stilton 49
studios 49
surge 49
swivel 49
taste 49
tered 49
tiles 49
timberland 49
travel@@ 49
ut@@ 49
utensils 49
vac 49
ville 49
wearable 49
weekly 49
whey 49
witness 49
-100 48
-34 48
-35 48
012 48
124 48
125g 48
171 48
189 48
195 48
198@@ 48
1996 48
1d 48
228 48
25-30 48
2yrs 48
310@@ 48
6pairs 48
700ml 48
809 48
818@@ 48
ange@@ 48
arm@@ 48
asa 48
atx 48
avi@@ 48
bd@@ 48
bigger 48
boo 48
bridge 48
c9 48
cane 48
caster 48
catch 48
chisel 48
chopstick 48
chris 48
ciao 48
clio 48
cod. 48
core@@ 48
cozy 48
dakki 48
degrees 48
dj 48
doc 48
domin@@ 48
dpi 48
dt 48
eros 48
fair 48
farmstay 48
father 48
fb@@ 48
fiesta 48
flashing 48
gging 48
goal 48
holders 48
irene 48
jer@@ 48
jimin 48
kd@@ 48
kitkat 48
lal@@ 48
leafy 48
log 48
loom 48
lx@@ 48
mates 48
mcneil 48
mfsunnies 48
nam@@ 48
nets 48
nit@@ 48
note@@ 48
novo 48
oats 48
paisley 48
palmolive 48
pantulog 48
pck 48
personality 48
pli@@ 48
pn@@ 48
polishing 48
post@@ 48
pped 48
qc 48
quinn 48
reflectorized 48
regatta 48
repack 48
rising 48
rizoma 48
rt 48
rudu 48
severus 48
shaping 48
shoulderbag 48
siz@@ 48
sj 48
slo@@ 48
smoothing 48
sof 48
speci@@ 48
squeezer 48
sse@@ 48
starmobile 48
stine 48
stunning 48
superfood 48
swanson 48
take@@ 48
think 48
throne 48
tunes 48
um@@ 48
veronica 48
versatile 48
xerox 48
yas@@ 48
-04 47
1.0@@ 47
1.2@@ 47
12000mah 47
12mos 47
15.@@ 47
18cm 47
1gb 47
2019-2020 47
24v 47
300mbps 47
308 47
333 47
4c 47
5pc 47
701 47
75g 47
alert 47
armored 47
arte@@ 47
arturo 47
asi@@ 47
ask 47
ast 47
ax@@ 47
bed@@ 47
bee@@ 47
bestguard 47
bold 47
booldeet 47
brave 47
by-@@ 47
c5 47
carat 47
cashew 47
cel 47
celtics 47
cement 47
chain@@ 47
charlie 47
cica 47
create 47
creston 47
darth 47
dazzling 47
delights 47
dicer 47
dk@@ 47
doorbell 47
double-sided 47
draw 47
east 47
embossing 47
endgame 47
ener@@ 47
fashionista 47
fatigue 47
fel@@ 47
fengshui 47
fg 47
floss 47
flower@@ 47
flyman 47
folds 47
friendship 47
gc@@ 47
gibi 47
gluta@@ 47
graffiti 47
grinding 47
grips 47
holographic 47
hx@@ 47
imag@@ 47
instrument 47
kang 47
kra@@ 47
kumot 47
kyla 47
lamb 47
lands 47
lou 47
macro 47
mae 47
mandala 47
masturbator 47
mccormick 47
meizu 47
merrell 47
motor@@ 47
n1 47
nc@@ 47
nutella 47
occasions 47
odyssey 47
options 47
origin@@ 47
pambata 47
para 47
pendants 47
peso 47
pixi 47
poco 47
polybag 47
pti@@ 47
pulse 47
qfashion 47
queens 47
r150 47
rb@@ 47
rebonding 47
redragon 47
relaxed 47
revo 47
rocket 47
sat@@ 47
school@@ 47
sedan 47
slee@@ 47
smart@@ 47
smi@@ 47
so.nice 47
sport@@ 47
stark 47
sto 47
sul@@ 47
sulfur 47
supremo 47
swit@@ 47
tailored 47
tarpaulin 47
tensioner 47
thea 47
ticket 47
tics 47
toaster 47
tty 47
val 47
wra@@ 47
wy@@ 47
xrm125 47
zb@@ 47
.5 46
019 46
1.4 46
1.4@@ 46
1001 46
100w 46
132 46
140cm 46
151 46
161 46
20mm 46
24-@@ 46
2b 46
370@@ 46
505 46
702 46
720p 46
777 46
7in1 46
8000 46
90-@@ 46
alco@@ 46
ality 46
allan 46
ame 46
ams 46
ania 46
ann@@ 46
anton 46
bac 46
bezel 46
bles 46
bonne 46
bumblebee 46
bushing 46
career 46
careline 46
cathy 46
cav@@ 46
chairs 46
cham 46
cide 46
clara 46
cod.@@ 46
col 46
condenser 46
cus 46
document 46
dong 46
dorothy 46
dough 46
doughnut 46
dualpro 46
elli@@ 46
ellis 46
embroided 46
enchanteur 46
england 46
evolution 46
eyebag 46
feelin 46
fie 46
g7@@ 46
gar 46
generic 46
gr 46
guards 46
hada 46
hanuman 46
hn 46
hours 46
idol 46
ie@@ 46
impulse 46
iner 46
ining 46
inkjet 46
jasper 46
jewelries 46
julia 46
jumper@@ 46
ked 46
kitchenware 46
l1r1 46
li-@@ 46
liza 46
lj@@ 46
lona 46
lr 46
maganda 46
management 46
mate20pro 46
memories 46
menthol 46
metric 46
microsoft 46
mik@@ 46
momo 46
nie 46
nipples 46
nk@@ 46
nordic 46
nyc 46
oat 46
p20pro 46
paints 46
pallete 46
papel 46
pee@@ 46
pinoy 46
pixel 46
reaction 46
reference 46
rel@@ 46
relax 46
rev@@ 46
roshe 46
sav@@ 46
seat@@ 46
seri@@ 46
shed 46
sheep 46
shy 46
skip 46
spin@@ 46
stator 46
stepsill 46
sters 46
stit@@ 46
strange 46
styles 46
sum 46
taytay 46
textiles 46
thousand 46
top-@@ 46
trouble 46
tunic 46
ufw 46
vader 46
variable 46
ver. 46
vg 46
working 46
worm 46
wraps 46
wrislet 46
xr@@ 46
zie 46
zipped 46
-03 45
-23 45
-b@@ 45
14.@@ 45
140g 45
142 45
14t 45
1500@@ 45
1600@@ 45
1997 45
1dozen 45
20m 45
213 45
216 45
30w 45
3v 45
473ml 45
480@@ 45
5-in-1 45
55ml 45
65g 45
720@@ 45
7mm 45
8cm 45
950 45
9d 45
a2@@ 45
anti-fingerprint 45
apieu 45
arena 45
asian 45
august 45
bibdana 45
bl-4@@ 45
blackheads 45
brace 45
burt 45
carburator 45
changer 45
charming 45
chil@@ 45
clearing 45
clog 45
cn 45
cobra 45
connect 45
cosmic 45
crackers 45
dani@@ 45
devices 45
ening 45
enlarger 45
ero@@ 45
erry 45
fanny 45
fem 45
fish@@ 45
fried 45
gameboy 45
garage 45
gard 45
glit@@ 45
glutalipo 45
gold-tone 45
grand@@ 45
hans 45
hera 45
hobby 45
hong 45
huawie 45
hun@@ 45
hut 45
idea 45
ies 45
indonesia 45
inflator 45
ipega 45
isolation 45
jacquard 45
jasmin 45
jerry 45
justees 45
karat 45
kb 45
kers 45
kgs 45
kicks 45
kili 45
lippies 45
liver 45
long-@@ 45
mini-@@ 45
mobiles 45
mq 45
msmhk 45
mtp-v@@ 45
muffin 45
nai@@ 45
navara 45
np-@@ 45
oil-based 45
ole 45
omg 45
oo 45
organza 45
oz. 45
peri@@ 45
phil 45
pn 45
preparation 45
pretend 45
pringles 45
puppet 45
qcy 45
quil@@ 45
read@@ 45
riders 45
rolex 45
sac@@ 45
scientific 45
se-@@ 45
shrink 45
sies 45
silhouette 45
skk 45
snapshot 45
social 45
spectra 45
speedo 45
stethoscope 45
stripped 45
stru@@ 45
suki 45
sup 45
superior 45
surveillance 45
sweet@@ 45
sweetener 45
swirl 45
table@@ 45
tala 45
timewise 45
tk@@ 45
toblerone 45
trooper 45
trunks 45
vee 45
vity 45
wer@@ 45
wick 45
with@@ 45
worn 45
yrs. 45
zeus 45
zoro 45
-33 44
016 44
1.7 44
12inch 44
141 44
14cm 44
156 44
157 44
160g 44
1999 44
207 44
213@@ 44
236@@ 44
2lite 44
3.5@@ 44
325 44
340@@ 44
610 44
9ml 44
absorption 44
acker 44
acy 44
aka 44
ako@@ 44
amanda 44
anti-skid 44
b3 44
bff 44
blackbox 44
blossoms 44
bny 44
bow@@ 44
bugs 44
cali@@ 44
cau@@ 44
ccml 44
cham@@ 44
clever 44
clogs 44
complexion 44
compound 44
crest 44
dairy 44
design@@ 44
distressed 44
eh 44
ems 44
espadrilles 44
fast@@ 44
fitting 44
flor@@ 44
full-@@ 44
ges 44
gospel 44
grease 44
handlebar 44
icing 44
imprint 44
iphone11 44
jjc 44
kotobukiya 44
kry@@ 44
ktees 44
kultura 44
l-carnitine 44
leatherette 44
lor@@ 44
m4 44
maldives 44
mamala 44
march 44
martha 44
melamine 44
mera 44
mg@@ 44
mike 44
misumi 44
mmx@@ 44
motorbike 44
mule 44
muslim 44
newest 44
nonwire 44
ns@@ 44
nur@@ 44
nurse 44
olympus 44
ony 44
optic 44
oy 44
peak 44
peptide 44
personalize 44
petit 44
pie@@ 44
playful 44
ppr 44
prepack 44
ratchet 44
remo@@ 44
rmg 44
ros@@ 44
round@@ 44
s9plus 44
saffiano 44
saiyan 44
samgyupsal 44
seasons 44
sions 44
sleeper 44
sley 44
spinning 44
splashproof 44
ssed 44
staple 44
stapler 44
success 44
synergy 44
tc@@ 44
tek 44
tong 44
trac@@ 44
translucent 44
tumblers 44
vani@@ 44
vine 44
w0@@ 44
won@@ 44
wood@@ 44
yh 44
'gosh 43
-4 43
100mm 43
135@@ 43
139 43
16cm 43
1kl 43
2020@@ 43
206 43
223 43
24cm 43
30-@@ 43
30000mah 43
300mm 43
3pairs 43
511 43
60pcs 43
60s 43
800g 43
8yrs 43
9-12 43
a10@@ 43
also 43
arabica 43
armband 43
avdf 43
b5 43
badescu 43
barefoot 43
block@@ 43
blue-@@ 43
booty 43
border 43
botanical 43
buil@@ 43
bun 43
burgundy 43
cassette 43
cat6 43
chap@@ 43
chart 43
chas@@ 43
chevron 43
chie 43
circo 43
cloudfone 43
coordinate 43
cottony 43
dash@@ 43
distance 43
down@@ 43
electri@@ 43
endless 43
entertainment 43
equal 43
espresso 43
est@@ 43
excel 43
explorer 43
fairy@@ 43
festival 43
fitbit 43
folio 43
gels 43
gimbal 43
gothic 43
greek 43
gt-@@ 43
haan 43
harvest 43
hoddie 43
holic 43
imm@@ 43
imp@@ 43
insta@@ 43
interchangeable 43
j62018 43
jc@@ 43
jlt 43
juli@@ 43
kle@@ 43
koala 43
kurtina 43
lake 43
lapel 43
legendary 43
lice 43
license 43
lightness 43
literide 43
luck@@ 43
lush 43
maid 43
matchbox 43
mcg 43
motowolf 43
mug@@ 43
myrrh 43
necktie 43
nigh@@ 43
od 43
offi@@ 43
p250 43
panoramic 43
paracord 43
peachy 43
peg 43
penny 43
plating 43
pleasure 43
polar 43
pops 43
puff@@ 43
rash@@ 43
rechargable 43
religious 43
reveal 43
rocher 43
rp 43
rubik 43
s20 43
scrat@@ 43
sei@@ 43
shells 43
skorts 43
sn 43
sou@@ 43
sted 43
sty 43
syn@@ 43
t5 43
tarnish 43
ted@@ 43
telesin 43
tho@@ 43
tictac 43
tow 43
trends 43
ttes 43
tting 43
twins 43
unused 43
upto 43
v10 43
vc@@ 43
vhf 43
victory 43
vig@@ 43
ward 43
wimpy 43
wink 43
writer 43
xpander 43
......... 42
100-@@ 42
12a 42
12g 42
162 42
187 42
192 42
249 42
2k 42
3-pack 42
3.4a 42
3110 42
35-40 42
3ft 42
3r 42
4.3 42
5000@@ 42
500w 42
530@@ 42
60x@@ 42
6d 42
710@@ 42
8y 42
ables 42
access 42
achi 42
acti@@ 42
adventures 42
alaska 42
ando 42
anion 42
arduino 42
atomy 42
bag-@@ 42
bailey 42
bal 42
bianca 42
black-@@ 42
boxers 42
brit 42
britney 42
bulgari 42
c4 42
cecilia 42
chubby 42
clip@@ 42
ctions 42
damper 42
dat@@ 42
delicate 42
divider 42
e.l.f. 42
eight 42
ello 42
epic 42
excess 42
faceshop 42
farrah 42
figma 42
firm 42
flowering 42
gardening 42
gatas 42
gems 42
gf@@ 42
gla@@ 42
glow@@ 42
hap@@ 42
harajuku 42
heartbeat 42
hotdog 42
icy 42
illuminator 42
ix@@ 42
jars 42
jes 42
kel@@ 42
kineza 42
knotted 42
kp1 42
kyb 42
l.a 42
labels 42
lanbena 42
lat@@ 42
lc-@@ 42
lilo 42
lim 42
lly 42
locks 42
lola 42
ls-@@ 42
ltp-@@ 42
lumin@@ 42
lux@@ 42
m-xl 42
made@@ 42
mal 42
mambi 42
mans 42
marshmallow 42
maxx 42
mbps 42
medal 42
microwavable 42
mink 42
mock 42
moda 42
molded 42
mudguard 42
nami 42
natur@@ 42
navyblue 42
nex@@ 42
note10 42
novels 42
panic 42
pass 42
pear@@ 42
perfumed 42
pon@@ 42
positive 42
postcards 42
practice 42
prreti 42
queen@@ 42
r7 42
relumins 42
rette 42
rox 42
rr@@ 42
rsgw 42
ru 42
sander 42
sanuk 42
scraper 42
shan@@ 42
shimmering 42
shogun 42
since 42
sister 42
slu@@ 42
sos 42
straightening 42
sub 42
supersale 42
swe@@ 42
tagalog 42
teri@@ 42
tim 42
timing 42
tinkerbell 42
tp@@ 42
tren@@ 42
tumblr 42
tus@@ 42
ultrathin 42
upgrade 42
veins 42
vguc 42
vis@@ 42
volkswagen 42
volt 42
western 42
wilson 42
woo@@ 42
x8 42
y9@@ 42
yul 42
yun 42
yy 42
-26 41
-6 41
020 41
047 41
1.3 41
100cm 41
1100 41
131 41
170ml 41
1990 41
199@@ 41
2-3@@ 41
2022 41
204 41
226g 41
3-way 41
3kg 41
3oz 41
4x4 41
5pro 41
602 41
630 41
7t 41
80-@@ 41
8s 41
90cm 41
alph@@ 41
aming 41
ants 41
automotive 41
beginners 41
bidet 41
blair 41
bmw 41
breakfast 41
burning 41
calling 41
camilla 41
ced 41
chewy 41
closer 41
common 41
contrast 41
crab 41
daban 41
daylight 41
diagonal 41
diana 41
disinfection 41
door@@ 41
drunk 41
dtc 41
e-liquid 41
easy@@ 41
ejuice 41
escada 41
eureka 41
evvph 41
expiry 41
exten@@ 41
fighting 41
fingerprint 41
fitflops 41
flood 41
fluorescent 41
freesf 41
freshner 41
ganda 41
gn 41
goblin 41
hannah 41
hin 41
hindi 41
honey@@ 41
ht 41
inclusion 41
index 41
indicator 41
inger 41
ions 41
jk@@ 41
jr. 41
kee 41
l0@@ 41
ladys 41
lampin 41
lgts 41
liqu@@ 41
lor 41
lube 41
lum 41
luv 41
lw 41
membrane 41
mexico 41
mmer 41
monopad 41
moonlight 41
mosaic 41
multi-color 41
must 41
netbook 41
nin@@ 41
ninjago 41
occasion 41
offset 41
ology 41
only@@ 41
open@@ 41
origami 41
paula 41
photos 41
pil@@ 41
plugs 41
plus-size 41
poli@@ 41
pre-owned 41
preloved@@ 41
presto 41
qualcomm 41
quiet 41
quotes 41
rc@@ 41
remove 41
roger 41
ross 41
rusty 41
rx@@ 41
sandy 41
seas@@ 41
server 41
shopper 41
signed 41
skinfit 41
skylanders 41
sofitec 41
spec 41
storybook 41
stufftoy 41
sunnyware 41
sure 41
sweets 41
t10 41
t8@@ 41
terno@@ 41
thy 41
tiara 41
tooth@@ 41
une 41
uri@@ 41
v-power 41
vogue 41
wave100 41
wer 41
whipped 41
xuping 41
yarns 41
zg 41
005@@ 40
025 40
1.8kg 40
10.1 40
105@@ 40
10inches 40
136 40
158 40
19mm 40
2-pack 40
227 40
237 40
256 40
309 40
390 40
4.1 40
55-@@ 40
730 40
7th 40
a4@@ 40
addidas 40
alex@@ 40
ame@@ 40
australian 40
ave@@ 40
battle@@ 40
beater 40
bija 40
bones 40
buildmate 40
causal 40
cher@@ 40
cian 40
cking 40
contouring 40
coords 40
cradle 40
creamer 40
dahua 40
det@@ 40
dge@@ 40
dimmable 40
dio@@ 40
duvet 40
edible 40
ef 40
enfant 40
escape 40
fami@@ 40
fd@@ 40
fei@@ 40
fence 40
fhd 40
figuarts 40
flaws 40
fore@@ 40
forme 40
freeze 40
freezer 40
ft. 40
gia 40
gran@@ 40
grosgrain 40
guality 40
gur@@ 40
hangers 40
hav@@ 40
hc@@ 40
hdtv 40
headrest 40
heal 40
hydr@@ 40
i9@@ 40
igh@@ 40
inang 40
infallible 40
iope 40
iri@@ 40
jay 40
jennifer 40
jjt 40
jl 40
just@@ 40
jy. 40
kim@@ 40
kni@@ 40
laces 40
lang@@ 40
laud 40
low-top 40
ltp-v@@ 40
m6 40
magi@@ 40
malaysia 40
matchy 40
maya 40
maze 40
mber@@ 40
med@@ 40
ml. 40
moisturising 40
nancy 40
oh@@ 40
originai 40
oring 40
p2 40
panty@@ 40
pao 40
pegasus 40
pineng 40
pixar 40
playmat 40
playsuit 40
plunger 40
poop 40
preowned 40
prism 40
psicom 40
pun@@ 40
r8 40
raptors 40
rated 40
realme5pro 40
rip 40
rollers 40
rosemary 40
s10plus 40
satellite 40
serial 40
sidebag 40
simpson 40
sling@@ 40
softener 40
space@@ 40
sportswear 40
spr@@ 40
still 40
stle 40
superstay 40
tangerine 40
theory 40
thin@@ 40
together 40
tracing 40
transmitter 40
tropi@@ 40
tubular 40
tun@@ 40
tweezer 40
ue 40
upgraded 40
vac@@ 40
valley 40
variants 40
vibration 40
vin 40
vul@@ 40
weapon 40
week 40
wigs 40
wild@@ 40
ws@@ 40
wy 40
xb@@ 40
yrs.old 40
zoe 40
α@@ 40
⃣ 40
-12@@ 39
-31 39
-42 39
1- 39
1.8m 39
10cm 39
10oz 39
1100@@ 39
1300 39
176 39
178 39
1800 39
184 39
18x@@ 39
193 39
1989 39
1998 39
1c 39
20s 39
20x@@ 39
233 39
238@@ 39
255 39
2tb 39
3-1 39
3-6m 39
3in 39
760@@ 39
905 39
9w 39
adam 39
akg 39
aloevera 39
amaz@@ 39
antiperspirant 39
ap24 39
aphrodisia 39
aria 39
aron 39
ars 39
avenger 39
bangtan 39
bau@@ 39
beachwear 39
bigbang 39
bio-@@ 39
butterscotch 39
cabana 39
calm 39
camshaft 39
canopy 39
cardfight 39
catriona 39
chers 39
clouds 39
code@@ 39
coldshoulder 39
comm@@ 39
containers 39
creation 39
cree 39
crystalline 39
decor@@ 39
delay 39
dinnerware 39
drag 39
dual@@ 39
electroplated 39
emperor 39
epi@@ 39
eth@@ 39
everest 39
factor 39
fifi 39
filters 39
fin 39
fittings 39
flashdrive 39
floor@@ 39
fp@@ 39
front@@ 39
gir@@ 39
grant 39
groom 39
habits 39
ham 39
hits 39
hogwarts 39
ight 39
imak 39
investment 39
iphone6s 39
ited 39
jm 39
joyride 39
jz118@@ 39
k2 39
kalamansi 39
kasya 39
kg. 39
knuckle 39
kris 39
kz 39
late 39
lau@@ 39
leader 39
leo 39
les@@ 39
less@@ 39
lyn@@ 39
mamypoko 39
mble 39
meduim 39
mice 39
milo 39
monsta 39
moroccan 39
mustache 39
mux 39
mw@@ 39
netflix 39
ngk 39
nhance 39
nicer 39
nitro 39
nz@@ 39
oli@@ 39
oro@@ 39
pajero 39
plaka 39
pldt 39
pores 39
predator 39
probiotic 39
pv@@ 39
qc3.0 39
qf 39
rapunzel 39
rasta 39
realistic 39
reci@@ 39
revitali@@ 39
rie 39
roche 39
rocking 39
s-0@@ 39
scra@@ 39
sds@@ 39
seafood 39
secosana 39
senka 39
sex@@ 39
shave 39
shoes@@ 39
sil 39
sma 39
soo@@ 39
spoke 39
stan@@ 39
swab 39
telescope 39
tg-@@ 39
thai@@ 39
thinkpad 39
tia 39
tis 39
tnt 39
torani 39
tro 39
tweeter 39
two@@ 39
uag 39
ub 39
utp 39
vapormax 39
vega 39
viva 39
warts 39
wears 39
whisk 39
wife 39
wjf 39
wu@@ 39
yaiba 39
yazi 39
yd 39
yer 39
yf 39
zaful 39
-00@@ 38
........@@ 38
015 38
1-5 38
10000 38
1080 38
12x@@ 38
16inch 38
1993 38
2-1 38
2008-@@ 38
2in1@@ 38
2tone 38
3-5@@ 38
30-35 38
5-6 38
500grams 38
50w 38
6-18 38
70-@@ 38
7i 38
81@@ 38
a00@@ 38
activ@@ 38
adap@@ 38
ako 38
alkansya 38
anti-acne 38
antiseptic 38
aquamarine 38
ation@@ 38
backpack@@ 38
bataan 38
bayo 38
belts 38
blackout 38
blush@@ 38
bru@@ 38
buck@@ 38
button-down 38
bw 38
carton 38
celeteque 38
chainsaw 38
christ@@ 38
claiborne 38
classa 38
coca 38
comb@@ 38
cook 38
creamsilk 38
dart 38
dea@@ 38
degreaser 38
dooney 38
doug 38
dragons 38
fabulous 38
farrar 38
fc@@ 38
fds@@ 38
feli@@ 38
filling 38
fiona 38
flesh 38
freesia 38
garnet 38
gasoline 38
gle 38
grms 38
guilty 38
had@@ 38
happiness 38
has 38
heather 38
helmets 38
hue 38
i8@@ 38
ik@@ 38
immortal 38
immune 38
itive 38
j310 38
jimmy 38
jinju 38
jose 38
kenzo 38
kilogram 38
kimetsu 38
knitting 38
ks-@@ 38
lazel 38
lf@@ 38
lli 38
lls 38
lm@@ 38
locking 38
lolita 38
madrid 38
maple 38
marcus 38
maxidress 38
maxine 38
micky 38
middle 38
mio@@ 38
mma 38
multivitamin 38
nasal 38
naturacentials 38
no-@@ 38
oddstickers 38
on7 38
onic 38
oppo@@ 38
optimus 38
others 38
p150 38
pag@@ 38
payless 38
pee 38
physical 38
piglet 38
pink@@ 38
planer 38
pochette 38
poe 38
polkadot 38
put 38
qt 38
quar@@ 38
qw@@ 38
rd@@ 38
refresh 38
rene 38
respirator 38
retina 38
ribb@@ 38
rows 38
safe@@ 38
saudigold 38
sega 38
shaving 38
shirt-@@ 38
sierra 38
simcard 38
sive 38
sock@@ 38
songs 38
soon 38
stains 38
starex 38
static 38
stro@@ 38
suit@@ 38
sung 38
tac 38
td 38
tel@@ 38
tele@@ 38
thanos 38
thru 38
thumb 38
tn 38
totebag 38
tron 38
type@@ 38
ud 38
villa 38
voltmeter 38
w.@@ 38
wing@@ 38
wolverine 38
wt 38
xt@@ 38
y3 38
y9s 38
yayamanin 38
-a 37
................................@@ 37
014 37
017 37
1-4 37
10pcs. 37
11oz 37
137 37
1600 37
24mm 37
3.1a 37
307 37
4.7 37
401 37
405 37
420 37
450g 37
45w 37
4x@@ 37
6-7 37
6.4 37
60-@@ 37
680 37
705 37
710 37
906 37
a8plus 37
acks 37
addict 37
angela 37
antioxidant 37
ape 37
arpege 37
assassin 37
autograph 37
bet 37
beverage 37
beyouthiful 37
billiard 37
biotin 37
biztree 37
blouse@@ 37
bm 37
cappuccino 37
capshop 37
carbon@@ 37
cent 37
chang@@ 37
chin@@ 37
cignus 37
classi@@ 37
clavicle 37
clay@@ 37
comes 37
commuter 37
conne@@ 37
coolant 37
cos@@ 37
cosme@@ 37
cowboy 37
damaged 37
delta 37
derma@@ 37
digest 37
dn@@ 37
donna 37
dreamer 37
dvi 37
dz@@ 37
e5@@ 37
eno 37
equ@@ 37
erase 37
essen@@ 37
expansion 37
feline 37
fig 37
finger@@ 37
flaw 37
fuji@@ 37
furball 37
gfriend 37
guardian 37
gudi 37
hairclips 37
hanes 37
hd3 37
headed 37
headwear 37
hide 37
i9082 37
inpods 37
instabright 37
interface 37
internet 37
ishigaki 37
ivt 37
j5pro 37
jpop 37
july 37
jumpskirt 37
kinds 37
kodak 37
kw-@@ 37
lat 37
lav@@ 37
legacy 37
lipton 37
lis 37
lla@@ 37
ln@@ 37
logi@@ 37
m6@@ 37
macaroon 37
main@@ 37
mex 37
mists 37
move 37
nate 37
nature@@ 37
neu@@ 37
nick 37
nt@@ 37
ntc 37
oli 37
ols 37
pageant 37
pc-@@ 37
peculiar 37
pekas 37
periwinkle 37
pers 37
playtex 37
poker 37
prayer 37
purchase 37
qnet 37
r0@@ 37
rk@@ 37
rol@@ 37
rosa 37
roy 37
rusi 37
saber 37
send 37
sill 37
skintone 37
small-@@ 37
speak 37
spout 37
steel@@ 37
stor@@ 37
strada 37
submersible 37
target 37
teardrop 37
temperd 37
tied 37
tique 37
touch@@ 37
tox 37
toy@@ 37
tubes 37
u.@@ 37
uo 37
updated 37
ush 37
uv-@@ 37
vco 37
vel 37
virginity 37
volleyball 37
was 37
wb 37
weigh@@ 37
weight@@ 37
wipe 37
wrapper 37
wwfph 37
xp@@ 37
xs-@@ 37
yah 37
yield 37
-29 36
-cod 36
0.38mm 36
1.2m 36
1000w 36
13cm 36
13mm 36
158@@ 36
160ml 36
17cm 36
1mm 36
1t 36
2007-@@ 36
2012@@ 36
2014-@@ 36
245 36
252 36
295ml 36
2f 36
2oz 36
2ways 36
3000@@ 36
3cm 36
3d@@ 36
675@@ 36
6cm 36
703 36
8th 36
9v 36
abel 36
abi 36
acai 36
adf 36
ald 36
arri@@ 36
artisan 36
ature 36
backs 36
backup 36
bag. 36
bagonly 36
bak@@ 36
barber 36
bath@@ 36
beat@@ 36
believe 36
bility 36
boardwalk 36
bowtie 36
break@@ 36
bron@@ 36
brook 36
brownie 36
bumebime 36
buy@@ 36
caddy 36
cameo 36
camille 36
casino 36
cheddar 36
cherrymobile 36
classical 36
colour@@ 36
compaq 36
condom 36
connecting 36
cont@@ 36
cool@@ 36
corelle 36
cork 36
corn@@ 36
crossbar 36
cruise 36
crushed 36
cted 36
death@@ 36
dest@@ 36
discounted 36
divi@@ 36
eable 36
extractor 36
f5@@ 36
fat@@ 36
fir@@ 36
formulas 36
friction 36
frnc 36
fw@@ 36
g7106 36
garment 36
gent 36
glitz 36
greatest 36
gv 36
gy6 36
hardtop 36
harmony 36
hatchback 36
himalaya 36
homemade 36
i3 36
icons 36
icosmetica 36
ig 36
ionic 36
iphone4 36
iso@@ 36
itzy 36
j8. 36
jac@@ 36
jd@@ 36
journey 36
k-pads 36
kee@@ 36
kka 36
knorr 36
konzert 36
l.a. 36
lei@@ 36
ling@@ 36
lk 36
logic 36
logy 36
lpg 36
macbeth 36
magnum 36
mary@@ 36
mber 36
michelle 36
mirac@@ 36
mitch 36
mme 36
mper 36
mtrt 36
murano 36
natures 36
nectarine 36
no. 36
nova3 36
novelty 36
nudes 36
oil-@@ 36
ollie 36
p200 36
pantyliner 36
party@@ 36
patterns 36
paulo 36
pg@@ 36
pickup 36
pid 36
pills 36
pipes 36
pisonet 36
plasma 36
plex 36
pregnancy 36
props 36
psu 36
push-up 36
puzzles 36
q3 36
quadcopter 36
recovery 36
rey 36
rite 36
rocks 36
rohto 36
s-xl 36
scales 36
sds 36
selected 36
set-@@ 36
shopp 36
show@@ 36
simpsons 36
slam 36
smar@@ 36
some@@ 36
something 36
spar@@ 36
spoons 36
srp 36
stable 36
streetwear 36
stroke 36
sub-@@ 36
sucker 36
sulwhasoo 36
suspender 36
swa@@ 36
sweatshorts 36
t110 36
tech@@ 36
thomson 36
tins 36
tl@@ 36
toothpick 36
typec 36
uc@@ 36
unlimited 36
var@@ 36
vas@@ 36
vivi 36
voi@@ 36
vooc 36
wea@@ 36
wen@@ 36
wika 36
wk@@ 36
x9@@ 36
xs-s 36
yx 36
zh@@ 36
zon 36
-22 35
-black 35
0001 35
1.1 35
1050 35
120cm 35
12yrs 35
16x@@ 35
179 35
18-24 35
182 35
18mos 35
1994 35
20l 35
21st 35
221 35
232 35
247 35
32oz 35
35g 35
4-5@@ 35
402 35
430@@ 35
45pcs 35
51@@ 35
552 35
605 35
7b 35
7inches 35
8inches 35
900ml 35
achi@@ 35
ade@@ 35
andre@@ 35
apo@@ 35
archie 35
armpit 35
asymmetrical 35
ath 35
bae 35
bedside 35
ben10 35
bian 35
binlu 35
bleu 35
bodyworks 35
bq@@ 35
btob 35
butane 35
bye 35
c24 35
cad@@ 35
cardholder 35
chemical 35
choco@@ 35
chole@@ 35
christie 35
co-@@ 35
collectors 35
conceal 35
contro@@ 35
crankcase 35
cuffed 35
cw 35
cz 35
day6 35
ddy 35
density 35
denso 35
diamante 35
direct@@ 35
dp@@ 35
du 35
e7 35
ead 35
elas@@ 35
embroid 35
emi@@ 35
enchanted 35
enhance 35
eo@@ 35
ertiga 35
esme 35
et-@@ 35
extendable 35
fleur 35
footsocks 35
framed 35
freshly 35
fx@@ 35
gee 35
gee@@ 35
geek 35
gger 35
glutalight 35
gogh 35
gp-@@ 35
h4 35
half@@ 35
havainas 35
hollywood 35
hub@@ 35
ico@@ 35
ingredients 35
integrated 35
iridium 35
iris 35
ities 35
jdm 35
jeep 35
joseph 35
julong 35
jx 35
k8 35
kab@@ 35
kara 35
karen 35
kelsey 35
kiehl 35
koko@@ 35
l.12.12 35
loaf 35
lucky@@ 35
mang@@ 35
marga 35
marlboro 35
matte@@ 35
memo@@ 35
mercier 35
monarch 35
movement 35
mt-@@ 35
mugen 35
mura 35
nav@@ 35
nutrilite 35
oil@@ 35
opal 35
oro 35
pans 35
pas 35
pave 35
pedicure 35
petrol 35
pf 35
pique 35
poison 35
pong 35
propeller 35
protec 35
psy@@ 35
pull-out 35
putty 35
quart 35
r15 35
rachel 35
rad 35
raffles 35
rainy 35
raz@@ 35
rebecca 35
refle@@ 35
repeater 35
restore 35
rubbershoes 35
sdxc 35
servings 35
sew 35
shan 35
shirt@@ 35
shoot 35
shooter 35
shredder 35
silverworks 35
sincerity 35
snowflake 35
snu@@ 35
so-en 35
solotica 35
spears 35
spir@@ 35
stack 35
step@@ 35
sunsilk 35
td@@ 35
teabags 35
teething 35
textile 35
tft 35
then 35
thrift 35
ths 35
toast 35
tons 35
twopiece 35
ufc 35
uma 35
veg 35
vehicles 35
waistband 35
watchportal 35
wave@@ 35
windbreaker 35
wm@@ 35
woody 35
woofer 35
xs@@ 35
xuebami 35
yale 35
yoyo 35
yuri 35
zoey 35
𝐈@@ 35
-g 34
1-6 34
1.5mm 34
1.6@@ 34
14.2mm 34
16.@@ 34
169 34
170g 34
2.5mm 34
200grams 34
20inches 34
3-wick 34
355ml 34
366 34
36b 34
399 34
428-@@ 34
4cm 34
4ft 34
4pairs 34
5000mah 34
6000mah 34
64g 34
707 34
775@@ 34
8m 34
946ml 34
950@@ 34
a13@@ 34
abs-cbn 34
adjuster 34
ador 34
adri@@ 34
african 34
ager 34
aly@@ 34
anne@@ 34
anti-scratch 34
appliances 34
armrest 34
astray 34
babyg 34
backlight 34
bacon 34
blast 34
bli@@ 34
blu-ray 34
bmx 34
bol@@ 34
bucks 34
caseology 34
cg125 34
chamois 34
checkerd 34
chick 34
chrono 34
cindy 34
clasp 34
collage 34
course 34
cover-up 34
crisp 34
curvy 34
d1 34
detective 34
dipbrow 34
dog@@ 34
dollhouse 34
dry@@ 34
earl 34
enclosure 34
entry 34
epoch 34
eria 34
etti 34
events 34
faber 34
fair@@ 34
feed 34
fication 34
flange 34
foglight 34
freego 34
frill 34
fujidenzo 34
gain 34
georgia 34
geronimo 34
gluta-@@ 34
glutax 34
graham 34
griffin 34
gunmetal 34
half-@@ 34
hbd 34
helicopter 34
hersheys 34
hi-cut 34
hion 34
hou@@ 34
hourglass 34
houston 34
hrv 34
hstnn-@@ 34
ht-@@ 34
i125 34
ido@@ 34
inf@@ 34
ing-@@ 34
inn 34
inno@@ 34
iphonexr 34
jaguar 34
je 34
jewellery 34
jim 34
jonaxx 34
keepers 34
ket 34
ladder 34
lamborghini 34
lara 34
lexi 34
lh 34
lids 34
macrame 34
mad@@ 34
magnolia 34
maii 34
manufactured 34
maxglow 34
menstrual 34
microns 34
miku 34
miller 34
moose 34
nacific 34
nal@@ 34
near 34
nouvo 34
nutri 34
o2 34
ob 34
oversea 34
oxi@@ 34
p0@@ 34
p20@@ 34
p30pro 34
pals 34
pang@@ 34
papemelroti 34
patched 34
physicians 34
pic@@ 34
pick@@ 34
pn-@@ 34
portrait 34
prevent 34
punny 34
pw@@ 34
qs 34
quarter 34
quinoa 34
radi@@ 34
ras@@ 34
ream 34
reg@@ 34
rei@@ 34
repairing 34
res@@ 34
reserve 34
rexona 34
rinse 34
rire 34
rivet 34
rrj 34
runs 34
rustic 34
sa1e 34
sace 34
sak@@ 34
salve 34
scre@@ 34
shooting 34
shure 34
sippy 34
ske@@ 34
sla@@ 34
slip@@ 34
smoothie 34
sonia 34
ss-@@ 34
stance 34
strengthening 34
t-shir@@ 34
tali 34
tease 34
teenage 34
tokidoki 34
toppers 34
true@@ 34
ull 34
ult 34
units 34
v5-@@ 34
veil 34
village 34
vitam@@ 34
voucher 34
vr@@ 34
weekender 34
westbrook 34
wh 34
whe@@ 34
white-@@ 34
wish@@ 34
x-level 34
yema 34
yours 34
yss 34
yz@@ 34
zzle 34
.......... 33
026 33
110g 33
13.@@ 33
137@@ 33
152 33
16mm 33
173 33
19.5v 33
1992 33
2.2 33
2005-@@ 33
211 33
229 33
234 33
235 33
242 33
24x@@ 33
2c 33
32-@@ 33
330ml 33
331 33
38mm 33
411 33
620 33
650ml 33
670@@ 33
6pc 33
803 33
908 33
920 33
a14@@ 33
abe 33
aga 33
alchemist 33
alligator 33
ameri@@ 33
anie 33
antibac 33
anya 33
anycast 33
area 33
ariana 33
arr@@ 33
asha 33
atmosphere 33
auth@@ 33
balanced 33
baruan 33
bble 33
beach@@ 33
beats 33
bells 33
billabong 33
blankets 33
blazers 33
bor 33
bradley 33
braid 33
brothers 33
bumble 33
c.o.d 33
cassie 33
castell 33
chable 33
cheesecake 33
chief 33
cial 33
clin@@ 33
coke 33
colleen 33
compress 33
conan 33
cooper 33
crossing 33
cum 33
cutters 33
dee 33
defen@@ 33
dermacol 33
designplus 33
dha 33
dig@@ 33
dimension 33
diver 33
dle 33
donald 33
dul@@ 33
eco-friendly 33
effector 33
ejm 33
electroplate 33
ene 33
engraved 33
enne 33
enzyme 33
eun@@ 33
executive 33
fleer 33
fragrant 33
frixion 33
g-spot 33
g0@@ 33
gamuza 33
girly 33
glucose 33
gly@@ 33
godzilla 33
gone 33
hanna 33
hear@@ 33
henry 33
hero@@ 33
hydrogel 33
i12 33
indigo 33
ique 33
irl 33
iro 33
ive 33
j1@@ 33
jennie 33
jol@@ 33
jung 33
kei@@ 33
know 33
ktph 33
kyle 33
l1 33
lady@@ 33
lap 33
lattice 33
lds 33
leonard 33
lh@@ 33
lian 33
library 33
lier 33
lje 33
lled 33
longrich 33
lounge 33
mage 33
mascot 33
mate10 33
mavic 33
meg 33
midoko 33
minimal 33
mortal 33
movable 33
mrs 33
msh 33
much 33
n10 33
nak@@ 33
naturactor 33
noblekids 33
oily 33
omron 33
oriental 33
original@@ 33
ornaments 33
parking 33
pcx 33
pentel 33
perfu@@ 33
poppy 33
pregnant 33
pudding 33
pull-@@ 33
pulls 33
rail 33
ralliart 33
rayon 33
recording 33
refills 33
relx 33
russell 33
ryxskin 33
ryzen 33
s925 33
saga 33
sale. 33
scooper 33
seasoned 33
shoul@@ 33
singing 33
sk-@@ 33
skinlab 33
skintouch 33
slice 33
smashbox 33
smoo@@ 33
snickers 33
sofi@@ 33
specialty 33
spokes 33
spotlight 33
squi@@ 33
stansmith 33
stefan 33
stila 33
strand 33
stuff@@ 33
style@@ 33
summer@@ 33
suv 33
thickening 33
thief 33
thompson 33
tive 33
toning 33
toronto 33
tul@@ 33
tuner 33
turband 33
tv@@ 33
twenty 33
unt 33
uses 33
v5lite 33
wei@@ 33
whole@@ 33
wishes 33
wp@@ 33
yon 33
z0@@ 33
-07 32
0-3m 32
039 32
1.3@@ 32
143 32
146 32
148 32
153 32
159 32
15a 32
186 32
18k@@ 32
18pcs 32
2003-@@ 32
2006-@@ 32
200cm 32
2016-2019 32
215@@ 32
219 32
299 32
2cm 32
2k@@ 32
3.42a 32
3.5g 32
3.7v 32
325@@ 32
34b 32
410@@ 32
4d@@ 32
50grams 32
591ml 32
600w 32
80cm 32
818 32
99.@@ 32
9x@@ 32
abdomen 32
aci@@ 32
airbrush 32
ake 32
alaric 32
alle@@ 32
alone 32
ande@@ 32
angry 32
appear@@ 32
aqva 32
ashi@@ 32
ast@@ 32
asymmetric 32
authen@@ 32
b4@@ 32
baf 32
bake 32
baker 32
baleno 32
bangko@@ 32
banks 32
bedtime 32
beginner 32
blaze 32
bonbon 32
bowling 32
brit@@ 32
c10 32
campus 32
caribbean 32
cassandra 32
center@@ 32
chel@@ 32
chew@@ 32
coelho 32
connection 32
conver@@ 32
costu@@ 32
creator 32
d4 32
dang@@ 32
dee@@ 32
des@@ 32
dexe 32
dn 32
donruss 32
dress-@@ 32
dylan 32
e-juice 32
editions 32
ego 32
encore 32
entrance 32
ergonomic 32
excelsior 32
f. 32
fabcon 32
faito 32
falling 32
favorites 32
ffle 32
fibisco 32
fingers 32
fisher-price 32
fl.oz 32
fon@@ 32
gallery 32
geni@@ 32
gerry 32
ggle 32
gluten 32
gluth@@ 32
guerisson 32
hamper 32
hara 32
has@@ 32
hazeshop 32
hj@@ 32
holi@@ 32
horizon 32
hygiene 32
hyun 32
ibo 32
icm 32
inal 32
infusion 32
insta 32
io@@ 32
irregular 32
iv@@ 32
j330 32
j42018 32
jama 32
jar@@ 32
jibbitz 32
jun 32
justin 32
kir@@ 32
kittens 32
koso 32
lamaze 32
leigh 32
lepin 32
looking 32
lose 32
luckin 32
lumens 32
lunar 32
luxcent 32
madison 32
magnifier 32
mara 32
master@@ 32
mauve 32
mech 32
medicinal 32
meg@@ 32
mela 32
ment@@ 32
milkca 32
mis 32
miss@@ 32
mk5@@ 32
mmies 32
mobile@@ 32
moistfull 32
mr.@@ 32
muscletech 32
newyork 32
nn@@ 32
nova4 32
omaga 32
osmo 32
ou 32
oud 32
p50 32
pab@@ 32
padding 32
pasjel 32
patterson 32
paws 32
pg-@@ 32
piso 32
poin@@ 32
points 32
pop-up 32
prep 32
primark 32
primary 32
private 32
promise 32
psi 32
puffs 32
quad@@ 32
quantum 32
ramyun 32
resealable 32
rh 32
riley 32
roblox 32
rockets 32
rollerball 32
roy@@ 32
rx-@@ 32
rxr 32
sac 32
sailormoon 32
sala 32
sanitizing 32
schoolbag 32
scrubber 32
september 32
sgp 32
shadows 32
similac 32
siren 32
skir@@ 32
sleep@@ 32
sleveless 32
slim@@ 32
small-large 32
softband 32
soles 32
sq 32
stacking 32
sterile 32
swee@@ 32
tapioca 32
tation 32
tera 32
terminal 32
theater 32
thir@@ 32
tightening 32
timex 32
trees 32
triton 32
tuxedo 32
ulzzang 32
underarmour 32
usb-c 32
vein 32
velvetines 32
vtech 32
warning 32
watt 32
waves 32
wei 32
wii 32
willow 32
wre@@ 32
x20 32
x75 32
yet 32
yoyoso 32
-300@@ 31
-fit 31
-t@@ 31
.1 31
.5cm 31
001@@ 31
002@@ 31
10pc 31
150mm 31
166 31
191 31
196 31
1piece 31
2-5 31
2018-19 31
202@@ 31
211@@ 31
25-@@ 31
2500 31
256@@ 31
28-34 31
282 31
290 31
306 31
326 31
328 31
32mm 31
338 31
3color 31
3pro 31
413@@ 31
580 31
6-9@@ 31
620@@ 31
640@@ 31
660@@ 31
7-1 31
7-in-1 31
7000 31
7inch 31
955@@ 31
990@@ 31
a12@@ 31
abo@@ 31
absolu 31
adjust 31
agent 31
aler 31
aluminium 31
astro@@ 31
att@@ 31
aussie 31
azur 31
bakeware 31
beau 31
biking 31
bl-@@ 31
blake 31
blowout 31
booklet 31
brocade 31
butterflies 31
c100 31
cameron 31
carla 31
chimmy 31
chri@@ 31
cici 31
cky 31
cms 31
cocoberry 31
continental 31
conversion 31
corned 31
coverup 31
crane 31
crate 31
cup@@ 31
custo@@ 31
dandelion 31
dashing 31
dic@@ 31
divine 31
dk 31
drama 31
draw@@ 31
drypers 31
e- 31
e5 31
earring@@ 31
eds 31
ell@@ 31
exchange 31
fav 31
fearless 31
fishnet 31
fl. 31
fleetmax 31
florence 31
fluoride 31
frank@@ 31
furla 31
ga-110 31
gamosa 31
gatsby 31
gies 31
gluco@@ 31
going 31
graphite 31
greeting 31
guardians 31
gx 31
hairbows 31
hamilton 31
haw@@ 31
heli@@ 31
hikari 31
hs@@ 31
igo 31
impro@@ 31
infl@@ 31
intra 31
jd 31
jewel@@ 31
jig@@ 31
jjs 31
jojoba 31
js@@ 31
juan 31
jvt 31
k001 31
kanken 31
kathryn 31
kindergarten 31
kiwi 31
komine 31
komodo 31
ktv 31
l-2xl 31
lacy 31
lbb 31
lea@@ 31
leak@@ 31
lebelage 31
led-@@ 31
lili@@ 31
lint 31
lipp@@ 31
litchi 31
loops 31
louise 31
macadamia 31
maldita 31
mate@@ 31
matter 31
medium-large 31
mee 31
mela@@ 31
mented 31
meri@@ 31
mf 31
mio125 31
mist@@ 31
mochi 31
mona 31
mori 31
mtr 31
mun 31
name@@ 31
nano@@ 31
nau@@ 31
negotiable 31
nemo 31
never@@ 31
nike@@ 31
nourish 31
ns-@@ 31
nuby 31
oc@@ 31
olaf 31
origins 31
osram 31
overwatch 31
ow@@ 31
paperang 31
parallel 31
paren@@ 31
password 31
penelope 31
percy 31
perkins 31
pom 31
pos 31
presen@@ 31
projection 31
qube 31
quick-drying 31
quiksilver 31
raven 31
rb 31
ree@@ 31
reese 31
regi@@ 31
register 31
resident 31
ret 31
rid 31
robes 31
roof 31
rs100 31
rta 31
sad 31
scu@@ 31
sdf@@ 31
see-through 31
sf-@@ 31
shapewear 31
shrimp 31
silica 31
slimfit 31
small@@ 31
spf15 31
squareneck 31
susan 31
tay@@ 31
tex@@ 31
thickened 31
thumbler 31
tiesides 31
totally 31
twice@@ 31
ubiquiti 31
umi 31
underwater 31
ure@@ 31
vegetarian 31
visible 31
vivo@@ 31
vu@@ 31
whisky 31
wj 31
ww@@ 31
x.@@ 31
x21 31
yel@@ 31
yt-@@ 31
zc554kl 31
zu 31
· 31
『 31
』 31
𝐞@@ 31
0.5@@ 30
0.7mm 30
028 30
030 30
036 30
118ml 30
14x@@ 30
18v 30
1oz 30
20000 30
2013-@@ 30
218 30
23.5l 30
25l 30
28-@@ 30
28street 30
2inch 30
3.4 30
35-39 30
3b 30
4g@@ 30
50s 30
512@@ 30
570 30
5inch 30
6ft 30
6oz 30
7cm 30
858 30
88ml 30
8inch 30
900g 30
909 30
90s 30
910@@ 30
9s 30
a62018 30
a70s 30
a91 30
aa-@@ 30
aba 30
able@@ 30
acce@@ 30
adilette 30
affor@@ 30
ahd 30
alie 30
all-natural 30
allergenic 30
alli@@ 30
alyssa 30
aman 30
amor 30
anas 30
anti-colic 30
apruva 30
aquatic 30
ar-@@ 30
attached 30
b-0@@ 30
b4 30
barcode 30
barebody 30
bata 30
beauti@@ 30
bigsize 30
bonnie 30
bourke 30
bubblegum 30
bustier 30
busy 30
buzz 30
bv-@@ 30
camcorder 30
carol 30
cavaliers 30
chapter 30
chilli 30
chocol@@ 30
chun@@ 30
citizen 30
coachella 30
cost@@ 30
cot 30
cular 30
cute@@ 30
decker 30
decool 30
despicable 30
dish@@ 30
dmc 30
dna 30
doll@@ 30
dor 30
drawers 30
drl 30
eline 30
emer@@ 30
energizer 30
enriched 30
envelopes 30
eric 30
ess@@ 30
essie 30
exfoliant 30
feathers 30
feeling 30
fig@@ 30
fine@@ 30
finished 30
flex@@ 30
flirt 30
flute 30
foglamp 30
found@@ 30
freshwater 30
friday 30
furious 30
g-string 30
gd-@@ 30
ghoul 30
gigi 30
gkk 30
godox 30
gor@@ 30
groot 30
gsw 30
haven 30
hh@@ 30
highlighters 30
hinges 30
hl@@ 30
holster 30
illusion 30
impor@@ 30
individually 30
itas 30
ites 30
ito@@ 30
ivana 30
jelt 30
jf 30
joggers 30
jordana 30
jute 30
jw 30
kad@@ 30
kan 30
karadium 30
katrina 30
katsa 30
kie@@ 30
kimchi 30
kne@@ 30
kose 30
kuroko 30
l.o.@@ 30
ladladlandph 30
lala 30
layout 30
lemongrass 30
lewis 30
lig@@ 30
lina 30
livestreaming 30
locker 30
lulu 30
luncheon 30
maca 30
mai 30
mallows 30
manuka 30
marmont 30
mediapad 30
mega@@ 30
mental 30
meric 30
metromanila 30
mfjewelry 30
micron 30
minimizer 30
mit 30
monica 30
mons 30
morty 30
mrc-@@ 30
mus 30
muse 30
mx-@@ 30
nan 30
naturale 30
nd@@ 30
needles 30
nica 30
nium 30
non-toxic 30
nova5i 30
nuo 30
oes 30
onia 30
onlyyouth 30
ono 30
outerwear 30
overun 30
palawan 30
papers 30
pba 30
pier@@ 30
pillowcases 30
pitta 30
pms 30
pocketbook 30
primera 30
printable 30
program@@ 30
puffed 30
push@@ 30
ral@@ 30
rella 30
renewing 30
resi@@ 30
resurfacing 30
retinol 30
rg@@ 30
rich@@ 30
rj@@ 30
rox@@ 30
rs150 30
ruched 30
rules 30
s10lite 30
s4@@ 30
s9@@ 30
sausage 30
secure 30
shabu 30
shane 30
shat@@ 30
short-@@ 30
shuta 30
skins 30
slr 30
smashing 30
smd 30
sooper 30
spectrum 30
spen@@ 30
spyker 30
stack@@ 30
stam@@ 30
stealth 30
stone@@ 30
straw@@ 30
strobe 30
sunshield 30
supp@@ 30
supplements 30
sus 30
t-back 30
tb@@ 30
teats 30
television 30
tension 30
textbook 30
then@@ 30
throat 30
tic@@ 30
time@@ 30
tion@@ 30
tix 30
tk 30
tongue 30
tracy 30
tsubaki 30
txt 30
tyre 30
uhs-i 30
unsweetened 30
v.@@ 30
v5plus 30
vanessa 30
vap@@ 30
vct@@ 30
ventilation 30
vero 30
vina 30
vinci 30
washcloth 30
webcam 30
wed@@ 30
whitener 30
woods 30
xqt-@@ 30
yaris 30
zoya 30
zx@@ 30
-10 29
-27 29
.2 29
0-3mos 29
022 29
024 29
033 29
051 29
1000pcs 29
1005 29
115@@ 29
12x12 29
155@@ 29
164 29
198 29
1991 29
1k 29
20a 29
24mos 29
258 29
2colors 29
2pcs. 29
312@@ 29
316@@ 29
3310 29
36-45 29
3usb 29
4-6@@ 29
435@@ 29
5-piece 29
510@@ 29
540@@ 29
5pairs 29
704 29
8-10 29
819@@ 29
830 29
8t 29
active@@ 29
adul@@ 29
aesop 29
again 29
aged 29
air-@@ 29
aircraft 29
aller 29
along 29
alt 29
anker 29
appro@@ 29
aquas@@ 29
aro 29
atom 29
aukey 29
authorized 29
b1t1 29
bai@@ 29
bare@@ 29
barely 29
bib@@ 29
birken 29
blin@@ 29
bobson 29
bot@@ 29
bracele@@ 29
brande@@ 29
brightest 29
bulldog 29
bund@@ 29
c7@@ 29
cables 29
calorie 29
camry 29
canned 29
cci 29
central 29
cerave 29
cere@@ 29
cke@@ 29
colourful 29
corrugated 29
counting 29
croco 29
cu 29
cudd@@ 29
cuffs 29
d-0@@ 29
d001 29
dale 29
davi@@ 29
ddle 29
deodorizer 29
developer 29
diaries 29
digits 29
dinosaurs 29
earloop 29
emboss 29
er. 29
eve@@ 29
exotic 29
exp@@ 29
exquisite 29
files 29
filipiniana 29
finest 29
finn 29
flip@@ 29
flounce 29
fpv 29
freak 29
fudge 29
fujitsu 29
fullface 29
g7 29
galactomyces 29
gate@@ 29
gener@@ 29
giving 29
glide 29
gods 29
grit 29
grizzly 29
gro 29
gth 29
happywallph 29
hea 29
hips 29
hugot 29
i. 29
incredible 29
intal 29
january 29
joyo 29
k-pop 29
kao 29
kath@@ 29
kita 29
l-gluta 29
lai@@ 29
lamps 29
latitude 29
lesportsac 29
linda 29
liptints 29
lite@@ 29
lunchbag 29
maiden 29
masked 29
mess 29
metal@@ 29
milli@@ 29
mlb 29
modeling 29
monte 29
month@@ 29
moti@@ 29
mots 29
mounting 29
mummy 29
mutarru 29
n-max 29
narrow 29
naughty 29
necklace@@ 29
nib 29
nip 29
nova5 29
old@@ 29
olo 29
oned 29
ories 29
oscar 29
p. 29
packbag 29
pand@@ 29
pel@@ 29
pld 29
ple 29
plus@@ 29
plusize 29
polisher 29
popp@@ 29
port@@ 29
pranela 29
pristine 29
q1 29
rectifier 29
refining 29
ress 29
rier 29
ris 29
rodeo 29
sabo 29
sandugo 29
savers 29
saya 29
sci@@ 29
seatcover 29
secondhand 29
seconds 29
self@@ 29
sentra 29
sequ@@ 29
serve 29
seven@@ 29
sheath 29
shirly 29
shiro 29
slate 29
slay 29
slogan 29
smu@@ 29
sno@@ 29
sp-@@ 29
spanish 29
spider@@ 29
stiletto 29
ston 29
stor 29
stx 29
superheroes 29
sym 29
t2@@ 29
t4@@ 29
tassels 29
tomat@@ 29
topp@@ 29
topps 29
track@@ 29
transfor@@ 29
tubbies 29
turtles 29
uk@@ 29
umb@@ 29
urine 29
urs 29
valiant 29
vd 29
velour 29
virtual 29
volcom 29
w125 29
walle@@ 29
watsons 29
write 29
wynn 29
xing 29
xmax 29
yor@@ 29
yummy 29
zc520tl 29
-30 28
-5 28
-b 28
032 28
034 28
053 28
1.2l 28
1.5kg 28
134 28
163 28
185@@ 28
18mm 28
18months 28
2.8 28
2017-18 28
230gsm 28
240ml 28
251 28
260gsm 28
265 28
275 28
28mm 28
322 28
323 28
32cm 28
334 28
378@@ 28
3e 28
4.2 28
410 28
411@@ 28
430 28
45mm 28
5-1 28
5-6@@ 28
5.5@@ 28
507 28
509 28
50x@@ 28
604 28
609 28
610@@ 28
662 28
678 28
6v 28
7-8 28
727 28
806 28
903 28
a20@@ 28
aape@@ 28
abelle 28
acc 28
agi 28
amin@@ 28
amp@@ 28
ange 28
anger 28
anti-dust 28
applique 28
asse@@ 28
atin 28
atlas 28
atv 28
avr 28
axis 28
bagoong 28
barbara 28
beachkins 28
beddings 28
beli@@ 28
bennett 28
berg 28
bert 28
bia 28
blisty 28
blu 28
bnwot 28
boards 28
bonus 28
bott@@ 28
brite 28
brushless 28
bsn 28
bury 28
cali 28
came@@ 28
cand@@ 28
card@@ 28
cele@@ 28
cellular 28
checker 28
chekered 28
cherie 28
chinkee 28
chok 28
ciss 28
cleanse 28
cleveland 28
coas@@ 28
collins 28
commander 28
concrete 28
constellation 28
coupler 28
crafting 28
croc 28
destash 28
dic 28
digit 28
dm 28
dmax 28
doors 28
dore@@ 28
doz 28
dre 28
dress. 28
dusk 28
ebene 28
ecosport 28
eliminator 28
elo 28
ents 28
erich 28
experia 28
f3@@ 28
faber-castell 28
fallen 28
fashionice 28
fier 28
financial 28
flags 28
flair 28
flam@@ 28
follow 28
four@@ 28
fraiche 28
francesca 28
frequency 28
ga-110@@ 28
gand@@ 28
gers 28
gk 28
glade 28
glutagen 28
gra 28
grandia 28
graph 28
groo@@ 28
hab@@ 28
handles 28
hatsune 28
hau@@ 28
hc 28
hd-@@ 28
held 28
hemp 28
hex@@ 28
hf 28
high-waisted 28
honor@@ 28
hui 28
hungry 28
hunt 28
hz 28
in. 28
insipio 28
ips 28
jb@@ 28
jel@@ 28
jenner 28
john@@ 28
kandp 28
kari 28
kawhi 28
kevler 28
kickstand 28
kies 28
kinder 28
kis 28
kuro@@ 28
lactation 28
laine 28
large@@ 28
lemon@@ 28
lits 28
locked 28
loft 28
ltd 28
lucy 28
m9 28
m9@@ 28
maxell 28
micari 28
micheal 28
milk@@ 28
mined 28
moist@@ 28
moisturi@@ 28
mustela 28
neem 28
nido 28
nn 28
nomad 28
nori 28
nothing 28
october 28
oper@@ 28
orginal 28
outfits 28
outside 28
overalls 28
p3 28
parfums 28
pay 28
phase 28
phat 28
pili 28
pinas 28
pir@@ 28
pito 28
plan 28
pple 28
prosperity 28
psvita 28
quin@@ 28
rado 28
reality 28
relaxing 28
restaurant 28
restocked 28
restor@@ 28
rey@@ 28
rm@@ 28
roi@@ 28
role 28
roll@@ 28
rubber@@ 28
rubi@@ 28
rucksack 28
sabina 28
samplers 28
sang@@ 28
sanji 28
scripture 28
scs 28
sensational 28
sense4 28
sense6 28
shf 28
shoelace 28
shopp@@ 28
sie@@ 28
singer 28
smock 28
splen@@ 28
sportsbra 28
squeaky 28
st.@@ 28
strand@@ 28
stret@@ 28
stripper 28
sunvit- 28
super-@@ 28
superbklean 28
symbol 28
tablea 28
tain 28
tain@@ 28
tian 28
tica 28
trapal 28
triangular 28
trinity 28
trip 28
trust 28
tulip 28
twisting 28
ucc 28
uhd 28
ukelele 28
uring 28
user 28
uy 28
w10 28
waikiki 28
weison 28
wers 28
whiskas 28
xe 28
xin 28
xinjia 28
xtra 28
yakimoto 28
yun@@ 28
zai 28
zaku 28
zero@@ 28
zf 28
-00 27
-06 27
-41 27
-neck 27
-proof 27
-x@@ 27
0000@@ 27
054 27
1-12 27
1.25 27
1.36kg 27
10kg 27
110ml 27
12-18m 27
125i 27
147 27
150cm 27
150i 27
154 27
15x@@ 27
183 27
2004-@@ 27
2009-@@ 27
205@@ 27
217 27
217@@ 27
220g 27
231 27
259 27
280ml 27
298@@ 27
2x2 27
2xl-4xl 27
305@@ 27
311 27
316l 27
324@@ 27
345@@ 27
36pcs 27
370 27
4.0@@ 27
45ml 27
4d-@@ 27
5-pack 27
550kl 27
55g 27
5se 27
666 27
708 27
7oz 27
8-12 27
8l 27
90w 27
910 27
920@@ 27
960@@ 27
99.9 27
a-0@@ 27
a7-@@ 27
abby 27
aceking 27
acidic 27
aga@@ 27
aladdin 27
all-inclusive 27
aller@@ 27
allo@@ 27
amar@@ 27
animated 27
anti-dandruff 27
aph@@ 27
api 27
api@@ 27
astronaut 27
aves 27
ba-@@ 27
bagshop 27
becado 27
bh@@ 27
bias 27
bieber 27
bikers 27
birkin 27
bj@@ 27
bloody 27
bob@@ 27
bobb@@ 27
booth 27
bratz 27
bre 27
breasted 27
bulbs 27
bumgenius 27
bus@@ 27
camou 27
camp 27
capo 27
cardcaptor 27
cate 27
centrix 27
chafing 27
chains 27
chakra 27
charm@@ 27
chua 27
class10 27
cm-13@@ 27
coast 27
confe@@ 27
coq10 27
cora 27
cr 27
craf@@ 27
creams 27
crimson 27
ction@@ 27
cw@@ 27
cz@@ 27
dana 27
dandruff 27
deoproce 27
directional 27
division 27
doggy 27
downlight 27
dra 27
drift 27
dryfit 27
duck@@ 27
dumbbell 27
dutche 27
dx@@ 27
eclipse 27
eee 27
eg 27
eleven 27
elin 27
ellie 27
embroider 27
emo@@ 27
engrave 27
engraving 27
environmental 27
eq@@ 27
essences 27
eternal 27
ew@@ 27
examination 27
explosive 27
f18 27
falcon 27
fantasies 27
faye 27
fect 27
fern-d 27
five-@@ 27
flexi 27
fren@@ 27
frontier 27
gala@@ 27
garanimals 27
geena 27
geo 27
geo@@ 27
ggs 27
ggy 27
ght@@ 27
gles 27
glutat@@ 27
grammar 27
granules 27
greentea 27
hardness 27
heart-shaped 27
high-waist 27
hinge 27
hobonichi 27
horror 27
hur@@ 27
ic@@ 27
ice@@ 27
ichiban 27
ilog 27
infused 27
itech 27
jang 27
jewels 27
jto 27
kaye 27
kendall 27
kenko 27
kf@@ 27
lac 27
laurel 27
leen 27
lete 27
loloph 27
luckycharm 27
luke 27
mable 27
machines 27
madeca 27
malt 27
mamas 27
manufacturer 27
metalic 27
meyer 27
might 27
mille@@ 27
milliliters 27
mini4 27
miso 27
mission 27
mizuno 27
mna 27
monitoring 27
mp-@@ 27
mq@@ 27
muddy 27
muster 27
n88 27
nac 27
nag@@ 27
nal 27
neca 27
nectar 27
neil 27
nel@@ 27
nen@@ 27
niacinamide 27
nightmare 27
northface 27
november 27
nr 27
nutritional 27
olymp@@ 27
one68 27
organ@@ 27
p8@@ 27
pant@@ 27
paramore 27
pashmina 27
path 27
paul@@ 27
person@@ 27
pocke@@ 27
polly 27
polycotton 27
position 27
prewalker 27
price@@ 27
prize 27
protect@@ 27
pton 27
ptop 27
quet 27
r2 27
racks 27
rence 27
retailer 27
reve 27
riverdale 27
robo@@ 27
roman@@ 27
ryan 27
s6edge 27
salicylic 27
sandal@@ 27
say@@ 27
sdd@@ 27
sh-@@ 27
shirt- 27
shment 27
shoes-@@ 27
shots 27
silverhan 27
single-@@ 27
sisters 27
skippy 27
skt 27
sm. 27
sman 27
snowflakes 27
soleil 27
soul@@ 27
sparco 27
squee@@ 27
sses 27
ssions 27
stel@@ 27
sten 27
surround 27
sweatshirts 27
t230 27
tang 27
template 27
tery 27
tessa 27
they 27
thri@@ 27
thunder@@ 27
thy@@ 27
tis@@ 27
titans 27
tofu 27
tour@@ 27
treasures 27
tress 27
tz@@ 27
ufo 27
ume 27
usborne 27
uso 27
vermi@@ 27
vince 27
vio@@ 27
violin 27
wavy 27
wearing 27
weatherproof 27
wholesaler 27
williams 27
wire@@ 27
xo@@ 27
y- 27
y5-2 27
yalex 27
your@@ 27
zenfone@@ 27
zhi@@ 27
zombie 27
ᄋ@@ 27
's@@ 26
0.6 26
1.2kg 26
1000rpm 26
1004 26
100pesos 26
1015 26
10grams 26
10th 26
139@@ 26
14.5mm 26
14inches 26
177 26
181 26
18karat 26
1mp 26
2.4@@ 26
20kg 26
218@@ 26
243 26
2600mah 26
272 26
3-layer 26
315@@ 26
318 26
324 26
336 26
35cm 26
375 26
3pcs. 26
4000mah 26
454g 26
45g 26
4p 26
4ply 26
4s1m 26
4usb 26
500pcs 26
503 26
512 26
518 26
6.0 26
60mm 26
6l 26
8-in-1 26
80mm 26
820 26
826@@ 26
98-@@ 26
980@@ 26
a5000 26
accen@@ 26
activ 26
acupuncture 26
adjustment 26
af1 26
aira 26
aline 26
alis 26
ample 26
ancient 26
anti-fall 26
anti-wrinkle 26
ascen@@ 26
assi@@ 26
astringent 26
aud@@ 26
auth. 26
auto-@@ 26
aventurine 26
awa@@ 26
bacterial 26
bag- 26
bakery 26
bark 26
bathtub 26
beth 26
binding 26
blen@@ 26
bore 26
breastpump 26
brera 26
bridesmaid 26
bud@@ 26
bull@@ 26
buyer 26
c-0@@ 26
canmake 26
capac@@ 26
cardboard 26
cardstock 26
cari@@ 26
ceramide 26
chandelier 26
charg@@ 26
chat 26
cheeks 26
cheeky 26
chrome@@ 26
ckles 26
class-a 26
click@@ 26
closure 26
colla@@ 26
colorstay 26
coloured 26
correcting 26
cry 26
cting 26
cto 26
cuticle 26
cv@@ 26
d-max 26
d5 26
dalandan 26
danielle 26
davao 26
decathlon 26
deepcool 26
desi@@ 26
detoxifying 26
devo@@ 26
dew@@ 26
dip@@ 26
direction 26
dive 26
dont 26
dowell 26
dragon@@ 26
drive@@ 26
duct 26
dust-proof 26
eb@@ 26
ebike 26
experience 26
fansite 26
fashions 26
ffy 26
fierce 26
fir 26
flas@@ 26
frankincense 26
fructis 26
gardenia 26
garments 26
gary 26
generator 26
germ 26
gif@@ 26
girbaud 26
girlfriend 26
glassware 26
god@@ 26
graco 26
graduation 26
grande 26
grat@@ 26
greencross 26
guns 26
haze 26
headsets 26
helper 26
highlighting 26
highly 26
hn@@ 26
houseware 26
ich@@ 26
illustrated 26
in1@@ 26
indo@@ 26
int@@ 26
invictus 26
iphonexs 26
j5@@ 26
jackie 26
jap@@ 26
jerseys 26
jour@@ 26
julius 26
juniors 26
jurassic 26
kev@@ 26
kigurumi 26
kihno 26
kily.ph 26
knapsack 26
knit@@ 26
kts-@@ 26
l300 26
labiotte 26
lah 26
lamin@@ 26
language 26
lasercut 26
leave 26
leon 26
lexing 26
licensed 26
lifetime 26
line@@ 26
lipkit 26
lotions 26
lowback 26
lx-@@ 26
maru 26
masters 26
maui 26
maxwell 26
mba 26
mcc@@ 26
mcdo 26
megalast 26
melimelo 26
melted 26
meme 26
mendoza 26
mers 26
midri@@ 26
ming@@ 26
misaki 26
mise 26
mitt 26
monaco 26
monte@@ 26
mother@@ 26
motomo 26
mtk 26
murang 26
mxi 26
n5 26
nail@@ 26
nas 26
natal 26
nee 26
nies 26
nirvana 26
noki@@ 26
nord 26
obsidian 26
octa@@ 26
ola@@ 26
older 26
ond 26
orocan 26
otterbox 26
ova 26
overlay 26
p1000 26
p9@@ 26
pain@@ 26
pantyhose 26
pasalubong 26
pebble 26
percent 26
perfectly 26
perm 26
phar@@ 26
phonecase 26
pixma 26
plain@@ 26
pleats 26
pneumatic 26
polar@@ 26
pompoms 26
poten@@ 26
prescription 26
pretty@@ 26
prun@@ 26
ps-@@ 26
ption 26
publi@@ 26
qualit@@ 26
r11s 26
rakk 26
rapoo 26
realmex 26
reflex 26
reg 26
rejuven@@ 26
reno@@ 26
rep@@ 26
ringlight 26
road@@ 26
rounds 26
rubi 26
s7562 26
sai 26
sana 26
sas@@ 26
sasha 26
scand@@ 26
scoo@@ 26
sdcz@@ 26
sette 26
shie 26
shun 26
sim@@ 26
six@@ 26
skn 26
skybox 26
snowman 26
society 26
sockets 26
soya 26
sso@@ 26
standar@@ 26
stea@@ 26
stimulator 26
stitching 26
strai@@ 26
strapped 26
sv@@ 26
t4k 26
t7@@ 26
tad@@ 26
tara 26
tca 26
techtrance 26
terminator 26
thigh 26
thro@@ 26
tiered 26
tilt 26
toasted 26
tobi 26
touchpad 26
trafaluc 26
travis 26
trek 26
trend@@ 26
trin@@ 26
tuffgear 26
tweed 26
twine 26
u. 26
ung@@ 26
uta 26
ute 26
v380 26
v5@@ 26
vacation 26
variation 26
vida 26
vise 26
wahl 26
waltz 26
wanted 26
whit 26
wintermelon 26
wires 26
within 26
workpro 26
wreath 26
xo-@@ 26
y55s 26
y7@@ 26
yao 26
yeast 26
zealand 26
znb 26
zooey 26
zurc 26
zza 26
ᅵ@@ 26
🏼 26
,@@ 25
-15@@ 25
-16@@ 25
-4a 25
-s 25
-white 25
.shop 25
0-12 25
0.3 25
0.7 25
044 25
070 25
1-5@@ 25
1.5ml 25
10.2 25
1002 25
1050@@ 25
107@@ 25
1080@@ 25
10inch 25
11.5 25
11g 25
1970 25
1meter 25
200pcs 25
2014-2018 25
2016-2020 25
20sheets 25
214 25
214@@ 25
226 25
230ml 25
238 25
24months 25
292 25
2n@@ 25
317 25
327 25
337 25
338@@ 25
375@@ 25
3inch 25
4.5@@ 25
40a 25
5.8 25
551 25
55mm 25
580@@ 25
58mm 25
5inches 25
6-1 25
6-12mos 25
6-8 25
6.5@@ 25
611 25
6i 25
706 25
780@@ 25
823@@ 25
88-@@ 25
881 25
8x11 25
9000mah 25
911 25
959 25
a11 25
aba@@ 25
abbott 25
activities 25
ae-@@ 25
akk7@@ 25
alite 25
alized 25
alizer 25
already 25
ance@@ 25
andriod 25
annual 25
ano@@ 25
aprilskin 25
arcade 25
arch 25
arch@@ 25
assemble 25
assor@@ 25
assy@@ 25
aster 25
asy 25
authenti@@ 25
b12 25
background 25
bacteria 25
beeswax 25
benz 25
beryl 25
bi-fold 25
bikes 25
billie 25
bioline 25
bl-5@@ 25
bloo@@ 25
blooms 25
bly@@ 25
bobs 25
breathe 25
broom 25
brush@@ 25
buffing 25
builder 25
buldak 25
bundled 25
c-3@@ 25
c7 25
capiz 25
carryall 25
carved 25
cas 25
cateye 25
cello 25
certificate 25
chargers 25
chlorine 25
chocker 25
christ 25
cin 25
cinnamoroll 25
clai@@ 25
cology 25
columbia 25
content 25
convenient 25
cooky 25
corps 25
cracker 25
crist@@ 25
cu.ft. 25
cut-@@ 25
cx 25
cycles 25
d-1@@ 25
d5@@ 25
daks 25
dallas 25
darci 25
deadly 25
deco@@ 25
deformation 25
demi 25
dentist 25
dered 25
dess@@ 25
dex@@ 25
difference 25
dil@@ 25
dp-@@ 25
earbud 25
eczema 25
edens 25
ellen 25
embellished 25
engineer 25
equalizer 25
europe 25
evapor@@ 25
every@@ 25
exia 25
f5youth 25
f7@@ 25
f7youth 25
fern@@ 25
fisher@@ 25
flared 25
flav@@ 25
flux 25
focallure 25
fortified 25
fortun@@ 25
funnel 25
ga110@@ 25
gel-cream 25
genesis 25
genius 25
geometry 25
given 25
glutamax 25
goodnight 25
grounds 25
gtx@@ 25
guil@@ 25
gunpla 25
gw 25
h. 25
hag@@ 25
hana 25
handsoap 25
hao@@ 25
heartstrings 25
heimish 25
hexagonal 25
hh 25
hil@@ 25
holding 25
hoy 25
hunger 25
hurley 25
i5-@@ 25
illuminated 25
imari 25
injection 25
inks 25
instru@@ 25
iron@@ 25
ise 25
iso 25
iwhite 25
j7plus 25
jan 25
jetflash 25
jill 25
jing@@ 25
jomalone 25
jord@@ 25
jovan 25
k.o 25
kag@@ 25
kapote 25
kathy 25
kitty@@ 25
koji@@ 25
l- 25
laughing 25
lazypod 25
lc150 25
leak 25
leapfrog 25
legion 25
lev3 25
lexington 25
lime@@ 25
litre 25
lk@@ 25
looks 25
loud 25
lq 25
luci@@ 25
lure 25
lychee 25
macar@@ 25
macy 25
manifold 25
margaret 25
masquerade 25
mct 25
memor@@ 25
micro-@@ 25
milkshake 25
miniatures 25
mirrorless 25
mmi@@ 25
momma 25
monomola 25
mumu 25
mv@@ 25
names 25
napkins 25
nath@@ 25
neocell 25
neogen 25
ng@@ 25
nl 25
no6 25
nova@@ 25
np 25
o-neck 25
o-ring 25
oasis 25
ohm 25
onwards 25
opaque 25
organizers 25
oxidant 25
oxide 25
papa 25
papas 25
parent 25
parti@@ 25
peach@@ 25
pere@@ 25
perfector 25
pg-90@@ 25
philipp@@ 25
photopaper 25
pirates 25
planter 25
plushies 25
polvoron 25
procare 25
prone 25
puller 25
quality@@ 25
quat@@ 25
rape 25
rc-@@ 25
relic 25
repackage 25
replace 25
review 25
richard 25
rightpack 25
rihanna 25
rison 25
rockstud 25
roo@@ 25
rotatable 25
row@@ 25
rugs 25
rule 25
sable 25
scal@@ 25
scalar 25
scars 25
scrapbooking 25
sens@@ 25
sensation 25
seren@@ 25
serena 25
shinee 25
sic 25
sign@@ 25
sio 25
siopao 25
sletic 25
slingback 25
sliver 25
smacker 25
snakeskin 25
sole@@ 25
sorting 25
soybean 25
spld 25
squash 25
ssive 25
sson 25
starfish 25
starting 25
string@@ 25
sugardolls 25
sumsung 25
supergirl 25
swag 25
sx 25
t285 25
t8 25
tally 25
tanktop 25
tanya 25
tapered 25
tbc 25
thayers 25
theraphy 25
third 25
thrasher 25
tical 25
tional 25
tnx 25
tracking 25
trekking 25
trucks 25
trumpet 25
truth 25
ts- 25
u.s.a 25
uda 25
until 25
upper@@ 25
uro 25
urvan 25
using 25
ux 25
v. 25
v4 25
vegeta 25
velve@@ 25
velvety 25
vu 25
w7 25
wf@@ 25
whirlpool 25
wily 25
wok 25
wpf 25
wq@@ 25
wri@@ 25
wx 25
xin@@ 25
xl-2xl 25
xlr 25
y6-2018 25
yin@@ 25
yna 25
yopokki 25
yson 25
ysp 25
zers 25
zest 25
zl@@ 25
zoeva 25
zx 25
ᄉ@@ 25
ᅡ@@ 25
＃ 25
-18@@ 24
-45 24
-9@@ 24
-j@@ 24
-y@@ 24
........... 24
004@@ 24
021 24
023 24
1-0@@ 24
10-12 24
10yrs 24
11x@@ 24
12.9 24
12pcs. 24
13pcs 24
15m 24
165@@ 24
1816 24
1960 24
197 24
1987 24
1yr 24
2000mah 24
208@@ 24
2200 24
228@@ 24
241 24
253 24
269 24
278@@ 24
285 24
290@@ 24
295@@ 24
2y 24
314@@ 24
335@@ 24
3in1@@ 24
3layer 24
3yrs 24
4-8 24
4.74a 24
40-45 24
4u 24
5n1 24
5v@@ 24
61@@ 24
621 24
625 24
678@@ 24
685 24
70mm 24
75mm 24
7w 24
80x@@ 24
922 24
9l 24
a9-@@ 24
abdominal 24
accord 24
aces 24
acey 24
actor 24
adore 24
ageless 24
aichun 24
alluring 24
alphaland 24
alta 24
am4 24
andre 24
ante 24
anti-lost 24
antonio 24
artistry 24
avai@@ 24
aven@@ 24
b1@@ 24
bab 24
babyboy 24
babygirl 24
bandi@@ 24
barbeque 24
barrier 24
batch@@ 24
bc175 24
bene@@ 24
bes 24
bga-@@ 24
bi-@@ 24
bil@@ 24
birken@@ 24
bnc 24
boa 24
boardshorts 24
boned 24
bounty 24
boyz 24
brazillian 24
bread@@ 24
breathing 24
broad 24
bs-@@ 24
bx@@ 24
c- 24
cache 24
calendula 24
cancelling 24
cancer 24
caplets 24
carrie 24
cartridges 24
caterpillar 24
cca 24
celestial 24
cellowax 24
chari@@ 24
chateau 24
chen@@ 24
child@@ 24
chinos 24
cinema 24
circles 24
cjve 24
clare 24
cole@@ 24
compressed 24
condor 24
corsair 24
cracked 24
cyclo@@ 24
dashiki 24
definer 24
descendants 24
detailed 24
dhendhenshop 24
dilis 24
dirt 24
discover 24
discovery 24
dota2 24
doterra 24
dres 24
driven 24
ed-@@ 24
elisse 24
especial 24
etes 24
extras 24
eyebrows 24
fading 24
fasion 24
fiberglass 24
flavoring 24
forehead 24
fred 24
frogsuits 24
g6@@ 24
gb-@@ 24
gel-@@ 24
gj@@ 24
grs 24
guar@@ 24
guc 24
gugo 24
gym@@ 24
gyro 24
h1 24
hachi 24
hawaii 24
heroine 24
hip@@ 24
hit 24
hon 24
hou 24
hq@@ 24
hu 24
huggable 24
hughes 24
hurricane 24
i7-@@ 24
ics 24
ii@@ 24
inch@@ 24
inda 24
ini@@ 24
insole 24
intro 24
iphonexsmax 24
ist 24
jagthug 24
jart 24
jenga 24
jergens 24
jh-@@ 24
ju-ju-be 24
julie 24
kang@@ 24
kas 24
kawa 24
kissed 24
klean 24
kojie 24
korean-style 24
kts-10@@ 24
kyo@@ 24
kyt 24
ladies@@ 24
laid 24
laila 24
lao 24
latch 24
lax 24
leap 24
leds 24
lem 24
leur 24
lev@@ 24
lighten@@ 24
lings 24
lington 24
lipz 24
liter@@ 24
ma-fra 24
maggie 24
mall@@ 24
matthe@@ 24
maybeline 24
mcfarlane 24
meisons 24
members 24
merrysun 24
metallica 24
meteor 24
mexican 24
miami 24
mies 24
milka 24
minidress 24
molds 24
molten 24
mond 24
montessori 24
motif 24
mou@@ 24
moulded 24
msa 24
mulberry 24
multimeter 24
muslin 24
narciso 24
narnia 24
nesoberi 24
net@@ 24
nex 24
nickel 24
nik 24
novel@@ 24
np300 24
numerals 24
nvidia 24
oak 24
offwhite 24
oliver 24
onlineshop 24
opi 24
option 24
organ 24
osaki 24
osh 24
ost 24
outs 24
oyster 24
packet 24
packets 24
palazzo 24
pallet 24
pastillas 24
paw@@ 24
pawnablesplcodgenuine100 24
peas 24
pellet 24
pepero 24
petron 24
phoebe 24
pictures 24
plac 24
plo@@ 24
plus.@@ 24
pm2.5 24
poo 24
porsche 24
prai@@ 24
preppy 24
preschool 24
profession@@ 24
pusheen 24
pussy 24
px@@ 24
pyunkang 24
qoute 24
qual@@ 24
quelch 24
quen@@ 24
quicksilver 24
r001 24
r6 24
rach@@ 24
rad@@ 24
raven@@ 24
reel 24
rid@@ 24
roth 24
rubb@@ 24
rubbing 24
russe 24
sanchez 24
sanicare 24
sap@@ 24
sardines 24
saurus 24
scorpio 24
script 24
sei 24
serpentina 24
sharpie 24
shatterproof 24
shinny 24
shippuden 24
shirataki 24
shovel 24
showa 24
shu 24
slip-@@ 24
slipon 24
smash@@ 24
smoked 24
snowy 24
soo 24
soprano 24
spd 24
sphere 24
squir@@ 24
ssss@@ 24
stimul@@ 24
struck 24
stur@@ 24
subaru 24
sulfate 24
taro 24
tatcha 24
tears 24
temper 24
thongs 24
threaded 24
tired 24
tneck 24
to0.@@ 24
tol@@ 24
tolda 24
topic 24
tourmaline 24
turbans 24
tx@@ 24
tyshop 24
unbreakable 24
ured 24
us10k 24
valentus 24
victor 24
vie@@ 24
w. 24
wade 24
weeks 24
wicked 24
wilton 24
workbooks 24
wrist@@ 24
xia 24
xlarge 24
xp 24
young@@ 24
ypad 24
yurry 24
zation 24
zc553kl 24
zhi 24
zipback 24
zippy 24
'beau 23
'fashion 23
'issey 23
'l 23
'style 23
'z 23
-12 23
-37@@ 23
0.8@@ 23
0002 23
007@@ 23
040 23
042 23
045 23
1-15 23
1-2yrs 23
1-4@@ 23
1.2to@@ 23
1.6kg 23
1000mm 23
10mx45cm 23
1150 23
116@@ 23
11pcs 23
126@@ 23
130ml 23
196@@ 23
19cm 23
1color 23
1inch 23
2-layer 23
2.5kg 23
2017-@@ 23
22mm 23
239 23
24-29 23
250v 23
2ft 23
3-6months 23
3-6mos 23
3-pc 23
311@@ 23
315 23
316 23
332 23
354ml 23
368 23
36cm 23
3inches 23
3meters 23
408 23
454 23
460@@ 23
474@@ 23
499 23
4ch 23
4in 23
4pcs. 23
50l 23
514@@ 23
532ml 23
556 23
556@@ 23
578@@ 23
5ft 23
5meters 23
5xl 23
600g 23
60caps 23
664 23
6inches 23
6pcs. 23
6w 23
6y 23
711 23
804 23
811 23
828@@ 23
850g 23
9.00 23
955 23
a15@@ 23
a1k 23
a6000 23
abella 23
ability 23
abonne 23
aches 23
ago 23
aku 23
alangan 23
albom 23
alcoplus 23
aly 23
amelia 23
ampalaya 23
anastacia 23
anatomy 23
angelica 23
angled 23
anti- 23
apple@@ 23
archer 23
aries 23
arthur 23
ators 23
atory 23
audi 23
aways 23
b.b 23
babyland 23
badia 23
bber 23
beep 23
bluehouse 23
blur@@ 23
boba 23
bodywash 23
bookshelf 23
bosca 23
boysen 23
branch 23
breath@@ 23
brighten 23
broadway 23
brooke 23
brun@@ 23
buckles 23
c6@@ 23
caged 23
cana 23
carri@@ 23
catholic 23
cause 23
cedarwood 23
cheaper 23
chry@@ 23
cka 23
ckets 23
ckie 23
cling 23
cloths 23
cm-11@@ 23
coffe 23
coin@@ 23
comp 23
cond 23
cor 23
cose 23
cove 23
crafted 23
crossgrain 23
crossover 23
crypton 23
ctable 23
cushi@@ 23
d2@@ 23
dare 23
dbz 23
ddr5 23
de-@@ 23
dea 23
december 23
deodorizing 23
detailing 23
dianne 23
dipper 23
dis 23
drac@@ 23
ds-2ce@@ 23
dummy 23
easysoft 23
edc 23
eled 23
elise 23
ely@@ 23
embelli@@ 23
energi@@ 23
eqt 23
eras@@ 23
essensa 23
everlasting 23
evi@@ 23
eyel@@ 23
eyo@@ 23
f2 23
factorie 23
february 23
ff353 23
fh@@ 23
fiber@@ 23
fjallraven 23
flagship 23
fleshlight 23
flowery 23
fort 23
four-@@ 23
fra 23
frameless 23
fsl 23
g5@@ 23
gao 23
gashapon 23
gdplus 23
gemini 23
gery 23
ghi@@ 23
ghter 23
ghts 23
gillette 23
glas 23
glass11 23
glutha 23
gly 23
got@@ 23
goya 23
granola 23
gutter 23
halogen 23
handsome 23
hearing 23
here@@ 23
hey 23
high-grade 23
hippo 23
hipseat 23
homes 23
hua 23
hygi@@ 23
ik 23
improved 23
ind@@ 23
indi@@ 23
ined 23
instruments 23
ip11 23
ip65 23
iphone5g 23
irdy 23
j4@@ 23
jabra 23
janet 23
jaw 23
jf@@ 23
jg@@ 23
jig 23
joyce 23
kape 23
kapeng 23
karl 23
katty 23
kg@@ 23
kidz 23
knock 23
lace@@ 23
lalaloopsy 23
lavatory 23
leche 23
lie@@ 23
light-@@ 23
liv 23
livestream 23
lle@@ 23
lling 23
loaded 23
lockset 23
logical 23
lp-e@@ 23
lumbar 23
lumia 23
lx 23
lyra 23
lys@@ 23
m3.0 23
mailtank 23
mane 23
masturbation 23
mbled 23
mechanism 23
megan 23
melan@@ 23
metrosunnies 23
microwaveable 23
mijia 23
milan 23
milestone 23
milwaukee 23
mitchell 23
mitsu@@ 23
mng 23
mod@@ 23
modified 23
molly 23
mont@@ 23
moo@@ 23
mothers 23
mulan 23
n3 23
nata 23
naturally 23
navarros 23
negosyo 23
nipper 23
nuskin 23
off-white 23
omo 23
ono@@ 23
orial 23
oster 23
outfitters 23
p500 23
palo@@ 23
paras@@ 23
parfois 23
patricia 23
pcs@@ 23
pendant@@ 23
pered 23
phon 23
phonics 23
pleat 23
porefessional 23
pout 23
powerpuff 23
preci@@ 23
promil 23
protectant 23
pss 23
punching 23
pyrex 23
q6 23
ql 23
qq@@ 23
quote 23
radeon 23
raider@@ 23
randomly 23
raptor 23
really 23
rei 23
repelling 23
research 23
revi@@ 23
revit@@ 23
ricci 23
rmk 23
rn@@ 23
rodriguez 23
roronoa 23
sacred 23
saliva 23
samsun@@ 23
sc-@@ 23
sep 23
set- 23
shap@@ 23
shepherd 23
shuya 23
signs 23
simp@@ 23
sissy 23
skye 23
skywalker 23
slam@@ 23
snaps 23
snsd 23
sorry 23
soulty 23
spagetti 23
spareparts 23
spea@@ 23
spring@@ 23
spro@@ 23
starts 23
sterili@@ 23
sticker@@ 23
stitched 23
strontium 23
struct@@ 23
sue 23
sulit 23
suspen@@ 23
sv 23
sweeper 23
swipe 23
taehyung 23
talc 23
tali@@ 23
tamarind 23
tax@@ 23
tcg 23
testers 23
than@@ 23
the-@@ 23
threads 23
thug 23
tig 23
tions 23
tomorrow 23
trident 23
trolly 23
tter@@ 23
ttl 23
turkey 23
twinings 23
twister 23
twotone 23
ultima 23
ultron 23
usa-@@ 23
v11pro 23
vagina 23
vca 23
vene@@ 23
victorian 23
visi@@ 23
vit. 23
vol.2 23
voyager 23
vs1 23
waist@@ 23
wbb@@ 23
wel 23
wet@@ 23
whiten@@ 23
world@@ 23
xf@@ 23
xunod 23
y52 23
yaoi 23
yr@@ 23
yuan 23
zc520kl 23
ｏ@@ 23
've 22
-09 22
-28@@ 22
-f@@ 22
-l@@ 22
............ 22
029 22
035 22
043 22
046 22
059 22
060 22
1.5hp 22
1006 22
110l 22
114@@ 22
12-18mos 22
13.5 22
138@@ 22
15w@@ 22
18000mah 22
1800@@ 22
194 22
1996-@@ 22
1lb 22
1pairs 22
2- 22
2-3t 22
2-6 22
2.3@@ 22
2.5d 22
2002-@@ 22
2016-@@ 22
20180@@ 22
2019@@ 22
210-@@ 22
212@@ 22
224 22
240g 22
25x@@ 22
27.5 22
283 22
288 22
299@@ 22
3.25a 22
300m 22
3200 22
33-@@ 22
34a 22
36-@@ 22
38cm 22
390@@ 22
393 22
3ab 22
3colors 22
4000 22
404 22
40s 22
4m 22
4tb 22
5.5mm 22
52-@@ 22
5gs 22
5mp 22
6-7@@ 22
6-9m 22
613 22
675 22
6led 22
6mg 22
70x@@ 22
725 22
751 22
790 22
800w 22
80mb 22
80pcs 22
828 22
880 22
917@@ 22
978@@ 22
9c 22
9yrs 22
a21 22
a50@@ 22
airdots 22
ais 22
alliance 22
alternative 22
alto 22
amazonian 22
amu@@ 22
amway 22
ander@@ 22
andi 22
another 22
aqua@@ 22
aroma@@ 22
arrive 22
asu@@ 22
asy@@ 22
ateneo 22
aunthentic 22
author 22
avery 22
backlit 22
baekhyun 22
bago 22
bap 22
basahan 22
base@@ 22
bf-@@ 22
bing 22
blended 22
blink 22
blit@@ 22
blitz 22
blues 22
bok 22
bonet 22
boracay 22
boya 22
bp-@@ 22
brazil 22
brey@@ 22
bros 22
butt@@ 22
bvq 22
c11p@@ 22
c8 22
case-@@ 22
cavity 22
centrum 22
champions 22
chemica 22
cherry@@ 22
cheska 22
choo 22
chroma 22
chu 22
cko 22
clam@@ 22
clamps 22
clinical 22
cocos 22
colander 22
cold@@ 22
coleen 22
colorblock 22
composition 22
condura 22
conve@@ 22
cosmix 22
crewneck 22
ctr@@ 22
cuir 22
current 22
cyber 22
dant 22
day-@@ 22
daypack 22
dbs 22
dddd@@ 22
dedic@@ 22
deflector 22
dence 22
dette 22
development 22
die-cast 22
dine 22
dion 22
dobe 22
doh 22
dok 22
doo 22
doremi 22
drool 22
dub 22
duncan 22
dupe 22
earpick 22
ecotools 22
elena 22
elev@@ 22
emoti@@ 22
enchan@@ 22
esti@@ 22
even 22
f-0@@ 22
fabri@@ 22
fahrenheit 22
fairness 22
fifth 22
flashcards 22
flavour 22
flipcover 22
fliptop 22
fn@@ 22
frame@@ 22
francisco 22
franco 22
freya 22
ft-@@ 22
ghten@@ 22
gladking 22
glazed 22
gn-@@ 22
gthening 22
gwen 22
hailey 22
hairpins 22
hak@@ 22
hams 22
headpiece 22
hematite 22
hers 22
hippie 22
hir@@ 22
hjc 22
honesty 22
howlite 22
hss 22
huenicorn 22
hypoallergeni@@ 22
i-tech 22
illu@@ 22
illumin@@ 22
illustration 22
ington 22
ipad2 22
iverson 22
jani@@ 22
jarrow 22
jas@@ 22
jkysd 22
joan 22
juiced 22
k9 22
kaidon 22
kak@@ 22
kane@@ 22
kappa 22
kaw 22
keroppi 22
ket@@ 22
kills 22
kinetic 22
kirei 22
kneepad 22
kneepads 22
koreanfashion 22
kou 22
kristine 22
kuji 22
l22 22
laboratory 22
lactum 22
ladle 22
lak@@ 22
languages 22
lanolin 22
lil@@ 22
lipliner 22
loading 22
longsleev@@ 22
longsleve 22
longwear 22
lumi 22
luxurious 22
lyla 22
m.2 22
maggi 22
magnus 22
mah@@ 22
mandy 22
mang 22
manipis 22
marshall 22
mati@@ 22
mation 22
maxxis 22
measurement 22
mefapo 22
mercury 22
mic@@ 22
mica 22
miguel 22
milanos 22
millen@@ 22
mimosa 22
mine@@ 22
miner@@ 22
miya 22
mobi@@ 22
moby 22
moccas@@ 22
moun@@ 22
mountaineering 22
mu-x 22
nac@@ 22
naked3 22
navig@@ 22
need@@ 22
nestea 22
nickelodeon 22
niv 22
noel 22
non-tarnish 22
nrb 22
nuk 22
nutshell 22
ocean@@ 22
officewear 22
ole@@ 22
on-ear 22
ordin@@ 22
orico 22
ovo 22
ow 22
p-bandai 22
p10@@ 22
pagoda 22
pai 22
painless 22
panyo 22
parade 22
pass@@ 22
patchwork 22
pea@@ 22
pebbles 22
pedi 22
pediasure 22
perfect@@ 22
petroleum 22
picanto 22
planters 22
pooch 22
pore@@ 22
portal 22
position@@ 22
powerline 22
pray 22
presi@@ 22
pretzel 22
profile 22
promag 22
proven 22
pucca 22
pug 22
puree 22
purr 22
qqq 22
quality. 22
rack@@ 22
radial 22
rah 22
recon 22
reducer 22
reducing 22
reliever 22
rhino 22
rio@@ 22
ritual 22
rivets 22
ruth 22
rxk 22
s530 22
saemmul 22
saf@@ 22
sal 22
sassa 22
saugwunder 22
savage 22
saw@@ 22
scro@@ 22
scrubsuit 22
scrunchie 22
sekushi 22
sennheiser 22
shak@@ 22
shantahl 22
sharing 22
shear 22
shiel@@ 22
shion 22
shit 22
sidemirror 22
sigma 22
silka 22
sinu@@ 22
skyline 22
sleepsuit 22
snailwhite 22
spain 22
spam 22
spellbinders 22
squares 22
starch 22
starlight 22
styled 22
sus@@ 22
swap 22
sweaters 22
t350 22
t6 22
tabletop 22
takoyaki 22
tastic 22
teach 22
tear@@ 22
tec@@ 22
tes@@ 22
thr@@ 22
tik 22
tinapa 22
ting@@ 22
tista 22
tle@@ 22
toes 22
toha 22
toni 22
transceiver 22
trenchcoat 22
tucson 22
turner 22
ui 22
ulta 22
ury 22
usb2.0 22
v11@@ 22
vaio 22
vels 22
vert 22
vgod 22
vibr@@ 22
vill@@ 22
vn 22
volumizing 22
vw 22
w00@@ 22
wai@@ 22
wallsticker 22
walnut 22
warfare 22
wear-@@ 22
wed 22
wg 22
wgw 22
who@@ 22
william 22
windmill 22
worship 22
wrapping 22
wx@@ 22
x40@@ 22
xylophone 22
yaki 22
yar@@ 22
yc 22
yonex 22
yonk 22
yss. 22
yuki 22
zte 22
𝐚@@ 22
-010 21
-012 21
-08 21
-inspired 21
-p@@ 21
0-3months 21
0.50 21
0.75 21
027 21
038 21
1-3yrs 21
1060 21
12pc 21
1300@@ 21
144@@ 21
14g 21
14oz 21
167 21
172 21
178@@ 21
188@@ 21
1892 21
1975 21
1pck 21
2-5@@ 21
2-ply 21
2.1@@ 21
2016-17 21
2016-2018 21
210g 21
21cm 21
260ml 21
264 21
28-36 21
2pillowcase 21
3-6@@ 21
3-7 21
3000mah 21
319@@ 21
345 21
355@@ 21
362 21
3for@@ 21
4-7 21
4.4a 21
407 21
420@@ 21
428 21
455 21
550ml 21
560 21
5pcs. 21
6-11 21
626@@ 21
630@@ 21
633@@ 21
65w 21
685@@ 21
6color 21
6colors 21
6usb 21
7l 21
7m 21
8000mah 21
820@@ 21
883 21
9005 21
989 21
9b 21
aal 21
abacus 21
absolu@@ 21
absor@@ 21
abundant 21
ado@@ 21
agua 21
ali-l@@ 21
almay 21
alo 21
andra 21
anni@@ 21
anytek 21
aphrodite 21
appetite 21
appli@@ 21
aryana 21
assn 21
assn. 21
aur@@ 21
authenthic 21
axel 21
bag.@@ 21
bam 21
bbi@@ 21
bc-@@ 21
benefits 21
bergamot 21
beta 21
blotted 21
bluetooh 21
blv 21
bobble 21
boombox 21
bootleg 21
borrowed 21
bottega 21
bourbon 21
bragg 21
bral@@ 21
breaking 21
bring 21
buyers 21
cah 21
calf 21
camu 21
captoe 21
carabiner 21
cf-@@ 21
cfv 21
checked 21
cheer@@ 21
cheetah 21
chelle 21
chicc 21
chord 21
clit@@ 21
cobalt 21
cod- 21
colon 21
color-@@ 21
concentr@@ 21
concepts 21
continuous 21
controlled 21
covid 21
craze 21
cricut 21
crinkles 21
crisps 21
cultured 21
customi@@ 21
customizable 21
cx-@@ 21
cynthia 21
dai 21
defying 21
dennis 21
diane 21
did 21
dishwasher 21
doms 21
drop@@ 21
dru@@ 21
drums 21
dunge@@ 21
dunhill 21
dusty 21
dwarf 21
egg@@ 21
eliquid 21
en-el@@ 21
ene@@ 21
enhancement 21
enhancing 21
enie 21
enthusiast 21
enti@@ 21
enza 21
epilator 21
epsom 21
erasers 21
eries 21
evangelion 21
event 21
expander 21
extra@@ 21
extracts 21
eyelid 21
f4@@ 21
fajardo 21
fbt01@@ 21
feast 21
feel@@ 21
fifa 21
filtration 21
finds 21
fjs 21
flatsandals 21
flutter 21
foe 21
food@@ 21
foreign 21
fortnite 21
fowl 21
fp-@@ 21
frida 21
fury125 21
fx-@@ 21
g- 21
gad@@ 21
ganoderma 21
genevieve 21
gest 21
ggies 21
git@@ 21
glamorous 21
gm@@ 21
goals 21
goo 21
gordon 21
gras@@ 21
grommet 21
gt-r 21
gypsy 21
hairbrush 21
hate 21
hauling 21
heal@@ 21
hearty 21
hee 21
hia 21
hibiscus 21
highend 21
house@@ 21
hul@@ 21
human@@ 21
hundred 21
hw@@ 21
hypo 21
i11 21
icecream 21
iler 21
in1set 21
inas 21
inche@@ 21
includes 21
increase 21
infin@@ 21
intermediate 21
invicta 21
iphone5s 21
iphone8 21
ish 21
iting 21
ized 21
jaclyn 21
jon 21
jr@@ 21
jul@@ 21
juniper 21
juvia 21
jz 21
k30 21
ka-@@ 21
kalimba 21
kata 21
katie 21
kilo@@ 21
kingever 21
klay 21
kosh 21
ladybug 21
lambskin 21
landscape 21
launcher 21
lazuli 21
lear@@ 21
levithan 21
liberty 21
licious 21
lighted 21
lind@@ 21
lipstain 21
liqui@@ 21
lis@@ 21
locally 21
lots 21
lows 21
m- 21
mademoiselle 21
magne@@ 21
mahogany 21
makoto 21
margot 21
masonry 21
masque 21
mattifying 21
mau@@ 21
mcdodo 21
meco 21
meiya 21
metis 21
metrical 21
microtex 21
mm-@@ 21
mmmmm 21
modes 21
mongol 21
moonstone 21
morgan 21
morocco 21
mos. 21
moyou 21
n00@@ 21
n4@@ 21
namu 21
nba@@ 21
nec 21
nerdy 21
newly 21
nightdress 21
noble 21
non-contact 21
noni 21
nora 21
note7 21
nova2 21
ntsc-j 21
nuit 21
nx@@ 21
ode 21
oil-free 21
oled 21
omega-3 21
oph 21
ort 21
orthodontic 21
ose 21
oto@@ 21
p1zbad@@ 21
par 21
para@@ 21
pastels 21
pcie 21
peppapig 21
pinwheel 21
pinx 21
pix 21
plug-@@ 21
plunging 21
poe@@ 21
polaris 21
pow@@ 21
pre- 21
pre-love 21
princesses 21
promod 21
purses 21
pyary 21
pyramid 21
q8 21
qiyi 21
radical 21
raion 21
rand@@ 21
rav@@ 21
rays 21
reggae 21
reindeer 21
remember 21
resist@@ 21
resun 21
rhea 21
rhian 21
rip@@ 21
rita 21
rizal 21
roots 21
rtx 21
rue 21
s1pro 21
sa-@@ 21
sae 21
saki 21
sasuke 21
scan 21
scrunchies 21
sean@@ 21
secon@@ 21
seedling 21
sellers 21
semilarge 21
separ@@ 21
serpen@@ 21
setter 21
seuss 21
shallow 21
shen@@ 21
shia 21
shiba 21
shoebox 21
sight 21
sma@@ 21
smocking 21
sne@@ 21
snorkeling 21
softbound 21
solemate 21
som 21
souls 21
soundbar 21
spanribs 21
spel@@ 21
spiced 21
sponges 21
spots 21
sprinkles 21
stal@@ 21
standees 21
sthe@@ 21
stich 21
stop@@ 21
street@@ 21
stv 21
superb 21
superdry 21
sure@@ 21
suyod 21
sweatpants 21
swoosh 21
taclight 21
taco 21
tart 21
tend 21
tequila 21
th-@@ 21
theobroma 21
thickness 21
tigger 21
tones 21
tote@@ 21
totu 21
traffic 21
transdermal 21
tsa 21
tube@@ 21
tulips 21
twe@@ 21
ulti@@ 21
ultraviolet 21
uncommon 21
underpants 21
ural 21
urinal 21
usb@@ 21
v4.2 21
vag@@ 21
valerie 21
vate 21
vden 21
vette 21
vey 21
viper 21
vita@@ 21
vmi 21
voyage 21
wal 21
wallpapers 21
whitelight 21
wi 21
wide-@@ 21
wns 21
xipin 21
yama 21
year@@ 21
yk 21
ym 21
ys-@@ 21
zaine 21
zenutrients 21
zip@@ 21
ᅳ@@ 21
𝐀@@ 21
--- 20
-0.@@ 20
-11@@ 20
-13@@ 20
-250 20
-35@@ 20
-g@@ 20
-x 20
0-6m 20
0.25 20
0003 20
006@@ 20
031 20
050@@ 20
058 20
1-2t 20
1.0hp 20
100php 20
101@@ 20
10t 20
110-3@@ 20
1151 20
117@@ 20
120l 20
166@@ 20
175g 20
17mm 20
1980 20
2-3yo 20
2-3yrs 20
2-8yrs 20
2.25 20
2.5l 20
2014-2019 20
2017@@ 20
21g 20
227g 20
24hr 20
258@@ 20
287 20
2color 20
2kl 20
3-12 20
310mm 20
312 20
32a 20
36mm 20
38b 20
392@@ 20
395@@ 20
399@@ 20
400mg 20
425g 20
451 20
453 20
475@@ 20
48pcs 20
4kg 20
4y 20
5.0@@ 20
504 20
508 20
540 20
562 20
570@@ 20
575@@ 20
5k 20
6-12m 20
612 20
616 20
618 20
626 20
628 20
6months 20
7days 20
855 20
888@@ 20
8v 20
9-1 20
929 20
9months 20
a16@@ 20
a7000 20
ac-@@ 20
ackle 20
act@@ 20
activator 20
adel@@ 20
ades 20
adhesi@@ 20
adium 20
ads 20
adven@@ 20
after@@ 20
aida 20
aio 20
airbed 20
alcogel 20
alexander 20
althea 20
alyn 20
am-@@ 20
amara 20
amatte 20
angelfashion 20
aozi 20
apo 20
appa@@ 20
ark 20
arma@@ 20
asher 20
aste 20
athered 20
baby-@@ 20
baellerry 20
banig 20
bart 20
bbs 20
bca 20
beasts 20
beautika 20
bebeta 20
beg@@ 20
beginning 20
beth@@ 20
bijin 20
bills 20
bitter 20
bj-@@ 20
blkshp 20
blocking 20
blos 20
blp@@ 20
bobby 20
bonakid 20
bongbong 20
bottons 20
brand-new 20
brandy 20
brassi@@ 20
bub@@ 20
bukid 20
buko 20
bush@@ 20
caite 20
camelbak 20
candie 20
canter 20
cardam 20
cardi@@ 20
cardinal 20
cares 20
carizma 20
cbr@@ 20
centellian 20
chalkboard 20
chameleon 20
chanyeol 20
char 20
chemistry 20
chico 20
chron@@ 20
church 20
citron 20
city@@ 20
cked 20
climbing 20
clothesline 20
cm-4@@ 20
cockroach 20
colle 20
colo 20
colorfull 20
come@@ 20
companion 20
component 20
conce@@ 20
condiments 20
confidence 20
convention 20
correct 20
cosmos 20
cow@@ 20
cristina 20
crun@@ 20
ctors 20
cue 20
cultivera.agri 20
curity 20
dame 20
dasdas@@ 20
daw@@ 20
dazzle 20
dc-@@ 20
deadbolt 20
dealer 20
dean 20
defining 20
dere@@ 20
desgin 20
designing 20
deskjet 20
dess 20
dewalt 20
dh-h@@ 20
dimm 20
dolph@@ 20
dreamy 20
dz09 20
earcuff 20
earth@@ 20
eauty 20
effici@@ 20
eggplant 20
eilish 20
elle@@ 20
elly 20
ensure 20
epi 20
erin 20
esi 20
eves 20
expanding 20
expre@@ 20
f2@@ 20
fai@@ 20
fau@@ 20
fc-@@ 20
felicity 20
filament 20
finding 20
fl-@@ 20
flaw@@ 20
foiled 20
footmask 20
for.@@ 20
forks 20
forms 20
forte 20
free-size 20
fty 20
fucos 20
funandsmart 20
fundamentals 20
furi@@ 20
fying 20
ga100 20
gabri@@ 20
gamusa 20
gap@@ 20
ggie 20
gibson 20
ginebra 20
gingersnap 20
gioia 20
gis 20
gixx@@ 20
glamorosa 20
glorious 20
goji 20
goodbye 20
gou@@ 20
h8@@ 20
hairdressing 20
hall 20
haphapph 20
hardsole 20
hayabusa 20
her. 20
heuer 20
hguc 20
hione 20
hiphop 20
hokkaido 20
holmes 20
hongli 20
horse@@ 20
houndstooth 20
hugger 20
hui@@ 20
hunters 20
i10 20
iam@@ 20
ib@@ 20
iko 20
illumitox 20
infantino 20
installation 20
invit@@ 20
ipx 20
iri 20
isla 20
izumi 20
j1mini 20
j72016 20
jai@@ 20
jane@@ 20
jayson 20
jeon@@ 20
jh 20
jie 20
johnny 20
johnsons 20
jumshort 20
jumsuit 20
jz@@ 20
k- 20
kamen 20
kdrama 20
kidd 20
kidsafe 20
kixx 20
kk-@@ 20
kkjjshop 20
kleancolor 20
kn 20
know@@ 20
kojicmansi 20
kombat 20
korilakkuma 20
kre@@ 20
kung 20
kwen@@ 20
kyocera 20
l200 20
l6@@ 20
la-@@ 20
lage 20
lameila 20
lampshade 20
lana 20
large-xl 20
laugh 20
lazy@@ 20
ledsign 20
lev 20
lipstick@@ 20
lives 20
llo 20
loi@@ 20
loki 20
lomvum 20
longe@@ 20
lorac 20
love11shop 20
lstar 20
lug 20
luigi 20
lululun 20
m7 20
m7@@ 20
m88 20
magni@@ 20
majestic 20
maliit 20
mallow 20
malong 20
maltesers 20
manhattan 20
mark@@ 20
martens 20
mater@@ 20
mayonnaise 20
maz@@ 20
mbs 20
mcdavid 20
mck@@ 20
megam@@ 20
melatonin 20
menthol@@ 20
mercer 20
michelin 20
mickeymouse 20
mile 20
ministar 20
mioi125 20
missugars 20
mk-@@ 20
mma@@ 20
mmt 20
mom@@ 20
momoso 20
motivational 20
mrg 20
msm-hk 20
mud@@ 20
mudmaster 20
murakami 20
mustang 20
mv 20
my-@@ 20
myst@@ 20
naomi 20
nations 20
nb-@@ 20
news 20
ning@@ 20
nis 20
no7 20
note10pro 20
notepads 20
nuggets 20
nunbell 20
nut@@ 20
nye 20
oakley 20
occ@@ 20
off-@@ 20
ohms 20
okay 20
onsale 20
open-@@ 20
opium 20
optics 20
oregano 20
orient 20
ove@@ 20
overla@@ 20
p120 20
p30@@ 20
pacsafe 20
pau@@ 20
pawnable@@ 20
pearly 20
pedia 20
pf@@ 20
ph-@@ 20
pheno@@ 20
philosophy 20
phyto 20
pinsan 20
plunge 20
pointer 20
poke@@ 20
pompompurin 20
portia 20
powder@@ 20
ppee 20
ppies 20
primadonna 20
program 20
protectors 20
psy 20
pull@@ 20
pump@@ 20
purple@@ 20
qkz 20
quarts 20
quin 20
quiz 20
raffle 20
ragnarok 20
rainforest 20
reas@@ 20
reclining 20
reduce 20
reef 20
reign 20
removing 20
reno2 20
resto@@ 20
revenge 20
revitalize 20
rhi@@ 20
rica 20
rit 20
rk 20
roma 20
rosewater 20
rum 20
rush@@ 20
s-xxl 20
sala@@ 20
sama 20
samgyup 20
sang 20
sapatos 20
sas 20
sasimi 20
schedule 20
scoopy 20
screws 20
seeth@@ 20
selma 20
sexy@@ 20
shana 20
sharpening 20
sherlock 20
shezi 20
shies 20
sho 20
shop.@@ 20
shut 20
shuttlecock 20
simul@@ 20
sins 20
sion@@ 20
size-@@ 20
size12 20
sket@@ 20
sl-@@ 20
smokey 20
sniper@@ 20
snoe 20
soho 20
songbook 20
sophi@@ 20
spagh@@ 20
sparkly 20
spearmint 20
spf60 20
spl@@ 20
spurs 20
ssb 20
ssh 20
stretch@@ 20
supermarket 20
surich 20
surpri@@ 20
swadd@@ 20
sweatshort 20
swifty 20
tables 20
tag@@ 20
taper 20
tart@@ 20
tarteist 20
tcm 20
teak 20
tess 20
tested 20
thalia 20
these 20
thor@@ 20
tinker 20
tokkyo 20
topping 20
tot 20
trailblazer 20
tribe 20
tric 20
troy 20
tton 20
tune 20
turn@@ 20
tweezers 20
tytiffany 20
u-shaped 20
ukayukay 20
ultragirl 20
unicor@@ 20
unity 20
urban@@ 20
uto 20
v- 20
v5-4@@ 20
venum 20
verus 20
videoke 20
villa@@ 20
voltes 20
voltron 20
von@@ 20
vs-@@ 20
vs. 20
wheelchair 20
whitehead 20
women-@@ 20
wonderful 20
x8@@ 20
xc@@ 20
xe@@ 20
xenon 20
xhilaration 20
xring 20
ych 20
yl@@ 20
yt 20
yt-1288 20
yu-gi-oh 20
yumi@@ 20
zee 20
½ 20
𝐒@@ 20
'n 19
'opulent 19
's-@@ 19
-46 19
-a@@ 19
-d 19
-i@@ 19
0-6months 19
0.2 19
0.38 19
0.9 19
10050mah 19
1008 19
100x@@ 19
106@@ 19
1120 19
1205 19
14.5 19
1420 19
1500w 19
1800w 19
186@@ 19
18g 19
1963 19
1993-@@ 19
1e 19
1p 19
1w 19
2-6@@ 19
2.5ml 19
2.7 19
2000w 19
200mah 19
2018-2020 19
2019-20 19
224@@ 19
23ml 19
246 19
257 19
260g 19
262 19
281 19
288@@ 19
2p 19
3-4yrs 19
3-5yrs 19
3-axis 19
3.2 19
3.6 19
335 19
35w 19
361 19
364 19
398@@ 19
4-layer 19
414@@ 19
43cm 19
460 19
4in1@@ 19
4inches 19
560@@ 19
5lbs 19
60p 19
669 19
728@@ 19
771 19
8.5@@ 19
8000@@ 19
9.9 19
91@@ 19
941 19
983 19
a- 19
acs 19
aerox155 19
afici@@ 19
agnes 19
ah4u 19
ail@@ 19
air2 19
airs 19
akes 19
alfred 19
alist 19
amarah 19
amk 19
amuse 19
ances 19
ank 19
anko 19
anti-pollution 19
architecture 19
aring 19
athle@@ 19
aur 19
auxiliary 19
b11@@ 19
ba110 19
babyliss 19
bagtag 19
bam@@ 19
bana 19
barre@@ 19
batangas 19
bazooka 19
bdf 19
bean@@ 19
bei 19
bella@@ 19
beloved 19
bestselling 19
bf-888s 19
bluegreen 19
blushed 19
board@@ 19
boarding 19
boat@@ 19
bomb@@ 19
bondage 19
boop 19
boosting 19
boun@@ 19
bourne 19
bps@@ 19
brai@@ 19
breast@@ 19
brembo 19
brianna 19
bright@@ 19
brim 19
broo@@ 19
brtc 19
button-@@ 19
c.o.d. 19
caffeine 19
calci@@ 19
campana 19
cani@@ 19
carnelian 19
cass 19
cc-@@ 19
cd-@@ 19
cedar 19
celebration 19
cellophane 19
cey 19
chaos 19
charge2 19
chel 19
choke 19
chugoku 19
chunks 19
cious 19
clau@@ 19
clown 19
cmh 19
coach@@ 19
coastar 19
coby 19
colar 19
coleman 19
colla 19
colorway 19
comouflage 19
comple@@ 19
compli@@ 19
condi@@ 19
condu@@ 19
corre@@ 19
cost 19
cough 19
couple@@ 19
coupling 19
cowhide 19
cpsa 19
crack@@ 19
crankshaft 19
crawling 19
crescent 19
cross-@@ 19
cru 19
crump@@ 19
cry@@ 19
cuddle 19
cumin 19
cus@@ 19
cv 19
cyclone 19
dam 19
danger 19
daphne 19
debbie 19
deca@@ 19
decorated 19
decors 19
denti@@ 19
deri@@ 19
det 19
dextro@@ 19
diff@@ 19
digi 19
dir-fit 19
disp@@ 19
diswashing 19
dium 19
dler 19
dollar 19
dresss 19
dyosa 19
e5-4@@ 19
ecobag 19
eda 19
electroplating 19
elitebook 19
elizavecca 19
empress 19
enlargement 19
epub 19
ergobaby 19
erica 19
erical 19
eta 19
euphoria 19
exam 19
excellence 19
exo@@ 19
expect@@ 19
explo@@ 19
eyed 19
faces 19
faceted 19
families 19
fashion-@@ 19
fg@@ 19
fini@@ 19
fisheye 19
fixing 19
flipflop 19
float@@ 19
florals 19
foamer 19
foli@@ 19
fondue 19
font 19
freeshippingshopee 19
freshness 19
fring@@ 19
fro 19
fs-@@ 19
fting 19
fujihama 19
functions 19
g313 19
g360 19
g4-@@ 19
g4@@ 19
gau@@ 19
gay 19
gears 19
gem@@ 19
gence 19
genuine100 19
germicidal 19
gift@@ 19
gilas 19
gochu@@ 19
goku@@ 19
goldfish 19
gomez 19
gon@@ 19
gosh 19
gozum 19
grapes 19
graph@@ 19
gree 19
gual 19
guit@@ 19
gurashi 19
halal 19
haltered 19
hands-free 19
harman 19
havana 19
headlights 19
heavyduty 19
hei@@ 19
heidi 19
heiress 19
helix 19
hennesy 19
high-top 19
hiyang 19
hol 19
hone@@ 19
honeysuckle 19
honeywell 19
honor8x 19
hoover 19
how@@ 19
hs-82@@ 19
huawe@@ 19
hyperx 19
ide@@ 19
iga 19
ike@@ 19
inc. 19
inches@@ 19
including 19
inse@@ 19
insul@@ 19
intake 19
intensi@@ 19
interactive 19
inti@@ 19
ip6 19
ip67 19
iphone6plus 19
iphone8plus 19
jake 19
jb 19
jeanne 19
jedi 19
jil@@ 19
jlh 19
jm@@ 19
juantoni 19
juices 19
jyun 19
kakashi 19
kaku 19
kanteen 19
kellogg 19
killing 19
kish 19
kissy 19
knights 19
knives 19
knots 19
koby 19
kolin 19
kulambo 19
kum 19
labs 19
ladi@@ 19
lany 19
large-@@ 19
lash@@ 19
ldnio 19
leboy 19
leggins 19
lett@@ 19
lettering 19
lexus 19
lick 19
liven 19
loc 19
longsleeved 19
loving 19
lowwaist 19
lucent 19
lynelefootwear 19
m12 19
m3@@ 19
m8 19
mace 19
mach 19
mack@@ 19
mae@@ 19
magsafe 19
make@@ 19
marin@@ 19
marykay 19
maxene 19
merlot 19
microsdhc 19
microsdxc 19
mig 19
mikata 19
mikaylashoppe 19
mila 19
milano 19
mill@@ 19
mindful 19
mistique 19
mitsushi 19
miz@@ 19
mize 19
mming 19
mobius 19
moder@@ 19
motorized 19
moul@@ 19
movall 19
moyes 19
mrs. 19
mucin 19
multi-layer 19
multi-use 19
mz 19
nathaniel 19
natrol 19
nerds 19
nfl 19
niacin 19
nonstick 19
nw@@ 19
oblong 19
occas@@ 19
okinawa 19
oline 19
on-the-go 19
onix 19
oooo@@ 19
ore@@ 19
orth@@ 19
otto 19
outdoors 19
over-@@ 19
owned 19
p180 19
p350 19
p40 19
paintings 19
pak@@ 19
pala@@ 19
pallette 19
pandan 19
pandor 19
panlabas 19
parachute 19
pari@@ 19
partition 19
partner 19
pauline 19
pawn@@ 19
pdf 19
pechay 19
peotraco 19
perfor@@ 19
personalised 19
petit@@ 19
phab 19
philli@@ 19
phshop 19
pico@@ 19
piedras 19
pierre 19
pla 19
plaque 19
poo@@ 19
pot@@ 19
potted 19
pouchie 19
pper@@ 19
preser@@ 19
prise 19
prizes 19
procurement 19
produ@@ 19
purchased 19
py 19
qc@@ 19
qqjk 19
rag 19
rb-@@ 19
readers 19
rear@@ 19
reduced 19
reduction 19
refined 19
regenerist 19
rein@@ 19
remastered 19
renee 19
reno2f 19
rent 19
replenishing 19
ride-on 19
rix 19
rms 19
roberts 19
rol 19
royal@@ 19
rs-@@ 19
rubbermaid 19
rx-78-2 19
s5830 19
san-yang 19
savannah 19
sb-@@ 19
scho@@ 19
scorpion 19
scrabble 19
sean 19
search 19
secret@@ 19
selle 19
semi-crop 19
sensu@@ 19
separate 19
separator 19
services 19
set. 19
shelim 19
shields 19
shine@@ 19
showcase 19
sienna 19
sine@@ 19
sitting 19
sixteen 19
sj6 19
sketchbook 19
skills 19
skindigm 19
skycorp 19
slick 19
slin@@ 19
smartheart 19
smoke@@ 19
smoking 19
snackers 19
snorkel 19
soli@@ 19
splcodgenuine100 19
sponge@@ 19
spray@@ 19
ssen@@ 19
stamped 19
staples 19
steak 19
steri@@ 19
sticated 19
sting@@ 19
stirrer 19
strate@@ 19
strix 19
stronger 19
stuffedtoy 19
stussy 19
sue@@ 19
sunkissed 19
suspenders 19
swat@@ 19
swingman 19
syringe 19
t20 19
taekwondo 19
tals 19
tdd 19
thriller 19
tles 19
tney 19
tomb 19
tombow 19
topi@@ 19
tps 19
trace 19
trf 19
triang@@ 19
trrrixii 19
tubing 19
ual 19
ug@@ 19
ukay@@ 19
ultralight 19
unds 19
uniheart 19
upl 19
uri 19
usb-@@ 19
usb3.0 19
v12 19
valkyrie 19
valu@@ 19
vam@@ 19
veneta 19
vials 19
vibroaction 19
visual 19
voopoo 19
vortex 19
warehouse 19
wares 19
wayfarer 19
whead 19
wht 19
widow 19
wie 19
wonderwoman 19
worksheets 19
wrinkles 19
written 19
wunder 19
x24 19
xiao@@ 19
xz 19
y532017 19
yak@@ 19
younger 19
yufiya 19
zic 19
zin@@ 19
ᆫ@@ 19
＆ 19
'occitane 18
-001 18
-1a 18
-7 18
-d@@ 18
.3 18
.5x@@ 18
.k 18
0.6@@ 18
0000 18
0005 18
010@@ 18
057 18
085 18
1.0l 18
1.5g 18
1.7@@ 18
100a 18
10sheets 18
10t-@@ 18
10w-40 18
10y 18
113g 18
1188 18
11inch 18
12v@@ 18
1400 18
144hz 18
145@@ 18
14mm 18
14pcs 18
155g 18
1660 18
174 18
18ksaudigoldpawnable@@ 18
190g 18
1hp 18
1pc.@@ 18
2.37a 18
2001-@@ 18
20th 18
219@@ 18
23cm 18
244 18
24h 18
24s 18
250gb 18
26-@@ 18
275@@ 18
294 18
29ml 18
2layer 18
2lbs 18
2pairs 18
2piece 18
3-8yrs 18
304@@ 18
313 18
32017 18
320g 18
352 18
360ml 18
363 18
36w 18
380ml 18
3p 18
4-pack 18
4-piece 18
4-port 18
415@@ 18
42mm 18
46-@@ 18
462 18
495@@ 18
4inch 18
5-7 18
506 18
50h 18
516 18
528@@ 18
531 18
535@@ 18
54-@@ 18
54mm 18
5x7 18
6-in-1 18
6000@@ 18
6020 18
60capsules 18
623@@ 18
655 18
688 18
6900 18
6pieces 18
6pro 18
7.5ml 18
700g 18
721 18
731 18
740@@ 18
741 18
750g 18
7x 18
807 18
80s 18
822@@ 18
825 18
8ch 18
915 18
923 18
930 18
968 18
988 18
9grams 18
9inches 18
a11x 18
acan 18
acu@@ 18
adapters 18
adata 18
adv 18
aeroic 18
affair 18
agenda 18
agu@@ 18
airconditioner 18
airwalk 18
alexandra 18
algae 18
alina 18
aling 18
alize 18
allergy 18
alou 18
alphatoys 18
ambi@@ 18
amon@@ 18
amper@@ 18
anti-blue 18
anti-mosquito 18
anti-uv 18
anu@@ 18
aper 18
apparatus 18
appearance 18
arrow@@ 18
artfx 18
asos 18
ather@@ 18
atos 18
austen 18
b2@@ 18
baak 18
baku@@ 18
ballon 18
bally 18
banners 18
bari@@ 18
baro@@ 18
batter 18
battlefield 18
bbc 18
behind 18
being 18
bejeweled 18
belgian 18
belle@@ 18
bet@@ 18
bey@@ 18
bies 18
billion 18
bilog 18
blanca 18
bler 18
blinking 18
blt 18
bly 18
bonsai 18
bop 18
borax 18
brack@@ 18
brake@@ 18
bram 18
brightex 18
buck 18
budf 18
buff 18
buy1@@ 18
c9@@ 18
ca-@@ 18
cable@@ 18
calu@@ 18
cami@@ 18
candice 18
canteen 18
cardamom 18
carl 18
carnauba 18
carnival 18
casaya 18
cavs 18
celebr@@ 18
celet 18
cers 18
challenger 18
chand@@ 18
chargeable 18
chiller 18
chime 18
chip@@ 18
choosing 18
chur@@ 18
citromint 18
ckers 18
clan@@ 18
cloud@@ 18
cmyk 18
comprehen@@ 18
cond. 18
conden@@ 18
condo 18
consu@@ 18
cook@@ 18
corales 18
crawler 18
criss-cross 18
crossback 18
cu. 18
curls 18
cut@@ 18
cuties 18
cvi 18
cyber@@ 18
cylindrical 18
d-2@@ 18
dahlia 18
daredevil 18
darts 18
dates 18
demolition 18
deo@@ 18
dete@@ 18
devi@@ 18
dickin@@ 18
dimensional 18
director 18
dit@@ 18
dized 18
dj@@ 18
dolphine 18
dong-a 18
dorco 18
dotcom 18
drake 18
drape 18
dress- 18
dura 18
dw5600 18
e1 18
eigh@@ 18
ele 18
electro 18
eli 18
elli 18
embroi@@ 18
emw 18
end@@ 18
ending 18
ends 18
eneloop 18
energizing 18
enterprise 18
erized 18
erm 18
eunice 18
exfoliator 18
exit 18
f4 18
falls 18
fashi@@ 18
feb 18
fetish 18
fill@@ 18
first@@ 18
fleek 18
fling 18
flip-@@ 18
floral@@ 18
florsheim 18
fm2 18
folk 18
formed 18
fourshoppe 18
fourth 18
freestyle 18
funtainer 18
g10 18
garmin 18
gartered 18
gddr5 18
genic 18
gentlemen 18
getz 18
giannis 18
gic 18
gina 18
gizeh 18
glacial 18
glass3 18
gle@@ 18
gleam 18
gli 18
glowbar 18
glutafit 18
goldtoe 18
gourd 18
goyard 18
graphy 18
grids 18
grove 18
gst 18
guerlain 18
gyp@@ 18
hallmark 18
hanford 18
harris 18
hatchimals 18
hay 18
hazard 18
health@@ 18
heated 18
heatsink 18
heavenly 18
hed@@ 18
hedgren 18
henna 18
hie 18
hikers 18
hillary 18
hip-hop 18
hk-@@ 18
hog 18
hong. 18
hsm 18
hum@@ 18
hydroponics 18
hypno@@ 18
ibuy 18
ide 18
impress 18
iness 18
ingot 18
inkle 18
innovative 18
insoles 18
inspiration 18
inte@@ 18
inverted 18
ip68 18
iph@@ 18
iqos 18
islander 18
it-@@ 18
itos 18
ixpand 18
janylin 18
jap 18
jardin 18
ject 18
jeremy 18
jhope 18
jingpin 18
jj00@@ 18
k.c 18
karma 18
kath 18
kd-@@ 18
keen 18
kemei 18
kewpie 18
keychain@@ 18
kick@@ 18
kimi 18
kind@@ 18
kirin 18
km-@@ 18
knee-length 18
kopiko 18
kr 18
kulay 18
kurstenshop 18
l120 18
laar@@ 18
landing 18
lap@@ 18
lawn 18
leah 18
leav@@ 18
lei 18
lena 18
leot@@ 18
leverag 18
levres 18
licorice 18
links 18
lipcolor 18
llian 18
ln 18
lomo@@ 18
lop 18
lox 18
lt20 18
ltr 18
lubri@@ 18
lust 18
maas 18
major 18
malaysian 18
manta 18
marcelo 18
margarita 18
marula 18
mate30 18
matibay 18
maureen 18
maxim 18
me-@@ 18
medallion 18
medium-sized 18
mee@@ 18
melo 18
mentary 18
merona 18
mery 18
messy 18
metro@@ 18
micro-usb 18
midi@@ 18
mika 18
miles 18
millie 18
mimi@@ 18
mindy 18
minimizing 18
minoxidil 18
missing 18
mister 18
mitten 18
mk6@@ 18
modem 18
mohashi 18
moisturiser 18
mole@@ 18
monochrome 18
mori@@ 18
motorstar 18
moulding 18
mush@@ 18
mw 18
my9@@ 18
n9 18
nad@@ 18
nap 18
naturehike 18
nchant 18
ndl 18
neal 18
neutr@@ 18
nick@@ 18
nikki 18
nings 18
nitecore 18
nitrile 18
nitro@@ 18
nv350 18
nwt 18
odorless 18
oe 18
ofra 18
okm 18
oleum 18
olite 18
omber 18
oppa 18
optipro 18
oracle 18
orie 18
orignal 18
orize 18
ous@@ 18
outlaw 18
p300 18
p3100 18
p3200 18
papa@@ 18
path@@ 18
pei@@ 18
pera 18
percussion 18
pey 18
pickled 18
pil 18
pimples 18
pio 18
places 18
pleasures 18
plus-@@ 18
poli 18
polished 18
popsocket 18
porcelana 18
possi@@ 18
pre-walker 18
premi@@ 18
pren@@ 18
prevention 18
priming 18
principles 18
prive 18
problem 18
problems 18
psalm 18
puppets 18
pur 18
purity 18
q9 18
qoncept 18
quan@@ 18
ques 18
quick-@@ 18
qulity 18
qy 18
r11 18
radish 18
rave 18
recharge@@ 18
redemption 18
ref@@ 18
reinfor@@ 18
relax@@ 18
renegade 18
repackaged 18
repti@@ 18
reser@@ 18
retro@@ 18
revive 18
revoltech 18
reward 18
reyes 18
richoco 18
ries 18
riveter 18
robusta 18
rogue 18
rolled 18
rosette 18
rosie 18
rus 18
sagada 18
sani@@ 18
saudigold@@ 18
savings 18
scence 18
scious 18
scouring 18
scri@@ 18
sculpt 18
seas 18
see@@ 18
shawill 18
sheila 18
silk@@ 18
sipper 18
sivanna 18
six-@@ 18
skyblue 18
sleepy 18
slits 18
sme@@ 18
smoky 18
snackeez 18
snody 18
sophisticated 18
spac@@ 18
specific 18
spee@@ 18
speeds 18
stal 18
stash 18
stephanie 18
stickerless 18
stin 18
stormtrooper 18
stra 18
stretcher 18
styleclub 18
styro 18
sublimated 18
suite 18
sunsonic 18
sup@@ 18
suppli@@ 18
supporter 18
surf@@ 18
surplice 18
sylvia 18
t-wolf 18
ta-@@ 18
tablecloth 18
tainer 18
tambourine 18
tanks 18
tao 18
tasty 18
tayo 18
tea@@ 18
teapot 18
teer 18
teflon 18
tempo 18
tening 18
ternos 18
thenorthface 18
thetic 18
thick@@ 18
thicken 18
tials 18
tidy 18
tman 18
toco@@ 18
toiletries 18
tom@@ 18
tone@@ 18
toothgel 18
toro 18
tortoise 18
toss 18
trader 18
travelmate 18
tree@@ 18
tresor 18
tretta 18
tribute 18
tronsmart 18
tsu 18
tum 18
tung@@ 18
uchiha 18
uke 18
ultrasound 18
uncharted 18
uv-5r 18
uvc 18
v6 18
vaping 18
vendetta 18
vernis 18
vicks 18
vienna 18
vigor@@ 18
vio 18
vis 18
vite 18
vondutch 18
vp-@@ 18
vp@@ 18
vtow 18
vwc@@ 18
w-2@@ 18
waterfall 18
watering 18
waterproof@@ 18
wav@@ 18
wave110 18
wax@@ 18
weide 18
weijl 18
weird 18
weld 18
weng 18
whisper 18
wig@@ 18
wo 18
wol@@ 18
wr 18
wt@@ 18
x30 18
xa2 18
xv 18
yb@@ 18
yh@@ 18
yin 18
yong 18
youtheory 18
yt-228 18
yuja 18
zel@@ 18
zelda 18
zeta 18
zhiyun 18
zipp@@ 18
zon@@ 18
𝐂@@ 18
𝐋@@ 18
'd 17
'll 17
-37 17
-50@@ 17
-e@@ 17
-m@@ 17
-off 17
-shirt 17
.luckycharm 17
0-6@@ 17
000mg 17
056 17
0m 17
1-10 17
1.0mm 17
1.2g 17
1.5cm 17
1.75 17
1.75@@ 17
1.77 17
1003 17
104@@ 17
1102 17
115g 17
124@@ 17
127@@ 17
1400@@ 17
140x@@ 17
148@@ 17
15s 17
167@@ 17
16a 17
175@@ 17
18-135 17
18-24m 17
187@@ 17
18oz 17
1986 17
20x30 17
2200mah 17
227@@ 17
22k 17
232@@ 17
25000mah 17
2500@@ 17
250grams 17
25mg 17
27-@@ 17
277 17
292@@ 17
30days 17
30x30cm 17
31-36 17
3200@@ 17
320ml 17
340ml 17
359 17
372 17
3mos 17
4-pc 17
4.8 17
440 17
470 17
470@@ 17
4color 17
5-8 17
5050 17
561 17
565 17
57mm 17
6-piece 17
600mg 17
658 17
670 17
690@@ 17
6in 17
6n1 17
726 17
728 17
732 17
760 17
788 17
7kg 17
8-2 17
8.4 17
800mah 17
817 17
860@@ 17
887 17
888s 17
889 17
9000 17
9082 17
912 17
92-@@ 17
960 17
970 17
998 17
a-z 17
a12 17
a19@@ 17
a536 17
abbey 17
absolute 17
acerola 17
acle 17
adobe 17
aer@@ 17
ageing 17
agri@@ 17
aids 17
airpod 17
alex107 17
ali-@@ 17
alisa 17
amerilock 17
ampli@@ 17
ana@@ 17
andrew 17
ante@@ 17
antiradiation 17
aphone 17
arkham 17
armak 17
aromat@@ 17
aromatic 17
arowana 17
astic 17
astr@@ 17
attraxion 17
aus 17
authentic. 17
availa@@ 17
avatar 17
aviation 17
b5@@ 17
bagong 17
bait 17
balan@@ 17
bao@@ 17
batgirl 17
bavin@@ 17
beauplus 17
beautic 17
begins 17
bg-@@ 17
bibli@@ 17
bilyaran 17
biodegradable 17
biogenic 17
birch 17
bloks 17
bloomer 17
bobber 17
botto@@ 17
bouncing 17
bouncy 17
boundaries 17
bowler 17
brv 17
bubbly 17
bud 17
buffalo 17
c10@@ 17
cabbage 17
cafele 17
caliburn 17
capture 17
carbonated 17
carle 17
carlo 17
cb-@@ 17
cb0@@ 17
celeste 17
cellulite 17
centric 17
cera 17
ceuticals 17
chai 17
chalis 17
chao@@ 17
charge@@ 17
charmed 17
cheri@@ 17
cheron 17
chet 17
chol@@ 17
chon@@ 17
ciara 17
cie 17
cleans@@ 17
cleavage 17
clicker 17
clipboard 17
clothes@@ 17
clothing@@ 17
club@@ 17
cluster 17
cogs 17
cold-shoulder 17
colli@@ 17
colouring 17
compu@@ 17
cony 17
cookbook 17
coolwater 17
cote 17
cr-v 17
creamery 17
creeper 17
crocker 17
curious 17
d- 17
d-link 17
dating 17
daze 17
dc12v 17
dead@@ 17
dec@@ 17
dela 17
deliver 17
denture 17
depil@@ 17
dev@@ 17
develo@@ 17
diab@@ 17
diabe@@ 17
dige@@ 17
dinem 17
discs 17
dkc 17
dockers 17
doreamon 17
dork 17
dormitory 17
dresser 17
drives 17
dson 17
dumb@@ 17
during 17
e7@@ 17
eat@@ 17
eating 17
economy 17
edu@@ 17
ela@@ 17
elantra 17
elba 17
electroly@@ 17
elementary 17
emporio 17
endurance 17
esse 17
ete 17
eucerin 17
exos 17
expiration 17
extr@@ 17
extraordinary 17
eyemask 17
fame 17
fang 17
fashioned 17
fds 17
federal 17
fern-activ 17
ffff@@ 17
figlia 17
flaps 17
flatware 17
flox 17
force1 17
fp 17
freesocks 17
fron@@ 17
fume 17
ga700 17
gaiman 17
galvanized 17
gba 17
geisha 17
gen2 17
gender 17
georgina 17
gged 17
gho@@ 17
giga 17
gingerbread 17
glo 17
gma 17
gogo 17
gowns 17
gr8@@ 17
grains 17
grille 17
gripo 17
grisham 17
gross 17
growing 17
gry@@ 17
guine@@ 17
gulong 17
gutterless 17
gx-@@ 17
h2o 17
h7 17
hai 17
haier 17
hama 17
harle@@ 17
hart 17
haruki 17
harvey 17
hb-@@ 17
hbk 17
hit@@ 17
hiti 17
hold@@ 17
hot-@@ 17
howard 17
huayu 17
hudson 17
humid@@ 17
hypo@@ 17
ier 17
ijoy 17
ilike 17
ilo@@ 17
impressions 17
in-one 17
in2@@ 17
inchs 17
inclined 17
include 17
inox 17
inpired 17
instinct 17
insu@@ 17
integr@@ 17
iphone11promax 17
isabel 17
isabella 17
iser 17
isopro@@ 17
ista@@ 17
ith@@ 17
iwata 17
izone 17
j6@@ 17
jag@@ 17
jal@@ 17
jamie 17
jeansame 17
jeep@@ 17
jeff@@ 17
jegging 17
jinghao 17
job 17
jockey 17
jor@@ 17
joyfeel 17
juana 17
jumperskirt 17
juven@@ 17
k4 17
k53@@ 17
kal 17
kami@@ 17
karate 17
katherine 17
kawa@@ 17
keeping 17
kenpa@@ 17
kimb@@ 17
kiyo@@ 17
kki 17
kool 17
koyo 17
kracie 17
krist@@ 17
kst 17
kun@@ 17
kv@@ 17
kw-3@@ 17
kwan 17
kylo 17
l-4@@ 17
l-glutapower 17
label@@ 17
lable 17
ladie@@ 17
laga 17
lali@@ 17
lancets 17
law@@ 17
laying 17
leaders 17
legged 17
lence 17
lent 17
lenticular 17
leon@@ 17
ler@@ 17
leslie 17
lettes 17
ley@@ 17
lif@@ 17
linkin 17
listerine 17
living@@ 17
lized 17
llers 17
lng 17
loe 17
lomo 17
lons 17
lootbag@@ 17
lot@@ 17
lt-@@ 17
luc@@ 17
lumiere 17
lustre 17
m14 17
magneto 17
mala@@ 17
male@@ 17
malibu 17
mamamoo 17
mani 17
mariel 17
marley 17
mato@@ 17
mavericks 17
mcdonald 17
mecha 17
megas@@ 17
meguiar 17
melo@@ 17
melting 17
mem@@ 17
mercedes 17
meron 17
meur 17
microblading 17
mikaela 17
mincer 17
miranda 17
mmi 17
mmmm@@ 17
mobilio 17
moi@@ 17
moni@@ 17
moo 17
mor 17
motorcyle 17
multiway 17
murayta 17
n5@@ 17
neg@@ 17
nels 17
new. 17
newbor@@ 17
nexus 17
nhc-@@ 17
nial 17
nico@@ 17
nine@@ 17
nino 17
nurture 17
nutritious 17
nv@@ 17
nwb 17
obi 17
ogx 17
oids 17
oot@@ 17
opened 17
oran 17
organiser 17
over-the-ear 17
ovleng 17
p10plus 17
p1zbac@@ 17
pabder 17
pac 17
palmer 17
panels 17
paperdolls 17
parfume 17
part@@ 17
patchouli 17
pati@@ 17
pcs-@@ 17
pedals 17
peel-off 17
pegs 17
peice 17
pein 17
pellets 17
penta@@ 17
perforated 17
pict@@ 17
piece@@ 17
pill@@ 17
pinstripe 17
pis 17
placing 17
planting 17
plextone 17
plin 17
plus2018 17
pocket@@ 17
pogi 17
posite 17
potions 17
preservation 17
prices 17
primrose 17
promag@@ 17
proof@@ 17
proto@@ 17
psal 17
puni@@ 17
purely 17
pus 17
puto 17
pwede 17
pz@@ 17
q18@@ 17
qa@@ 17
qposket 17
quadcore 17
rabb@@ 17
raffled 17
ragusa 17
ramgo 17
rap 17
rc-0@@ 17
refresher 17
refurbi@@ 17
reishi 17
rena 17
reno6.4 17
revitalisor 17
revol@@ 17
rhy@@ 17
rico@@ 17
rooster 17
rosal@@ 17
rrrr@@ 17
rrx 17
rs8 17
russia 17
rv@@ 17
rw 17
rz 17
s.h.figuarts 17
sadi@@ 17
sakur@@ 17
salomon 17
salsa 17
sam. 17
sandra 17
saniti@@ 17
saucony 17
sca 17
scor@@ 17
screw@@ 17
seachem 17
seasonal 17
secre@@ 17
sedu@@ 17
sehun 17
selling@@ 17
senda 17
sexyback 17
shank 17
sharpshooter 17
shee 17
shir 17
shoerack 17
shoes. 17
shopbillie2 17
shopee.ph 17
siamese 17
side-@@ 17
silver-@@ 17
simon 17
simpli@@ 17
sinan@@ 17
sj4000 17
skat@@ 17
sle 17
sleepsack 17
sliced 17
smatree 17
smell 17
smoothness 17
smpac 17
smy@@ 17
snapdragon 17
snor@@ 17
so-@@ 17
solder 17
soother 17
sorter 17
sour@@ 17
spa@@ 17
spanner 17
speaker@@ 17
sphygmo@@ 17
spra@@ 17
spritz 17
spun 17
squire 17
sricam 17
ssam@@ 17
stages 17
stallion 17
state@@ 17
status 17
stay@@ 17
step-@@ 17
stling 17
stren@@ 17
stride 17
stro 17
stuffs 17
sues 17
sumikko 17
sun-@@ 17
sunshade 17
supper 17
surfer 17
surprezza 17
suzanne 17
sweetened 17
t6@@ 17
tactics 17
tamar@@ 17
tanga 17
tanjun 17
tank@@ 17
taped 17
tcl 17
techni@@ 17
techno 17
tempered@@ 17
tgph 17
theon 17
thumb@@ 17
tigernu 17
tol 17
top. 17
toxic 17
trans 17
transi@@ 17
traps 17
trave@@ 17
trials 17
trick 17
triu@@ 17
tropic 17
tsuki@@ 17
tsumtsum 17
ttings 17
tunnel 17
twinkle-fashion 17
twix 17
tyk 17
ulike 17
ultraman 17
univers@@ 17
useful 17
uskin 17
uv400 17
vali@@ 17
variations 17
vcd 17
vector 17
veroni@@ 17
vf 17
vheauty 17
vic@@ 17
video@@ 17
vivi@@ 17
vocal 17
w100 17
wait 17
wanderlust 17
wands 17
wb@@ 17
webber 17
weed 17
went 17
wj@@ 17
wmns 17
wolf@@ 17
women- 17
worksheet 17
wp 17
wristlets 17
wt-@@ 17
ww 17
x100 17
xxx 17
y7p 17
yah@@ 17
yj@@ 17
yuyu 17
z.@@ 17
z00@@ 17
z5x 17
zan 17
zb601kl 17
zoids 17
zom@@ 17
𝐄@@ 17
𝐑@@ 17
𝐢@@ 17
𝐫@@ 17
'hermes 16
---@@ 16
-17 16
-8 16
-gold 16
-selling 16
.7 16
0.4 16
037 16
052 16
1-2y 16
1-9 16
1.3grams 16
1.4g 16
1.7l 16
1.9 16
1018 16
102@@ 16
110-@@ 16
11a 16
12.12 16
120gb 16
120w 16
127g 16
128g 16
12mp 16
12t 16
135ml 16
140ml 16
14inch 16
15000mah 16
1500rpm 16
150w 16
15l 16
17x@@ 16
18-55mm 16
195@@ 16
1982 16
1988 16
2-3y 16
2.3 16
200m 16
2016@@ 16
20180422@@ 16
21-@@ 16
220cm 16
230g 16
24inches 16
25a 16
26mm 16
276 16
279 16
284 16
286 16
28pcs 16
295 16
296 16
2nd@@ 16
2w 16
3-4y 16
3. 16
30a 16
30l 16
31-3@@ 16
31-@@ 16
356 16
35a 16
373 16
388 16
391 16
392 16
40-44 16
4000@@ 16
403 16
428-4@@ 16
449 16
465 16
46cm 16
4w 16
50mg 16
53-@@ 16
558 16
591 16
6-2 16
6-inch 16
6.8 16
615 16
619 16
621ml 16
623 16
650w 16
660 16
690 16
6900@@ 16
7-9 16
70s 16
752 16
768 16
790@@ 16
7gplus 16
8001 16
8017 16
80th 16
810@@ 16
824@@ 16
852 16
865@@ 16
878@@ 16
8ft 16
904 16
90x@@ 16
930@@ 16
95-@@ 16
978 16
986 16
991 16
9cm 16
9inch 16
9th 16
a500@@ 16
a82018 16
absorbing 16
ac1200 16
acacia 16
accordion 16
achable 16
acro@@ 16
adamantine 16
adi 16
adora 16
advan 16
age-@@ 16
agi@@ 16
aikas 16
aj1 16
alam 16
alam@@ 16
alan 16
alicia 16
alisgp 16
alizing 16
allison 16
almera 16
alternat@@ 16
amansi 16
amine 16
amit@@ 16
anais 16
anera 16
angelo 16
apartment 16
applicable 16
arte 16
ary@@ 16
arya 16
ased 16
aser 16
ashitaba 16
aspirator 16
assault 16
assistant 16
at-@@ 16
atelier 16
atsu 16
attachment 16
atten@@ 16
attr@@ 16
auxis 16
avene 16
aw-@@ 16
axial 16
b-complex 16
b12@@ 16
b6 16
b7 16
bab@@ 16
bacolod 16
bagsak 16
balck 16
balloons-@@ 16
bareminerals 16
barn 16
bas 16
batmobile 16
batt 16
batter@@ 16
battery-@@ 16
bent 16
bestprice 16
bestsellers 16
bikinis 16
bishi 16
blackboard 16
blood@@ 16
bluetooth@@ 16
blutooth 16
boardbook 16
boarder 16
bos 16
boxin 16
boye 16
brad@@ 16
brallette 16
bran 16
brey 16
brick@@ 16
briefcase 16
brio 16
brittle 16
buffer 16
bulgarian 16
bullets 16
burnt 16
bwc 16
c2@@ 16
ca8io 16
caly@@ 16
camelback 16
camoufla@@ 16
canola 16
carol@@ 16
caroline 16
carry@@ 16
carving 16
cary 16
case3 16
casey 16
casual@@ 16
cavendish 16
cch 16
ccino 16
ccl 16
cco 16
celyn 16
cervi@@ 16
cgm 16
charged 16
cheer 16
chenille 16
chestnut 16
chless 16
chlo@@ 16
choc 16
chocovron 16
chon 16
cit 16
classification 16
cleopatra 16
cles 16
clone 16
clyde 16
cmos 16
cod-new 16
cod.perfume 16
coffe@@ 16
cog@@ 16
cogn@@ 16
contemporary 16
coolmax 16
cop@@ 16
corpor@@ 16
cosy 16
counter@@ 16
cran@@ 16
crazy@@ 16
creatine 16
crimping 16
crocband 16
crop-@@ 16
crosswind 16
cruci@@ 16
cture 16
culti@@ 16
cupcakes 16
cursive 16
d7 16
dac@@ 16
dakimakura 16
dalfour 16
dani 16
daytime 16
dbj 16
ddk 16
ddr2 16
ddr@@ 16
demin 16
derail@@ 16
derm@@ 16
dian@@ 16
differen@@ 16
diluted 16
divergent 16
dodo 16
doggie 16
doily 16
dona 16
dood@@ 16
dope 16
double@@ 16
drinker 16
dropping 16
drug 16
duke 16
dyse 16
e1-4@@ 16
earpiece 16
easter 16
ed. 16
edit 16
edition@@ 16
eff@@ 16
egyptian 16
eleanor 16
electronics 16
enter@@ 16
envelop 16
equi@@ 16
er- 16
ergo 16
erika 16
erson 16
es. 16
esan 16
eti@@ 16
exodus 16
exploding 16
exq 16
ext 16
extention 16
fannyfashion 16
farm@@ 16
features 16
fem@@ 16
fibers 16
filip@@ 16
finery 16
fizz 16
flameless 16
flan 16
flax 16
forces 16
fore 16
forged 16
format 16
formen 16
foxy 16
francine 16
frosting 16
frp 16
fton 16
fuck 16
funky 16
fv@@ 16
g-7@@ 16
g32@@ 16
gangster 16
garden@@ 16
gari 16
gauntlet 16
ge-@@ 16
gelato 16
gl-@@ 16
glare 16
glen@@ 16
glider 16
glutami@@ 16
goldpawnablesplcodgenuine100 16
goldzan 16
goodies 16
gooseneck 16
goth 16
grace@@ 16
gravy 16
greens 16
gs-@@ 16
gus@@ 16
gusto 16
h2 16
habit 16
hacksaw 16
hairtie 16
hamburger 16
handicraft 16
handpainted 16
haplas 16
harden@@ 16
hasp 16
havi@@ 16
heel@@ 16
hella 16
herbench 16
hero5 16
hf-@@ 16
hf@@ 16
hm@@ 16
hp-@@ 16
hua@@ 16
hudab@@ 16
humble 16
hummingbird 16
hurry 16
husband 16
husk 16
hv@@ 16
hy 16
hype 16
i-fern 16
icure 16
ila@@ 16
impre@@ 16
ind 16
inner@@ 16
insp@@ 16
iran 16
iridescent 16
isabelle@@ 16
itama 16
itters 16
izer 16
j1mini@@ 16
j72015 16
jail@@ 16
jakarta 16
jas 16
jdi 16
jenny@@ 16
jessy 16
jewelry925silver 16
jho@@ 16
jima 16
jit@@ 16
joel 16
jona 16
jou 16
jou@@ 16
js-@@ 16
jzsale 16
k5@@ 16
kad 16
kangaroo 16
karimadon 16
kathleen 16
kenwood 16
khm 16
kiera 16
kilay 16
kill@@ 16
kindle 16
kite 16
konektopshop 16
kru@@ 16
l-xxl 16
lacto@@ 16
lad 16
lannister 16
lansinoh 16
lapis 16
lariat 16
lazer 16
le. 16
ledge 16
legal 16
lex@@ 16
lga 16
lipo@@ 16
lippy 16
liquor 16
listic 16
literary 16
literature 16
litt@@ 16
liz@@ 16
ljy@@ 16
log@@ 16
longdress 16
loo 16
lore@@ 16
lq-@@ 16
lug@@ 16
luminarc 16
luxxewhite 16
lz 16
mabuhay 16
mack 16
madeline 16
magnifying 16
makeover 16
mangoes 16
manometer 16
manu@@ 16
maro@@ 16
masculine 16
mastermind 16
mbing 16
mbo 16
meeting 16
meike 16
mermai@@ 16
meter@@ 16
metrocity 16
mgs-@@ 16
microfibre 16
midea 16
midori 16
minor 16
mirrors 16
misb 16
mizu@@ 16
mj001 16
mk3@@ 16
mm. 16
mmy@@ 16
moc 16
mocking@@ 16
moleskine 16
monday 16
mosqu@@ 16
mper@@ 16
multi-surface 16
multifun@@ 16
musi@@ 16
must@@ 16
nam 16
naru@@ 16
nbody 16
neodymium 16
neroli 16
non-gmo 16
nor 16
nouri@@ 16
nowitzki 16
nvme 16
nvr 16
nxt 16
oct 16
officejet 16
oflex 16
oma 16
onda 16
onette 16
onlinestore 16
ontz 16
opti 16
orn 16
oscill@@ 16
ouch 16
oxidizing 16
paki@@ 16
palace 16
park@@ 16
parklight 16
passionate 16
pbb 16
peed 16
perspirant 16
petti@@ 16
pharma 16
phyl 16
pillow@@ 16
pipe@@ 16
pitch 16
playground 16
pment 16
poko 16
polycarbonate 16
pororo 16
posket 16
posse@@ 16
post-it 16
powerplus 16
premuim 16
presyo 16
prince@@ 16
proud 16
ptor 16
purito 16
r.s.g.w 16
rainproof 16
ran 16
rap@@ 16
ratings 16
realfire 16
reaper 16
rece@@ 16
reen 16
reflect@@ 16
reme@@ 16
result 16
retailmnl 16
retin@@ 16
rhimarose 16
ridge 16
ritz 16
rivers 16
rondoletti 16
rouser135 16
rt@@ 16
rudy 16
rusi@@ 16
ryj 16
s-26 16
s2@@ 16
s90@@ 16
safari@@ 16
sago 16
sake 16
saltnic 16
samsung@@ 16
sasa 16
sash 16
scarves 16
screenprotector 16
seaweeds 16
seed@@ 16
semi-formal 16
separately 16
shabby 16
shakespeare 16
shawn 16
shino@@ 16
shire 16
shirley 16
shoo@@ 16
shops 16
shouder 16
shr@@ 16
signpen 16
sili 16
singlepuff 16
sion-@@ 16
size6 16
sj5000 16
skittles 16
skylinker 16
sli 16
sliders 16
sn-@@ 16
softex 16
somjin 16
sorella 16
south@@ 16
souvin@@ 16
sparkplug 16
spf40 16
sph@@ 16
sphag@@ 16
spices 16
spy@@ 16
squared 16
ssing 16
stamper 16
steamboat 16
steelseries 16
str 16
straighten@@ 16
sulley 16
summ@@ 16
surfing 16
swissgear 16
sws 16
sylvanian 16
syma 16
t530 16
tail@@ 16
tappet 16
tazanna 16
teaching 16
teaser 16
technic 16
tekken 16
tenda 16
tenga 16
thank@@ 16
thinking 16
thouse 16
ti-@@ 16
titan@@ 16
tite@@ 16
tly 16
tmx125 16
toecap 16
toki 16
toki@@ 16
tongs 16
trafal@@ 16
tranexamic 16
transit 16
trendsetter 16
tres 16
tri-fold 16
trophy 16
tte@@ 16
tted 16
tvi 16
tweety 16
tyl 16
tyr 16
u1 16
u2 16
ua@@ 16
uhs-1 16
ulifeshop 16
un-@@ 16
uncanny 16
unda 16
undere@@ 16
ush@@ 16
uts 16
uwell 16
v20 16
vagi@@ 16
vanni 16
ve-@@ 16
velo@@ 16
veria 16
verses 16
victorinox 16
vik@@ 16
vincent 16
viola 16
vivobook 16
vl 16
vv@@ 16
vx 16
w-30 16
w1 16
waway 16
wee@@ 16
west@@ 16
westinghouse 16
whitegold 16
wid@@ 16
wide@@ 16
winker 16
winning 16
wm 16
woodworking 16
writ@@ 16
wunder@@ 16
x125 16
x27 16
xc 16
xl-4xl 16
xp-@@ 16
xs-3xl 16
y-pad 16
yamang 16
yard@@ 16
yasuy 16
yee@@ 16
ylang 16
yle 16
yol@@ 16
yong@@ 16
yoo@@ 16
youtube 16
yp 16
zan@@ 16
zashoppe 16
zb500@@ 16
zb555kl 16
zd553kl 16
ze552kl 16
ᄂ@@ 16
＋ 16
-2a 15
-44 15
-48 15
-core 15
.h 15
.mxr 15
0-9 15
0006 15
1-20 15
1. 15
1.1grams 15
1.3kg 15
100mbps 15
1016 15
1024@@ 15
11.6 15
11cm 15
12.5 15
1288 15
12vdc 15
12yo 15
13g 15
14i@@ 15
150mbps 15
17inch 15
18-24mos 15
180mm 15
18ksaudigold 15
1997-@@ 15
19v@@ 15
2-tone 15
2018-2019 15
20184@@ 15
2023 15
20d 15
220mm 15
22g 15
23-@@ 15
23g 15
248 15
250mic 15
255@@ 15
25c 15
25s 15
25th 15
263 15
28g 15
291 15
297 15
2ds 15
2inches 15
3- 15
313@@ 15
314 15
320gb 15
332@@ 15
334@@ 15
341 15
3500 15
375g 15
380g 15
3months 15
3ways 15
4-2@@ 15
409 15
425 15
441 15
44mm 15
456 15
468 15
473 15
48-@@ 15
4colors 15
5-inch 15
5.00 15
5.1 15
5.1a 15
5020 15
513@@ 15
525 15
528 15
557 15
574 15
574@@ 15
58cm 15
5ply 15
6-12@@ 15
6.3 15
607 15
63mm 15
6500@@ 15
661 15
673 15
6pcs-12pcs 15
7-12 15
70gsm 15
711@@ 15
715 15
740 15
745 15
747 15
767store 15
770@@ 15
790k 15
79store 15
7c 15
8.5x@@ 15
812 15
813 15
884 15
8c 15
8d 15
8pc 15
921 15
933 15
950ml 15
951 15
96-@@ 15
966 15
980 15
981 15
992@@ 15
993 15
9mm 15
9to@@ 15
a1@@ 15
a88@@ 15
aaaa 15
aape 15
abaya 15
abras@@ 15
ac-hd@@ 15
aco@@ 15
acts 15
ad-link 15
adar@@ 15
adjust@@ 15
adr 15
agv 15
ahi@@ 15
air1 15
akashi 15
akh 15
aki@@ 15
alk@@ 15
amas 15
amen@@ 15
amer 15
ampu@@ 15
amy@@ 15
analyn 15
androi@@ 15
anizer 15
anpanman 15
ant-man 15
anxiety 15
aph 15
apolo@@ 15
aquaman 15
aquarius 15
arabian 15
aran@@ 15
argy@@ 15
aritaum 15
armature 15
aromagi@@ 15
arrived 15
artsy 15
asd 15
asp@@ 15
assi 15
asst@@ 15
atc 15
atomiz@@ 15
attendance 15
attitude 15
aus@@ 15
availability 15
avante 15
awg 15
awra 15
b20 15
bache@@ 15
baking@@ 15
balms 15
bandouliere 15
basa 15
basi@@ 15
baskets 15
baso 15
bayong@@ 15
bd 15
bei@@ 15
bejewelled 15
bela 15
beren@@ 15
beret 15
berlin 15
berry@@ 15
bial 15
bie@@ 15
bing@@ 15
bingo 15
biof@@ 15
biotic 15
birthdays 15
bladder 15
bladeless 15
blanche 15
blessings 15
blind@@ 15
boardshort 15
body-@@ 15
boku 15
bonjour 15
bosi 15
botanicals 15
brianwallpaper 15
brilli@@ 15
broad@@ 15
broadband 15
bronzing 15
brooks 15
bruce 15
bss 15
bst@@ 15
bt0@@ 15
btm-@@ 15
bunch 15
burp 15
c.c 15
c5@@ 15
cabochon 15
caffe 15
cai 15
calli@@ 15
cally 15
camino 15
capri@@ 15
carica 15
carmat 15
carou@@ 15
case- 15
castor@@ 15
cathkidston 15
catrice 15
caul@@ 15
ccc 15
celerio 15
celeron 15
cellet 15
chained 15
charac@@ 15
charmee 15
chat@@ 15
chies 15
choices 15
christine 15
cine@@ 15
cino 15
circus 15
citi@@ 15
cken 15
clash 15
claudia 15
cleats 15
cleo 15
cloak 15
closet@@ 15
clou@@ 15
coca-cola 15
cock@@ 15
cofee 15
coffee@@ 15
coinbank 15
cold-pressed 15
colonia 15
column 15
combos 15
comfor@@ 15
compartments 15
concealed 15
conceptual 15
cons 15
constru@@ 15
conta@@ 15
cop 15
cordy@@ 15
coriander 15
cosmo 15
cosmo@@ 15
cpp 15
cr2032 15
craftlab 15
crisper 15
croptops 15
cultural 15
cyc@@ 15
czy 15
daniella 15
darkblue 15
darna 15
daug@@ 15
daugh@@ 15
davidson 15
decad@@ 15
deci@@ 15
dest 15
detailer 15
dez 15
dfc 15
diag@@ 15
die-cut 15
dim 15
dirk 15
disci@@ 15
dishes 15
disneyland 15
displayport 15
donal@@ 15
doo@@ 15
doogee 15
dorbz 15
dori@@ 15
dsa 15
dude 15
dumbb@@ 15
dunlop 15
duralite 15
durian 15
dxf 15
dyn@@ 15
dynamics 15
edge@@ 15
edges 15
edo 15
ef-@@ 15
eki 15
elife 15
ellana 15
ellese 15
elmer 15
elvive 15
embo@@ 15
embosser 15
embrace 15
enlar@@ 15
enlarged 15
ental 15
erd 15
everbilena 15
eving 15
ewa 15
ex-@@ 15
exerciser 15
exo-@@ 15
expl@@ 15
explore 15
exposed 15
eyed@@ 15
facemasks 15
fairies 15
fanmade 15
fantas@@ 15
fashio 15
fastener 15
feat@@ 15
fen 15
fh 15
fibre 15
fibre@@ 15
flasher 15
flax@@ 15
flexstick 15
flies 15
flir@@ 15
floodlight 15
flori@@ 15
floure@@ 15
flouride 15
folic 15
formation 15
fragr@@ 15
francis 15
fre 15
fter 15
fukusawa 15
g2000 15
g50@@ 15
gav@@ 15
gayle 15
gfo@@ 15
gig 15
gintama 15
git 15
glamskin 15
glitter@@ 15
glycerin 15
glycerine 15
gold-@@ 15
goosebumps 15
gplus 15
gran 15
grim 15
grind 15
gtr 15
gucci@@ 15
guia 15
guitars 15
gum@@ 15
guri 15
handbook 15
handle@@ 15
hazel@@ 15
headwrap 15
hi-leg 15
hig@@ 15
high-heeled 15
highchair 15
holder@@ 15
hoola 15
hoya 15
htt@@ 15
https 15
hummer 15
hydrate 15
hyyh 15
i6 15
ial 15
iam 15
ians 15
idrinks 15
ie-@@ 15
igold 15
iled 15
ilovepilipinas 15
ima@@ 15
infan@@ 15
infe@@ 15
infuser 15
injector 15
inking 15
instamu@@ 15
insur@@ 15
inten@@ 15
intere@@ 15
ipen 15
iphone4g 15
ipl 15
iq@@ 15
iro@@ 15
iron-on 15
isol@@ 15
ital 15
italia 15
itis 15
j105 15
j110 15
jacket@@ 15
jak@@ 15
jav@@ 15
jerhigh 15
jerky 15
jessa 15
jewelry@@ 15
jouer 15
jsn@@ 15
jt@@ 15
juliet 15
jys 15
k-on 15
kaf@@ 15
kalas 15
kali 15
kalinga 15
kapaver 15
karla 15
kaya 15
kei 15
ketchup 15
keyhole 15
kiki 15
kiko 15
kimmy 15
kiss@@ 15
kissable 15
kity 15
kki@@ 15
koya 15
kutis 15
l2 15
l8@@ 15
lahat 15
laser@@ 15
layering 15
lce 15
leav 15
legging@@ 15
lele 15
lenn 15
lever@@ 15
lga1151 15
lgbt 15
lide 15
lifan@@ 15
lifestyles 15
lillard 15
limitless 15
lique 15
littles 15
lium 15
llium 15
llll@@ 15
loader 15
loam 15
logan 15
lovcat 15
lozen@@ 15
lubricating 15
luma 15
lumee 15
lumen 15
lumi@@ 15
lustrous 15
m-a 15
madame 15
madonna 15
magician 15
maillot 15
majesty 15
makecua 15
maki 15
makinis 15
manic 15
maped 15
marina 15
markdown 15
marte 15
marvelous 15
mate20@@ 15
mate30@@ 15
mbox 15
medium@@ 15
megabass 15
megapi@@ 15
menu 15
mercy 15
meridian 15
michelis 15
mideer 15
mil 15
mini1 15
mline 15
mmy 15
mobile-@@ 15
modelling 15
momo@@ 15
money@@ 15
monge 15
more@@ 15
motard 15
muay 15
mur 15
mute 15
n-strike 15
n7100 15
nach@@ 15
nah 15
ne-@@ 15
new-@@ 15
next@@ 15
nezuko 15
nfc 15
nichi@@ 15
nier 15
nighty 15
nit 15
nlt 15
no1 15
nozzles 15
nsw 15
num 15
nutra@@ 15
occassions 15
och@@ 15
octa 15
oki 15
oll 15
omi 15
orbit 15
orchi@@ 15
ord 15
organization 15
orgasm 15
orihiro 15
orland@@ 15
orse 15
ortho@@ 15
our@@ 15
owls 15
oxy@@ 15
pacifiers 15
palamig 15
partum 15
patri@@ 15
patriot 15
patron 15
pawnble 15
pawpatrol 15
pebbled 15
pediat@@ 15
pentagon 15
pentair 15
perfume@@ 15
perming 15
peroxide 15
phy 15
physi@@ 15
physio@@ 15
pilip@@ 15
pilots 15
ping@@ 15
pinkie 15
pint 15
piper 15
pistachio 15
pits 15
piu 15
pixi@@ 15
pj@@ 15
pk-@@ 15
politan 15
ponytails 15
potat@@ 15
potting 15
powders 15
premix 15
presario 15
prima@@ 15
pro.@@ 15
proc@@ 15
process 15
professor 15
prop 15
prostate 15
provi@@ 15
psycho@@ 15
pt-@@ 15
pulp 15
pumice 15
puti 15
px 15
pz 15
qr 15
quaker 15
rae 15
raiders 15
rangers 15
rd-@@ 15
receptacle 15
recommended 15
reconstru@@ 15
red-@@ 15
redminote@@ 15
reed 15
regul@@ 15
reina 15
rele@@ 15
repel@@ 15
replac@@ 15
replace@@ 15
rera 15
rev 15
rhythm 15
rig 15
rims 15
rina 15
root@@ 15
rosehips 15
rot@@ 15
roun@@ 15
rowell 15
rtec 15
rubberize 15
rubics 15
ruff@@ 15
saina 15
sale.@@ 15
samra 15
sans@@ 15
sarong 15
saucers 15
scarminator 15
scentio 15
scrubs 15
scuba 15
sculpture 15
scythe 15
sedi@@ 15
seg@@ 15
servo 15
sg-@@ 15
shading 15
sheena 15
shiela 15
shiwn 15
shments 15
shoemate 15
shoppers 15
shou@@ 15
shredded 15
shs 15
shuttle 15
simm@@ 15
sio@@ 15
sip 15
skate@@ 15
skill 15
sleeveles 15
slotted 15
small- 15
smoother 15
soar 15
soci@@ 15
softcase 15
softcover 15
softw@@ 15
soled 15
soside 15
span 15
spawn 15
spect@@ 15
spf45 15
spiritual 15
splat@@ 15
splgenuine100 15
splice 15
springfield 15
sprint 15
ssamjang 15
ssance 15
ssp@@ 15
stant 15
stat 15
stat@@ 15
stem@@ 15
stenci@@ 15
stered 15
sterilization 15
stille@@ 15
stion 15
stique 15
store@@ 15
stoys 15
stretchmark 15
submarine 15
sugar-free 15
sul 15
sunray 15
surgitech 15
survivor 15
swagger 15
swat 15
t-pho@@ 15
tage 15
taking 15
taku 15
tam 15
tammy 15
tanako 15
tatting 15
team@@ 15
teme@@ 15
ter-@@ 15
terre 15
tet 15
thebalm 15
there@@ 15
thinning 15
thorn 15
thrill 15
tn-@@ 15
toi@@ 15
top- 15
tourister 15
toyo 15
tractor 15
trailer 15
tread@@ 15
triske@@ 15
tru 15
try@@ 15
tua 15
tuf 15
ture@@ 15
tures 15
tyjewelry 15
tyle 15
u3 15
uchi@@ 15
ugly 15
um-@@ 15
underseat 15
unic 15
uniqueka 15
upon 15
upri@@ 15
urinary 15
urium 15
us10 15
us6 15
ux@@ 15
v.2 15
v3.0 15
v4.1 15
valencia 15
vapori@@ 15
varnish 15
vebajaj 15
vege@@ 15
vely 15
vement 15
vh 15
vil@@ 15
vines 15
viscose 15
vitaplus 15
vivibag 15
vix@@ 15
vol.1 15
vv 15
wafers 15
wander 15
wanli 15
wasabi 15
wc 15
wcf 15
weaved 15
wendy 15
wf-@@ 15
whate@@ 15
whisk@@ 15
win10 15
winter@@ 15
witcher 15
wome 15
workers 15
x2@@ 15
xen@@ 15
xion 15
xpost 15
xps 15
y.co 15
y.s 15
y0@@ 15
y9-2019 15
yakisoba 15
yankees 15
yeah 15
yellow@@ 15
yeon 15
yjnl 15
yokai 15
yosi 15
ysa 15
zb50@@ 15
zb551kl 15
zion 15
zor@@ 15
zq@@ 15
𝐍@@ 15
𝐎@@ 15
𝐓@@ 15
----@@ 14
-006 14
-15 14
-20@@ 14
-230 14
-a-@@ 14
-o 14
0-1 14
0.7@@ 14
008@@ 14
00k 14
01-@@ 14
011@@ 14
02-@@ 14
041 14
062 14
0917 14
1.1@@ 14
1.2v 14
1.5a 14
1000g 14
100l 14
109@@ 14
10b 14
10c 14
110mm 14
1130 14
12l 14
1650 14
1701 14
184@@ 14
19.5@@ 14
19.@@ 14
190ml 14
1966 14
2-8 14
2. 14
2.0a 14
200a 14
2010@@ 14
2011-@@ 14
2013-2018 14
20oz 14
2300 14
24oz 14
26-27 14
267 14
289 14
2x1 14
3-3@@ 14
3-8 14
3001 14
30t 14
321 14
33cm 14
34-44 14
343 14
349 14
357 14
368@@ 14
36a 14
375ml 14
382 14
406 14
407@@ 14
40p 14
443 14
445@@ 14
452 14
4x2 14
5.3 14
505@@ 14
511@@ 14
515 14
517 14
5208 14
529 14
588 14
6-10 14
601@@ 14
605@@ 14
613@@ 14
627@@ 14
635 14
640 14
665@@ 14
667 14
672 14
680g 14
69-@@ 14
693 14
6b 14
6kg 14
7.5g 14
709 14
719 14
729 14
755@@ 14
764 14
767 14
780 14
785 14
8003 14
840@@ 14
885 14
899 14
8kg 14
907 14
90mm 14
912@@ 14
918 14
926 14
940@@ 14
946 14
963 14
970@@ 14
997 14
a8-@@ 14
acious 14
acup 14
ada@@ 14
adams 14
adia 14
ahan 14
aime 14
ain@@ 14
ait 14
aiwa 14
alba 14
aliyah 14
allu@@ 14
ally@@ 14
analy@@ 14
angan 14
aning 14
anthology 14
aof@@ 14
apink 14
aq-230@@ 14
assass@@ 14
asso@@ 14
athan 14
atic 14
atlanta 14
atomic 14
atty 14
azure 14
babolat 14
baggage 14
bahay 14
baile 14
bales 14
barbatos 14
barbell 14
barrow 14
bbing 14
bbit 14
bcbg 14
belkin 14
berger 14
bettina 14
beware 14
binaur@@ 14
bleached 14
blister 14
blocked 14
bohemi@@ 14
borne 14
bour@@ 14
br-@@ 14
brad 14
bran@@ 14
brave@@ 14
bravo 14
brs 14
bubble@@ 14
bubi 14
bugatti 14
bump 14
bur 14
c-4@@ 14
c001 14
c01 14
c02 14
c30@@ 14
c3@@ 14
c8@@ 14
cab 14
cake@@ 14
callie 14
capsu@@ 14
carriage 14
cash@@ 14
casting 14
castrol 14
cat5e 14
cath@@ 14
cavali@@ 14
cb125 14
celand 14
champion@@ 14
chang 14
cherries 14
chic@@ 14
chine@@ 14
chlor@@ 14
chr@@ 14
christopher 14
cio 14
cis 14
cities 14
ckk 14
clan 14
classique 14
clut@@ 14
coat@@ 14
coils 14
compet@@ 14
concor@@ 14
contigo 14
contr@@ 14
cooked 14
copen@@ 14
corona 14
cort 14
cottage 14
coul@@ 14
cp-1 14
cpe 14
crash@@ 14
creati@@ 14
creature 14
croft 14
crossed 14
cruel@@ 14
culotte 14
cupid 14
currant 14
curtis 14
cuts 14
dab@@ 14
dah 14
dancer 14
dapper 14
darkness 14
deer@@ 14
dehumidifier 14
deore 14
derella 14
dermabras@@ 14
destroyer 14
diam@@ 14
diff 14
distortion 14
distress 14
dodge 14
dometer 14
dono 14
dragonfly 14
dremel 14
drum@@ 14
dudu 14
duhan 14
dump@@ 14
duo@@ 14
dw-@@ 14
dyed 14
each@@ 14
eas 14
efs 14
ei 14
elai@@ 14
elasticity 14
electrolux 14
eliner 14
elo@@ 14
ency 14
encyclo@@ 14
enix 14
ensemble 14
ente 14
environ@@ 14
ere@@ 14
ergo@@ 14
eri 14
essentielle 14
ev 14
everyone 14
excite 14
fabrics 14
fad@@ 14
fam@@ 14
fang@@ 14
feed@@ 14
ffi@@ 14
fia 14
ficent 14
fiel@@ 14
flocked 14
flourish 14
fluff@@ 14
flytrap 14
footw@@ 14
force@@ 14
forever@@ 14
fps 14
freak@@ 14
frosty 14
fy@@ 14
ga-100 14
garcia 14
gazelle 14
gbps 14
ged 14
gen1 14
ghan 14
ginal 14
ginkgo 14
goose 14
gos 14
gradu@@ 14
granite 14
groove 14
grown 14
gsb 14
gua 14
guadalu@@ 14
guarantee 14
guest 14
guet 14
gump@@ 14
gymn@@ 14
hairdresser 14
hao 14
hardwood 14
hario 14
havit 14
hawai@@ 14
hear 14
hedge@@ 14
helena 14
hhhh@@ 14
highest 14
hive 14
hop@@ 14
hops 14
horiz@@ 14
hs330 14
hugs 14
hx-@@ 14
hydra@@ 14
i9300 14
i9500 14
ibm 14
icase 14
idol@@ 14
igh 14
ign@@ 14
immunity 14
incre@@ 14
indul@@ 14
inferno 14
influ@@ 14
ingo 14
install 14
intelligence 14
iphone7plus 14
irt 14
isse 14
itor 14
izo@@ 14
jab@@ 14
jacqueline 14
jami@@ 14
japan@@ 14
jays 14
jian 14
joh@@ 14
joi@@ 14
jordan@@ 14
josh 14
joshua 14
k70@@ 14
kart 14
kayla 14
keima@@ 14
kens 14
keri 14
kettle@@ 14
kiehls 14
kili@@ 14
kine@@ 14
kirby 14
kitchenaid 14
kkar 14
kko 14
kle 14
kls 14
kol@@ 14
kout 14
kusu 14
lans@@ 14
leader@@ 14
leath@@ 14
leten 14
levin 14
lexar 14
lg@@ 14
liam 14
lica 14
lities 14
lobster 14
logo@@ 14
longbo 14
loren@@ 14
loud@@ 14
lovey@@ 14
ltc 14
lude 14
lumina 14
lumix 14
luster 14
lw@@ 14
m365 14
madness 14
mali@@ 14
mand 14
mango@@ 14
manizer 14
marke@@ 14
marque@@ 14
mature 14
max3 14
mayo 14
mdr-xb@@ 14
medium-@@ 14
mick@@ 14
microusb 14
mikasa 14
mikey 14
mir 14
mira 14
mirrored 14
miumiu 14
mized 14
mizer 14
mlt-@@ 14
mmed 14
mob@@ 14
model@@ 14
molle 14
moodtape 14
moomin 14
motul 14
mps 14
mpy 14
muda 14
multilayer 14
multit@@ 14
munch@@ 14
murder 14
nami@@ 14
nary 14
necess@@ 14
nh 14
ni-@@ 14
nighter 14
nik@@ 14
no.2 14
nubuck 14
nutcracker 14
off-road 14
onesi@@ 14
ooak 14
ool 14
oolong 14
oon 14
ops 14
oray 14
orion 14
orted 14
ote@@ 14
ough 14
ously 14
p6 14
pair@@ 14
palermo 14
pantone 14
patty 14
pepsi 14
perler 14
pico 14
pistol 14
place@@ 14
plate@@ 14
play-doh 14
pogo 14
pon 14
prest@@ 14
primo 14
promotion 14
protable 14
prs 14
pts 14
puffy 14
quer@@ 14
qun@@ 14
qwe@@ 14
r4 14
rabeanco 14
raisins 14
rally 14
ranch 14
rebel@@ 14
redness 14
refe@@ 14
refin@@ 14
reflection 14
rela@@ 14
rem 14
remix 14
rf@@ 14
ricoh 14
rika 14
rk-@@ 14
robinson 14
rolly 14
rome 14
rops 14
rp@@ 14
runaway 14
ryo 14
s-line 14
sain@@ 14
samine 14
santi@@ 14
santo 14
sap 14
sass@@ 14
satur@@ 14
saturday 14
sch 14
sday 14
seam@@ 14
sell@@ 14
serge@@ 14
settle@@ 14
seye 14
shad@@ 14
shang 14
ships 14
shiro@@ 14
silence 14
simo 14
simplicity 14
slant 14
slap 14
smd@@ 14
smudge 14
snoo@@ 14
spag@@ 14
spf20 14
squal@@ 14
sso 14
ssss 14
steady 14
stepper 14
stive 14
stria 14
stripe@@ 14
stuart 14
stylu@@ 14
sunglas@@ 14
sutton 14
swing@@ 14
symbo@@ 14
symmetry 14
symphony 14
tae@@ 14
taffy 14
tarot 14
tau@@ 14
teclas@@ 14
tein 14
tendre 14
terr@@ 14
tini 14
tissot 14
tm-@@ 14
tong@@ 14
topaz 14
tornado 14
towel@@ 14
tp-@@ 14
tpb 14
tpc 14
tradition 14
trapeze 14
treme@@ 14
triple@@ 14
trou@@ 14
trun@@ 14
tutu@@ 14
u-1@@ 14
ub@@ 14
ulo 14
univer@@ 14
unknown 14
unnies 14
us8 14
v5.0 14
valor 14
velocity 14
veno@@ 14
ver.@@ 14
vicky 14
vil 14
vision@@ 14
vixx 14
w-200@@ 14
w6 14
wak@@ 14
warming 14
watch-@@ 14
whim@@ 14
wireless-@@ 14
wit 14
wolves 14
won 14
wwww@@ 14
x0@@ 14
x360 14
xl-@@ 14
xl-xxl 14
xxs 14
y1 14
y91@@ 14
yak 14
yankee 14
yco 14
ykk 14
yoda 14
yon@@ 14
yum 14
z1@@ 14
z4 14
zap@@ 14
zaya 14
zipper@@ 14
zzaro 14
£ 14
ᅩ@@ 14
𝐭@@ 14
-050 13
-08@@ 13
-3.@@ 13
-3000 13
-3a 13
-made 13
-r@@ 13
0011 13
01-0@@ 13
020@@ 13
03-@@ 13
055 13
063 13
066 13
080@@ 13
088 13
1.00 13
1.8g 13
1007 13
1008@@ 13
1009 13
1010@@ 13
1013 13
1030 13
10w40 13
1101 13
1106 13
1170@@ 13
1200w 13
1215@@ 13
12x 13
12y 13
145g 13
160mm 13
165g 13
165ml 13
1801 13
190mm 13
197@@ 13
1u 13
2-7 13
2.2@@ 13
2.5g 13
2012-2015 13
2017-2018 13
2025 13
20t 13
20w@@ 13
22-@@ 13
237ml 13
2400@@ 13
24g 13
25m 13
261 13
293 13
2xu 13
3.8 13
300w 13
329 13
32b 13
344 13
346 13
348 13
35-@@ 13
3500@@ 13
3604 13
360g 13
369 13
377 13
379 13
385 13
398 13
3f 13
3k 13
4-5y 13
4-7@@ 13
40m 13
416@@ 13
440@@ 13
49-@@ 13
4v 13
5-10 13
5-7@@ 13
5-9 13
50a 13
517@@ 13
522 13
526 13
539 13
5500 13
550w 13
553 13
5580 13
55w 13
564@@ 13
59mm 13
6050 13
61-@@ 13
617 13
622@@ 13
65mm 13
664@@ 13
699 13
717 13
717@@ 13
718@@ 13
733 13
735 13
753 13
778 13
799 13
8-1 13
8007 13
816@@ 13
840 13
860 13
870 13
882 13
9-12m 13
9006 13
917 13
925silver 13
928 13
944@@ 13
985 13
990 13
995 13
996 13
a1000 13
a170@@ 13
a18@@ 13
a2dp 13
a515-5@@ 13
aaron 13
abe@@ 13
accur@@ 13
ache@@ 13
adid 13
afri@@ 13
aking 13
alien@@ 13
allstar 13
alpac@@ 13
alpha@@ 13
alpine@@ 13
analysis 13
angie 13
anna@@ 13
antetokounmpo 13
ap-@@ 13
apa 13
archlight 13
argentina 13
arium 13
army@@ 13
asd@@ 13
asin 13
athering 13
atra@@ 13
attraction 13
atum 13
ave 13
aver@@ 13
awakening 13
awe@@ 13
b10 13
b8@@ 13
babi@@ 13
babygap 13
bamb@@ 13
barber@@ 13
bark@@ 13
bati@@ 13
bca@@ 13
beautifully 13
belif 13
bell@@ 13
betta 13
beyou@@ 13
bigz 13
billy 13
biz@@ 13
blythe 13
bode@@ 13
boon 13
border@@ 13
bos@@ 13
bpa@@ 13
brandon 13
braun 13
bren@@ 13
broke 13
bruno 13
butler 13
bv 13
cach@@ 13
cade 13
calculus 13
calypso 13
camer@@ 13
carbonate 13
carpenter 13
cdg 13
cells 13
chanel@@ 13
chara 13
chest@@ 13
chl@@ 13
choi 13
choo@@ 13
ciaga 13
cif 13
colic 13
compre@@ 13
cona 13
conair 13
const@@ 13
continu@@ 13
cork@@ 13
coron@@ 13
cosbaby 13
cott@@ 13
cotton-@@ 13
coupe 13
cra 13
cryst@@ 13
cule 13
cutt@@ 13
d-s@@ 13
d-up 13
d8 13
dae 13
darker 13
dary 13
datsun 13
dazz@@ 13
db-@@ 13
dbi 13
depen@@ 13
derrick 13
deuter 13
dget 13
diablo 13
dida 13
dispen@@ 13
doi@@ 13
dread@@ 13
drew 13
ds-2@@ 13
dt-@@ 13
dutti 13
e.l.f 13
e5-57@@ 13
e5-@@ 13
ean 13
econo@@ 13
edifier 13
edr 13
elastics 13
elvira 13
erio 13
evelyn 13
excalibur 13
excel@@ 13
f11@@ 13
fanclub 13
fantasia 13
fault 13
figur@@ 13
flow@@ 13
found 13
fran 13
fted 13
fts 13
fund@@ 13
gabrielle 13
gato 13
geographic 13
getaway 13
ggay 13
ggles 13
ghibli 13
gian@@ 13
gile 13
glass@@ 13
glutam@@ 13
gmf-@@ 13
go-@@ 13
goes 13
goggle 13
grandista 13
great@@ 13
gsx-@@ 13
gta 13
guys 13
gy-@@ 13
h11 13
haha 13
hammer@@ 13
hannah@@ 13
hardy 13
hc-@@ 13
hdr 13
helios 13
[...]
